{
  "version": "1.0",
  "truncation": null,
  "padding": null,
  "added_tokens": [],
  "normalizer": null,
  "pre_tokenizer": {
    "type": "ByteLevel",
    "add_prefix_space": false,
    "trim_offsets": true,
    "use_regex": true
  },
  "post_processor": {
    "type": "ByteLevel",
    "add_prefix_space": true,
    "trim_offsets": true,
    "use_regex": true
  },
  "decoder": {
    "type": "ByteLevel",
    "add_prefix_space": true,
    "trim_offsets": true,
    "use_regex": true
  },
  "model": {
    "type": "BPE",
    "dropout": null,
    "unk_token": null,
    "continuing_subword_prefix": null,
    "end_of_word_suffix": null,
    "fuse_unk": false,
    "byte_fallback": false,
    "ignore_merges": false,
    "vocab": {
      "Ā": 0,
      "ā": 1,
      "Ă": 2,
      "ă": 3,
      "Ą": 4,
      "ą": 5,
      "Ć": 6,
      "ć": 7,
      "Ĉ": 8,
      "ĉ": 9,
      "Ċ": 10,
      "ċ": 11,
      "Č": 12,
      "č": 13,
      "Ď": 14,
      "ď": 15,
      "Đ": 16,
      "đ": 17,
      "Ē": 18,
      "ē": 19,
      "Ĕ": 20,
      "ĕ": 21,
      "Ė": 22,
      "ė": 23,
      "Ę": 24,
      "ę": 25,
      "Ě": 26,
      "ě": 27,
      "Ĝ": 28,
      "ĝ": 29,
      "Ğ": 30,
      "ğ": 31,
      "Ġ": 32,
      "!": 33,
      "\"": 34,
      "#": 35,
      "$": 36,
      "%": 37,
      "&": 38,
      "'": 39,
      "(": 40,
      ")": 41,
      "*": 42,
      "+": 43,
      ",": 44,
      "-": 45,
      ".": 46,
      "/": 47,
      "0": 48,
      "1": 49,
      "2": 50,
      "3": 51,
      "4": 52,
      "5": 53,
      "6": 54,
      "7": 55,
      "8": 56,
      "9": 57,
      ":": 58,
      ";": 59,
      "<": 60,
      "=": 61,
      ">": 62,
      "?": 63,
      "@": 64,
      "A": 65,
      "B": 66,
      "C": 67,
      "D": 68,
      "E": 69,
      "F": 70,
      "G": 71,
      "H": 72,
      "I": 73,
      "J": 74,
      "K": 75,
      "L": 76,
      "M": 77,
      "N": 78,
      "O": 79,
      "P": 80,
      "Q": 81,
      "R": 82,
      "S": 83,
      "T": 84,
      "U": 85,
      "V": 86,
      "W": 87,
      "X": 88,
      "Y": 89,
      "Z": 90,
      "[": 91,
      "\\": 92,
      "]": 93,
      "^": 94,
      "_": 95,
      "`": 96,
      "a": 97,
      "b": 98,
      "c": 99,
      "d": 100,
      "e": 101,
      "f": 102,
      "g": 103,
      "h": 104,
      "i": 105,
      "j": 106,
      "k": 107,
      "l": 108,
      "m": 109,
      "n": 110,
      "o": 111,
      "p": 112,
      "q": 113,
      "r": 114,
      "s": 115,
      "t": 116,
      "u": 117,
      "v": 118,
      "w": 119,
      "x": 120,
      "y": 121,
      "z": 122,
      "{": 123,
      "|": 124,
      "}": 125,
      "~": 126,
      "ġ": 127,
      "Ģ": 128,
      "ģ": 129,
      "Ĥ": 130,
      "ĥ": 131,
      "Ħ": 132,
      "ħ": 133,
      "Ĩ": 134,
      "ĩ": 135,
      "Ī": 136,
      "ī": 137,
      "Ĭ": 138,
      "ĭ": 139,
      "Į": 140,
      "į": 141,
      "İ": 142,
      "ı": 143,
      "Ĳ": 144,
      "ĳ": 145,
      "Ĵ": 146,
      "ĵ": 147,
      "Ķ": 148,
      "ķ": 149,
      "ĸ": 150,
      "Ĺ": 151,
      "ĺ": 152,
      "Ļ": 153,
      "ļ": 154,
      "Ľ": 155,
      "ľ": 156,
      "Ŀ": 157,
      "ŀ": 158,
      "Ł": 159,
      "ł": 160,
      "¡": 161,
      "¢": 162,
      "£": 163,
      "¤": 164,
      "¥": 165,
      "¦": 166,
      "§": 167,
      "¨": 168,
      "©": 169,
      "ª": 170,
      "«": 171,
      "¬": 172,
      "Ń": 173,
      "®": 174,
      "¯": 175,
      "°": 176,
      "±": 177,
      "²": 178,
      "³": 179,
      "´": 180,
      "µ": 181,
      "¶": 182,
      "·": 183,
      "¸": 184,
      "¹": 185,
      "º": 186,
      "»": 187,
      "¼": 188,
      "½": 189,
      "¾": 190,
      "¿": 191,
      "À": 192,
      "Á": 193,
      "Â": 194,
      "Ã": 195,
      "Ä": 196,
      "Å": 197,
      "Æ": 198,
      "Ç": 199,
      "È": 200,
      "É": 201,
      "Ê": 202,
      "Ë": 203,
      "Ì": 204,
      "Í": 205,
      "Î": 206,
      "Ï": 207,
      "Ð": 208,
      "Ñ": 209,
      "Ò": 210,
      "Ó": 211,
      "Ô": 212,
      "Õ": 213,
      "Ö": 214,
      "×": 215,
      "Ø": 216,
      "Ù": 217,
      "Ú": 218,
      "Û": 219,
      "Ü": 220,
      "Ý": 221,
      "Þ": 222,
      "ß": 223,
      "à": 224,
      "á": 225,
      "â": 226,
      "ã": 227,
      "ä": 228,
      "å": 229,
      "æ": 230,
      "ç": 231,
      "è": 232,
      "é": 233,
      "ê": 234,
      "ë": 235,
      "ì": 236,
      "í": 237,
      "î": 238,
      "ï": 239,
      "ð": 240,
      "ñ": 241,
      "ò": 242,
      "ó": 243,
      "ô": 244,
      "õ": 245,
      "ö": 246,
      "÷": 247,
      "ø": 248,
      "ù": 249,
      "ú": 250,
      "û": 251,
      "ü": 252,
      "ý": 253,
      "þ": 254,
      "ÿ": 255,
      "ie": 256,
      "ÅĤ": 257,
      "Ġp": 258,
      "Ġs": 259,
      "ÄĻ": 260,
      "Ġw": 261,
      "Ġn": 262,
      "Äħ": 263,
      "Ġz": 264,
      "rz": 265,
      "cz": 266,
      "Å¼": 267,
      "ch": 268,
      "Ġt": 269,
      "aÅĤ": 270,
      "Ġd": 271,
      "Ġm": 272,
      "âĢ": 273,
      "ÅĽ": 274,
      "Ã³": 275,
      "sz": 276,
      "Ġo": 277,
      "iÄĻ": 278,
      "Ġi": 279,
      "Ġj": 280,
      "ow": 281,
      "ĊĊ": 282,
      "Ġk": 283,
      "an": 284,
      "st": 285,
      "dz": 286,
      "Ġna": 287,
      "Äĩ": 288,
      "Ġpo": 289,
      "ra": 290,
      "go": 291,
      "Ġb": 292,
      "Ġnie": 293,
      "rze": 294,
      "ro": 295,
      "ĠsiÄĻ": 296,
      "ci": 297,
      "nie": 298,
      "âĢĶ": 299,
      "li": 300,
      "ni": 301,
      "ak": 302,
      "ĊĠ": 303,
      "le": 304,
      "em": 305,
      "Ġza": 306,
      "ÅĤa": 307,
      "Ġdo": 308,
      "rzy": 309,
      "Ġje": 310,
      "ar": 311,
      "ÅĤo": 312,
      "Å¼e": 313,
      "wi": 314,
      "na": 315,
      "ym": 316,
      "Ġu": 317,
      "am": 318,
      "ne": 319,
      "Ġa": 320,
      "Ġg": 321,
      "ko": 322,
      "Ġc": 323,
      "ĠâĢĶ": 324,
      "ka": 325,
      "Äħc": 326,
      "ki": 327,
      "ych": 328,
      "czy": 329,
      "dzi": 330,
      "ĊĠĊĊ": 331,
      "Ġprze": 332,
      "Ġwy": 333,
      "ĊĠĊ": 334,
      "dy": 335,
      "aj": 336,
      "Ã³w": 337,
      "ĊĠĊĊĊĠĊ": 338,
      "cie": 339,
      "ĠĊĊ": 340,
      "by": 341,
      "Ġby": 342,
      "Ġst": 343,
      "ego": 344,
      "Ġjak": 345,
      "at": 346,
      "wo": 347,
      "no": 348,
      "Ġto": 349,
      "ej": 350,
      "ĠÅ¼e": 351,
      "ÅĽci": 352,
      "âĢī": 353,
      "wa": 354,
      "Ġod": 355,
      "dzie": 356,
      "tÃ³": 357,
      "ry": 358,
      "Ġprzy": 359,
      "ad": 360,
      "po": 361,
      "szy": 362,
      "aÅĤa": 363,
      "Ġch": 364,
      "ĠktÃ³": 365,
      "kie": 366,
      "ny": 367,
      "Ġmi": 368,
      "mi": 369,
      "Ġcz": 370,
      "Ġro": 371,
      "ÅĦ": 372,
      "la": 373,
      "Ġni": 374,
      "Ġmo": 375,
      "nÄħ": 376,
      "re": 377,
      "ani": 378,
      "ob": 379,
      "ĠP": 380,
      "wie": 381,
      "Ġsz": 382,
      "ru": 383,
      "si": 384,
      "ÅĤy": 385,
      "..": 386,
      "Å¼y": 387,
      "cze": 388,
      "owie": 389,
      "Ġko": 390,
      "ĠW": 391,
      "aÄĩ": 392,
      "ĠN": 393,
      "ĠÅĽ": 394,
      "rÃ³": 395,
      "mie": 396,
      "ku": 397,
      "en": 398,
      "Ġtak": 399,
      "Ġwie": 400,
      "er": 401,
      "Ġgo": 402,
      "lu": 403,
      "ÅĽÄĩ": 404,
      "ÅĤu": 405,
      "Ġco": 406,
      "raz": 407,
      "Ġroz": 408,
      "ĠA": 409,
      "ĠĊĊĠĊĊ": 410,
      "Ġpod": 411,
      "as": 412,
      "ce": 413,
      "Ġdz": 414,
      "sze": 415,
      "je": 416,
      "ĠM": 417,
      "to": 418,
      "Ġob": 419,
      "nia": 420,
      "ĠS": 421,
      "owi": 422,
      "ĠT": 423,
      "ĠC": 424,
      "ĠB": 425,
      "ty": 426,
      "ĠJ": 427,
      "my": 428,
      "ta": 429,
      "Ġwi": 430,
      "Ġty": 431,
      "Ġmu": 432,
      "da": 433,
      "Ġjest": 434,
      "ami": 435,
      "cy": 436,
      "bi": 437,
      "te": 438,
      "aÅĤy": 439,
      "Åº": 440,
      "aÅĤo": 441,
      "Ġpan": 442,
      "rÄĻ": 443,
      "pi": 444,
      "ajÄħc": 445,
      "ĠK": 446,
      "owa": 447,
      "ĠZ": 448,
      "wy": 449,
      "nym": 450,
      "bie": 451,
      "uÅ¼": 452,
      "al": 453,
      "pie": 454,
      "nych": 455,
      "ĠktÃ³r": 456,
      "Ġte": 457,
      "anie": 458,
      "ĠD": 459,
      "ach": 460,
      "nÄĻ": 461,
      "obie": 462,
      "Ġspo": 463,
      "ĠO": 464,
      "tu": 465,
      "Ġwszy": 466,
      "Ġsp": 467,
      "Ġjed": 468,
      "Ġale": 469,
      "Ġlu": 470,
      "gi": 471,
      "ĠmÃ³": 472,
      "mu": 473,
      "Ġrze": 474,
      "ja": 475,
      "nego": 476,
      "...": 477,
      "ez": 478,
      "âĢ¦": 479,
      "Ġci": 480,
      "Ġbo": 481,
      "ĠNie": 482,
      "ca": 483,
      "niej": 484,
      "zy": 485,
      "Äħd": 486,
      "Ġdzie": 487,
      "Ġwo": 488,
      "Ġpra": 489,
      "ĠjuÅ¼": 490,
      "sta": 491,
      "bo": 492,
      "Ġle": 493,
      "Ġjego": 494,
      "jÄħc": 495,
      "Ġwszyst": 496,
      "lo": 497,
      "ski": 498,
      "we": 499,
      "Ġsam": 500,
      "Ã©": 501,
      "mo": 502,
      "waÅĤ": 503,
      "nej": 504,
      "Ġgdy": 505,
      "Ġjej": 506,
      "do": 507,
      "cho": 508,
      "ĠÅ¼y": 509,
      "Ġmnie": 510,
      "Ġf": 511,
      "ba": 512,
      "lko": 513,
      "Ġczy": 514,
      "Ġmie": 515,
      "ĠÅ¼": 516,
      "Ġze": 517,
      "Ġka": 518,
      "ÅĤem": 519,
      "jÄħ": 520,
      "szcze": 521,
      "czÄĻ": 522,
      "ĠbyÅĤo": 523,
      "ma": 524,
      "Ġnaj": 525,
      "aÅĤem": 526,
      "ek": 527,
      "Ġpie": 528,
      "jÄĻ": 529,
      "Ġtylko": 530,
      "or": 531,
      "ĠâĢ": 532,
      "Ġdla": 533,
      "Ġtego": 534,
      "kiem": 535,
      "Ġin": 536,
      "kÄĻ": 537,
      "noÅĽci": 538,
      "ĠbyÅĤ": 539,
      "Ġtym": 540,
      "Ġra": 541,
      "ÅĽli": 542,
      "ĠPo": 543,
      "Ġma": 544,
      "Ġsobie": 545,
      "Ġh": 546,
      "ĠgÅĤ": 547,
      "Ġzna": 548,
      "kÄħ": 549,
      "Ġprzez": 550,
      "ania": 551,
      "nÄħÅĤ": 552,
      "Ġprzed": 553,
      "Ġwz": 554,
      "ĠG": 555,
      "ĠR": 556,
      "ÅĽcie": 557,
      "Ġpot": 558,
      "skie": 559,
      "Ġcie": 560,
      "du": 561,
      "Ġzap": 562,
      "eÅĤ": 563,
      "il": 564,
      "Ġsw": 565,
      "Ġpow": 566,
      "Ġku": 567,
      "Ġjeszcze": 568,
      "czo": 569,
      "Ġsie": 570,
      "dzo": 571,
      "sto": 572,
      "Ġswo": 573,
      "Ġmy": 574,
      "ĠwiÄĻ": 575,
      "Ġda": 576,
      "Äħg": 577,
      "ĠâĢŀ": 578,
      "Ġbez": 579,
      "Ġsk": 580,
      "ĠbÄĻ": 581,
      "wszy": 582,
      "Ġpro": 583,
      "ĠrÄĻ": 584,
      "Ġdzi": 585,
      "kÅĤ": 586,
      "ĠktÃ³ry": 587,
      "Ġja": 588,
      "cia": 589,
      "Ġbar": 590,
      "ĠI": 591,
      "ew": 592,
      "ĠL": 593,
      "os": 594,
      "Ġtu": 595,
      "ga": 596,
      "Ġnad": 597,
      "âĢĿ": 598,
      "dziaÅĤ": 599,
      "Ġaby": 600,
      "Ġich": 601,
      "Ġpowie": 602,
      "lÄĻ": 603,
      "Ġpoz": 604,
      "ĠmÃ³wi": 605,
      "ajÄħ": 606,
      "im": 607,
      "Ã©j": 608,
      "Ġraz": 609,
      "usz": 610,
      "ran": 611,
      "gÅĤ": 612,
      "Ġchwi": 613,
      "Ã³ÅĤ": 614,
      "ĠjÄħ": 615,
      "sy": 616,
      "rzu": 617,
      "Ġli": 618,
      "Ġno": 619,
      "Ġop": 620,
      "ĠmoÅ¼e": 621,
      "Ġdob": 622,
      "kÃ³w": 623,
      "ĠwÅĤa": 624,
      "Ġwe": 625,
      "ali": 626,
      "ska": 627,
      "ÅĽl": 628,
      "cu": 629,
      "siÄĻ": 630,
      "Ġczas": 631,
      "Ġmog": 632,
      "de": 633,
      "on": 634,
      "Ġodp": 635,
      "Ġten": 636,
      "any": 637,
      "Ġog": 638,
      "Ġkie": 639,
      "czu": 640,
      "Ġcho": 641,
      "ĠÅĽwi": 642,
      "ĠwiÄĻc": 643,
      "Ġzn": 644,
      "ĠkrÃ³": 645,
      "Ġwiel": 646,
      "emu": 647,
      "ĠktÃ³re": 648,
      "czÄħ": 649,
      "Ġtam": 650,
      "ana": 651,
      "Ġpi": 652,
      "ary": 653,
      "su": 654,
      "zu": 655,
      "ĠcaÅĤ": 656,
      "noÅĽÄĩ": 657,
      "spo": 658,
      "owaÅĤ": 659,
      "dze": 660,
      "ÅĤowie": 661,
      "sty": 662,
      "Ġnim": 663,
      "Ġsi": 664,
      "Ġtej": 665,
      "ĠÅ": 666,
      "owo": 667,
      "niu": 668,
      "tem": 669,
      "Ã³j": 670,
      "niÄĻ": 671,
      "sza": 672,
      "lat": 673,
      "ony": 674,
      "ĠÅĤa": 675,
      "Ġpier": 676,
      "gie": 677,
      "rÃ³w": 678,
      "Ġpa": 679,
      "ĠbyÅĤa": 680,
      "iÄĻk": 681,
      "ano": 682,
      "wet": 683,
      "gu": 684,
      "ĠsÄħ": 685,
      "bu": 686,
      "ost": 687,
      "yt": 688,
      "Ġbi": 689,
      "dÄĻ": 690,
      "ĠAle": 691,
      "Ġok": 692,
      "sk": 693,
      "Ġzd": 694,
      "pra": 695,
      "sa": 696,
      "Ġpani": 697,
      "owy": 698,
      "ĠJe": 699,
      "ĠNa": 700,
      "dÅĤ": 701,
      "sie": 702,
      "kÅĤa": 703,
      "Ġani": 704,
      "ÅĽmy": 705,
      "Ġsto": 706,
      "Ã³r": 707,
      "ĠgÅĤo": 708,
      "fi": 709,
      "ĠbÄĻdzie": 710,
      "sÅĤ": 711,
      "dzy": 712,
      "el": 713,
      "ĠTo": 714,
      "owaÄĩ": 715,
      "ĠBo": 716,
      "ĠH": 717,
      "ĠsÅĤ": 718,
      "Ġdro": 719,
      "Ġbardzo": 720,
      "Ġdu": 721,
      "Ġnawet": 722,
      "rza": 723,
      "ĠiÅ¼": 724,
      "Ġsze": 725,
      "Ġon": 726,
      "ona": 727,
      "ane": 728,
      "Ġjakie": 729,
      "ĠczÅĤowie": 730,
      "kich": 731,
      "ÄĻp": 732,
      "Ġdru": 733,
      "cj": 734,
      "niem": 735,
      "Ġzie": 736,
      "ich": 737,
      "ĠsÅĤu": 738,
      "ÄħÅ¼": 739,
      "rÃ³Å¼": 740,
      "waÄĩ": 741,
      "pad": 742,
      "so": 743,
      "ĠbyÄĩ": 744,
      "Ġta": 745,
      "ÅĦst": 746,
      "zi": 747,
      "ĠrzekÅĤ": 748,
      "ĠÅĽmie": 749,
      "ÅĽnie": 750,
      "nak": 751,
      "Ġnic": 752,
      "ciÅĤ": 753,
      "et": 754,
      "Ġkiedy": 755,
      "om": 756,
      "koj": 757,
      "ĠmiaÅĤ": 758,
      "cznie": 759,
      "sko": 760,
      "Ġwszystko": 761,
      "Ġgdzie": 762,
      "Ġzaw": 763,
      "Ġru": 764,
      "dni": 765,
      "ur": 766,
      "ĠciÄĻ": 767,
      "Ġniez": 768,
      "ĠdÅĤu": 769,
      "Ġstra": 770,
      "dziÅĤ": 771,
      "ymi": 772,
      "Ġjako": 773,
      "ast": 774,
      "resz": 775,
      "ĠCh": 776,
      "Ġser": 777,
      "czas": 778,
      "rzym": 779,
      "ĠmÅĤo": 780,
      "Ġpu": 781,
      "Ġpraw": 782,
      "ĠteÅ¼": 783,
      "nem": 784,
      "Ġstro": 785,
      "bym": 786,
      "Ġpew": 787,
      "Ġtych": 788,
      "Ġstar": 789,
      "Ġtwa": 790,
      "stÄĻp": 791,
      "ĠF": 792,
      "bli": 793,
      "Ġoczy": 794,
      "one": 795,
      "ĠÅĽwiat": 796,
      "tÄħ": 797,
      "Ġost": 798,
      "Ġde": 799,
      "ĠZa": 800,
      "ĠÅĤ": 801,
      "aje": 802,
      "Ġsiebie": 803,
      "ĠkaÅ¼": 804,
      "nik": 805,
      "owiad": 806,
      "peÅĤ": 807,
      "Ã³Å¼": 808,
      "Ġniej": 809,
      "Ġtrze": 810,
      "Ġteraz": 811,
      "Ġniego": 812,
      "waÅĤa": 813,
      "tow": 814,
      "rzÄĻ": 815,
      "Ġjednak": 816,
      "rzÄħ": 817,
      "nu": 818,
      "Ġspra": 819,
      "wiÄĻ": 820,
      "cha": 821,
      "szedÅĤ": 822,
      "miÄĻ": 823,
      "Ġbra": 824,
      "kow": 825,
      "nÄĻÅĤa": 826,
      "Ġot": 827,
      "dziÄĩ": 828,
      "ĠÅĽwie": 829,
      "Ġwa": 830,
      "sp": 831,
      "dzÄħc": 832,
      "Ġoj": 833,
      "rowa": 834,
      "gdy": 835,
      "js": 836,
      "ĠmÄĻ": 837,
      "Ġbu": 838,
      "rÄħ": 839,
      "ot": 840,
      "Ġnas": 841,
      "Ġsta": 842,
      "stawi": 843,
      "waÅ¼": 844,
      "Ġchci": 845,
      "Ġmusi": 846,
      "kim": 847,
      "cza": 848,
      "Ġdale": 849,
      "war": 850,
      "czyÅĤ": 851,
      "chy": 852,
      "Ġbie": 853,
      "szÄħ": 854,
      "ĠJak": 855,
      "Ġjakby": 856,
      "zna": 857,
      "ĠtÄĻ": 858,
      "ĠzÅĤo": 859,
      "Ġkil": 860,
      "ĠktÃ³ra": 861,
      "dÅº": 862,
      "Ġlub": 863,
      "Ġnich": 864,
      "Ġchwili": 865,
      "eÅĽ": 866,
      "ĠmoÅ¼": 867,
      "Ġkobie": 868,
      "dÄħ": 869,
      "ĠU": 870,
      "Ġzw": 871,
      "ĠmÃ³gÅĤ": 872,
      "Ġstan": 873,
      "pa": 874,
      "Ġre": 875,
      "Ġpat": 876,
      "ĠzaÅĽ": 877,
      "gl": 878,
      "rÃ³d": 879,
      "Ġ*": 880,
      "ĠmiÄĻ": 881,
      "Ġmiejs": 882,
      "Ġzro": 883,
      "chu": 884,
      "--": 885,
      "Ġsy": 886,
      "kaz": 887,
      "Ġludzi": 888,
      "ĠCzy": 889,
      "Ġwszystkie": 890,
      "skiego": 891,
      "ÅĽciÄħ": 892,
      "dzieÄĩ": 893,
      "Ġe": 894,
      "Ġsu": 895,
      "Ġos": 896,
      "cji": 897,
      "ĠmyÅĽl": 898,
      "ciÄħg": 899,
      "Ġal": 900,
      "szych": 901,
      "Ġry": 902,
      "Ġodpowie": 903,
      "Ġim": 904,
      "ĠWi": 905,
      "Äħt": 906,
      "ĠniÅ¼": 907,
      "ĠCo": 908,
      "ĠMo": 909,
      "ÅĽmie": 910,
      "ecz": 911,
      "ĠgÅĤow": 912,
      "ĠTak": 913,
      "dow": 914,
      "Ġmat": 915,
      "szÄĻ": 916,
      "Ã³d": 917,
      "rzaÅĤ": 918,
      "nÄħÄĩ": 919,
      "kt": 920,
      "Ġgro": 921,
      "Ġlat": 922,
      "Ġkrzy": 923,
      "Ġ(": 924,
      "rac": 925,
      "ĠktÃ³rych": 926,
      "ĠaÅ¼": 927,
      "Ġlecz": 928,
      "gÄĻ": 929,
      "sÅĤu": 930,
      "Ġjaki": 931,
      "Ġmam": 932,
      "Ġzak": 933,
      "czyÄĩ": 934,
      "ĠchÅĤo": 935,
      "ĠszczÄĻ": 936,
      "Ġszy": 937,
      "siad": 938,
      "szego": 939,
      "ĠE": 940,
      "Ġkto": 941,
      "Ġczu": 942,
      "kach": 943,
      "Ġrzeczy": 944,
      "Ġdomu": 945,
      "ciw": 946,
      "ĠBy": 947,
      "Ġba": 948,
      "cÄĻ": 949,
      "Ġzawsze": 950,
      "tych": 951,
      "stÄħ": 952,
      "ĠpiÄĻk": 953,
      "ĠJa": 954,
      "niÄĩ": 955,
      "ĠcoÅĽ": 956,
      "dnie": 957,
      "Ġspos": 958,
      "ut": 959,
      "aty": 960,
      "Ġwp": 961,
      "co": 962,
      "ĠksiÄĻ": 963,
      "dziej": 964,
      "raj": 965,
      "ec": 966,
      "um": 967,
      "strze": 968,
      "Ġsko": 969,
      "ĠktÃ³rego": 970,
      "ĠmiÅĤo": 971,
      "kami": 972,
      "scy": 973,
      "owu": 974,
      "ĠPrze": 975,
      "Ġpana": 976,
      "prze": 977,
      "ÅĤÄħ": 978,
      "Ġzam": 979,
      "zie": 980,
      "czÄħc": 981,
      "tnie": 982,
      "un": 983,
      "ĠCz": 984,
      "cÄħ": 985,
      "Äħz": 986,
      "ĠniÄħ": 987,
      "sku": 988,
      "ĠÅĽci": 989,
      "br": 990,
      "Ġzu": 991,
      "liÅĽmy": 992,
      "pu": 993,
      "Po": 994,
      "Ġgdyby": 995,
      "dem": 996,
      "ĠÅ»": 997,
      "Ġzawo": 998,
      "ĠÅ¼ad": 999,
      "Ġtakie": 1000,
      "Ġtro": 1001,
      "szym": 1002,
      "Ġzda": 1003,
      "Å¼a": 1004,
      "szej": 1005,
      "ĠsÅĤo": 1006,
      "dli": 1007,
      "ĠSz": 1008,
      "ĠgÅĤos": 1009,
      "Ġzwy": 1010,
      "tÄĻ": 1011,
      "niÅĤ": 1012,
      "ono": 1013,
      "Ġsob": 1014,
      "âĢĵ": 1015,
      "oÅĤ": 1016,
      "Ġpodob": 1017,
      "ĠrÃ³w": 1018,
      "Ġtru": 1019,
      "Ġwar": 1020,
      "sÅĤa": 1021,
      "Ġalbo": 1022,
      "taÅĤ": 1023,
      "ciu": 1024,
      "arÅĤ": 1025,
      "rzyÅĤ": 1026,
      "tÃ³w": 1027,
      "Å¼yÅĤ": 1028,
      "aniu": 1029,
      "ĠktÃ³rej": 1030,
      "Ġdw": 1031,
      "Ġnigdy": 1032,
      "Ġznaj": 1033,
      "Ġdaw": 1034,
      "Ġona": 1035,
      "Ã³l": 1036,
      "Ġocz": 1037,
      "Ġksi": 1038,
      "Ġtem": 1039,
      "ĠbyÅĤy": 1040,
      "ĠwÅĤas": 1041,
      "owe": 1042,
      "wem": 1043,
      "ĠMi": 1044,
      "ÅĤysz": 1045,
      "stu": 1046,
      "ĠÅĽmier": 1047,
      "ĠwiÄĻcej": 1048,
      "ÅĤam": 1049,
      "ĠchoÄĩ": 1050,
      "ĠczÄĻ": 1051,
      "miaÅĤ": 1052,
      "âĢĿ.": 1053,
      "Ġkoch": 1054,
      "ĠDo": 1055,
      "rzwi": 1056,
      "wÄħ": 1057,
      "ĠPrzy": 1058,
      "Ġpierw": 1059,
      "za": 1060,
      "ĠciÄħg": 1061,
      "ĠÅ¼eby": 1062,
      "waÅĤo": 1063,
      "rÃ³ci": 1064,
      "czÄħÅĤ": 1065,
      "Ġzost": 1066,
      "Ġnam": 1067,
      "Ġszcze": 1068,
      "Ġdobrze": 1069,
      "Ġprzyja": 1070,
      "ale": 1071,
      "ĠsobÄħ": 1072,
      "ĠmoÅ¼na": 1073,
      "ĠWy": 1074,
      "Ġobo": 1075,
      "Ġziemi": 1076,
      "Ġostat": 1077,
      "Ġrzu": 1078,
      "Å¼eli": 1079,
      "skich": 1080,
      "cÃ³w": 1081,
      "kiego": 1082,
      "Ã³b": 1083,
      "gÄħ": 1084,
      "gle": 1085,
      "niÄħ": 1086,
      "ĠmaÅĤ": 1087,
      "chÄĻ": 1088,
      "wiÅĤ": 1089,
      "ĠkrÃ³l": 1090,
      "czne": 1091,
      "Ġdrzwi": 1092,
      "Ġpotem": 1093,
      "Ġtra": 1094,
      "Ġwszystkich": 1095,
      "Ġznowu": 1096,
      "glÄħd": 1097,
      "Ġprzyj": 1098,
      "ĠczÅĤowiek": 1099,
      "ĠKa": 1100,
      "stan": 1101,
      "kry": 1102,
      "Ġtwo": 1103,
      "two": 1104,
      "tk": 1105,
      "Ġwoj": 1106,
      "in": 1107,
      "lan": 1108,
      "ĠkoÅĦ": 1109,
      "ĠÅ¼ycie": 1110,
      "ĠĊ": 1111,
      "naÅĤ": 1112,
      "ĠÅ¼ycia": 1113,
      "ste": 1114,
      "ajem": 1115,
      "lach": 1116,
      "ĠmyÅĽli": 1117,
      "Ġmil": 1118,
      "Ġpotrze": 1119,
      "szczÄĻ": 1120,
      "Nie": 1121,
      "ĠmÃ³j": 1122,
      "Ġlo": 1123,
      "Ġniepo": 1124,
      "Ã©m": 1125,
      "Ġpar": 1126,
      "ĠgÅĤÄĻ": 1127,
      "Ġkro": 1128,
      "chodzi": 1129,
      "nymi": 1130,
      "Ġpowo": 1131,
      "praw": 1132,
      "laz": 1133,
      "ĠpeÅĤ": 1134,
      "ĠktÃ³rym": 1135,
      "Ġwym": 1136,
      "ĠzawoÅĤ": 1137,
      "Ġswego": 1138,
      "myÅĽl": 1139,
      "chem": 1140,
      "dzÄĻ": 1141,
      "waÅĤy": 1142,
      "Ġwol": 1143,
      "ĠktÃ³rzy": 1144,
      "skiej": 1145,
      "ado": 1146,
      "Ġgodzi": 1147,
      "Ġwsze": 1148,
      "ĠWie": 1149,
      "siÅĤ": 1150,
      "Ġce": 1151,
      "daÄĩ": 1152,
      "daÅĤ": 1153,
      "dziaÅĤa": 1154,
      "jej": 1155,
      "ĠSt": 1156,
      "noÅĽciÄħ": 1157,
      "rod": 1158,
      "py": 1159,
      "Ġtrzeba": 1160,
      "Ġczar": 1161,
      "amiÄĻ": 1162,
      "owarzy": 1163,
      "Ġmiesz": 1164,
      "ĠuÅĽmie": 1165,
      "Ġdwo": 1166,
      "ĠĊĊĠĊ": 1167,
      "ĠktÃ³rÄħ": 1168,
      "Ã³g": 1169,
      "Na": 1170,
      "Ġkar": 1171,
      "wali": 1172,
      "pom": 1173,
      "stwo": 1174,
      "ĠrÃ³Å¼": 1175,
      "szÅĤo": 1176,
      "ciÄĻ": 1177,
      "oz": 1178,
      "ĠzupeÅĤ": 1179,
      "anych": 1180,
      "ri": 1181,
      "ĠNi": 1182,
      "kiej": 1183,
      "Ġspoj": 1184,
      "Ġzaraz": 1185,
      "ent": 1186,
      "Ġdzieci": 1187,
      "Ġar": 1188,
      "Ġzdo": 1189,
      "Ġjeden": 1190,
      "ud": 1191,
      "ytaÅĤ": 1192,
      "leg": 1193,
      "Ġprzeciw": 1194,
      "Ġpowi": 1195,
      "ĠwÅĤaÅĽnie": 1196,
      "tek": 1197,
      "Ġuczy": 1198,
      "pli": 1199,
      "ĠsÅĤowa": 1200,
      "ÅĤÄĻ": 1201,
      "ĠchciaÅĤ": 1202,
      "dzÄħ": 1203,
      "reszcie": 1204,
      "ÅĽcia": 1205,
      "mniej": 1206,
      "Ġuczu": 1207,
      "Ġpanie": 1208,
      "Ġczasu": 1209,
      "Ġla": 1210,
      "ĠmÃ³wiÅĤ": 1211,
      "Ġoko": 1212,
      "anÄħ": 1213,
      "ĠgÃ³": 1214,
      "ĠrÄĻce": 1215,
      "ĠmiÄĻdzy": 1216,
      "Ġjedy": 1217,
      "Ġow": 1218,
      "Ġl": 1219,
      "ÅĽrÃ³d": 1220,
      "ÅĽle": 1221,
      "Ġwsp": 1222,
      "Ġdziew": 1223,
      "tor": 1224,
      "wier": 1225,
      "knÄħÅĤ": 1226,
      "raÅ¼": 1227,
      "aniem": 1228,
      "czej": 1229,
      "ĠchÅĤop": 1230,
      "rom": 1231,
      "ĠpiÄĻ": 1232,
      "czaj": 1233,
      "stwa": 1234,
      "ĠMar": 1235,
      "wÄĻ": 1236,
      "Ġtowarzy": 1237,
      "ĠpÃ³ÅĤ": 1238,
      "owej": 1239,
      "wia": 1240,
      "wajÄħc": 1241,
      "kaÄĩ": 1242,
      "Ġkilka": 1243,
      "Ġkon": 1244,
      "Ġfi": 1245,
      "Ġisto": 1246,
      "szÅĤa": 1247,
      "emi": 1248,
      "oba": 1249,
      "koju": 1250,
      "ĠkaÅ¼d": 1251,
      "Ġtrzy": 1252,
      "Ġwst": 1253,
      "Äħce": 1254,
      "ĠGdy": 1255,
      "rabi": 1256,
      "Ġmar": 1257,
      "szu": 1258,
      "Ġcze": 1259,
      "Ġdnia": 1260,
      "Ġdwa": 1261,
      "Ġkonie": 1262,
      "ĠpÃ³": 1263,
      "Ġczego": 1264,
      "ĠpÅĤa": 1265,
      "ĊĠĊĊĊĠĊĊĊĠĊ": 1266,
      "miast": 1267,
      "owiem": 1268,
      "Ġjestem": 1269,
      "Ġchce": 1270,
      "stÄħpi": 1271,
      "pis": 1272,
      "Ġgru": 1273,
      "nika": 1274,
      "cem": 1275,
      "Ġludzie": 1276,
      "Ġwyp": 1277,
      "lem": 1278,
      "Ġnale": 1279,
      "Ġzrobi": 1280,
      "Ġzg": 1281,
      "Ġwidzi": 1282,
      "ara": 1283,
      "Ġciem": 1284,
      "Ġprawie": 1285,
      "Ġwszyscy": 1286,
      "chaÅĤ": 1287,
      "byt": 1288,
      "skim": 1289,
      "ab": 1290,
      "ĠjakÄħ": 1291,
      "naj": 1292,
      "zd": 1293,
      "Ġnau": 1294,
      "Ġprzecie": 1295,
      "row": 1296,
      "ÅĽwi": 1297,
      "Ġzat": 1298,
      "ĠPan": 1299,
      "bra": 1300,
      "es": 1301,
      "Ġwszel": 1302,
      "Å¼yÄĩ": 1303,
      "Ġtwarz": 1304,
      "ĠâĢĵ": 1305,
      "ĠsposÃ³b": 1306,
      "pat": 1307,
      "ĠmiaÅĤa": 1308,
      "Ġwido": 1309,
      "czaÅĤ": 1310,
      "ĠksiÄħÅ¼": 1311,
      "Ġmoje": 1312,
      "ĠgÅĤowÄĻ": 1313,
      "ÄħÅĤ": 1314,
      "ĠKo": 1315,
      "Ġdalej": 1316,
      "ÅĤe": 1317,
      "Ġdrugi": 1318,
      "czego": 1319,
      "Ġstrasz": 1320,
      "Ġdom": 1321,
      "Ġnaz": 1322,
      "Ġszu": 1323,
      "ĠczÅĤowieka": 1324,
      "ed": 1325,
      "Ġrobi": 1326,
      "ÅĦstwa": 1327,
      "Ġlek": 1328,
      "Ġzm": 1329,
      "ĠtakÅ¼e": 1330,
      "amy": 1331,
      "Ġludz": 1332,
      "ĠwÅĤo": 1333,
      "ĠciÄĻÅ¼": 1334,
      "Ġuro": 1335,
      "Ġczym": 1336,
      "Ġdr": 1337,
      "Ġsmu": 1338,
      "piero": 1339,
      "licz": 1340,
      "mieni": 1341,
      "przy": 1342,
      "onÄħ": 1343,
      "ÅĽni": 1344,
      "Ġrodzi": 1345,
      "Ġwyd": 1346,
      "ĠAn": 1347,
      "nek": 1348,
      "ĠjeÅĽli": 1349,
      "Ġjedno": 1350,
      "ĠÅļ": 1351,
      "ada": 1352,
      "ĠOd": 1353,
      "ral": 1354,
      "Ġdziw": 1355,
      "ĠcaÅĤy": 1356,
      "ciÄĩ": 1357,
      "Å¼ej": 1358,
      "Ġniech": 1359,
      "Ġdrze": 1360,
      "Ġrzecz": 1361,
      "Ġdrugie": 1362,
      "Ġdy": 1363,
      "Ġcoraz": 1364,
      "gar": 1365,
      "owaÅĤa": 1366,
      "tedy": 1367,
      "ÅĦstwo": 1368,
      "ĠMa": 1369,
      "Ġzach": 1370,
      "Ġtyle": 1371,
      "Ġran": 1372,
      "nicy": 1373,
      "rÃ³ciÅĤ": 1374,
      "Ġwiem": 1375,
      "Ġswoje": 1376,
      "amie": 1377,
      "Ġust": 1378,
      "kol": 1379,
      "Ġoto": 1380,
      "Ġ1": 1381,
      "dzenia": 1382,
      "ĠdzieÅĦ": 1383,
      "ze": 1384,
      "wiÄĩ": 1385,
      "Ġwiele": 1386,
      "ĠrÄĻkÄĻ": 1387,
      "Ġsamo": 1388,
      "Ġrozu": 1389,
      "rew": 1390,
      "Ġszep": 1391,
      "ĠdziÅĽ": 1392,
      "dza": 1393,
      "ĠtÅĤu": 1394,
      "rzeÄĩ": 1395,
      "ĠmÄĻÅ¼": 1396,
      "ĠzupeÅĤnie": 1397,
      "Ġrazem": 1398,
      "raÅ¼e": 1399,
      "ĠdÅĤugo": 1400,
      "nios": 1401,
      "od": 1402,
      "Ã³wczas": 1403,
      "owych": 1404,
      "Ġucie": 1405,
      "ĠchwilÄĻ": 1406,
      "Ġnagle": 1407,
      "ĠLi": 1408,
      "Ġjas": 1409,
      "naÄĩ": 1410,
      "Ġumie": 1411,
      "Ġbro": 1412,
      "ĠTe": 1413,
      "bÄĻ": 1414,
      "Ġwych": 1415,
      "Ġzwie": 1416,
      "ĠjÄĻ": 1417,
      "Ġkr": 1418,
      "Ġtwarzy": 1419,
      "Ġpomo": 1420,
      "ĠTy": 1421,
      "owÄħ": 1422,
      "se": 1423,
      "tel": 1424,
      "raÅĤ": 1425,
      "skÄħ": 1426,
      "Ġrozm": 1427,
      "wiÄħz": 1428,
      "gnie": 1429,
      "ĠsÅĤa": 1430,
      "ĠmajÄħ": 1431,
      "Ġile": 1432,
      "raÅº": 1433,
      "Ġwyso": 1434,
      "ĠgÅĤu": 1435,
      "cale": 1436,
      "ĠBÃ³g": 1437,
      "Ġtaki": 1438,
      "niaÅĤ": 1439,
      "----": 1440,
      "Ġcu": 1441,
      "Ġcier": 1442,
      "ĠJu": 1443,
      "Ġkom": 1444,
      "Ġciebie": 1445,
      "Ġtr": 1446,
      "czny": 1447,
      "kÅĤad": 1448,
      "tej": 1449,
      "ĠNo": 1450,
      "Ġut": 1451,
      "ĠjakiÅĽ": 1452,
      "ĠzawoÅĤaÅĤ": 1453,
      "Ġzb": 1454,
      "Ġwyraz": 1455,
      "rani": 1456,
      "Ġdost": 1457,
      "ĠWo": 1458,
      "ĠnieszczÄĻ": 1459,
      "gÅĤo": 1460,
      "Å¼Äħc": 1461,
      "wym": 1462,
      "czenie": 1463,
      "ujÄħc": 1464,
      "ĠpamiÄĻ": 1465,
      "Ġnap": 1466,
      "Ġnatu": 1467,
      "ĠJest": 1468,
      "nosi": 1469,
      "ĠmogÅĤa": 1470,
      "Ġdusz": 1471,
      "Ġniem": 1472,
      "rzyÄĩ": 1473,
      "ciec": 1474,
      "pe": 1475,
      "âĢľ": 1476,
      "Ġkraj": 1477,
      "Ġuj": 1478,
      "wiek": 1479,
      "anym": 1480,
      "ĠcaÅĤÄħ": 1481,
      "Ġspokoj": 1482,
      "Ġme": 1483,
      "ji": 1484,
      "Ġwas": 1485,
      "Ġwiecz": 1486,
      "adomo": 1487,
      "rzÄħd": 1488,
      "ĠzaczÄĻ": 1489,
      "ĠwÅĽrÃ³d": 1490,
      "Ã³sÅĤ": 1491,
      "ĠÅĽwiÄĻ": 1492,
      "kolwiek": 1493,
      "Ġofi": 1494,
      "Ġzoba": 1495,
      "Ġswej": 1496,
      "owego": 1497,
      "szcz": 1498,
      "ÅĤad": 1499
    },
    "merges": [
      [
        "i",
        "e"
      ],
      [
        "Å",
        "Ĥ"
      ],
      [
        "Ġ",
        "p"
      ],
      [
        "Ġ",
        "s"
      ],
      [
        "Ä",
        "Ļ"
      ],
      [
        "Ġ",
        "w"
      ],
      [
        "Ġ",
        "n"
      ],
      [
        "Ä",
        "ħ"
      ],
      [
        "Ġ",
        "z"
      ],
      [
        "r",
        "z"
      ],
      [
        "c",
        "z"
      ],
      [
        "Å",
        "¼"
      ],
      [
        "c",
        "h"
      ],
      [
        "Ġ",
        "t"
      ],
      [
        "a",
        "ÅĤ"
      ],
      [
        "Ġ",
        "d"
      ],
      [
        "Ġ",
        "m"
      ],
      [
        "â",
        "Ģ"
      ],
      [
        "Å",
        "Ľ"
      ],
      [
        "Ã",
        "³"
      ],
      [
        "s",
        "z"
      ],
      [
        "Ġ",
        "o"
      ],
      [
        "i",
        "ÄĻ"
      ],
      [
        "Ġ",
        "i"
      ],
      [
        "Ġ",
        "j"
      ],
      [
        "o",
        "w"
      ],
      [
        "Ċ",
        "Ċ"
      ],
      [
        "Ġ",
        "k"
      ],
      [
        "a",
        "n"
      ],
      [
        "s",
        "t"
      ],
      [
        "d",
        "z"
      ],
      [
        "Ġn",
        "a"
      ],
      [
        "Ä",
        "ĩ"
      ],
      [
        "Ġp",
        "o"
      ],
      [
        "r",
        "a"
      ],
      [
        "g",
        "o"
      ],
      [
        "Ġ",
        "b"
      ],
      [
        "Ġn",
        "ie"
      ],
      [
        "rz",
        "e"
      ],
      [
        "r",
        "o"
      ],
      [
        "Ġs",
        "iÄĻ"
      ],
      [
        "c",
        "i"
      ],
      [
        "n",
        "ie"
      ],
      [
        "âĢ",
        "Ķ"
      ],
      [
        "l",
        "i"
      ],
      [
        "n",
        "i"
      ],
      [
        "a",
        "k"
      ],
      [
        "Ċ",
        "Ġ"
      ],
      [
        "l",
        "e"
      ],
      [
        "e",
        "m"
      ],
      [
        "Ġz",
        "a"
      ],
      [
        "ÅĤ",
        "a"
      ],
      [
        "Ġd",
        "o"
      ],
      [
        "rz",
        "y"
      ],
      [
        "Ġj",
        "e"
      ],
      [
        "a",
        "r"
      ],
      [
        "ÅĤ",
        "o"
      ],
      [
        "Å¼",
        "e"
      ],
      [
        "w",
        "i"
      ],
      [
        "n",
        "a"
      ],
      [
        "y",
        "m"
      ],
      [
        "Ġ",
        "u"
      ],
      [
        "a",
        "m"
      ],
      [
        "n",
        "e"
      ],
      [
        "Ġ",
        "a"
      ],
      [
        "Ġ",
        "g"
      ],
      [
        "k",
        "o"
      ],
      [
        "Ġ",
        "c"
      ],
      [
        "Ġ",
        "âĢĶ"
      ],
      [
        "k",
        "a"
      ],
      [
        "Äħ",
        "c"
      ],
      [
        "k",
        "i"
      ],
      [
        "y",
        "ch"
      ],
      [
        "cz",
        "y"
      ],
      [
        "dz",
        "i"
      ],
      [
        "ĊĠ",
        "ĊĊ"
      ],
      [
        "Ġp",
        "rze"
      ],
      [
        "Ġw",
        "y"
      ],
      [
        "ĊĠ",
        "Ċ"
      ],
      [
        "d",
        "y"
      ],
      [
        "a",
        "j"
      ],
      [
        "Ã³",
        "w"
      ],
      [
        "ĊĠĊĊ",
        "ĊĠĊ"
      ],
      [
        "c",
        "ie"
      ],
      [
        "Ġ",
        "ĊĊ"
      ],
      [
        "b",
        "y"
      ],
      [
        "Ġb",
        "y"
      ],
      [
        "Ġs",
        "t"
      ],
      [
        "e",
        "go"
      ],
      [
        "Ġj",
        "ak"
      ],
      [
        "a",
        "t"
      ],
      [
        "w",
        "o"
      ],
      [
        "n",
        "o"
      ],
      [
        "Ġt",
        "o"
      ],
      [
        "e",
        "j"
      ],
      [
        "Ġ",
        "Å¼e"
      ],
      [
        "ÅĽ",
        "ci"
      ],
      [
        "âĢ",
        "ī"
      ],
      [
        "w",
        "a"
      ],
      [
        "Ġo",
        "d"
      ],
      [
        "dz",
        "ie"
      ],
      [
        "t",
        "Ã³"
      ],
      [
        "r",
        "y"
      ],
      [
        "Ġp",
        "rzy"
      ],
      [
        "a",
        "d"
      ],
      [
        "p",
        "o"
      ],
      [
        "sz",
        "y"
      ],
      [
        "aÅĤ",
        "a"
      ],
      [
        "Ġ",
        "ch"
      ],
      [
        "Ġk",
        "tÃ³"
      ],
      [
        "k",
        "ie"
      ],
      [
        "n",
        "y"
      ],
      [
        "Ġm",
        "i"
      ],
      [
        "m",
        "i"
      ],
      [
        "Ġ",
        "cz"
      ],
      [
        "Ġ",
        "ro"
      ],
      [
        "Å",
        "Ħ"
      ],
      [
        "l",
        "a"
      ],
      [
        "Ġn",
        "i"
      ],
      [
        "Ġm",
        "o"
      ],
      [
        "n",
        "Äħ"
      ],
      [
        "r",
        "e"
      ],
      [
        "an",
        "i"
      ],
      [
        "o",
        "b"
      ],
      [
        "Ġ",
        "P"
      ],
      [
        "w",
        "ie"
      ],
      [
        "Ġs",
        "z"
      ],
      [
        "r",
        "u"
      ],
      [
        "s",
        "i"
      ],
      [
        "ÅĤ",
        "y"
      ],
      [
        ".",
        "."
      ],
      [
        "Å¼",
        "y"
      ],
      [
        "cz",
        "e"
      ],
      [
        "ow",
        "ie"
      ],
      [
        "Ġk",
        "o"
      ],
      [
        "Ġ",
        "W"
      ],
      [
        "a",
        "Äĩ"
      ],
      [
        "Ġ",
        "N"
      ],
      [
        "Ġ",
        "ÅĽ"
      ],
      [
        "r",
        "Ã³"
      ],
      [
        "m",
        "ie"
      ],
      [
        "k",
        "u"
      ],
      [
        "e",
        "n"
      ],
      [
        "Ġt",
        "ak"
      ],
      [
        "Ġw",
        "ie"
      ],
      [
        "e",
        "r"
      ],
      [
        "Ġ",
        "go"
      ],
      [
        "l",
        "u"
      ],
      [
        "ÅĽ",
        "Äĩ"
      ],
      [
        "ÅĤ",
        "u"
      ],
      [
        "Ġc",
        "o"
      ],
      [
        "ra",
        "z"
      ],
      [
        "Ġro",
        "z"
      ],
      [
        "Ġ",
        "A"
      ],
      [
        "ĠĊĊ",
        "ĠĊĊ"
      ],
      [
        "Ġpo",
        "d"
      ],
      [
        "a",
        "s"
      ],
      [
        "c",
        "e"
      ],
      [
        "Ġd",
        "z"
      ],
      [
        "sz",
        "e"
      ],
      [
        "j",
        "e"
      ],
      [
        "Ġ",
        "M"
      ],
      [
        "t",
        "o"
      ],
      [
        "Ġo",
        "b"
      ],
      [
        "ni",
        "a"
      ],
      [
        "Ġ",
        "S"
      ],
      [
        "ow",
        "i"
      ],
      [
        "Ġ",
        "T"
      ],
      [
        "Ġ",
        "C"
      ],
      [
        "Ġ",
        "B"
      ],
      [
        "t",
        "y"
      ],
      [
        "Ġ",
        "J"
      ],
      [
        "m",
        "y"
      ],
      [
        "t",
        "a"
      ],
      [
        "Ġw",
        "i"
      ],
      [
        "Ġt",
        "y"
      ],
      [
        "Ġm",
        "u"
      ],
      [
        "d",
        "a"
      ],
      [
        "Ġje",
        "st"
      ],
      [
        "am",
        "i"
      ],
      [
        "c",
        "y"
      ],
      [
        "b",
        "i"
      ],
      [
        "t",
        "e"
      ],
      [
        "aÅĤ",
        "y"
      ],
      [
        "Å",
        "º"
      ],
      [
        "aÅĤ",
        "o"
      ],
      [
        "Ġp",
        "an"
      ],
      [
        "r",
        "ÄĻ"
      ],
      [
        "p",
        "i"
      ],
      [
        "aj",
        "Äħc"
      ],
      [
        "Ġ",
        "K"
      ],
      [
        "ow",
        "a"
      ],
      [
        "Ġ",
        "Z"
      ],
      [
        "w",
        "y"
      ],
      [
        "n",
        "ym"
      ],
      [
        "b",
        "ie"
      ],
      [
        "u",
        "Å¼"
      ],
      [
        "a",
        "l"
      ],
      [
        "p",
        "ie"
      ],
      [
        "n",
        "ych"
      ],
      [
        "ĠktÃ³",
        "r"
      ],
      [
        "Ġt",
        "e"
      ],
      [
        "an",
        "ie"
      ],
      [
        "Ġ",
        "D"
      ],
      [
        "a",
        "ch"
      ],
      [
        "n",
        "ÄĻ"
      ],
      [
        "ob",
        "ie"
      ],
      [
        "Ġs",
        "po"
      ],
      [
        "Ġ",
        "O"
      ],
      [
        "t",
        "u"
      ],
      [
        "Ġw",
        "szy"
      ],
      [
        "Ġs",
        "p"
      ],
      [
        "Ġje",
        "d"
      ],
      [
        "Ġa",
        "le"
      ],
      [
        "Ġ",
        "lu"
      ],
      [
        "g",
        "i"
      ],
      [
        "Ġm",
        "Ã³"
      ],
      [
        "m",
        "u"
      ],
      [
        "Ġ",
        "rze"
      ],
      [
        "j",
        "a"
      ],
      [
        "ne",
        "go"
      ],
      [
        "..",
        "."
      ],
      [
        "e",
        "z"
      ],
      [
        "âĢ",
        "¦"
      ],
      [
        "Ġ",
        "ci"
      ],
      [
        "Ġb",
        "o"
      ],
      [
        "ĠN",
        "ie"
      ],
      [
        "c",
        "a"
      ],
      [
        "nie",
        "j"
      ],
      [
        "z",
        "y"
      ],
      [
        "Äħ",
        "d"
      ],
      [
        "Ġdz",
        "ie"
      ],
      [
        "Ġw",
        "o"
      ],
      [
        "Ġp",
        "ra"
      ],
      [
        "Ġj",
        "uÅ¼"
      ],
      [
        "st",
        "a"
      ],
      [
        "b",
        "o"
      ],
      [
        "Ġ",
        "le"
      ],
      [
        "Ġje",
        "go"
      ],
      [
        "j",
        "Äħc"
      ],
      [
        "Ġwszy",
        "st"
      ],
      [
        "l",
        "o"
      ],
      [
        "s",
        "ki"
      ],
      [
        "w",
        "e"
      ],
      [
        "Ġs",
        "am"
      ],
      [
        "Ã",
        "©"
      ],
      [
        "m",
        "o"
      ],
      [
        "w",
        "aÅĤ"
      ],
      [
        "ne",
        "j"
      ],
      [
        "Ġg",
        "dy"
      ],
      [
        "Ġje",
        "j"
      ],
      [
        "d",
        "o"
      ],
      [
        "ch",
        "o"
      ],
      [
        "Ġ",
        "Å¼y"
      ],
      [
        "Ġm",
        "nie"
      ],
      [
        "Ġ",
        "f"
      ],
      [
        "b",
        "a"
      ],
      [
        "l",
        "ko"
      ],
      [
        "Ġ",
        "czy"
      ],
      [
        "Ġm",
        "ie"
      ],
      [
        "Ġ",
        "Å¼"
      ],
      [
        "Ġz",
        "e"
      ],
      [
        "Ġk",
        "a"
      ],
      [
        "ÅĤ",
        "em"
      ],
      [
        "j",
        "Äħ"
      ],
      [
        "sz",
        "cze"
      ],
      [
        "cz",
        "ÄĻ"
      ],
      [
        "Ġby",
        "ÅĤo"
      ],
      [
        "m",
        "a"
      ],
      [
        "Ġna",
        "j"
      ],
      [
        "aÅĤ",
        "em"
      ],
      [
        "e",
        "k"
      ],
      [
        "Ġp",
        "ie"
      ],
      [
        "j",
        "ÄĻ"
      ],
      [
        "Ġty",
        "lko"
      ],
      [
        "o",
        "r"
      ],
      [
        "Ġ",
        "âĢ"
      ],
      [
        "Ġd",
        "la"
      ],
      [
        "Ġt",
        "ego"
      ],
      [
        "kie",
        "m"
      ],
      [
        "Ġi",
        "n"
      ],
      [
        "k",
        "ÄĻ"
      ],
      [
        "no",
        "ÅĽci"
      ],
      [
        "Ġby",
        "ÅĤ"
      ],
      [
        "Ġt",
        "ym"
      ],
      [
        "Ġ",
        "ra"
      ],
      [
        "ÅĽ",
        "li"
      ],
      [
        "ĠP",
        "o"
      ],
      [
        "Ġm",
        "a"
      ],
      [
        "Ġs",
        "obie"
      ],
      [
        "Ġ",
        "h"
      ],
      [
        "Ġg",
        "ÅĤ"
      ],
      [
        "Ġz",
        "na"
      ],
      [
        "k",
        "Äħ"
      ],
      [
        "Ġprze",
        "z"
      ],
      [
        "ani",
        "a"
      ],
      [
        "nÄħ",
        "ÅĤ"
      ],
      [
        "Ġprze",
        "d"
      ],
      [
        "Ġw",
        "z"
      ],
      [
        "Ġ",
        "G"
      ],
      [
        "Ġ",
        "R"
      ],
      [
        "ÅĽ",
        "cie"
      ],
      [
        "Ġpo",
        "t"
      ],
      [
        "s",
        "kie"
      ],
      [
        "Ġc",
        "ie"
      ],
      [
        "d",
        "u"
      ],
      [
        "Ġza",
        "p"
      ],
      [
        "e",
        "ÅĤ"
      ],
      [
        "i",
        "l"
      ],
      [
        "Ġs",
        "w"
      ],
      [
        "Ġp",
        "ow"
      ],
      [
        "Ġk",
        "u"
      ],
      [
        "Ġje",
        "szcze"
      ],
      [
        "cz",
        "o"
      ],
      [
        "Ġs",
        "ie"
      ],
      [
        "dz",
        "o"
      ],
      [
        "st",
        "o"
      ],
      [
        "Ġs",
        "wo"
      ],
      [
        "Ġm",
        "y"
      ],
      [
        "Ġw",
        "iÄĻ"
      ],
      [
        "Ġd",
        "a"
      ],
      [
        "Äħ",
        "g"
      ],
      [
        "ĠâĢ",
        "ŀ"
      ],
      [
        "Ġb",
        "ez"
      ],
      [
        "Ġs",
        "k"
      ],
      [
        "Ġb",
        "ÄĻ"
      ],
      [
        "w",
        "szy"
      ],
      [
        "Ġp",
        "ro"
      ],
      [
        "Ġ",
        "rÄĻ"
      ],
      [
        "Ġdz",
        "i"
      ],
      [
        "k",
        "ÅĤ"
      ],
      [
        "ĠktÃ³",
        "ry"
      ],
      [
        "Ġj",
        "a"
      ],
      [
        "ci",
        "a"
      ],
      [
        "Ġb",
        "ar"
      ],
      [
        "Ġ",
        "I"
      ],
      [
        "e",
        "w"
      ],
      [
        "Ġ",
        "L"
      ],
      [
        "o",
        "s"
      ],
      [
        "Ġt",
        "u"
      ],
      [
        "g",
        "a"
      ],
      [
        "Ġna",
        "d"
      ],
      [
        "âĢ",
        "Ŀ"
      ],
      [
        "dzi",
        "aÅĤ"
      ],
      [
        "Ġa",
        "by"
      ],
      [
        "Ġi",
        "ch"
      ],
      [
        "Ġp",
        "owie"
      ],
      [
        "l",
        "ÄĻ"
      ],
      [
        "Ġpo",
        "z"
      ],
      [
        "ĠmÃ³",
        "wi"
      ],
      [
        "aj",
        "Äħ"
      ],
      [
        "i",
        "m"
      ],
      [
        "Ã©",
        "j"
      ],
      [
        "Ġ",
        "raz"
      ],
      [
        "u",
        "sz"
      ],
      [
        "r",
        "an"
      ],
      [
        "g",
        "ÅĤ"
      ],
      [
        "Ġch",
        "wi"
      ],
      [
        "Ã³",
        "ÅĤ"
      ],
      [
        "Ġj",
        "Äħ"
      ],
      [
        "s",
        "y"
      ],
      [
        "rz",
        "u"
      ],
      [
        "Ġ",
        "li"
      ],
      [
        "Ġn",
        "o"
      ],
      [
        "Ġo",
        "p"
      ],
      [
        "Ġmo",
        "Å¼e"
      ],
      [
        "Ġdo",
        "b"
      ],
      [
        "k",
        "Ã³w"
      ],
      [
        "Ġw",
        "ÅĤa"
      ],
      [
        "Ġw",
        "e"
      ],
      [
        "a",
        "li"
      ],
      [
        "s",
        "ka"
      ],
      [
        "ÅĽ",
        "l"
      ],
      [
        "c",
        "u"
      ],
      [
        "s",
        "iÄĻ"
      ],
      [
        "Ġcz",
        "as"
      ],
      [
        "Ġmo",
        "g"
      ],
      [
        "d",
        "e"
      ],
      [
        "o",
        "n"
      ],
      [
        "Ġod",
        "p"
      ],
      [
        "Ġt",
        "en"
      ],
      [
        "an",
        "y"
      ],
      [
        "Ġo",
        "g"
      ],
      [
        "Ġk",
        "ie"
      ],
      [
        "cz",
        "u"
      ],
      [
        "Ġch",
        "o"
      ],
      [
        "ĠÅĽ",
        "wi"
      ],
      [
        "ĠwiÄĻ",
        "c"
      ],
      [
        "Ġz",
        "n"
      ],
      [
        "Ġk",
        "rÃ³"
      ],
      [
        "Ġwie",
        "l"
      ],
      [
        "em",
        "u"
      ],
      [
        "ĠktÃ³",
        "re"
      ],
      [
        "cz",
        "Äħ"
      ],
      [
        "Ġt",
        "am"
      ],
      [
        "an",
        "a"
      ],
      [
        "Ġp",
        "i"
      ],
      [
        "ar",
        "y"
      ],
      [
        "s",
        "u"
      ],
      [
        "z",
        "u"
      ],
      [
        "Ġc",
        "aÅĤ"
      ],
      [
        "no",
        "ÅĽÄĩ"
      ],
      [
        "s",
        "po"
      ],
      [
        "ow",
        "aÅĤ"
      ],
      [
        "dz",
        "e"
      ],
      [
        "ÅĤ",
        "owie"
      ],
      [
        "st",
        "y"
      ],
      [
        "Ġni",
        "m"
      ],
      [
        "Ġs",
        "i"
      ],
      [
        "Ġt",
        "ej"
      ],
      [
        "Ġ",
        "Å"
      ],
      [
        "ow",
        "o"
      ],
      [
        "ni",
        "u"
      ],
      [
        "t",
        "em"
      ],
      [
        "Ã³",
        "j"
      ],
      [
        "n",
        "iÄĻ"
      ],
      [
        "sz",
        "a"
      ],
      [
        "l",
        "at"
      ],
      [
        "o",
        "ny"
      ],
      [
        "Ġ",
        "ÅĤa"
      ],
      [
        "Ġpie",
        "r"
      ],
      [
        "g",
        "ie"
      ],
      [
        "r",
        "Ã³w"
      ],
      [
        "Ġp",
        "a"
      ],
      [
        "Ġby",
        "ÅĤa"
      ],
      [
        "iÄĻ",
        "k"
      ],
      [
        "an",
        "o"
      ],
      [
        "we",
        "t"
      ],
      [
        "g",
        "u"
      ],
      [
        "Ġs",
        "Äħ"
      ],
      [
        "b",
        "u"
      ],
      [
        "o",
        "st"
      ],
      [
        "y",
        "t"
      ],
      [
        "Ġb",
        "i"
      ],
      [
        "d",
        "ÄĻ"
      ],
      [
        "ĠA",
        "le"
      ],
      [
        "Ġo",
        "k"
      ],
      [
        "s",
        "k"
      ],
      [
        "Ġz",
        "d"
      ],
      [
        "p",
        "ra"
      ],
      [
        "s",
        "a"
      ],
      [
        "Ġp",
        "ani"
      ],
      [
        "ow",
        "y"
      ],
      [
        "ĠJ",
        "e"
      ],
      [
        "ĠN",
        "a"
      ],
      [
        "d",
        "ÅĤ"
      ],
      [
        "s",
        "ie"
      ],
      [
        "k",
        "ÅĤa"
      ],
      [
        "Ġ",
        "ani"
      ],
      [
        "ÅĽ",
        "my"
      ],
      [
        "Ġst",
        "o"
      ],
      [
        "Ã³",
        "r"
      ],
      [
        "Ġg",
        "ÅĤo"
      ],
      [
        "f",
        "i"
      ],
      [
        "ĠbÄĻ",
        "dzie"
      ],
      [
        "s",
        "ÅĤ"
      ],
      [
        "dz",
        "y"
      ],
      [
        "e",
        "l"
      ],
      [
        "ĠT",
        "o"
      ],
      [
        "ow",
        "aÄĩ"
      ],
      [
        "ĠB",
        "o"
      ],
      [
        "Ġ",
        "H"
      ],
      [
        "Ġs",
        "ÅĤ"
      ],
      [
        "Ġd",
        "ro"
      ],
      [
        "Ġbar",
        "dzo"
      ],
      [
        "Ġd",
        "u"
      ],
      [
        "Ġna",
        "wet"
      ],
      [
        "rz",
        "a"
      ],
      [
        "Ġi",
        "Å¼"
      ],
      [
        "Ġsz",
        "e"
      ],
      [
        "Ġo",
        "n"
      ],
      [
        "o",
        "na"
      ],
      [
        "an",
        "e"
      ],
      [
        "Ġjak",
        "ie"
      ],
      [
        "Ġcz",
        "ÅĤowie"
      ],
      [
        "ki",
        "ch"
      ],
      [
        "ÄĻ",
        "p"
      ],
      [
        "Ġd",
        "ru"
      ],
      [
        "c",
        "j"
      ],
      [
        "nie",
        "m"
      ],
      [
        "Ġz",
        "ie"
      ],
      [
        "i",
        "ch"
      ],
      [
        "Ġs",
        "ÅĤu"
      ],
      [
        "Äħ",
        "Å¼"
      ],
      [
        "rÃ³",
        "Å¼"
      ],
      [
        "wa",
        "Äĩ"
      ],
      [
        "p",
        "ad"
      ],
      [
        "s",
        "o"
      ],
      [
        "Ġby",
        "Äĩ"
      ],
      [
        "Ġt",
        "a"
      ],
      [
        "ÅĦ",
        "st"
      ],
      [
        "z",
        "i"
      ],
      [
        "Ġrze",
        "kÅĤ"
      ],
      [
        "ĠÅĽ",
        "mie"
      ],
      [
        "ÅĽ",
        "nie"
      ],
      [
        "n",
        "ak"
      ],
      [
        "Ġni",
        "c"
      ],
      [
        "ci",
        "ÅĤ"
      ],
      [
        "e",
        "t"
      ],
      [
        "Ġkie",
        "dy"
      ],
      [
        "o",
        "m"
      ],
      [
        "ko",
        "j"
      ],
      [
        "Ġmi",
        "aÅĤ"
      ],
      [
        "cz",
        "nie"
      ],
      [
        "s",
        "ko"
      ],
      [
        "Ġwszyst",
        "ko"
      ],
      [
        "Ġg",
        "dzie"
      ],
      [
        "Ġza",
        "w"
      ],
      [
        "Ġ",
        "ru"
      ],
      [
        "d",
        "ni"
      ],
      [
        "u",
        "r"
      ],
      [
        "Ġc",
        "iÄĻ"
      ],
      [
        "Ġnie",
        "z"
      ],
      [
        "Ġd",
        "ÅĤu"
      ],
      [
        "Ġst",
        "ra"
      ],
      [
        "dzi",
        "ÅĤ"
      ],
      [
        "ym",
        "i"
      ],
      [
        "Ġjak",
        "o"
      ],
      [
        "a",
        "st"
      ],
      [
        "re",
        "sz"
      ],
      [
        "ĠC",
        "h"
      ],
      [
        "Ġs",
        "er"
      ],
      [
        "cz",
        "as"
      ],
      [
        "rzy",
        "m"
      ],
      [
        "Ġm",
        "ÅĤo"
      ],
      [
        "Ġp",
        "u"
      ],
      [
        "Ġpra",
        "w"
      ],
      [
        "Ġte",
        "Å¼"
      ],
      [
        "n",
        "em"
      ],
      [
        "Ġst",
        "ro"
      ],
      [
        "b",
        "ym"
      ],
      [
        "Ġp",
        "ew"
      ],
      [
        "Ġt",
        "ych"
      ],
      [
        "Ġst",
        "ar"
      ],
      [
        "Ġt",
        "wa"
      ],
      [
        "st",
        "ÄĻp"
      ],
      [
        "Ġ",
        "F"
      ],
      [
        "b",
        "li"
      ],
      [
        "Ġo",
        "czy"
      ],
      [
        "o",
        "ne"
      ],
      [
        "ĠÅĽwi",
        "at"
      ],
      [
        "t",
        "Äħ"
      ],
      [
        "Ġo",
        "st"
      ],
      [
        "Ġd",
        "e"
      ],
      [
        "ĠZ",
        "a"
      ],
      [
        "Ġ",
        "ÅĤ"
      ],
      [
        "aj",
        "e"
      ],
      [
        "Ġsie",
        "bie"
      ],
      [
        "Ġka",
        "Å¼"
      ],
      [
        "ni",
        "k"
      ],
      [
        "owi",
        "ad"
      ],
      [
        "p",
        "eÅĤ"
      ],
      [
        "Ã³",
        "Å¼"
      ],
      [
        "Ġnie",
        "j"
      ],
      [
        "Ġt",
        "rze"
      ],
      [
        "Ġte",
        "raz"
      ],
      [
        "Ġnie",
        "go"
      ],
      [
        "w",
        "aÅĤa"
      ],
      [
        "t",
        "ow"
      ],
      [
        "rz",
        "ÄĻ"
      ],
      [
        "Ġjed",
        "nak"
      ],
      [
        "rz",
        "Äħ"
      ],
      [
        "n",
        "u"
      ],
      [
        "Ġsp",
        "ra"
      ],
      [
        "w",
        "iÄĻ"
      ],
      [
        "ch",
        "a"
      ],
      [
        "sze",
        "dÅĤ"
      ],
      [
        "m",
        "iÄĻ"
      ],
      [
        "Ġb",
        "ra"
      ],
      [
        "k",
        "ow"
      ],
      [
        "nÄĻ",
        "ÅĤa"
      ],
      [
        "Ġo",
        "t"
      ],
      [
        "dzi",
        "Äĩ"
      ],
      [
        "ĠÅĽ",
        "wie"
      ],
      [
        "Ġw",
        "a"
      ],
      [
        "s",
        "p"
      ],
      [
        "dz",
        "Äħc"
      ],
      [
        "Ġo",
        "j"
      ],
      [
        "r",
        "owa"
      ],
      [
        "g",
        "dy"
      ],
      [
        "j",
        "s"
      ],
      [
        "Ġm",
        "ÄĻ"
      ],
      [
        "Ġb",
        "u"
      ],
      [
        "r",
        "Äħ"
      ],
      [
        "o",
        "t"
      ],
      [
        "Ġna",
        "s"
      ],
      [
        "Ġst",
        "a"
      ],
      [
        "sta",
        "wi"
      ],
      [
        "wa",
        "Å¼"
      ],
      [
        "Ġch",
        "ci"
      ],
      [
        "Ġmu",
        "si"
      ],
      [
        "ki",
        "m"
      ],
      [
        "cz",
        "a"
      ],
      [
        "Ġda",
        "le"
      ],
      [
        "w",
        "ar"
      ],
      [
        "czy",
        "ÅĤ"
      ],
      [
        "ch",
        "y"
      ],
      [
        "Ġb",
        "ie"
      ],
      [
        "sz",
        "Äħ"
      ],
      [
        "ĠJ",
        "ak"
      ],
      [
        "Ġjak",
        "by"
      ],
      [
        "z",
        "na"
      ],
      [
        "Ġt",
        "ÄĻ"
      ],
      [
        "Ġz",
        "ÅĤo"
      ],
      [
        "Ġk",
        "il"
      ],
      [
        "ĠktÃ³",
        "ra"
      ],
      [
        "d",
        "Åº"
      ],
      [
        "Ġlu",
        "b"
      ],
      [
        "Ġni",
        "ch"
      ],
      [
        "Ġchwi",
        "li"
      ],
      [
        "e",
        "ÅĽ"
      ],
      [
        "Ġmo",
        "Å¼"
      ],
      [
        "Ġk",
        "obie"
      ],
      [
        "d",
        "Äħ"
      ],
      [
        "Ġ",
        "U"
      ],
      [
        "Ġz",
        "w"
      ],
      [
        "ĠmÃ³",
        "gÅĤ"
      ],
      [
        "Ġst",
        "an"
      ],
      [
        "p",
        "a"
      ],
      [
        "Ġ",
        "re"
      ],
      [
        "Ġp",
        "at"
      ],
      [
        "Ġza",
        "ÅĽ"
      ],
      [
        "g",
        "l"
      ],
      [
        "rÃ³",
        "d"
      ],
      [
        "Ġ",
        "*"
      ],
      [
        "Ġm",
        "iÄĻ"
      ],
      [
        "Ġmie",
        "js"
      ],
      [
        "Ġz",
        "ro"
      ],
      [
        "ch",
        "u"
      ],
      [
        "-",
        "-"
      ],
      [
        "Ġs",
        "y"
      ],
      [
        "ka",
        "z"
      ],
      [
        "Ġlu",
        "dzi"
      ],
      [
        "ĠC",
        "zy"
      ],
      [
        "Ġwszyst",
        "kie"
      ],
      [
        "skie",
        "go"
      ],
      [
        "ÅĽci",
        "Äħ"
      ],
      [
        "dzie",
        "Äĩ"
      ],
      [
        "Ġ",
        "e"
      ],
      [
        "Ġs",
        "u"
      ],
      [
        "Ġo",
        "s"
      ],
      [
        "cj",
        "i"
      ],
      [
        "Ġmy",
        "ÅĽl"
      ],
      [
        "ci",
        "Äħg"
      ],
      [
        "Ġa",
        "l"
      ],
      [
        "sz",
        "ych"
      ],
      [
        "Ġ",
        "ry"
      ],
      [
        "Ġodp",
        "owie"
      ],
      [
        "Ġi",
        "m"
      ],
      [
        "ĠW",
        "i"
      ],
      [
        "Äħ",
        "t"
      ],
      [
        "Ġni",
        "Å¼"
      ],
      [
        "ĠC",
        "o"
      ],
      [
        "ĠM",
        "o"
      ],
      [
        "ÅĽ",
        "mie"
      ],
      [
        "e",
        "cz"
      ],
      [
        "ĠgÅĤ",
        "ow"
      ],
      [
        "ĠT",
        "ak"
      ],
      [
        "d",
        "ow"
      ],
      [
        "Ġm",
        "at"
      ],
      [
        "sz",
        "ÄĻ"
      ],
      [
        "Ã³",
        "d"
      ],
      [
        "rz",
        "aÅĤ"
      ],
      [
        "nÄħ",
        "Äĩ"
      ],
      [
        "k",
        "t"
      ],
      [
        "Ġg",
        "ro"
      ],
      [
        "Ġ",
        "lat"
      ],
      [
        "Ġk",
        "rzy"
      ],
      [
        "Ġ",
        "("
      ],
      [
        "ra",
        "c"
      ],
      [
        "ĠktÃ³r",
        "ych"
      ],
      [
        "Ġa",
        "Å¼"
      ],
      [
        "Ġle",
        "cz"
      ],
      [
        "g",
        "ÄĻ"
      ],
      [
        "s",
        "ÅĤu"
      ],
      [
        "Ġjak",
        "i"
      ],
      [
        "Ġm",
        "am"
      ],
      [
        "Ġz",
        "ak"
      ],
      [
        "czy",
        "Äĩ"
      ],
      [
        "Ġch",
        "ÅĤo"
      ],
      [
        "Ġsz",
        "czÄĻ"
      ],
      [
        "Ġsz",
        "y"
      ],
      [
        "si",
        "ad"
      ],
      [
        "sz",
        "ego"
      ],
      [
        "Ġ",
        "E"
      ],
      [
        "Ġk",
        "to"
      ],
      [
        "Ġcz",
        "u"
      ],
      [
        "ka",
        "ch"
      ],
      [
        "Ġrze",
        "czy"
      ],
      [
        "Ġdo",
        "mu"
      ],
      [
        "ci",
        "w"
      ],
      [
        "ĠB",
        "y"
      ],
      [
        "Ġb",
        "a"
      ],
      [
        "c",
        "ÄĻ"
      ],
      [
        "Ġzaw",
        "sze"
      ],
      [
        "t",
        "ych"
      ],
      [
        "st",
        "Äħ"
      ],
      [
        "Ġp",
        "iÄĻk"
      ],
      [
        "ĠJ",
        "a"
      ],
      [
        "ni",
        "Äĩ"
      ],
      [
        "Ġco",
        "ÅĽ"
      ],
      [
        "d",
        "nie"
      ],
      [
        "Ġspo",
        "s"
      ],
      [
        "u",
        "t"
      ],
      [
        "at",
        "y"
      ],
      [
        "Ġw",
        "p"
      ],
      [
        "c",
        "o"
      ],
      [
        "Ġk",
        "siÄĻ"
      ],
      [
        "dzie",
        "j"
      ],
      [
        "ra",
        "j"
      ],
      [
        "e",
        "c"
      ],
      [
        "u",
        "m"
      ],
      [
        "st",
        "rze"
      ],
      [
        "Ġs",
        "ko"
      ],
      [
        "ĠktÃ³r",
        "ego"
      ],
      [
        "Ġmi",
        "ÅĤo"
      ],
      [
        "k",
        "ami"
      ],
      [
        "s",
        "cy"
      ],
      [
        "ow",
        "u"
      ],
      [
        "ĠP",
        "rze"
      ],
      [
        "Ġpan",
        "a"
      ],
      [
        "p",
        "rze"
      ],
      [
        "ÅĤ",
        "Äħ"
      ],
      [
        "Ġza",
        "m"
      ],
      [
        "z",
        "ie"
      ],
      [
        "cz",
        "Äħc"
      ],
      [
        "t",
        "nie"
      ],
      [
        "u",
        "n"
      ],
      [
        "ĠC",
        "z"
      ],
      [
        "c",
        "Äħ"
      ],
      [
        "Äħ",
        "z"
      ],
      [
        "Ġni",
        "Äħ"
      ],
      [
        "s",
        "ku"
      ],
      [
        "Ġ",
        "ÅĽci"
      ],
      [
        "b",
        "r"
      ],
      [
        "Ġz",
        "u"
      ],
      [
        "li",
        "ÅĽmy"
      ],
      [
        "p",
        "u"
      ],
      [
        "P",
        "o"
      ],
      [
        "Ġgdy",
        "by"
      ],
      [
        "d",
        "em"
      ],
      [
        "ĠÅ",
        "»"
      ],
      [
        "Ġza",
        "wo"
      ],
      [
        "ĠÅ¼",
        "ad"
      ],
      [
        "Ġtak",
        "ie"
      ],
      [
        "Ġt",
        "ro"
      ],
      [
        "sz",
        "ym"
      ],
      [
        "Ġz",
        "da"
      ],
      [
        "Å¼",
        "a"
      ],
      [
        "sz",
        "ej"
      ],
      [
        "Ġs",
        "ÅĤo"
      ],
      [
        "d",
        "li"
      ],
      [
        "ĠS",
        "z"
      ],
      [
        "ĠgÅĤo",
        "s"
      ],
      [
        "Ġz",
        "wy"
      ],
      [
        "t",
        "ÄĻ"
      ],
      [
        "ni",
        "ÅĤ"
      ],
      [
        "o",
        "no"
      ],
      [
        "Ġs",
        "ob"
      ],
      [
        "âĢ",
        "ĵ"
      ],
      [
        "o",
        "ÅĤ"
      ],
      [
        "Ġpod",
        "ob"
      ],
      [
        "Ġ",
        "rÃ³w"
      ],
      [
        "Ġt",
        "ru"
      ],
      [
        "Ġw",
        "ar"
      ],
      [
        "s",
        "ÅĤa"
      ],
      [
        "Ġal",
        "bo"
      ],
      [
        "t",
        "aÅĤ"
      ],
      [
        "ci",
        "u"
      ],
      [
        "ar",
        "ÅĤ"
      ],
      [
        "rzy",
        "ÅĤ"
      ],
      [
        "t",
        "Ã³w"
      ],
      [
        "Å¼y",
        "ÅĤ"
      ],
      [
        "ani",
        "u"
      ],
      [
        "ĠktÃ³r",
        "ej"
      ],
      [
        "Ġd",
        "w"
      ],
      [
        "Ġni",
        "gdy"
      ],
      [
        "Ġzna",
        "j"
      ],
      [
        "Ġda",
        "w"
      ],
      [
        "Ġo",
        "na"
      ],
      [
        "Ã³",
        "l"
      ],
      [
        "Ġo",
        "cz"
      ],
      [
        "Ġk",
        "si"
      ],
      [
        "Ġt",
        "em"
      ],
      [
        "Ġby",
        "ÅĤy"
      ],
      [
        "ĠwÅĤa",
        "s"
      ],
      [
        "ow",
        "e"
      ],
      [
        "w",
        "em"
      ],
      [
        "ĠM",
        "i"
      ],
      [
        "ÅĤy",
        "sz"
      ],
      [
        "st",
        "u"
      ],
      [
        "ĠÅĽmie",
        "r"
      ],
      [
        "ĠwiÄĻc",
        "ej"
      ],
      [
        "ÅĤa",
        "m"
      ],
      [
        "Ġcho",
        "Äĩ"
      ],
      [
        "Ġcz",
        "ÄĻ"
      ],
      [
        "mi",
        "aÅĤ"
      ],
      [
        "âĢĿ",
        "."
      ],
      [
        "Ġko",
        "ch"
      ],
      [
        "ĠD",
        "o"
      ],
      [
        "rz",
        "wi"
      ],
      [
        "w",
        "Äħ"
      ],
      [
        "ĠP",
        "rzy"
      ],
      [
        "Ġpier",
        "w"
      ],
      [
        "z",
        "a"
      ],
      [
        "Ġci",
        "Äħg"
      ],
      [
        "ĠÅ¼e",
        "by"
      ],
      [
        "w",
        "aÅĤo"
      ],
      [
        "rÃ³",
        "ci"
      ],
      [
        "czÄħ",
        "ÅĤ"
      ],
      [
        "Ġz",
        "ost"
      ],
      [
        "Ġna",
        "m"
      ],
      [
        "Ġsz",
        "cze"
      ],
      [
        "Ġdob",
        "rze"
      ],
      [
        "Ġprzy",
        "ja"
      ],
      [
        "a",
        "le"
      ],
      [
        "Ġsob",
        "Äħ"
      ],
      [
        "ĠmoÅ¼",
        "na"
      ],
      [
        "ĠW",
        "y"
      ],
      [
        "Ġob",
        "o"
      ],
      [
        "Ġzie",
        "mi"
      ],
      [
        "Ġost",
        "at"
      ],
      [
        "Ġ",
        "rzu"
      ],
      [
        "Å¼e",
        "li"
      ],
      [
        "ski",
        "ch"
      ],
      [
        "c",
        "Ã³w"
      ],
      [
        "kie",
        "go"
      ],
      [
        "Ã³",
        "b"
      ],
      [
        "g",
        "Äħ"
      ],
      [
        "g",
        "le"
      ],
      [
        "ni",
        "Äħ"
      ],
      [
        "Ġm",
        "aÅĤ"
      ],
      [
        "ch",
        "ÄĻ"
      ],
      [
        "wi",
        "ÅĤ"
      ],
      [
        "ĠkrÃ³",
        "l"
      ],
      [
        "cz",
        "ne"
      ],
      [
        "Ġd",
        "rzwi"
      ],
      [
        "Ġpot",
        "em"
      ],
      [
        "Ġt",
        "ra"
      ],
      [
        "Ġwszyst",
        "kich"
      ],
      [
        "Ġzn",
        "owu"
      ],
      [
        "gl",
        "Äħd"
      ],
      [
        "Ġprzy",
        "j"
      ],
      [
        "ĠczÅĤowie",
        "k"
      ],
      [
        "ĠK",
        "a"
      ],
      [
        "st",
        "an"
      ],
      [
        "k",
        "ry"
      ],
      [
        "Ġt",
        "wo"
      ],
      [
        "t",
        "wo"
      ],
      [
        "t",
        "k"
      ],
      [
        "Ġwo",
        "j"
      ],
      [
        "i",
        "n"
      ],
      [
        "l",
        "an"
      ],
      [
        "Ġko",
        "ÅĦ"
      ],
      [
        "ĠÅ¼y",
        "cie"
      ],
      [
        "Ġ",
        "Ċ"
      ],
      [
        "n",
        "aÅĤ"
      ],
      [
        "ĠÅ¼y",
        "cia"
      ],
      [
        "st",
        "e"
      ],
      [
        "aj",
        "em"
      ],
      [
        "la",
        "ch"
      ],
      [
        "Ġmy",
        "ÅĽli"
      ],
      [
        "Ġmi",
        "l"
      ],
      [
        "Ġpot",
        "rze"
      ],
      [
        "sz",
        "czÄĻ"
      ],
      [
        "N",
        "ie"
      ],
      [
        "ĠmÃ³",
        "j"
      ],
      [
        "Ġ",
        "lo"
      ],
      [
        "Ġnie",
        "po"
      ],
      [
        "Ã©",
        "m"
      ],
      [
        "Ġp",
        "ar"
      ],
      [
        "ĠgÅĤ",
        "ÄĻ"
      ],
      [
        "Ġk",
        "ro"
      ],
      [
        "cho",
        "dzi"
      ],
      [
        "nym",
        "i"
      ],
      [
        "Ġpow",
        "o"
      ],
      [
        "pra",
        "w"
      ],
      [
        "la",
        "z"
      ],
      [
        "Ġp",
        "eÅĤ"
      ],
      [
        "ĠktÃ³r",
        "ym"
      ],
      [
        "Ġw",
        "ym"
      ],
      [
        "Ġzawo",
        "ÅĤ"
      ],
      [
        "Ġsw",
        "ego"
      ],
      [
        "my",
        "ÅĽl"
      ],
      [
        "ch",
        "em"
      ],
      [
        "dz",
        "ÄĻ"
      ],
      [
        "w",
        "aÅĤy"
      ],
      [
        "Ġwo",
        "l"
      ],
      [
        "ĠktÃ³",
        "rzy"
      ],
      [
        "skie",
        "j"
      ],
      [
        "ad",
        "o"
      ],
      [
        "Ġgo",
        "dzi"
      ],
      [
        "Ġw",
        "sze"
      ],
      [
        "ĠW",
        "ie"
      ],
      [
        "si",
        "ÅĤ"
      ],
      [
        "Ġc",
        "e"
      ],
      [
        "d",
        "aÄĩ"
      ],
      [
        "d",
        "aÅĤ"
      ],
      [
        "dzi",
        "aÅĤa"
      ],
      [
        "j",
        "ej"
      ],
      [
        "ĠS",
        "t"
      ],
      [
        "noÅĽci",
        "Äħ"
      ],
      [
        "ro",
        "d"
      ],
      [
        "p",
        "y"
      ],
      [
        "Ġtrze",
        "ba"
      ],
      [
        "Ġcz",
        "ar"
      ],
      [
        "am",
        "iÄĻ"
      ],
      [
        "owa",
        "rzy"
      ],
      [
        "Ġmie",
        "sz"
      ],
      [
        "Ġu",
        "ÅĽmie"
      ],
      [
        "Ġd",
        "wo"
      ],
      [
        "ĠĊĊ",
        "ĠĊ"
      ],
      [
        "ĠktÃ³r",
        "Äħ"
      ],
      [
        "Ã³",
        "g"
      ],
      [
        "N",
        "a"
      ],
      [
        "Ġk",
        "ar"
      ],
      [
        "wa",
        "li"
      ],
      [
        "po",
        "m"
      ],
      [
        "st",
        "wo"
      ],
      [
        "Ġ",
        "rÃ³Å¼"
      ],
      [
        "sz",
        "ÅĤo"
      ],
      [
        "c",
        "iÄĻ"
      ],
      [
        "o",
        "z"
      ],
      [
        "Ġzu",
        "peÅĤ"
      ],
      [
        "an",
        "ych"
      ],
      [
        "r",
        "i"
      ],
      [
        "ĠN",
        "i"
      ],
      [
        "kie",
        "j"
      ],
      [
        "Ġspo",
        "j"
      ],
      [
        "Ġza",
        "raz"
      ],
      [
        "en",
        "t"
      ],
      [
        "Ġdzie",
        "ci"
      ],
      [
        "Ġ",
        "ar"
      ],
      [
        "Ġz",
        "do"
      ],
      [
        "Ġjed",
        "en"
      ],
      [
        "u",
        "d"
      ],
      [
        "yt",
        "aÅĤ"
      ],
      [
        "le",
        "g"
      ],
      [
        "Ġprze",
        "ciw"
      ],
      [
        "Ġp",
        "owi"
      ],
      [
        "ĠwÅĤa",
        "ÅĽnie"
      ],
      [
        "te",
        "k"
      ],
      [
        "Ġu",
        "czy"
      ],
      [
        "p",
        "li"
      ],
      [
        "ĠsÅĤ",
        "owa"
      ],
      [
        "ÅĤ",
        "ÄĻ"
      ],
      [
        "Ġchci",
        "aÅĤ"
      ],
      [
        "dz",
        "Äħ"
      ],
      [
        "resz",
        "cie"
      ],
      [
        "ÅĽci",
        "a"
      ],
      [
        "m",
        "niej"
      ],
      [
        "Ġu",
        "czu"
      ],
      [
        "Ġpan",
        "ie"
      ],
      [
        "Ġczas",
        "u"
      ],
      [
        "Ġ",
        "la"
      ],
      [
        "ĠmÃ³wi",
        "ÅĤ"
      ],
      [
        "Ġo",
        "ko"
      ],
      [
        "an",
        "Äħ"
      ],
      [
        "Ġg",
        "Ã³"
      ],
      [
        "ĠrÄĻ",
        "ce"
      ],
      [
        "ĠmiÄĻ",
        "dzy"
      ],
      [
        "Ġje",
        "dy"
      ],
      [
        "Ġo",
        "w"
      ],
      [
        "Ġ",
        "l"
      ],
      [
        "ÅĽ",
        "rÃ³d"
      ],
      [
        "ÅĽ",
        "le"
      ],
      [
        "Ġw",
        "sp"
      ],
      [
        "Ġdzie",
        "w"
      ],
      [
        "to",
        "r"
      ],
      [
        "wie",
        "r"
      ],
      [
        "k",
        "nÄħÅĤ"
      ],
      [
        "ra",
        "Å¼"
      ],
      [
        "anie",
        "m"
      ],
      [
        "cz",
        "ej"
      ],
      [
        "ĠchÅĤo",
        "p"
      ],
      [
        "ro",
        "m"
      ],
      [
        "Ġp",
        "iÄĻ"
      ],
      [
        "cz",
        "aj"
      ],
      [
        "st",
        "wa"
      ],
      [
        "ĠM",
        "ar"
      ],
      [
        "w",
        "ÄĻ"
      ],
      [
        "Ġt",
        "owarzy"
      ],
      [
        "Ġp",
        "Ã³ÅĤ"
      ],
      [
        "ow",
        "ej"
      ],
      [
        "wi",
        "a"
      ],
      [
        "w",
        "ajÄħc"
      ],
      [
        "ka",
        "Äĩ"
      ],
      [
        "Ġkil",
        "ka"
      ],
      [
        "Ġko",
        "n"
      ],
      [
        "Ġf",
        "i"
      ],
      [
        "Ġi",
        "sto"
      ],
      [
        "sz",
        "ÅĤa"
      ],
      [
        "em",
        "i"
      ],
      [
        "ob",
        "a"
      ],
      [
        "koj",
        "u"
      ],
      [
        "ĠkaÅ¼",
        "d"
      ],
      [
        "Ġt",
        "rzy"
      ],
      [
        "Ġw",
        "st"
      ],
      [
        "Äħc",
        "e"
      ],
      [
        "ĠG",
        "dy"
      ],
      [
        "ra",
        "bi"
      ],
      [
        "Ġm",
        "ar"
      ],
      [
        "sz",
        "u"
      ],
      [
        "Ġcz",
        "e"
      ],
      [
        "Ġd",
        "nia"
      ],
      [
        "Ġd",
        "wa"
      ],
      [
        "Ġko",
        "nie"
      ],
      [
        "Ġp",
        "Ã³"
      ],
      [
        "Ġcz",
        "ego"
      ],
      [
        "Ġp",
        "ÅĤa"
      ],
      [
        "ĊĠĊĊ",
        "ĊĠĊĊĊĠĊ"
      ],
      [
        "mi",
        "ast"
      ],
      [
        "owie",
        "m"
      ],
      [
        "Ġjest",
        "em"
      ],
      [
        "Ġch",
        "ce"
      ],
      [
        "stÄħ",
        "pi"
      ],
      [
        "pi",
        "s"
      ],
      [
        "Ġg",
        "ru"
      ],
      [
        "ni",
        "ka"
      ],
      [
        "c",
        "em"
      ],
      [
        "Ġlu",
        "dzie"
      ],
      [
        "Ġwy",
        "p"
      ],
      [
        "le",
        "m"
      ],
      [
        "Ġna",
        "le"
      ],
      [
        "Ġzro",
        "bi"
      ],
      [
        "Ġz",
        "g"
      ],
      [
        "Ġwi",
        "dzi"
      ],
      [
        "a",
        "ra"
      ],
      [
        "Ġcie",
        "m"
      ],
      [
        "Ġpra",
        "wie"
      ],
      [
        "Ġwszy",
        "scy"
      ],
      [
        "ch",
        "aÅĤ"
      ],
      [
        "by",
        "t"
      ],
      [
        "ski",
        "m"
      ],
      [
        "a",
        "b"
      ],
      [
        "Ġjak",
        "Äħ"
      ],
      [
        "na",
        "j"
      ],
      [
        "z",
        "d"
      ],
      [
        "Ġna",
        "u"
      ],
      [
        "Ġprze",
        "cie"
      ],
      [
        "r",
        "ow"
      ],
      [
        "ÅĽ",
        "wi"
      ],
      [
        "Ġza",
        "t"
      ],
      [
        "ĠP",
        "an"
      ],
      [
        "b",
        "ra"
      ],
      [
        "e",
        "s"
      ],
      [
        "Ġwsze",
        "l"
      ],
      [
        "Å¼y",
        "Äĩ"
      ],
      [
        "Ġtwa",
        "rz"
      ],
      [
        "ĠâĢ",
        "ĵ"
      ],
      [
        "Ġspos",
        "Ã³b"
      ],
      [
        "p",
        "at"
      ],
      [
        "Ġmi",
        "aÅĤa"
      ],
      [
        "Ġwi",
        "do"
      ],
      [
        "cz",
        "aÅĤ"
      ],
      [
        "Ġksi",
        "ÄħÅ¼"
      ],
      [
        "Ġmo",
        "je"
      ],
      [
        "ĠgÅĤow",
        "ÄĻ"
      ],
      [
        "Äħ",
        "ÅĤ"
      ],
      [
        "ĠK",
        "o"
      ],
      [
        "Ġdale",
        "j"
      ],
      [
        "ÅĤ",
        "e"
      ],
      [
        "Ġdru",
        "gi"
      ],
      [
        "cz",
        "ego"
      ],
      [
        "Ġstra",
        "sz"
      ],
      [
        "Ġdo",
        "m"
      ],
      [
        "Ġna",
        "z"
      ],
      [
        "Ġsz",
        "u"
      ],
      [
        "ĠczÅĤowie",
        "ka"
      ],
      [
        "e",
        "d"
      ],
      [
        "Ġro",
        "bi"
      ],
      [
        "ÅĦst",
        "wa"
      ],
      [
        "Ġle",
        "k"
      ],
      [
        "Ġz",
        "m"
      ],
      [
        "Ġtak",
        "Å¼e"
      ],
      [
        "am",
        "y"
      ],
      [
        "Ġlu",
        "dz"
      ],
      [
        "Ġw",
        "ÅĤo"
      ],
      [
        "ĠciÄĻ",
        "Å¼"
      ],
      [
        "Ġu",
        "ro"
      ],
      [
        "Ġcz",
        "ym"
      ],
      [
        "Ġd",
        "r"
      ],
      [
        "Ġs",
        "mu"
      ],
      [
        "pie",
        "ro"
      ],
      [
        "li",
        "cz"
      ],
      [
        "mie",
        "ni"
      ],
      [
        "p",
        "rzy"
      ],
      [
        "o",
        "nÄħ"
      ],
      [
        "ÅĽ",
        "ni"
      ],
      [
        "Ġro",
        "dzi"
      ],
      [
        "Ġwy",
        "d"
      ],
      [
        "ĠA",
        "n"
      ],
      [
        "ne",
        "k"
      ],
      [
        "Ġje",
        "ÅĽli"
      ],
      [
        "Ġjed",
        "no"
      ],
      [
        "ĠÅ",
        "ļ"
      ],
      [
        "ad",
        "a"
      ],
      [
        "ĠO",
        "d"
      ],
      [
        "ra",
        "l"
      ],
      [
        "Ġdzi",
        "w"
      ],
      [
        "Ġc",
        "aÅĤy"
      ],
      [
        "ci",
        "Äĩ"
      ],
      [
        "Å¼e",
        "j"
      ],
      [
        "Ġnie",
        "ch"
      ],
      [
        "Ġd",
        "rze"
      ],
      [
        "Ġrze",
        "cz"
      ],
      [
        "Ġdru",
        "gie"
      ],
      [
        "Ġd",
        "y"
      ],
      [
        "Ġco",
        "raz"
      ],
      [
        "g",
        "ar"
      ],
      [
        "ow",
        "aÅĤa"
      ],
      [
        "te",
        "dy"
      ],
      [
        "ÅĦst",
        "wo"
      ],
      [
        "ĠM",
        "a"
      ],
      [
        "Ġza",
        "ch"
      ],
      [
        "Ġty",
        "le"
      ],
      [
        "Ġ",
        "ran"
      ],
      [
        "ni",
        "cy"
      ],
      [
        "rÃ³",
        "ciÅĤ"
      ],
      [
        "Ġwie",
        "m"
      ],
      [
        "Ġswo",
        "je"
      ],
      [
        "am",
        "ie"
      ],
      [
        "Ġu",
        "st"
      ],
      [
        "ko",
        "l"
      ],
      [
        "Ġo",
        "to"
      ],
      [
        "Ġ",
        "1"
      ],
      [
        "dze",
        "nia"
      ],
      [
        "Ġdzie",
        "ÅĦ"
      ],
      [
        "z",
        "e"
      ],
      [
        "wi",
        "Äĩ"
      ],
      [
        "Ġwie",
        "le"
      ],
      [
        "ĠrÄĻ",
        "kÄĻ"
      ],
      [
        "Ġsam",
        "o"
      ],
      [
        "Ġroz",
        "u"
      ],
      [
        "re",
        "w"
      ],
      [
        "Ġsze",
        "p"
      ],
      [
        "Ġdzi",
        "ÅĽ"
      ],
      [
        "dz",
        "a"
      ],
      [
        "Ġt",
        "ÅĤu"
      ],
      [
        "rze",
        "Äĩ"
      ],
      [
        "ĠmÄĻ",
        "Å¼"
      ],
      [
        "ĠzupeÅĤ",
        "nie"
      ],
      [
        "Ġraz",
        "em"
      ],
      [
        "ra",
        "Å¼e"
      ],
      [
        "ĠdÅĤu",
        "go"
      ],
      [
        "ni",
        "os"
      ],
      [
        "o",
        "d"
      ],
      [
        "Ã³w",
        "czas"
      ],
      [
        "ow",
        "ych"
      ],
      [
        "Ġu",
        "cie"
      ],
      [
        "Ġchwi",
        "lÄĻ"
      ],
      [
        "Ġna",
        "gle"
      ],
      [
        "ĠL",
        "i"
      ],
      [
        "Ġj",
        "as"
      ],
      [
        "na",
        "Äĩ"
      ],
      [
        "Ġu",
        "mie"
      ],
      [
        "Ġb",
        "ro"
      ],
      [
        "ĠT",
        "e"
      ],
      [
        "b",
        "ÄĻ"
      ],
      [
        "Ġw",
        "ych"
      ],
      [
        "Ġz",
        "wie"
      ],
      [
        "Ġj",
        "ÄĻ"
      ],
      [
        "Ġk",
        "r"
      ],
      [
        "Ġtwa",
        "rzy"
      ],
      [
        "Ġpo",
        "mo"
      ],
      [
        "ĠT",
        "y"
      ],
      [
        "ow",
        "Äħ"
      ],
      [
        "s",
        "e"
      ],
      [
        "te",
        "l"
      ],
      [
        "r",
        "aÅĤ"
      ],
      [
        "s",
        "kÄħ"
      ],
      [
        "Ġroz",
        "m"
      ],
      [
        "wi",
        "Äħz"
      ],
      [
        "g",
        "nie"
      ],
      [
        "Ġs",
        "ÅĤa"
      ],
      [
        "Ġm",
        "ajÄħ"
      ],
      [
        "Ġi",
        "le"
      ],
      [
        "ra",
        "Åº"
      ],
      [
        "Ġwy",
        "so"
      ],
      [
        "Ġg",
        "ÅĤu"
      ],
      [
        "ca",
        "le"
      ],
      [
        "ĠB",
        "Ã³g"
      ],
      [
        "Ġtak",
        "i"
      ],
      [
        "ni",
        "aÅĤ"
      ],
      [
        "--",
        "--"
      ],
      [
        "Ġc",
        "u"
      ],
      [
        "Ġcie",
        "r"
      ],
      [
        "ĠJ",
        "u"
      ],
      [
        "Ġko",
        "m"
      ],
      [
        "Ġcie",
        "bie"
      ],
      [
        "Ġt",
        "r"
      ],
      [
        "cz",
        "ny"
      ],
      [
        "kÅĤa",
        "d"
      ],
      [
        "t",
        "ej"
      ],
      [
        "ĠN",
        "o"
      ],
      [
        "Ġu",
        "t"
      ],
      [
        "Ġjaki",
        "ÅĽ"
      ],
      [
        "ĠzawoÅĤ",
        "aÅĤ"
      ],
      [
        "Ġz",
        "b"
      ],
      [
        "Ġwy",
        "raz"
      ],
      [
        "r",
        "ani"
      ],
      [
        "Ġdo",
        "st"
      ],
      [
        "ĠW",
        "o"
      ],
      [
        "Ġnie",
        "szczÄĻ"
      ],
      [
        "g",
        "ÅĤo"
      ],
      [
        "Å¼",
        "Äħc"
      ],
      [
        "w",
        "ym"
      ],
      [
        "cze",
        "nie"
      ],
      [
        "u",
        "jÄħc"
      ],
      [
        "Ġp",
        "amiÄĻ"
      ],
      [
        "Ġna",
        "p"
      ],
      [
        "Ġna",
        "tu"
      ],
      [
        "ĠJe",
        "st"
      ],
      [
        "no",
        "si"
      ],
      [
        "Ġmog",
        "ÅĤa"
      ],
      [
        "Ġd",
        "usz"
      ],
      [
        "Ġnie",
        "m"
      ],
      [
        "rzy",
        "Äĩ"
      ],
      [
        "cie",
        "c"
      ],
      [
        "p",
        "e"
      ],
      [
        "âĢ",
        "ľ"
      ],
      [
        "Ġk",
        "raj"
      ],
      [
        "Ġu",
        "j"
      ],
      [
        "wie",
        "k"
      ],
      [
        "an",
        "ym"
      ],
      [
        "ĠcaÅĤ",
        "Äħ"
      ],
      [
        "Ġspo",
        "koj"
      ],
      [
        "Ġm",
        "e"
      ],
      [
        "j",
        "i"
      ],
      [
        "Ġw",
        "as"
      ],
      [
        "Ġwie",
        "cz"
      ],
      [
        "ado",
        "mo"
      ],
      [
        "rz",
        "Äħd"
      ],
      [
        "Ġza",
        "czÄĻ"
      ],
      [
        "Ġw",
        "ÅĽrÃ³d"
      ],
      [
        "Ã³",
        "sÅĤ"
      ],
      [
        "ĠÅĽ",
        "wiÄĻ"
      ],
      [
        "kol",
        "wiek"
      ],
      [
        "Ġo",
        "fi"
      ],
      [
        "Ġz",
        "oba"
      ],
      [
        "Ġsw",
        "ej"
      ],
      [
        "ow",
        "ego"
      ],
      [
        "sz",
        "cz"
      ],
      [
        "ÅĤa",
        "d"
      ]
    ]
  }
}