{
  "version": "1.0",
  "truncation": null,
  "padding": null,
  "added_tokens": [],
  "normalizer": null,
  "pre_tokenizer": {
    "type": "ByteLevel",
    "add_prefix_space": false,
    "trim_offsets": true,
    "use_regex": true
  },
  "post_processor": {
    "type": "ByteLevel",
    "add_prefix_space": true,
    "trim_offsets": true,
    "use_regex": true
  },
  "decoder": {
    "type": "ByteLevel",
    "add_prefix_space": true,
    "trim_offsets": true,
    "use_regex": true
  },
  "model": {
    "type": "BPE",
    "dropout": null,
    "unk_token": null,
    "continuing_subword_prefix": null,
    "end_of_word_suffix": null,
    "fuse_unk": false,
    "byte_fallback": false,
    "ignore_merges": false,
    "vocab": {
      "Ā": 0,
      "ā": 1,
      "Ă": 2,
      "ă": 3,
      "Ą": 4,
      "ą": 5,
      "Ć": 6,
      "ć": 7,
      "Ĉ": 8,
      "ĉ": 9,
      "Ċ": 10,
      "ċ": 11,
      "Č": 12,
      "č": 13,
      "Ď": 14,
      "ď": 15,
      "Đ": 16,
      "đ": 17,
      "Ē": 18,
      "ē": 19,
      "Ĕ": 20,
      "ĕ": 21,
      "Ė": 22,
      "ė": 23,
      "Ę": 24,
      "ę": 25,
      "Ě": 26,
      "ě": 27,
      "Ĝ": 28,
      "ĝ": 29,
      "Ğ": 30,
      "ğ": 31,
      "Ġ": 32,
      "!": 33,
      "\"": 34,
      "#": 35,
      "$": 36,
      "%": 37,
      "&": 38,
      "'": 39,
      "(": 40,
      ")": 41,
      "*": 42,
      "+": 43,
      ",": 44,
      "-": 45,
      ".": 46,
      "/": 47,
      "0": 48,
      "1": 49,
      "2": 50,
      "3": 51,
      "4": 52,
      "5": 53,
      "6": 54,
      "7": 55,
      "8": 56,
      "9": 57,
      ":": 58,
      ";": 59,
      "<": 60,
      "=": 61,
      ">": 62,
      "?": 63,
      "@": 64,
      "A": 65,
      "B": 66,
      "C": 67,
      "D": 68,
      "E": 69,
      "F": 70,
      "G": 71,
      "H": 72,
      "I": 73,
      "J": 74,
      "K": 75,
      "L": 76,
      "M": 77,
      "N": 78,
      "O": 79,
      "P": 80,
      "Q": 81,
      "R": 82,
      "S": 83,
      "T": 84,
      "U": 85,
      "V": 86,
      "W": 87,
      "X": 88,
      "Y": 89,
      "Z": 90,
      "[": 91,
      "\\": 92,
      "]": 93,
      "^": 94,
      "_": 95,
      "`": 96,
      "a": 97,
      "b": 98,
      "c": 99,
      "d": 100,
      "e": 101,
      "f": 102,
      "g": 103,
      "h": 104,
      "i": 105,
      "j": 106,
      "k": 107,
      "l": 108,
      "m": 109,
      "n": 110,
      "o": 111,
      "p": 112,
      "q": 113,
      "r": 114,
      "s": 115,
      "t": 116,
      "u": 117,
      "v": 118,
      "w": 119,
      "x": 120,
      "y": 121,
      "z": 122,
      "{": 123,
      "|": 124,
      "}": 125,
      "~": 126,
      "ġ": 127,
      "Ģ": 128,
      "ģ": 129,
      "Ĥ": 130,
      "ĥ": 131,
      "Ħ": 132,
      "ħ": 133,
      "Ĩ": 134,
      "ĩ": 135,
      "Ī": 136,
      "ī": 137,
      "Ĭ": 138,
      "ĭ": 139,
      "Į": 140,
      "į": 141,
      "İ": 142,
      "ı": 143,
      "Ĳ": 144,
      "ĳ": 145,
      "Ĵ": 146,
      "ĵ": 147,
      "Ķ": 148,
      "ķ": 149,
      "ĸ": 150,
      "Ĺ": 151,
      "ĺ": 152,
      "Ļ": 153,
      "ļ": 154,
      "Ľ": 155,
      "ľ": 156,
      "Ŀ": 157,
      "ŀ": 158,
      "Ł": 159,
      "ł": 160,
      "¡": 161,
      "¢": 162,
      "£": 163,
      "¤": 164,
      "¥": 165,
      "¦": 166,
      "§": 167,
      "¨": 168,
      "©": 169,
      "ª": 170,
      "«": 171,
      "¬": 172,
      "Ń": 173,
      "®": 174,
      "¯": 175,
      "°": 176,
      "±": 177,
      "²": 178,
      "³": 179,
      "´": 180,
      "µ": 181,
      "¶": 182,
      "·": 183,
      "¸": 184,
      "¹": 185,
      "º": 186,
      "»": 187,
      "¼": 188,
      "½": 189,
      "¾": 190,
      "¿": 191,
      "À": 192,
      "Á": 193,
      "Â": 194,
      "Ã": 195,
      "Ä": 196,
      "Å": 197,
      "Æ": 198,
      "Ç": 199,
      "È": 200,
      "É": 201,
      "Ê": 202,
      "Ë": 203,
      "Ì": 204,
      "Í": 205,
      "Î": 206,
      "Ï": 207,
      "Ð": 208,
      "Ñ": 209,
      "Ò": 210,
      "Ó": 211,
      "Ô": 212,
      "Õ": 213,
      "Ö": 214,
      "×": 215,
      "Ø": 216,
      "Ù": 217,
      "Ú": 218,
      "Û": 219,
      "Ü": 220,
      "Ý": 221,
      "Þ": 222,
      "ß": 223,
      "à": 224,
      "á": 225,
      "â": 226,
      "ã": 227,
      "ä": 228,
      "å": 229,
      "æ": 230,
      "ç": 231,
      "è": 232,
      "é": 233,
      "ê": 234,
      "ë": 235,
      "ì": 236,
      "í": 237,
      "î": 238,
      "ï": 239,
      "ð": 240,
      "ñ": 241,
      "ò": 242,
      "ó": 243,
      "ô": 244,
      "õ": 245,
      "ö": 246,
      "÷": 247,
      "ø": 248,
      "ù": 249,
      "ú": 250,
      "û": 251,
      "ü": 252,
      "ý": 253,
      "þ": 254,
      "ÿ": 255,
      "ÅĤ": 256,
      "ie": 257,
      "Ġp": 258,
      "Ġs": 259,
      "Ġw": 260,
      "ÄĻ": 261,
      "Ġn": 262,
      "Ġz": 263,
      "cz": 264,
      "Äħ": 265,
      "rz": 266,
      "aÅĤ": 267,
      "ch": 268,
      "Ġd": 269,
      "Ġt": 270,
      "Å¼": 271,
      "ow": 272,
      "Ã³": 273,
      "Ġi": 274,
      "Ġk": 275,
      "âĢ": 276,
      "Ġm": 277,
      "an": 278,
      "sz": 279,
      "Ġo": 280,
      "ÅĽ": 281,
      "Ġna": 282,
      "iÄĻ": 283,
      "Ġj": 284,
      "ro": 285,
      "st": 286,
      "go": 287,
      "dz": 288,
      "ra": 289,
      "rze": 290,
      "Ġb": 291,
      "ci": 292,
      "le": 293,
      "Ġpo": 294,
      "ni": 295,
      "ak": 296,
      "nie": 297,
      "li": 298,
      "ar": 299,
      "Äĩ": 300,
      "Ġnie": 301,
      "ĠsiÄĻ": 302,
      "am": 303,
      "ne": 304,
      "Ġu": 305,
      "âĢĶ": 306,
      "Ġdo": 307,
      "ÅĤa": 308,
      "Ġg": 309,
      "ym": 310,
      "ki": 311,
      "ÅĤo": 312,
      "Ġza": 313,
      "wi": 314,
      "ko": 315,
      "ka": 316,
      "czy": 317,
      "Ġwy": 318,
      "na": 319,
      "Ġje": 320,
      "Ã³w": 321,
      "ych": 322,
      "Å¼e": 323,
      "Äħc": 324,
      "rzy": 325,
      "cie": 326,
      "Ġst": 327,
      "em": 328,
      "la": 329,
      "Ġa": 330,
      "or": 331,
      "kie": 332,
      "ej": 333,
      "Ġprze": 334,
      "dy": 335,
      "Ġsz": 336,
      "dzi": 337,
      "Ġc": 338,
      "at": 339,
      "Ġro": 340,
      "aj": 341,
      "ad": 342,
      "ÅĤy": 343,
      "Ġjak": 344,
      "ĠâĢĶ": 345,
      "re": 346,
      "ru": 347,
      "ani": 348,
      "no": 349,
      "âĢ¦": 350,
      "Ġby": 351,
      "cze": 352,
      "ry": 353,
      "by": 354,
      "Ġto": 355,
      "dzie": 356,
      "ny": 357,
      "wa": 358,
      "ÅĽci": 359,
      "ĠW": 360,
      "owi": 361,
      "Ġch": 362,
      "ami": 363,
      "ego": 364,
      "si": 365,
      "ku": 366,
      "wie": 367,
      "po": 368,
      "ĠP": 369,
      "ĠM": 370,
      "nÄħ": 371,
      "ÅĦ": 372,
      "wo": 373,
      "Ġod": 374,
      "ĠÅ¼e": 375,
      "szy": 376,
      "aÅĤa": 377,
      "Ġko": 378,
      "te": 379,
      "Ġprzy": 380,
      "aÅĤy": 381,
      "ÅĤu": 382,
      "Ġni": 383,
      "ce": 384,
      "Ġroz": 385,
      "mie": 386,
      "Ġcz": 387,
      "ĠB": 388,
      "ĠÅĽ": 389,
      "mi": 390,
      "raz": 391,
      "ty": 392,
      "owa": 393,
      "tÃ³": 394,
      "Ġwie": 395,
      "as": 396,
      "ta": 397,
      "Ġmi": 398,
      "ĠN": 399,
      "Ġtak": 400,
      "Å¼y": 401,
      "sze": 402,
      "nia": 403,
      "sy": 404,
      "Ġgo": 405,
      "cy": 406,
      "ski": 407,
      "ĠktÃ³": 408,
      "nym": 409,
      "ek": 410,
      "Ġdz": 411,
      "bie": 412,
      "da": 413,
      "owie": 414,
      "rÃ³": 415,
      "er": 416,
      "ca": 417,
      "cj": 418,
      "anie": 419,
      "Ġco": 420,
      "Ġmu": 421,
      "en": 422,
      "bi": 423,
      "Ġpod": 424,
      "âĢŀ": 425,
      "âĢĿ": 426,
      "waÅĤ": 427,
      "nej": 428,
      "Ġwi": 429,
      "ĠS": 430,
      "to": 431,
      "pi": 432,
      "ĠâĢŀ": 433,
      "Ġmie": 434,
      "al": 435,
      "Ġmo": 436,
      "arci": 437,
      "Ġty": 438,
      "nych": 439,
      "pie": 440,
      "ĠJ": 441,
      "ajÄħc": 442,
      "wy": 443,
      "rÄĻ": 444,
      "Ġob": 445,
      "ĠT": 446,
      "Ġf": 447,
      "gi": 448,
      "skie": 449,
      "ĠZ": 450,
      "owicz": 451,
      "Ġpan": 452,
      "uÅ¼": 453,
      "ÅĽÄĩ": 454,
      "Ġle": 455,
      "nÄĻ": 456,
      "ĠK": 457,
      "zy": 458,
      "tu": 459,
      "Ġspo": 460,
      "nego": 461,
      "mu": 462,
      "sta": 463,
      "jÄħc": 464,
      "Ġrze": 465,
      "Ġsp": 466,
      "ĠC": 467,
      "Ġ*": 468,
      "Ġczy": 469,
      "Ġjed": 470,
      "Ġjego": 471,
      "Åº": 472,
      "Ġze": 473,
      "kÄĻ": 474,
      "ĠMarci": 475,
      "lo": 476,
      "Ġdzie": 477,
      "orowicz": 478,
      "ania": 479,
      "lu": 480,
      "im": 481,
      "ale": 482,
      "ew": 483,
      "Ġkla": 484,
      "Ġnau": 485,
      "ĠBorowicz": 486,
      "Ġci": 487,
      "Ġno": 488,
      "Ġpra": 489,
      "Ġsam": 490,
      "ach": 491,
      "aÄĩ": 492,
      "we": 493,
      "ob": 494,
      "Ġte": 495,
      "mo": 496,
      "aÅĤo": 497,
      "ĠmÃ³": 498,
      "niej": 499,
      "ĠA": 500,
      "nÄħÅĤ": 501,
      "lko": 502,
      "ĠG": 503,
      "ĠgÅĤ": 504,
      "ĠjuÅ¼": 505,
      "bo": 506,
      "ĠO": 507,
      "kÄħ": 508,
      "my": 509,
      "ĠD": 510,
      "Ġtam": 511,
      "ez": 512,
      "ÄĻd": 513,
      "js": 514,
      "Ġpie": 515,
      "Ġprzed": 516,
      "Ġin": 517,
      "ĠR": 518,
      "Ġale": 519,
      "Ġka": 520,
      "czycie": 521,
      "Ġtylko": 522,
      "Ġwo": 523,
      "sie": 524,
      "Ġwszy": 525,
      "Äħg": 526,
      "nek": 527,
      "ĠbyÅĤ": 528,
      "je": 529,
      "cho": 530,
      "Ġku": 531,
      "Ġgdy": 532,
      "Ġpro": 533,
      "Ã³ÅĤ": 534,
      "aw": 535,
      "eÅĤ": 536,
      "Ġpi": 537,
      "Ġwz": 538,
      "do": 539,
      "kiem": 540,
      "Ġsw": 541,
      "ĠbyÅĤo": 542,
      "ma": 543,
      "Ġra": 544,
      "owaÅĤ": 545,
      "kÅĤ": 546,
      "ĠÅĤa": 547,
      "dÅĤ": 548,
      "Äħd": 549,
      "taÅĤ": 550,
      "szcz": 551,
      "Ġnauczycie": 552,
      "szcze": 553,
      "so": 554,
      "Ġsze": 555,
      "Ġucz": 556,
      "Ġprzez": 557,
      "ÄĻp": 558,
      "Ġzap": 559,
      "dzo": 560,
      "ano": 561,
      "any": 562,
      "tor": 563,
      "Ġsie": 564,
      "ĠcaÅĤ": 565,
      "Ġtego": 566,
      "ga": 567,
      "cji": 568,
      "Ġwszyst": 569,
      "Ġpani": 570,
      "gÅĤ": 571,
      "Ġbo": 572,
      "Ġso": 573,
      "Ġjest": 574,
      "um": 575,
      "Ġtym": 576,
      "ĠÅ¼": 577,
      "ÄħÅĤ": 578,
      "Ġru": 579,
      "ska": 580,
      "rw": 581,
      "dziaÅĤ": 582,
      "Ġmiejs": 583,
      "Ġbez": 584,
      "su": 585,
      "kÅĤa": 586,
      "Ġzn": 587,
      "gie": 588,
      "stÄĻp": 589,
      "sp": 590,
      "il": 591,
      "ĠÅ¼y": 592,
      "kÃ³w": 593,
      "cu": 594,
      "ĠgÅĤo": 595,
      "ali": 596,
      "Ġklasy": 597,
      "Ġnaj": 598,
      "du": 599,
      "Ġsto": 600,
      "kow": 601,
      "noÅĽci": 602,
      "zj": 603,
      "Ġczas": 604,
      "war": 605,
      "ĠNie": 606,
      "Ġkie": 607,
      "Äħt": 608,
      "Ġcie": 609,
      "Ġli": 610,
      "Ġstan": 611,
      "ĠPo": 612,
      "Ġh": 613,
      "Ġmy": 614,
      "Ġbar": 615,
      "Ã³r": 616,
      "Ġraz": 617,
      "Ġog": 618,
      "sto": 619,
      "ĠmÃ³wi": 620,
      "ane": 621,
      "Ġr": 622,
      "Ġstar": 623,
      "Ġma": 624,
      "ĠchÅĤo": 625,
      "rzu": 626,
      "ÅĽcie": 627,
      "Ġzna": 628,
      "Ġnad": 629,
      "ĠrÄĻ": 630,
      "ĠktÃ³r": 631,
      "Ġpa": 632,
      "Ġchwi": 633,
      "niu": 634,
      "ĠwÅĤa": 635,
      "Ġwiel": 636,
      "ĠMarcin": 637,
      "ja": 638,
      "Ġdru": 639,
      "owy": 640,
      "Ġjej": 641,
      "Ġsobie": 642,
      "Ġdla": 643,
      "ymi": 644,
      "Ġsi": 645,
      "ĠNa": 646,
      "Ġszko": 647,
      "Ġjakie": 648,
      "rzwi": 649,
      "rowa": 650,
      "rek": 651,
      "Ġtej": 652,
      "sÅĤ": 653,
      "Ġdu": 654,
      "Ġok": 655,
      "Ġani": 656,
      "wet": 657,
      "ÅĽli": 658,
      "Ġjeszcze": 659,
      "niÄĻ": 660,
      "Ġmat": 661,
      "Ġbu": 662,
      "ony": 663,
      "dzy": 664,
      "Ġdrzwi": 665,
      "Ġwyp": 666,
      "ana": 667,
      "skiego": 668,
      "ĠÅĽwi": 669,
      "jÄĻ": 670,
      "tem": 671,
      "Ġsy": 672,
      "rzym": 673,
      "bli": 674,
      "siÄħ": 675,
      "zu": 676,
      "Ġe": 677,
      "aty": 678,
      "Ġja": 679,
      "dziÅĤ": 680,
      "ĠÅĤ": 681,
      "ba": 682,
      "ĠrzekÅĤ": 683,
      "imna": 684,
      "Ġnawet": 685,
      "Ġniez": 686,
      "Ġpew": 687,
      "ĠktÃ³re": 688,
      "one": 689,
      "Ġszy": 690,
      "Ġdy": 691,
      "Ġpow": 692,
      "Ġla": 693,
      "niem": 694,
      "ĠmiÄĻ": 695,
      "gu": 696,
      "sko": 697,
      "Ġdzi": 698,
      "Ġsk": 699,
      "dze": 700,
      "fi": 701,
      "nu": 702,
      "ĠwiÄĻ": 703,
      "Ġpierw": 704,
      "owu": 705,
      "Ġpol": 706,
      "Ġnauczyciel": 707,
      "de": 708,
      "Ġzw": 709,
      "Ġbi": 710,
      "sa": 711,
      "Ġkil": 712,
      "ĠchÅĤop": 713,
      "ciÅĤ": 714,
      "Ġgimna": 715,
      "czyÅĤ": 716,
      "sk": 717,
      "Ġten": 718,
      "Ġdale": 719,
      "szedÅĤ": 720,
      "ĠmiaÅĤ": 721,
      "spo": 722,
      "ĠbyÅĤa": 723,
      "Ã³Å¼": 724,
      "Ġop": 725,
      "dow": 726,
      "czas": 727,
      "Ġrosy": 728,
      "Ġswo": 729,
      "Ġcho": 730,
      "ĠdÅĤu": 731,
      "ary": 732,
      "Ġgimnazj": 733,
      "Ġcze": 734,
      "chow": 735,
      "ĠRad": 736,
      "on": 737,
      "Ġost": 738,
      "Ġdob": 739,
      "Ġoczy": 740,
      "Ġnim": 741,
      "ĠmÅĤo": 742,
      "ĠMarcinek": 743,
      "rzaÅĤ": 744,
      "ĠWie": 745,
      "leg": 746,
      "Ã³j": 747,
      "gl": 748,
      "ĠBy": 749,
      "zi": 750,
      "cznie": 751,
      "tow": 752,
      "kich": 753,
      "ĠPrze": 754,
      "ost": 755,
      "ĠI": 756,
      "Ġpu": 757,
      "Ġtu": 758,
      "Ġtrze": 759,
      "ĠktÃ³ry": 760,
      "Ġkiedy": 761,
      "ory": 762,
      "rÃ³d": 763,
      "Ġjakby": 764,
      "ÅĤuch": 765,
      "siÄĻ": 766,
      "Ġich": 767,
      "lÄĻ": 768,
      "cia": 769,
      "Ġlu": 770,
      "Ġlek": 771,
      "ich": 772,
      "os": 773,
      "Ġzd": 774,
      "Ġstro": 775,
      "jÄħ": 776,
      "Ġpowie": 777,
      "lery": 778,
      "kiego": 779,
      "sza": 780,
      "nymi": 781,
      "Ġwp": 782,
      "Ġniego": 783,
      "sem": 784,
      "ĠL": 785,
      "Ġre": 786,
      "Ġzacz": 787,
      "ety": 788,
      "rÃ³Å¼": 789,
      "Ġznowu": 790,
      "om": 791,
      "chu": 792,
      "Ġwe": 793,
      "sty": 794,
      "Ġocz": 795,
      "Ġta": 796,
      "ĠNo": 797,
      "tÄħ": 798,
      "sku": 799,
      "kami": 800,
      "Ġup": 801,
      "ĠksiÄħ": 802,
      "Ġon": 803,
      "ĠpiÄĻ": 804,
      "Ġbardzo": 805,
      "Ġal": 806,
      "up": 807,
      "Ġgru": 808,
      "ÅĽl": 809,
      "rom": 810,
      "Ġgdzie": 811,
      "cÃ³w": 812,
      "kach": 813,
      "ĠciÄħg": 814,
      "koj": 815,
      "bu": 816,
      "ÄĻdzie": 817,
      "fe": 818,
      "ĠÅ": 819,
      "tych": 820,
      "skich": 821,
      "waÄĩ": 822,
      "*,": 823,
      "Ġuczni": 824,
      "wu": 825,
      "adÅĤ": 826,
      "ĠgÅĤÄĻ": 827,
      "Ġpat": 828,
      "ĠJe": 829,
      "rod": 830,
      "ĠSz": 831,
      "âĢĿ,": 832,
      "ÅĽnie": 833,
      "el": 834,
      "resz": 835,
      "br": 836,
      "spek": 837,
      "ono": 838,
      "ast": 839,
      "kaÅĤ": 840,
      "ĠrÃ³w": 841,
      "kÅĤad": 842,
      "owo": 843,
      "piero": 844,
      "ĠJa": 845,
      "ĠmiÄĻdzy": 846,
      "chy": 847,
      "strze": 848,
      "Ġmiesz": 849,
      "ĠsÅĤ": 850,
      "nak": 851,
      "Ġpierwsz": 852,
      "ciÄħg": 853,
      "ĠbyÅĤy": 854,
      "Ġzie": 855,
      "ĠÅĽwiat": 856,
      "Ġkar": 857,
      "ĠMaj": 858,
      "Ġtych": 859,
      "owÄĻ": 860,
      "gÄĻ": 861,
      "Ġser": 862,
      "Ġspra": 863,
      "ĠMajew": 864,
      "anych": 865,
      "Ġdro": 866,
      "Ġzg": 867,
      "aki": 868,
      "Ġsu": 869,
      "kim": 870,
      "Ġpar": 871,
      "nÄĻÅĤa": 872,
      "Ġbie": 873,
      "âĢĿ.": 874,
      "Ġoko": 875,
      "ĠsÄħ": 876,
      "Ġgodzi": 877,
      "Ġkro": 878,
      "Ġpy": 879,
      "Ġpoz": 880,
      "czo": 881,
      "Ġspos": 882,
      "scy": 883,
      "ĠGdy": 884,
      "Ġtra": 885,
      "Ġot": 886,
      "cha": 887,
      "mier": 888,
      "ĠtÄĻ": 889,
      "yma": 890,
      "gÄħ": 891,
      "ĠÅĽci": 892,
      "waÅĤy": 893,
      "ĠjÄħ": 894,
      "dzieÄĩ": 895,
      "Ġzam": 896,
      "nik": 897,
      "Ġtakie": 898,
      "rzÄħ": 899,
      "szÄĻ": 900,
      "wiÄĻ": 901,
      "Ġsamo": 902,
      "laz": 903,
      "ĠjÄĻ": 904,
      "Ġinspek": 905,
      "ĊĊ": 906,
      "Ġchwili": 907,
      "Marci": 908,
      "ĠÅ¼eby": 909,
      "Ġgimnazjum": 910,
      "rza": 911,
      "cÄĻ": 912,
      "Å¼yÅĤ": 913,
      "Ġrosyj": 914,
      "skiej": 915,
      "stwo": 916,
      "Ġprawie": 917,
      "Ġtwa": 918,
      "Ġodp": 919,
      "Ġalbo": 920,
      "ĠDo": 921,
      "ĠWiechow": 922,
      "dziej": 923,
      "ĠwiÄĻc": 924,
      "tnie": 925,
      "Ġrozp": 926,
      "ĠZa": 927,
      "czÄĻ": 928,
      "lach": 929,
      "row": 930,
      "Ġpana": 931,
      "ÅĽmie": 932,
      "wali": 933,
      "Ġszcze": 934,
      "rac": 935,
      "ĠsÅĤy": 936,
      "ÅĽciÄħ": 937,
      "amiÄĻ": 938,
      "Ġdyrek": 939,
      "ĠKlery": 940,
      "ĠbÄĻdzie": 941,
      "owiad": 942,
      "ĠtÅĤu": 943,
      "!âĢ¦": 944,
      "ĠkaÅ¼": 945,
      "ÅĽrÃ³d": 946,
      "Ġjednak": 947,
      "dzÄħc": 948,
      "ĠÅ¼ad": 949,
      "rÃ³t": 950,
      "Ġow": 951,
      "ĠmaÅĤ": 952,
      "ĠTo": 953,
      "Ġzup": 954,
      "ĠzupeÅĤ": 955,
      "Ġwa": 956,
      "Ġsta": 957,
      "skim": 958,
      "Ġzaw": 959,
      "Ã³b": 960,
      "noÅĽÄĩ": 961,
      "Ġnich": 962,
      "Ġwol": 963,
      "Ġszyb": 964,
      "ist": 965,
      "omo": 966,
      "szo": 967,
      "kry": 968,
      "Ġrodzi": 969,
      "wszy": 970,
      "ĠU": 971,
      "daÄĩ": 972,
      "Ġniej": 973,
      "ĠmoÅ¼e": 974,
      "ii": 975,
      "Ġiz": 976,
      "owaÄĩ": 977,
      "ĠzaczÄħÅĤ": 978,
      "ĠjÄĻzy": 979,
      "ĠRadek": 980,
      "ĠaÅ¼": 981,
      "czki": 982,
      "Ġdwa": 983,
      "Ġfi": 984,
      "Ġnic": 985,
      "ĠCh": 986,
      "stawi": 987,
      "siÅĤ": 988,
      "aniu": 989,
      "Ġwsze": 990,
      "usz": 991,
      "ĠksiÄħÅ¼": 992,
      "Ġprofe": 993,
      "kowi": 994,
      "Ġniby": 995,
      "ĠpÃ³ÅĤ": 996,
      "ĠMarcinka": 997,
      "Ġdomu": 998,
      "Ġkat": 999,
      "Ġzak": 1000,
      "tÃ³w": 1001,
      "Ġtru": 1002,
      "Ġostat": 1003,
      "rost": 1004,
      "czeÅĦ": 1005,
      "ĠgdyÅ¼": 1006,
      "czu": 1007,
      "Ġwyraz": 1008,
      "ĠgÃ³": 1009,
      "Ġteraz": 1010,
      "nku": 1011,
      "ter": 1012,
      "Ġszep": 1013,
      "stÄħ": 1014,
      "kt": 1015,
      "Ġwar": 1016,
      "chem": 1017,
      "ÅĤowie": 1018,
      "Ã³d": 1019,
      "Ġjeden": 1020,
      "ol": 1021,
      "ĠKleryk": 1022,
      "cki": 1023,
      "Ġut": 1024,
      "tÄĻ": 1025,
      "ĠgÅĤoÅĽ": 1026,
      "kaz": 1027,
      "Ġos": 1028,
      "czne": 1029,
      "sÅĤy": 1030,
      "Ġba": 1031,
      "Ġuwa": 1032,
      "py": 1033,
      "Ġoj": 1034,
      "anÄħ": 1035,
      "co": 1036,
      "Ã³l": 1037,
      "Ġzawsze": 1038,
      "Ġjaki": 1039,
      "Ġkole": 1040,
      "Ġde": 1041,
      "Ġfor": 1042,
      "dnie": 1043,
      "ĠmÃ³gÅĤ": 1044,
      "Ġklasie": 1045,
      "raÅĤ": 1046,
      "ĠBorowiczowa": 1047,
      "Ġfu": 1048,
      "Ġzaraz": 1049,
      "Ġpop": 1050,
      "ĠCo": 1051,
      "emu": 1052,
      "rÄħ": 1053,
      "Ġgra": 1054,
      "nt": 1055,
      "tora": 1056,
      "Ġkam": 1057,
      "wicz": 1058,
      "Ġjako": 1059,
      "ĠMajewski": 1060,
      "Ġlo": 1061,
      "Ġcu": 1062,
      "kiej": 1063,
      "ĠgÅĤowÄĻ": 1064,
      "Ġdrze": 1065,
      "Ġogrom": 1066,
      "nÄħc": 1067,
      "zami": 1068,
      "Ġdzieci": 1069,
      "dziÄĩ": 1070,
      "ok": 1071,
      "ore": 1072,
      "Ġsiebie": 1073,
      "Ġmiejsca": 1074,
      "Ġrzu": 1075,
      "cjÄĻ": 1076,
      "Ġbra": 1077,
      "Ġrzeczy": 1078,
      "kro": 1079,
      "zie": 1080,
      "dÄĻ": 1081,
      "staÅĤ": 1082,
      "waÅĤa": 1083,
      "Marcinek": 1084,
      "Ġwyso": 1085,
      "ĠuÅĽmie": 1086,
      "Ġpraw": 1087,
      "szaÅĤ": 1088,
      "jm": 1089,
      "ĠÅĽwie": 1090,
      "ĠSt": 1091,
      "Ġswe": 1092,
      "ĠczÅĤowie": 1093,
      "Ġumie": 1094,
      "Ġnale": 1095,
      "miÄĻ": 1096,
      "ĠpamiÄĻ": 1097,
      "Ġce": 1098,
      "czaj": 1099,
      "Ġdaw": 1100,
      "niÄħ": 1101,
      "glÄħd": 1102,
      "gdy": 1103,
      "ÅĤaÅĤ": 1104,
      "Ġmam": 1105,
      "Ġuli": 1106,
      "Ġznaj": 1107,
      "niÅĤ": 1108,
      "Ġprowa": 1109,
      "lnie": 1110,
      "ĠmÃ³wiÅĤ": 1111,
      "pis": 1112,
      "szych": 1113,
      "cje": 1114,
      "Ġdyrektor": 1115,
      "rzÄĻ": 1116,
      "ĠWi": 1117,
      "ona": 1118,
      "Ġkrzy": 1119,
      "ÅĽle": 1120,
      "Ġspoj": 1121,
      "ĠJÄĻd": 1122,
      "dÄħ": 1123,
      "Ġkan": 1124,
      "za": 1125,
      "az": 1126,
      "tek": 1127,
      "biÅĤ": 1128,
      "ujÄħc": 1129,
      "dni": 1130,
      "tedy": 1131,
      "ĠwÅĽrÃ³d": 1132,
      "anej": 1133,
      "Ġnaz": 1134,
      "Ġbru": 1135,
      "Ġczasu": 1136,
      "cale": 1137,
      "Ġmatki": 1138,
      "Ġmiejscu": 1139,
      "rach": 1140,
      "ĠTak": 1141,
      "Po": 1142,
      "Ġpe": 1143,
      "ĠzupeÅĤnie": 1144,
      "niaÅĤ": 1145,
      "szczy": 1146,
      "Ġzost": 1147,
      "Ġmnie": 1148,
      "ĠzÅĤo": 1149,
      "ĠmyÅĽli": 1150,
      "Ġwszystko": 1151,
      "ĠÅĤaw": 1152,
      "rew": 1153,
      "rzyÅĤ": 1154,
      "Ġzm": 1155,
      "et": 1156,
      "Å¼aÅĤ": 1157,
      "koju": 1158,
      "Ġda": 1159,
      "Ġwcale": 1160,
      "ĠByÅĤ": 1161,
      "ĠCz": 1162,
      "szÄħ": 1163,
      "Ġzda": 1164,
      "ĠsÅĤuch": 1165,
      "ĠpÃ³": 1166,
      "Å¼Äħc": 1167,
      "Ġdrugi": 1168,
      "ĠktÃ³rej": 1169,
      "Äħz": 1170,
      "Ġdopiero": 1171,
      "ĠmoÅ¼": 1172,
      "Å¼eli": 1173,
      "miaÅĤ": 1174,
      "ĠkoÅĦ": 1175,
      "czaÅĤ": 1176,
      "ĠwstÄĻp": 1177,
      "ĠwÅĤas": 1178,
      "Ġswego": 1179,
      "Ġzad": 1180,
      "Ġpal": 1181,
      "tej": 1182,
      "ĠMi": 1183,
      "Ġwido": 1184,
      "waÅĤo": 1185,
      "sztaÅĤ": 1186,
      "Ġkto": 1187,
      "ĠÅº": 1188,
      "raj": 1189,
      "sow": 1190,
      "Ġumy": 1191,
      "ec": 1192,
      "Ġwszel": 1193,
      "Ġl": 1194,
      "ĠNi": 1195,
      "naÅĤ": 1196,
      "sor": 1197,
      "Ġsmu": 1198,
      "ĠciÄĻ": 1199,
      "Ġsko": 1200,
      "adaÅĤ": 1201,
      "Ġoczyma": 1202,
      "wajÄħc": 1203,
      "ĠjakieÅĽ": 1204,
      "nem": 1205,
      "Ġmusi": 1206,
      "kol": 1207,
      "kle": 1208,
      "ĠksiÄĻ": 1209,
      "ĠcaÅĤy": 1210,
      "Ġkrze": 1211,
      "Ġprzecie": 1212,
      "dziÅĤa": 1213,
      "Ġit": 1214,
      "pety": 1215,
      "cÄħ": 1216,
      "Ġmog": 1217,
      "ĠczÄĻ": 1218,
      "wiaÅĤ": 1219,
      "rzÄħd": 1220,
      "Ġdrugie": 1221,
      "Ġkamie": 1222,
      "dzaj": 1223,
      "Ġmiejsce": 1224,
      "Ġpodob": 1225,
      "gra": 1226,
      "iedy": 1227,
      "czyÄĩ": 1228,
      "Ġdnia": 1229,
      "Ġstra": 1230,
      "cami": 1231,
      "kolwie": 1232,
      "Ġmieszk": 1233,
      "ĠmyÅĽl": 1234,
      "Ġsku": 1235,
      "Ġkilku": 1236,
      "Ġitd": 1237,
      "orepety": 1238,
      "Ġtrzy": 1239,
      "ĠmÄĻ": 1240,
      "knÄħÅĤ": 1241,
      "aniem": 1242,
      "ĠWszy": 1243,
      "Ġeg": 1244,
      "ĠÅĽpie": 1245,
      "ÅĤe": 1246,
      "Ġrad": 1247,
      "ĠmÅĤodzie": 1248,
      "oryta": 1249,
      "Ġrodzaj": 1250,
      "ĠPrzepi": 1251,
      "owe": 1252,
      "Ġokoli": 1253,
      "cach": 1254,
      "Ġkilka": 1255,
      "owÄħ": 1256,
      "ĠgÅĤÄĻbo": 1257,
      "Ġwyd": 1258,
      "ĠrÃ³wnie": 1259,
      "ĠcaÅĤÄħ": 1260,
      "nÄĻÅĤy": 1261,
      "tego": 1262,
      "gle": 1263,
      "ĠJak": 1264,
      "ĠteÅ¼": 1265,
      "ĠÅĽrod": 1266,
      "ĠsposÃ³b": 1267,
      "trze": 1268,
      "ĠPan": 1269,
      "ĠCzy": 1270,
      "stu": 1271,
      "ri": 1272,
      "ĠaÅ¼e": 1273,
      "ĠÅ»": 1274,
      "ĠpÅĤa": 1275,
      "ÅĤÄħ": 1276,
      "Ġswym": 1277,
      "ĠktÃ³rych": 1278,
      "chaÅĤ": 1279,
      "czasem": 1280,
      "ÅĤoÅĽci": 1281,
      "Ġszkol": 1282,
      "ciÄħ": 1283,
      "Ġdziw": 1284,
      "Ġoby": 1285,
      "ÅĽla": 1286,
      "Ġzro": 1287,
      "Ġkorepety": 1288,
      "ĠnastÄĻp": 1289,
      "Ġgro": 1290,
      "Ã³wczas": 1291,
      "Ġciem": 1292,
      "Ġegzami": 1293,
      "Ġodpowie": 1294,
      "owej": 1295,
      "Ġinspektor": 1296,
      "ĠszkoÅĤy": 1297,
      "stan": 1298,
      "wyczaj": 1299,
      "trz": 1300,
      "alec": 1301,
      "Ġzapy": 1302,
      "ĠAle": 1303,
      "eÅĽ": 1304,
      "aje": 1305,
      "Na": 1306,
      "kolwiek": 1307,
      "ĠbyÄĩ": 1308,
      "Ġnap": 1309,
      "rok": 1310,
      "Ġtaki": 1311,
      "Ġpokoju": 1312,
      "rzÄĻd": 1313,
      "resztÄħ": 1314,
      "nicy": 1315,
      "Ġczu": 1316,
      "reszcie": 1317,
      "mej": 1318,
      "awro": 1319,
      "ran": 1320,
      "Ġdobrze": 1321,
      "ĠbÄĻd": 1322,
      "ed": 1323,
      "Ġpanie": 1324,
      "waj": 1325,
      "Ġkoryta": 1326,
      "Ġist": 1327,
      "Ġpierwszej": 1328,
      "Ġzim": 1329,
      "szego": 1330,
      "teÅ¼": 1331,
      "Ġjedno": 1332,
      "Ġwyk": 1333,
      "stwa": 1334,
      "ĠksztaÅĤ": 1335,
      "ciÄĻ": 1336,
      "Ġniepo": 1337,
      "taÄĩ": 1338,
      "ĠrÄĻce": 1339,
      "Ġwym": 1340,
      "Ġrzecz": 1341,
      "pa": 1342,
      "Ġpocz": 1343,
      "Ġdr": 1344,
      "Ġszybko": 1345,
      "Ġusi": 1346,
      "rzo": 1347,
      "two": 1348,
      "dli": 1349,
      "ĠgÅĤos": 1350,
      "cem": 1351,
      "ia": 1352,
      "Ġdwu": 1353,
      "Ġwszyscy": 1354,
      "ĠaÅ¼eby": 1355,
      "zna": 1356,
      "Ġhist": 1357,
      "dziÅĤy": 1358,
      "Ġbrze": 1359,
      "ajem": 1360,
      "Ġstrze": 1361,
      "ĠpeÅĤ": 1362,
      "ĠswojÄħ": 1363,
      "Ġpyt": 1364,
      "ciu": 1365,
      "czÄħc": 1366,
      "Ġzbli": 1367,
      "rwo": 1368,
      "Ġmar": 1369,
      "cznym": 1370,
      "Ġlat": 1371,
      "czek": 1372,
      "ĠWÅĤa": 1373,
      "ĠgÅĤÄĻbi": 1374,
      "cja": 1375,
      "ĠwÅĤaÅĽnie": 1376,
      "obÄħ": 1377,
      "ĠOd": 1378,
      "maty": 1379,
      "ada": 1380,
      "niec": 1381,
      "ĠmoÅ¼na": 1382,
      "rÃ³w": 1383,
      "ĠMo": 1384,
      "czny": 1385,
      "czka": 1386,
      "ĠÅĤo": 1387,
      "Ġlekcji": 1388,
      "Ġwsp": 1389,
      "ĠwidziaÅĤ": 1390,
      "ĠÅĽmie": 1391,
      "czenia": 1392,
      "ĠWiechowski": 1393,
      "dzenia": 1394,
      "men": 1395,
      "ajÄħce": 1396,
      "Ġsza": 1397,
      "czenie": 1398,
      "ĠktÃ³rego": 1399,
      "dno": 1400,
      "Ġak": 1401,
      "ĠstaÅĤ": 1402,
      "tym": 1403,
      "ĠdaÅĤ": 1404,
      "sÅĤa": 1405,
      "ĠsiÃ³d": 1406,
      "ĠciÄħgle": 1407,
      "Ġdalej": 1408,
      "Ġwszystkich": 1409,
      "Ġlite": 1410,
      "ĠuczeÅĦ": 1411,
      "now": 1412,
      "cznej": 1413,
      "Ġkur": 1414,
      "arÅĤ": 1415,
      "ĠuczniÃ³w": 1416,
      "Ġgimnazjal": 1417,
      "czej": 1418,
      "Ġzwie": 1419,
      "sÅĤu": 1420,
      "ĠWy": 1421,
      "ud": 1422,
      "ĠBorowicza": 1423,
      "ĠÃ³w": 1424,
      "Ġkol": 1425,
      "piec": 1426,
      "Ġuczu": 1427,
      "Ġgdyby": 1428,
      "Ġmniej": 1429,
      "wem": 1430,
      "ĠBo": 1431,
      "ĠcaÅĤej": 1432,
      "ĠktÃ³ra": 1433,
      "ĠsobÄħ": 1434,
      "ĠzresztÄħ": 1435,
      "ĠsÅĤowa": 1436,
      "Ġpoli": 1437,
      "ĠcÃ³Å¼": 1438,
      "Å¼ej": 1439,
      "Ġnocy": 1440,
      "Ġstanie": 1441,
      "oba": 1442,
      "piÅĤ": 1443,
      "ĠjakiÅĽ": 1444,
      "ĠÅĽmier": 1445,
      "tach": 1446,
      "ĠgÅĤosem": 1447,
      "czego": 1448,
      "ĠsÅĤo": 1449,
      "ĠgÃ³r": 1450,
      "Ġkon": 1451,
      "Ġprofesor": 1452,
      "Ġmia": 1453,
      "Ġprzyp": 1454,
      "Å¼o": 1455,
      "Ġple": 1456,
      "wien": 1457,
      "Ġmoc": 1458,
      "Å¼nie": 1459,
      "Ġczar": 1460,
      "Ġwidzi": 1461,
      "Ġzami": 1462,
      "ĠKiedy": 1463,
      "cza": 1464,
      "ĠrÃ³wnieÅ¼": 1465,
      "liÅĤ": 1466,
      "ÅĤÄĻ": 1467,
      "Å¼enia": 1468,
      "ĠpÃ³Åº": 1469,
      "tury": 1470,
      "pli": 1471,
      "tÄħd": 1472,
      "Ġnauczyciela": 1473,
      "ĠwiÄĻcej": 1474,
      "dÅº": 1475,
      "skÄħ": 1476,
      "Ġsyn": 1477,
      "Ġobok": 1478,
      "ĠniÅ¼": 1479,
      "Ġdwie": 1480,
      "Ġwszystkie": 1481,
      "Ġpolsku": 1482,
      "Ġrosyjs": 1483,
      "Ġpog": 1484,
      "nk": 1485,
      "Ġpis": 1486,
      "nnie": 1487,
      "wier": 1488,
      "Ġstancji": 1489,
      "Ġoka": 1490,
      "ĠdÅĤugi": 1491,
      "Ġzawo": 1492,
      "Ġim": 1493,
      "ÅĦca": 1494,
      "Ġklas": 1495,
      "ÅĤad": 1496,
      "ĠNoga": 1497,
      "ĠpaÅĦ": 1498,
      "Ġjedy": 1499,
      "Ġnieu": 1500,
      "rzymaÅĤ": 1501,
      "ĠkrÃ³t": 1502,
      "Ġszlach": 1503,
      "ĠpiÄĻk": 1504,
      "gaÅĤ": 1505,
      "ciec": 1506,
      "rzeÄĩ": 1507,
      "Ġdaleko": 1508,
      "ajÄħ": 1509,
      "Ġusta": 1510,
      "ĠdÅº": 1511,
      "Ġszero": 1512,
      "cznych": 1513,
      "mienie": 1514,
      "Ġszczeg": 1515,
      "Ġwyra": 1516,
      "Ġprzyby": 1517,
      "ĠPrzy": 1518,
      "Ġzo": 1519,
      "sunÄħÅĤ": 1520,
      "ĠniÄħ": 1521,
      "star": 1522,
      "Ġisto": 1523,
      "raw": 1524,
      "ĠH": 1525,
      "ĠGawro": 1526,
      "Ġniko": 1527,
      "lazÅĤ": 1528,
      "Ġsztu": 1529,
      "Ġbardziej": 1530,
      "ĠwÅĤaÅĽci": 1531,
      "*.": 1532,
      "kÄħd": 1533,
      "Ġwiad": 1534,
      "Äħtej": 1535,
      "ĠKlerykowie": 1536,
      "ĠĠ": 1537,
      "Ġkoleg": 1538,
      "lasi": 1539,
      "ĠJÄĻdrek": 1540,
      "kiewicz": 1541,
      "ygie": 1542,
      "Ġgar": 1543,
      "ĠciÄĻÅ¼": 1544,
      "ĠÄĩ": 1545,
      "Ġtyle": 1546,
      "wor": 1547,
      "ste": 1548,
      "sÃ³w": 1549,
      "Ġkry": 1550,
      "Ã³z": 1551,
      "ĠszedÅĤ": 1552,
      "Ġmil": 1553,
      "ur": 1554,
      "Ġgu": 1555,
      "ĠwÅĤo": 1556,
      "Ġcoraz": 1557,
      "Ġrozu": 1558,
      "Ġswej": 1559,
      "Ġizby": 1560,
      "Ġge": 1561,
      "Ġmatka": 1562,
      "rzÄħc": 1563,
      "Ġzab": 1564,
      "ciÅĤa": 1565,
      "anego": 1566,
      "ÅĽcia": 1567,
      "ĠmÅĤod": 1568,
      "raÄĩ": 1569,
      "nÄħÄĩ": 1570,
      "Ġstop": 1571,
      "Ġinte": 1572,
      "ichci": 1573,
      "Ġrazu": 1574,
      "Ġswych": 1575,
      "ĠwstÄĻpnej": 1576,
      "taÅĤa": 1577,
      "akÃ³w": 1578,
      "Ġodda": 1579,
      "Ġhistor": 1580,
      "Ġziemi": 1581,
      "tet": 1582,
      "ĠdzieÅĦ": 1583,
      "Ġmal": 1584,
      "Ġniezmier": 1585,
      "rzas": 1586,
      "laÅĤ": 1587,
      "Ġtwarzy": 1588,
      "Ġtro": 1589,
      "ĠsiedziaÅĤ": 1590,
      "mio": 1591,
      "rwi": 1592,
      "Å¼a": 1593,
      "ap": 1594,
      "Ġzach": 1595,
      "ĠprÄĻ": 1596,
      "szu": 1597,
      "ĠwÄħ": 1598,
      "ĠwiÄĻk": 1599,
      "ĠPi": 1600,
      "ĠTe": 1601,
      "Ġsposob": 1602,
      "ĠchwilÄĻ": 1603,
      "owego": 1604,
      "dza": 1605,
      "nni": 1606,
      "Ġnogi": 1607,
      "noÅĽciÄħ": 1608,
      "Ġry": 1609,
      "ĠmÃ³wiÄĩ": 1610,
      "Ġtakiego": 1611,
      "ĠsÅĤu": 1612,
      "dÅĤu": 1613,
      "Ġrozm": 1614,
      "Ġuro": 1615,
      "Ġlecz": 1616,
      "krÃ³t": 1617,
      "krÃ³tce": 1618,
      "ĠgÅĤoÅĽno": 1619,
      "Ġary": 1620,
      "Äħce": 1621,
      "ĠwidaÄĩ": 1622,
      "ĠSie": 1623,
      "wÄħ": 1624,
      "cyj": 1625,
      "tne": 1626,
      "ĠkaÅ¼d": 1627,
      "rawi": 1628,
      "Ġbla": 1629,
      "Ġgospo": 1630,
      "Ġwolno": 1631,
      "onych": 1632,
      "Ġposta": 1633,
      "ĠLe": 1634,
      "ĠMarcina": 1635,
      "tar": 1636,
      "Ġcy": 1637,
      "bÄĻ": 1638,
      "ÅĤem": 1639,
      "Ġzni": 1640,
      "Ġzmie": 1641,
      "Ġjakich": 1642,
      "gÅĤa": 1643,
      "Ġchu": 1644,
      "mai": 1645,
      "rami": 1646,
      "ĠwiedzieÄĩ": 1647,
      "Ġstanowi": 1648,
      "ĠrÄĻkÄĻ": 1649,
      "ĠwyszedÅĤ": 1650,
      "Ġpomo": 1651,
      "tel": 1652,
      "jem": 1653,
      "Ġczego": 1654,
      "myÅĽl": 1655,
      "ĠPa": 1656,
      "ĠpamiÄĻÄĩ": 1657,
      "ĠcoÅĽ": 1658,
      "tm": 1659,
      "ĠtÅĤuma": 1660,
      "ĠWar": 1661,
      "ĠsÄħsie": 1662,
      "ĠPro": 1663,
      "kniÄĻ": 1664,
      "ciw": 1665,
      "ĠwykÅĤad": 1666,
      "dago": 1667,
      "ajÄħcy": 1668,
      "ĠktÃ³rzy": 1669,
      "Ġzja": 1670,
      "ĠRos": 1671,
      "aka": 1672,
      "Ġust": 1673,
      "ĠzwrÃ³": 1674,
      "jÄħce": 1675,
      "Ġdziedzi": 1676,
      "ĠZygie": 1677,
      "ĠÅĤÃ³Å¼": 1678,
      "wÄĻ": 1679,
      "Ġukry": 1680,
      "Ġjednym": 1681,
      "Ġprzer": 1682,
      "Ġpier": 1683,
      "Ġjakiej": 1684,
      "lar": 1685,
      "anym": 1686,
      "Ġszkole": 1687,
      "Ġki": 1688,
      "Ġwier": 1689,
      "tki": 1690,
      "daÅĤ": 1691,
      "szym": 1692,
      "glÄĻd": 1693,
      "uczycie": 1694,
      "Ġtwarz": 1695,
      "waÅ¼": 1696,
      "rzenia": 1697,
      "Ġwyko": 1698,
      "wale": 1699,
      "lem": 1700,
      "wym": 1701,
      "Ġdzwo": 1702,
      "Ġzwy": 1703,
      "syÄĩ": 1704,
      "uszcz": 1705,
      "Ġwsi": 1706,
      "sia": 1707,
      "owaÅĤa": 1708,
      "Ġkuch": 1709,
      "ĠdÅĤugo": 1710,
      "Ġnagle": 1711,
      "ĠWszyst": 1712,
      "Ġstary": 1713,
      "kazy": 1714,
      "ĠurzÄĻd": 1715,
      "Ġarytm": 1716,
      "ajÄħcych": 1717,
      "Ġrobi": 1718,
      "tery": 1719,
      "Ġdrugiej": 1720,
      "owania": 1721,
      "Ġgramaty": 1722,
      "Ġczasie": 1723,
      "Ġwiadomo": 1724,
      "ĠRosj": 1725,
      "kimi": 1726,
      "Ġpanu": 1727,
      "Ġbro": 1728,
      "Ġscho": 1729,
      "Ġostatni": 1730,
      "nist": 1731,
      "szyÅĤ": 1732,
      "Ġrodzaju": 1733,
      "Ġprzysz": 1734,
      "klasi": 1735,
      "dwo": 1736,
      "Ġwzg": 1737,
      "ĠÅĽnie": 1738,
      "Ġuk": 1739,
      "ĠmiaÅĤa": 1740,
      "gach": 1741,
      "Ġzaro": 1742,
      "Ġnigdy": 1743,
      "ĠpÅĤo": 1744,
      "ĠdÅĤugie": 1745,
      "Ġtajem": 1746,
      "Ġbole": 1747,
      "strzegÅĤ": 1748,
      "Ġtwo": 1749,
      "Ġwst": 1750,
      "nÄĻÅĤo": 1751,
      "Ġnieco": 1752,
      "be": 1753,
      "miast": 1754,
      "ĠzÄĻ": 1755,
      "ral": 1756,
      "Ġsek": 1757,
      "Ġsekre": 1758,
      "ĠzaÅĽ": 1759,
      "stem": 1760,
      "Ġnikt": 1761,
      "niÃ³": 1762,
      "ĠdosyÄĩ": 1763,
      "Ġuczy": 1764,
      "czyna": 1765,
      "ĠswÃ³j": 1766,
      "gÅĤo": 1767,
      "ĠKa": 1768,
      "gami": 1769,
      "Ġwreszcie": 1770,
      "Ġtrzeba": 1771,
      "Ġgodziny": 1772,
      "ĠsiÃ³dmej": 1773,
      "Å¼enie": 1774,
      "kaÄĩ": 1775,
      "ĠwszedÅĤ": 1776,
      "ktÃ³": 1777,
      "ĠMichci": 1778,
      "Ġspy": 1779,
      "Ġkated": 1780,
      "ĠsÅĤysze": 1781,
      "Ġarytmety": 1782,
      "ĠbÅĤo": 1783,
      "Ġ(": 1784,
      "pe": 1785,
      "nÃ³w": 1786,
      "ĠrÃ³Å¼": 1787,
      "Ġwprost": 1788,
      "kroÄĩ": 1789,
      "ĠmÃ³w": 1790,
      "Ġwyj": 1791,
      "wiz": 1792,
      "Ġklery": 1793,
      "ĠÅĤaci": 1794,
      "ĠKlerykowa": 1795,
      "ĠLeim": 1796,
      "ĠgÅĤÃ³w": 1797,
      "glÄħdaÅĤ": 1798,
      "Ġsyna": 1799,
      "Ġpiersi": 1800,
      "Ġniem": 1801,
      "ĠduÅ¼e": 1802,
      "Ġpotem": 1803,
      "Ġucie": 1804,
      "ĠbiaÅĤ": 1805,
      "Ġkoch": 1806,
      "Ġserca": 1807,
      "Ġukaz": 1808,
      "Ġpark": 1809,
      "ĠupÅĤy": 1810,
      "Ġwcho": 1811,
      "amy": 1812,
      "Ġpot": 1813,
      "Ġniep": 1814,
      "ĠchoÄĩ": 1815,
      "Ġpowi": 1816,
      "ĠrzekÅĤa": 1817,
      "Ġrozumie": 1818,
      "ciem": 1819,
      "Ġmieszkania": 1820,
      "rem": 1821,
      "Ġwszystkim": 1822,
      "ÅĽwi": 1823,
      "uÅĽci": 1824,
      "ĠwyciÄħg": 1825,
      "Ġkieru": 1826,
      "ĠcaÅĤym": 1827,
      "niÃ³sÅĤ": 1828,
      "Ġmru": 1829,
      "aÅĤem": 1830,
      "ĠmÃ³j": 1831,
      "?âĢ¦": 1832,
      "mieniu": 1833,
      "acz": 1834,
      "ĠKto": 1835,
      "kÃ³j": 1836,
      "Ġoto": 1837,
      "Ġnoc": 1838,
      "Ġwrzas": 1839,
      "liwie": 1840,
      "esz": 1841,
      "dzieli": 1842,
      "Ġzoba": 1843,
      "czeniu": 1844,
      "Ġwej": 1845,
      "ĠE": 1846,
      "dwie": 1847,
      "ĠstanÄħÅĤ": 1848,
      "Ġnazwi": 1849,
      "owarzy": 1850,
      "ĠczÄĻsto": 1851,
      "Ġprag": 1852,
      "Ġme": 1853,
      "Ġprofeso": 1854,
      "ĠnaleÅ¼y": 1855,
      "dzaÅĤ": 1856,
      "szli": 1857,
      "Ġnieraz": 1858,
      "Ġmieszka": 1859,
      "ĠzawoÅĤaÅĤ": 1860,
      "nienie": 1861,
      "Ġoso": 1862,
      "ĠPol": 1863,
      "wiÅĤ": 1864,
      "ĠmieÅĽci": 1865,
      "Ã³rzy": 1866,
      "ĠÃ³": 1867,
      "ĠÃ³s": 1868,
      "tymi": 1869,
      "Ġmas": 1870,
      "ĠgÄĻ": 1871,
      "Ġokry": 1872,
      "ĠkoÅĤ": 1873,
      "ĠktÃ³rym": 1874,
      "Ġwidok": 1875,
      "Ġszu": 1876,
      "oz": 1877,
      "ĠuÅĽmiech": 1878,
      "ndu": 1879,
      "rzÄħs": 1880,
      "ĠTym": 1881,
      "ĠpÃ³Åºniej": 1882,
      "Ġkilk": 1883,
      "chÄĻ": 1884,
      "ĠstaÅĤa": 1885,
      "koÅĤa": 1886,
      "cjÄħ": 1887,
      "ĠproszÄĻ": 1888,
      "bÄħ": 1889,
      "ate": 1890,
      "Ġtedy": 1891,
      "Äħcych": 1892,
      "rop": 1893,
      "ama": 1894,
      "nki": 1895,
      "Ġnas": 1896,
      "taj": 1897,
      "czes": 1898,
      "Ġkaz": 1899,
      "oru": 1900,
      "Ġspod": 1901,
      "Ġwska": 1902,
      "wiÄħz": 1903,
      "Ġwyda": 1904,
      "Ġchwy": 1905,
      "ĠczytaÅĤ": 1906,
      "ĠsÅĤyszeÄĩ": 1907,
      "owych": 1908,
      "Ġrazy": 1909,
      "ĠÅĽle": 1910,
      "Ġtrafi": 1911,
      "nienia": 1912,
      "ĠÅļ": 1913,
      "ĠgÃ³rÄĻ": 1914,
      "ÅĽni": 1915,
      "ĊĊĊ": 1916,
      "Ġrosyjsku": 1917,
      "Ġczym": 1918,
      "Ġwypad": 1919,
      "owaÅĤy": 1920,
      "czkÄĻ": 1921,
      "ĠÅ¼ycia": 1922,
      "jÄħcy": 1923,
      "ycho": 1924,
      "Ġszk": 1925,
      "ĠczÅĤowiek": 1926,
      "moÅ¼": 1927,
      "Ġprz": 1928,
      "Ġteat": 1929,
      "ĠPod": 1930,
      "Ġzdo": 1931,
      "ĠAn": 1932,
      "Ġprawo": 1933,
      "Ġmiasta": 1934,
      "Ġbry": 1935,
      "Ġor": 1936,
      "Ġinspektora": 1937,
      "szczÄĻ": 1938,
      "ĠkolegÃ³w": 1939,
      "siad": 1940,
      "stej": 1941,
      "nowicz": 1942,
      "Rad": 1943,
      "nne": 1944,
      "Bi": 1945,
      "Ġmro": 1946,
      "Ġrobo": 1947,
      "ĠtoteÅ¼": 1948,
      "rzem": 1949,
      "nale": 1950,
      "ĠduÅ¼": 1951,
      "wej": 1952,
      "Ġojciec": 1953,
      "cznÄħ": 1954,
      "dem": 1955,
      "mat": 1956,
      "Ġpoprze": 1957,
      "orem": 1958,
      "Å¼d": 1959,
      "rzej": 1960,
      "ĠwzglÄĻd": 1961,
      "Ġstru": 1962,
      "Ġszere": 1963,
      "uczyciel": 1964,
      "Ġrozmai": 1965,
      "Ġczo": 1966,
      "tnoÅĽci": 1967,
      "Ġwra": 1968,
      "Ġkawale": 1969,
      "ĠCÃ³Å¼": 1970,
      "amtÄħd": 1971,
      "ĠÅĽwiÄĻ": 1972,
      "âĢ¦âĢĿ": 1973,
      "Åºnie": 1974,
      "ĠjakÄħ": 1975,
      "ĠbÅĤy": 1976,
      "szony": 1977,
      "ĠkoÅĽci": 1978,
      "pomi": 1979,
      "Ġsamego": 1980,
      "ĠspojrzaÅĤ": 1981,
      "nka": 1982,
      "Ġzgo": 1983,
      "ĠzaczÄĻ": 1984,
      "lny": 1985,
      "Ġchci": 1986,
      "paÅĤ": 1987,
      "eri": 1988,
      "ze": 1989,
      "piej": 1990,
      "Ġtrzym": 1991,
      "ĠusiadÅĤ": 1992,
      "zo": 1993,
      "ĠÄĩwi": 1994,
      "czyÅĤa": 1995,
      "se": 1996,
      "cen": 1997,
      "pom": 1998,
      "ĠcaÅĤe": 1999,
      "ĠmusiaÅĤ": 2000,
      "byt": 2001,
      "Ġpedago": 2002,
      "ĠWtedy": 2003,
      "ĠjÄĻzyka": 2004,
      "pan": 2005,
      "Ġwtedy": 2006,
      "Ġkraj": 2007,
      "Ġzb": 2008,
      "ĠJuÅ¼": 2009,
      "Ã³wki": 2010,
      "ĠwielmoÅ¼": 2011,
      "Ġroku": 2012,
      "ura": 2013,
      "ĠgÅĤu": 2014,
      "Ġskrzy": 2015,
      "Ġjednej": 2016,
      "ĠBu": 2017,
      "Ġprzeby": 2018,
      "ĠTy": 2019,
      "Ġtor": 2020,
      "Ġwspo": 2021,
      "ciÄĩ": 2022,
      "gÃ³w": 2023,
      "Ġklerykow": 2024,
      "Ġgospoda": 2025,
      "ĠÅ¼elaz": 2026,
      "ĠchcÄĻ": 2027,
      "Ġcicho": 2028,
      "ĠpiÄħtej": 2029,
      "Ġpre": 2030,
      "ĠPrzepiÃ³rzy": 2031,
      "Ã³rkow": 2032,
      "omonowicz": 2033,
      "Ġradca": 2034,
      "Ġwody": 2035,
      "ĠMie": 2036,
      "ĠwspÃ³ÅĤ": 2037,
      "rabi": 2038,
      "Ġkwi": 2039,
      "ĠKost": 2040,
      "ĠWalec": 2041,
      "Biru": 2042,
      "legÅĤ": 2043,
      "sami": 2044,
      "eÅĤni": 2045,
      "rzch": 2046,
      "pÄĻ": 2047,
      "onej": 2048,
      "ewne": 2049,
      "Ġowej": 2050,
      "jÄħcych": 2051,
      "bliÅ¼": 2052,
      "rzaÅĤy": 2053,
      "Ġzdu": 2054,
      "ĠchÅĤopca": 2055,
      "ĠstronÄĻ": 2056,
      "ĠÃ³wdzie": 2057,
      "ĠzapytaÅĤ": 2058,
      "Ġobej": 2059,
      "Ġdrzwiami": 2060,
      "Gdy": 2061,
      "Å¼yÄĩ": 2062,
      "ĠgÃ³ry": 2063,
      "dÅĤa": 2064,
      "ĠwiedziaÅĤ": 2065,
      "Ġona": 2066,
      "ĠszczegÃ³l": 2067,
      "ĠpÅĤy": 2068,
      "ĠsÅĤyszaÅĤ": 2069,
      "Ġdrzewa": 2070,
      "ĠgÅĤowie": 2071,
      "Ġokrop": 2072,
      "Ġkierunku": 2073,
      "cier": 2074,
      "Ġznie": 2075,
      "sÅĤo": 2076,
      "Ġbrz": 2077,
      "Ġwszelkie": 2078,
      "Ġprzygo": 2079,
      "ĠpÄĻ": 2080,
      "ĠrzuciÅĤ": 2081,
      "giem": 2082,
      "Ġwiecz": 2083,
      "Ġprzedmio": 2084,
      "Ġintere": 2085,
      "Ġotwar": 2086,
      "Ġmasz": 2087,
      "ĠczytaÄĩ": 2088,
      "Ġdrew": 2089,
      "Ġkrok": 2090,
      "Ġzer": 2091,
      "Ã³g": 2092,
      "Ġlub": 2093,
      "Ġpowta": 2094,
      "ĠnÄĻ": 2095,
      "ĠzostaÅĤ": 2096,
      "tami": 2097,
      "ĠszczÄĻ": 2098,
      "Ġprzeciw": 2099,
      "nika": 2100,
      "Ġrozpo": 2101,
      "Ġtre": 2102,
      "Ġucznia": 2103,
      "ĠmaÅĤy": 2104,
      "Ġzag": 2105,
      "grafi": 2106,
      "lek": 2107,
      "ĠbÄĻdÄĻ": 2108,
      "ĠpowiedzieÄĩ": 2109,
      "Ġidzie": 2110,
      "Ġprzyja": 2111,
      "ĠusÅĤy": 2112,
      "dowaÅĤ": 2113,
      "stÃ³w": 2114,
      "ĠksiÄħÅ¼ki": 2115,
      "Ġstrony": 2116,
      "ĠDale": 2117,
      "Ġpas": 2118,
      "Ġkance": 2119,
      "dob": 2120,
      "wÃ³": 2121,
      "Ġwyro": 2122,
      "bar": 2123,
      "Ġcelu": 2124,
      "Ġjednego": 2125,
      "ĠPrzepiÃ³rkow": 2126,
      "Ġwro": 2127,
      "Ġszo": 2128,
      "ĠÅĤÄħ": 2129,
      "ĠSztet": 2130,
      "ckle": 2131,
      "ĠZygier": 2132,
      "Ġkonie": 2133,
      "Ġrozum": 2134,
      "Ġsmut": 2135,
      "Ġdosko": 2136,
      "Ġrozko": 2137,
      "Ġoczu": 2138,
      "kiedy": 2139,
      "ĠwoÅĤaÅĤ": 2140,
      "dzÄĻ": 2141,
      "eb": 2142,
      "rywaÅĤ": 2143,
      "ĠgÅĤuch": 2144,
      "ryw": 2145,
      "ĠrodzicÃ³w": 2146,
      "ĠChÅĤo": 2147,
      "Ġdom": 2148,
      "Ġmn": 2149,
      "ĠmnÃ³": 2150,
      "ĠF": 2151,
      "Ġnatych": 2152,
      "Ġnatychmiast": 2153,
      "ĠszepnÄħÅĤ": 2154,
      "ĠByÅĤo": 2155,
      "Ġzwrac": 2156,
      "Ġwiem": 2157,
      "Ġjakim": 2158,
      "Ġzmu": 2159,
      "ĠosÃ³b": 2160,
      "Ġbli": 2161,
      "Ġserce": 2162,
      "Ġsama": 2163,
      "Ġjestem": 2164,
      "Ġwyma": 2165,
      "dÄħc": 2166,
      "ĠGawronek": 2167,
      "Ġtymczasem": 2168,
      "Ġsen": 2169,
      "rych": 2170,
      "Ġdrewni": 2171,
      "Ġuczniowie": 2172,
      "ciej": 2173,
      "ychaÄĩ": 2174,
      "ĠÅ»y": 2175,
      "dziÅĤo": 2176,
      "ĠumiaÅĤ": 2177,
      "Ġcztery": 2178,
      "Ġwal": 2179,
      "lony": 2180,
      "Ġlekcje": 2181,
      "Ġtrzech": 2182,
      "Ġzjawi": 2183,
      "lne": 2184,
      "Ġniedo": 2185,
      "ĠWol": 2186,
      "dziaÅĤa": 2187,
      "asz": 2188,
      "ber": 2189,
      "Ġpapie": 2190,
      "owym": 2191,
      "Ġsre": 2192,
      "niami": 2193,
      "czym": 2194,
      "der": 2195,
      "ĠjeÅ¼eli": 2196,
      "Nie": 2197,
      "ĠPazu": 2198,
      "Ġwyb": 2199,
      "ĠkaÅ¼dy": 2200,
      "warc": 2201,
      "czni": 2202,
      "ako": 2203,
      "ĠSomonowicz": 2204,
      "Ġchle": 2205,
      "Ġprawa": 2206,
      "Ġsamym": 2207,
      "ĠwpÅĤy": 2208,
      "ĠRadka": 2209,
      "rzogÅĤ": 2210,
      "onta": 2211,
      "ĠWÅĤadzi": 2212,
      "Ġczwar": 2213,
      "wan": 2214,
      "ĠwzgÃ³": 2215,
      "Ġszar": 2216,
      "Ġmocno": 2217,
      "Ġpewnego": 2218,
      "ĠstaÅĤy": 2219,
      "ĠjakiejÅĽ": 2220,
      "ĠduÅ¼y": 2221,
      "Å¼one": 2222,
      "tro": 2223,
      "biegÅĤ": 2224,
      "Ġtajemni": 2225,
      "ĠAni": 2226,
      "goÅĽ": 2227,
      "Ġzat": 2228,
      "Ġpierwszy": 2229,
      "Ġmundu": 2230,
      "Å¼eÅĦ": 2231,
      "ĠmyÅĽle": 2232,
      "Ġchwil": 2233,
      "ĠdÅºwiÄĻ": 2234,
      "Ġczer": 2235,
      "Ġznajdow": 2236,
      "onymi": 2237,
      "ĠgwaÅĤ": 2238,
      "Ġdobro": 2239,
      "ĠcaÅĤa": 2240,
      "Ġfami": 2241,
      "Ġczyli": 2242,
      "ĠJed": 2243,
      "arÃ³w": 2244,
      "rak": 2245,
      "woÅĽci": 2246,
      "Ġrazem": 2247,
      "Ġwolna": 2248,
      "ĠÅĽwiatÅĤo": 2249,
      "ĠczuÅĤ": 2250,
      "Ġilo": 2251,
      "nios": 2252,
      "Ġkorepetytor": 2253,
      "Ġniekiedy": 2254,
      "Ġwiesz": 2255,
      "bym": 2256,
      "awszy": 2257,
      "Ġbrud": 2258,
      "ĠziemiÄĻ": 2259,
      "Ġwskaz": 2260,
      "Ġpl": 2261,
      "ÅĤak": 2262,
      "nami": 2263,
      "Ġswoim": 2264,
      "Ġrozleg": 2265,
      "braÅĤ": 2266,
      "Ġmieli": 2267,
      "ĠwiÄĻkszo": 2268,
      "Ġpoch": 2269,
      "Ġgrom": 2270,
      "ÅĦcÃ³w": 2271,
      "god": 2272,
      "ĠDopiero": 2273,
      "ĠupÅĤywie": 2274,
      "ĠtakÄħ": 2275,
      "ĠwÅĤaÅĽciwie": 2276,
      "siÄĩ": 2277,
      "zm": 2278,
      "Ġczyt": 2279,
      "ĠporzÄħd": 2280,
      "II": 2281,
      "roz": 2282,
      "ĠwÃ³wczas": 2283,
      "ĠprzyjÄĻ": 2284,
      "Ġwycho": 2285,
      "ĠDla": 2286,
      "Ġtrwo": 2287,
      "ĠPanie": 2288,
      "Ġpewien": 2289,
      "Ġgrze": 2290,
      "Ġstara": 2291,
      "wania": 2292,
      "Å¼ek": 2293,
      "ĠÅ¼o": 2294,
      "ĠKo": 2295,
      "Ġodby": 2296,
      "Ġpara": 2297,
      "Ġstare": 2298,
      "Ġgrun": 2299,
      "ĠTu": 2300,
      "obec": 2301,
      "rzenie": 2302,
      "owali": 2303,
      "Ġdwo": 2304,
      "Ġnauki": 2305,
      "Ġbyli": 2306,
      "ĠPy": 2307,
      "ĠÅ¼ycie": 2308,
      "wano": 2309,
      "aÅĤu": 2310,
      "ĠpoÅĤu": 2311,
      "szech": 2312,
      "gdzie": 2313,
      "owiem": 2314,
      "kaÅĤy": 2315,
      "Pan": 2316,
      "cic": 2317,
      "let": 2318,
      "ĠpoÅĤy": 2319,
      "Ġbe": 2320,
      "ĠktÃ³rÄħ": 2321,
      "jo": 2322,
      "ĠprÄĻd": 2323,
      "Ġschy": 2324,
      "ĠzajÄĻ": 2325,
      "Ġstud": 2326,
      "Ġprzestrze": 2327,
      "ĠjednÄħ": 2328,
      "usi": 2329,
      "Ġprzym": 2330,
      "stwie": 2331,
      "stawaÅĤ": 2332,
      "Ġwzro": 2333,
      "lone": 2334,
      "pu": 2335,
      "Ġniewie": 2336,
      "and": 2337,
      "gar": 2338,
      "Ġwielkie": 2339,
      "ĠÅºle": 2340,
      "ĠSpo": 2341,
      "zd": 2342,
      "ĠstamtÄħd": 2343,
      "sÅĤuch": 2344,
      "Ġostro": 2345,
      "rÄħg": 2346,
      "ĠpoczÄħt": 2347,
      "szÄħc": 2348,
      "ĠPie": 2349,
      "ckiego": 2350,
      "ĠpostÄĻp": 2351,
      "ĠÅĽrodek": 2352,
      "Ġwytrze": 2353,
      "Ġotwo": 2354,
      "Ġwyt": 2355,
      "Ġdrugim": 2356,
      "ĠCho": 2357,
      "wer": 2358,
      "ĠOn": 2359,
      "caÅĤ": 2360,
      "ciel": 2361,
      "szczÄħc": 2362,
      "dzili": 2363,
      "szej": 2364,
      "Ġuj": 2365,
      "Ġcieka": 2366,
      "owskich": 2367,
      "ĠwiÄĻkszoÅĽÄĩ": 2368,
      "Ġjas": 2369,
      "ĠspytaÅĤ": 2370,
      "tat": 2371,
      "ĠgÅĤowÄħ": 2372,
      "Ġse": 2373,
      "Ġnam": 2374,
      "ĠbÅĤa": 2375,
      "Ġsm": 2376,
      "ĠpatrzeÄĩ": 2377,
      "Ġwzi": 2378,
      "Ġtamtej": 2379,
      "Ġokolicy": 2380,
      "wij": 2381,
      "for": 2382,
      "czyn": 2383,
      "owiadaÅĤ": 2384,
      "Ġprofesora": 2385,
      "Ġchy": 2386,
      "Ġczyni": 2387,
      "Ġduszy": 2388,
      "ĠuczyÅĤ": 2389,
      "iem": 2390,
      "ĠjaÅĤ": 2391,
      "Ġoraz": 2392,
      "Ġszaf": 2393,
      "deÅĤ": 2394,
      "ÄħÄĩ": 2395,
      "ĠzbliÅ¼yÅĤ": 2396,
      "bel": 2397,
      "sj": 2398,
      "ĠJacz": 2399,
      "ĠJaczmienie": 2400,
      "ĠdawaÅĤ": 2401,
      "nemu": 2402,
      "twie": 2403,
      "ĠÅĤawki": 2404,
      "oli": 2405,
      "Ġkrew": 2406,
      "ĠiÅĽÄĩ": 2407,
      "ĠczÅĤowieka": 2408,
      "Ġrado": 2409,
      "cÄħc": 2410,
      "Ġwspom": 2411,
      "ĠpÃ³j": 2412,
      "ĠwrÃ³": 2413,
      "Ġzbu": 2414,
      "Ġnikomu": 2415,
      "Ġkorytarz": 2416,
      "Ġkancelar": 2417,
      "Ġrzeczywi": 2418,
      "roma": 2419,
      "ĠpodwÃ³": 2420,
      "piÄĩ": 2421,
      "Ġdni": 2422,
      "Ġfol": 2423,
      "Ġfolwar": 2424,
      "ĠmieÅĽcie": 2425,
      "jej": 2426,
      "Ġsprawy": 2427,
      "najm": 2428,
      "najmniej": 2429,
      "ÅĽmy": 2430,
      "Ġzmar": 2431,
      "ĠjÄĻzyk": 2432,
      "ĠstancjÄĻ": 2433,
      "asami": 2434,
      "ĠSztetter": 2435,
      "lew": 2436,
      "ĠkrokÃ³w": 2437,
      "moklasi": 2438,
      "ĠGonta": 2439,
      "Ġodwie": 2440,
      "Ġnieustan": 2441,
      "nach": 2442,
      "ĠgÅĤowy": 2443,
      "Ġzapewne": 2444,
      "Pani": 2445,
      "Ġile": 2446,
      "Ġczap": 2447,
      "Ġojca": 2448,
      "ĠprÄĻdko": 2449,
      "Ġlasu": 2450,
      "biÄĩ": 2451,
      "Ġnieo": 2452,
      "jech": 2453,
      "paÄĩ": 2454,
      "Ġkra": 2455,
      "ÅĦcu": 2456,
      "Ġspokoj": 2457,
      "ĠPrzecie": 2458,
      "jechaÅĤ": 2459,
      "Ġpla": 2460,
      "ĠsÅĤuchaÅĤ": 2461,
      "Ġpil": 2462,
      "Ġwybu": 2463,
      "Ġtabli": 2464,
      "Ġsieni": 2465,
      "ĠMar": 2466,
      "ĠPal": 2467,
      "Å¼aÅĤa": 2468,
      "ĠByÅĤa": 2469,
      "ĠgwaÅĤtow": 2470,
      "Ġkawaler": 2471,
      "Ã³wi": 2472,
      "nnym": 2473,
      "ÅĽwiad": 2474,
      "dyd": 2475,
      "ĠpoczÄħÅĤ": 2476,
      "dzono": 2477,
      "sÅĤych": 2478,
      "Ġwzrok": 2479,
      "bieraÅĤ": 2480,
      "ĠpoczÄħtku": 2481,
      "ĠpodniÃ³sÅĤ": 2482,
      "Ġdziew": 2483,
      "Ġwysoko": 2484,
      "Ġrozpacz": 2485,
      "ĠuÅĽmiechem": 2486,
      "Ġrubli": 2487,
      "ĠPani": 2488,
      "Ġobc": 2489,
      "ĠwstaÅĤ": 2490,
      "ĠksiÄĻÅ¼y": 2491,
      "Ġdrogi": 2492,
      "ĠrÄĻkÄħ": 2493,
      "ĠnastÄĻpnie": 2494,
      "wÃ³r": 2495,
      "rwaÅĤ": 2496,
      "Ġokiem": 2497,
      "ĠmÃ³z": 2498,
      "Ġwraz": 2499,
      "ĠmaÅĤego": 2500,
      "ĠpatrzÄħc": 2501,
      "ĠmiaÅĤy": 2502,
      "Ġkrzyk": 2503,
      "ĠznalazÅĤ": 2504,
      "ĠMichcik": 2505,
      "ĠÅĤawie": 2506,
      "ĠGrze": 2507,
      "dzony": 2508,
      "ot": 2509,
      "mieniem": 2510,
      "Ġwydo": 2511,
      "pat": 2512,
      "ten": 2513,
      "Ġbel": 2514,
      "ĠTen": 2515,
      "Ġar": 2516,
      "ser": 2517,
      "Ġuko": 2518,
      "Ġkoniec": 2519,
      "cka": 2520,
      "Ġwszystkiego": 2521,
      "ÅĤonie": 2522,
      "ju": 2523,
      "Ġude": 2524,
      "rzeniem": 2525,
      "Ġsnu": 2526,
      "Ġpewno": 2527,
      "ĠtakÅ¼e": 2528,
      "ĠÅ¼yw": 2529,
      "czyÅĤy": 2530,
      "ĠBoÅ¼e": 2531,
      "ĠciÄħgu": 2532,
      "anda": 2533,
      "dziennie": 2534,
      "wanie": 2535,
      "Ġrosyjskie": 2536,
      "Ġbied": 2537,
      "ace": 2538,
      "Ġstaw": 2539,
      "Ġbezw": 2540,
      "Ġodpowiedzi": 2541,
      "ĠWszyscy": 2542,
      "anim": 2543,
      "Ġsrebr": 2544,
      "fil": 2545,
      "oÅĤa": 2546,
      "Ġpen": 2547,
      "ĠprÃ³": 2548,
      "nikÃ³w": 2549,
      "Ġzaj": 2550,
      "Ġlitera": 2551,
      "ctwo": 2552,
      "Ġludzie": 2553,
      "niach": 2554,
      "ĠBorowiczowej": 2555,
      "Ġlewo": 2556,
      "lski": 2557,
      "Ġgre": 2558,
      "ĠÅĤy": 2559,
      "ĠwyÅ¼": 2560,
      "ĠchodziÅĤ": 2561,
      "Ġulicy": 2562,
      "kier": 2563,
      "ote": 2564,
      "Ġobyd": 2565,
      "Ġspot": 2566,
      "tan": 2567,
      "Ġpole": 2568,
      "un": 2569,
      "Ġlicz": 2570,
      "Ġsali": 2571,
      "niÄĻty": 2572,
      "fek": 2573,
      "Ġopie": 2574,
      "Ġjedna": 2575,
      "Ġokie": 2576,
      "ĠwaÄĩ": 2577,
      "Ġobja": 2578,
      "ĠkÅĤad": 2579,
      "owany": 2580,
      "gow": 2581,
      "riu": 2582,
      "ĠPyrzogÅĤ": 2583,
      "kiewicza": 2584,
      "Radek": 2585,
      "prÃ³Å¼": 2586,
      "alecki": 2587,
      "ÅºÄĩ": 2588,
      "zwyczaj": 2589,
      "ĠÅ¼adnej": 2590,
      "Ġzacze": 2591,
      "Ġoczach": 2592,
      "ĠTwa": 2593,
      "kÅĤy": 2594,
      "Ġdoskonale": 2595,
      "Ġlas": 2596,
      "ĠÅĽla": 2597,
      "ĠWidzi": 2598,
      "ĠMy": 2599,
      "Ġtakich": 2600,
      "Ġpola": 2601,
      "ĠÅĽcian": 2602,
      "ĠchÅĤopiec": 2603,
      "boÅ¼": 2604,
      "Ġkapi": 2605,
      "lami": 2606,
      "ĠpatrzaÅĤ": 2607,
      "onym": 2608,
      "Ġpewnym": 2609,
      "Ġokna": 2610,
      "Ġster": 2611,
      "ĠzdÄħ": 2612,
      "Ġczerwo": 2613,
      "ĠWiechowskiego": 2614,
      "tra": 2615,
      "ĠwoÅĤ": 2616,
      "ĠzÄĻby": 2617,
      "Ġfamili": 2618,
      "Ġprzede": 2619,
      "ĠmyÅĽlaÅĤ": 2620,
      "Ġniezn": 2621,
      "ÅĤych": 2622,
      "Ġzajm": 2623,
      "ĠuÅ¼y": 2624,
      "Ġdre": 2625,
      "Ġwych": 2626,
      "Ġobec": 2627,
      "ĠcaÅĤkowi": 2628,
      "stawiÅĤ": 2629,
      "Ġmist": 2630,
      "dzwyczaj": 2631,
      "ÅĤowa": 2632,
      "rzyÅĤa": 2633,
      "ĠchÄĻ": 2634,
      "Ġwrze": 2635,
      "szczyz": 2636,
      "ÅĤÃ³": 2637,
      "ĠdaÄĩ": 2638,
      "ĠdziÅĽ": 2639,
      "ĠkÄħ": 2640,
      "Ġmoja": 2641,
      "Ġdoj": 2642,
      "niesi": 2643,
      "Ġlam": 2644,
      "liz": 2645,
      "ĠrÄħ": 2646,
      "Ġzaprowa": 2647,
      "Ġsercu": 2648,
      "kajÄħc": 2649,
      "Ġsiedzieli": 2650,
      "ÅĤow": 2651,
      "czony": 2652,
      "Ġnikogo": 2653,
      "Ġgor": 2654,
      "ĠWszystko": 2655,
      "Ġzale": 2656,
      "Marcin": 2657,
      "Ġwydoby": 2658,
      "ĠwkrÃ³tce": 2659,
      "ĠpowiedziaÅĤ": 2660,
      "ĠksiÄħÅ¼kÄĻ": 2661,
      "Ġmodli": 2662,
      "ĠGo": 2663,
      "ĠsÅĤychaÄĩ": 2664,
      "ĠSam": 2665,
      "skÄĻ": 2666,
      "pre": 2667,
      "Ġprzeczy": 2668,
      "Ġrosyjskiej": 2669,
      "Ġtowarzy": 2670,
      "Ġnosem": 2671,
      "ĠpiÄĻÄĩ": 2672,
      "tanie": 2673,
      "ĠmaÅĤo": 2674,
      "trzu": 2675,
      "Ġkatedry": 2676,
      "ĠsÅĤa": 2677,
      "Ġrozbi": 2678,
      "logi": 2679,
      "Ġkom": 2680,
      "ciÅĤy": 2681,
      "ĠMarcinkowi": 2682,
      "dniego": 2683,
      "Ġczter": 2684,
      "Ġpoza": 2685,
      "kli": 2686,
      "Ġruchu": 2687,
      "Ġobraz": 2688,
      "Ġbieg": 2689,
      "Ġobowi": 2690,
      "ĠskÅĤad": 2691,
      "ĠOj": 2692,
      "Ġnadto": 2693,
      "Ġprzej": 2694,
      "ĠprÃ³Å¼": 2695,
      "ĠmÃ³wiÄħc": 2696,
      "Ġzebr": 2697,
      "lni": 2698,
      "Ġgad": 2699,
      "zÄĻ": 2700,
      "Ġniech": 2701,
      "ÅĤoÅĽÄĩ": 2702,
      "Å¼aÅĤo": 2703,
      "Ġwios": 2704,
      "ĠLu": 2705,
      "rzeÅĦ": 2706,
      "Ġkorytarzu": 2707,
      "nosiÅĤ": 2708,
      "zmu": 2709,
      "atÃ³w": 2710,
      "czone": 2711,
      "mÄĻ": 2712,
      "Ġbad": 2713,
      "Ġzgroma": 2714,
      "Ġmuru": 2715,
      "dÃ³w": 2716,
      "ziÄĻ": 2717,
      "ĠMajewskiego": 2718,
      "uszka": 2719,
      "ĠurzÄħ": 2720,
      "szem": 2721,
      "stro": 2722,
      "bardziej": 2723,
      "ady": 2724,
      "alo": 2725,
      "Ġmateri": 2726,
      "stw": 2727,
      "Ġnadzie": 2728,
      "daw": 2729,
      "ĠSto": 2730,
      "Ġdoz": 2731,
      "Ġraczej": 2732,
      "Ġwieku": 2733,
      "fer": 2734,
      "lin": 2735,
      "ĠDalesz": 2736,
      "ĠSzwarc": 2737,
      "ĠszÃ³": 2738,
      "ĠGrzebi": 2739,
      "Ġpolity": 2740,
      "kwi": 2741,
      "Ġzmi": 2742,
      "ĠÅĽwiata": 2743,
      "Ġwielkiej": 2744,
      "Ġpt": 2745,
      "Ġhistorii": 2746,
      "Ġskry": 2747,
      "Ġtrzeciej": 2748,
      "ĠmÅĤodzieÅ¼y": 2749,
      "siadÅĤ": 2750,
      "Ġwle": 2751,
      "Ġparkan": 2752,
      "ĠwolnoprÃ³Å¼": 2753,
      "Fi": 2754,
      "Ġzazwyczaj": 2755,
      "ĠokoÅĤo": 2756,
      "ĠGdzie": 2757,
      "aÅĤÄĻ": 2758,
      "Ch": 2759,
      "ĠÅĽniegu": 2760,
      "tny": 2761,
      "Ġdwor": 2762,
      "Ġchwila": 2763,
      "ĠmaÅĤe": 2764,
      "ĠszkoÅĤa": 2765,
      "ĠRoz": 2766,
      "ĠTrze": 2767,
      "rka": 2768,
      "Ġpowiad": 2769,
      "ĠÅ¼yciu": 2770,
      "Ġinnych": 2771,
      "Ġwzrokiem": 2772,
      "ĠpotÄĻ": 2773,
      "Ġniespo": 2774,
      "ĠgÅĤoÅĽniej": 2775,
      "Ġpowo": 2776,
      "Ġkup": 2777,
      "czyli": 2778,
      "Ġtemu": 2779,
      "Ġgr": 2780,
      "ĠÅ¼Ã³ÅĤ": 2781,
      "Ġprzesz": 2782,
      "Ġspad": 2783,
      "ĠukÅĤo": 2784,
      "Ġnatu": 2785,
      "Ġwprowa": 2786,
      "ĠniesÅĤych": 2787,
      "Ġkana": 2788,
      "Ġdrzwiach": 2789,
      "Ġzwykle": 2790,
      "ĠLej": 2791,
      "gna": 2792,
      "Ġcier": 2793,
      "Tym": 2794,
      "Ã³zi": 2795,
      "ĠJest": 2796,
      "To": 2797,
      "ĠumysÅĤ": 2798,
      "Ġprac": 2799,
      "ĠhaÅĤa": 2800,
      "Ġwytrzeszcz": 2801,
      "Ġcof": 2802,
      "Ġnadzwyczaj": 2803,
      "Ġkoszu": 2804,
      "ĠstoÅĤu": 2805,
      "Ġczyn": 2806,
      "Ġklu": 2807,
      "dach": 2808,
      "ĠpokÃ³j": 2809,
      "orst": 2810,
      "wiaÄĩ": 2811,
      "Ġnajle": 2812,
      "Ġzza": 2813,
      "nnik": 2814,
      "ĠpoÅĽ": 2815,
      "ĠspostrzegÅĤ": 2816,
      "ĠidÄħc": 2817,
      "dÅĤuÅ¼": 2818,
      "ĠchciaÅĤ": 2819,
      "ĠposÅĤ": 2820,
      "Ġtchu": 2821,
      "Ġnakry": 2822,
      "gni": 2823,
      "Ġol": 2824,
      "Ġznajom": 2825,
      "Ġkasz": 2826,
      "gaÅĤa": 2827,
      "ĠniektÃ³": 2828,
      "cone": 2829,
      "czna": 2830,
      "Ġrami": 2831,
      "ciÄħÅ¼": 2832,
      "ĠSko": 2833,
      "ĠNic": 2834,
      "rie": 2835,
      "bÅĤa": 2836,
      "adÅĤy": 2837,
      "akro": 2838,
      "nosi": 2839,
      "Ġnajm": 2840,
      "ĠzaÅĤo": 2841,
      "Ġgwar": 2842,
      "*âĢ¦": 2843,
      "Ġumi": 2844,
      "ab": 2845,
      "ĠdÅºwi": 2846,
      "Ġbrod": 2847,
      "Ġsiedzi": 2848,
      "ĠkoÅĦcu": 2849,
      "ĠÅ¼al": 2850,
      "ĠOto": 2851,
      "Ġwidocznie": 2852,
      "ĠwziÄħÅĤ": 2853,
      "Ġtrw": 2854,
      "ĠDzie": 2855,
      "Ġucho": 2856,
      "tna": 2857,
      "Ġgodzinie": 2858,
      "Ġmach": 2859,
      "arÃ³wno": 2860,
      "Ġgnie": 2861,
      "Ġobie": 2862,
      "Ġnazy": 2863,
      "Ġwyprowa": 2864,
      "tnych": 2865,
      "ĠzobaczyÅĤ": 2866,
      "Ġniebie": 2867,
      "yrek": 2868,
      "yrektor": 2869,
      "ĠobowiÄħz": 2870,
      "ĠrÄĻku": 2871,
      "kniÄĻte": 2872,
      "Ġrz": 2873,
      "ĠspoglÄħd": 2874,
      "Ġczasami": 2875,
      "ĠusÅĤyszaÅĤ": 2876,
      "Ġprzycho": 2877,
      "ĠmÃ³wiÄĻ": 2878,
      "gan": 2879,
      "ĠkaÅ¼dej": 2880,
      "nÄĻtrz": 2881,
      "Ġosoby": 2882,
      "ĠÅĤatwo": 2883,
      "Ġstu": 2884,
      "Ġwam": 2885,
      "Ġdrugiego": 2886,
      "ĠbÄĻdÄħ": 2887,
      "ĠradoÅĽci": 2888,
      "iep": 2889,
      "ĠwÄĻd": 2890,
      "ĠPra": 2891,
      "Ġpracy": 2892,
      "Ġnimi": 2893,
      "kazu": 2894,
      "Ġdol": 2895,
      "Ġzamie": 2896,
      "Ġrozmowy": 2897,
      "Ġsamych": 2898,
      "ĠdzieÅĤa": 2899,
      "Ġinne": 2900,
      "Ġsur": 2901,
      "ĠMa": 2902,
      "wach": 2903,
      "ĠruszyÅĤ": 2904,
      "Ġkancelarii": 2905,
      "Ġpolski": 2906,
      "nÄĻli": 2907,
      "ĠkazaÅĤ": 2908,
      "Ġoni": 2909,
      "dzone": 2910,
      "Ġmiejsc": 2911,
      "ĠwielkÄħ": 2912,
      "Ġnajbardziej": 2913,
      "dali": 2914,
      "ĠJeÅ¼eli": 2915,
      "Ġsystem": 2916,
      "ari": 2917,
      "Ġprzynajmniej": 2918,
      "ĠÃ³smej": 2919,
      "Ġzi": 2920,
      "Ġpanna": 2921,
      "Ġrozt": 2922,
      "Ġtakiej": 2923,
      "ct": 2924,
      "Ġkrz": 2925,
      "Ġpostaci": 2926,
      "Ġwszech": 2927,
      "mach": 2928,
      "Ġparku": 2929,
      "szer": 2930,
      "ĠkawaÅĤ": 2931,
      "staÄĩ": 2932,
      "ĠCzasami": 2933,
      "ĠuczÄĻ": 2934,
      "ĠpieniÄħ": 2935,
      "ĠpieniÄħdze": 2936,
      "Ġwielkiego": 2937,
      "Ġstarego": 2938,
      "Ġsro": 2939,
      "ĠÅºrÃ³d": 2940,
      "ĠKostriu": 2941,
      "ĠPalusz": 2942,
      "ĠWÅĤadzio": 2943,
      "ĠPÅĤonie": 2944,
      "ĠPÅĤoniewicz": 2945,
      "ĠwiadomoÅĽci": 2946,
      "ĠWaleckiego": 2947,
      "ĠÅ»e": 2948,
      "owanych": 2949,
      "anek": 2950,
      "Ġpowszech": 2951,
      "ĠwzgÃ³rz": 2952,
      "rzyÅĤy": 2953,
      "jÄħcej": 2954,
      "niÄĻte": 2955,
      "Ġpust": 2956,
      "Ġspi": 2957,
      "ÅĽciami": 2958,
      "ĠrÄĻka": 2959,
      "Ġwielkim": 2960,
      "Ġbowiem": 2961,
      "Ġledwo": 2962,
      "Ġminu": 2963,
      "ĠÅĤzy": 2964,
      "rad": 2965,
      "Ġwzru": 2966,
      "ĠÅģ": 2967,
      "ĠTwarz": 2968,
      "gdyÅĽ": 2969,
      "ĠchÅĤopak": 2970,
      "ĠoÅĽ": 2971,
      "Ġbrwi": 2972,
      "ĠMiaÅĤ": 2973,
      "ĠkoÅĤnie": 2974,
      "Ġprzep": 2975,
      "wal": 2976,
      "Ġwierz": 2977,
      "ĠNaj": 2978,
      "Ġpewne": 2979,
      "Ġswoje": 2980,
      "ĠnogÄħ": 2981,
      "ĠleÅĽ": 2982,
      "Ġnu": 2983,
      "aru": 2984,
      "mimo": 2985,
      "Ġodrze": 2986,
      "ĠjesteÅĽ": 2987,
      "leci": 2988,
      "cznoÅĽci": 2989,
      "ĠktoÅĽ": 2990,
      "ĠdzieciÄĻ": 2991,
      "Ġprzera": 2992,
      "Ġobu": 2993,
      "Ġkilkana": 2994,
      "ĠkilkanaÅĽcie": 2995,
      "Ġbudy": 2996,
      "Ġdrzew": 2997,
      "stwem": 2998,
      "anki": 2999,
      "Ġnauczycielka": 3000,
      "icho": 3001,
      "krÄĻ": 3002,
      "lej": 3003,
      "Ġnauczycielowa": 3004,
      "ĠogÃ³": 3005,
      "ĠogÃ³le": 3006,
      "Ġsposobem": 3007,
      "ĠmÃ³wiÅĤa": 3008,
      "aliÅĤ": 3009,
      "tÃ³Å¼": 3010,
      "Ġtakim": 3011,
      "Ġziem": 3012,
      "Ġsprawie": 3013,
      "niewaÅ¼": 3014,
      "ĠkÄħt": 3015,
      "ĠprowadzÄħc": 3016,
      "Ġszkolnej": 3017,
      "jÄħcym": 3018,
      "Ġczup": 3019,
      "chnÄħÅĤ": 3020,
      "Ġprzypomi": 3021,
      "Ġtrud": 3022,
      "Tymczasem": 3023,
      "szÅĤa": 3024,
      "ĠJÃ³zi": 3025,
      "ĠksiÄĻdza": 3026,
      "uÅĽciÅĤ": 3027,
      "Ġrap": 3028,
      "Ġzabaw": 3029,
      "ĠTeraz": 3030,
      "cznoÅĽÄĩ": 3031,
      "ĠPrzez": 3032,
      "ÅĤÄĻd": 3033,
      "Ġchce": 3034,
      "Ġwas": 3035,
      "ajÄĻ": 3036,
      "Ġlepiej": 3037,
      "ciÄħgnÄħÅĤ": 3038,
      "adÅĤa": 3039,
      "ĠJego": 3040,
      "ĠdokoÅĤa": 3041,
      "ĠWÃ³wczas": 3042,
      "ĠÅĽwiatÅĤa": 3043,
      "ĠrÄħk": 3044,
      "ĠwzdÅĤuÅ¼": 3045,
      "ĠjakichÅĽ": 3046,
      "ĠgdzieÅĽ": 3047,
      "Ġkuchni": 3048,
      "ĠkÄħc": 3049,
      "ĠkÄħcie": 3050,
      "Ġznaczy": 3051,
      "aju": 3052,
      "Ġstopnia": 3053,
      "Ġwid": 3054,
      "ĠwziÄĻ": 3055,
      "man": 3056,
      "Ġizbie": 3057,
      "By": 3058,
      "ByÅĤ": 3059,
      "Ġstanow": 3060,
      "cznego": 3061,
      "Ġtry": 3062,
      "ĠotworzyÅĤ": 3063,
      "ĠwciÄħÅ¼": 3064,
      "Ġczyta": 3065,
      "stwi": 3066,
      "Äħtek": 3067,
      "Ġgromad": 3068,
      "Ġnazwisko": 3069,
      "Ġpunk": 3070,
      "Ġuwagi": 3071,
      "Ġmart": 3072,
      "Ġwiej": 3073,
      "Ġmiesi": 3074,
      "Ġwiecznie": 3075,
      "ĠskoÅĦ": 3076,
      "bij": 3077,
      "ĠusiÅĤ": 3078,
      "Ġforsow": 3079,
      "Ġrozmaitych": 3080,
      "Ġformu": 3081,
      "Ġarytmetyki": 3082,
      "Ġgramatyki": 3083,
      "Ġdobr": 3084,
      "Ġfizy": 3085,
      "Ġkre": 3086,
      "Ġdobre": 3087,
      "ĠstÃ³ÅĤ": 3088,
      "ĠleÅ¼aÅĤ": 3089,
      "Ġodleg": 3090,
      "Ġgrz": 3091,
      "Ġdziwnie": 3092,
      "ĠGdyby": 3093,
      "Prze": 3094,
      "ĠjaÅĤow": 3095,
      "ĠdokÅĤad": 3096,
      "Ġmiast": 3097,
      "ĠwÄĻ": 3098,
      "Ġmogli": 3099,
      "oty": 3100,
      "aÅĤe": 3101,
      "ĠukazaÅĤ": 3102,
      "ĠgÅĤÄĻboko": 3103,
      "ĠNiech": 3104,
      "ezu": 3105,
      "Ġprzygotow": 3106,
      "niejszy": 3107,
      "woÅĽÄĩ": 3108,
      "glÄħ": 3109,
      "dziestu": 3110,
      "Ġdyrektora": 3111,
      "mienia": 3112,
      "Ġrozkaz": 3113,
      "mysÅĤ": 3114,
      "Ġzbi": 3115,
      "ĠparÄĻ": 3116,
      "ĠksiÄħdz": 3117,
      "ĠkoÅĽcioÅĤa": 3118,
      "Ġzapom": 3119,
      "skiem": 3120,
      "Ġnabo": 3121,
      "dzÄħ": 3122,
      "ĠksiÄħÅ¼ek": 3123,
      "Ġfilo": 3124,
      "Ġzde": 3125,
      "Ġwsz": 3126,
      "Ġtornist": 3127,
      "Ġweso": 3128,
      "ĠszkÃ³ÅĤ": 3129,
      "ĠpomocÄħ": 3130,
      "niÄĩ": 3131,
      "Ġdym": 3132,
      "ĠmnÃ³stwo": 3133,
      "Ġwielkimi": 3134,
      "szk": 3135,
      "ĠÅĽwiecie": 3136,
      "Ġpomoc": 3137,
      "Ġgospodarzy": 3138,
      "ĠnamiÄĻ": 3139,
      ".,": 3140,
      "moÅĽÄĩ": 3141,
      "cenia": 3142,
      "rzaÅĤo": 3143,
      "Ġpytanie": 3144,
      "dniej": 3145,
      "Ġosie": 3146,
      "Ġosiem": 3147,
      "ĠmogÅĤa": 3148,
      "Ġfur": 3149,
      "Ġina": 3150,
      "Ġam": 3151,
      "ĠrzÄħd": 3152,
      "Ġprzedmie": 3153,
      "Ġrub": 3154,
      "ner": 3155,
      "Ġdar": 3156,
      "Za": 3157,
      "Ġnauczycieli": 3158,
      "ĠIn": 3159,
      "ĠjeÅĽli": 3160,
      "Ġpospo": 3161,
      "zer": 3162,
      "ĠZda": 3163,
      "Ġprzyj": 3164,
      "ĠnieszczÄĻ": 3165,
      "ĠÅ¼adnego": 3166,
      "wole": 3167,
      "Ġprefek": 3168,
      "chodziÅĤ": 3169,
      "ĠPrzepiÃ³rzyca": 3170,
      "Ġpowst": 3171,
      "Ġniedzie": 3172,
      "ĠkoÅĤo": 3173,
      "atu": 3174,
      "Ġjesie": 3175,
      "uszki": 3176,
      "Ġan": 3177,
      "ĠWarsza": 3178,
      "Ġzau": 3179,
      "Ġinni": 3180,
      "Ġostatnie": 3181,
      "Ġpodczas": 3182,
      "nny": 3183,
      "arni": 3184,
      "alne": 3185,
      "jÃ³w": 3186,
      "Ġobo": 3187,
      "umowicz": 3188,
      "Borowicz": 3189,
      "ĠToteÅ¼": 3190,
      "aleÅĦ": 3191,
      "Ġwychowa": 3192,
      "Ġuni": 3193,
      "Ġostatnich": 3194,
      "pisy": 3195,
      "Ġutw": 3196,
      "Ġutwory": 3197,
      "Ġutrzym": 3198,
      "ĠspÄĻ": 3199,
      "cieÅ¼": 3200,
      "ĠZabie": 3201,
      "ĠLek": 3202,
      "ĠWalecki": 3203,
      "ger": 3204,
      "ĠĠĠĠ": 3205,
      "Ġwisi": 3206,
      "Ġszczy": 3207,
      "Å¼aÅĤy": 3208,
      "Ġciszy": 3209,
      "ĠSze": 3210,
      "tnÄħ": 3211,
      "tnej": 3212,
      "Ġroboty": 3213,
      "com": 3214,
      "ajÄħcym": 3215,
      "Ġszlachcic": 3216,
      "Ġrozwa": 3217,
      "stych": 3218,
      "ÅĤki": 3219,
      "ĠpoczÄĻ": 3220,
      "Ġdrodze": 3221,
      "ĠÅĤeb": 3222,
      "Ġboles": 3223,
      "ĠOw": 3224,
      "ĠuczyÄĩ": 3225,
      "ĠAl": 3226,
      "ĠWiel": 3227,
      "?âĢĿ": 3228,
      "Ġbab": 3229,
      "Ġniesko": 3230,
      "Ġwoli": 3231,
      "ntow": 3232,
      "Ġpowy": 3233,
      "rafi": 3234,
      "Ġszereg": 3235,
      "Ġkatego": 3236,
      "sznie": 3237,
      "Nauczyciel": 3238,
      "ĠleÅ¼Äħc": 3239,
      "ĠczoÅĤo": 3240,
      "ĠPew": 3241,
      "Ġswobo": 3242,
      "ĠBoga": 3243,
      "chÄħ": 3244,
      "Ġpodp": 3245,
      "Ġzako": 3246,
      "gat": 3247,
      "Ġobyw": 3248,
      "Ġznu": 3249,
      "Ġkandyd": 3250,
      "Ġniewym": 3251,
      "Ġniewymow": 3252,
      "Ġszli": 3253,
      "ĠÅĤÃ³Å¼ko": 3254,
      "Ġstoli": 3255,
      "lonej": 3256,
      "Ġczupry": 3257,
      "ĠbraÅĤ": 3258,
      "ĠwÅĤosy": 3259,
      "ĠsÅĤowo": 3260,
      "rzaÅĤa": 3261,
      "Ġucha": 3262,
      "ĠswÄħ": 3263,
      "piÄħc": 3264,
      "ata": 3265,
      "Ġum": 3266,
      "laÄĩ": 3267,
      "ĠmogÄĻ": 3268,
      "Ġspuszcz": 3269,
      "Ġab": 3270,
      "Ġniena": 3271,
      "Ġnareszcie": 3272,
      "bne": 3273,
      "Ġjad": 3274,
      "Ġosob": 3275,
      "Ġprzyjem": 3276,
      "Ġpoka": 3277,
      "wad": 3278,
      "ĠNauczyciel": 3279,
      "ĠChÅĤop": 3280,
      "ĠciemnoÅĽci": 3281,
      "ĠsiÅĤ": 3282,
      "cili": 3283,
      "Ġwczes": 3284,
      "Ġkrop": 3285,
      "wiet": 3286,
      "ajutrz": 3287,
      "ĠczekaÅĤ": 3288,
      "Ġoknem": 3289,
      "ĠtuÅ¼": 3290,
      "nastu": 3291,
      "ĠzrobiÅĤ": 3292,
      "Ġpubli": 3293,
      "Ġdrugo": 3294,
      "uch": 3295,
      "Ġobser": 3296,
      "jÄħca": 3297,
      "Ġznak": 3298,
      "Wie": 3299,
      "Ġkilkakro": 3300,
      "Ġnajmniej": 3301,
      "ĠPiÄħt": 3302,
      "Ġnosa": 3303,
      "ĠsiadÅĤ": 3304,
      "ĠnÄĻdz": 3305,
      "ĠBar": 3306,
      "tarz": 3307,
      "ĠposzedÅĤ": 3308,
      "ĠwyÅĤo": 3309,
      "Ġpowietrzu": 3310,
      "Ġmimo": 3311,
      "ĠprzecieÅ¼": 3312,
      "ĠprzerwaÅĤ": 3313,
      "ĠÅĽli": 3314,
      "Ġnasz": 3315,
      "Ġuroczy": 3316,
      "Ġprzek": 3317,
      "ery": 3318,
      "Ġinnego": 3319,
      "ĠjakÄħÅĽ": 3320,
      "ĠbÅĤÄĻ": 3321,
      "kaÅĤa": 3322,
      "sad": 3323,
      "ĠBÃ³g": 3324,
      "entu": 3325,
      "Ġczasem": 3326,
      "roni": 3327,
      "ĠodlegÅĤoÅĽci": 3328,
      "Ġnud": 3329,
      "Ġwizy": 3330,
      "tnym": 3331,
      "Ġwargi": 3332,
      "Ġdrg": 3333,
      "Ġdlaczego": 3334,
      "ĠchÃ³": 3335,
      "tur": 3336,
      "towaÅĤa": 3337,
      "Å¼ajÄħc": 3338,
      "ĠgodzinÄĻ": 3339,
      "Ġdziewi": 3340,
      "czÄħ": 3341,
      "dar": 3342,
      "Ġguber": 3343,
      "ĠszeptaÅĤ": 3344,
      "del": 3345,
      "sji": 3346,
      "Ġszele": 3347,
      "Do": 3348,
      "Ġkolej": 3349,
      "Ġdziu": 3350,
      "ĠJaczmieniew": 3351,
      "Ġwysoki": 3352,
      "ĠwielmoÅ¼ny": 3353,
      "ĠNikt": 3354,
      "ĠdÅĤo": 3355,
      "ĠpamiÄĻci": 3356,
      "Ġcha": 3357,
      "ĠProszÄĻ": 3358,
      "Ġchodzi": 3359,
      "ĠchÅĤopcÃ³w": 3360,
      "Ġegzamin": 3361,
      "Ġciebie": 3362,
      "ecz": 3363,
      "tara": 3364,
      "owanie": 3365,
      "Ġlep": 3366,
      "cis": 3367,
      "ĠÅĤaski": 3368,
      "ĠgadaÄĩ": 3369,
      "naÄĩ": 3370,
      "ĠWkrÃ³tce": 3371,
      "szek": 3372,
      "Ġwymy": 3373,
      "Ġpag": 3374,
      "Ġrozkosz": 3375,
      "Ġdaleki": 3376,
      "rujÄħc": 3377,
      "ÅĦskiego": 3378,
      "Te": 3379,
      "stra": 3380,
      "Ġrozwi": 3381,
      "rzyÄĩ": 3382,
      "Ġgi": 3383,
      "Ġruch": 3384,
      "Ġpad": 3385,
      "Ġchudy": 3386,
      "pana": 3387,
      "ĠPazura": 3388,
      "podob": 3389,
      "*!": 3390,
      "eÅĤko": 3391,
      "wÅĤo": 3392,
      "Ġmroku": 3393,
      "ĠmieÅĽciÅĤy": 3394,
      "kÅĤady": 3395,
      "ĠStary": 3396,
      "ĠkoÅĦca": 3397,
      "zon": 3398,
      "Ġkaj": 3399,
      "Ġnum": 3400,
      "usza": 3401,
      "ĠdoÅĽÄĩ": 3402,
      "ĠmieszkaÅĤ": 3403,
      "Ġwszelkiego": 3404,
      "Ġinaczej": 3405,
      "Ġswojej": 3406,
      "ĠmÄĻÅ¼a": 3407,
      "ĠDlaczego": 3408,
      "Ġzwi": 3409,
      "szaÅĤa": 3410,
      "Ġistne": 3411,
      "ĠstaÅĤo": 3412,
      "Ġplu": 3413,
      "Ġpierwszego": 3414,
      "Ġrzuc": 3415,
      "omi": 3416,
      "spektor": 3417,
      "Ġskanda": 3418,
      "Ġmoral": 3419,
      "czniowie": 3420,
      "ĠcÃ³r": 3421,
      "ĠÅĽmierci": 3422,
      "orÃ³w": 3423,
      "arka": 3424,
      "ĠpragnÄħc": 3425,
      "ĠcaÅĤkiem": 3426,
      "ĠporzÄħdku": 3427,
      "Ġfilozo": 3428,
      "ĠwaÄĩpan": 3429,
      "kazywaÅĤ": 3430,
      "ĠÅ¼oÅĤ": 3431,
      "Ġsce": 3432,
      "Ġbuj": 3433,
      "Ġuczucia": 3434,
      "ĠsÅĤÃ³w": 3435,
      "prze": 3436,
      "rÃ³cz": 3437,
      "Ġpau": 3438,
      "Ġwew": 3439,
      "Ġgal": 3440,
      "Ġogro": 3441,
      "ĠGumowicz": 3442,
      "Ġkoby": 3443,
      "ĠwspÃ³ÅĤczu": 3444,
      "ĠlÅĽni": 3445,
      "Ġgni": 3446,
      "Ġopu": 3447,
      "spi": 3448,
      "ĠWil": 3449,
      "nowaj": 3450,
      "net": 3451,
      "ĠKaÅ¼": 3452,
      "ĠuczÄĻszcz": 3453,
      "tera": 3454,
      "ematy": 3455,
      "siÄħt": 3456,
      "ĠNiektÃ³": 3457,
      "Ġfigu": 3458,
      "Ġucze": 3459,
      "ĠBuckle": 3460,
      "ĠSieger": 3461,
      "ĠStogow": 3462,
      "ermi": 3463,
      "ĠpoÅĤud": 3464,
      "ĠÅĽnieg": 3465,
      "ĠtrzymaÅĤ": 3466,
      "Ġjednost": 3467,
      "ĠprzyglÄħdaÅĤ": 3468,
      "atr": 3469,
      "szenia": 3470,
      "Ġkoni": 3471,
      "ĠkrÃ³tko": 3472,
      "rab": 3473,
      "nio": 3474,
      "nnej": 3475,
      "liÅĤy": 3476,
      "ĠwykrÄĻ": 3477,
      "dziw": 3478,
      "Ġniezmiernie": 3479,
      "Ġobsz": 3480,
      "kaj": 3481,
      "ĠZe": 3482,
      "enta": 3483,
      "czych": 3484,
      "ĠdostrzegÅĤ": 3485,
      "jeÅ¼d": 3486,
      "ĠJÄĻdrka": 3487,
      "Ġpolu": 3488,
      "ĠnieskoÅĦ": 3489,
      "czonym": 3490,
      "ĠmyÅĽleÄĩ": 3491,
      "kowego": 3492,
      "Ġstron": 3493,
      "ĠulicÄĻ": 3494,
      "ÅĦskich": 3495,
      "niaÅĤa": 3496,
      "Ġszkolnego": 3497,
      "Ġniewiel": 3498,
      "rowie": 3499,
      "ĠdrogÄħ": 3500,
      "ĠMam": 3501,
      "szczone": 3502,
      "Ġguzi": 3503,
      "Ġgrube": 3504,
      "Ġprawej": 3505,
      "lan": 3506,
      "ĠwÅĤosÃ³w": 3507,
      "Ġwielka": 3508,
      "ĠWiechowska": 3509,
      "Ġkogo": 3510,
      "Ġspe": 3511,
      "Ġocze": 3512,
      "ĠstaÄĩ": 3513,
      "Ġchlu": 3514,
      "ĠpytaÅĤ": 3515,
      "ĠgoÅĽci": 3516,
      "Ġdobrodziej": 3517,
      "ĠtÄħ": 3518,
      "Å¼eniem": 3519,
      "wyÅ¼": 3520,
      "ĠchwilÄħ": 3521,
      "ĠÅĤzami": 3522,
      "sÅĤuchi": 3523,
      "ĠÅĽrodku": 3524,
      "ĠzÄĻb": 3525,
      "fie": 3526,
      "ĠjakÅ¼e": 3527,
      "naÅĤa": 3528,
      "Ġzostawi": 3529,
      "Ġcien": 3530,
      "ĠdrogÄĻ": 3531,
      "nim": 3532,
      "Ġszeroko": 3533,
      "ĠumysÅĤu": 3534,
      "Ġblisko": 3535,
      "wych": 3536,
      "Ġrogu": 3537,
      "Ġspostrze": 3538,
      "gli": 3539,
      "Ġudzie": 3540,
      "ĠWo": 3541,
      "Ġlos": 3542,
      "Ġprzecho": 3543,
      "raÅĤa": 3544,
      "Ġtaka": 3545,
      "niesie": 3546,
      "dzieÅĽci": 3547,
      "Ġdziec": 3548,
      "pnÄħÅĤ": 3549,
      "Ġobi": 3550,
      "Ġtrudno": 3551,
      "Ġuci": 3552,
      "Ġzawi": 3553,
      "szep": 3554,
      "Å¼yÅĤa": 3555,
      "ĠÅĤÃ³Å¼ka": 3556,
      "ĠpoÅ¼e": 3557,
      "nÄħwszy": 3558,
      "ĠMaÅĤ": 3559,
      "dzieÅĽcia": 3560,
      "ĠmÄħ": 3561,
      "Ġruszy": 3562,
      "ĠpÄĻd": 3563,
      "ĠupadÅĤ": 3564,
      "Ġsch": 3565,
      "ĠNigdy": 3566,
      "Ġwsty": 3567,
      "ĠtÄĻsk": 3568,
      "Ġnauczycielem": 3569,
      "brzym": 3570,
      "brzymie": 3571,
      "Ġwsku": 3572,
      "Ġwskutek": 3573,
      "ĠbÅĤyszczÄħc": 3574,
      "Ġstal": 3575,
      "ĠzdawaÅĤ": 3576,
      "roÅ¼": 3577,
      "cony": 3578,
      "ĠjakiegoÅĽ": 3579,
      "ÅĽciem": 3580,
      "Ġokre": 3581,
      "Ġzdumieniem": 3582,
      "rzyÅĤo": 3583,
      "Ġzwar": 3584,
      "czywszy": 3585,
      "zumiaÅĤ": 3586,
      "Ġtamten": 3587,
      "twy": 3588,
      "ĠspoglÄħdaÅĤ": 3589,
      "stÄĻ": 3590,
      "Ġwymie": 3591,
      "Ġrosyjskim": 3592,
      "Ġkolei": 3593,
      "ĠkrzeÅĽle": 3594,
      "ÅĤym": 3595,
      "Ġele": 3596,
      "Ġtablicy": 3597,
      "Ġnapis": 3598,
      "ĠsprawÄĻ": 3599,
      "Ġstoi": 3600,
      "ĠÅĤawce": 3601,
      "ĠbutÃ³w": 3602,
      "ĠumiejÄĻ": 3603,
      "Ġrosyjski": 3604,
      "ĠogÃ³ÅĤ": 3605,
      "ĠchÃ³r": 3606,
      "Ġprosta": 3607,
      "ĠrobiÄĩ": 3608,
      "niejszÄħ": 3609,
      "ĠuwagÄĻ": 3610,
      "ĠszÅĤy": 3611,
      "Ġnazwy": 3612,
      "ÅĤego": 3613,
      "stÄĻpujÄħc": 3614,
      "alny": 3615,
      "Ġcodziennie": 3616,
      "ĠbÅĤÄĻd": 3617,
      "grafii": 3618,
      "Ġwah": 3619,
      "Ġponie": 3620,
      "ĠwzglÄĻdu": 3621,
      "Ġman": 3622,
      "Ġporze": 3623,
      "Ġprzys": 3624,
      "czyÅĤo": 3625,
      "Ġprzywi": 3626,
      "ĠmogÅĤo": 3627,
      "Od": 3628,
      "Ġpewnej": 3629,
      "Ġnacze": 3630,
      "Ġpor": 3631,
      "bra": 3632,
      "ĠCzu": 3633,
      "ĠznaÄĩ": 3634,
      "Ġreli": 3635,
      "ĠJezu": 3636,
      "Ġtale": 3637,
      "Ġplecy": 3638,
      "Ġrzad": 3639,
      "ĠAleÅ¼": 3640,
      "ĠudaÅĤ": 3641,
      "wrÃ³": 3642,
      "Ġwyr": 3643,
      "stÄħpiÅĤ": 3644,
      "Ġodczy": 3645,
      "Ġwykwi": 3646,
      "stali": 3647,
      "Ġstosu": 3648,
      "Ġkatoli": 3649,
      "Ġtutaj": 3650,
      "Ġniemal": 3651,
      "Ġstaran": 3652,
      "Ġramiona": 3653,
      "ĠpatrzyÅĤ": 3654,
      "Wszy": 3655,
      "ĠchwyciÅĤ": 3656,
      "sÄħ": 3657,
      "ĠdrugÄħ": 3658,
      "ÅĤka": 3659,
      "ĠÅĽpiew": 3660,
      "owiÅĤ": 3661,
      "eta": 3662,
      "ĠprzerÃ³Å¼": 3663,
      "ĠJeszcze": 3664,
      "Kiedy": 3665,
      "ĠoddawaÅĤ": 3666,
      "Ġpochy": 3667,
      "ĠszÅĤa": 3668,
      "niaÅĤy": 3669,
      "Ġstudi": 3670,
      "szÅĤo": 3671,
      "Ġgruncie": 3672,
      "ent": 3673,
      "ĠTylko": 3674,
      "oÅ¼": 3675,
      "Ġpias": 3676,
      "Ġran": 3677,
      "pt": 3678,
      "Ġrosyjskiego": 3679,
      "ĠogÃ³l": 3680,
      "Ġmaj": 3681,
      "dopodob": 3682,
      "Ġegzaminu": 3683,
      "Ġwobec": 3684,
      "ĠszczegÃ³ÅĤ": 3685,
      "lskiego": 3686,
      "Ġfra": 3687,
      "Sz": 3688,
      "Ġznale": 3689,
      "Ġtrak": 3690,
      "Ġniebo": 3691,
      "Ġbramy": 3692,
      "Ġjaka": 3693,
      "ĠDaj": 3694,
      "ĠmruknÄħÅĤ": 3695,
      "ĠMÃ³j": 3696,
      "niejsze": 3697,
      "Ġludzi": 3698,
      "*?": 3699,
      "ĠTego": 3700,
      "Ġnied": 3701,
      "ĠLi": 3702,
      "ĠByÅĤy": 3703,
      "Ġpytania": 3704,
      "owane": 3705,
      "Ġnowy": 3706,
      "pro": 3707,
      "Ġpapiero": 3708,
      "giel": 3709,
      "dziÄĻ": 3710,
      "Ġniezna": 3711,
      "Ġdwoma": 3712,
      "lonych": 3713,
      "kon": 3714,
      "Ġzakre": 3715,
      "Ġakura": 3716,
      "ĠczÄĻstokroÄĩ": 3717,
      "ĠÅĤawy": 3718,
      "ĠIÅĤ": 3719,
      "ĠIÅĤari": 3720,
      "ĠwÅĤasnej": 3721,
      "Ġprawdzi": 3722,
      "pieÅĦ": 3723,
      "Ġnauk": 3724,
      "ĠjÄĻzyku": 3725,
      "Ġszm": 3726,
      "Ġwybor": 3727,
      "Ġstarej": 3728,
      "Ġlesie": 3729,
      "ĠwedÅĤu": 3730,
      "ĠwedÅĤug": 3731,
      "ĠprzyszedÅĤ": 3732,
      "Ġzwyczaj": 3733,
      "piaÅĤ": 3734,
      "jad": 3735,
      "ĠGrzebicki": 3736,
      "Ġcukier": 3737,
      "Ġpolskiego": 3738,
      "Ġpolskiej": 3739,
      "rowaÅĤ": 3740,
      "Ġdalece": 3741,
      "ĠrozdziaÅĤ": 3742,
      "ĠobjaÅĽ": 3743,
      "Ġwyu": 3744,
      "Ġszczerze": 3745,
      "ĠMyÅĽli": 3746,
      "Ġutwor": 3747,
      "ĠDaleszow": 3748,
      "Ġzbyt": 3749,
      "ĠpostaÄĩ": 3750,
      "Ġzew": 3751,
      "nikow": 3752,
      "ĠduszÄĻ": 3753,
      "ĠpobliÅ¼": 3754,
      "ĠpobliÅ¼u": 3755,
      "rzyst": 3756,
      "ĠzakrÄĻ": 3757,
      "Ġpanicz": 3758,
      "ĠpÃ³jdÄĻ": 3759,
      "Ġchleba": 3760,
      "Ġjedynie": 3761,
      "ĠnaboÅ¼eÅĦ": 3762,
      "Ġpewnych": 3763,
      "ÅĽciu": 3764,
      "Ġprawi": 3765,
      "Ġwinowaj": 3766,
      "ĠskÄħd": 3767,
      "stowaÅĤ": 3768,
      "ĠNogacki": 3769,
      "ĠwiÄĻzie": 3770,
      "ĠdÅĤugim": 3771,
      "ĠZna": 3772,
      "Ġzamy": 3773,
      "okÃ³ÅĤ": 3774,
      "dnych": 3775,
      "Ġsprze": 3776,
      "Ġmor": 3777,
      "ĠchodziÄĩ": 3778,
      "riesto": 3779,
      "riestoob": 3780,
      "riestoobri": 3781,
      "riestoobriad": 3782,
      "ĠKostriulew": 3783,
      "ĠÃ³smoklasi": 3784,
      "Ġgry": 3785,
      "rzÃ³d": 3786,
      "ĠKaw": 3787,
      "Ġimieniu": 3788,
      "Ġliterac": 3789,
      "ĠGontali": 3790,
      "stawie": 3791,
      "Ġsty": 3792,
      "ĠpaÅĦstwo": 3793,
      "dzenie": 3794,
      "rusz": 3795,
      "Ġnieustannie": 3796,
      "Ġzimny": 3797,
      "ĠprzeciÄħg": 3798,
      "ÅĤek": 3799,
      "ChÅĤo": 3800,
      "ĠsiedzÄħc": 3801,
      "Ġcuk": 3802,
      "Ġokolicach": 3803,
      "Ġdawna": 3804,
      "Ġsuk": 3805,
      "Ġzwierzch": 3806,
      "Ġminut": 3807,
      "ĠuwaÅ¼nie": 3808,
      "Ġzaczer": 3809,
      "skaÅĤ": 3810,
      "Ġowe": 3811,
      "liÅĤa": 3812,
      "Ġskie": 3813,
      "Ġskierow": 3814,
      "ĠniegdyÅĽ": 3815,
      "Ġnogach": 3816,
      "ĠtwarzÄħ": 3817,
      "ĠOczy": 3818,
      "niÄĻta": 3819,
      "Ġud": 3820,
      "Ġwio": 3821,
      "niaÄĩ": 3822,
      "Ġprzedziw": 3823,
      "Ġodkry": 3824,
      "Ġtr": 3825,
      "ĠBÄĻdzie": 3826,
      "pach": 3827,
      "ĠcaÅĤego": 3828,
      "ĠmaÅĤych": 3829,
      "ĠliniÄĻ": 3830,
      "anku": 3831,
      "ĠTrzeba": 3832,
      "ĠÅĽmiechu": 3833,
      "ĠwÃ³z": 3834,
      "ĠTymczasem": 3835,
      "ĠChÅĤopiec": 3836,
      "ĠwzglÄĻdem": 3837,
      "ĠWe": 3838,
      "ĠObo": 3839,
      "ĠObok": 3840,
      "ĠznajdowaÅĤa": 3841,
      "dyn": 3842,
      "szÃ³w": 3843,
      "Ġmatce": 3844,
      "ĠczasÃ³w": 3845,
      "Ġwiele": 3846,
      "Ġkobie": 3847,
      "tka": 3848,
      "Ġuspo": 3849,
      "Ġmomen": 3850,
      "Ġdziwnego": 3851,
      "leni": 3852,
      "Ġspecj": 3853,
      "rajÄħc": 3854,
      "Ġnozd": 3855,
      "Ġstaro": 3856,
      "Ten": 3857,
      "ĠwymÃ³wi": 3858,
      "Ġofi": 3859,
      "Ġfamilii": 3860,
      "Ġmoje": 3861,
      "nowu": 3862,
      "czeÅĽnie": 3863,
      "siÄħg": 3864,
      "fy": 3865,
      "ĠniesÅĤychanie": 3866,
      "owaÅĤo": 3867,
      "sion": 3868,
      "ĠnaÅĽla": 3869,
      "ĠdziesiÄĻ": 3870,
      "Ġogo": 3871,
      "kre": 3872,
      "Ġchocia": 3873,
      "ĠchociaÅ¼": 3874,
      "Ġuleg": 3875,
      "ĠchÅĤopcu": 3876,
      "Ġkor": 3877,
      "Ġzapas": 3878,
      "Ġcer": 3879,
      "ĠpewnoÅĽciÄħ": 3880,
      "Ġpoko": 3881,
      "Ġzamian": 3882,
      "Ġsamej": 3883,
      "ĠwieÅĽ": 3884,
      "Ġdlatego": 3885,
      "Ġdziecko": 3886,
      "Ġdroga": 3887,
      "ĠzaczÄĻÅĤa": 3888,
      "koÅĤo": 3889,
      "ÅĦstwa": 3890,
      "ĠdwadzieÅĽcia": 3891,
      "ĠpoÅĽpie": 3892,
      "ĠwrzasnÄħÅĤ": 3893,
      "Ġnigdzie": 3894,
      "ĠtÄĻskno": 3895,
      "Ġnast": 3896,
      "ĠsÅĤuÅ¼Äħc": 3897,
      "aresz": 3898,
      "areszcie": 3899,
      "Ġwieczorem": 3900,
      "aÅĤoÅĽÄĩ": 3901,
      "Ġszerokie": 3902,
      "Ġchra": 3903,
      "ĠczÄĻÅĽÄĩ": 3904,
      "ĠujrzaÅĤ": 3905,
      "Ġwielki": 3906,
      "Ġnos": 3907,
      "Ġmiar": 3908,
      "ĠÅĽwiet": 3909,
      "ciÅĤo": 3910,
      "Ġpom": 3911,
      "szny": 3912,
      "cieka": 3913,
      "Ġwidowi": 3914,
      "Ġub": 3915,
      "Ġmle": 3916,
      "ĠgÅĤowa": 3917,
      "Ġkilkunastu": 3918,
      "jesz": 3919,
      "ul": 3920,
      "ĠÅĤawek": 3921,
      "Ġkrokiem": 3922,
      "Ġau": 3923,
      "ĠstÄĻ": 3924,
      "Ġdi": 3925,
      "dÅĤo": 3926,
      "ĠpogrÄħ": 3927,
      "dzona": 3928,
      "Ġkwa": 3929,
      "di": 3930,
      "Ġdziennik": 3931,
      "ĠÅĽmiertel": 3932,
      "ĠkilkakroÄĩ": 3933,
      "ĠnogÄĻ": 3934,
      "Ġwil": 3935,
      "rawiaÅĤ": 3936,
      "Ġakcen": 3937,
      "ĠSÅĤ": 3938,
      "Ġcyf": 3939,
      "Ġcicha": 3940,
      "ĠszeÅĽÄĩ": 3941,
      "Ġwykony": 3942,
      "Ġobli": 3943,
      "ĠzwracaÅĤ": 3944,
      "ĠkÅĤo": 3945,
      "ĠmiÅĤoÅĽci": 3946,
      "ĠwraÅ¼enie": 3947,
      "suwaÅĤ": 3948,
      "Ġawan": 3949,
      "Ġrozpat": 3950,
      "ĠbÅĤota": 3951,
      "Ġogar": 3952,
      "ĠsÄħsiedni": 3953,
      "fesor": 3954,
      "Ġmelo": 3955,
      "niejszych": 3956,
      "ĠÅĽwiÄĻty": 3957,
      "ĠzwyciÄĻ": 3958,
      "ĠpociÄħg": 3959,
      "miaÅĤy": 3960,
      "ĠpowrÃ³": 3961,
      "ĠpiÄĻÅĽciÄħ": 3962,
      "Ġniewi": 3963,
      "Ġzada": 3964,
      "ologi": 3965,
      "czynaÅĤ": 3966,
      "ĠtreÅĽÄĩ": 3967,
      "ÅĦski": 3968,
      "Ġchyba": 3969,
      "Ġzan": 3970,
      "ĠsiÅĤy": 3971,
      "ĠPierw": 3972,
      "Ġprzypad": 3973,
      "ĠpowtarzaÅĤ": 3974,
      "aniami": 3975,
      "Ġtwier": 3976,
      "Ġzagad": 3977,
      "ÅĤam": 3978,
      "ĠumyÅĽl": 3979,
      "sch": 3980,
      "tywaÅĤ": 3981,
      "ĠmiaÅĤo": 3982,
      "Ġsprawiedli": 3983,
      "ĠponiekÄħd": 3984,
      "Ġspace": 3985,
      "Ġmiejscach": 3986,
      "jedno": 3987,
      "Ġentu": 3988,
      "Ġentuzj": 3989,
      "mem": 3990,
      "Ġogromne": 3991,
      "Ġstarych": 3992,
      "Ġkaje": 3993,
      "ĠumiejÄĻtnoÅĽci": 3994,
      "ĠSiedziaÅĤ": 3995,
      "tof": 3996,
      "Ġszyby": 3997,
      "Ġgrzbie": 3998,
      "woi": 3999,
      "ĠJÃ³z": 4000,
      "stym": 4001,
      "ĠdokÅĤadnie": 4002,
      "Ġpierwszych": 4003,
      "ĠsÄħsiedniego": 4004,
      "Ġmilczenie": 4005,
      "dzonych": 4006,
      "Pro": 4007,
      "Ġrodziny": 4008,
      "ĠWp": 4009,
      "Ġdzienni": 4010,
      "Ġrady": 4011,
      "owano": 4012,
      "sik": 4013,
      "ĠpudeÅĤ": 4014,
      "Ġpilnie": 4015,
      "ĠspeÅĤ": 4016,
      "ÅĦcem": 4017,
      "Ġbutel": 4018,
      "Ġsumie": 4019,
      "ĠkrzesÅĤa": 4020,
      "Ġubr": 4021,
      "lnym": 4022,
      "ĠBardzo": 4023,
      "Ġreligi": 4024,
      "wane": 4025,
      "Ġgodzin": 4026,
      "Ġkryj": 4027,
      "Ġkolejno": 4028,
      "Ġgran": 4029,
      "biony": 4030,
      "Ġota": 4031,
      "liwy": 4032,
      "Ġnajlepiej": 4033,
      "tam": 4034,
      "Ġplecami": 4035,
      "Ġznaki": 4036,
      "ĠrÄĻkami": 4037,
      "Ġwywo": 4038,
      "Ġczwartej": 4039,
      "par": 4040,
      "Ġpewny": 4041,
      "Ġwykwint": 4042,
      "adu": 4043,
      "wego": 4044,
      "Ġwich": 4045,
      "ĠtrafiÅĤ": 4046,
      "try": 4047,
      "owicie": 4048,
      "zywaÅĤ": 4049,
      "nacka": 4050,
      "ĠiloÅĽÄĩ": 4051,
      "Ġozna": 4052,
      "Ġwyrazy": 4053,
      "zul": 4054,
      "Ġteatrze": 4055,
      "sjÄĻ": 4056,
      "Ġcokolwiek": 4057,
      "Ġtytu": 4058,
      "dowe": 4059,
      "Wszyst": 4060,
      "ĠgdzieÅ¼": 4061,
      "Ġpoto": 4062,
      "Ġstole": 4063,
      "dzeniu": 4064,
      "ĠmÄĻÅ¼": 4065,
      "Ġskar": 4066,
      "Ġwt": 4067,
      "Äĩmi": 4068,
      "Ġdowo": 4069,
      "ĠprzerÃ³Å¼ne": 4070,
      "Ġho": 4071,
      "Ġuchy": 4072,
      "ĠWszystkie": 4073,
      "ĠwÅĤasnym": 4074,
      "ĠdÅĤugÄħ": 4075,
      "ĠpagÃ³r": 4076,
      "ÅĦce": 4077,
      "Ġnoga": 4078,
      "car": 4079,
      "Ġzdecy": 4080,
      "ĠPrag": 4081,
      "akÅ¼e": 4082,
      "Ġogromnymi": 4083,
      "Ġciemno": 4084,
      "ĠnaleÅ¼aÅĤo": 4085,
      "Ġobyczaj": 4086,
      "ĠmarzeÅĦ": 4087,
      "jek": 4088,
      "ĠstanÄĻ": 4089,
      "Ġlewej": 4090,
      "ĠbiaÅĤe": 4091,
      "gÅĤy": 4092,
      "Ġprzestrzeni": 4093,
      "ĠcieÅĦ": 4094,
      "Ġkolor": 4095,
      "Ġfar": 4096,
      "Ġzapach": 4097,
      "ĠPazur": 4098,
      "Ġinsty": 4099,
      "Ġkary": 4100,
      "Ġgimnazjalnego": 4101,
      "ĠÅĽwiad": 4102,
      "Ġwyzna": 4103,
      "Ġper": 4104,
      "Å»": 4105,
      "Ġprawdopodob": 4106,
      "ĠRo": 4107,
      "rostu": 4108,
      "Å¼onÄħ": 4109,
      "ef": 4110,
      "Ġodpowiad": 4111,
      "Ġgrec": 4112,
      "ĠniezwÅĤo": 4113,
      "gnie": 4114,
      "ĠdÅºwig": 4115,
      "ĠpowtÃ³": 4116,
      "ĠdokÄħd": 4117,
      "ĠproÅĽ": 4118,
      "Ġoczeki": 4119,
      "Ġhory": 4120,
      "Ġhoryzon": 4121,
      "otelu": 4122,
      "Ġnume": 4123,
      "Ġobydwu": 4124,
      "ĠTam": 4125,
      "ĠwstrÄĻ": 4126,
      "Ġstraszli": 4127,
      "mÄħ": 4128,
      "ĠstrÃ³Å¼": 4129,
      "ĠÅ¼ywo": 4130,
      "Ġklucz": 4131,
      "Ġbrat": 4132,
      "ĠDzi": 4133,
      "ĠmÃ³wiÄħ": 4134,
      "Ġzdaje": 4135,
      "Ġdowie": 4136,
      "Ġodzie": 4137,
      "Ġmarzenia": 4138,
      "bki": 4139,
      "ĠPrzed": 4140,
      "Ġruchem": 4141,
      "Ġfran": 4142,
      "Ġacz": 4143,
      "Ġaczkolwiek": 4144,
      "ĠRosjani": 4145,
      "Ġowszem": 4146,
      "cent": 4147,
      "ĠBi": 4148,
      "Ġzasa": 4149,
      "ĠzÅĤe": 4150,
      "Ġode": 4151,
      "szczyÅĤ": 4152,
      "Ġpozy": 4153,
      "ĠIÅĤarion": 4154,
      "Ġzwany": 4155,
      "ÅĤod": 4156,
      "Ġskandal": 4157,
      "Ġkraju": 4158,
      "Ġprefekt": 4159,
      "ĠWargu": 4160,
      "Ġzgar": 4161,
      "ĠwyciÄħgnÄħÅĤ": 4162,
      "Ġnajstar": 4163,
      "ĠdostaÅĤ": 4164,
      "Ġmiasto": 4165,
      "Ġcuch": 4166,
      "ĠcuchnÄħc": 4167,
      "Ġstaruszka": 4168,
      "ĠtworzÄħc": 4169,
      "ĠsÄħsiad": 4170,
      "Ġwyg": 4171,
      "stara": 4172,
      "Ġmizer": 4173,
      "aczy": 4174,
      "Ġokien": 4175,
      "dzaÅĤa": 4176,
      "ĠjakoÅĽ": 4177,
      "ÅĤej": 4178,
      "Ġnowego": 4179,
      "ÄĻdr": 4180,
      "chÃ³w": 4181,
      "Åºni": 4182,
      "ĠÅ¼adnych": 4183,
      "Ġgruntu": 4184,
      "ĠMoch": 4185,
      "ĠMochna": 4186,
      "ĠÅ¼oÅĤnie": 4187,
      "ĠklÄĻ": 4188,
      "Ġludz": 4189,
      "dzeÅĦ": 4190,
      "ĠzÅĤa": 4191,
      "murow": 4192,
      "Ġstawi": 4193,
      "ĠdziÄĻ": 4194,
      "lam": 4195,
      "Ġepo": 4196,
      "ĠznaÅĤ": 4197,
      "Ġgimnazjalnych": 4198,
      "ĠwodÄħ": 4199,
      "Ġdole": 4200,
      "Ġgmach": 4201,
      "nd": 4202,
      "ĠnikÅĤ": 4203,
      "ĠoddziaÅĤ": 4204,
      "wÃ³j": 4205,
      "ĠkÅĤa": 4206,
      "Ġdal": 4207,
      "kar": 4208,
      "Ġpach": 4209,
      "Ġrozkazu": 4210,
      "ĠÅĽmi": 4211,
      "Ġszosy": 4212,
      "czuÅĤ": 4213,
      "Ġzdra": 4214,
      "Ġcudow": 4215,
      "Ġodrabi": 4216,
      "ĠÅĽru": 4217,
      "taÅĤy": 4218,
      "Ġsekrecie": 4219,
      "ĠzarÃ³wno": 4220,
      "Ġwaka": 4221,
      "Ġschody": 4222,
      "ĠwidzieÄĩ": 4223,
      "ĠkrzyknÄħÅĤ": 4224,
      "ĠgadaÅĤ": 4225,
      "Ġniejako": 4226,
      "set": 4227,
      "rii": 4228,
      "Ġkozy": 4229,
      "ĠciszÄĻ": 4230,
      "bla": 4231,
      "lom": 4232,
      "ĠpiÄħ": 4233,
      "Ġmatematy": 4234,
      "ĠumysÅĤy": 4235,
      "Ġpisto": 4236,
      "ĠdeskÄĻ": 4237,
      "zio": 4238,
      "ĠÅĤÄħki": 4239,
      "ÅĦstwo": 4240,
      "ĠrÄĻko": 4241,
      "ĠKostur": 4242,
      "Ġpr": 4243,
      "ĠÅºrÃ³dÅĤa": 4244,
      "ĠgÅĤusz": 4245,
      "ÅĤÄħk": 4246,
      "ĠKriestoobriad": 4247,
      "ĠMieszo": 4248,
      "ĠMieszoczki": 4249,
      "Ġupad": 4250,
      "Ġteatr": 4251,
      "ĠnaprzÃ³d": 4252,
      "ĠszÃ³stej": 4253,
      "zjum": 4254,
      "ĠPajÄĻ": 4255,
      "ntu": 4256,
      "ĠPaluszkiewicz": 4257,
      "Ġwyku": 4258,
      "Ġzebrania": 4259,
      "ĠwolnoprÃ³Å¼nia": 4260,
      "XV": 4261,
      "Bal": 4262,
      "Balf": 4263,
      "Balfego": 4264,
      "Figa": 4265,
      "ĠAnna": 4266,
      "Biruty": 4267,
      "Å¼ono": 4268,
      "legÅĤych": 4269,
      "Ġdoli": 4270,
      "Ġzma": 4271,
      "ĠSzedÅĤ": 4272,
      "pki": 4273,
      "niegdzie": 4274,
      "szÅĤy": 4275,
      "fika": 4276,
      "rego": 4277,
      "Ġjednostaj": 4278,
      "Ġbok": 4279,
      "Ġprzerwy": 4280,
      "Ġnamy": 4281,
      "liwe": 4282,
      "ĠnaÅĦ": 4283,
      "ajÄħcego": 4284,
      "Ġdobry": 4285,
      "ĠduÅ¼o": 4286,
      "ĠznikÅĤ": 4287,
      "caÄĩ": 4288,
      "adaÅĤy": 4289,
      "ĠsÄĻ": 4290,
      "Ġpos": 4291,
      "ĠPat": 4292,
      "ĠWidzisz": 4293,
      "ĠprzeÅĽli": 4294,
      "Ġtz": 4295,
      "Ġtzw": 4296,
      "ĠzdawaÅĤo": 4297,
      "ĠprzestrzeÅĦ": 4298,
      "Ġdnie": 4299,
      "Ġwysokich": 4300,
      "rÃ³g": 4301,
      "Ġpomimo": 4302,
      "ĠÅĽciany": 4303,
      "usiu": 4304,
      "ĠÅĤez": 4305,
      "ĠszkoÅĤÄĻ": 4306,
      "Ġwyob": 4307,
      "Ġwyobra": 4308,
      "Ġwyst": 4309,
      "Ġniespodzie": 4310,
      "Ġchaty": 4311,
      "ĠtrochÄĻ": 4312,
      "Ġdomo": 4313,
      "czar": 4314,
      "Ġplacu": 4315,
      "Å¼yli": 4316,
      "Ġkategory": 4317,
      "taÅĦ": 4318,
      "Ġnauczycielowi": 4319,
      "ĠbÄħd": 4320,
      "ĠbÄħdÅº": 4321,
      "Ġpalto": 4322,
      "Ġpocho": 4323,
      "Ġbuty": 4324,
      "Å¼ki": 4325,
      "ĠrÄĻki": 4326,
      "Ġusposo": 4327,
      "niejsza": 4328,
      "ĠJakÅ¼e": 4329,
      "Ġprzest": 4330,
      "wam": 4331,
      "Ġtonem": 4332,
      "Ġspodzie": 4333,
      "nien": 4334,
      "Ġros": 4335,
      "Ġnozdrza": 4336,
      "Ġzgrzy": 4337,
      "Ġwyrazem": 4338,
      "ĠmieÄĩ": 4339,
      "ĠsÄħd": 4340,
      "ĠPoniewaÅ¼": 4341,
      "ĠwyraÅºnie": 4342,
      "ĠmiÅĤo": 4343,
      "ĠopuÅĽci": 4344,
      "ĠmowÄĻ": 4345,
      "Ġdzwoni": 4346,
      "Ġkolo": 4347,
      "Ġtrzeci": 4348,
      "cio": 4349,
      "pal": 4350,
      "ĠzÅĤu": 4351,
      "stru": 4352,
      "Ġjakiego": 4353,
      "Ġmalca": 4354,
      "Ġokru": 4355,
      "ÅĽlach": 4356,
      "pieniem": 4357,
      "ĠJÃ³zia": 4358,
      "knÄĻÅĤa": 4359,
      "ĠniechÄĻ": 4360,
      "Ġisk": 4361,
      "Ġodzi": 4362,
      "ĠczarnÄħ": 4363,
      "gany": 4364,
      "Ġher": 4365,
      "onego": 4366,
      "ĠpÃ³ÅĤgÅĤo": 4367,
      "Ġzem": 4368,
      "ĠchoÄĩby": 4369,
      "Ġsprawi": 4370,
      "Ġpojm": 4371,
      "Ġmowy": 4372,
      "Ġowa": 4373,
      "ĠboleÅĽÄĩ": 4374,
      "Ġnogami": 4375,
      "czce": 4376,
      "ĠiloÅĽci": 4377,
      "Ġabso": 4378,
      "Ġabsolu": 4379,
      "Ġniecier": 4380,
      "szczyznÄĻ": 4381,
      "ĠTaki": 4382,
      "ĠtrzydzieÅĽci": 4383,
      "Ġwygo": 4384,
      "ĠodrzekÅĤ": 4385,
      "Ġodd": 4386,
      "Ġkorepetytora": 4387,
      "ĠRze": 4388,
      "kowaÅĤ": 4389,
      "czeÄĩ": 4390,
      "aku": 4391,
      "Ġkochany": 4392,
      "Ġwyszep": 4393,
      "wadran": 4394,
      "Ġbieliz": 4395,
      "Ġmalec": 4396,
      "Ġsypi": 4397,
      "Ġwsu": 4398,
      "Ġodez": 4399,
      "ĠwyÅ¼ej": 4400,
      "ĠtyÅĤ": 4401,
      "niÄĻtymi": 4402,
      "nkÃ³w": 4403,
      "rÄĻcz": 4404,
      "ĠzostaÅĤy": 4405,
      "Ġstosow": 4406,
      "Ġporan": 4407,
      "myÅĽlaÅĤ": 4408,
      "Ġfizj": 4409,
      "ĠoÅĽwiet": 4410,
      "Ġolbrzymie": 4411,
      "krÄħg": 4412,
      "ĠÅĽwietle": 4413,
      "Ġgrani": 4414,
      "Ġracji": 4415,
      "Ġmieszkaniu": 4416,
      "czoraj": 4417,
      "ĠprowadziÅĤy": 4418,
      "jÄħcego": 4419,
      "enki": 4420,
      "Ġoch": 4421,
      "ĠÅĽni": 4422,
      "ĠchÅĤopcy": 4423,
      "ĠmoÅ¼noÅĽci": 4424,
      "cenie": 4425,
      "ĠimiÄĻ": 4426,
      "ĠrosyjskÄħ": 4427,
      "ho": 4428,
      "skij": 4429,
      "kan": 4430,
      "ĠrozmowÄĻ": 4431,
      "Ġumiem": 4432,
      "mia": 4433,
      "Ġkiep": 4434,
      "ĠkwaÅĽ": 4435,
      "Ġkatedrze": 4436,
      "ĠrÃ³wne": 4437,
      "ĠukoÅĦ": 4438,
      "ÅĽny": 4439,
      "Wiechow": 4440,
      "Wiechowski": 4441,
      "Ġcisza": 4442,
      "widu": 4443,
      "Ġukazy": 4444,
      "Ġdobi": 4445,
      "Ġnazwiska": 4446,
      "ĠwoÅĤa": 4447,
      "pl": 4448,
      "Ġelemen": 4449,
      "ĠzÅĤoÅ¼yÅĤ": 4450,
      "Å¼nÄħ": 4451,
      "cel": 4452,
      "ĠtÅĤumaczyÅĤ": 4453,
      "ĠPiÄħtka": 4454,
      "Ġczytania": 4455,
      "lika": 4456,
      "ĠGawron": 4457,
      "ĠGawronkach": 4458,
      "ĠStan": 4459,
      "ĠzwiÄħz": 4460,
      "ĠkÅĤopo": 4461,
      "ĠskoÅĦczyÅĤ": 4462,
      "ĠlekcjÄĻ": 4463,
      "Ġwycie": 4464,
      "ĠrozÅĤo": 4465,
      "kanie": 4466,
      "ĠÅĽpiewaÄĩ": 4467,
      "warÅĤ": 4468,
      "ĠjÄħÅĤ": 4469,
      "ĠSi": 4470,
      "Ġmelod": 4471,
      "ĠÅ¼ywego": 4472,
      "ĠÅĽpiewu": 4473,
      "Ġzmuszony": 4474,
      "Ġistotnie": 4475,
      "ĠpisaÄĩ": 4476,
      "ĠopowiadaÅĤ": 4477,
      "Ġniezbyt": 4478,
      "ĠciÄĻÅ¼ar": 4479,
      "ĠumyÅĽlnie": 4480,
      "ĠmyÅĽlenia": 4481,
      "Ġpisania": 4482,
      "Ġkali": 4483,
      "Ġtwar": 4484,
      "ĠstÄħd": 4485,
      "krotnie": 4486,
      "zg": 4487,
      "Ġkoszuli": 4488,
      "Ġek": 4489,
      "sek": 4490,
      "Ġga": 4491,
      "Ġwidno": 4492,
      "ĠzaroÅĽla": 4493,
      "Ġdop": 4494,
      "Ġzago": 4495,
      "Ġmono": 4496,
      "Ġmonoto": 4497,
      "jÄħÄĩ": 4498,
      "ĠmiesiÄħce": 4499,
      "ĠÅ¼adne": 4500,
      "towaÄĩ": 4501,
      "ĠRaz": 4502,
      "ĠgÅĤÄĻbokim": 4503,
      "ĠÅĽwier": 4504,
      "Ġtle": 4505,
      "ĠNagle": 4506,
      "ĠzapÅĤak": 4507,
      "ĠniepojÄĻ": 4508,
      "Ġdniach": 4509,
      "eczka": 4510,
      "ÅĤadnie": 4511,
      "ĠzapytaÅĤa": 4512,
      "ĠktÃ³Å¼": 4513,
      "Ġpalcach": 4514,
      "ĠpÅĤak": 4515,
      "Ġskoro": 4516,
      "Ġwyli": 4517,
      "ĠbÅĤag": 4518,
      "ĠpisaÅĤ": 4519,
      "Ġzwane": 4520,
      "Ġpoliczki": 4521,
      "ĠRosji": 4522,
      "ĠzostaÅĤa": 4523,
      "ĠgaÅĤÄĻ": 4524,
      "ĠdziesiÄĻÄĩ": 4525,
      "rol": 4526,
      "duk": 4527,
      "tania": 4528,
      "ĠZanim": 4529,
      "ĠzdÄħÅ¼ajÄħc": 4530,
      "Ġpun": 4531,
      "ator": 4532,
      "ĠtrzymajÄħc": 4533,
      "Ġspodnie": 4534,
      "ĠlÄĻ": 4535,
      "Ġschow": 4536,
      "lonÄħ": 4537,
      "ĠogromnÄħ": 4538,
      "Ġwypowiad": 4539,
      "Ġniewy": 4540,
      "ĠJezus": 4541,
      "ĠkryjÃ³wki": 4542,
      "rzuciÅĤ": 4543,
      "Ġgranat": 4544,
      "ĠÅĤaska": 4545,
      "ĠDuÅ¼": 4546,
      "ĠdoÅĽwiad": 4547,
      "Dyrektor": 4548,
      "ĠzerwaÅĤ": 4549,
      "Ġustami": 4550,
      "Ġnauczycielu": 4551,
      "ĠktÃ³regoÅĽ": 4552,
      "ĠMoÅ¼e": 4553,
      "Ġposa": 4554,
      "lajÄħc": 4555,
      "ĠszczÄĻÅĽli": 4556,
      "Ġprzem": 4557,
      "skiew": 4558,
      "lÄħ": 4559,
      "Ġdreszcz": 4560,
      "ĠszepnÄĻÅĤa": 4561,
      "ĠzwrÃ³ciÅĤ": 4562,
      "ĠÅ¹": 4563,
      "ĠpolskÄħ": 4564,
      "Ġrezul": 4565,
      "Ġdwaj": 4566,
      "ĠmÃ³zgu": 4567,
      "Ġratu": 4568,
      "Ġratunku": 4569,
      "Ġszyder": 4570,
      "rzuc": 4571,
      "Ġusz": 4572,
      "ÅĤach": 4573,
      "Ġspojrzeniem": 4574,
      "Ġbrzegu": 4575,
      "lnoÅĽci": 4576,
      "ÅĤani": 4577,
      "ĠskrÄĻ": 4578,
      "stÄħpi": 4579,
      "Ġtoto": 4580,
      "Ġpodobne": 4581,
      "trzeb": 4582,
      "Å¼yÅĤy": 4583,
      "ckie": 4584,
      "brew": 4585,
      "Ġpiw": 4586,
      "ĠNawet": 4587,
      "ĠgorzaÅĤ": 4588,
      "ĠzapamiÄĻ": 4589,
      "tale": 4590,
      "Ġcham": 4591,
      "ĠzrobiÄĩ": 4592,
      "Å¼onego": 4593,
      "wajcar": 4594,
      "ĠPragnÄħc": 4595,
      "Ġzdoby": 4596,
      "Teraz": 4597,
      "Ġogromnych": 4598,
      "atel": 4599,
      "rawy": 4600,
      "ĠdosiÄĻ": 4601,
      "ziÅĤ": 4602,
      "ĠzdaÅĤ": 4603,
      "Ġcywi": 4604,
      "ĠprawosÅĤa": 4605,
      "Ġwoj": 4606,
      "Ġspali": 4607,
      "Ġrusy": 4608,
      "sÅĤani": 4609,
      "ĠzamoÅ¼": 4610,
      "Ġsal": 4611,
      "Ġdrzem": 4612,
      "niakÃ³w": 4613,
      "Ġmundur": 4614,
      "kano": 4615,
      "Ġtermi": 4616,
      "ĠegzaminÃ³w": 4617,
      "ĠÅ¼aden": 4618,
      "czeg": 4619,
      "Ġzanie": 4620,
      "ĠminÄħÅĤ": 4621,
      "Ġdniu": 4622,
      "Ġpacie": 4623,
      "izmu": 4624,
      "Ġniepokoj": 4625,
      "Ġkape": 4626,
      "Ġkapelu": 4627,
      "Ġsurdu": 4628,
      "Ġgrub": 4629,
      "Ġwzrostu": 4630,
      "ĠJÃ³zef": 4631,
      "ĠniezwÅĤocznie": 4632,
      "in": 4633,
      "Ġwargami": 4634,
      "ĠprofesorÃ³w": 4635,
      "ĠsÄħsiedniej": 4636,
      "ĠjÄĻzykiem": 4637,
      "Ġwest": 4638,
      "nieÅĦ": 4639,
      "ge": 4640,
      "Ġul": 4641,
      "Ġszer": 4642,
      "ĠpodwÃ³rze": 4643,
      "wami": 4644,
      "Ġbudow": 4645,
      "ĠdziedziÅĦca": 4646,
      "Ġpowtarz": 4647,
      "Ġodpo": 4648,
      "Ġwilgo": 4649,
      "Ġwez": 4650,
      "Ġgrzy": 4651,
      "ĠbÄĻdziesz": 4652,
      "Ġdra": 4653,
      "ĠKtÃ³Å¼": 4654,
      "Ġczasy": 4655,
      "Ġprzygotowany": 4656,
      "Ġzdania": 4657,
      "ĠÅĤaciny": 4658,
      "Ġju": 4659,
      "ĠusiÅĤowaÅĤ": 4660,
      "towaÅĤ": 4661,
      "Ġwysu": 4662,
      "ĠrÃ³Å¼ne": 4663,
      "Ġwarun": 4664,
      "ĠprzyszÅĤo": 4665,
      "Ġkaczki": 4666,
      "gla": 4667,
      "ĠuwagÄħ": 4668,
      "niku": 4669,
      "ĠsprzÄĻ": 4670,
      "ĠpiÄĻknych": 4671,
      "ĠzapaÅĤ": 4672,
      "ĠksztaÅĤt": 4673,
      "ĠbroÅĦ": 4674,
      "Ġkroki": 4675,
      "Ġprawda": 4676,
      "ĠprzeszedÅĤ": 4677,
      "rzony": 4678,
      "Ġfrancu": 4679,
      "dnym": 4680,
      "ĠPolakÃ³w": 4681,
      "ĠÅ¼ydow": 4682,
      "zji": 4683,
      "Ġrosyjskich": 4684,
      "Ġposi": 4685,
      "ĠramiÄĻ": 4686,
      "Ġsos": 4687,
      "Ġgimnazjalnym": 4688,
      "Ġpaty": 4689,
      "szeni": 4690,
      "Ġpospoli": 4691,
      "Ġaby": 4692,
      "ĠsprÃ³": 4693,
      "ĠÅĽmiechem": 4694,
      "ĠOzie": 4695,
      "ĠOzier": 4696,
      "ĠnaleÅ¼aÅĤ": 4697,
      "ĠsynÃ³w": 4698,
      "Ġopis": 4699,
      "wiel": 4700,
      "czem": 4701,
      "Ġposiad": 4702,
      "Ġogromnie": 4703,
      "ĠkrÃ³tkie": 4704,
      "Ġwybornie": 4705,
      "Ġnieprzy": 4706,
      "starej": 4707,
      "ĠPrzepiÃ³rzycy": 4708,
      "Ġuz": 4709,
      "ĠzabraÅĤ": 4710,
      "Ġopieku": 4711,
      "ĠmÃ³wiono": 4712,
      "Ġzachow": 4713,
      "Ġmiej": 4714,
      "Ġkot": 4715,
      "ĠKlerykÃ³w": 4716,
      "Ġhistoria": 4717,
      "Ġoz": 4718,
      "Ġmniem": 4719,
      "Ġumil": 4720,
      "Ġfak": 4721,
      "Ġtem": 4722,
      "Ġjesieni": 4723,
      "ĠKon": 4724,
      "ĠKonstan": 4725,
      "ĠKonstancja": 4726,
      "ĠZaraz": 4727,
      "Ġradcy": 4728,
      "Ġrewo": 4729,
      "Ġkolan": 4730,
      "ĠÅ¼ebym": 4731,
      "Ġss": 4732,
      "ĠkaÅ¼dego": 4733,
      "Ġakurat": 4734,
      "bach": 4735,
      "Ġnaro": 4736,
      "Ġpolskie": 4737,
      "Ġtkwi": 4738,
      "ĠWarszawy": 4739,
      "Ġwyprost": 4740,
      "Ġgwi": 4741,
      "Ġznalaz": 4742,
      "ĠspoÅĤe": 4743,
      "ĠksztaÅĤty": 4744,
      "Ġsceny": 4745,
      "Ġznik": 4746,
      "Ġmurem": 4747,
      "ĠbÅĤot": 4748,
      "ĠwÅĤaÅĽciciel": 4749,
      "stÄĻpu": 4750,
      "ĠBoÅ¼ego": 4751,
      "Ġzarazem": 4752,
      "ĠdziÄĻki": 4753,
      "Ġnieobec": 4754,
      "Ġrzeczach": 4755,
      "bem": 4756,
      "ĠutworÃ³w": 4757,
      "ĠPuszki": 4758,
      "ĠPuszkina": 4759,
      "Ġstroni": 4760,
      "snÄħ": 4761,
      "Ġkarty": 4762,
      "Ġrazie": 4763,
      "Ġdrugoro": 4764,
      "czÄĻÅĽcie": 4765,
      "czÄĻÅĽciej": 4766,
      "nnych": 4767,
      "Ġwieczo": 4768,
      "Ġwieczora": 4769,
      "ĠOp": 4770,
      "ÅĦcy": 4771,
      "Ġducha": 4772,
      "Ġpauzy": 4773,
      "Ġhu": 4774,
      "nÄħtrz": 4775,
      "Ġdow": 4776,
      "szonÄħ": 4777,
      "ĠrozciÄħg": 4778,
      "lonego": 4779,
      "Ġklasa": 4780,
      "Ġcylin": 4781,
      "ĠrzeczywiÅĽcie": 4782,
      "Ġcel": 4783,
      "Ġener": 4784,
      "Ġspraw": 4785,
      "ĠrzÄĻ": 4786,
      "ĠrosÅĤy": 4787,
      "Ġsmutne": 4788,
      "ĠmaleÅĦ": 4789,
      "Ġblask": 4790,
      "Ġulu": 4791,
      "toÅĽci": 4792,
      "ĠÅºre": 4793,
      "Ġstawu": 4794,
      "ĠwodÄĻ": 4795,
      "ĠwÅĽcie": 4796,
      "ĠmÅĤode": 4797,
      "Ġgawro": 4798,
      "nkow": 4799,
      "mna": 4800,
      "ĠcaÅĤkowicie": 4801,
      "ĠdoznaÅĤ": 4802,
      "ĠOjciec": 4803,
      "arki": 4804,
      "ĠznaleÅºÄĩ": 4805,
      "Ġkolega": 4806,
      "gaÄĩ": 4807,
      "cjach": 4808,
      "Ġhym": 4809,
      "ĠkrÄĻ": 4810,
      "ĠwypÄĻ": 4811,
      "ĠRu": 4812,
      "Ġniemie": 4813,
      "Ġuniwer": 4814,
      "Ġuniwersy": 4815,
      "Ġhistory": 4816,
      "niony": 4817,
      "Ġwnet": 4818,
      "dzali": 4819,
      "ĠspotkaÅĤ": 4820,
      "Ġsposobu": 4821,
      "ĠwlepiÅĤ": 4822,
      "ĠdrÅ¼Äħc": 4823,
      "Ġwspomnienie": 4824,
      "Ġostatniej": 4825,
      "ĠPodczas": 4826,
      "kom": 4827,
      "Ġprawdopodobnie": 4828,
      "Ġpistole": 4829,
      "Ġpistoletu": 4830,
      "ĠstrzelaÅĤ": 4831,
      "zÄħ": 4832,
      "pÄħ": 4833,
      "wora": 4834,
      "cjami": 4835,
      "Ġskr": 4836,
      "Ġskrwa": 4837,
      "Ġskrwawi": 4838,
      "ĠnajbliÅ¼": 4839,
      "ĠwpÅĤyw": 4840,
      "Ġdawniej": 4841,
      "ĠÅĤonie": 4842,
      "Ġprzelo": 4843,
      "ĠnaokÃ³ÅĤ": 4844,
      "tÃ³wkÄĻ": 4845,
      "Ġnowo": 4846,
      "Ġboch": 4847,
      "kowe": 4848,
      "Ġwer": 4849,
      "Ġobszer": 4850,
      "ĠLejba": 4851,
      "szymi": 4852,
      "Ġbady": 4853,
      "rzyli": 4854,
      "Åºdzie": 4855,
      "Ġkarcz": 4856,
      "nkÄĻ": 4857,
      "ĠKriestoobriadnikow": 4858,
      "Ġrewi": 4859,
      "ĠmÅĤodzieÅ¼": 4860,
      "Ġstronie": 4861,
      "Ġuczniow": 4862,
      "owach": 4863,
      "ĠKawka": 4864,
      "Ġbada": 4865,
      "Ġwali": 4866,
      "Ġloka": 4867,
      "ĠgÃ³rkÄĻ": 4868,
      "Ã¡": 4869,
      "ĠHist": 4870,
      "tura": 4871,
      "Ġswoich": 4872,
      "ĠsiÃ³dmoklasi": 4873,
      "Ġsamoist": 4874,
      "Spi": 4875,
      "Spino": 4876,
      "Ġbuckle": 4877,
      "Biruta": 4878,
      "97": 4879,
      "dwoje": 4880,
      "Ġjedynak": 4881,
      "ĠZap": 4882,
      "Ġsanek": 4883,
      "ĠpÅĤaczu": 4884,
      "Åºny": 4885,
      "ĠleÅ¼aÅĤy": 4886,
      "ĠtamtÄĻ": 4887,
      "ĠtamtÄĻdy": 4888,
      "Ġzasp": 4889,
      "Ġsmugi": 4890,
      "rob": 4891,
      "niejszego": 4892,
      "Ġcukru": 4893,
      "Ġspicz": 4894,
      "Ġspiczast": 4895,
      "Ġtamtych": 4896,
      "Ġdawien": 4897,
      "ĠotrzymaÅĤ": 4898,
      "ĠweÅĤni": 4899,
      "Ko": 4900,
      "ĠkÅĤu": 4901,
      "niÄĻtÄħ": 4902,
      "miÅĤ": 4903,
      "Ġmig": 4904,
      "tom": 4905,
      "Ġzaczerwie": 4906,
      "Ġniezwy": 4907,
      "ĠWÅĤo": 4908,
      "kowa": 4909,
      "rÃ³j": 4910,
      "obie": 4911,
      "Ġwioski": 4912,
      "ĠwisiaÅĤy": 4913,
      "ĠposÄĻp": 4914,
      "ĠCze": 4915,
      "Ġfutro": 4916,
      "Ġwpat": 4917,
      "rywki": 4918,
      "stat": 4919,
      "Ġkop": 4920,
      "Ġspokojnie": 4921,
      "Ġkochanku": 4922,
      "czary": 4923,
      "Ġkocha": 4924,
      "Ġzano": 4925,
      "ĠnawaÅĤ": 4926,
      "Ġuczenia": 4927,
      "ĠksztaÅĤcie": 4928,
      "Å¼ywszy": 4929,
      "ĠdzieciÄĻc": 4930,
      "Ġwybuch": 4931,
      "noje": 4932,
      "Ġbudynku": 4933,
      "Ġpewna": 4934,
      "ĠogrÃ³d": 4935,
      "ĠbiegÅĤ": 4936,
      "ĠMarcj": 4937,
      "ĠMarcjan": 4938,
      "ĠMarcjanna": 4939,
      "Ġstrasznie": 4940,
      "ĠdÅĤugiej": 4941,
      "Ġszyi": 4942,
      "Ġatra": 4943,
      "Ġatramen": 4944,
      "ĠMiaÅĤa": 4945,
      "Ġoku": 4946,
      "ĠmatkÄĻ": 4947,
      "Ġzdrowie": 4948,
      "ĠDu": 4949,
      "Ġuczuciem": 4950,
      "Ġrodzice": 4951,
      "Ġnatural": 4952,
      "ĠmajÄħ": 4953,
      "szone": 4954,
      "ĠjednoczeÅĽnie": 4955,
      "Ġnauczycielki": 4956,
      "ĠbÅĤyszcz": 4957,
      "ĠJeden": 4958,
      "Ġkolos": 4959,
      "alnych": 4960,
      "togra": 4961,
      "ĠprowadzÄħcych": 4962,
      "Ġdyscy": 4963,
      "Ġdyscypli": 4964,
      "Ġtrz": 4965,
      "ĠnaÅĽladu": 4966,
      "Ġsar": 4967,
      "ĠMarcinowi": 4968,
      "Ġgestem": 4969,
      "ĠwÅĤos": 4970,
      "Ġpieszcz": 4971,
      "Ġnabi": 4972,
      "rasz": 4973,
      "ĠwysiÅĤ": 4974,
      "Ġskupi": 4975,
      "Ã³Åº": 4976,
      "Ã³Åºniej": 4977,
      "sienia": 4978,
      "Ġdziewczy": 4979,
      "Ġgruby": 4980,
      "rzeni": 4981,
      "Ġem": 4982,
      "Ġoczami": 4983,
      "Ġresz": 4984,
      "arek": 4985,
      "Ġzgrze": 4986,
      "ÅĤuszcz": 4987,
      "Ġustawi": 4988,
      "Ġherb": 4989,
      "Ġpierwsza": 4990,
      "Ġzaleg": 4991,
      "ĠpÃ³ÅĤgÅĤosem": 4992,
      "ĠprowadziÄĩ": 4993,
      "Ġostate": 4994,
      "Ġton": 4995,
      "Ġnieodwo": 4996,
      "ĠnieodwoÅĤa": 4997,
      "ĠmaÅĤym": 4998,
      "Ġciele": 4999
    },
    "merges": [
      [
        "Å",
        "Ĥ"
      ],
      [
        "i",
        "e"
      ],
      [
        "Ġ",
        "p"
      ],
      [
        "Ġ",
        "s"
      ],
      [
        "Ġ",
        "w"
      ],
      [
        "Ä",
        "Ļ"
      ],
      [
        "Ġ",
        "n"
      ],
      [
        "Ġ",
        "z"
      ],
      [
        "c",
        "z"
      ],
      [
        "Ä",
        "ħ"
      ],
      [
        "r",
        "z"
      ],
      [
        "a",
        "ÅĤ"
      ],
      [
        "c",
        "h"
      ],
      [
        "Ġ",
        "d"
      ],
      [
        "Ġ",
        "t"
      ],
      [
        "Å",
        "¼"
      ],
      [
        "o",
        "w"
      ],
      [
        "Ã",
        "³"
      ],
      [
        "Ġ",
        "i"
      ],
      [
        "Ġ",
        "k"
      ],
      [
        "â",
        "Ģ"
      ],
      [
        "Ġ",
        "m"
      ],
      [
        "a",
        "n"
      ],
      [
        "s",
        "z"
      ],
      [
        "Ġ",
        "o"
      ],
      [
        "Å",
        "Ľ"
      ],
      [
        "Ġn",
        "a"
      ],
      [
        "i",
        "ÄĻ"
      ],
      [
        "Ġ",
        "j"
      ],
      [
        "r",
        "o"
      ],
      [
        "s",
        "t"
      ],
      [
        "g",
        "o"
      ],
      [
        "d",
        "z"
      ],
      [
        "r",
        "a"
      ],
      [
        "rz",
        "e"
      ],
      [
        "Ġ",
        "b"
      ],
      [
        "c",
        "i"
      ],
      [
        "l",
        "e"
      ],
      [
        "Ġp",
        "o"
      ],
      [
        "n",
        "i"
      ],
      [
        "a",
        "k"
      ],
      [
        "n",
        "ie"
      ],
      [
        "l",
        "i"
      ],
      [
        "a",
        "r"
      ],
      [
        "Ä",
        "ĩ"
      ],
      [
        "Ġn",
        "ie"
      ],
      [
        "Ġs",
        "iÄĻ"
      ],
      [
        "a",
        "m"
      ],
      [
        "n",
        "e"
      ],
      [
        "Ġ",
        "u"
      ],
      [
        "âĢ",
        "Ķ"
      ],
      [
        "Ġd",
        "o"
      ],
      [
        "ÅĤ",
        "a"
      ],
      [
        "Ġ",
        "g"
      ],
      [
        "y",
        "m"
      ],
      [
        "k",
        "i"
      ],
      [
        "ÅĤ",
        "o"
      ],
      [
        "Ġz",
        "a"
      ],
      [
        "w",
        "i"
      ],
      [
        "k",
        "o"
      ],
      [
        "k",
        "a"
      ],
      [
        "cz",
        "y"
      ],
      [
        "Ġw",
        "y"
      ],
      [
        "n",
        "a"
      ],
      [
        "Ġj",
        "e"
      ],
      [
        "Ã³",
        "w"
      ],
      [
        "y",
        "ch"
      ],
      [
        "Å¼",
        "e"
      ],
      [
        "Äħ",
        "c"
      ],
      [
        "rz",
        "y"
      ],
      [
        "c",
        "ie"
      ],
      [
        "Ġs",
        "t"
      ],
      [
        "e",
        "m"
      ],
      [
        "l",
        "a"
      ],
      [
        "Ġ",
        "a"
      ],
      [
        "o",
        "r"
      ],
      [
        "k",
        "ie"
      ],
      [
        "e",
        "j"
      ],
      [
        "Ġp",
        "rze"
      ],
      [
        "d",
        "y"
      ],
      [
        "Ġs",
        "z"
      ],
      [
        "dz",
        "i"
      ],
      [
        "Ġ",
        "c"
      ],
      [
        "a",
        "t"
      ],
      [
        "Ġ",
        "ro"
      ],
      [
        "a",
        "j"
      ],
      [
        "a",
        "d"
      ],
      [
        "ÅĤ",
        "y"
      ],
      [
        "Ġj",
        "ak"
      ],
      [
        "Ġ",
        "âĢĶ"
      ],
      [
        "r",
        "e"
      ],
      [
        "r",
        "u"
      ],
      [
        "an",
        "i"
      ],
      [
        "n",
        "o"
      ],
      [
        "âĢ",
        "¦"
      ],
      [
        "Ġb",
        "y"
      ],
      [
        "cz",
        "e"
      ],
      [
        "r",
        "y"
      ],
      [
        "b",
        "y"
      ],
      [
        "Ġt",
        "o"
      ],
      [
        "dz",
        "ie"
      ],
      [
        "n",
        "y"
      ],
      [
        "w",
        "a"
      ],
      [
        "ÅĽ",
        "ci"
      ],
      [
        "Ġ",
        "W"
      ],
      [
        "ow",
        "i"
      ],
      [
        "Ġ",
        "ch"
      ],
      [
        "am",
        "i"
      ],
      [
        "e",
        "go"
      ],
      [
        "s",
        "i"
      ],
      [
        "k",
        "u"
      ],
      [
        "w",
        "ie"
      ],
      [
        "p",
        "o"
      ],
      [
        "Ġ",
        "P"
      ],
      [
        "Ġ",
        "M"
      ],
      [
        "n",
        "Äħ"
      ],
      [
        "Å",
        "Ħ"
      ],
      [
        "w",
        "o"
      ],
      [
        "Ġo",
        "d"
      ],
      [
        "Ġ",
        "Å¼e"
      ],
      [
        "sz",
        "y"
      ],
      [
        "aÅĤ",
        "a"
      ],
      [
        "Ġk",
        "o"
      ],
      [
        "t",
        "e"
      ],
      [
        "Ġp",
        "rzy"
      ],
      [
        "aÅĤ",
        "y"
      ],
      [
        "ÅĤ",
        "u"
      ],
      [
        "Ġn",
        "i"
      ],
      [
        "c",
        "e"
      ],
      [
        "Ġro",
        "z"
      ],
      [
        "m",
        "ie"
      ],
      [
        "Ġ",
        "cz"
      ],
      [
        "Ġ",
        "B"
      ],
      [
        "Ġ",
        "ÅĽ"
      ],
      [
        "m",
        "i"
      ],
      [
        "ra",
        "z"
      ],
      [
        "t",
        "y"
      ],
      [
        "ow",
        "a"
      ],
      [
        "t",
        "Ã³"
      ],
      [
        "Ġw",
        "ie"
      ],
      [
        "a",
        "s"
      ],
      [
        "t",
        "a"
      ],
      [
        "Ġm",
        "i"
      ],
      [
        "Ġ",
        "N"
      ],
      [
        "Ġt",
        "ak"
      ],
      [
        "Å¼",
        "y"
      ],
      [
        "sz",
        "e"
      ],
      [
        "ni",
        "a"
      ],
      [
        "s",
        "y"
      ],
      [
        "Ġ",
        "go"
      ],
      [
        "c",
        "y"
      ],
      [
        "s",
        "ki"
      ],
      [
        "Ġk",
        "tÃ³"
      ],
      [
        "n",
        "ym"
      ],
      [
        "e",
        "k"
      ],
      [
        "Ġd",
        "z"
      ],
      [
        "b",
        "ie"
      ],
      [
        "d",
        "a"
      ],
      [
        "ow",
        "ie"
      ],
      [
        "r",
        "Ã³"
      ],
      [
        "e",
        "r"
      ],
      [
        "c",
        "a"
      ],
      [
        "c",
        "j"
      ],
      [
        "an",
        "ie"
      ],
      [
        "Ġc",
        "o"
      ],
      [
        "Ġm",
        "u"
      ],
      [
        "e",
        "n"
      ],
      [
        "b",
        "i"
      ],
      [
        "Ġpo",
        "d"
      ],
      [
        "âĢ",
        "ŀ"
      ],
      [
        "âĢ",
        "Ŀ"
      ],
      [
        "w",
        "aÅĤ"
      ],
      [
        "ne",
        "j"
      ],
      [
        "Ġw",
        "i"
      ],
      [
        "Ġ",
        "S"
      ],
      [
        "t",
        "o"
      ],
      [
        "p",
        "i"
      ],
      [
        "Ġ",
        "âĢŀ"
      ],
      [
        "Ġm",
        "ie"
      ],
      [
        "a",
        "l"
      ],
      [
        "Ġm",
        "o"
      ],
      [
        "ar",
        "ci"
      ],
      [
        "Ġt",
        "y"
      ],
      [
        "n",
        "ych"
      ],
      [
        "p",
        "ie"
      ],
      [
        "Ġ",
        "J"
      ],
      [
        "aj",
        "Äħc"
      ],
      [
        "w",
        "y"
      ],
      [
        "r",
        "ÄĻ"
      ],
      [
        "Ġo",
        "b"
      ],
      [
        "Ġ",
        "T"
      ],
      [
        "Ġ",
        "f"
      ],
      [
        "g",
        "i"
      ],
      [
        "s",
        "kie"
      ],
      [
        "Ġ",
        "Z"
      ],
      [
        "owi",
        "cz"
      ],
      [
        "Ġp",
        "an"
      ],
      [
        "u",
        "Å¼"
      ],
      [
        "ÅĽ",
        "Äĩ"
      ],
      [
        "Ġ",
        "le"
      ],
      [
        "n",
        "ÄĻ"
      ],
      [
        "Ġ",
        "K"
      ],
      [
        "z",
        "y"
      ],
      [
        "t",
        "u"
      ],
      [
        "Ġs",
        "po"
      ],
      [
        "ne",
        "go"
      ],
      [
        "m",
        "u"
      ],
      [
        "st",
        "a"
      ],
      [
        "j",
        "Äħc"
      ],
      [
        "Ġ",
        "rze"
      ],
      [
        "Ġs",
        "p"
      ],
      [
        "Ġ",
        "C"
      ],
      [
        "Ġ",
        "*"
      ],
      [
        "Ġ",
        "czy"
      ],
      [
        "Ġje",
        "d"
      ],
      [
        "Ġje",
        "go"
      ],
      [
        "Å",
        "º"
      ],
      [
        "Ġz",
        "e"
      ],
      [
        "k",
        "ÄĻ"
      ],
      [
        "ĠM",
        "arci"
      ],
      [
        "l",
        "o"
      ],
      [
        "Ġdz",
        "ie"
      ],
      [
        "or",
        "owicz"
      ],
      [
        "ani",
        "a"
      ],
      [
        "l",
        "u"
      ],
      [
        "i",
        "m"
      ],
      [
        "a",
        "le"
      ],
      [
        "e",
        "w"
      ],
      [
        "Ġk",
        "la"
      ],
      [
        "Ġna",
        "u"
      ],
      [
        "ĠB",
        "orowicz"
      ],
      [
        "Ġ",
        "ci"
      ],
      [
        "Ġn",
        "o"
      ],
      [
        "Ġp",
        "ra"
      ],
      [
        "Ġs",
        "am"
      ],
      [
        "a",
        "ch"
      ],
      [
        "a",
        "Äĩ"
      ],
      [
        "w",
        "e"
      ],
      [
        "o",
        "b"
      ],
      [
        "Ġt",
        "e"
      ],
      [
        "m",
        "o"
      ],
      [
        "aÅĤ",
        "o"
      ],
      [
        "Ġm",
        "Ã³"
      ],
      [
        "nie",
        "j"
      ],
      [
        "Ġ",
        "A"
      ],
      [
        "nÄħ",
        "ÅĤ"
      ],
      [
        "l",
        "ko"
      ],
      [
        "Ġ",
        "G"
      ],
      [
        "Ġg",
        "ÅĤ"
      ],
      [
        "Ġj",
        "uÅ¼"
      ],
      [
        "b",
        "o"
      ],
      [
        "Ġ",
        "O"
      ],
      [
        "k",
        "Äħ"
      ],
      [
        "m",
        "y"
      ],
      [
        "Ġ",
        "D"
      ],
      [
        "Ġt",
        "am"
      ],
      [
        "e",
        "z"
      ],
      [
        "ÄĻ",
        "d"
      ],
      [
        "j",
        "s"
      ],
      [
        "Ġp",
        "ie"
      ],
      [
        "Ġprze",
        "d"
      ],
      [
        "Ġi",
        "n"
      ],
      [
        "Ġ",
        "R"
      ],
      [
        "Ġa",
        "le"
      ],
      [
        "Ġk",
        "a"
      ],
      [
        "czy",
        "cie"
      ],
      [
        "Ġty",
        "lko"
      ],
      [
        "Ġw",
        "o"
      ],
      [
        "s",
        "ie"
      ],
      [
        "Ġw",
        "szy"
      ],
      [
        "Äħ",
        "g"
      ],
      [
        "ne",
        "k"
      ],
      [
        "Ġby",
        "ÅĤ"
      ],
      [
        "j",
        "e"
      ],
      [
        "ch",
        "o"
      ],
      [
        "Ġk",
        "u"
      ],
      [
        "Ġg",
        "dy"
      ],
      [
        "Ġp",
        "ro"
      ],
      [
        "Ã³",
        "ÅĤ"
      ],
      [
        "a",
        "w"
      ],
      [
        "e",
        "ÅĤ"
      ],
      [
        "Ġp",
        "i"
      ],
      [
        "Ġw",
        "z"
      ],
      [
        "d",
        "o"
      ],
      [
        "kie",
        "m"
      ],
      [
        "Ġs",
        "w"
      ],
      [
        "Ġby",
        "ÅĤo"
      ],
      [
        "m",
        "a"
      ],
      [
        "Ġ",
        "ra"
      ],
      [
        "ow",
        "aÅĤ"
      ],
      [
        "k",
        "ÅĤ"
      ],
      [
        "Ġ",
        "ÅĤa"
      ],
      [
        "d",
        "ÅĤ"
      ],
      [
        "Äħ",
        "d"
      ],
      [
        "t",
        "aÅĤ"
      ],
      [
        "sz",
        "cz"
      ],
      [
        "Ġnau",
        "czycie"
      ],
      [
        "sz",
        "cze"
      ],
      [
        "s",
        "o"
      ],
      [
        "Ġsz",
        "e"
      ],
      [
        "Ġu",
        "cz"
      ],
      [
        "Ġprze",
        "z"
      ],
      [
        "ÄĻ",
        "p"
      ],
      [
        "Ġza",
        "p"
      ],
      [
        "dz",
        "o"
      ],
      [
        "an",
        "o"
      ],
      [
        "an",
        "y"
      ],
      [
        "t",
        "or"
      ],
      [
        "Ġs",
        "ie"
      ],
      [
        "Ġc",
        "aÅĤ"
      ],
      [
        "Ġt",
        "ego"
      ],
      [
        "g",
        "a"
      ],
      [
        "cj",
        "i"
      ],
      [
        "Ġwszy",
        "st"
      ],
      [
        "Ġp",
        "ani"
      ],
      [
        "g",
        "ÅĤ"
      ],
      [
        "Ġb",
        "o"
      ],
      [
        "Ġs",
        "o"
      ],
      [
        "Ġje",
        "st"
      ],
      [
        "u",
        "m"
      ],
      [
        "Ġt",
        "ym"
      ],
      [
        "Ġ",
        "Å¼"
      ],
      [
        "Äħ",
        "ÅĤ"
      ],
      [
        "Ġ",
        "ru"
      ],
      [
        "s",
        "ka"
      ],
      [
        "r",
        "w"
      ],
      [
        "dzi",
        "aÅĤ"
      ],
      [
        "Ġmie",
        "js"
      ],
      [
        "Ġb",
        "ez"
      ],
      [
        "s",
        "u"
      ],
      [
        "k",
        "ÅĤa"
      ],
      [
        "Ġz",
        "n"
      ],
      [
        "g",
        "ie"
      ],
      [
        "st",
        "ÄĻp"
      ],
      [
        "s",
        "p"
      ],
      [
        "i",
        "l"
      ],
      [
        "Ġ",
        "Å¼y"
      ],
      [
        "k",
        "Ã³w"
      ],
      [
        "c",
        "u"
      ],
      [
        "Ġg",
        "ÅĤo"
      ],
      [
        "a",
        "li"
      ],
      [
        "Ġkla",
        "sy"
      ],
      [
        "Ġna",
        "j"
      ],
      [
        "d",
        "u"
      ],
      [
        "Ġst",
        "o"
      ],
      [
        "k",
        "ow"
      ],
      [
        "no",
        "ÅĽci"
      ],
      [
        "z",
        "j"
      ],
      [
        "Ġcz",
        "as"
      ],
      [
        "w",
        "ar"
      ],
      [
        "ĠN",
        "ie"
      ],
      [
        "Ġk",
        "ie"
      ],
      [
        "Äħ",
        "t"
      ],
      [
        "Ġ",
        "cie"
      ],
      [
        "Ġ",
        "li"
      ],
      [
        "Ġst",
        "an"
      ],
      [
        "ĠP",
        "o"
      ],
      [
        "Ġ",
        "h"
      ],
      [
        "Ġm",
        "y"
      ],
      [
        "Ġb",
        "ar"
      ],
      [
        "Ã³",
        "r"
      ],
      [
        "Ġ",
        "raz"
      ],
      [
        "Ġo",
        "g"
      ],
      [
        "st",
        "o"
      ],
      [
        "ĠmÃ³",
        "wi"
      ],
      [
        "an",
        "e"
      ],
      [
        "Ġ",
        "r"
      ],
      [
        "Ġst",
        "ar"
      ],
      [
        "Ġm",
        "a"
      ],
      [
        "Ġch",
        "ÅĤo"
      ],
      [
        "rz",
        "u"
      ],
      [
        "ÅĽ",
        "cie"
      ],
      [
        "Ġz",
        "na"
      ],
      [
        "Ġna",
        "d"
      ],
      [
        "Ġ",
        "rÄĻ"
      ],
      [
        "ĠktÃ³",
        "r"
      ],
      [
        "Ġp",
        "a"
      ],
      [
        "Ġch",
        "wi"
      ],
      [
        "ni",
        "u"
      ],
      [
        "Ġw",
        "ÅĤa"
      ],
      [
        "Ġwie",
        "l"
      ],
      [
        "ĠMarci",
        "n"
      ],
      [
        "j",
        "a"
      ],
      [
        "Ġd",
        "ru"
      ],
      [
        "ow",
        "y"
      ],
      [
        "Ġje",
        "j"
      ],
      [
        "Ġso",
        "bie"
      ],
      [
        "Ġd",
        "la"
      ],
      [
        "ym",
        "i"
      ],
      [
        "Ġs",
        "i"
      ],
      [
        "ĠN",
        "a"
      ],
      [
        "Ġsz",
        "ko"
      ],
      [
        "Ġjak",
        "ie"
      ],
      [
        "rz",
        "wi"
      ],
      [
        "r",
        "owa"
      ],
      [
        "re",
        "k"
      ],
      [
        "Ġt",
        "ej"
      ],
      [
        "s",
        "ÅĤ"
      ],
      [
        "Ġd",
        "u"
      ],
      [
        "Ġo",
        "k"
      ],
      [
        "Ġ",
        "ani"
      ],
      [
        "we",
        "t"
      ],
      [
        "ÅĽ",
        "li"
      ],
      [
        "Ġje",
        "szcze"
      ],
      [
        "n",
        "iÄĻ"
      ],
      [
        "Ġm",
        "at"
      ],
      [
        "Ġb",
        "u"
      ],
      [
        "o",
        "ny"
      ],
      [
        "dz",
        "y"
      ],
      [
        "Ġd",
        "rzwi"
      ],
      [
        "Ġwy",
        "p"
      ],
      [
        "an",
        "a"
      ],
      [
        "skie",
        "go"
      ],
      [
        "ĠÅĽ",
        "wi"
      ],
      [
        "j",
        "ÄĻ"
      ],
      [
        "t",
        "em"
      ],
      [
        "Ġs",
        "y"
      ],
      [
        "rz",
        "ym"
      ],
      [
        "b",
        "li"
      ],
      [
        "si",
        "Äħ"
      ],
      [
        "z",
        "u"
      ],
      [
        "Ġ",
        "e"
      ],
      [
        "at",
        "y"
      ],
      [
        "Ġj",
        "a"
      ],
      [
        "dzi",
        "ÅĤ"
      ],
      [
        "Ġ",
        "ÅĤ"
      ],
      [
        "b",
        "a"
      ],
      [
        "Ġrze",
        "kÅĤ"
      ],
      [
        "im",
        "na"
      ],
      [
        "Ġna",
        "wet"
      ],
      [
        "Ġnie",
        "z"
      ],
      [
        "Ġp",
        "ew"
      ],
      [
        "ĠktÃ³",
        "re"
      ],
      [
        "o",
        "ne"
      ],
      [
        "Ġsz",
        "y"
      ],
      [
        "Ġd",
        "y"
      ],
      [
        "Ġp",
        "ow"
      ],
      [
        "Ġ",
        "la"
      ],
      [
        "nie",
        "m"
      ],
      [
        "Ġm",
        "iÄĻ"
      ],
      [
        "g",
        "u"
      ],
      [
        "s",
        "ko"
      ],
      [
        "Ġdz",
        "i"
      ],
      [
        "Ġs",
        "k"
      ],
      [
        "dz",
        "e"
      ],
      [
        "f",
        "i"
      ],
      [
        "n",
        "u"
      ],
      [
        "Ġw",
        "iÄĻ"
      ],
      [
        "Ġpie",
        "rw"
      ],
      [
        "ow",
        "u"
      ],
      [
        "Ġpo",
        "l"
      ],
      [
        "Ġnauczycie",
        "l"
      ],
      [
        "d",
        "e"
      ],
      [
        "Ġz",
        "w"
      ],
      [
        "Ġb",
        "i"
      ],
      [
        "s",
        "a"
      ],
      [
        "Ġk",
        "il"
      ],
      [
        "ĠchÅĤo",
        "p"
      ],
      [
        "ci",
        "ÅĤ"
      ],
      [
        "Ġg",
        "imna"
      ],
      [
        "czy",
        "ÅĤ"
      ],
      [
        "s",
        "k"
      ],
      [
        "Ġt",
        "en"
      ],
      [
        "Ġd",
        "ale"
      ],
      [
        "sze",
        "dÅĤ"
      ],
      [
        "Ġmi",
        "aÅĤ"
      ],
      [
        "s",
        "po"
      ],
      [
        "Ġby",
        "ÅĤa"
      ],
      [
        "Ã³",
        "Å¼"
      ],
      [
        "Ġo",
        "p"
      ],
      [
        "d",
        "ow"
      ],
      [
        "cz",
        "as"
      ],
      [
        "Ġro",
        "sy"
      ],
      [
        "Ġs",
        "wo"
      ],
      [
        "Ġch",
        "o"
      ],
      [
        "Ġd",
        "ÅĤu"
      ],
      [
        "ar",
        "y"
      ],
      [
        "Ġgimna",
        "zj"
      ],
      [
        "Ġ",
        "cze"
      ],
      [
        "ch",
        "ow"
      ],
      [
        "ĠR",
        "ad"
      ],
      [
        "o",
        "n"
      ],
      [
        "Ġo",
        "st"
      ],
      [
        "Ġdo",
        "b"
      ],
      [
        "Ġo",
        "czy"
      ],
      [
        "Ġni",
        "m"
      ],
      [
        "Ġm",
        "ÅĤo"
      ],
      [
        "ĠMarci",
        "nek"
      ],
      [
        "rz",
        "aÅĤ"
      ],
      [
        "ĠW",
        "ie"
      ],
      [
        "le",
        "g"
      ],
      [
        "Ã³",
        "j"
      ],
      [
        "g",
        "l"
      ],
      [
        "ĠB",
        "y"
      ],
      [
        "z",
        "i"
      ],
      [
        "cz",
        "nie"
      ],
      [
        "t",
        "ow"
      ],
      [
        "ki",
        "ch"
      ],
      [
        "ĠP",
        "rze"
      ],
      [
        "o",
        "st"
      ],
      [
        "Ġ",
        "I"
      ],
      [
        "Ġp",
        "u"
      ],
      [
        "Ġt",
        "u"
      ],
      [
        "Ġt",
        "rze"
      ],
      [
        "ĠktÃ³",
        "ry"
      ],
      [
        "Ġkie",
        "dy"
      ],
      [
        "or",
        "y"
      ],
      [
        "rÃ³",
        "d"
      ],
      [
        "Ġjak",
        "by"
      ],
      [
        "ÅĤu",
        "ch"
      ],
      [
        "s",
        "iÄĻ"
      ],
      [
        "Ġi",
        "ch"
      ],
      [
        "l",
        "ÄĻ"
      ],
      [
        "ci",
        "a"
      ],
      [
        "Ġ",
        "lu"
      ],
      [
        "Ġle",
        "k"
      ],
      [
        "i",
        "ch"
      ],
      [
        "o",
        "s"
      ],
      [
        "Ġz",
        "d"
      ],
      [
        "Ġst",
        "ro"
      ],
      [
        "j",
        "Äħ"
      ],
      [
        "Ġp",
        "owie"
      ],
      [
        "le",
        "ry"
      ],
      [
        "kie",
        "go"
      ],
      [
        "sz",
        "a"
      ],
      [
        "nym",
        "i"
      ],
      [
        "Ġw",
        "p"
      ],
      [
        "Ġnie",
        "go"
      ],
      [
        "s",
        "em"
      ],
      [
        "Ġ",
        "L"
      ],
      [
        "Ġ",
        "re"
      ],
      [
        "Ġza",
        "cz"
      ],
      [
        "e",
        "ty"
      ],
      [
        "rÃ³",
        "Å¼"
      ],
      [
        "Ġzn",
        "owu"
      ],
      [
        "o",
        "m"
      ],
      [
        "ch",
        "u"
      ],
      [
        "Ġw",
        "e"
      ],
      [
        "st",
        "y"
      ],
      [
        "Ġo",
        "cz"
      ],
      [
        "Ġt",
        "a"
      ],
      [
        "ĠN",
        "o"
      ],
      [
        "t",
        "Äħ"
      ],
      [
        "s",
        "ku"
      ],
      [
        "k",
        "ami"
      ],
      [
        "Ġu",
        "p"
      ],
      [
        "Ġk",
        "siÄħ"
      ],
      [
        "Ġo",
        "n"
      ],
      [
        "Ġp",
        "iÄĻ"
      ],
      [
        "Ġbar",
        "dzo"
      ],
      [
        "Ġa",
        "l"
      ],
      [
        "u",
        "p"
      ],
      [
        "Ġg",
        "ru"
      ],
      [
        "ÅĽ",
        "l"
      ],
      [
        "ro",
        "m"
      ],
      [
        "Ġg",
        "dzie"
      ],
      [
        "c",
        "Ã³w"
      ],
      [
        "ka",
        "ch"
      ],
      [
        "Ġci",
        "Äħg"
      ],
      [
        "ko",
        "j"
      ],
      [
        "b",
        "u"
      ],
      [
        "ÄĻ",
        "dzie"
      ],
      [
        "f",
        "e"
      ],
      [
        "Ġ",
        "Å"
      ],
      [
        "t",
        "ych"
      ],
      [
        "ski",
        "ch"
      ],
      [
        "wa",
        "Äĩ"
      ],
      [
        "*",
        ","
      ],
      [
        "Ġucz",
        "ni"
      ],
      [
        "w",
        "u"
      ],
      [
        "ad",
        "ÅĤ"
      ],
      [
        "ĠgÅĤ",
        "ÄĻ"
      ],
      [
        "Ġp",
        "at"
      ],
      [
        "ĠJ",
        "e"
      ],
      [
        "ro",
        "d"
      ],
      [
        "ĠS",
        "z"
      ],
      [
        "âĢĿ",
        ","
      ],
      [
        "ÅĽ",
        "nie"
      ],
      [
        "e",
        "l"
      ],
      [
        "re",
        "sz"
      ],
      [
        "b",
        "r"
      ],
      [
        "sp",
        "ek"
      ],
      [
        "o",
        "no"
      ],
      [
        "a",
        "st"
      ],
      [
        "k",
        "aÅĤ"
      ],
      [
        "Ġr",
        "Ã³w"
      ],
      [
        "kÅĤa",
        "d"
      ],
      [
        "ow",
        "o"
      ],
      [
        "pie",
        "ro"
      ],
      [
        "ĠJ",
        "a"
      ],
      [
        "ĠmiÄĻ",
        "dzy"
      ],
      [
        "ch",
        "y"
      ],
      [
        "st",
        "rze"
      ],
      [
        "Ġmie",
        "sz"
      ],
      [
        "Ġs",
        "ÅĤ"
      ],
      [
        "n",
        "ak"
      ],
      [
        "Ġpierw",
        "sz"
      ],
      [
        "ci",
        "Äħg"
      ],
      [
        "Ġby",
        "ÅĤy"
      ],
      [
        "Ġz",
        "ie"
      ],
      [
        "ĠÅĽwi",
        "at"
      ],
      [
        "Ġk",
        "ar"
      ],
      [
        "ĠM",
        "aj"
      ],
      [
        "Ġt",
        "ych"
      ],
      [
        "ow",
        "ÄĻ"
      ],
      [
        "g",
        "ÄĻ"
      ],
      [
        "Ġs",
        "er"
      ],
      [
        "Ġsp",
        "ra"
      ],
      [
        "ĠMaj",
        "ew"
      ],
      [
        "an",
        "ych"
      ],
      [
        "Ġd",
        "ro"
      ],
      [
        "Ġz",
        "g"
      ],
      [
        "ak",
        "i"
      ],
      [
        "Ġs",
        "u"
      ],
      [
        "ki",
        "m"
      ],
      [
        "Ġp",
        "ar"
      ],
      [
        "nÄĻ",
        "ÅĤa"
      ],
      [
        "Ġb",
        "ie"
      ],
      [
        "âĢĿ",
        "."
      ],
      [
        "Ġo",
        "ko"
      ],
      [
        "Ġs",
        "Äħ"
      ],
      [
        "Ġgo",
        "dzi"
      ],
      [
        "Ġk",
        "ro"
      ],
      [
        "Ġp",
        "y"
      ],
      [
        "Ġpo",
        "z"
      ],
      [
        "cz",
        "o"
      ],
      [
        "Ġspo",
        "s"
      ],
      [
        "s",
        "cy"
      ],
      [
        "ĠG",
        "dy"
      ],
      [
        "Ġt",
        "ra"
      ],
      [
        "Ġo",
        "t"
      ],
      [
        "ch",
        "a"
      ],
      [
        "mie",
        "r"
      ],
      [
        "Ġt",
        "ÄĻ"
      ],
      [
        "ym",
        "a"
      ],
      [
        "g",
        "Äħ"
      ],
      [
        "Ġ",
        "ÅĽci"
      ],
      [
        "w",
        "aÅĤy"
      ],
      [
        "Ġj",
        "Äħ"
      ],
      [
        "dzie",
        "Äĩ"
      ],
      [
        "Ġz",
        "am"
      ],
      [
        "ni",
        "k"
      ],
      [
        "Ġtak",
        "ie"
      ],
      [
        "rz",
        "Äħ"
      ],
      [
        "sz",
        "ÄĻ"
      ],
      [
        "w",
        "iÄĻ"
      ],
      [
        "Ġsam",
        "o"
      ],
      [
        "la",
        "z"
      ],
      [
        "Ġj",
        "ÄĻ"
      ],
      [
        "Ġin",
        "spek"
      ],
      [
        "Ċ",
        "Ċ"
      ],
      [
        "Ġchwi",
        "li"
      ],
      [
        "M",
        "arci"
      ],
      [
        "ĠÅ¼e",
        "by"
      ],
      [
        "Ġgimnazj",
        "um"
      ],
      [
        "rz",
        "a"
      ],
      [
        "c",
        "ÄĻ"
      ],
      [
        "Å¼y",
        "ÅĤ"
      ],
      [
        "Ġrosy",
        "j"
      ],
      [
        "skie",
        "j"
      ],
      [
        "st",
        "wo"
      ],
      [
        "Ġpra",
        "wie"
      ],
      [
        "Ġt",
        "wa"
      ],
      [
        "Ġod",
        "p"
      ],
      [
        "Ġal",
        "bo"
      ],
      [
        "ĠD",
        "o"
      ],
      [
        "ĠWie",
        "chow"
      ],
      [
        "dzie",
        "j"
      ],
      [
        "ĠwiÄĻ",
        "c"
      ],
      [
        "t",
        "nie"
      ],
      [
        "Ġroz",
        "p"
      ],
      [
        "ĠZ",
        "a"
      ],
      [
        "cz",
        "ÄĻ"
      ],
      [
        "la",
        "ch"
      ],
      [
        "r",
        "ow"
      ],
      [
        "Ġpan",
        "a"
      ],
      [
        "ÅĽ",
        "mie"
      ],
      [
        "wa",
        "li"
      ],
      [
        "Ġsz",
        "cze"
      ],
      [
        "ra",
        "c"
      ],
      [
        "Ġs",
        "ÅĤy"
      ],
      [
        "ÅĽci",
        "Äħ"
      ],
      [
        "am",
        "iÄĻ"
      ],
      [
        "Ġdy",
        "rek"
      ],
      [
        "ĠK",
        "lery"
      ],
      [
        "Ġb",
        "ÄĻdzie"
      ],
      [
        "owi",
        "ad"
      ],
      [
        "Ġt",
        "ÅĤu"
      ],
      [
        "!",
        "âĢ¦"
      ],
      [
        "Ġka",
        "Å¼"
      ],
      [
        "ÅĽ",
        "rÃ³d"
      ],
      [
        "Ġjed",
        "nak"
      ],
      [
        "dz",
        "Äħc"
      ],
      [
        "ĠÅ¼",
        "ad"
      ],
      [
        "rÃ³",
        "t"
      ],
      [
        "Ġ",
        "ow"
      ],
      [
        "Ġm",
        "aÅĤ"
      ],
      [
        "ĠT",
        "o"
      ],
      [
        "Ġz",
        "up"
      ],
      [
        "Ġzup",
        "eÅĤ"
      ],
      [
        "Ġw",
        "a"
      ],
      [
        "Ġst",
        "a"
      ],
      [
        "ski",
        "m"
      ],
      [
        "Ġza",
        "w"
      ],
      [
        "Ã³",
        "b"
      ],
      [
        "no",
        "ÅĽÄĩ"
      ],
      [
        "Ġni",
        "ch"
      ],
      [
        "Ġwo",
        "l"
      ],
      [
        "Ġszy",
        "b"
      ],
      [
        "i",
        "st"
      ],
      [
        "o",
        "mo"
      ],
      [
        "sz",
        "o"
      ],
      [
        "k",
        "ry"
      ],
      [
        "Ġro",
        "dzi"
      ],
      [
        "w",
        "szy"
      ],
      [
        "Ġ",
        "U"
      ],
      [
        "da",
        "Äĩ"
      ],
      [
        "Ġnie",
        "j"
      ],
      [
        "Ġmo",
        "Å¼e"
      ],
      [
        "i",
        "i"
      ],
      [
        "Ġi",
        "z"
      ],
      [
        "owa",
        "Äĩ"
      ],
      [
        "Ġzacz",
        "ÄħÅĤ"
      ],
      [
        "ĠjÄĻ",
        "zy"
      ],
      [
        "ĠRad",
        "ek"
      ],
      [
        "Ġa",
        "Å¼"
      ],
      [
        "cz",
        "ki"
      ],
      [
        "Ġd",
        "wa"
      ],
      [
        "Ġf",
        "i"
      ],
      [
        "Ġni",
        "c"
      ],
      [
        "ĠC",
        "h"
      ],
      [
        "sta",
        "wi"
      ],
      [
        "si",
        "ÅĤ"
      ],
      [
        "ani",
        "u"
      ],
      [
        "Ġw",
        "sze"
      ],
      [
        "u",
        "sz"
      ],
      [
        "ĠksiÄħ",
        "Å¼"
      ],
      [
        "Ġpro",
        "fe"
      ],
      [
        "k",
        "owi"
      ],
      [
        "Ġni",
        "by"
      ],
      [
        "Ġp",
        "Ã³ÅĤ"
      ],
      [
        "ĠMarcin",
        "ka"
      ],
      [
        "Ġdo",
        "mu"
      ],
      [
        "Ġk",
        "at"
      ],
      [
        "Ġz",
        "ak"
      ],
      [
        "t",
        "Ã³w"
      ],
      [
        "Ġt",
        "ru"
      ],
      [
        "Ġost",
        "at"
      ],
      [
        "ro",
        "st"
      ],
      [
        "cze",
        "ÅĦ"
      ],
      [
        "Ġgdy",
        "Å¼"
      ],
      [
        "cz",
        "u"
      ],
      [
        "Ġwy",
        "raz"
      ],
      [
        "Ġg",
        "Ã³"
      ],
      [
        "Ġte",
        "raz"
      ],
      [
        "n",
        "ku"
      ],
      [
        "te",
        "r"
      ],
      [
        "Ġsze",
        "p"
      ],
      [
        "st",
        "Äħ"
      ],
      [
        "k",
        "t"
      ],
      [
        "Ġw",
        "ar"
      ],
      [
        "ch",
        "em"
      ],
      [
        "ÅĤ",
        "owie"
      ],
      [
        "Ã³",
        "d"
      ],
      [
        "Ġjed",
        "en"
      ],
      [
        "o",
        "l"
      ],
      [
        "ĠKlery",
        "k"
      ],
      [
        "c",
        "ki"
      ],
      [
        "Ġu",
        "t"
      ],
      [
        "t",
        "ÄĻ"
      ],
      [
        "ĠgÅĤo",
        "ÅĽ"
      ],
      [
        "ka",
        "z"
      ],
      [
        "Ġo",
        "s"
      ],
      [
        "cz",
        "ne"
      ],
      [
        "s",
        "ÅĤy"
      ],
      [
        "Ġb",
        "a"
      ],
      [
        "Ġu",
        "wa"
      ],
      [
        "p",
        "y"
      ],
      [
        "Ġo",
        "j"
      ],
      [
        "an",
        "Äħ"
      ],
      [
        "c",
        "o"
      ],
      [
        "Ã³",
        "l"
      ],
      [
        "Ġzaw",
        "sze"
      ],
      [
        "Ġjak",
        "i"
      ],
      [
        "Ġko",
        "le"
      ],
      [
        "Ġd",
        "e"
      ],
      [
        "Ġf",
        "or"
      ],
      [
        "d",
        "nie"
      ],
      [
        "ĠmÃ³",
        "gÅĤ"
      ],
      [
        "Ġkla",
        "sie"
      ],
      [
        "r",
        "aÅĤ"
      ],
      [
        "ĠBorowicz",
        "owa"
      ],
      [
        "Ġf",
        "u"
      ],
      [
        "Ġza",
        "raz"
      ],
      [
        "Ġpo",
        "p"
      ],
      [
        "ĠC",
        "o"
      ],
      [
        "em",
        "u"
      ],
      [
        "r",
        "Äħ"
      ],
      [
        "Ġg",
        "ra"
      ],
      [
        "n",
        "t"
      ],
      [
        "to",
        "ra"
      ],
      [
        "Ġk",
        "am"
      ],
      [
        "wi",
        "cz"
      ],
      [
        "Ġjak",
        "o"
      ],
      [
        "ĠMajew",
        "ski"
      ],
      [
        "Ġ",
        "lo"
      ],
      [
        "Ġc",
        "u"
      ],
      [
        "kie",
        "j"
      ],
      [
        "ĠgÅĤ",
        "owÄĻ"
      ],
      [
        "Ġd",
        "rze"
      ],
      [
        "Ġog",
        "rom"
      ],
      [
        "n",
        "Äħc"
      ],
      [
        "z",
        "ami"
      ],
      [
        "Ġdzie",
        "ci"
      ],
      [
        "dzi",
        "Äĩ"
      ],
      [
        "o",
        "k"
      ],
      [
        "or",
        "e"
      ],
      [
        "Ġsie",
        "bie"
      ],
      [
        "Ġmiejs",
        "ca"
      ],
      [
        "Ġ",
        "rzu"
      ],
      [
        "cj",
        "ÄĻ"
      ],
      [
        "Ġb",
        "ra"
      ],
      [
        "Ġrze",
        "czy"
      ],
      [
        "k",
        "ro"
      ],
      [
        "z",
        "ie"
      ],
      [
        "d",
        "ÄĻ"
      ],
      [
        "st",
        "aÅĤ"
      ],
      [
        "w",
        "aÅĤa"
      ],
      [
        "Marci",
        "nek"
      ],
      [
        "Ġwy",
        "so"
      ],
      [
        "Ġu",
        "ÅĽmie"
      ],
      [
        "Ġpra",
        "w"
      ],
      [
        "sz",
        "aÅĤ"
      ],
      [
        "j",
        "m"
      ],
      [
        "ĠÅĽ",
        "wie"
      ],
      [
        "ĠS",
        "t"
      ],
      [
        "Ġs",
        "we"
      ],
      [
        "Ġcz",
        "ÅĤowie"
      ],
      [
        "Ġu",
        "mie"
      ],
      [
        "Ġna",
        "le"
      ],
      [
        "m",
        "iÄĻ"
      ],
      [
        "Ġp",
        "amiÄĻ"
      ],
      [
        "Ġc",
        "e"
      ],
      [
        "cz",
        "aj"
      ],
      [
        "Ġd",
        "aw"
      ],
      [
        "ni",
        "Äħ"
      ],
      [
        "gl",
        "Äħd"
      ],
      [
        "g",
        "dy"
      ],
      [
        "ÅĤ",
        "aÅĤ"
      ],
      [
        "Ġm",
        "am"
      ],
      [
        "Ġu",
        "li"
      ],
      [
        "Ġzna",
        "j"
      ],
      [
        "ni",
        "ÅĤ"
      ],
      [
        "Ġp",
        "rowa"
      ],
      [
        "l",
        "nie"
      ],
      [
        "ĠmÃ³wi",
        "ÅĤ"
      ],
      [
        "pi",
        "s"
      ],
      [
        "sz",
        "ych"
      ],
      [
        "cj",
        "e"
      ],
      [
        "Ġdyrek",
        "tor"
      ],
      [
        "rz",
        "ÄĻ"
      ],
      [
        "ĠW",
        "i"
      ],
      [
        "o",
        "na"
      ],
      [
        "Ġk",
        "rzy"
      ],
      [
        "ÅĽ",
        "le"
      ],
      [
        "Ġspo",
        "j"
      ],
      [
        "ĠJ",
        "ÄĻd"
      ],
      [
        "d",
        "Äħ"
      ],
      [
        "Ġk",
        "an"
      ],
      [
        "z",
        "a"
      ],
      [
        "a",
        "z"
      ],
      [
        "te",
        "k"
      ],
      [
        "bi",
        "ÅĤ"
      ],
      [
        "u",
        "jÄħc"
      ],
      [
        "d",
        "ni"
      ],
      [
        "te",
        "dy"
      ],
      [
        "Ġw",
        "ÅĽrÃ³d"
      ],
      [
        "an",
        "ej"
      ],
      [
        "Ġna",
        "z"
      ],
      [
        "Ġb",
        "ru"
      ],
      [
        "Ġczas",
        "u"
      ],
      [
        "ca",
        "le"
      ],
      [
        "Ġmat",
        "ki"
      ],
      [
        "Ġmiejs",
        "cu"
      ],
      [
        "ra",
        "ch"
      ],
      [
        "ĠT",
        "ak"
      ],
      [
        "P",
        "o"
      ],
      [
        "Ġp",
        "e"
      ],
      [
        "ĠzupeÅĤ",
        "nie"
      ],
      [
        "ni",
        "aÅĤ"
      ],
      [
        "sz",
        "czy"
      ],
      [
        "Ġz",
        "ost"
      ],
      [
        "Ġm",
        "nie"
      ],
      [
        "Ġz",
        "ÅĤo"
      ],
      [
        "Ġmy",
        "ÅĽli"
      ],
      [
        "Ġwszyst",
        "ko"
      ],
      [
        "ĠÅĤa",
        "w"
      ],
      [
        "re",
        "w"
      ],
      [
        "rzy",
        "ÅĤ"
      ],
      [
        "Ġz",
        "m"
      ],
      [
        "e",
        "t"
      ],
      [
        "Å¼",
        "aÅĤ"
      ],
      [
        "koj",
        "u"
      ],
      [
        "Ġd",
        "a"
      ],
      [
        "Ġw",
        "cale"
      ],
      [
        "ĠBy",
        "ÅĤ"
      ],
      [
        "ĠC",
        "z"
      ],
      [
        "sz",
        "Äħ"
      ],
      [
        "Ġz",
        "da"
      ],
      [
        "Ġs",
        "ÅĤuch"
      ],
      [
        "Ġp",
        "Ã³"
      ],
      [
        "Å¼",
        "Äħc"
      ],
      [
        "Ġdru",
        "gi"
      ],
      [
        "ĠktÃ³r",
        "ej"
      ],
      [
        "Äħ",
        "z"
      ],
      [
        "Ġdo",
        "piero"
      ],
      [
        "Ġmo",
        "Å¼"
      ],
      [
        "Å¼e",
        "li"
      ],
      [
        "mi",
        "aÅĤ"
      ],
      [
        "Ġko",
        "ÅĦ"
      ],
      [
        "cz",
        "aÅĤ"
      ],
      [
        "Ġw",
        "stÄĻp"
      ],
      [
        "ĠwÅĤa",
        "s"
      ],
      [
        "Ġsw",
        "ego"
      ],
      [
        "Ġza",
        "d"
      ],
      [
        "Ġp",
        "al"
      ],
      [
        "t",
        "ej"
      ],
      [
        "ĠM",
        "i"
      ],
      [
        "Ġwi",
        "do"
      ],
      [
        "waÅĤ",
        "o"
      ],
      [
        "sz",
        "taÅĤ"
      ],
      [
        "Ġk",
        "to"
      ],
      [
        "Ġ",
        "Åº"
      ],
      [
        "ra",
        "j"
      ],
      [
        "s",
        "ow"
      ],
      [
        "Ġu",
        "my"
      ],
      [
        "e",
        "c"
      ],
      [
        "Ġwsze",
        "l"
      ],
      [
        "Ġ",
        "l"
      ],
      [
        "ĠN",
        "i"
      ],
      [
        "n",
        "aÅĤ"
      ],
      [
        "s",
        "or"
      ],
      [
        "Ġs",
        "mu"
      ],
      [
        "Ġc",
        "iÄĻ"
      ],
      [
        "Ġs",
        "ko"
      ],
      [
        "ad",
        "aÅĤ"
      ],
      [
        "Ġocz",
        "yma"
      ],
      [
        "w",
        "ajÄħc"
      ],
      [
        "Ġjakie",
        "ÅĽ"
      ],
      [
        "ne",
        "m"
      ],
      [
        "Ġmu",
        "si"
      ],
      [
        "ko",
        "l"
      ],
      [
        "k",
        "le"
      ],
      [
        "Ġk",
        "siÄĻ"
      ],
      [
        "Ġc",
        "aÅĤy"
      ],
      [
        "Ġk",
        "rze"
      ],
      [
        "Ġprze",
        "cie"
      ],
      [
        "dzi",
        "ÅĤa"
      ],
      [
        "Ġi",
        "t"
      ],
      [
        "p",
        "ety"
      ],
      [
        "c",
        "Äħ"
      ],
      [
        "Ġmo",
        "g"
      ],
      [
        "Ġcz",
        "ÄĻ"
      ],
      [
        "wi",
        "aÅĤ"
      ],
      [
        "rz",
        "Äħd"
      ],
      [
        "Ġdru",
        "gie"
      ],
      [
        "Ġkam",
        "ie"
      ],
      [
        "dz",
        "aj"
      ],
      [
        "Ġmiejs",
        "ce"
      ],
      [
        "Ġpod",
        "ob"
      ],
      [
        "g",
        "ra"
      ],
      [
        "ie",
        "dy"
      ],
      [
        "czy",
        "Äĩ"
      ],
      [
        "Ġd",
        "nia"
      ],
      [
        "Ġst",
        "ra"
      ],
      [
        "c",
        "ami"
      ],
      [
        "kol",
        "wie"
      ],
      [
        "Ġmiesz",
        "k"
      ],
      [
        "Ġmy",
        "ÅĽl"
      ],
      [
        "Ġs",
        "ku"
      ],
      [
        "Ġkil",
        "ku"
      ],
      [
        "Ġit",
        "d"
      ],
      [
        "ore",
        "pety"
      ],
      [
        "Ġt",
        "rzy"
      ],
      [
        "Ġm",
        "ÄĻ"
      ],
      [
        "k",
        "nÄħÅĤ"
      ],
      [
        "anie",
        "m"
      ],
      [
        "ĠW",
        "szy"
      ],
      [
        "Ġe",
        "g"
      ],
      [
        "ĠÅĽ",
        "pie"
      ],
      [
        "ÅĤ",
        "e"
      ],
      [
        "Ġra",
        "d"
      ],
      [
        "ĠmÅĤo",
        "dzie"
      ],
      [
        "ory",
        "ta"
      ],
      [
        "Ġro",
        "dzaj"
      ],
      [
        "ĠPrze",
        "pi"
      ],
      [
        "ow",
        "e"
      ],
      [
        "Ġoko",
        "li"
      ],
      [
        "ca",
        "ch"
      ],
      [
        "Ġkil",
        "ka"
      ],
      [
        "ow",
        "Äħ"
      ],
      [
        "ĠgÅĤÄĻ",
        "bo"
      ],
      [
        "Ġwy",
        "d"
      ],
      [
        "ĠrÃ³w",
        "nie"
      ],
      [
        "ĠcaÅĤ",
        "Äħ"
      ],
      [
        "nÄĻ",
        "ÅĤy"
      ],
      [
        "t",
        "ego"
      ],
      [
        "g",
        "le"
      ],
      [
        "ĠJ",
        "ak"
      ],
      [
        "Ġte",
        "Å¼"
      ],
      [
        "ĠÅĽ",
        "rod"
      ],
      [
        "Ġspos",
        "Ã³b"
      ],
      [
        "t",
        "rze"
      ],
      [
        "ĠP",
        "an"
      ],
      [
        "ĠC",
        "zy"
      ],
      [
        "st",
        "u"
      ],
      [
        "r",
        "i"
      ],
      [
        "Ġa",
        "Å¼e"
      ],
      [
        "ĠÅ",
        "»"
      ],
      [
        "Ġp",
        "ÅĤa"
      ],
      [
        "ÅĤ",
        "Äħ"
      ],
      [
        "Ġsw",
        "ym"
      ],
      [
        "ĠktÃ³r",
        "ych"
      ],
      [
        "ch",
        "aÅĤ"
      ],
      [
        "czas",
        "em"
      ],
      [
        "ÅĤo",
        "ÅĽci"
      ],
      [
        "Ġszko",
        "l"
      ],
      [
        "ci",
        "Äħ"
      ],
      [
        "Ġdzi",
        "w"
      ],
      [
        "Ġo",
        "by"
      ],
      [
        "ÅĽ",
        "la"
      ],
      [
        "Ġz",
        "ro"
      ],
      [
        "Ġk",
        "orepety"
      ],
      [
        "Ġna",
        "stÄĻp"
      ],
      [
        "Ġg",
        "ro"
      ],
      [
        "Ã³w",
        "czas"
      ],
      [
        "Ġcie",
        "m"
      ],
      [
        "Ġeg",
        "zami"
      ],
      [
        "Ġodp",
        "owie"
      ],
      [
        "ow",
        "ej"
      ],
      [
        "Ġinspek",
        "tor"
      ],
      [
        "Ġszko",
        "ÅĤy"
      ],
      [
        "st",
        "an"
      ],
      [
        "wy",
        "czaj"
      ],
      [
        "t",
        "rz"
      ],
      [
        "ale",
        "c"
      ],
      [
        "Ġzap",
        "y"
      ],
      [
        "ĠA",
        "le"
      ],
      [
        "e",
        "ÅĽ"
      ],
      [
        "aj",
        "e"
      ],
      [
        "N",
        "a"
      ],
      [
        "kolwie",
        "k"
      ],
      [
        "Ġby",
        "Äĩ"
      ],
      [
        "Ġna",
        "p"
      ],
      [
        "ro",
        "k"
      ],
      [
        "Ġtak",
        "i"
      ],
      [
        "Ġpo",
        "koju"
      ],
      [
        "rz",
        "ÄĻd"
      ],
      [
        "resz",
        "tÄħ"
      ],
      [
        "ni",
        "cy"
      ],
      [
        "Ġcz",
        "u"
      ],
      [
        "resz",
        "cie"
      ],
      [
        "m",
        "ej"
      ],
      [
        "aw",
        "ro"
      ],
      [
        "r",
        "an"
      ],
      [
        "Ġdob",
        "rze"
      ],
      [
        "Ġb",
        "ÄĻd"
      ],
      [
        "e",
        "d"
      ],
      [
        "Ġp",
        "anie"
      ],
      [
        "w",
        "aj"
      ],
      [
        "Ġk",
        "oryta"
      ],
      [
        "Ġi",
        "st"
      ],
      [
        "Ġpierwsz",
        "ej"
      ],
      [
        "Ġz",
        "im"
      ],
      [
        "sz",
        "ego"
      ],
      [
        "te",
        "Å¼"
      ],
      [
        "Ġjed",
        "no"
      ],
      [
        "Ġwy",
        "k"
      ],
      [
        "st",
        "wa"
      ],
      [
        "Ġk",
        "sztaÅĤ"
      ],
      [
        "c",
        "iÄĻ"
      ],
      [
        "Ġnie",
        "po"
      ],
      [
        "ta",
        "Äĩ"
      ],
      [
        "ĠrÄĻ",
        "ce"
      ],
      [
        "Ġw",
        "ym"
      ],
      [
        "Ġrze",
        "cz"
      ],
      [
        "p",
        "a"
      ],
      [
        "Ġpo",
        "cz"
      ],
      [
        "Ġd",
        "r"
      ],
      [
        "Ġszyb",
        "ko"
      ],
      [
        "Ġu",
        "si"
      ],
      [
        "rz",
        "o"
      ],
      [
        "t",
        "wo"
      ],
      [
        "d",
        "li"
      ],
      [
        "ĠgÅĤo",
        "s"
      ],
      [
        "c",
        "em"
      ],
      [
        "i",
        "a"
      ],
      [
        "Ġd",
        "wu"
      ],
      [
        "Ġwszy",
        "scy"
      ],
      [
        "ĠaÅ¼e",
        "by"
      ],
      [
        "z",
        "na"
      ],
      [
        "Ġh",
        "ist"
      ],
      [
        "dzi",
        "ÅĤy"
      ],
      [
        "Ġb",
        "rze"
      ],
      [
        "aj",
        "em"
      ],
      [
        "Ġst",
        "rze"
      ],
      [
        "Ġp",
        "eÅĤ"
      ],
      [
        "Ġswo",
        "jÄħ"
      ],
      [
        "Ġpy",
        "t"
      ],
      [
        "ci",
        "u"
      ],
      [
        "cz",
        "Äħc"
      ],
      [
        "Ġz",
        "bli"
      ],
      [
        "r",
        "wo"
      ],
      [
        "Ġm",
        "ar"
      ],
      [
        "cz",
        "nym"
      ],
      [
        "Ġla",
        "t"
      ],
      [
        "cze",
        "k"
      ],
      [
        "ĠW",
        "ÅĤa"
      ],
      [
        "ĠgÅĤÄĻ",
        "bi"
      ],
      [
        "cj",
        "a"
      ],
      [
        "ĠwÅĤa",
        "ÅĽnie"
      ],
      [
        "ob",
        "Äħ"
      ],
      [
        "ĠO",
        "d"
      ],
      [
        "m",
        "aty"
      ],
      [
        "ad",
        "a"
      ],
      [
        "nie",
        "c"
      ],
      [
        "ĠmoÅ¼",
        "na"
      ],
      [
        "r",
        "Ã³w"
      ],
      [
        "ĠM",
        "o"
      ],
      [
        "cz",
        "ny"
      ],
      [
        "cz",
        "ka"
      ],
      [
        "Ġ",
        "ÅĤo"
      ],
      [
        "Ġlek",
        "cji"
      ],
      [
        "Ġw",
        "sp"
      ],
      [
        "Ġwi",
        "dziaÅĤ"
      ],
      [
        "ĠÅĽ",
        "mie"
      ],
      [
        "cze",
        "nia"
      ],
      [
        "ĠWiechow",
        "ski"
      ],
      [
        "dze",
        "nia"
      ],
      [
        "m",
        "en"
      ],
      [
        "ajÄħc",
        "e"
      ],
      [
        "Ġsz",
        "a"
      ],
      [
        "cze",
        "nie"
      ],
      [
        "ĠktÃ³re",
        "go"
      ],
      [
        "d",
        "no"
      ],
      [
        "Ġ",
        "ak"
      ],
      [
        "Ġst",
        "aÅĤ"
      ],
      [
        "t",
        "ym"
      ],
      [
        "Ġd",
        "aÅĤ"
      ],
      [
        "s",
        "ÅĤa"
      ],
      [
        "Ġsi",
        "Ã³d"
      ],
      [
        "ĠciÄħg",
        "le"
      ],
      [
        "Ġdale",
        "j"
      ],
      [
        "Ġwszyst",
        "kich"
      ],
      [
        "Ġli",
        "te"
      ],
      [
        "Ġu",
        "czeÅĦ"
      ],
      [
        "n",
        "ow"
      ],
      [
        "cz",
        "nej"
      ],
      [
        "Ġku",
        "r"
      ],
      [
        "ar",
        "ÅĤ"
      ],
      [
        "Ġuczni",
        "Ã³w"
      ],
      [
        "Ġgimnazj",
        "al"
      ],
      [
        "cz",
        "ej"
      ],
      [
        "Ġz",
        "wie"
      ],
      [
        "s",
        "ÅĤu"
      ],
      [
        "ĠW",
        "y"
      ],
      [
        "u",
        "d"
      ],
      [
        "ĠBorowicz",
        "a"
      ],
      [
        "Ġ",
        "Ã³w"
      ],
      [
        "Ġko",
        "l"
      ],
      [
        "pie",
        "c"
      ],
      [
        "Ġucz",
        "u"
      ],
      [
        "Ġgdy",
        "by"
      ],
      [
        "Ġm",
        "niej"
      ],
      [
        "w",
        "em"
      ],
      [
        "ĠB",
        "o"
      ],
      [
        "ĠcaÅĤ",
        "ej"
      ],
      [
        "ĠktÃ³",
        "ra"
      ],
      [
        "Ġs",
        "obÄħ"
      ],
      [
        "Ġz",
        "resztÄħ"
      ],
      [
        "ĠsÅĤ",
        "owa"
      ],
      [
        "Ġpo",
        "li"
      ],
      [
        "Ġc",
        "Ã³Å¼"
      ],
      [
        "Å¼e",
        "j"
      ],
      [
        "Ġno",
        "cy"
      ],
      [
        "Ġst",
        "anie"
      ],
      [
        "ob",
        "a"
      ],
      [
        "pi",
        "ÅĤ"
      ],
      [
        "Ġjaki",
        "ÅĽ"
      ],
      [
        "ĠÅĽ",
        "mier"
      ],
      [
        "ta",
        "ch"
      ],
      [
        "ĠgÅĤo",
        "sem"
      ],
      [
        "cze",
        "go"
      ],
      [
        "Ġs",
        "ÅĤo"
      ],
      [
        "Ġg",
        "Ã³r"
      ],
      [
        "Ġko",
        "n"
      ],
      [
        "Ġprofe",
        "sor"
      ],
      [
        "Ġmi",
        "a"
      ],
      [
        "Ġprzy",
        "p"
      ],
      [
        "Å¼",
        "o"
      ],
      [
        "Ġp",
        "le"
      ],
      [
        "wie",
        "n"
      ],
      [
        "Ġmo",
        "c"
      ],
      [
        "Å¼",
        "nie"
      ],
      [
        "Ġcz",
        "ar"
      ],
      [
        "Ġwi",
        "dzi"
      ],
      [
        "Ġz",
        "ami"
      ],
      [
        "ĠK",
        "iedy"
      ],
      [
        "cz",
        "a"
      ],
      [
        "ĠrÃ³wnie",
        "Å¼"
      ],
      [
        "li",
        "ÅĤ"
      ],
      [
        "ÅĤ",
        "ÄĻ"
      ],
      [
        "Å¼e",
        "nia"
      ],
      [
        "ĠpÃ³",
        "Åº"
      ],
      [
        "tu",
        "ry"
      ],
      [
        "p",
        "li"
      ],
      [
        "t",
        "Äħd"
      ],
      [
        "Ġnauczycie",
        "la"
      ],
      [
        "ĠwiÄĻc",
        "ej"
      ],
      [
        "d",
        "Åº"
      ],
      [
        "s",
        "kÄħ"
      ],
      [
        "Ġsy",
        "n"
      ],
      [
        "Ġob",
        "ok"
      ],
      [
        "Ġni",
        "Å¼"
      ],
      [
        "Ġd",
        "wie"
      ],
      [
        "Ġwszyst",
        "kie"
      ],
      [
        "Ġpol",
        "sku"
      ],
      [
        "Ġrosy",
        "js"
      ],
      [
        "Ġpo",
        "g"
      ],
      [
        "n",
        "k"
      ],
      [
        "Ġpi",
        "s"
      ],
      [
        "n",
        "nie"
      ],
      [
        "wie",
        "r"
      ],
      [
        "Ġstan",
        "cji"
      ],
      [
        "Ġo",
        "ka"
      ],
      [
        "ĠdÅĤu",
        "gi"
      ],
      [
        "Ġza",
        "wo"
      ],
      [
        "Ġi",
        "m"
      ],
      [
        "ÅĦ",
        "ca"
      ],
      [
        "Ġkla",
        "s"
      ],
      [
        "ÅĤa",
        "d"
      ],
      [
        "ĠNo",
        "ga"
      ],
      [
        "Ġpa",
        "ÅĦ"
      ],
      [
        "Ġje",
        "dy"
      ],
      [
        "Ġnie",
        "u"
      ],
      [
        "rzym",
        "aÅĤ"
      ],
      [
        "Ġk",
        "rÃ³t"
      ],
      [
        "Ġsz",
        "lach"
      ],
      [
        "ĠpiÄĻ",
        "k"
      ],
      [
        "g",
        "aÅĤ"
      ],
      [
        "cie",
        "c"
      ],
      [
        "rze",
        "Äĩ"
      ],
      [
        "Ġdale",
        "ko"
      ],
      [
        "aj",
        "Äħ"
      ],
      [
        "Ġu",
        "sta"
      ],
      [
        "Ġd",
        "Åº"
      ],
      [
        "Ġsze",
        "ro"
      ],
      [
        "cz",
        "nych"
      ],
      [
        "mie",
        "nie"
      ],
      [
        "Ġszcze",
        "g"
      ],
      [
        "Ġwy",
        "ra"
      ],
      [
        "Ġprzy",
        "by"
      ],
      [
        "ĠP",
        "rzy"
      ],
      [
        "Ġz",
        "o"
      ],
      [
        "su",
        "nÄħÅĤ"
      ],
      [
        "Ġni",
        "Äħ"
      ],
      [
        "st",
        "ar"
      ],
      [
        "Ġi",
        "sto"
      ],
      [
        "ra",
        "w"
      ],
      [
        "Ġ",
        "H"
      ],
      [
        "ĠG",
        "awro"
      ],
      [
        "Ġni",
        "ko"
      ],
      [
        "laz",
        "ÅĤ"
      ],
      [
        "Ġsz",
        "tu"
      ],
      [
        "Ġbar",
        "dziej"
      ],
      [
        "ĠwÅĤa",
        "ÅĽci"
      ],
      [
        "*",
        "."
      ],
      [
        "kÄħ",
        "d"
      ],
      [
        "Ġwi",
        "ad"
      ],
      [
        "Äħt",
        "ej"
      ],
      [
        "ĠKleryk",
        "owie"
      ],
      [
        "Ġ",
        "Ġ"
      ],
      [
        "Ġko",
        "leg"
      ],
      [
        "la",
        "si"
      ],
      [
        "ĠJÄĻd",
        "rek"
      ],
      [
        "kie",
        "wicz"
      ],
      [
        "y",
        "gie"
      ],
      [
        "Ġg",
        "ar"
      ],
      [
        "ĠciÄĻ",
        "Å¼"
      ],
      [
        "Ġ",
        "Äĩ"
      ],
      [
        "Ġty",
        "le"
      ],
      [
        "w",
        "or"
      ],
      [
        "st",
        "e"
      ],
      [
        "s",
        "Ã³w"
      ],
      [
        "Ġk",
        "ry"
      ],
      [
        "Ã³",
        "z"
      ],
      [
        "Ġsze",
        "dÅĤ"
      ],
      [
        "Ġmi",
        "l"
      ],
      [
        "u",
        "r"
      ],
      [
        "Ġg",
        "u"
      ],
      [
        "Ġw",
        "ÅĤo"
      ],
      [
        "Ġco",
        "raz"
      ],
      [
        "Ġroz",
        "u"
      ],
      [
        "Ġsw",
        "ej"
      ],
      [
        "Ġiz",
        "by"
      ],
      [
        "Ġg",
        "e"
      ],
      [
        "Ġmat",
        "ka"
      ],
      [
        "rz",
        "Äħc"
      ],
      [
        "Ġza",
        "b"
      ],
      [
        "ci",
        "ÅĤa"
      ],
      [
        "an",
        "ego"
      ],
      [
        "ÅĽci",
        "a"
      ],
      [
        "ĠmÅĤo",
        "d"
      ],
      [
        "ra",
        "Äĩ"
      ],
      [
        "nÄħ",
        "Äĩ"
      ],
      [
        "Ġsto",
        "p"
      ],
      [
        "Ġin",
        "te"
      ],
      [
        "ich",
        "ci"
      ],
      [
        "Ġraz",
        "u"
      ],
      [
        "Ġsw",
        "ych"
      ],
      [
        "ĠwstÄĻp",
        "nej"
      ],
      [
        "t",
        "aÅĤa"
      ],
      [
        "ak",
        "Ã³w"
      ],
      [
        "Ġod",
        "da"
      ],
      [
        "Ġhist",
        "or"
      ],
      [
        "Ġzie",
        "mi"
      ],
      [
        "te",
        "t"
      ],
      [
        "Ġdzie",
        "ÅĦ"
      ],
      [
        "Ġm",
        "al"
      ],
      [
        "Ġniez",
        "mier"
      ],
      [
        "rz",
        "as"
      ],
      [
        "l",
        "aÅĤ"
      ],
      [
        "Ġtwa",
        "rzy"
      ],
      [
        "Ġt",
        "ro"
      ],
      [
        "Ġsie",
        "dziaÅĤ"
      ],
      [
        "mi",
        "o"
      ],
      [
        "r",
        "wi"
      ],
      [
        "Å¼",
        "a"
      ],
      [
        "a",
        "p"
      ],
      [
        "Ġza",
        "ch"
      ],
      [
        "Ġp",
        "rÄĻ"
      ],
      [
        "sz",
        "u"
      ],
      [
        "Ġw",
        "Äħ"
      ],
      [
        "ĠwiÄĻ",
        "k"
      ],
      [
        "ĠP",
        "i"
      ],
      [
        "ĠT",
        "e"
      ],
      [
        "Ġspos",
        "ob"
      ],
      [
        "Ġchwi",
        "lÄĻ"
      ],
      [
        "ow",
        "ego"
      ],
      [
        "dz",
        "a"
      ],
      [
        "n",
        "ni"
      ],
      [
        "Ġno",
        "gi"
      ],
      [
        "noÅĽci",
        "Äħ"
      ],
      [
        "Ġ",
        "ry"
      ],
      [
        "ĠmÃ³wi",
        "Äĩ"
      ],
      [
        "Ġtakie",
        "go"
      ],
      [
        "Ġs",
        "ÅĤu"
      ],
      [
        "d",
        "ÅĤu"
      ],
      [
        "Ġroz",
        "m"
      ],
      [
        "Ġu",
        "ro"
      ],
      [
        "Ġle",
        "cz"
      ],
      [
        "k",
        "rÃ³t"
      ],
      [
        "krÃ³t",
        "ce"
      ],
      [
        "ĠgÅĤoÅĽ",
        "no"
      ],
      [
        "Ġ",
        "ary"
      ],
      [
        "Äħc",
        "e"
      ],
      [
        "Ġwi",
        "daÄĩ"
      ],
      [
        "ĠS",
        "ie"
      ],
      [
        "w",
        "Äħ"
      ],
      [
        "cy",
        "j"
      ],
      [
        "t",
        "ne"
      ],
      [
        "ĠkaÅ¼",
        "d"
      ],
      [
        "ra",
        "wi"
      ],
      [
        "Ġb",
        "la"
      ],
      [
        "Ġgo",
        "spo"
      ],
      [
        "Ġwol",
        "no"
      ],
      [
        "o",
        "nych"
      ],
      [
        "Ġpo",
        "sta"
      ],
      [
        "ĠL",
        "e"
      ],
      [
        "ĠMarci",
        "na"
      ],
      [
        "t",
        "ar"
      ],
      [
        "Ġc",
        "y"
      ],
      [
        "b",
        "ÄĻ"
      ],
      [
        "ÅĤ",
        "em"
      ],
      [
        "Ġz",
        "ni"
      ],
      [
        "Ġz",
        "mie"
      ],
      [
        "Ġjak",
        "ich"
      ],
      [
        "g",
        "ÅĤa"
      ],
      [
        "Ġch",
        "u"
      ],
      [
        "ma",
        "i"
      ],
      [
        "ra",
        "mi"
      ],
      [
        "Ġwie",
        "dzieÄĩ"
      ],
      [
        "Ġstan",
        "owi"
      ],
      [
        "ĠrÄĻ",
        "kÄĻ"
      ],
      [
        "Ġwy",
        "szedÅĤ"
      ],
      [
        "Ġpo",
        "mo"
      ],
      [
        "te",
        "l"
      ],
      [
        "j",
        "em"
      ],
      [
        "Ġcze",
        "go"
      ],
      [
        "my",
        "ÅĽl"
      ],
      [
        "ĠP",
        "a"
      ],
      [
        "ĠpamiÄĻ",
        "Äĩ"
      ],
      [
        "Ġco",
        "ÅĽ"
      ],
      [
        "t",
        "m"
      ],
      [
        "ĠtÅĤu",
        "ma"
      ],
      [
        "ĠW",
        "ar"
      ],
      [
        "ĠsÄħ",
        "sie"
      ],
      [
        "ĠP",
        "ro"
      ],
      [
        "k",
        "niÄĻ"
      ],
      [
        "ci",
        "w"
      ],
      [
        "Ġwy",
        "kÅĤad"
      ],
      [
        "da",
        "go"
      ],
      [
        "ajÄħc",
        "y"
      ],
      [
        "ĠktÃ³",
        "rzy"
      ],
      [
        "Ġz",
        "ja"
      ],
      [
        "ĠR",
        "os"
      ],
      [
        "ak",
        "a"
      ],
      [
        "Ġu",
        "st"
      ],
      [
        "Ġzw",
        "rÃ³"
      ],
      [
        "jÄħc",
        "e"
      ],
      [
        "Ġdzie",
        "dzi"
      ],
      [
        "ĠZ",
        "ygie"
      ],
      [
        "ĠÅĤ",
        "Ã³Å¼"
      ],
      [
        "w",
        "ÄĻ"
      ],
      [
        "Ġu",
        "kry"
      ],
      [
        "Ġjed",
        "nym"
      ],
      [
        "Ġprze",
        "r"
      ],
      [
        "Ġpie",
        "r"
      ],
      [
        "Ġjakie",
        "j"
      ],
      [
        "l",
        "ar"
      ],
      [
        "an",
        "ym"
      ],
      [
        "Ġszko",
        "le"
      ],
      [
        "Ġk",
        "i"
      ],
      [
        "Ġwie",
        "r"
      ],
      [
        "t",
        "ki"
      ],
      [
        "d",
        "aÅĤ"
      ],
      [
        "sz",
        "ym"
      ],
      [
        "gl",
        "ÄĻd"
      ],
      [
        "u",
        "czycie"
      ],
      [
        "Ġtwa",
        "rz"
      ],
      [
        "wa",
        "Å¼"
      ],
      [
        "rze",
        "nia"
      ],
      [
        "Ġwy",
        "ko"
      ],
      [
        "wa",
        "le"
      ],
      [
        "le",
        "m"
      ],
      [
        "w",
        "ym"
      ],
      [
        "Ġdz",
        "wo"
      ],
      [
        "Ġz",
        "wy"
      ],
      [
        "sy",
        "Äĩ"
      ],
      [
        "u",
        "szcz"
      ],
      [
        "Ġw",
        "si"
      ],
      [
        "si",
        "a"
      ],
      [
        "ow",
        "aÅĤa"
      ],
      [
        "Ġku",
        "ch"
      ],
      [
        "ĠdÅĤu",
        "go"
      ],
      [
        "Ġna",
        "gle"
      ],
      [
        "ĠWszy",
        "st"
      ],
      [
        "Ġstar",
        "y"
      ],
      [
        "ka",
        "zy"
      ],
      [
        "Ġu",
        "rzÄĻd"
      ],
      [
        "Ġary",
        "tm"
      ],
      [
        "ajÄħc",
        "ych"
      ],
      [
        "Ġro",
        "bi"
      ],
      [
        "te",
        "ry"
      ],
      [
        "Ġdrugie",
        "j"
      ],
      [
        "ow",
        "ania"
      ],
      [
        "Ġgra",
        "maty"
      ],
      [
        "Ġczas",
        "ie"
      ],
      [
        "Ġwiad",
        "omo"
      ],
      [
        "ĠRos",
        "j"
      ],
      [
        "ki",
        "mi"
      ],
      [
        "Ġpan",
        "u"
      ],
      [
        "Ġb",
        "ro"
      ],
      [
        "Ġs",
        "cho"
      ],
      [
        "Ġostat",
        "ni"
      ],
      [
        "ni",
        "st"
      ],
      [
        "szy",
        "ÅĤ"
      ],
      [
        "Ġrodzaj",
        "u"
      ],
      [
        "Ġprzy",
        "sz"
      ],
      [
        "k",
        "lasi"
      ],
      [
        "d",
        "wo"
      ],
      [
        "Ġwz",
        "g"
      ],
      [
        "ĠÅĽ",
        "nie"
      ],
      [
        "Ġu",
        "k"
      ],
      [
        "Ġmi",
        "aÅĤa"
      ],
      [
        "g",
        "ach"
      ],
      [
        "Ġza",
        "ro"
      ],
      [
        "Ġni",
        "gdy"
      ],
      [
        "Ġp",
        "ÅĤo"
      ],
      [
        "ĠdÅĤu",
        "gie"
      ],
      [
        "Ġt",
        "ajem"
      ],
      [
        "Ġbo",
        "le"
      ],
      [
        "strze",
        "gÅĤ"
      ],
      [
        "Ġt",
        "wo"
      ],
      [
        "Ġw",
        "st"
      ],
      [
        "nÄĻ",
        "ÅĤo"
      ],
      [
        "Ġnie",
        "co"
      ],
      [
        "b",
        "e"
      ],
      [
        "mi",
        "ast"
      ],
      [
        "Ġz",
        "ÄĻ"
      ],
      [
        "ra",
        "l"
      ],
      [
        "Ġs",
        "ek"
      ],
      [
        "Ġsek",
        "re"
      ],
      [
        "Ġza",
        "ÅĽ"
      ],
      [
        "st",
        "em"
      ],
      [
        "Ġni",
        "kt"
      ],
      [
        "ni",
        "Ã³"
      ],
      [
        "Ġdo",
        "syÄĩ"
      ],
      [
        "Ġu",
        "czy"
      ],
      [
        "czy",
        "na"
      ],
      [
        "Ġsw",
        "Ã³j"
      ],
      [
        "g",
        "ÅĤo"
      ],
      [
        "ĠK",
        "a"
      ],
      [
        "g",
        "ami"
      ],
      [
        "Ġw",
        "reszcie"
      ],
      [
        "Ġtrze",
        "ba"
      ],
      [
        "Ġgodzi",
        "ny"
      ],
      [
        "ĠsiÃ³d",
        "mej"
      ],
      [
        "Å¼e",
        "nie"
      ],
      [
        "ka",
        "Äĩ"
      ],
      [
        "Ġw",
        "szedÅĤ"
      ],
      [
        "k",
        "tÃ³"
      ],
      [
        "ĠM",
        "ichci"
      ],
      [
        "Ġsp",
        "y"
      ],
      [
        "Ġkat",
        "ed"
      ],
      [
        "ĠsÅĤy",
        "sze"
      ],
      [
        "Ġarytm",
        "ety"
      ],
      [
        "Ġb",
        "ÅĤo"
      ],
      [
        "Ġ",
        "("
      ],
      [
        "p",
        "e"
      ],
      [
        "n",
        "Ã³w"
      ],
      [
        "Ġ",
        "rÃ³Å¼"
      ],
      [
        "Ġwp",
        "rost"
      ],
      [
        "kro",
        "Äĩ"
      ],
      [
        "Ġm",
        "Ã³w"
      ],
      [
        "Ġwy",
        "j"
      ],
      [
        "wi",
        "z"
      ],
      [
        "Ġk",
        "lery"
      ],
      [
        "ĠÅĤa",
        "ci"
      ],
      [
        "ĠKleryk",
        "owa"
      ],
      [
        "ĠLe",
        "im"
      ],
      [
        "ĠgÅĤ",
        "Ã³w"
      ],
      [
        "glÄħd",
        "aÅĤ"
      ],
      [
        "Ġsy",
        "na"
      ],
      [
        "Ġpier",
        "si"
      ],
      [
        "Ġnie",
        "m"
      ],
      [
        "Ġdu",
        "Å¼e"
      ],
      [
        "Ġpo",
        "tem"
      ],
      [
        "Ġu",
        "cie"
      ],
      [
        "Ġbi",
        "aÅĤ"
      ],
      [
        "Ġko",
        "ch"
      ],
      [
        "Ġser",
        "ca"
      ],
      [
        "Ġu",
        "kaz"
      ],
      [
        "Ġpar",
        "k"
      ],
      [
        "Ġup",
        "ÅĤy"
      ],
      [
        "Ġw",
        "cho"
      ],
      [
        "am",
        "y"
      ],
      [
        "Ġpo",
        "t"
      ],
      [
        "Ġnie",
        "p"
      ],
      [
        "Ġcho",
        "Äĩ"
      ],
      [
        "Ġp",
        "owi"
      ],
      [
        "Ġrze",
        "kÅĤa"
      ],
      [
        "Ġrozu",
        "mie"
      ],
      [
        "cie",
        "m"
      ],
      [
        "Ġmieszk",
        "ania"
      ],
      [
        "r",
        "em"
      ],
      [
        "Ġwszyst",
        "kim"
      ],
      [
        "ÅĽ",
        "wi"
      ],
      [
        "u",
        "ÅĽci"
      ],
      [
        "Ġwy",
        "ciÄħg"
      ],
      [
        "Ġkie",
        "ru"
      ],
      [
        "ĠcaÅĤ",
        "ym"
      ],
      [
        "niÃ³",
        "sÅĤ"
      ],
      [
        "Ġm",
        "ru"
      ],
      [
        "aÅĤ",
        "em"
      ],
      [
        "ĠmÃ³",
        "j"
      ],
      [
        "?",
        "âĢ¦"
      ],
      [
        "mie",
        "niu"
      ],
      [
        "a",
        "cz"
      ],
      [
        "ĠK",
        "to"
      ],
      [
        "k",
        "Ã³j"
      ],
      [
        "Ġo",
        "to"
      ],
      [
        "Ġno",
        "c"
      ],
      [
        "Ġw",
        "rzas"
      ],
      [
        "li",
        "wie"
      ],
      [
        "e",
        "sz"
      ],
      [
        "dzie",
        "li"
      ],
      [
        "Ġz",
        "oba"
      ],
      [
        "cze",
        "niu"
      ],
      [
        "Ġw",
        "ej"
      ],
      [
        "Ġ",
        "E"
      ],
      [
        "d",
        "wie"
      ],
      [
        "Ġstan",
        "ÄħÅĤ"
      ],
      [
        "Ġnaz",
        "wi"
      ],
      [
        "owa",
        "rzy"
      ],
      [
        "ĠczÄĻ",
        "sto"
      ],
      [
        "Ġpra",
        "g"
      ],
      [
        "Ġm",
        "e"
      ],
      [
        "Ġprofe",
        "so"
      ],
      [
        "Ġnale",
        "Å¼y"
      ],
      [
        "dz",
        "aÅĤ"
      ],
      [
        "sz",
        "li"
      ],
      [
        "Ġnie",
        "raz"
      ],
      [
        "Ġmiesz",
        "ka"
      ],
      [
        "Ġzawo",
        "ÅĤaÅĤ"
      ],
      [
        "nie",
        "nie"
      ],
      [
        "Ġo",
        "so"
      ],
      [
        "ĠPo",
        "l"
      ],
      [
        "wi",
        "ÅĤ"
      ],
      [
        "Ġmie",
        "ÅĽci"
      ],
      [
        "Ã³",
        "rzy"
      ],
      [
        "Ġ",
        "Ã³"
      ],
      [
        "ĠÃ³",
        "s"
      ],
      [
        "t",
        "ymi"
      ],
      [
        "Ġm",
        "as"
      ],
      [
        "Ġg",
        "ÄĻ"
      ],
      [
        "Ġok",
        "ry"
      ],
      [
        "Ġko",
        "ÅĤ"
      ],
      [
        "ĠktÃ³r",
        "ym"
      ],
      [
        "Ġwido",
        "k"
      ],
      [
        "Ġsz",
        "u"
      ],
      [
        "o",
        "z"
      ],
      [
        "ĠuÅĽmie",
        "ch"
      ],
      [
        "n",
        "du"
      ],
      [
        "rzÄħ",
        "s"
      ],
      [
        "ĠT",
        "ym"
      ],
      [
        "ĠpÃ³Åº",
        "niej"
      ],
      [
        "Ġkil",
        "k"
      ],
      [
        "ch",
        "ÄĻ"
      ],
      [
        "Ġst",
        "aÅĤa"
      ],
      [
        "ko",
        "ÅĤa"
      ],
      [
        "cj",
        "Äħ"
      ],
      [
        "Ġpro",
        "szÄĻ"
      ],
      [
        "b",
        "Äħ"
      ],
      [
        "at",
        "e"
      ],
      [
        "Ġte",
        "dy"
      ],
      [
        "Äħc",
        "ych"
      ],
      [
        "ro",
        "p"
      ],
      [
        "am",
        "a"
      ],
      [
        "n",
        "ki"
      ],
      [
        "Ġna",
        "s"
      ],
      [
        "t",
        "aj"
      ],
      [
        "cze",
        "s"
      ],
      [
        "Ġka",
        "z"
      ],
      [
        "or",
        "u"
      ],
      [
        "Ġspo",
        "d"
      ],
      [
        "Ġw",
        "ska"
      ],
      [
        "wi",
        "Äħz"
      ],
      [
        "Ġwy",
        "da"
      ],
      [
        "Ġch",
        "wy"
      ],
      [
        "Ġczy",
        "taÅĤ"
      ],
      [
        "ĠsÅĤysze",
        "Äĩ"
      ],
      [
        "ow",
        "ych"
      ],
      [
        "Ġraz",
        "y"
      ],
      [
        "ĠÅĽ",
        "le"
      ],
      [
        "Ġtra",
        "fi"
      ],
      [
        "nie",
        "nia"
      ],
      [
        "ĠÅ",
        "ļ"
      ],
      [
        "ĠgÃ³",
        "rÄĻ"
      ],
      [
        "ÅĽ",
        "ni"
      ],
      [
        "ĊĊ",
        "Ċ"
      ],
      [
        "Ġrosyjs",
        "ku"
      ],
      [
        "Ġcz",
        "ym"
      ],
      [
        "Ġwyp",
        "ad"
      ],
      [
        "ow",
        "aÅĤy"
      ],
      [
        "cz",
        "kÄĻ"
      ],
      [
        "ĠÅ¼y",
        "cia"
      ],
      [
        "jÄħc",
        "y"
      ],
      [
        "ych",
        "o"
      ],
      [
        "Ġsz",
        "k"
      ],
      [
        "ĠczÅĤowie",
        "k"
      ],
      [
        "mo",
        "Å¼"
      ],
      [
        "Ġp",
        "rz"
      ],
      [
        "Ġte",
        "at"
      ],
      [
        "ĠPo",
        "d"
      ],
      [
        "Ġz",
        "do"
      ],
      [
        "ĠA",
        "n"
      ],
      [
        "Ġpra",
        "wo"
      ],
      [
        "Ġmia",
        "sta"
      ],
      [
        "Ġb",
        "ry"
      ],
      [
        "Ġo",
        "r"
      ],
      [
        "Ġinspek",
        "tora"
      ],
      [
        "szcz",
        "ÄĻ"
      ],
      [
        "Ġkoleg",
        "Ã³w"
      ],
      [
        "si",
        "ad"
      ],
      [
        "st",
        "ej"
      ],
      [
        "n",
        "owicz"
      ],
      [
        "R",
        "ad"
      ],
      [
        "n",
        "ne"
      ],
      [
        "B",
        "i"
      ],
      [
        "Ġm",
        "ro"
      ],
      [
        "Ġro",
        "bo"
      ],
      [
        "Ġto",
        "teÅ¼"
      ],
      [
        "rze",
        "m"
      ],
      [
        "na",
        "le"
      ],
      [
        "Ġd",
        "uÅ¼"
      ],
      [
        "w",
        "ej"
      ],
      [
        "Ġoj",
        "ciec"
      ],
      [
        "cz",
        "nÄħ"
      ],
      [
        "d",
        "em"
      ],
      [
        "m",
        "at"
      ],
      [
        "Ġpop",
        "rze"
      ],
      [
        "or",
        "em"
      ],
      [
        "Å¼",
        "d"
      ],
      [
        "rze",
        "j"
      ],
      [
        "Ġwz",
        "glÄĻd"
      ],
      [
        "Ġst",
        "ru"
      ],
      [
        "Ġsze",
        "re"
      ],
      [
        "uczycie",
        "l"
      ],
      [
        "Ġroz",
        "mai"
      ],
      [
        "Ġcz",
        "o"
      ],
      [
        "t",
        "noÅĽci"
      ],
      [
        "Ġw",
        "ra"
      ],
      [
        "Ġka",
        "wale"
      ],
      [
        "ĠC",
        "Ã³Å¼"
      ],
      [
        "am",
        "tÄħd"
      ],
      [
        "ĠÅĽ",
        "wiÄĻ"
      ],
      [
        "âĢ¦",
        "âĢĿ"
      ],
      [
        "Åº",
        "nie"
      ],
      [
        "Ġjak",
        "Äħ"
      ],
      [
        "Ġb",
        "ÅĤy"
      ],
      [
        "sz",
        "ony"
      ],
      [
        "Ġko",
        "ÅĽci"
      ],
      [
        "po",
        "mi"
      ],
      [
        "Ġsam",
        "ego"
      ],
      [
        "Ġspoj",
        "rzaÅĤ"
      ],
      [
        "n",
        "ka"
      ],
      [
        "Ġz",
        "go"
      ],
      [
        "Ġzacz",
        "ÄĻ"
      ],
      [
        "l",
        "ny"
      ],
      [
        "Ġch",
        "ci"
      ],
      [
        "p",
        "aÅĤ"
      ],
      [
        "er",
        "i"
      ],
      [
        "z",
        "e"
      ],
      [
        "pie",
        "j"
      ],
      [
        "Ġt",
        "rzym"
      ],
      [
        "Ġusi",
        "adÅĤ"
      ],
      [
        "z",
        "o"
      ],
      [
        "ĠÄĩ",
        "wi"
      ],
      [
        "czy",
        "ÅĤa"
      ],
      [
        "s",
        "e"
      ],
      [
        "ce",
        "n"
      ],
      [
        "po",
        "m"
      ],
      [
        "ĠcaÅĤ",
        "e"
      ],
      [
        "Ġmusi",
        "aÅĤ"
      ],
      [
        "by",
        "t"
      ],
      [
        "Ġpe",
        "dago"
      ],
      [
        "ĠW",
        "tedy"
      ],
      [
        "ĠjÄĻzy",
        "ka"
      ],
      [
        "p",
        "an"
      ],
      [
        "Ġw",
        "tedy"
      ],
      [
        "Ġk",
        "raj"
      ],
      [
        "Ġz",
        "b"
      ],
      [
        "ĠJ",
        "uÅ¼"
      ],
      [
        "Ã³w",
        "ki"
      ],
      [
        "Ġwiel",
        "moÅ¼"
      ],
      [
        "Ġro",
        "ku"
      ],
      [
        "u",
        "ra"
      ],
      [
        "Ġg",
        "ÅĤu"
      ],
      [
        "Ġsk",
        "rzy"
      ],
      [
        "Ġjed",
        "nej"
      ],
      [
        "ĠB",
        "u"
      ],
      [
        "Ġprze",
        "by"
      ],
      [
        "ĠT",
        "y"
      ],
      [
        "Ġt",
        "or"
      ],
      [
        "Ġw",
        "spo"
      ],
      [
        "ci",
        "Äĩ"
      ],
      [
        "g",
        "Ã³w"
      ],
      [
        "Ġklery",
        "kow"
      ],
      [
        "Ġgospo",
        "da"
      ],
      [
        "ĠÅ¼e",
        "laz"
      ],
      [
        "Ġch",
        "cÄĻ"
      ],
      [
        "Ġci",
        "cho"
      ],
      [
        "Ġpi",
        "Äħtej"
      ],
      [
        "Ġp",
        "re"
      ],
      [
        "ĠPrzepi",
        "Ã³rzy"
      ],
      [
        "Ã³r",
        "kow"
      ],
      [
        "omo",
        "nowicz"
      ],
      [
        "Ġrad",
        "ca"
      ],
      [
        "Ġwo",
        "dy"
      ],
      [
        "ĠM",
        "ie"
      ],
      [
        "Ġwsp",
        "Ã³ÅĤ"
      ],
      [
        "ra",
        "bi"
      ],
      [
        "Ġk",
        "wi"
      ],
      [
        "ĠK",
        "ost"
      ],
      [
        "ĠW",
        "alec"
      ],
      [
        "Bi",
        "ru"
      ],
      [
        "le",
        "gÅĤ"
      ],
      [
        "s",
        "ami"
      ],
      [
        "eÅĤ",
        "ni"
      ],
      [
        "rz",
        "ch"
      ],
      [
        "p",
        "ÄĻ"
      ],
      [
        "o",
        "nej"
      ],
      [
        "ew",
        "ne"
      ],
      [
        "Ġow",
        "ej"
      ],
      [
        "jÄħc",
        "ych"
      ],
      [
        "bli",
        "Å¼"
      ],
      [
        "rz",
        "aÅĤy"
      ],
      [
        "Ġz",
        "du"
      ],
      [
        "ĠchÅĤop",
        "ca"
      ],
      [
        "Ġstro",
        "nÄĻ"
      ],
      [
        "ĠÃ³w",
        "dzie"
      ],
      [
        "Ġzapy",
        "taÅĤ"
      ],
      [
        "Ġob",
        "ej"
      ],
      [
        "Ġdrzwi",
        "ami"
      ],
      [
        "G",
        "dy"
      ],
      [
        "Å¼y",
        "Äĩ"
      ],
      [
        "ĠgÃ³",
        "ry"
      ],
      [
        "d",
        "ÅĤa"
      ],
      [
        "Ġwie",
        "dziaÅĤ"
      ],
      [
        "Ġo",
        "na"
      ],
      [
        "Ġszczeg",
        "Ã³l"
      ],
      [
        "Ġp",
        "ÅĤy"
      ],
      [
        "ĠsÅĤy",
        "szaÅĤ"
      ],
      [
        "Ġdrze",
        "wa"
      ],
      [
        "ĠgÅĤ",
        "owie"
      ],
      [
        "Ġok",
        "rop"
      ],
      [
        "Ġkieru",
        "nku"
      ],
      [
        "cie",
        "r"
      ],
      [
        "Ġz",
        "nie"
      ],
      [
        "s",
        "ÅĤo"
      ],
      [
        "Ġb",
        "rz"
      ],
      [
        "Ġwszel",
        "kie"
      ],
      [
        "Ġprzy",
        "go"
      ],
      [
        "Ġp",
        "ÄĻ"
      ],
      [
        "Ġrzu",
        "ciÅĤ"
      ],
      [
        "gie",
        "m"
      ],
      [
        "Ġwie",
        "cz"
      ],
      [
        "Ġprzed",
        "mio"
      ],
      [
        "Ġinte",
        "re"
      ],
      [
        "Ġot",
        "war"
      ],
      [
        "Ġma",
        "sz"
      ],
      [
        "Ġczy",
        "taÄĩ"
      ],
      [
        "Ġd",
        "rew"
      ],
      [
        "Ġkro",
        "k"
      ],
      [
        "Ġz",
        "er"
      ],
      [
        "Ã³",
        "g"
      ],
      [
        "Ġlu",
        "b"
      ],
      [
        "Ġpow",
        "ta"
      ],
      [
        "Ġn",
        "ÄĻ"
      ],
      [
        "Ġzost",
        "aÅĤ"
      ],
      [
        "t",
        "ami"
      ],
      [
        "Ġsz",
        "czÄĻ"
      ],
      [
        "Ġprze",
        "ciw"
      ],
      [
        "ni",
        "ka"
      ],
      [
        "Ġroz",
        "po"
      ],
      [
        "Ġt",
        "re"
      ],
      [
        "Ġucz",
        "nia"
      ],
      [
        "Ġm",
        "aÅĤy"
      ],
      [
        "Ġza",
        "g"
      ],
      [
        "gra",
        "fi"
      ],
      [
        "le",
        "k"
      ],
      [
        "ĠbÄĻd",
        "ÄĻ"
      ],
      [
        "Ġpowie",
        "dzieÄĩ"
      ],
      [
        "Ġi",
        "dzie"
      ],
      [
        "Ġprzy",
        "ja"
      ],
      [
        "Ġu",
        "sÅĤy"
      ],
      [
        "d",
        "owaÅĤ"
      ],
      [
        "st",
        "Ã³w"
      ],
      [
        "ĠksiÄħÅ¼",
        "ki"
      ],
      [
        "Ġstro",
        "ny"
      ],
      [
        "ĠD",
        "ale"
      ],
      [
        "Ġp",
        "as"
      ],
      [
        "Ġkan",
        "ce"
      ],
      [
        "d",
        "ob"
      ],
      [
        "w",
        "Ã³"
      ],
      [
        "Ġwy",
        "ro"
      ],
      [
        "b",
        "ar"
      ],
      [
        "Ġce",
        "lu"
      ],
      [
        "Ġjed",
        "nego"
      ],
      [
        "ĠPrzepi",
        "Ã³rkow"
      ],
      [
        "Ġw",
        "ro"
      ],
      [
        "Ġsz",
        "o"
      ],
      [
        "ĠÅĤ",
        "Äħ"
      ],
      [
        "ĠSz",
        "tet"
      ],
      [
        "c",
        "kle"
      ],
      [
        "ĠZygie",
        "r"
      ],
      [
        "Ġko",
        "nie"
      ],
      [
        "Ġroz",
        "um"
      ],
      [
        "Ġsmu",
        "t"
      ],
      [
        "Ġdo",
        "sko"
      ],
      [
        "Ġroz",
        "ko"
      ],
      [
        "Ġocz",
        "u"
      ],
      [
        "kie",
        "dy"
      ],
      [
        "Ġwo",
        "ÅĤaÅĤ"
      ],
      [
        "dz",
        "ÄĻ"
      ],
      [
        "e",
        "b"
      ],
      [
        "ry",
        "waÅĤ"
      ],
      [
        "Ġg",
        "ÅĤuch"
      ],
      [
        "ry",
        "w"
      ],
      [
        "Ġrodzi",
        "cÃ³w"
      ],
      [
        "ĠCh",
        "ÅĤo"
      ],
      [
        "Ġdo",
        "m"
      ],
      [
        "Ġm",
        "n"
      ],
      [
        "Ġmn",
        "Ã³"
      ],
      [
        "Ġ",
        "F"
      ],
      [
        "Ġna",
        "tych"
      ],
      [
        "Ġnatych",
        "miast"
      ],
      [
        "Ġszep",
        "nÄħÅĤ"
      ],
      [
        "ĠBy",
        "ÅĤo"
      ],
      [
        "Ġzw",
        "rac"
      ],
      [
        "Ġwie",
        "m"
      ],
      [
        "Ġjak",
        "im"
      ],
      [
        "Ġz",
        "mu"
      ],
      [
        "Ġos",
        "Ã³b"
      ],
      [
        "Ġb",
        "li"
      ],
      [
        "Ġser",
        "ce"
      ],
      [
        "Ġsam",
        "a"
      ],
      [
        "Ġjest",
        "em"
      ],
      [
        "Ġw",
        "yma"
      ],
      [
        "d",
        "Äħc"
      ],
      [
        "ĠGawro",
        "nek"
      ],
      [
        "Ġtym",
        "czasem"
      ],
      [
        "Ġs",
        "en"
      ],
      [
        "r",
        "ych"
      ],
      [
        "Ġdrew",
        "ni"
      ],
      [
        "Ġuczni",
        "owie"
      ],
      [
        "cie",
        "j"
      ],
      [
        "ych",
        "aÄĩ"
      ],
      [
        "ĠÅ»",
        "y"
      ],
      [
        "dzi",
        "ÅĤo"
      ],
      [
        "Ġu",
        "miaÅĤ"
      ],
      [
        "Ġcz",
        "tery"
      ],
      [
        "Ġw",
        "al"
      ],
      [
        "lo",
        "ny"
      ],
      [
        "Ġlek",
        "cje"
      ],
      [
        "Ġtrze",
        "ch"
      ],
      [
        "Ġzja",
        "wi"
      ],
      [
        "l",
        "ne"
      ],
      [
        "Ġnie",
        "do"
      ],
      [
        "ĠW",
        "ol"
      ],
      [
        "dzi",
        "aÅĤa"
      ],
      [
        "a",
        "sz"
      ],
      [
        "b",
        "er"
      ],
      [
        "Ġpa",
        "pie"
      ],
      [
        "ow",
        "ym"
      ],
      [
        "Ġs",
        "re"
      ],
      [
        "ni",
        "ami"
      ],
      [
        "cz",
        "ym"
      ],
      [
        "d",
        "er"
      ],
      [
        "Ġje",
        "Å¼eli"
      ],
      [
        "N",
        "ie"
      ],
      [
        "ĠPa",
        "zu"
      ],
      [
        "Ġwy",
        "b"
      ],
      [
        "ĠkaÅ¼",
        "dy"
      ],
      [
        "war",
        "c"
      ],
      [
        "cz",
        "ni"
      ],
      [
        "ak",
        "o"
      ],
      [
        "ĠS",
        "omonowicz"
      ],
      [
        "Ġch",
        "le"
      ],
      [
        "Ġpra",
        "wa"
      ],
      [
        "Ġsam",
        "ym"
      ],
      [
        "Ġwp",
        "ÅĤy"
      ],
      [
        "ĠRad",
        "ka"
      ],
      [
        "rzo",
        "gÅĤ"
      ],
      [
        "on",
        "ta"
      ],
      [
        "ĠWÅĤa",
        "dzi"
      ],
      [
        "Ġcz",
        "war"
      ],
      [
        "w",
        "an"
      ],
      [
        "Ġwzg",
        "Ã³"
      ],
      [
        "Ġsz",
        "ar"
      ],
      [
        "Ġmoc",
        "no"
      ],
      [
        "Ġpew",
        "nego"
      ],
      [
        "Ġst",
        "aÅĤy"
      ],
      [
        "Ġjakiej",
        "ÅĽ"
      ],
      [
        "Ġdu",
        "Å¼y"
      ],
      [
        "Å¼",
        "one"
      ],
      [
        "t",
        "ro"
      ],
      [
        "bie",
        "gÅĤ"
      ],
      [
        "Ġtajem",
        "ni"
      ],
      [
        "ĠA",
        "ni"
      ],
      [
        "go",
        "ÅĽ"
      ],
      [
        "Ġza",
        "t"
      ],
      [
        "Ġpierw",
        "szy"
      ],
      [
        "Ġmu",
        "ndu"
      ],
      [
        "Å¼e",
        "ÅĦ"
      ],
      [
        "Ġmy",
        "ÅĽle"
      ],
      [
        "Ġchwi",
        "l"
      ],
      [
        "ĠdÅº",
        "wiÄĻ"
      ],
      [
        "Ġcze",
        "r"
      ],
      [
        "Ġznaj",
        "dow"
      ],
      [
        "o",
        "nymi"
      ],
      [
        "Ġg",
        "waÅĤ"
      ],
      [
        "Ġdob",
        "ro"
      ],
      [
        "Ġc",
        "aÅĤa"
      ],
      [
        "Ġf",
        "ami"
      ],
      [
        "Ġczy",
        "li"
      ],
      [
        "ĠJe",
        "d"
      ],
      [
        "ar",
        "Ã³w"
      ],
      [
        "ra",
        "k"
      ],
      [
        "wo",
        "ÅĽci"
      ],
      [
        "Ġraz",
        "em"
      ],
      [
        "Ġwol",
        "na"
      ],
      [
        "ĠÅĽwiat",
        "ÅĤo"
      ],
      [
        "Ġczu",
        "ÅĤ"
      ],
      [
        "Ġi",
        "lo"
      ],
      [
        "ni",
        "os"
      ],
      [
        "Ġkorepety",
        "tor"
      ],
      [
        "Ġnie",
        "kiedy"
      ],
      [
        "Ġwie",
        "sz"
      ],
      [
        "b",
        "ym"
      ],
      [
        "aw",
        "szy"
      ],
      [
        "Ġbru",
        "d"
      ],
      [
        "Ġzie",
        "miÄĻ"
      ],
      [
        "Ġwska",
        "z"
      ],
      [
        "Ġp",
        "l"
      ],
      [
        "ÅĤ",
        "ak"
      ],
      [
        "n",
        "ami"
      ],
      [
        "Ġswo",
        "im"
      ],
      [
        "Ġroz",
        "leg"
      ],
      [
        "br",
        "aÅĤ"
      ],
      [
        "Ġmie",
        "li"
      ],
      [
        "ĠwiÄĻk",
        "szo"
      ],
      [
        "Ġpo",
        "ch"
      ],
      [
        "Ġg",
        "rom"
      ],
      [
        "ÅĦ",
        "cÃ³w"
      ],
      [
        "go",
        "d"
      ],
      [
        "ĠDo",
        "piero"
      ],
      [
        "ĠupÅĤy",
        "wie"
      ],
      [
        "Ġtak",
        "Äħ"
      ],
      [
        "ĠwÅĤaÅĽci",
        "wie"
      ],
      [
        "si",
        "Äĩ"
      ],
      [
        "z",
        "m"
      ],
      [
        "Ġczy",
        "t"
      ],
      [
        "Ġpo",
        "rzÄħd"
      ],
      [
        "I",
        "I"
      ],
      [
        "ro",
        "z"
      ],
      [
        "Ġw",
        "Ã³wczas"
      ],
      [
        "Ġprzy",
        "jÄĻ"
      ],
      [
        "Ġwy",
        "cho"
      ],
      [
        "ĠD",
        "la"
      ],
      [
        "Ġt",
        "rwo"
      ],
      [
        "ĠP",
        "anie"
      ],
      [
        "Ġpe",
        "wien"
      ],
      [
        "Ġg",
        "rze"
      ],
      [
        "Ġsta",
        "ra"
      ],
      [
        "w",
        "ania"
      ],
      [
        "Å¼e",
        "k"
      ],
      [
        "ĠÅ¼",
        "o"
      ],
      [
        "ĠK",
        "o"
      ],
      [
        "Ġod",
        "by"
      ],
      [
        "Ġpa",
        "ra"
      ],
      [
        "Ġstar",
        "e"
      ],
      [
        "Ġgru",
        "n"
      ],
      [
        "ĠT",
        "u"
      ],
      [
        "ob",
        "ec"
      ],
      [
        "rze",
        "nie"
      ],
      [
        "owa",
        "li"
      ],
      [
        "Ġd",
        "wo"
      ],
      [
        "Ġnau",
        "ki"
      ],
      [
        "Ġby",
        "li"
      ],
      [
        "ĠP",
        "y"
      ],
      [
        "ĠÅ¼y",
        "cie"
      ],
      [
        "w",
        "ano"
      ],
      [
        "aÅĤ",
        "u"
      ],
      [
        "Ġpo",
        "ÅĤu"
      ],
      [
        "sze",
        "ch"
      ],
      [
        "g",
        "dzie"
      ],
      [
        "owie",
        "m"
      ],
      [
        "k",
        "aÅĤy"
      ],
      [
        "P",
        "an"
      ],
      [
        "ci",
        "c"
      ],
      [
        "le",
        "t"
      ],
      [
        "Ġpo",
        "ÅĤy"
      ],
      [
        "Ġb",
        "e"
      ],
      [
        "ĠktÃ³r",
        "Äħ"
      ],
      [
        "j",
        "o"
      ],
      [
        "ĠprÄĻ",
        "d"
      ],
      [
        "Ġs",
        "chy"
      ],
      [
        "Ġza",
        "jÄĻ"
      ],
      [
        "Ġst",
        "ud"
      ],
      [
        "Ġprze",
        "strze"
      ],
      [
        "Ġjed",
        "nÄħ"
      ],
      [
        "u",
        "si"
      ],
      [
        "Ġp",
        "rzym"
      ],
      [
        "st",
        "wie"
      ],
      [
        "sta",
        "waÅĤ"
      ],
      [
        "Ġwz",
        "ro"
      ],
      [
        "lo",
        "ne"
      ],
      [
        "p",
        "u"
      ],
      [
        "Ġnie",
        "wie"
      ],
      [
        "an",
        "d"
      ],
      [
        "g",
        "ar"
      ],
      [
        "Ġwiel",
        "kie"
      ],
      [
        "ĠÅº",
        "le"
      ],
      [
        "ĠS",
        "po"
      ],
      [
        "z",
        "d"
      ],
      [
        "Ġst",
        "amtÄħd"
      ],
      [
        "s",
        "ÅĤuch"
      ],
      [
        "Ġost",
        "ro"
      ],
      [
        "r",
        "Äħg"
      ],
      [
        "Ġpocz",
        "Äħt"
      ],
      [
        "sz",
        "Äħc"
      ],
      [
        "ĠP",
        "ie"
      ],
      [
        "c",
        "kiego"
      ],
      [
        "Ġpo",
        "stÄĻp"
      ],
      [
        "ĠÅĽrod",
        "ek"
      ],
      [
        "Ġwy",
        "trze"
      ],
      [
        "Ġot",
        "wo"
      ],
      [
        "Ġwy",
        "t"
      ],
      [
[...]
