{
  "version": "1.0",
  "truncation": null,
  "padding": null,
  "added_tokens": [],
  "normalizer": null,
  "pre_tokenizer": {
    "type": "ByteLevel",
    "add_prefix_space": false,
    "trim_offsets": true,
    "use_regex": false
  },
  "post_processor": {
    "type": "ByteLevel",
    "add_prefix_space": true,
    "trim_offsets": true,
    "use_regex": true
  },
  "decoder": {
    "type": "ByteLevel",
    "add_prefix_space": true,
    "trim_offsets": true,
    "use_regex": true
  },
  "model": {
    "type": "BPE",
    "dropout": null,
    "unk_token": null,
    "continuing_subword_prefix": null,
    "end_of_word_suffix": null,
    "fuse_unk": false,
    "byte_fallback": false,
    "ignore_merges": false,
    "vocab": {
      "Ā": 0,
      "ā": 1,
      "Ă": 2,
      "ă": 3,
      "Ą": 4,
      "ą": 5,
      "Ć": 6,
      "ć": 7,
      "Ĉ": 8,
      "ĉ": 9,
      "Ċ": 10,
      "ċ": 11,
      "Č": 12,
      "č": 13,
      "Ď": 14,
      "ď": 15,
      "Đ": 16,
      "đ": 17,
      "Ē": 18,
      "ē": 19,
      "Ĕ": 20,
      "ĕ": 21,
      "Ė": 22,
      "ė": 23,
      "Ę": 24,
      "ę": 25,
      "Ě": 26,
      "ě": 27,
      "Ĝ": 28,
      "ĝ": 29,
      "Ğ": 30,
      "ğ": 31,
      "Ġ": 32,
      "!": 33,
      "\"": 34,
      "#": 35,
      "$": 36,
      "%": 37,
      "&": 38,
      "'": 39,
      "(": 40,
      ")": 41,
      "*": 42,
      "+": 43,
      ",": 44,
      "-": 45,
      ".": 46,
      "/": 47,
      "0": 48,
      "1": 49,
      "2": 50,
      "3": 51,
      "4": 52,
      "5": 53,
      "6": 54,
      "7": 55,
      "8": 56,
      "9": 57,
      ":": 58,
      ";": 59,
      "<": 60,
      "=": 61,
      ">": 62,
      "?": 63,
      "@": 64,
      "A": 65,
      "B": 66,
      "C": 67,
      "D": 68,
      "E": 69,
      "F": 70,
      "G": 71,
      "H": 72,
      "I": 73,
      "J": 74,
      "K": 75,
      "L": 76,
      "M": 77,
      "N": 78,
      "O": 79,
      "P": 80,
      "Q": 81,
      "R": 82,
      "S": 83,
      "T": 84,
      "U": 85,
      "V": 86,
      "W": 87,
      "X": 88,
      "Y": 89,
      "Z": 90,
      "[": 91,
      "\\": 92,
      "]": 93,
      "^": 94,
      "_": 95,
      "`": 96,
      "a": 97,
      "b": 98,
      "c": 99,
      "d": 100,
      "e": 101,
      "f": 102,
      "g": 103,
      "h": 104,
      "i": 105,
      "j": 106,
      "k": 107,
      "l": 108,
      "m": 109,
      "n": 110,
      "o": 111,
      "p": 112,
      "q": 113,
      "r": 114,
      "s": 115,
      "t": 116,
      "u": 117,
      "v": 118,
      "w": 119,
      "x": 120,
      "y": 121,
      "z": 122,
      "{": 123,
      "|": 124,
      "}": 125,
      "~": 126,
      "ġ": 127,
      "Ģ": 128,
      "ģ": 129,
      "Ĥ": 130,
      "ĥ": 131,
      "Ħ": 132,
      "ħ": 133,
      "Ĩ": 134,
      "ĩ": 135,
      "Ī": 136,
      "ī": 137,
      "Ĭ": 138,
      "ĭ": 139,
      "Į": 140,
      "į": 141,
      "İ": 142,
      "ı": 143,
      "Ĳ": 144,
      "ĳ": 145,
      "Ĵ": 146,
      "ĵ": 147,
      "Ķ": 148,
      "ķ": 149,
      "ĸ": 150,
      "Ĺ": 151,
      "ĺ": 152,
      "Ļ": 153,
      "ļ": 154,
      "Ľ": 155,
      "ľ": 156,
      "Ŀ": 157,
      "ŀ": 158,
      "Ł": 159,
      "ł": 160,
      "¡": 161,
      "¢": 162,
      "£": 163,
      "¤": 164,
      "¥": 165,
      "¦": 166,
      "§": 167,
      "¨": 168,
      "©": 169,
      "ª": 170,
      "«": 171,
      "¬": 172,
      "Ń": 173,
      "®": 174,
      "¯": 175,
      "°": 176,
      "±": 177,
      "²": 178,
      "³": 179,
      "´": 180,
      "µ": 181,
      "¶": 182,
      "·": 183,
      "¸": 184,
      "¹": 185,
      "º": 186,
      "»": 187,
      "¼": 188,
      "½": 189,
      "¾": 190,
      "¿": 191,
      "À": 192,
      "Á": 193,
      "Â": 194,
      "Ã": 195,
      "Ä": 196,
      "Å": 197,
      "Æ": 198,
      "Ç": 199,
      "È": 200,
      "É": 201,
      "Ê": 202,
      "Ë": 203,
      "Ì": 204,
      "Í": 205,
      "Î": 206,
      "Ï": 207,
      "Ð": 208,
      "Ñ": 209,
      "Ò": 210,
      "Ó": 211,
      "Ô": 212,
      "Õ": 213,
      "Ö": 214,
      "×": 215,
      "Ø": 216,
      "Ù": 217,
      "Ú": 218,
      "Û": 219,
      "Ü": 220,
      "Ý": 221,
      "Þ": 222,
      "ß": 223,
      "à": 224,
      "á": 225,
      "â": 226,
      "ã": 227,
      "ä": 228,
      "å": 229,
      "æ": 230,
      "ç": 231,
      "è": 232,
      "é": 233,
      "ê": 234,
      "ë": 235,
      "ì": 236,
      "í": 237,
      "î": 238,
      "ï": 239,
      "ð": 240,
      "ñ": 241,
      "ò": 242,
      "ó": 243,
      "ô": 244,
      "õ": 245,
      "ö": 246,
      "÷": 247,
      "ø": 248,
      "ù": 249,
      "ú": 250,
      "û": 251,
      "ü": 252,
      "ý": 253,
      "þ": 254,
      "ÿ": 255,
      "ÅĤ": 256,
      "ie": 257,
      ",Ġ": 258,
      "aĠ": 259,
      "oĠ": 260,
      "iĠ": 261,
      "ÄĻ": 262,
      "yĠ": 263,
      "cz": 264,
      "Äħ": 265,
      "rz": 266,
      "aÅĤ": 267,
      "ch": 268,
      "nie": 269,
      "sz": 270,
      "eĠ": 271,
      "st": 272,
      "Å¼": 273,
      "ow": 274,
      "Ã³": 275,
      "Ġp": 276,
      "âĢ": 277,
      "Ġw": 278,
      ".Ġ": 279,
      "ni": 280,
      "ÅĽ": 281,
      "dz": 282,
      "si": 283,
      "Ġz": 284,
      "ro": 285,
      "na": 286,
      "ra": 287,
      "rze": 288,
      "naĠ": 289,
      "mĠ": 290,
      "ci": 291,
      "ĊĊ": 292,
      "siÄĻ": 293,
      "ar": 294,
      "Äĩ": 295,
      "an": 296,
      "ak": 297,
      "Ġt": 298,
      "goĠ": 299,
      "Ġd": 300,
      "âĢĶ": 301,
      "sk": 302,
      "wi": 303,
      "po": 304,
      "le": 305,
      "je": 306,
      "Ġm": 307,
      "am": 308,
      "ko": 309,
      "ej": 310,
      "âĢĶĠ": 311,
      "yÅĤ": 312,
      "uĠ": 313,
      "li": 314,
      "ad": 315,
      "aÅĤĠ": 316,
      "ych": 317,
      "od": 318,
      "Ã³w": 319,
      "on": 320,
      "Äħc": 321,
      ".ĊĊ": 322,
      "cie": 323,
      "al": 324,
      "ĠiĠ": 325,
      "or": 326,
      "at": 327,
      "ob": 328,
      "dzie": 329,
      "dzi": 330,
      "Ġs": 331,
      "Ġb": 332,
      "Ġk": 333,
      "wy": 334,
      "ek": 335,
      "rzy": 336,
      "czy": 337,
      "egoĠ": 338,
      "wie": 339,
      "as": 340,
      "jak": 341,
      "ÅĤo": 342,
      "aj": 343,
      "ÅĤĠ": 344,
      "ru": 345,
      "mi": 346,
      "âĢ¦": 347,
      "mie": 348,
      "ka": 349,
      "te": 350,
      "kie": 351,
      "no": 352,
      "nieĠ": 353,
      "ÄħĠ": 354,
      "ki": 355,
      "ÄĩĠ": 356,
      "Å¼eĠ": 357,
      "go": 358,
      "siÄĻĠ": 359,
      "ÅĦ": 360,
      "ÅĤa": 361,
      "Ã³r": 362,
      "zĠ": 363,
      "y,Ġ": 364,
      "ym": 365,
      "ĠdoĠ": 366,
      "owi": 367,
      "re": 368,
      "ymĠ": 369,
      "wa": 370,
      "za": 371,
      "roz": 372,
      "kt": 373,
      "Ġwy": 374,
      "sze": 375,
      "aÅĤaĠ": 376,
      "wĠ": 377,
      "ĠwĠ": 378,
      "a,Ġ": 379,
      "prze": 380,
      "Ġpo": 381,
      "ÅĽci": 382,
      "gÅĤ": 383,
      "dyĠ": 384,
      "ejĠ": 385,
      "wo": 386,
      "ry": 387,
      "cze": 388,
      "Ġprze": 389,
      "ach": 390,
      "pi": 391,
      "toĠ": 392,
      "byĠ": 393,
      "aÅĤyĠ": 394,
      "em": 395,
      "kaĠ": 396,
      "nÄħ": 397,
      "ÅĤaĠ": 398,
      "liĠ": 399,
      "kiĠ": 400,
      "niaĠ": 401,
      "ÅĤu": 402,
      "koĠ": 403,
      "ĊĊâĢĶĠ": 404,
      "pie": 405,
      "szy": 406,
      "aw": 407,
      "ku": 408,
      "doĠ": 409,
      "ta": 410,
      "neĠ": 411,
      "er": 412,
      ".ĠW": 413,
      ",ĠaĠ": 414,
      ",ĠÅ¼eĠ": 415,
      "ajÄħc": 416,
      "ty": 417,
      "owie": 418,
      "en": 419,
      "âĢ¦Ġ": 420,
      "rÃ³": 421,
      "owa": 422,
      "Å¼e": 423,
      "ÄĻĠ": 424,
      "bi": 425,
      "ami": 426,
      "ĠzĠ": 427,
      "do": 428,
      "âĢŀ": 429,
      "âĢĿ": 430,
      "ju": 431,
      "szcz": 432,
      ".ĊĊâĢĶĠ": 433,
      "ychĠ": 434,
      "mu": 435,
      "cj": 436,
      "nyĠ": 437,
      "ktÃ³r": 438,
      "Mar": 439,
      "raz": 440,
      "Ġza": 441,
      "mo": 442,
      "byÅĤ": 443,
      "emĠ": 444,
      "dy": 445,
      "Marci": 446,
      "skie": 447,
      "ciĠ": 448,
      "sp": 449,
      "ÅĤyĠ": 450,
      "amiĠ": 451,
      "Ġnie": 452,
      "gi": 453,
      "leĠ": 454,
      "owicz": 455,
      "las": 456,
      "os": 457,
      "la": 458,
      "Marcin": 459,
      "jĠ": 460,
      ",Ġp": 461,
      "pod": 462,
      "tu": 463,
      "coĠ": 464,
      "ce": 465,
      "ÅĤy": 466,
      ",Ġz": 467,
      "ich": 468,
      "ok": 469,
      "og": 470,
      "jed": 471,
      "rÄĻ": 472,
      "nÄĻ": 473,
      "sta": 474,
      "aniĠ": 475,
      "bie": 476,
      "Å¼y": 477,
      "Åº": 478,
      "ĠbyÅĤ": 479,
      ".ĠP": 480,
      "da": 481,
      "Ġwie": 482,
      "Bor": 483,
      "ot": 484,
      "aleĠ": 485,
      "jegoĠ": 486,
      "Borowicz": 487,
      ".ĠN": 488,
      "ma": 489,
      "tak": 490,
      "nau": 491,
      "in": 492,
      "czas": 493,
      "sy": 494,
      "pe": 495,
      "Å¼Ġ": 496,
      "!Ġ": 497,
      "ÄĻt": 498,
      "naj": 499,
      ",Ġjak": 500,
      "przy": 501,
      "ost": 502,
      "ĠtoĠ": 503,
      "Ġmi": 504,
      "czyĠ": 505,
      "spo": 506,
      "ceĠ": 507,
      "sie": 508,
      "pa": 509,
      "Ġwi": 510,
      "lu": 511,
      "ÄĻd": 512,
      "et": 513,
      "zy": 514,
      "Ġprzy": 515,
      "Ġu": 516,
      "rw": 517,
      "Ġtak": 518,
      "jÄħc": 519,
      ",Ġw": 520,
      "Äħd": 521,
      "cyĠ": 522,
      "negoĠ": 523,
      "?Ġ": 524,
      "yÅĽ": 525,
      "pra": 526,
      "ÅĤoĠ": 527,
      ",ĠktÃ³r": 528,
      "aliĠ": 529,
      ".ĠZ": 530,
      "lkoĠ": 531,
      "niej": 532,
      "tor": 533,
      "czycie": 534,
      "nej": 535,
      "ciÄħ": 536,
      "kÅĤ": 537,
      "aÅĤoĠ": 538,
      "szyst": 539,
      "ÅĽÄĩ": 540,
      "ski": 541,
      ",Ġg": 542,
      "Ã³wĠ": 543,
      "ĠpoĠ": 544,
      "rzyĠ": 545,
      "szyĠ": 546,
      "kÄĻ": 547,
      "zaĠ": 548,
      "ÅĽciĠ": 549,
      "caÅĤ": 550,
      "nych": 551,
      "nymĠ": 552,
      "cy": 553,
      "ur": 554,
      "cho": 555,
      "ol": 556,
      "by": 557,
      "kow": 558,
      ".ĠS": 559,
      "fi": 560,
      "ale": 561,
      "ucz": 562,
      "now": 563,
      "gÅĤo": 564,
      "stan": 565,
      "ymiĠ": 566,
      "war": 567,
      "ut": 568,
      "ĠnaĠ": 569,
      ",ĠaleĠ": 570,
      "om": 571,
      "nauczycie": 572,
      "noĠ": 573,
      "Äħt": 574,
      "ÅĽwi": 575,
      "star": 576,
      "dĠ": 577,
      "obie": 578,
      "laĠ": 579,
      "Ã³wi": 580,
      "stÄĻ": 581,
      "zi": 582,
      "Ã³ÅĤ": 583,
      "kuĠ": 584,
      "Ġpod": 585,
      "aÅĤĠsiÄĻ": 586,
      ".ĠT": 587,
      "caĠ": 588,
      "nieĠm": 589,
      "jest": 590,
      "anĠ": 591,
      "ez": 592,
      "sto": 593,
      "js": 594,
      "u,Ġ": 595,
      "iĠz": 596,
      ":ĊĊâĢĶĠ": 597,
      "usz": 598,
      "waĠ": 599,
      "naz": 600,
      "to": 601,
      "juÅ¼": 602,
      "cu": 603,
      "ĠzaĠ": 604,
      "poĠ": 605,
      "ciÄħg": 606,
      "iĠw": 607,
      "ne": 608,
      "stÄĻp": 609,
      "gie": 610,
      "ja": 611,
      "ekĠ": 612,
      ",ĠcoĠ": 613,
      "ÅĽcie": 614,
      "Ġpi": 615,
      "Ġklas": 616,
      "Ġpa": 617,
      "âĢ¦ĊĊ": 618,
      "ĠsiÄĻ": 619,
      "chĠ": 620,
      "amĠ": 621,
      "aÄĩ": 622,
      "bo": 623,
      ".ĠC": 624,
      "eĠw": 625,
      "uch": 626,
      "chwi": 627,
      "naw": 628,
      "ektor": 629,
      "niĠ": 630,
      "szed": 631,
      "sÅĤ": 632,
      "Ġty": 633,
      ".ĠO": 634,
      "ÅĽmie": 635,
      "sw": 636,
      "chÅĤo": 637,
      "?ĊĊâĢĶĠ": 638,
      "co": 639,
      "miĠ": 640,
      "dziaÅĤ": 641,
      "ew": 642,
      "su": 643,
      "skiĠ": 644,
      "szczeĠ": 645,
      "owan": 646,
      "um": 647,
      "czyÅĤ": 648,
      "jÄĻ": 649,
      "boĠ": 650,
      "ist": 651,
      "szko": 652,
      "zd": 653,
      "muĠ": 654,
      "pad": 655,
      "kĠ": 656,
      "onyĠ": 657,
      "jeĠ": 658,
      "jÄħ": 659,
      ".ĠJ": 660,
      "sam": 661,
      "Rad": 662,
      "aÅĤĠnaĠ": 663,
      "so": 664,
      "ki,Ġ": 665,
      "rowa": 666,
      "mat": 667,
      "siÄħ": 668,
      ".ĠB": 669,
      "szt": 670,
      "Ġdo": 671,
      "yt": 672,
      "nÄħĠ": 673,
      "Ġpra": 674,
      "czu": 675,
      "zg": 676,
      "razĠ": 677,
      "jeszczeĠ": 678,
      ".ĠD": 679,
      "Ġmie": 680,
      "nad": 681,
      "waÅĤ": 682,
      "gim": 683,
      "pro": 684,
      "szeĠ": 685,
      "lek": 686,
      "rzeĠ": 687,
      "nÄħÅĤ": 688,
      "nic": 689,
      "âĢ¦ĊĊâĢĶĠ": 690,
      "jakĠ": 691,
      "nauczyciel": 692,
      "rzu": 693,
      "woĠ": 694,
      ".ĠM": 695,
      "nejĠ": 696,
      "nawet": 697,
      "nÄħÅĤĠ": 698,
      "bar": 699,
      "ÄĻdz": 700,
      "ast": 701,
      "ÄĻk": 702,
      "ÅĽĠ": 703,
      ",Ġnie": 704,
      "yĠiĠ": 705,
      "miejs": 706,
      "bu": 707,
      "Marcinek": 708,
      "jakie": 709,
      "bli": 710,
      "aĠw": 711,
      "zna": 712,
      "Ã³w,Ġ": 713,
      "de": 714,
      "pu": 715,
      "stro": 716,
      "siÄĻĠnaĠ": 717,
      "uĠiĠ": 718,
      "gÅĤow": 719,
      "Ġpie": 720,
      "oneĠ": 721,
      "m,Ġ": 722,
      "peÅĤ": 723,
      "tylkoĠ": 724,
      "giĠ": 725,
      "Äħ,Ġ": 726,
      "chÅĤop": 727,
      "aÅ¼": 728,
      "gimnaz": 729,
      "jaĠ": 730,
      "nia": 731,
      "Ã³Å¼": 732,
      ".ĠG": 733,
      "czÄĻ": 734,
      "umie": 735,
      "syj": 736,
      "nym": 737,
      "gra": 738,
      "strze": 739,
      "Ġpro": 740,
      "aje": 741,
      "aĠiĠ": 742,
      "rosyj": 743,
      "klas": 744,
      "Ġspo": 745,
      "ny,Ġ": 746,
      "sko": 747,
      ".ĠK": 748,
      "ÅĽÄĩĠ": 749,
      "leÅ¼": 750,
      "nia,Ġ": 751,
      "rod": 752,
      "tyĠ": 753,
      "anoĠ": 754,
      "dob": 755,
      ":Ġ": 756,
      "rÃ³w": 757,
      "rzek": 758,
      "czÄħ": 759,
      "Ġte": 760,
      "siad": 761,
      "ny": 762,
      "szedÅĤ": 763,
      ",Ġwy": 764,
      "jej": 765,
      "nychĠ": 766,
      "odĠ": 767,
      "Å¼yÅĤ": 768,
      "aĠz": 769,
      "fe": 770,
      "Å¼ebyĠ": 771,
      "niu": 772,
      "nieĠz": 773,
      "Ġwiel": 774,
      "powie": 775,
      "rÃ³Å¼": 776,
      "rwsz": 777,
      "cjiĠ": 778,
      ".ĊĊP": 779,
      "chow": 780,
      "ÄĻ,Ġ": 781,
      "myÅĽ": 782,
      "ujÄħc": 783,
      "gÃ³r": 784,
      "pol": 785,
      "sÅĤu": 786,
      "lery": 787,
      "ter": 788,
      "taĠ": 789,
      "pier": 790,
      "ÅĤĠnaĠ": 791,
      "rzyÅĤ": 792,
      "sobie": 793,
      "Ġmu": 794,
      "kiedyĠ": 795,
      "it": 796,
      "gru": 797,
      "ĠzeĠ": 798,
      "bra": 799,
      "il": 800,
      "achĠ": 801,
      "chodzi": 802,
      "uÅ¼": 803,
      "ÄĻc": 804,
      "el": 805,
      "gÅĤos": 806,
      "ĠbyÅĤoĠ": 807,
      "ÄĻÅ¼": 808,
      "Ġo": 809,
      "kÃ³w": 810,
      "nimĠ": 811,
      "prowa": 812,
      "ga": 813,
      "Ġpan": 814,
      "nie,Ġ": 815,
      "siÄĻĠw": 816,
      "dzoĠ": 817,
      ".ĠâĢĶĠ": 818,
      "szcze": 819,
      "go,Ġ": 820,
      "mow": 821,
      "daw": 822,
      "rom": 823,
      "zie": 824,
      "gÅĤÄĻ": 825,
      ".ĠByÅĤ": 826,
      "licz": 827,
      "ÄħĠiĠ": 828,
      "leg": 829,
      "kiemĠ": 830,
      "ÄĻĠiĠ": 831,
      "Ã³j": 832,
      "ÄĻdzyĠ": 833,
      "ed": 834,
      "Ġmo": 835,
      "ÄĻdzie": 836,
      "niegoĠ": 837,
      "przed": 838,
      "tegoĠ": 839,
      "drz": 840,
      "ten": 841,
      "ĠtylkoĠ": 842,
      ".ĠNie": 843,
      "aÅĤĠw": 844,
      "skich": 845,
      "Äĩ,Ġ": 846,
      "niemĠ": 847,
      "ÅĤad": 848,
      "cieĠ": 849,
      "wieĠ": 850,
      "pat": 851,
      "Wie": 852,
      "ÅĽwiat": 853,
      "Nie": 854,
      "yĠz": 855,
      "kÅĤad": 856,
      "kiem": 857,
      "Ġpew": 858,
      "gu": 859,
      "sku": 860,
      "tow": 861,
      "Ġsam": 862,
      "az": 863,
      "onoĠ": 864,
      "im": 865,
      "bez": 866,
      "nu": 867,
      "siÄĻĠz": 868,
      "noÅĽci": 869,
      ",ĠtoĠ": 870,
      "ÅĦĠ": 871,
      "teĠ": 872,
      "rodz": 873,
      "dow": 874,
      "nik": 875,
      "siÄħÅ¼": 876,
      "pow": 877,
      "rzym": 878,
      "gl": 879,
      "kol": 880,
      "chu": 881,
      "Ġsw": 882,
      "mÃ³wi": 883,
      "ajew": 884,
      "lat": 885,
      "niÄĻt": 886,
      "ÅĽnie": 887,
      "yĠw": 888,
      "oj": 889,
      "stawi": 890,
      "imĠ": 891,
      "ÅĤod": 892,
      "godzi": 893,
      "pan": 894,
      "ycz": 895,
      "nak": 896,
      "owaĠ": 897,
      "gdyĠ": 898,
      "âĢ¦ĠâĢĶĠ": 899,
      "dru": 900,
      "trze": 901,
      "uk": 902,
      "aÅĤĠsiÄĻĠ": 903,
      "sa": 904,
      "rad": 905,
      "nieĠw": 906,
      "niem": 907,
      "ÅĤĠsiÄĻ": 908,
      "robi": 909,
      "nieĠiĠ": 910,
      "for": 911,
      "szk": 912,
      "op": 913,
      "aneĠ": 914,
      "Ġprzed": 915,
      "gimnazju": 916,
      "ĠtegoĠ": 917,
      "Wiechow": 918,
      ".ĊĊW": 919,
      "uczni": 920,
      "un": 921,
      "kÄħ": 922,
      "byÅĤoĠ": 923,
      "Majew": 924,
      "oko": 925,
      "oÅĤ": 926,
      "kaz": 927,
      "sza": 928,
      "skiegoĠ": 929,
      "aniĠBorowicz": 930,
      "âĢĿĠ": 931,
      ",Ġza": 932,
      "yw": 933,
      "ĠmÃ³wi": 934,
      "ĠtymĠ": 935,
      "kro": 936,
      "rektor": 937,
      "Ġsie": 938,
      "juÅ¼Ġ": 939,
      "niuĠ": 940,
      "Ġna": 941,
      "ca": 942,
      "anyĠ": 943,
      "Prze": 944,
      "kach": 945,
      "szyb": 946,
      "eg": 947,
      "tarz": 948,
      "insp": 949,
      "kil": 950,
      "e,Ġ": 951,
      "owaÅĤ": 952,
      "oczyĠ": 953,
      "myĠ": 954,
      "ust": 955,
      "ÄĻdr": 956,
      "noÅĽciĠ": 957,
      "niejĠ": 958,
      "szep": 959,
      "laz": 960,
      "rodzi": 961,
      "maĠ": 962,
      "lkie": 963,
      "owiad": 964,
      "szystki": 965,
      "iz": 966,
      "wyĠ": 967,
      "kar": 968,
      "Sz": 969,
      "eÅĤ": 970,
      "tar": 971,
      "oczy": 972,
      "alboĠ": 973,
      "ÅĽmiech": 974,
      "baĠ": 975,
      "pÅĤy": 976,
      "stra": 977,
      "rÄħ": 978,
      "ka,Ġ": 979,
      "ÅĽwie": 980,
      "pieroĠ": 981,
      "wiĠ": 982,
      "czyt": 983,
      "ÅĽrÃ³": 984,
      "ocz": 985,
      "upeÅĤ": 986,
      "sob": 987,
      "dlaĠ": 988,
      "rzekÅĤ": 989,
      "tamĠ": 990,
      "szka": 991,
      "byÅĤaĠ": 992,
      "szystkie": 993,
      "Klery": 994,
      ",ĠktÃ³ryĠ": 995,
      "Å¼ad": 996,
      "rÃ³t": 997,
      "em,Ġ": 998,
      "ajÄħcĠ": 999,
      "ser": 1000,
      "rzÄħ": 1001,
      "acz": 1002,
      "Ã³b": 1003,
      "amie": 1004,
      "Ġtam": 1005,
      "yk": 1006,
      "tej": 1007,
      "chwiliĠ": 1008,
      "onaĠ": 1009,
      "nÄĻÅĤaĠ": 1010,
      "rzekÅĤĠ": 1011,
      "rud": 1012,
      "ĠpanĠ": 1013,
      "ami,Ġ": 1014,
      "ecz": 1015,
      "koÅĦ": 1016,
      "cji": 1017,
      "jÄĻzy": 1018,
      "sÅĤy": 1019,
      "dze": 1020,
      "uwa": 1021,
      "gÄĻ": 1022,
      "dziw": 1023,
      ".ĠWĠ": 1024,
      "!ĊĊ": 1025,
      "pis": 1026,
      "mar": 1027,
      "br": 1028,
      ".ĠNaĠ": 1029,
      ".ĊĊT": 1030,
      ",ĠgdyĠ": 1031,
      "ostat": 1032,
      "ÅĤowie": 1033,
      "Ġdale": 1034,
      "Radek": 1035,
      "ÅĦst": 1036,
      "dzÄħc": 1037,
      "par": 1038,
      "ran": 1039,
      "aÅĤĠz": 1040,
      "iĠpo": 1041,
      "czyn": 1042,
      "odzi": 1043,
      "Ġdru": 1044,
      "aÅĤo": 1045,
      ",Ġgdy": 1046,
      "sor": 1047,
      "onych": 1048,
      "nibyĠ": 1049,
      "niejsz": 1050,
      "lach": 1051,
      "ĠdÅĤu": 1052,
      "ĠmyÅĽ": 1053,
      "ckie": 1054,
      "jeden": 1055,
      "gdzie": 1056,
      "niez": 1057,
      "ryw": 1058,
      "Ġzap": 1059,
      "owiĠ": 1060,
      "dÅĤu": 1061,
      "cĠ": 1062,
      "temĠ": 1063,
      ".ĠGdyĠ": 1064,
      "ÅĤĠw": 1065,
      "ÅĤaw": 1066,
      "ciaĠ": 1067,
      "fesor": 1068,
      "tam": 1069,
      "ska": 1070,
      "ba": 1071,
      "kÄĻĠ": 1072,
      "wicz": 1073,
      "nymiĠ": 1074,
      "iedyĠ": 1075,
      "dale": 1076,
      "kan": 1077,
      "moc": 1078,
      "iĠza": 1079,
      "bardzoĠ": 1080,
      "!ĠâĢĶ": 1081,
      "cÃ³w": 1082,
      "Ã³l": 1083,
      "ÅĽpie": 1084,
      "szys": 1085,
      "inspektor": 1086,
      "nowuĠ": 1087,
      "glÄħd": 1088,
      "Ġmat": 1089,
      ",ĠjakbyĠ": 1090,
      "du": 1091,
      "nicz": 1092,
      "cha": 1093,
      "wszyĠ": 1094,
      "gÅĤoÅĽ": 1095,
      "siĠ": 1096,
      "rzecz": 1097,
      "est": 1098,
      "py": 1099,
      "Ġtrze": 1100,
      "Ã³d": 1101,
      "dw": 1102,
      "ĠmuĠ": 1103,
      "tem": 1104,
      "ĠiĠz": 1105,
      ".ĠR": 1106,
      "ÄĩĠnaĠ": 1107,
      "Ġpowie": 1108,
      "chwil": 1109,
      "siÄĻĠdoĠ": 1110,
      ".ĊĊâĢĶĠA": 1111,
      "jrz": 1112,
      "waÄĩ": 1113,
      "spra": 1114,
      "ĠprzezĠ": 1115,
      "szystkoĠ": 1116,
      "Ġklasie": 1117,
      "Ġma": 1118,
      "gar": 1119,
      "czar": 1120,
      "ryĠ": 1121,
      "sch": 1122,
      "lad": 1123,
      "wier": 1124,
      "ucze": 1125,
      "rog": 1126,
      "ros": 1127,
      "tedyĠ": 1128,
      "siÅĤ": 1129,
      "caÅĤyĠ": 1130,
      "nich": 1131,
      "woÅĤ": 1132,
      "czÅĤowie": 1133,
      ",ĠktÃ³reĠ": 1134,
      "nieĠb": 1135,
      "*,Ġ": 1136,
      "jÄħĠ": 1137,
      "zami": 1138,
      "ĠtamĠ": 1139,
      "pew": 1140,
      "gdy": 1141,
      "Ġten": 1142,
      "jem": 1143,
      "oz": 1144,
      "ezĠ": 1145,
      "ogrom": 1146,
      "umi": 1147,
      "Ġzw": 1148,
      "szyscyĠ": 1149,
      "ÅĤodzie": 1150,
      "Å»": 1151,
      "Ġod": 1152,
      "wymĠ": 1153,
      "lic": 1154,
      "krÃ³t": 1155,
      "jejĠ": 1156,
      ",Ġpo": 1157,
      "aÅĤyĠsiÄĻ": 1158,
      "stu": 1159,
      "ent": 1160,
      "tÃ³r": 1161,
      "Ġswo": 1162,
      "dÅº": 1163,
      "nÄħc": 1164,
      "Ġdy": 1165,
      "kiĠiĠ": 1166,
      "spod": 1167,
      "skiej": 1168,
      "tych": 1169,
      "jednak": 1170,
      "koj": 1171,
      "swo": 1172,
      ",Ġt": 1173,
      "âĢ¦ĠâĢĶ": 1174,
      "Ġroz": 1175,
      "rafi": 1176,
      "praw": 1177,
      "myÅĽl": 1178,
      "sÅĤuch": 1179,
      "dziĠ": 1180,
      "Ġmiejs": 1181,
      "kat": 1182,
      "Ġpow": 1183,
      "miÄĻdzyĠ": 1184,
      "zyĠ": 1185,
      ",ĠnaĠ": 1186,
      ",Ġgdzie": 1187,
      "Tak": 1188,
      "ron": 1189,
      "zeĠ": 1190,
      "Ġpierwsz": 1191,
      "kore": 1192,
      "ciem": 1193,
      "noÅĽÄĩ": 1194,
      "tym": 1195,
      "ĠsiÄĻĠ": 1196,
      "czyta": 1197,
      "ÅĤas": 1198,
      "pierwsz": 1199,
      "warz": 1200,
      "przez": 1201,
      "nog": 1202,
      "krzy": 1203,
      "ÅĽli": 1204,
      ".ĠA": 1205,
      "staw": 1206,
      "sztaÅĤ": 1207,
      "au": 1208,
      "na,Ġ": 1209,
      "row": 1210,
      "byÅĤyĠ": 1211,
      "ÅĽrod": 1212,
      "Ġkil": 1213,
      "kon": 1214,
      "pety": 1215,
      "mÃ³": 1216,
      "czek": 1217,
      "Ġzna": 1218,
      "skaĠ": 1219,
      "amiÄĻ": 1220,
      "moÅ¼": 1221,
      "Ġsobie": 1222,
      "ali": 1223,
      "Przepi": 1224,
      "istor": 1225,
      "Ġbi": 1226,
      "staÅĤ": 1227,
      "nowu": 1228,
      "ĠktÃ³r": 1229,
      "uÅĽmiech": 1230,
      "emĠiĠ": 1231,
      "ego": 1232,
      "Ġpar": 1233,
      "kaĠiĠ": 1234,
      "sty": 1235,
      "Ġpat": 1236,
      "tycz": 1237,
      "dziej": 1238,
      "drzwi": 1239,
      "o,Ġ": 1240,
      "ĠiĠw": 1241,
      "ec": 1242,
      "reszt": 1243,
      "tymĠ": 1244,
      "ĠklasyĠ": 1245,
      "sÅĤa": 1246,
      "niÄħ": 1247,
      "rzuci": 1248,
      "Äħz": 1249,
      "ri": 1250,
      "rzÄħd": 1251,
      "rÃ³ci": 1252,
      "ÅĤÄħ": 1253,
      "maÅĤ": 1254,
      "JÄĻdr": 1255,
      ".ĠCh": 1256,
      "zro": 1257,
      "wiel": 1258,
      "aÄĩĠ": 1259,
      "rosz": 1260,
      "kolwie": 1261,
      "resz": 1262,
      "itd": 1263,
      "JaĠ": 1264,
      "cel": 1265,
      "ÅĽciÄħ": 1266,
      "waÅĤĠ": 1267,
      "Å¼eliĠ": 1268,
      "owaÅĤĠ": 1269,
      "prost": 1270,
      ".ĠI": 1271,
      "sÄħ": 1272,
      "nyĠiĠ": 1273,
      "Ġku": 1274,
      "rob": 1275,
      "och": 1276,
      "Ġbar": 1277,
      "ÅĤos": 1278,
      "ÅĽle": 1279,
      "?ĠâĢĶ": 1280,
      "Ã³Åº": 1281,
      "lon": 1282,
      "nim": 1283,
      "Ġch": 1284,
      "okro": 1285,
      "sÃ³b": 1286,
      ".ĠU": 1287,
      "onĠ": 1288,
      "siebie": 1289,
      "Ã³s": 1290,
      "dzien": 1291,
      "kole": 1292,
      "stÄħ": 1293,
      "Kleryk": 1294,
      "rodzaj": 1295,
      "ap": 1296,
      "nieĠwy": 1297,
      "Å¼on": 1298,
      "czaj": 1299,
      "caleĠ": 1300,
      ".ĠCz": 1301,
      "ĠdlaĠ": 1302,
      "zw": 1303,
      "ĠprzyĠ": 1304,
      "szkol": 1305,
      "kamiĠ": 1306,
      "ze": 1307,
      "rac": 1308,
      "nieĠs": 1309,
      ".ĊĊN": 1310,
      "tÅĤu": 1311,
      "korepety": 1312,
      "ura": 1313,
      "Ã³wczas": 1314,
      "ktÃ³": 1315,
      "iĠwy": 1316,
      "rew": 1317,
      "dzieÄĩ": 1318,
      "egzami": 1319,
      "ruch": 1320,
      "aÅĤ,Ġ": 1321,
      "kory": 1322,
      "rusz": 1323,
      "nieĠbyÅĤ": 1324,
      "Å¼sz": 1325,
      "CoĠ": 1326,
      "eÅĽ": 1327,
      "rzÄĻ": 1328,
      "ca,Ġ": 1329,
      "ach,Ġ": 1330,
      "oÅ¼": 1331,
      "Ġdrz": 1332,
      "Ã³st": 1333,
      "ski,Ġ": 1334,
      "czo": 1335,
      "siÄĻĠwĠ": 1336,
      "miast": 1337,
      "Ġzie": 1338,
      "cich": 1339,
      "panĠ": 1340,
      "rzÄĻd": 1341,
      "tel": 1342,
      "god": 1343,
      "paniĠBorowicz": 1344,
      "noc": 1345,
      "prowadzi": 1346,
      "gad": 1347,
      "ej,Ġ": 1348,
      "ÅĽni": 1349,
      "jakbyĠ": 1350,
      "ĠksiÄħÅ¼": 1351,
      "me": 1352,
      "szczÄĻ": 1353,
      "ĠtejĠ": 1354,
      "sÅĤysz": 1355,
      "koleg": 1356,
      "jakoĠ": 1357,
      "oweĠ": 1358,
      "wyczaj": 1359,
      "tÄĻ": 1360,
      "ciÄĻÅ¼": 1361,
      "my": 1362,
      ".ĊĊZ": 1363,
      "ichĠ": 1364,
      ".ĊĊâĢĶĠP": 1365,
      "Ġpol": 1366,
      "dzieci": 1367,
      "Ġbu": 1368,
      "gleĠ": 1369,
      "aÅĤĠwĠ": 1370,
      "raj": 1371,
      "skiego": 1372,
      "MarcinekĠ": 1373,
      "osob": 1374,
      "szĠ": 1375,
      "awron": 1376,
      "nastÄĻp": 1377,
      "ÄħceĠ": 1378,
      "ÅĤow": 1379,
      "przezĠ": 1380,
      "powiad": 1381,
      "Ġkar": 1382,
      "aÅĤĠdoĠ": 1383,
      "histor": 1384,
      "nadĠ": 1385,
      "szczy": 1386,
      "ch,Ġ": 1387,
      "Ġsy": 1388,
      "teÅ¼": 1389,
      "gÅĤÄĻbo": 1390,
      "bÄĻdzie": 1391,
      "ĠprzedĠ": 1392,
      "cuĠ": 1393,
      "czasemĠ": 1394,
      "anie": 1395,
      "pal": 1396,
      "ajÄħceĠ": 1397,
      "drze": 1398,
      "Ġob": 1399,
      "Ġwol": 1400,
      "aÅ¼ĠdoĠ": 1401,
      "ab": 1402,
      "podĠ": 1403,
      "stop": 1404,
      "lecz": 1405,
      "jaki": 1406,
      "ÅĽmier": 1407,
      "lite": 1408,
      "prawi": 1409,
      "anieĠ": 1410,
      "Ġtakie": 1411,
      "wiÄĻc": 1412,
      "aÅ¼d": 1413,
      "ÅĤĠsiÄĻĠ": 1414,
      "klasyĠ": 1415,
      "jedy": 1416,
      "ni,Ġ": 1417,
      "kowi": 1418,
      "le,Ġ": 1419,
      "podob": 1420,
      "niÄħĠ": 1421,
      "czer": 1422,
      "wyk": 1423,
      "dziaÅĤĠ": 1424,
      "ole": 1425,
      "wor": 1426,
      "aĠpo": 1427,
      "Wi": 1428,
      "kaÅ¼": 1429,
      "MarcinkaĠ": 1430,
      "Ã³wĠiĠ": 1431,
      "rÃ³wnie": 1432,
      "wiÄĻk": 1433,
      "kÄħĠ": 1434,
      "rami": 1435,
      "ajÄħcĠsiÄĻ": 1436,
      "czÄħÅĤ": 1437,
      "naĠz": 1438,
      "gÅĤÄĻb": 1439,
      "naĠw": 1440,
      "ĠteĠ": 1441,
      "szelkie": 1442,
      "siÃ³d": 1443,
      "ktÃ³rzyĠ": 1444,
      "czyst": 1445,
      ",ĠjakĠ": 1446,
      "aÅ¼ebyĠ": 1447,
      "ksiÄħÅ¼": 1448,
      "nist": 1449,
      "gimnazj": 1450,
      "gimnazjal": 1451,
      "ĠĠ": 1452,
      "Ġwod": 1453,
      "min": 1454,
      "ÅĽrÃ³d": 1455,
      "trz": 1456,
      "lew": 1457,
      "Ġdaw": 1458,
      "mier": 1459,
      ".ĠMi": 1460,
      ",Ġprzy": 1461,
      "usi": 1462,
      "ToĠ": 1463,
      "Ġdom": 1464,
      "waÅ¼": 1465,
      "Ġkie": 1466,
      ",ĠkiedyĠ": 1467,
      "wÅĤa": 1468,
      "nieĠp": 1469,
      "szu": 1470,
      "aÅĤa": 1471,
      "aniaĠ": 1472,
      "nos": 1473,
      "takĠ": 1474,
      "gor": 1475,
      "jestĠ": 1476,
      "tur": 1477,
      "zyw": 1478,
      "gnie": 1479,
      "owej": 1480,
      "naleÅ¼": 1481,
      "odpowie": 1482,
      "dziel": 1483,
      "swegoĠ": 1484,
      "mnie": 1485,
      "ari": 1486,
      "âĢĿ,Ġ": 1487,
      "gimnazjumĠ": 1488,
      "ÅĤaci": 1489,
      "yĠnaĠ": 1490,
      "wien": 1491,
      "Wale": 1492,
      "liw": 1493,
      "dwaĠ": 1494,
      "jech": 1495,
      "jrze": 1496,
      ".ĠPrze": 1497,
      "oĠw": 1498,
      "nÄĻÅĤyĠ": 1499,
      "jakieÅĽ": 1500,
      "Ġzd": 1501,
      "czyni": 1502,
      "szczeg": 1503,
      "ral": 1504,
      "prowadz": 1505,
      "tejĠ": 1506,
      ".ĠSt": 1507,
      "umy": 1508,
      "kolwiek": 1509,
      "ĠnieĠ": 1510,
      "takie": 1511,
      "lec": 1512,
      "ÅĤĠwĠ": 1513,
      "liwie": 1514,
      "niko": 1515,
      "oba": 1516,
      "Mich": 1517,
      "nieĠpo": 1518,
      "czÄħÅĤĠ": 1519,
      "nosi": 1520,
      "Ã³g": 1521,
      "czter": 1522,
      "aÅĤy": 1523,
      "ĠmiÄĻdzyĠ": 1524,
      "czegoĠ": 1525,
      "res": 1526,
      "MajewskiĠ": 1527,
      ".ĠBorowicz": 1528,
      "stanowi": 1529,
      "ek,Ġ": 1530,
      "Ġzad": 1531,
      "legÅĤ": 1532,
      "szar": 1533,
      "jedno": 1534,
      "wyci": 1535,
      "szlach": 1536,
      "eĠiĠ": 1537,
      "kry": 1538,
      "naĠpo": 1539,
      "koch": 1540,
      "ona": 1541,
      "raÅ¼e": 1542,
      "Ġpe": 1543,
      "szero": 1544,
      "y,ĠaĠ": 1545,
      "sposob": 1546,
      "!ĠâĢĶĠ": 1547,
      "run": 1548,
      "Ġdu": 1549,
      "âĢĶĠiĠ": 1550,
      "ĠsposÃ³b": 1551,
      ".ĊĊS": 1552,
      "Ġbie": 1553,
      "asz": 1554,
      "nios": 1555,
      "lam": 1556,
      "Gawron": 1557,
      "gro": 1558,
      "ĠwÅĤa": 1559,
      "aty": 1560,
      "skimĠ": 1561,
      "eĠz": 1562,
      "lekcj": 1563,
      "Å¼yw": 1564,
      "owaniaĠ": 1565,
      "zaw": 1566,
      "kich": 1567,
      "ĠbyÅĤĠ": 1568,
      "kwi": 1569,
      "rzuc": 1570,
      "ku,Ġ": 1571,
      "dol": 1572,
      "Klerykowie": 1573,
      "lasi": 1574,
      "ygie": 1575,
      "Ch": 1576,
      ".ĊĊK": 1577,
      "mut": 1578,
      "ucie": 1579,
      "Ġprzez": 1580,
      "rozma": 1581,
      "paniĠ": 1582,
      "Jak": 1583,
      "rozumie": 1584,
      "lub": 1585,
      "No": 1586,
      "tÄħd": 1587,
      "miÄĻ": 1588,
      "ĠwiÄĻc": 1589,
      "ÄĩĠw": 1590,
      "niÄĻ": 1591,
      "anÄħ": 1592,
      "obok": 1593,
      "Ġtej": 1594,
      "reszcie": 1595,
      "Ġdob": 1596,
      "ciÄħgleĠ": 1597,
      "mni": 1598,
      "?ĊĊ": 1599,
      "ĠzupeÅĤ": 1600,
      "najm": 1601,
      "ĠpodĠ": 1602,
      "zm": 1603,
      "skÄħ": 1604,
      "ado": 1605,
      "Ros": 1606,
      "niec": 1607,
      "drzwiĠ": 1608,
      "wol": 1609,
      "korytarz": 1610,
      "âĢŀB": 1611,
      "spÃ³ÅĤ": 1612,
      "Le": 1613,
      "tet": 1614,
      "naĠp": 1615,
      "koÅĤ": 1616,
      "ĠduÅ¼": 1617,
      "wido": 1618,
      "ĠwoÅĤ": 1619,
      "panaĠ": 1620,
      "rach": 1621,
      "zgl": 1622,
      "stru": 1623,
      "Ġka": 1624,
      "?ĠâĢĶĠ": 1625,
      "Ġzak": 1626,
      "mieszka": 1627,
      "ÅĽrÃ³dĠ": 1628,
      "tuĠ": 1629,
      "owaÄĩ": 1630,
      "rzÄħc": 1631,
      "ĠpÃ³ÅĤ": 1632,
      "rok": 1633,
      "krze": 1634,
      "and": 1635,
      "Ġser": 1636,
      "ul": 1637,
      "amiĠiĠ": 1638,
      "mej": 1639,
      "*Ġ": 1640,
      "ac": 1641,
      "kle": 1642,
      "nego": 1643,
      ",Ġb": 1644,
      "Ġbez": 1645,
      "szybkoĠ": 1646,
      "Michci": 1647,
      "krÃ³tceĠ": 1648,
      "di": 1649,
      "dwie": 1650,
      "aÅĤaĠsiÄĻĠ": 1651,
      "czÄĻst": 1652,
      ",ĠgdyÅ¼": 1653,
      "jÄĻt": 1654,
      "ychodzi": 1655,
      "dyrektor": 1656,
      "cyj": 1657,
      "fil": 1658,
      "ajÄħcyĠ": 1659,
      "owaÄĩĠ": 1660,
      "rzeczy": 1661,
      "czni": 1662,
      "gimnazjum": 1663,
      "dziedzi": 1664,
      "Nog": 1665,
      "mal": 1666,
      "ÅĤÃ³Å¼": 1667,
      "ono": 1668,
      ".ĠSz": 1669,
      "trzym": 1670,
      "rza": 1671,
      "wierz": 1672,
      "up": 1673,
      "cier": 1674,
      "oczymaĠ": 1675,
      "ÅĤot": 1676,
      "kami": 1677,
      "czÄħc": 1678,
      "Ġznaj": 1679,
      "aÅĤaĠsiÄĻ": 1680,
      "men": 1681,
      "ĠjegoĠ": 1682,
      "ajÄħ": 1683,
      "ĠiĠza": 1684,
      "syn": 1685,
      "teÅ¼Ġ": 1686,
      "waÄĩĠ": 1687,
      "cÃ³Å¼": 1688,
      "id": 1689,
      "stos": 1690,
      "przyĠ": 1691,
      "stanÄħ": 1692,
      "i,Ġ": 1693,
      "ĠsÅĤy": 1694,
      "chy": 1695,
      "War": 1696,
      "nt": 1697,
      "ĠtakĠ": 1698,
      "dago": 1699,
      "pyta": 1700,
      "stÄĻpnej": 1701,
      "niepo": 1702,
      "jawi": 1703,
      "nichĠ": 1704,
      "goĠw": 1705,
      "got": 1706,
      "Pol": 1707,
      ".ĠWie": 1708,
      "nieĠd": 1709,
      "Ġtych": 1710,
      "gospod": 1711,
      "Za": 1712,
      "Ġprofesor": 1713,
      "stancj": 1714,
      ".ĊĊO": 1715,
      "gÅĤÃ³w": 1716,
      "dniaĠ": 1717,
      ".ĊĊD": 1718,
      "nieĠod": 1719,
      "Ġpal": 1720,
      "owejĠ": 1721,
      ".ĠByÅĤĠtoĠ": 1722,
      "brze": 1723,
      "mieni": 1724,
      "ciec": 1725,
      "kichĠ": 1726,
      "rze,Ġ": 1727,
      "gdybyĠ": 1728,
      "zglÄĻd": 1729,
      "rÃ³d": 1730,
      "emuĠ": 1731,
      "auczycie": 1732,
      "sobieĠ": 1733,
      "dzieÄĩĠ": 1734,
      "moÅ¼eĠ": 1735,
      "Ġzaw": 1736,
      "skoĠ": 1737,
      ".ĠPo": 1738,
      "nap": 1739,
      "aÅĤeĠ": 1740,
      "gÅĤÄĻbiĠ": 1741,
      "koju": 1742,
      "esz": 1743,
      "ÄĻĠw": 1744,
      "Å¼Äħc": 1745,
      "istot": 1746,
      "y,Ġw": 1747,
      "mÅĤod": 1748,
      "rÄĻceĠ": 1749,
      "ce,Ġ": 1750,
      "pÅĤ": 1751,
      "gni": 1752,
      "inte": 1753,
      "bel": 1754,
      "Je": 1755,
      "Ġde": 1756,
      "aryt": 1757,
      "arytme": 1758,
      "sztu": 1759,
      "sied": 1760,
      "daÄĩ": 1761,
      "Ã³gÅĤ": 1762,
      ".ĠNi": 1763,
      "czasie": 1764,
      "Ġdyrektor": 1765,
      "nieĠch": 1766,
      "ge": 1767,
      "kamie": 1768,
      "histori": 1769,
      "szech": 1770,
      "prawie": 1771,
      "onegoĠ": 1772,
      "pewneĠ": 1773,
      "yĠwĠ": 1774,
      "ÅĽlad": 1775,
      "iĠu": 1776,
      "wajÄħc": 1777,
      "ÅĤa,Ġ": 1778,
      "ryÅĤ": 1779,
      ".ĠKiedyĠ": 1780,
      "moĠ": 1781,
      "waÅĤyĠ": 1782,
      "piec": 1783,
      "âĢ¦ĠâĢĶĠrzekÅĤĠ": 1784,
      ",ĠoĠ": 1785,
      "stron": 1786,
      "ĠbezĠ": 1787,
      "Pi": 1788,
      "owa,Ġ": 1789,
      "eri": 1790,
      "ekre": 1791,
      "ych,Ġ": 1792,
      "koÅĽci": 1793,
      "nikt": 1794,
      "ÅĽnieĠ": 1795,
      "ĠksiÄĻ": 1796,
      "sunÄħÅĤĠ": 1797,
      "Ġwielkie": 1798,
      "ĠmaÅĤ": 1799,
      "ĠmiaÅĤĠ": 1800,
      "owaÅĤaĠ": 1801,
      "szedÅĤĠdoĠ": 1802,
      "znacz": 1803,
      "dr": 1804,
      "ziÄĻ": 1805,
      "neĠiĠ": 1806,
      "gaĠ": 1807,
      "dzieciĠ": 1808,
      "skim": 1809,
      "yd": 1810,
      "Åļ": 1811,
      "Ġzam": 1812,
      "byt": 1813,
      "czymĠ": 1814,
      "gramat": 1815,
      "ÅĽcieĠ": 1816,
      "Ġbra": 1817,
      ".ĠZa": 1818,
      "uĠnaĠ": 1819,
      "kur": 1820,
      "niach": 1821,
      "adomo": 1822,
      "obec": 1823,
      "sÅĤo": 1824,
      "Ġmiast": 1825,
      "j,Ġ": 1826,
      "sĠ": 1827,
      "uĠw": 1828,
      "ktoĠ": 1829,
      "niaĠiĠ": 1830,
      "An": 1831,
      "Ġpraw": 1832,
      "wÃ³": 1833,
      "lekcjiĠ": 1834,
      "piÄħt": 1835,
      "prÃ³Å¼": 1836,
      "Zygie": 1837,
      "kimĠ": 1838,
      "duÅ¼": 1839,
      "gÅĤaĠ": 1840,
      "bieg": 1841,
      "krÄĻ": 1842,
      "aÅĤoĠsiÄĻ": 1843,
      "ÅĤaĠsiÄĻ": 1844,
      "wyso": 1845,
      "ĠtÄĻ": 1846,
      "gi,Ġ": 1847,
      "liÅĤ": 1848,
      "sz,Ġ": 1849,
      "Å¼yci": 1850,
      "rzaĠ": 1851,
      ";Ġ": 1852,
      "ĠtÅĤu": 1853,
      "ymczasemĠ": 1854,
      "Ġkat": 1855,
      "ĠpaniĠ": 1856,
      "ytaÅĤĠ": 1857,
      "wale": 1858,
      "roszÄĻ": 1859,
      "ĠpanaĠ": 1860,
      "rzekÅĤaĠ": 1861,
      "nieĠtylkoĠ": 1862,
      "czyliĠ": 1863,
      "ÄħĠw": 1864,
      "mien": 1865,
      ":ĊĊ": 1866,
      "owoĠ": 1867,
      "ĠsweĠ": 1868,
      "daÄĩĠ": 1869,
      "ÄĻĠnaĠ": 1870,
      "nawetĠ": 1871,
      "cisz": 1872,
      "ciel": 1873,
      ".ĊĊMarcinek": 1874,
      "czor": 1875,
      "nocyĠ": 1876,
      "cieka": 1877,
      "ĠdrzwiĠ": 1878,
      "szo": 1879,
      "ĠpoĠpol": 1880,
      "szept": 1881,
      "nie,ĠÅ¼eĠ": 1882,
      "dziejĠ": 1883,
      "tw": 1884,
      "nazwi": 1885,
      "gÅĤoÅĽnoĠ": 1886,
      "wszystkie": 1887,
      "omĠ": 1888,
      "owarzy": 1889,
      "razyĠ": 1890,
      "Ã³ÅĤĠ": 1891,
      "rzeczyĠ": 1892,
      "ksztaÅĤ": 1893,
      "cji,Ġ": 1894,
      "bad": 1895,
      "ĠzawoÅĤ": 1896,
      "przedĠ": 1897,
      "Ġtra": 1898,
      "uczniÃ³w": 1899,
      "dopieroĠ": 1900,
      "drugie": 1901,
      "emĠw": 1902,
      "PrzepiÃ³": 1903,
      "PrzepiÃ³rzy": 1904,
      "omon": 1905,
      "rabi": 1906,
      "Ġzas": 1907,
      "kim": 1908,
      "cic": 1909,
      "staÅĤyĠ": 1910,
      "jakiej": 1911,
      "miaÅĤĠ": 1912,
      "ÅĽwiÄĻt": 1913,
      "ÄĩĠiĠ": 1914,
      "nigdyĠ": 1915,
      "tro": 1916,
      "roĠ": 1917,
      "gÅĤuch": 1918,
      "aÅĤaĠnaĠ": 1919,
      "tajem": 1920,
      "kÃ³wĠ": 1921,
      "worzyÅĤ": 1922,
      "âĢ¦ĠA": 1923,
      "rÃ³wnieÅ¼": 1924,
      "onymĠ": 1925,
      "rzÄħs": 1926,
      "strz": 1927,
      "dziew": 1928,
      "GdyĠ": 1929,
      "!âĢ¦ĊĊ": 1930,
      "Ġpodob": 1931,
      "wielkie": 1932,
      "nieĠwie": 1933,
      "dat": 1934,
      "sÅĤych": 1935,
      ".ĠJed": 1936,
      "rÄĻkÄĻ": 1937,
      "gÄħ": 1938,
      "leci": 1939,
      "Ã³jĠ": 1940,
      "czes": 1941,
      "peÅĤni": 1942,
      "ÄĩĠz": 1943,
      ",ĠÅ¼ebyĠ": 1944,
      "anegoĠ": 1945,
      "tra": 1946,
      "jad": 1947,
      "korepetytor": 1948,
      "ĠmÅĤod": 1949,
      "WiechowskiĠ": 1950,
      "nieĠu": 1951,
      "pl": 1952,
      "skut": 1953,
      "nami": 1954,
      ".ĠPoĠ": 1955,
      "otwar": 1956,
      "liĠw": 1957,
      "opieroĠ": 1958,
      ",ĠtylkoĠ": 1959,
      "samĠ": 1960,
      "urzÄĻd": 1961,
      "cen": 1962,
      "coÅĽ": 1963,
      "uczeÅĦ": 1964,
      "aĠwĠ": 1965,
      "ÅĽpiew": 1966,
      "gimĠ": 1967,
      "licyĠ": 1968,
      "ciw": 1969,
      "ory": 1970,
      "miot": 1971,
      "nicyĠ": 1972,
      "y,ĠÅ¼eĠ": 1973,
      "ÅĤeĠ": 1974,
      "rez": 1975,
      "erw": 1976,
      "ĠkaÅ¼d": 1977,
      "Mo": 1978,
      "miejscu": 1979,
      "ĠmÅĤodzie": 1980,
      "lerykow": 1981,
      "gwi": 1982,
      "ÅĤadzi": 1983,
      "litera": 1984,
      "tetter": 1985,
      "iru": 1986,
      "spi": 1987,
      "tychĠ": 1988,
      "czasu": 1989,
      "ÄħĠz": 1990,
      "kilkaĠ": 1991,
      "rĠ": 1992,
      "ĠbardzoĠ": 1993,
      "onymiĠ": 1994,
      "Ġzaj": 1995,
      "ska,Ġ": 1996,
      "ychĠw": 1997,
      "ĠtychĠ": 1998,
      "gaÅĤ": 1999,
      "uczu": 2000,
      "skoÅĦ": 2001,
      "patrz": 2002,
      "caÅĤÄħ": 2003,
      "ukaz": 2004,
      "upÅĤy": 2005,
      "Ġdrze": 2006,
      "szere": 2007,
      "widzi": 2008,
      "auczyciel": 2009,
      "grub": 2010,
      "zak": 2011,
      "bliÅ¼": 2012,
      "kom": 2013,
      "szczegÃ³l": 2014,
      "Cz": 2015,
      "ÅĽwiad": 2016,
      "tÃ³w": 2017,
      "izbyĠ": 2018,
      "prac": 2019,
      "Ġdost": 2020,
      "chÄĻ": 2021,
      "rub": 2022,
      "lepie": 2023,
      "godzinyĠ": 2024,
      "czego": 2025,
      "ĠmyÅĽl": 2026,
      "siadÅĤĠnaĠ": 2027,
      "wiÄħz": 2028,
      "nagleĠ": 2029,
      "knÄħÅĤ": 2030,
      "mru": 2031,
      ",ĠwĠ": 2032,
      "Äĩwi": 2033,
      "aĠzĠ": 2034,
      "sku,Ġ": 2035,
      "grom": 2036,
      "szedÅĤĠ": 2037,
      "*,Ġ*": 2038,
      "ĠpiÄĻ": 2039,
      "akiĠ": 2040,
      "gicz": 2041,
      "byÄĩ": 2042,
      "mok": 2043,
      "byÅĤĠ": 2044,
      "ne,Ġ": 2045,
      "bro": 2046,
      "dobr": 2047,
      "Å¼eb": 2048,
      "roÅĽ": 2049,
      "cznie": 2050,
      "miaÅĤ": 2051,
      "rwo": 2052,
      "owanoĠ": 2053,
      "ĠbÄĻdzie": 2054,
      "idzie": 2055,
      "ÅĤat": 2056,
      "ĠmiĠ": 2057,
      "St": 2058,
      "skrzy": 2059,
      ".ĠPrzy": 2060,
      "nd": 2061,
      "czej": 2062,
      "gospoda": 2063,
      "pÅĤyw": 2064,
      "!ĊĊâĢĶĠ": 2065,
      ",ĠgdyÅ¼Ġ": 2066,
      "ĠoĠ": 2067,
      "tÅĤuma": 2068,
      "mieÅĽci": 2069,
      "Ġby": 2070,
      "âĢŀstar": 2071,
      "Szwar": 2072,
      "omonowicz": 2073,
      "chle": 2074,
      "lasist": 2075,
      "kiewicz": 2076,
      "konie": 2077,
      "niezmier": 2078,
      "anychĠ": 2079,
      "Ġdro": 2080,
      "warzyĠ": 2081,
      "nale": 2082,
      ".ĠWy": 2083,
      "ĠwidziaÅĤ": 2084,
      "eb": 2085,
      "Ã³wdzie": 2086,
      "strzegÅĤ": 2087,
      "ĠsÅĤu": 2088,
      "nÄĻÅĤoĠ": 2089,
      "ÅĤoÅĽci": 2090,
      "chod": 2091,
      "pli": 2092,
      "Ġpy": 2093,
      "strasz": 2094,
      "rozmait": 2095,
      "nieĠprze": 2096,
      "fami": 2097,
      "Ġwym": 2098,
      "Ġwyraz": 2099,
      "caÅĤejĠ": 2100,
      "puÅĽci": 2101,
      "szczÄħc": 2102,
      "znowuĠ": 2103,
      "gÅĤowie": 2104,
      "okrop": 2105,
      "gna": 2106,
      "gÅĤowÄĻ": 2107,
      "âĢ¦âĢĿ": 2108,
      "JÃ³": 2109,
      "aÅĤem": 2110,
      "kieĠ": 2111,
      "nauczycielaĠ": 2112,
      "ĠmiaÅĤ": 2113,
      "Ġzami": 2114,
      "owyĠ": 2115,
      "kien": 2116,
      "rozpa": 2117,
      ",Ġu": 2118,
      "dzieÅĦ": 2119,
      "puszcz": 2120,
      "wiÄĻ": 2121,
      "koÅĤoĠ": 2122,
      ".ĊĊâĢĶĠN": 2123,
      "ruszyÅĤ": 2124,
      ".ĠOd": 2125,
      "ĠiĠu": 2126,
      "muĠsiÄĻ": 2127,
      ".ĊĊB": 2128,
      ",ĠpoĠ": 2129,
      "ÅĤon": 2130,
      "aÅĤyĠnaĠ": 2131,
      "ĠmoÅ¼": 2132,
      "WĠ": 2133,
      "rozmow": 2134,
      "lcze": 2135,
      "ÅĤyĠsiÄĻĠ": 2136,
      "bÅĤa": 2137,
      "naĠt": 2138,
      "rosyjskie": 2139,
      "tenĠ": 2140,
      "ziÄħ": 2141,
      "caÅĤeĠ": 2142,
      "aÅĤoĠsiÄĻĠ": 2143,
      "roÅ¼": 2144,
      "ĠsÄħ": 2145,
      "rycz": 2146,
      "Ġdw": 2147,
      "ÅĤud": 2148,
      "rozpo": 2149,
      ",ĠiĠ": 2150,
      "zawszeĠ": 2151,
      "Å¼yĠ": 2152,
      "swymĠ": 2153,
      "niÅ¼": 2154,
      "dziÅĤĠ": 2155,
      "fra": 2156,
      "nalaz": 2157,
      "mienie": 2158,
      "ekto": 2159,
      "emu": 2160,
      "stÄħpi": 2161,
      "ajÄħcychĠ": 2162,
      "aĠdoĠ": 2163,
      "grun": 2164,
      "ÅĦcaĠ": 2165,
      ",ĠzaĠ": 2166,
      "Ġkan": 2167,
      ",Ġpra": 2168,
      "miejscaĠ": 2169,
      "sweĠ": 2170,
      "szÅĤoĠ": 2171,
      "szer": 2172,
      "lo": 2173,
      "mach": 2174,
      "lÄĻ": 2175,
      "ref": 2176,
      "PrzepiÃ³r": 2177,
      "PrzepiÃ³rkow": 2178,
      ",ĠaniĠ": 2179,
      "utwor": 2180,
      "Kost": 2181,
      "ckle": 2182,
      "âĢŀBiru": 2183,
      "szkoÅĤyĠ": 2184,
      "ustan": 2185,
      "aÅĤyĠw": 2186,
      "ukry": 2187,
      "onej": 2188,
      "ktÃ³reĠ": 2189,
      "Ġzach": 2190,
      "ÄĩĠsiÄĻ": 2191,
      "uĠiĠÃ³wdzie": 2192,
      "cÃ³wĠ": 2193,
      "ÅĤĠsiÄĻĠnaĠ": 2194,
      "kra": 2195,
      "?ĠâĢĶĠzap": 2196,
      "ytaÅĤ": 2197,
      "âĢ¦ĊĊâĢĶĠA": 2198,
      "ÅĤÄĻ": 2199,
      ".ĠâĢŀ": 2200,
      ".ĠMarcin": 2201,
      "Ġpil": 2202,
      "ĠksztaÅĤ": 2203,
      "nÃ³st": 2204,
      "nach": 2205,
      "tychmiast": 2206,
      "wali": 2207,
      "czyÅĤĠ": 2208,
      "ĠiĠpo": 2209,
      "ÄĻb": 2210,
      "Ġprowa": 2211,
      "piÄĻ": 2212,
      "musz": 2213,
      "oli": 2214,
      "czÄħt": 2215,
      "zap": 2216,
      "osÃ³b": 2217,
      "gÅĤosem": 2218,
      "nieĠmog": 2219,
      "szkoleĠ": 2220,
      "ÅĤaĠnaĠ": 2221,
      "lep": 2222,
      "jednymĠ": 2223,
      "dziÅĤ": 2224,
      "knÄħÅĤĠ": 2225,
      "aÅĤaĠw": 2226,
      "zost": 2227,
      "lan": 2228,
      "ÅĽwiet": 2229,
      "ĠwĠsta": 2230,
      "a,ĠaĠ": 2231,
      "wid": 2232,
      "Ġdusz": 2233,
      "se": 2234,
      "mian": 2235,
      "przej": 2236,
      "Ġniez": 2237,
      "jakiÅĽ": 2238,
      "Å¼yÅĤĠsiÄĻ": 2239,
      "gromad": 2240,
      "staÅĤĠ": 2241,
      "zad": 2242,
      "spoglÄħd": 2243,
      "uczyÅĤ": 2244,
      "ÅĤaĠsiÄĻĠ": 2245,
      "cÄĻ": 2246,
      "Ġba": 2247,
      "egzamin": 2248,
      "musi": 2249,
      "kniÄĻt": 2250,
      "Ġdrugie": 2251,
      "waniaĠ": 2252,
      "ĠwykÅĤad": 2253,
      "amiÄĻt": 2254,
      ".ĠWtedyĠ": 2255,
      "tÄĻĠ": 2256,
      "kÄħd": 2257,
      "ens": 2258,
      "aÅĤĠsiÄĻĠdoĠ": 2259,
      "owych": 2260,
      "jaÅĤ": 2261,
      "stancjiĠ": 2262,
      "kimiĠ": 2263,
      "skÅĤad": 2264,
      "siadÅĤ": 2265,
      "Ġto": 2266,
      "Sie": 2267,
      "ksiÄĻ": 2268,
      "jeÅ¼eliĠ": 2269,
      ".ĠJak": 2270,
      "kona": 2271,
      "ĠwÅĤas": 2272,
      "szystkich": 2273,
      "ĠbyĠ": 2274,
      "âĢĿĠiĠ": 2275,
      "Paz": 2276,
      "anych": 2277,
      "aĠwy": 2278,
      ".ĠL": 2279,
      "mÅĤodzie": 2280,
      "ĠbyÅĤaĠ": 2281,
      "Somonowicz": 2282,
      "ont": 2283,
      "Ġposta": 2284,
      "schod": 2285,
      "rzo": 2286,
      "czwar": 2287,
      "zwyczaj": 2288,
      "oĠtoĠ": 2289,
      "zgÃ³": 2290,
      "pust": 2291,
      "dusz": 2292,
      "nat": 2293,
      "yĠwy": 2294,
      "ud": 2295,
      "rÄĻd": 2296,
      "cznieĠ": 2297,
      "ojciec": 2298,
      "ajĠ": 2299,
      "no,Ġ": 2300,
      "mam": 2301,
      "cieÅ¼": 2302,
      "czyÄĩ": 2303,
      "ulic": 2304,
      ".ĠChÅĤo": 2305,
      "szereg": 2306,
      "niecoĠ": 2307,
      "nauczycielĠ": 2308,
      "gwaÅĤ": 2309,
      "Ġwyso": 2310,
      "caÅĤaĠ": 2311,
      "ÄĩĠsiÄĻĠ": 2312,
      ":ĠâĢŀ": 2313,
      "raÅº": 2314,
      "ko,Ġ": 2315,
      ",Ġjakie": 2316,
      "trud": 2317,
      "niesie": 2318,
      "wit": 2319,
      "nieĠk": 2320,
      "grze": 2321,
      "Wol": 2322,
      "brz": 2323,
      "ilo": 2324,
      "one": 2325,
      "Ġdomu": 2326,
      "nieĠwĠ": 2327,
      "awszyĠ": 2328,
      "ĠsÅĤ": 2329,
      "czasuĠ": 2330,
      "ani": 2331,
      "ÄħÅ¼": 2332,
      "pÄĻ": 2333,
      "jakich": 2334,
      "skaz": 2335,
      "yĠpo": 2336,
      "ÅĤy,Ġ": 2337,
      "czyÅĤaĠ": 2338,
      "rewni": 2339,
      "uczniowie": 2340,
      "rozumi": 2341,
      "razu": 2342,
      "ĠsÅĤysze": 2343,
      "we": 2344,
      "owÄħ": 2345,
      "aĠnaĠ": 2346,
      "caÅĤymĠ": 2347,
      "sow": 2348,
      "onejĠ": 2349,
      "II": 2350,
      "arytmety": 2351,
      "nadtoĠ": 2352,
      "caÅĤÄħĠ": 2353,
      "lepi": 2354,
      "ajÄĻ": 2355,
      "kowiĠ": 2356,
      "pamiÄĻ": 2357,
      "ech": 2358,
      "Ġmiejsc": 2359,
      "cy,Ġ": 2360,
      "czeniaĠ": 2361,
      "bÄĻd": 2362,
      "nieĠmo": 2363,
      "Å¼ycie": 2364,
      "deÅĤ": 2365,
      "ekĠiĠ": 2366,
      ",ĠaÅ¼ebyĠ": 2367,
      "ÅĽciÄħĠ": 2368,
      "aczmienie": 2369,
      "ĠsamĠ": 2370,
      "rozwi": 2371,
      "siÄħdz": 2372,
      "eĠdrzwi": 2373,
      "samoĠ": 2374,
      "rado": 2375,
      "gnÄħc": 2376,
      "rozt": 2377,
      "mÄĻ": 2378,
      "rzeczywi": 2379,
      "Ġklasy": 2380,
      "naĠiĠ": 2381,
      "Å¼elaz": 2382,
      "wiat": 2383,
      "resztÄħĠ": 2384,
      "jednegoĠ": 2385,
      "radcaĠ": 2386,
      ".ĠJe": 2387,
      "JÄĻdrek": 2388,
      "Sztetter": 2389,
      "WÅĤadzi": 2390,
      "ckle'": 2391,
      "okolic": 2392,
      "ĠznowuĠ": 2393,
      "yl": 2394,
      "uwaÅ¼": 2395,
      "Ġpier": 2396,
      "ÅĽmi": 2397,
      "piÄĻk": 2398,
      "ĠtenĠ": 2399,
      "wal": 2400,
      "ano": 2401,
      "Ġznowu": 2402,
      "ÅĤyĠsiÄĻ": 2403,
      "teraz": 2404,
      "Å¼e,Ġ": 2405,
      ",Ġo": 2406,
      "leÅĽ": 2407,
      ".ĊĊâĢĶĠCoĠ": 2408,
      "juÅ¼Ġw": 2409,
      "dalekoĠ": 2410,
      "obej": 2411,
      "Ġtu": 2412,
      "ĠdomuĠ": 2413,
      "jakĠgdybyĠ": 2414,
      "owe": 2415,
      "staÅĤaĠ": 2416,
      "ster": 2417,
      "biegÅĤ": 2418,
      ",ĠpanĠ": 2419,
      "ĠdwaĠ": 2420,
      "pyĠ": 2421,
      "aÅĤĠzĠ": 2422,
      "natychmiast": 2423,
      ",ĠczyĠ": 2424,
      "aÅĤ,ĠÅ¼eĠ": 2425,
      "Marcinka": 2426,
      "famili": 2427,
      "stam": 2428,
      "stamtÄħd": 2429,
      "ĠzawszeĠ": 2430,
      "rem": 2431,
      "aÅĤĠsiÄĻĠw": 2432,
      "achĠiĠ": 2433,
      "owegoĠ": 2434,
      "raÅ¼": 2435,
      "dzeniaĠ": 2436,
      "pry": 2437,
      "bier": 2438,
      "âĢ¦âĢĿĊĊ": 2439,
      "osy": 2440,
      "Ġdrog": 2441,
      "trzeszcz": 2442,
      "dÄĻ": 2443,
      "kiegoĠ": 2444,
      "aÅĤĠmu": 2445,
      "wer": 2446,
      "obc": 2447,
      "Mi": 2448,
      "siÃ³dmej": 2449,
      "ÅĤoÅ¼yÅĤ": 2450,
      "ary": 2451,
      "idÄħc": 2452,
      "nicĠnie": 2453,
      "naÅĤ": 2454,
      "Ġmusi": 2455,
      "zj": 2456,
      "nieĠbyÅĤoĠ": 2457,
      "Ġprawie": 2458,
      "ĠdopieroĠ": 2459,
      "anej": 2460,
      "pot": 2461,
      "niÃ³s": 2462,
      "PiÄħt": 2463,
      "bardziejĠ": 2464,
      "ÅĽmiertel": 2465,
      "dzyĠ": 2466,
      "czytaÅĤ": 2467,
      "wig": 2468,
      "art": 2469,
      "rot": 2470,
      "nÄĻdz": 2471,
      "Ġwido": 2472,
      "trw": 2473,
      "ĠpamiÄĻ": 2474,
      "list": 2475,
      ".ĊĊWĠ": 2476,
      "czteryĠ": 2477,
      "rozbi": 2478,
      "Ġtego": 2479,
      "szÅĤyĠ": 2480,
      "ina": 2481,
      "cje": 2482,
      "red": 2483,
      "Ġpedago": 2484,
      "Ġwar": 2485,
      "iem": 2486,
      "syĠ": 2487,
      "kiĠw": 2488,
      "szaf": 2489,
      "owiÄħz": 2490,
      "najmniej": 2491,
      "jÃ³w": 2492,
      "Jaczmienie": 2493,
      "czÅĤowiek": 2494,
      "ĠwielmoÅ¼": 2495,
      "mur": 2496,
      "CzyĠ": 2497,
      "kÃ³j": 2498,
      "mÃ³w": 2499,
      "zaraz": 2500,
      "Ã³Å¼Ġ": 2501,
      "Fi": 2502,
      "prÃ³": 2503,
      "szel": 2504,
      "kaÅ¼d": 2505,
      "stronyĠ": 2506,
      "bla": 2507,
      "oby": 2508,
      "nimiĠ": 2509,
      "daĠ": 2510,
      "pomoc": 2511,
      "Py": 2512,
      "nieĠzĠ": 2513,
      "Dale": 2514,
      ",ĠaĠnawet": 2515,
      "celari": 2516,
      "ludzie": 2517,
      "wzro": 2518,
      "rokuĠ": 2519,
      "fol": 2520,
      "folwar": 2521,
      "wz": 2522,
      "fur": 2523,
      "interes": 2524,
      "bardziej": 2525,
      "dzw": 2526,
      "dzwon": 2527,
      "Ġkro": 2528,
      "dziÄĻ": 2529,
      "Szwarc": 2530,
      "lok": 2531,
      "siÄħt": 2532,
      "riu": 2533,
      "RadekĠ": 2534,
      "Walec": 2535,
      "Zygier": 2536,
      "ÅĦstwoĠ": 2537,
      "pÅĤa": 2538,
      "zgÃ³rz": 2539,
      "lot": 2540,
      "led": 2541,
      "aniĠBorowiczowaĠ": 2542,
      "Åģ": 2543,
      "Ġprzerw": 2544,
      "mysÅĤ": 2545,
      "gorz": 2546,
      "nÄħĠiĠ": 2547,
      "czap": 2548,
      "smut": 2549,
      "rozko": 2550,
      "nikÅĤ": 2551,
      "stojÄħc": 2552,
      "okry": 2553,
      "chÅĤopcaĠ": 2554,
      "?ĊĊâĢĶĠA": 2555,
      "Ġzaraz": 2556,
      "aÅĤĠsiÄĻĠwĠ": 2557,
      "kaÅĤ": 2558,
      "bole": 2559,
      "miejsc": 2560,
      "mimoĠ": 2561,
      "spojrze": 2562,
      "Å¼d": 2563,
      "Ã³z": 2564,
      "wil": 2565,
      "miejsceĠ": 2566,
      "buch": 2567,
      ",ĠzĠ": 2568,
      "zu": 2569,
      "liĠz": 2570,
      "spad": 2571,
      "ywaÅĤĠ": 2572,
      ".ĠByÅĤaĠ": 2573,
      "CÃ³Å¼": 2574,
      ",ĠproszÄĻ": 2575,
      "ceĠiĠ": 2576,
      "ÅĽci,Ġ": 2577,
      "wrac": 2578,
      "coraz": 2579,
      "ate": 2580,
      "ÄĩĠoĠ": 2581,
      "ĠtakiĠ": 2582,
      "pomin": 2583,
      ",ĠktÃ³raĠ": 2584,
      "jrzaÅĤĠnaĠ": 2585,
      "nas": 2586,
      "rap": 2587,
      "nogiĠ": 2588,
      "baw": 2589,
      "noÅĽÄĩĠ": 2590,
      "noÅĽciÄħ": 2591,
      "ÄĩĠzĠ": 2592,
      "czuÅĤ": 2593,
      "rozpacz": 2594,
      "Ġprzecie": 2595,
      "mÃ³wiÅĤ": 2596,
      ".ĊĊâĢĶĠO": 2597,
      "aĠzaĠ": 2598,
      "takiĠ": 2599,
      "ÄĩĠdoĠ": 2600,
      "kiem,Ġ": 2601,
      "nast": 2602,
      "aki": 2603,
      "tch": 2604,
      "kÄĻĠiĠ": 2605,
      "wszystkoĠ": 2606,
      "ony": 2607,
      "Ġmieszka": 2608,
      ".ĠZaĠ": 2609,
      "ÅĤszyĠ": 2610,
      "owskich": 2611,
      "jas": 2612,
      "Po": 2613,
      "taj": 2614,
      "nieĠo": 2615,
      "sur": 2616,
      "kated": 2617,
      "onÄħĠ": 2618,
      ".ĠDopieroĠ": 2619,
      "kazyw": 2620,
      "ÅĽciwie": 2621,
      "aÅĤĠd": 2622,
      "pomni": 2623,
      "wiej": 2624,
      "staryĠ": 2625,
      ":ĊĊĊ": 2626,
      "ĠpoĠrosyj": 2627,
      "profesor": 2628,
      "Ġpor": 2629,
      "giemĠ": 2630,
      "Ġzim": 2631,
      "jakÄħ": 2632,
      "PanĠ": 2633,
      "bezĠ": 2634,
      "arÃ³w": 2635,
      ".ĠZĠ": 2636,
      "Ġwz": 2637,
      "ychowa": 2638,
      "niebie": 2639,
      "Ġwiadomo": 2640,
      "ÅĤaĠw": 2641,
      "ĠzĠb": 2642,
      "wÅĤad": 2643,
      "namiĠ": 2644,
      "Ġze": 2645,
      "akÃ³w": 2646,
      ".ĠWszyscyĠ": 2647,
      "bliÅ¼yÅĤĠsiÄĻ": 2648,
      "kachĠ": 2649,
      "gÅĤosemĠ": 2650,
      "ektora": 2651,
      "ĠmoÅ¼eĠ": 2652,
      "ÅĤĠsiÄĻĠdoĠ": 2653,
      "tat": 2654,
      "ciaÅĤ": 2655,
      "ĠzĠt": 2656,
      "roku": 2657,
      "rozkaz": 2658,
      "prz": 2659,
      "niena": 2660,
      "ĠkuĠ": 2661,
      "ÅĤĠdoĠ": 2662,
      "skieĠ": 2663,
      "skuĠ": 2664,
      "rÃ³Å¼neĠ": 2665,
      "szÅĤaĠ": 2666,
      "stareĠ": 2667,
      ".ĊĊĊĊ": 2668,
      "pt": 2669,
      "ĠĠĠĠ": 2670,
      ",ĠÅ¼eĠtoĠ": 2671,
      "Ġsekre": 2672,
      "ĠzĠw": 2673,
      "laczegoĠ": 2674,
      "owo": 2675,
      "Klerykow": 2676,
      "skiejĠ": 2677,
      "Ġkamie": 2678,
      "imie": 2679,
      "ora": 2680,
      "rzebi": 2681,
      "kier": 2682,
      "chleb": 2683,
      "cÄħc": 2684,
      "turyĠ": 2685,
      "ziemi": 2686,
      ".ĠPod": 2687,
      "ct": 2688,
      "uÅĤ": 2689,
      "strzel": 2690,
      "Pyrzo": 2691,
      "noprÃ³Å¼": 2692,
      "MarcinaĠ": 2693,
      "dzieÅĦĠ": 2694,
      "zim": 2695,
      "ÅĽnieg": 2696,
      "aÅĤyĠsiÄĻĠ": 2697,
      "ĠswymĠ": 2698,
      "ĠpewnegoĠ": 2699,
      "robot": 2700,
      "nieĠt": 2701,
      "bok": 2702,
      "ĠpiÄĻk": 2703,
      "owejĠchwiliĠ": 2704,
      "Ġtwarz": 2705,
      "goĠdoĠ": 2706,
      "wiesz": 2707,
      "ĠdÅĤugie": 2708,
      "stronÄĻ": 2709,
      "ciÅĤĠ": 2710,
      "gÅĤowÄĻĠiĠ": 2711,
      "ÅĦcu": 2712,
      "kolor": 2713,
      "toĠjest": 2714,
      "cza": 2715,
      "ajÄħĠ": 2716,
      "pla": 2717,
      "Ġzda": 2718,
      "ymĠw": 2719,
      "ĠpewnymĠ": 2720,
      "znowu": 2721,
      "gÄħĠ": 2722,
      "niespo": 2723,
      "Ã³Åºniej": 2724,
      "biel": 2725,
      "dyn": 2726,
      "aÅĦ": 2727,
      "jednoĠ": 2728,
      "mnÃ³st": 2729,
      ".ĊĊGdyĠ": 2730,
      "Å¼Ã³ÅĤ": 2731,
      "ÄħĠwĠ": 2732,
      "twarz": 2733,
      "gwaÅĤtow": 2734,
      "corazĠ": 2735,
      "rajÄħc": 2736,
      "nien": 2737,
      "âĢĶĠmÃ³wi": 2738,
      "por": 2739,
      "biaÅĤ": 2740,
      "ajÄħcĠsiÄĻĠdoĠ": 2741,
      "eĠwszystki": 2742,
      "miar": 2743,
      "onyĠbyÅĤ": 2744,
      "ĠkÄħt": 2745,
      "sion": 2746,
      "len": 2747,
      "nej,Ġ": 2748,
      "a,ĠktÃ³r": 2749,
      "Ġzost": 2750,
      "pokoju": 2751,
      "szÄħc": 2752,
      "Pie": 2753,
      "dosy": 2754,
      "caÅĤkowi": 2755,
      "!âĢ¦Ġ": 2756,
      "szedÅĤĠnaĠ": 2757,
      "izb": 2758,
      "cof": 2759,
      "owy": 2760,
      "dzwyczaj": 2761,
      "gan": 2762,
      "Ġkilku": 2763,
      "ĠwolnaĠ": 2764,
      "pÃ³ÅĤ": 2765,
      "ĠterazĠ": 2766,
      "eraz": 2767,
      "ĠwĠtymĠ": 2768,
      "ÅĤÄĻd": 2769,
      "nieĠjest": 2770,
      "orst": 2771,
      "dziec": 2772,
      "Ġsyn": 2773,
      "ciÄħgnÄħÅĤĠ": 2774,
      "gÅĤa": 2775,
      "niesi": 2776,
      "kojuĠ": 2777,
      "Gawronek": 2778,
      "Ġjak": 2779,
      "ĠnieĠm": 2780,
      "Ġkrze": 2781,
      "kaĠwy": 2782,
      "chni": 2783,
      "sen": 2784,
      "kawale": 2785,
      "man": 2786,
      "Michcik": 2787,
      "ÅĤawie": 2788,
      "ho": 2789,
      "Na": 2790,
      "nakĠ": 2791,
      "mod": 2792,
      "chwilÄĻ": 2793,
      "niekiedyĠ": 2794,
      "czaÅĤĠ": 2795,
      "dzeĠ": 2796,
      "amiĠnaĠ": 2797,
      "Ã³ÅºniejĠ": 2798,
      "suw": 2799,
      "ĠgoĠ": 2800,
      "nabo": 2801,
      ",ĠaĠw": 2802,
      "ĠtedyĠ": 2803,
      ".ĠÅ»": 2804,
      "robiÄĩ": 2805,
      "samegoĠ": 2806,
      ".ĠNa": 2807,
      "nieniaĠ": 2808,
      "kola": 2809,
      "gramaty": 2810,
      "lubi": 2811,
      "fizy": 2812,
      "owaÅĤyĠ": 2813,
      "stw": 2814,
      "gon": 2815,
      ",Ġod": 2816,
      "daÄĩĠbyÅĤoĠ": 2817,
      "jaÅĤow": 2818,
      "ĠbÄĻd": 2819,
      "niÅĤ": 2820,
      "Rosj": 2821,
      "godzin": 2822,
      ":ĊĊâĢĶĠP": 2823,
      "ber": 2824,
      "czneĠ": 2825,
      "jÄħÅĤ": 2826,
      "âĢĶĠrzekÅĤĠ": 2827,
      ",ĠktÃ³regoĠ": 2828,
      "coĠdoĠ": 2829,
      "rwi": 2830,
      "czym": 2831,
      "oÅĤa": 2832,
      ".ĊĊâĢĶĠTak": 2833,
      "czasĠ": 2834,
      "stole": 2835,
      "Ġtym": 2836,
      "kot": 2837,
      "ÅĤaĠiĠ": 2838,
      "wrÃ³ci": 2839,
      "owaneĠ": 2840,
      "siÄĻg": 2841,
      "szych": 2842,
      "cisk": 2843,
      "bru": 2844,
      "dziÅĤyĠ": 2845,
      "gÅĤosĠ": 2846,
      "samo": 2847,
      "mÄĻÅ¼": 2848,
      "razuĠ": 2849,
      "goĠzĠ": 2850,
      "skona": 2851,
      "Ġdalej": 2852,
      "mieszk": 2853,
      "Å¼yciaĠ": 2854,
      "cjaĠ": 2855,
      "liÅ¼": 2856,
      "feso": 2857,
      "cjeĠ": 2858,
      "cichoĠ": 2859,
      "klerykow": 2860,
      "nadzie": 2861,
      "uz": 2862,
      "ÅĤug": 2863,
      "Dalesz": 2864,
      "radz": 2865,
      "Grzebi": 2866,
      "obja": 2867,
      "zor": 2868,
      "Ġpob": 2869,
      "spomnie": 2870,
      ".ĠCzas": 2871,
      "dziesiÄħt": 2872,
      "Bu": 2873,
      "Ġbad": 2874,
      "Waleckie": 2875,
      "okoÅĤoĠ": 2876,
      "Ġmoc": 2877,
      "staj": 2878,
      "BorowiczĠ": 2879,
      "szlachcic": 2880,
      "miaÅĤaĠ": 2881,
      "alec": 2882,
      "aÅ¼Ġ": 2883,
      "utrz": 2884,
      "ktÃ³rymĠ": 2885,
      "terazĠ": 2886,
      "Ġprzestrze": 2887,
      "naĠd": 2888,
      "zas": 2889,
      "ĠpeÅĤ": 2890,
      "siÄĻĠu": 2891,
      "goÅĽ": 2892,
      "rwszyĠ": 2893,
      "aÅĤu": 2894,
      "chat": 2895,
      "kana": 2896,
      "amiĠw": 2897,
      "Ġznajdow": 2898,
      "kiĠz": 2899,
      "rodze": 2900,
      "Ġpyta": 2901,
      "nieĠdoĠ": 2902,
      "szepnÄħÅĤ": 2903,
      "Bog": 2904,
      "dobro": 2905,
      "osta": 2906,
      "obyw": 2907,
      "lem": 2908,
      "remĠ": 2909,
      "kandy": 2910,
      "ÄħĠwy": 2911,
      "bÅĤy": 2912,
      "kraj": 2913,
      "lit": 2914,
      "Å¼eniaĠ": 2915,
      "dziesiÄĻ": 2916,
      "cien": 2917,
      "kre": 2918,
      "ÄĩĠnie": 2919,
      "piÄħc": 2920,
      "nyĠw": 2921,
      "brzy": 2922,
      "koszu": 2923,
      "choÄĩ": 2924,
      "ÅĤaĠwĠ": 2925,
      "ktu": 2926,
      "nieĠwi": 2927,
      "dziaÅĤaĠ": 2928,
      "uszcz": 2929,
      "samaĠ": 2930,
      "szczyz": 2931,
      "siÄħc": 2932,
      "ĠkiedyĠ": 2933,
      "iad": 2934,
      "ĠtrzebaĠ": 2935,
      "paniĠBorowiczowaĠ": 2936,
      "be": 2937,
      "mÃ³jĠ": 2938,
      "âĢ¦ĠâĢĶĠrzekÅĤ": 2939,
      "pch": 2940,
      "Ġkuch": 2941,
      "ejĠiĠ": 2942,
      "Ni": 2943,
      "ÅĽÄĩĠiĠ": 2944,
      ".ĠMarcinek": 2945,
      "ÅĤok": 2946,
      "chwyci": 2947,
      "poz": 2948,
      "czeniuĠ": 2949,
      "mag": 2950,
      "najdow": 2951,
      "otworzyÅĤ": 2952,
      "ciekawo": 2953,
      "czytaÅĤĠ": 2954,
      "szy,Ġ": 2955,
      "rie": 2956,
      ".ĠTen": 2957,
      "aÄĩĠbyÅĤoĠ": 2958,
      "kak": 2959,
      "fak": 2960,
      "Ġpatrze": 2961,
      "ÄĩĠwĠ": 2962,
      "kazy": 2963,
      "tÄħ": 2964,
      "Å¼al": 2965,
      "caÅĤej": 2966,
      "swychĠ": 2967,
      "okolicyĠ": 2968,
      "Bo": 2969,
      ",Ċ": 2970,
      "forsow": 2971,
      "cznej": 2972,
      "olo": 2973,
      "Ġtre": 2974,
      "Ġtrud": 2975,
      "yÅĽl": 2976,
      "jednakĠ": 2977,
      "Ġwypad": 2978,
      "rosyjskiej": 2979,
      "arÃ³wnoĠ": 2980,
      "jegoĠw": 2981,
      "czaÅĤ": 2982,
      "czyÅĤyĠ": 2983,
      "nychĠiĠ": 2984,
      "grz": 2985,
      "obraz": 2986,
      "szliĠ": 2987,
      "yrektor": 2988,
      "nieĠnaĠ": 2989,
      ".ĊĊâĢĶĠK": 2990,
      "domu": 2991,
      "cznyĠ": 2992,
      "ĠtakĠzw": 2993,
      "odĠnie": 2994,
      "czel": 2995,
      "mak": 2996,
      "trzyĠ": 2997,
      "ÅĦc": 2998,
      "dziewi": 2999,
      "ciemĠ": 3000,
      "reli": 3001,
      "sre": 3002,
      "sÅĤysze": 3003,
      "ĠpanuĠ": 3004,
      "cjÄĻ": 3005,
      "mÃ³wiÄħc": 3006,
      "cent": 3007,
      "ÅĽciaĠ": 3008,
      "nieĠmaĠ": 3009,
      "dwuĠ": 3010,
      ".ĠPan": 3011,
      "dobrzeĠ": 3012,
      "Ġteat": 3013,
      "ony,Ġ": 3014,
      "nÄĻtrz": 3015,
      ",ĠktÃ³rychĠ": 3016,
      "rzyma": 3017,
      "oÅĽ": 3018,
      "stwo": 3019,
      "skar": 3020,
      "waj": 3021,
      "rujÄħc": 3022,
      ".ĠTo": 3023,
      "nychĠw": 3024,
      "wĠKlerykowie": 3025,
      "itd.": 3026,
      "matkaĠ": 3027,
      ",Ġpod": 3028,
      "dam": 3029,
      ".ĠStar": 3030,
      "rÃ³c": 3031,
      "osie": 3032,
      "nieraz": 3033,
      "ĠprawieĠ": 3034,
      ".ĠToĠ": 3035,
      "ana": 3036,
      "aÅ¼dyĠ": 3037,
      "ĠklasieĠ": 3038,
      "fun": 3039,
      "zĠb": 3040,
      "wym": 3041,
      "ografi": 3042,
      "dwu": 3043,
      "Rosja": 3044,
      "piÄħtej": 3045,
      "jÄĻzykaĠ": 3046,
      "odby": 3047,
      "aÅĤĠmuĠ": 3048,
      "refek": 3049,
      "wach": 3050,
      "cÃ³r": 3051,
      "okien": 3052,
      "cukier": 3053,
      "obowiÄħz": 3054,
      "fer": 3055,
      "gal": 3056,
      "spraw": 3057,
      "Mie": 3058,
      "LeimĠ": 3059,
      "kolegÃ³w": 3060,
      "syst": 3061,
      "ty,Ġ": 3062,
      "ÅºrÃ³d": 3063,
      "Kostriu": 3064,
      "Pal": 3065,
      "PÅĤo": 3066,
      "PÅĤonie": 3067,
      "PÅĤoniewicz": 3068,
      "moklasist": 3069,
      "stycz": 3070,
      "odwie": 3071,
      "smu": 3072,
      "pak": 3073,
      "ÅĽl": 3074,
      "lej": 3075,
      ".ĠWi": 3076,
      ".ĠTwarz": 3077,
      "chÅĤopak": 3078,
      "ĠtyleĠ": 3079,
      "nÄħ,Ġ": 3080,
      "ileĠ": 3081,
      "kaĠw": 3082,
      "koÅĤnie": 3083,
      "ki,Ġz": 3084,
      "rÄĻdkoĠ": 3085,
      "kiej": 3086,
      "sÄĻ": 3087,
      "szuk": 3088,
      ",Ġzd": 3089,
      ".ĠRoz": 3090,
      "ĠpÅĤa": 3091,
      "anaĠ": 3092,
      ",ĠwĠktÃ³r": 3093,
      "lini": 3094,
      ".ĊĊâĢĶĠToĠ": 3095,
      "ĠswojÄħ": 3096,
      "PoĠ": 3097,
      "szegoĠ": 3098,
      "Ġmin": 3099,
      "tabli": 3100,
      "trafi": 3101,
      ".ĊĊâĢĶĠAĠ": 3102,
      "dziur": 3103,
      "czerw": 3104,
      "ÅĤoÅĽciĠ": 3105,
      "ogÃ³": 3106,
      "ogÃ³leĠ": 3107,
      "rzeniaĠ": 3108,
      "ton": 3109,
      "iĠroz": 3110,
      "dym": 3111,
      "rodzicÃ³w": 3112,
      "gat": 3113,
      "ofi": 3114,
      "siÄĻĠza": 3115,
      "ÅĤysz": 3116,
      "uwag": 3117,
      "dzwo": 3118,
      "egoĠw": 3119,
      "okÅĤad": 3120,
      "scy": 3121,
      "Ġkierun": 3122,
      "gest": 3123,
      "Ġzwyk": 3124,
      "Lej": 3125,
      "mniej": 3126,
      "dzaĠ": 3127,
      "gÅĤu": 3128,
      "oczym": 3129,
      ".ĊĊR": 3130,
      "aÅĤĠpo": 3131,
      "ÄĻĠoĠ": 3132,
      "byÅĽ": 3133,
      "bymĠ": 3134,
      "mojaĠ": 3135,
      "resztÄħ": 3136,
      "siÄĻĠiĠ": 3137,
      "liz": 3138,
      "MaÅĤ": 3139,
      "zdÅĤu": 3140,
      "Ġsiebie": 3141,
      "stwoĠ": 3142,
      "zdumie": 3143,
      "waÅĤaĠ": 3144,
      "Ġwszystkie": 3145,
      "aÅĤĠsobie": 3146,
      "Äħcie": 3147,
      "steĠ": 3148,
      ".ĊĊU": 3149,
      "dzieliĠ": 3150,
      "Ġsiedzi": 3151,
      ",Ġpat": 3152,
      "rozleg": 3153,
      "us": 3154,
      "okn": 3155,
      "izbie": 3156,
      "wiÄĻkszo": 3157,
      ".ĊĊByÅĤ": 3158,
      "robiÅĤ": 3159,
      "stanow": 3160,
      "?ĠâĢĶĠsp": 3161,
      "ÅĤĠoczyĠ": 3162,
      "czasem": 3163,
      "Ġkrok": 3164,
      "koÅĤaĠ": 3165,
      "Ġmilcze": 3166,
      "âĢĶĠrzekÅĤ": 3167,
      "ÅĦcÃ³w": 3168,
      "ÅĤyĠwĠ": 3169,
      "upÅĤywie": 3170,
      "gwar": 3171,
      "owarzysz": 3172,
      "ĠtakiegoĠ": 3173,
      "mÃ³g": 3174,
      "Å»yd": 3175,
      "czÄĻstoĠ": 3176,
      "Ġbrod": 3177,
      "ja,Ġ": 3178,
      "Ġbut": 3179,
      "ĠtrzyĠ": 3180,
      "lemĠ": 3181,
      "ĠporzÄħd": 3182,
      "ĠsÄħsied": 3183,
      "rofesor": 3184,
      ".ĠDzie": 3185,
      "jajÄħc": 3186,
      "cer": 3187,
      ".ĠÅļ": 3188,
      "przeciw": 3189,
      "opowiad": 3190,
      ".ĊĊPoĠ": 3191,
      ".ĊĊI": 3192,
      "Ġprzypad": 3193,
      "formu": 3194,
      "Ġprac": 3195,
      "alnyĠ": 3196,
      "codzien": 3197,
      "powtarz": 3198,
      "klasyĠw": 3199,
      "wied": 3200,
      "zja": 3201,
      "ychĠk": 3202,
      "legÅĤo": 3203,
      "zda": 3204,
      "wĠtymĠ": 3205,
      "nud": 3206,
      "goĠza": 3207,
      "ÅĤoÅ¼y": 3208,
      "okoĠ": 3209,
      "ktÃ³rejĠ": 3210,
      "niĠz": 3211,
      "Äħcz": 3212,
      "blad": 3213,
      ",Ġpanie": 3214,
      "NaĠ": 3215,
      "Ġmieszk": 3216,
      "okaĠ": 3217,
      "aÅĤĠsiÄĻĠnaĠ": 3218,
      "dar": 3219,
      "Ġteraz": 3220,
      "razem": 3221,
      "liwo": 3222,
      "dro": 3223,
      "anejĠ": 3224,
      "siÄĻ,Ġ": 3225,
      "rwa": 3226,
      "ny,ĠÅ¼eĠ": 3227,
      "!ĠâĢĶĠzawoÅĤ": 3228,
      "jakĠw": 3229,
      "Ka": 3230,
      "ane": 3231,
      "Polak": 3232,
      "Ġpis": 3233,
      "Star": 3234,
      "nikĠ": 3235,
      "der": 3236,
      "iÅĽÄĩ": 3237,
      ".ĠDoĠ": 3238,
      "toteÅ¼Ġ": 3239,
      "studi": 3240,
      ".ĠPra": 3241,
      "aÅĤĠsiÄĻĠzĠ": 3242,
      "zer": 3243,
      "litycz": 3244,
      "ujÄħcyĠ": 3245,
      "ylkoĠ": 3246,
      ".ĊĊPo": 3247,
      "przyby": 3248,
      "ndur": 3249,
      "Å¼ywi": 3250,
      "gospodarzyĠ": 3251,
      "owymĠ": 3252,
      "ĠnieĠwie": 3253,
      "wÅĤo": 3254,
      "owany": 3255,
      "ĠkrÃ³t": 3256,
      "szyn": 3257,
      "DoĠ": 3258,
      "Ġklasy,Ġ": 3259,
      "ĠmieÅĽci": 3260,
      "czniowie": 3261,
      "warg": 3262,
      "nieĠmÃ³gÅĤ": 3263,
      "piÄĻt": 3264,
      "myÅĽli": 3265,
      "ram": 3266,
      "sÄħsied": 3267,
      "Ġpapie": 3268,
      "liĠnaĠ": 3269,
      "jednej": 3270,
      "tÃ³Å¼": 3271,
      "chodziÅĤ": 3272,
      "ĠmyÅĽliĠ": 3273,
      "rodzajuĠ": 3274,
      "Ġpu": 3275,
      "istneĠ": 3276,
      "giel": 3277,
      "celu": 3278,
      "ychĠz": 3279,
      ".ĠIn": 3280,
      "jeÅĽ": 3281,
      "jeÅĽliĠ": 3282,
      "ÅĤoĠiĠ": 3283,
      "ostawi": 3284,
      "aÅĤemĠ": 3285,
      "mawi": 3286,
      "przedmiot": 3287,
      "aĠPrzepiÃ³rzy": 3288,
      "aĠPrzepiÃ³rzyca": 3289,
      ",ĠaĠz": 3290,
      "starusz": 3291,
      "jesie": 3292,
      "pÄĻdz": 3293,
      "Ġziemi": 3294,
      "ĠbyÅĤyĠ": 3295,
      "ĠnieĠz": 3296,
      "skry": 3297,
      "wieczor": 3298,
      "mierz": 3299,
      "koz": 3300,
      "gry": 3301,
      "jedenĠzĠ": 3302,
      "Gum": 3303,
      "Gumowicz": 3304,
      "ÅĽÄĩĠnaĠ": 3305,
      "siÅĤĠ": 3306,
      "sobÄħ": 3307,
      "ewnÄĻtrz": 3308,
      "aÅĤĠsiÄĻĠsÅĤysze": 3309,
      "tyleĠ": 3310,
      "umys": 3311,
      "Borowicz,Ġ": 3312,
      "staregoĠ": 3313,
      "korzy": 3314,
      "fig": 3315,
      "szÃ³st": 3316,
      "Palusz": 3317,
      ".ĠRadek": 3318,
      "WÅĤadzioĠ": 3319,
      "âĢŀFi": 3320,
      "ger": 3321,
      "Stog": 3322,
      "miejsce": 3323,
      "owanych": 3324,
      "pierwszej": 3325,
      "nieustan": 3326,
      "tymiĠ": 3327,
      "bowie": 3328,
      "aÅĤy,Ġ": 3329,
      ".ĊĊPanĠ": 3330,
      "juÅ¼ĠtoĠ": 3331,
      "ÅĤz": 3332,
      "lar": 3333,
      "rozum": 3334,
      "anymĠ": 3335,
      "zaĠtoĠ": 3336,
      "brzeg": 3337,
      "gdzieĠ": 3338,
      "ĠwoÅĤaÅĤĠ": 3339,
      "Gdzie": 3340,
      "ÅĤeb": 3341,
      "Ġbo": 3342,
      "jednÄħ": 3343,
      "rÃ³g": 3344,
      "ĠbiaÅĤ": 3345,
      "weĠ": 3346,
      "kochan": 3347,
      "?ĊĊâĢĶĠTak": 3348,
      ".ĠTrze": 3349,
      "!ĠA": 3350,
      "jeÅ¼d": 3351,
      "kapi": 3352,
      "miejscuĠ": 3353,
      "ejĠw": 3354,
      "gÅĤoÅĽniej": 3355,
      "czerni": 3356,
      "kup": 3357,
      "egor": 3358,
      "Mam": 3359,
      "mocnoĠ": 3360,
      "dÅĤugie": 3361,
      "Äħs": 3362,
      "leÅ¼Äħc": 3363,
      "ustaĠ": 3364,
      "ki,Ġp": 3365,
      "marszcz": 3366,
      "aÅĤa,Ġ": 3367,
      "?ĠâĢĶĠzapytaÅĤĠ": 3368,
      "chwilÄĻĠ": 3369,
      "obod": 3370,
      "?ĠB": 3371,
      "wamĠ": 3372,
      "!ĠP": 3373,
      "grzy": 3374,
      "ĠpÅĤy": 3375,
      "jestĠtoĠ": 3376,
      "wyÅ¼sz": 3377,
      "wymow": 3378,
      "sÅĤuchi": 3379,
      "niesÅĤych": 3380,
      "drugiĠ": 3381,
      "owanyĠ": 3382,
      "ychĠdoĠ": 3383,
      "czupry": 3384,
      "uÅ¼y": 3385,
      "rut": 3386,
      "gÅĤowÄĻĠ": 3387,
      "nabi": 3388,
      "ktÃ³rej": 3389,
      "ĠmiÄĻ": 3390,
      "ĠwiÄĻcejĠ": 3391,
      "Ġdosy": 3392,
      "JÃ³zi": 3393,
      "umysÅĤ": 3394,
      "cjÄħ": 3395,
      "ĠpostÄĻp": 3396,
      "kor": 3397,
      ".ĠSpo": 3398,
      ".ĠPanĠ": 3399,
      "ÅĽwiatÅĤoĠ": 3400,
      "kaza": 3401,
      "czynaĠ": 3402,
      "ÅĤowaĠ": 3403,
      "sprawi": 3404,
      "los": 3405,
      "rzÄħdz": 3406,
      "ĠsamoĠ": 3407,
      "rzydzie": 3408,
      "bawi": 3409,
      "doĠw": 3410,
      "odd": 3411,
      "staĠ": 3412,
      ".ĠOn": 3413,
      ".ĠJegoĠ": 3414,
      ".ĠWÃ³wczas": 3415,
      "rzas": 3416,
      "sem": 3417,
      "aÅĤĠoĠ": 3418,
      ",ĠboĠ": 3419,
      "dali": 3420,
      "raÄĩ": 3421,
      "ÄħĠu": 3422,
      "ciu": 3423,
      "ÅĽcian": 3424,
      "maÅĤegoĠ": 3425,
      "stal": 3426,
      "mio": 3427,
      "ajutrz": 3428,
      ",Ġroz": 3429,
      "miaÅĤyĠ": 3430,
      "myÅĽle": 3431,
      "szystkichĠ": 3432,
      "Ġ*": 3433,
      "szczer": 3434,
      "jemĠ": 3435,
      ".ĊĊByÅĤĠtoĠ": 3436,
      "ĠmiejsceĠ": 3437,
      "dzonyĠ": 3438,
      "ĠpoĠpolsku": 3439,
      "Ġdrewni": 3440,
      "ĠwyÅĤ": 3441,
      "mieĠ": 3442,
      "Ġwier": 3443,
      "ciej": 3444,
      "âĢŀP": 3445,
      "serw": 3446,
      "rzeĠiĠ": 3447,
      "namĠ": 3448,
      "Ġbrz": 3449,
      "noĠiĠ": 3450,
      "Jest": 3451,
      ".ĠSam": 3452,
      "Ġpun": 3453,
      "ÅĽla": 3454,
      "ele": 3455,
      "leczĠ": 3456,
      "ĠdrugiĠ": 3457,
      "Ġtrafi": 3458,
      "ĠkilkaĠ": 3459,
      "jakiÅĽĠ": 3460,
      "ogar": 3461,
      "jÄħÅĤĠ": 3462,
      "isto": 3463,
      "mogÅĤ": 3464,
      "rwszeĠ": 3465,
      "JeÅ¼eliĠ": 3466,
      "odpowiad": 3467,
      "lekcjeĠ": 3468,
      "stÄĻpujÄħc": 3469,
      "jakÄħÅĽ": 3470,
      "Ġpedagog": 3471,
      "saniaĠ": 3472,
      "grafi": 3473,
      ":ĠâĢĶĠ": 3474,
      "BÃ³g": 3475,
      "ha": 3476,
      "entu": 3477,
      "ÄħĠnaĠ": 3478,
      "rodzic": 3479,
      "zwal": 3480,
      ".ĠSie": 3481,
      "Ġwid": 3482,
      "odlegÅĤo": 3483,
      "pas": 3484,
      "kart": 3485,
      "ÅĤak": 3486,
      "Wiechowski": 3487,
      "tygod": 3488,
      "iĠiĠ": 3489,
      "niemĠiĠ": 3490,
      "âĢĶĠw": 3491,
      "rÅ¼": 3492,
      "gotow": 3493,
      "niedo": 3494,
      "czeÅĦ": 3495,
      "kuch": 3496,
      "gard": 3497,
      "skiego,Ġ": 3498,
      "guber": 3499,
      "ardzoĠ": 3500,
      "aka": 3501,
      "waliĠ": 3502,
      "szele": 3503,
      "swej": 3504,
      "Ġkry": 3505,
      "kolej": 3506,
      "lecyĠ": 3507,
      "rek": 3508,
      "rzuciÅĤ": 3509,
      "przyja": 3510,
      "Ġpewien": 3511,
      "ĠoczyĠ": 3512,
      ".ĠNikt": 3513,
      "grzecz": 3514,
      "*ĠiĠ": 3515,
      "chwy": 3516,
      "ĠnieĠtylkoĠ": 3517,
      "szczÄĻÅĽli": 3518,
      "takĠzw": 3519,
      "usÅĤysz": 3520,
      "ciebie": 3521,
      "poĠpol": 3522,
      ",ĠjakoĠ": 3523,
      "ĠsÅĤow": 3524,
      "âĢ¦ĠNie": 3525,
      "staran": 3526,
      "ĠpaÅĦ": 3527,
      "patrzyÅĤ": 3528,
      "sÄħd": 3529,
      "aÅĤĠiĠ": 3530,
      "Ġpens": 3531,
      "lko": 3532,
      "mnieĠ": 3533,
      "Ġprzyja": 3534,
      "sad": 3535,
      "kÅĤa": 3536,
      "?ĠA": 3537,
      ".ĊĊâĢĶĠM": 3538,
      "lĠ": 3539,
      "ĠtaĠ": 3540,
      "siÄĻĠd": 3541,
      "stanÄħÅĤ": 3542,
      "przeby": 3543,
      "kilku": 3544,
      "cud": 3545,
      "eso": 3546,
      "gaw": 3547,
      "swejĠ": 3548,
      "szkÃ³ÅĤ": 3549,
      "ajeĠ": 3550,
      "ta,Ġ": 3551,
      "ÅĦĠiĠ": 3552,
      "Pazur": 3553,
      "ÅĽwiecie": 3554,
      "Ġwyj": 3555,
      "nieĠza": 3556,
      "Ġkancelari": 3557,
      "gospodarzyĠklas": 3558,
      "woĠiĠ": 3559,
      "madz": 3560,
      "gre": 3561,
      "czepi": 3562,
      "marze": 3563,
      "Å¼ar": 3564,
      "tk": 3565,
      "nikomu": 3566,
      "uczeÅĦĠ": 3567,
      "wykÅĤad": 3568,
      "uli": 3569,
      "Åºdzie": 3570,
      "niamiĠ": 3571,
      ",Ġdo": 3572,
      "num": 3573,
      "szelkiegoĠ": 3574,
      "strÄĻ": 3575,
      "âĢ¦ĊĊW": 3576,
      "ĠswegoĠ": 3577,
      "ĠmaÅĤyĠ": 3578,
      "gÅĤÄĻbi": 3579,
      "Ġtru": 3580,
      "ĠzÅĤo": 3581,
      "naĠwĠ": 3582,
      "miÅĤ": 3583,
      "ÅĦstw": 3584,
      "bÄĻ": 3585,
      "womaĠ": 3586,
      "pana": 3587,
      "wypad": 3588,
      "Ġmal": 3589,
      "spektor": 3590,
      "ĠwĠklasie": 3591,
      "ludz": 3592,
      ".ĊĊNie": 3593,
      "szystkim": 3594,
      "sercaĠ": 3595,
      "li,Ġ": 3596,
      "siÄĻĠzĠ": 3597,
      "nikogoĠ": 3598,
      "bor": 3599,
      "orÃ³w": 3600,
      ",ĠÅ¼eĠw": 3601,
      "niu,Ġ": 3602,
      "Ġtwo": 3603,
      "jÄĻzyk": 3604,
      "fu": 3605,
      "ÅĽmyĠ": 3606,
      "prÄĻ": 3607,
      "liwyĠ": 3608,
      "âĢ¦ĠT": 3609,
      "cki": 3610,
      "RadcaĠ": 3611,
      "filoz": 3612,
      "of": 3613,
      ",Ġsk": 3614,
      "Å¼oÅĤ": 3615,
      "niĠw": 3616,
      "krz": 3617,
      "kaje": 3618,
      "ĠpostaciĠ": 3619,
      "ÅĤyĠw": 3620,
      "kawaÅĤ": 3621,
      ".ĠMie": 3622,
      "Ġjej": 3623,
      "nikow": 3624,
      "nÄħÄĩĠ": 3625,
      "awaÅĤ": 3626,
      "spÃ³ÅĤczu": 3627,
      "lÅĽni": 3628,
      "Wil": 3629,
      "nneĠ": 3630,
      "zam": 3631,
      "kami,Ġ": 3632,
      "tyk": 3633,
      "net": 3634,
      "dÅºwig": 3635,
      ".ĠCzasamiĠ": 3636,
      "uczÄĻ": 3637,
      "raĠ": 3638,
      "pieniÄħ": 3639,
      "wora": 3640,
      "kaÅ¼dyĠ": 3641,
      "ĠprawaĠ": 3642,
      "cia": 3643,
      "NogaĠ": 3644,
      "Ġkur": 3645,
      "ÄħĠs": 3646,
      "Kostriulew": 3647,
      "PyrzogÅĤow": 3648,
      "Paluszkiewicz": 3649,
      "Kaw": 3650,
      "kierun": 3651,
      "Stogow": 3652,
      "IĊĊ": 3653,
      "Ġwisi": 3654,
      "ĠzĠpo": 3655,
      "niÄĻteĠ": 3656,
      "niejszegoĠ": 3657,
      "ChÅĤo": 3658,
      "gÅĤowyĠ": 3659,
      "Ġbru": 3660,
      "eÅĤni": 3661,
      ",ĠnieĠ": 3662,
      "toteÅ¼": 3663,
      "myk": 3664,
      "saĠ": 3665,
      "ÅĽniegu": 3666,
      "kÄĻĠnaĠ": 3667,
      "kop": 3668,
      ".ĊĊPaniĠBorowiczowaĠ": 3669,
      "owanychĠ": 3670,
      "syna": 3671,
      "Ġtro": 3672,
      "jakiejÅĽĠ": 3673,
      "rzemĠ": 3674,
      "szkoÅĤy": 3675,
      "ĠprÄĻdkoĠ": 3676,
      "yli": 3677,
      "czÄĻÅĤaĠ": 3678,
      "garbi": 3679,
      "obszar": 3680,
      "fut": 3681,
      "stat": 3682,
      "zdaw": 3683,
      "Ġtakich": 3684,
      "ÅĦstwaĠ": 3685,
      "nymi": 3686,
      "ĠtyĠ": 3687,
      "jesteÅĽ": 3688,
      "daje": 3689,
      "boÅ¼": 3690,
      "nocy": 3691,
      "jeÅ¼dÅ¼": 3692,
      "den": 3693,
      "ĠpierwszyĠ": 3694,
      "skoÅĦcz": 3695,
      "doĠniegoĠ": 3696,
      "yĠza": 3697,
      "Ġminut": 3698,
      "strzym": 3699,
      "ĠwiÄĻk": 3700,
      "szymĠ": 3701,
      "stwaĠ": 3702,
      "napis": 3703,
      "warzy": 3704,
      "uczy": 3705,
      "guzi": 3706,
      "kobie": 3707,
      "ÅºleĠ": 3708,
      "niÄħc": 3709,
      "zdr": 3710,
      "aniĠnaĠ": 3711,
      "!âĢ¦ĊĊâĢĶĠ": 3712,
      ".ĊĊâĢĶĠS": 3713,
      "âĢĶĠrzekÅĤaĠ": 3714,
      "Ġpowi": 3715,
      ",ĠaleĠiĠ": 3716,
      "sekre": 3717,
      "powi": 3718,
      "kandydat": 3719,
      "Ġpatrz": 3720,
      "szli": 3721,
      "niezna": 3722,
      "ychĠiĠ": 3723,
      "szkolnej": 3724,
      "ĠduÅ¼yĠ": 3725,
      ",ĠaĠnaĠ": 3726,
      ".ĠWÅĤa": 3727,
      "dre": 3728,
      "estch": 3729,
      "sposÃ³b": 3730,
      "daÅĤĠ": 3731,
      "Ġzmusz": 3732,
      "kiemĠw": 3733,
      "czÄħtkuĠ": 3734,
      "Ġwzro": 3735,
      ".ĊĊTymczasemĠ": 3736,
      "ĠduÅ¼eĠ": 3737,
      "nÄĻÅĤa": 3738,
      "Ġmru": 3739,
      "knÄĻÅĤaĠ": 3740,
      "haÅĤ": 3741,
      "haÅĤas": 3742,
      "ciÅĤaĠ": 3743,
      "Ġsob": 3744,
      "Ġbrud": 3745,
      "stoÅĤu": 3746,
      "bat": 3747,
      "gli": 3748,
      ".ĊĊMarcinekĠ": 3749,
      "mÃ³j": 3750,
      "klu": 3751,
      "mieniu": 3752,
      "rzyÅĤaĠ": 3753,
      "rÃ³wnieÅ¼Ġ": 3754,
      "owychĠ": 3755,
      "paÅĤĠ": 3756,
      "ÅĤÃ³": 3757,
      ".ĠCzy": 3758,
      "liĠwĠ": 3759,
      "staÄĩ": 3760,
      "rubli": 3761,
      "takiegoĠ": 3762,
      "ner": 3763,
      "niÅ¼Ġ": 3764,
      "trzebaĠ": 3765,
      "trzeb": 3766,
      "neĠwy": 3767,
      "jrzaÅĤ": 3768,
      "dwieĠ": 3769,
      ".ĊĊâĢĶĠWi": 3770,
      "ÅĤzyĠ": 3771,
      "Ġsmut": 3772,
      "wad": 3773,
      "nÄħwszyĠ": 3774,
      "wadzie": 3775,
      "ĠwyszedÅĤ": 3776,
      ".ĠNauczyciel": 3777,
      "ĠtyÅĤ": 3778,
      "ÄħĠdoĠ": 3779,
      "piecĠ": 3780,
      "âĢ¦ĠP": 3781,
      "nieĠbyÅĤo": 3782,
      "âĢ¦ĠZ": 3783,
      "usiadÅĤĠnaĠ": 3784,
      "nika": 3785,
      "Ġmarze": 3786,
      "pÅĤak": 3787,
      "dalej": 3788,
      "Ġznajom": 3789,
      "strach": 3790,
      "ki,ĠaĠ": 3791,
      "nieĠbÄĻd": 3792,
      "sro": 3793,
      "obaczy": 3794,
      "aÅĤĠsiÄĻĠz": 3795,
      "Ġznalaz": 3796,
      "mieliĠ": 3797,
      ".ĠWszystkoĠ": 3798,
      "Ġwej": 3799,
      "abyĠ": 3800,
      ",Ġma": 3801,
      "ĠpierwszejĠ": 3802,
      "rost": 3803,
      "czytaÄĩ": 3804,
      "umĠ": 3805,
      "rucho": 3806,
      "je,Ġ": 3807,
      "ĠwiedzieÄĩ": 3808,
      "ĠnieĠbyÅĤ": 3809,
      "ledwie": 3810,
      "Ġjest": 3811,
      "roÄĩ": 3812,
      "skutek": 3813,
      "ĠdÅĤo": 3814,
      "Å¼yÅĤĠ": 3815,
      "wyraz": 3816,
      "nia,ĠÅ¼eĠ": 3817,
      "moÅ¼naĠ": 3818,
      "kony": 3819,
      "ĠswojÄħĠ": 3820,
      "ÅĽlep": 3821,
      "Ġpust": 3822,
      "niego": 3823,
      "sÅĤowa": 3824,
      "snu": 3825,
      ".ĊĊNaĠ": 3826,
      "yĠzost": 3827,
      "swojÄħĠ": 3828,
      "umiejÄĻt": 3829,
      "patry": 3830,
      "etĠ": 3831,
      "Ġkated": 3832,
      "jo": 3833,
      "razĠnaĠ": 3834,
      "roczyst": 3835,
      "ktÃ³regoĠ": 3836,
      "nieĠoĠ": 3837,
      "ciÄħgu": 3838,
      "poÅĤud": 3839,
      "szyÅĤ": 3840,
      "nku": 3841,
      "sza,Ġ": 3842,
      "ÅĤegoĠ": 3843,
      "oĠczymĠ": 3844,
      "gÃ³": 3845,
      "MarcinkowiĠ": 3846,
      "klasyĠwstÄĻpnej": 3847,
      "ĠwcaleĠ": 3848,
      "Ġzasad": 3849,
      "Ġbied": 3850,
      "liter": 3851,
      "ciÅĤ": 3852,
      "âĢŀpan": 3853,
      "stÃ³ÅĤ": 3854,
      "ĠwiÄĻcej": 3855,
      "Ġtrzech": 3856,
      "ĠporzeĠ": 3857,
      "Ã³gÅĤĠ": 3858,
      ".ĠGdy": 3859,
      "nazy": 3860,
      "tÄħĠ": 3861,
      "ÅĽwier": 3862,
      "trzu": 3863,
      "kit": 3864,
      "rzec": 3865,
      "bezwÅĤad": 3866,
      "szew": 3867,
      "mujÄħc": 3868,
      "palc": 3869,
      "liwy": 3870,
      "sieĠ": 3871,
      "kaĠz": 3872,
      "szaw": 3873,
      "skon": 3874,
      "prawieĠ": 3875,
      "niaĠz": 3876,
      "ĠwĠrÄĻ": 3877,
      "bliÅ¼yÅĤĠsiÄĻĠdoĠ": 3878,
      "skiĠw": 3879,
      "dzieĠ": 3880,
      "nikaĠ": 3881,
      "obaczyÅĤ": 3882,
      "religi": 3883,
      "Jez": 3884,
      "szklan": 3885,
      "del": 3886,
      "chodzÄħc": 3887,
      "rzad": 3888,
      "Å¼ycz": 3889,
      "tego": 3890,
      "Wy": 3891,
      "ÅĤask": 3892,
      "czasamiĠ": 3893,
      "emĠod": 3894,
      "tĠ": 3895,
      "ĠâĢĶĠ": 3896,
      "mor": 3897,
      "sÅĤowaĠ": 3898,
      "nag": 3899,
      ".ĊĊâĢĶĠZ": 3900,
      "?ĊĊâĢĶĠNie": 3901,
      "koÅĽcioÅĤa": 3902,
      "stosun": 3903,
      "Ġkrzy": 3904,
      "aÅĤaĠiĠ": 3905,
      "ratu": 3906,
      "nieĠmamĠ": 3907,
      "Å¼egna": 3908,
      "szĠpan": 3909,
      "mowaÅĤĠ": 3910,
      "krew": 3911,
      "czeg": 3912,
      "ĠwĠpo": 3913,
      "ĠpiÄħt": 3914,
      "stuk": 3915,
      "cis": 3916,
      "krok": 3917,
      "!ĠâĢĶĠkrzy": 3918,
      "trÄħ": 3919,
      "ÅĤem": 3920,
      "ÅĤemĠ": 3921,
      ".ĠWkrÃ³tceĠ": 3922,
      "jednejĠ": 3923,
      "nikÃ³w": 3924,
      "KiedyĠ": 3925,
      "chyÅĤ": 3926,
      "rozkosz": 3927,
      "szak": 3928,
      "prawyĠ": 3929,
      "skich,Ġ": 3930,
      "Ġmas": 3931,
      "ĠnaleÅ¼": 3932,
      "nieĠprzy": 3933,
      "obyĠ": 3934,
      "odz": 3935,
      "try": 3936,
      "skow": 3937,
      "sal": 3938,
      "far": 3939,
      "chudyĠ": 3940,
      "czyÅĤĠsiÄĻ": 3941,
      "stÄĻpni": 3942,
      "nego,Ġ": 3943,
      "Ġuczni": 3944,
      "ogÃ³l": 3945,
      "nikÃ³wĠ": 3946,
      "dopodob": 3947,
      "inneĠ": 3948,
      "namiÄĻt": 3949,
      "pil": 3950,
      "koryta": 3951,
      "stara": 3952,
      "moÅĽÄĩ": 3953,
      "ÅĤaskiĠ": 3954,
      "czÅĤowiekaĠ": 3955,
      "pani": 3956,
      "szczegÃ³ÅĤ": 3957,
      "ĠT": 3958,
      "zgro": 3959,
      "ÅĤb": 3960,
      "ÅĤaciÅĦ": 3961,
      "ĠpodwÃ³": 3962,
      "dziad": 3963,
      "klasy,Ġ": 3964,
      "aÅĤĠsiÄĻĠiĠ": 3965,
      "grup": 3966,
      "paniĠBorowiczowa,Ġ": 3967,
      "dniĠ": 3968,
      "ĠswoimĠ": 3969,
      ".ĊĊâĢĶĠJaĠ": 3970,
      "Oj": 3971,
      "owy,Ġ": 3972,
      "kÅĤo": 3973,
      "szychĠ": 3974,
      "oniĠ": 3975,
      "skonaleĠ": 3976,
      "ĠmiastaĠ": 3977,
      "brycz": 3978,
      "ciuĠ": 3979,
      "odzie": 3980,
      "szÄħĠ": 3981,
      "dziÅĤaĠ": 3982,
      "ÅĤys": 3983,
      "mnÃ³stwoĠ": 3984,
      "Klerykowa": 3985,
      "aÅĤaĠz": 3986,
      "dawaÅĤoĠsiÄĻ": 3987,
      "Rosjani": 3988,
      "naukiĠ": 3989,
      "ĠtylkoĠw": 3990,
      "akura": 3991,
      "aÅĤoĠw": 3992,
      "czÄĻstokro": 3993,
      "ÅĤari": 3994,
      "liĠiĠ": 3995,
      ".ĠTak": 3996,
      "anoĠnaĠ": 3997,
      "pieÅĦ": 3998,
      "ĠzĠklasyĠ": 3999,
      "iĠwĠ": 4000,
      "form": 4001,
      "Å¼adnegoĠ": 4002,
      "wole": 4003,
      "moral": 4004,
      "ĠwyciÄħg": 4005,
      "PrzepiÃ³rzycy": 4006,
      "ĠmiaÅĤaĠ": 4007,
      "adom": 4008,
      "opie": 4009,
      "Å¼adnej": 4010,
      "edÅĤug": 4011,
      "cuch": 4012,
      "raczej": 4013,
      "ÅĤam": 4014,
      "smar": 4015,
      "jednaĠ": 4016,
      ":ĊĊâĢĶĠA": 4017,
      "nosiÅĤ": 4018,
      "zach": 4019,
      "aliĠdoĠ": 4020,
      "y,Ġz": 4021,
      "jaÅĤĠ": 4022,
      "paÄĩ": 4023,
      "liÅĽmyĠ": 4024,
      "buj": 4025,
      "objaÅĽni": 4026,
      "omet": 4027,
      "one,Ġ": 4028,
      "ĠmÃ³gÅĤ": 4029,
      "Daleszow": 4030,
      "rodzaju": 4031,
      "samot": 4032,
      "alneĠ": 4033,
      "ulicz": 4034,
      "ogrod": 4035,
      "wabi": 4036,
      "oddziaÅĤ": 4037,
      "ctwoĠ": 4038,
      "gÅĤusz": 4039,
      "ciÄħguĠ": 4040,
      "ĠpobliÅ¼": 4041,
      "ĠwĠKlerykowie": 4042,
      "bocz": 4043,
      "upeÅĤnie": 4044,
      "Ġprz": 4045,
      "ÅĤyĠnaĠ": 4046,
      "kwiat": 4047,
      "Leim": 4048,
      "naboÅ¼e": 4049,
      "ÅĤĠiĠ": 4050,
      "tÄĻÅ¼": 4051,
      "Ã³smej": 4052,
      "uczÄĻszcz": 4053,
      "Å¼eÅĦ": 4054,
      "ĠduszyĠ": 4055,
      "Ġdesk": 4056,
      ".ĠNog": 4057,
      "emat": 4058,
      "nÄĻĠ": 4059,
      "upad": 4060,
      "figur": 4061,
      "riesto": 4062,
      "riestoob": 4063,
      "riestoobri": 4064,
      "riestoobriad": 4065,
      "riestoobriadnikow": 4066,
      "Zabiel": 4067,
      "teat": 4068,
      "RadkaĠ": 4069,
      "JÄĻdrekĠ": 4070,
      "ymkiewicz": 4071,
      "noprÃ³Å¼nia": 4072,
      "Sieger": 4073,
      "Gont": 4074,
      "Lek": 4075,
      "stawie": 4076,
      "padÅĤĠnaĠ": 4077,
      "wojeĠ": 4078,
      "nym,Ġ": 4079,
      "strzy": 4080,
      "zazwyczaj": 4081,
      "Ġpowszech": 4082,
      "rozlegÅĤ": 4083,
      "cuk": 4084,
      "Ġda": 4085,
      "otrzym": 4086,
      "wÄĻ": 4087,
      "kiejĠ": 4088,
      "ledwoĠ": 4089,
      "rzask": 4090,
      "ajÄħcymĠ": 4091,
      "czerwie": 4092,
      "ĠtwarzyĠ": 4093,
      "zapewneĠ": 4094,
      "rusze": 4095,
      "skier": 4096,
      "gdyÅĽ": 4097,
      "niszcz": 4098,
      "Ġpiersi": 4099,
      "ĠsiedziaÅĤĠ": 4100,
      "koni": 4101,
      "Å¼oneĠ": 4102,
      "Å¼a": 4103,
      "grab": 4104,
      "ajÄħcegoĠ": 4105,
      "widok": 4106,
      "oczu": 4107,
      "bliÅ¼sz": 4108,
      "ktÃ³rych": 4109,
      "chwilaĠ": 4110,
      "?ĠD": 4111,
      "dzÄĻ": 4112,
      "âĢ¦ĠM": 4113,
      "ÅĽlicz": 4114,
      "âĢ¦ĊĊMarcinek": 4115,
      "szÄħ": 4116,
      "caÅĤegoĠ": 4117,
      "Ġtaje": 4118,
      "gÄĻĠ": 4119,
      "chÅĤopiec": 4120,
      "kocha": 4121,
      "Ġmam": 4122,
      "?âĢĿĠ": 4123,
      "panicz": 4124,
      "szedÅĤĠw": 4125,
      "ostrze": 4126,
      "mil": 4127,
      "gimnazjum,Ġ": 4128,
      "jakiejÅĽ": 4129,
      "innych": 4130,
      "ĠmyÅĽle": 4131,
      "upeÅĤnieĠ": 4132,
      "Å¼yÅĤyĠ": 4133,
      "dÅºwiÄĻk": 4134,
      "kanaÅĽcie": 4135,
      "oknaĠ": 4136,
      ".ĠObok": 4137,
      "atrzym": 4138,
      "jego": 4139,
      "ÄĩĠsiÄĻĠdoĠ": 4140,
      "nieĠsiÄĻĠ": 4141,
      "but": 4142,
      "krÄĻc": 4143,
      ".ĠNieĠwie": 4144,
      "naĠniegoĠ": 4145,
      ".ĊĊâĢĶĠJak": 4146,
      "nozd": 4147,
      "oczek": 4148,
      "Äĩ,ĠÅ¼eĠ": 4149,
      "tural": 4150,
      "szpa": 4151,
      "byÄĩĠ": 4152,
      "Ġmnie": 4153,
      "nuÅ¼e": 4154,
      ",ĠdoĠ": 4155,
      "ÅĽrodkuĠ": 4156,
      "kanap": 4157,
      "stoli": 4158,
      "ÅĽcia": 4159,
      "raf": 4160,
      "darz": 4161,
      "ment": 4162,
      "No,Ġ": 4163,
      "ĠkierunkuĠ": 4164,
      "ĠzwykleĠ": 4165,
      "spokoj": 4166,
      "niem,Ġ": 4167,
      "niÃ³": 4168,
      "niÃ³sÅĤ": 4169,
      "Wiechowskiego": 4170,
      "choci": 4171,
      "isk": 4172,
      "potemĠ": 4173,
      "uchaĠ": 4174,
      "czyna": 4175,
      "!ĠW": 4176,
      "ÅĽrodekĠ": 4177,
      "nial": 4178,
      "Ġzamian": 4179,
      "ĠzamianĠzaĠ": 4180,
      "udzie": 4181,
      "chci": 4182,
      ".ĠTeraz": 4183,
      "leĠiĠ": 4184,
      ".ĠKtoĠ": 4185,
      "lut": 4186,
      "?âĢ¦Ġ": 4187,
      "reszcieĠ": 4188,
      ".ĊĊâĢĶĠI": 4189,
      "miesiÄħc": 4190,
      "lepiejĠ": 4191,
      "ĠmÄĻÅ¼": 4192,
      "pani,Ġ": 4193,
      "lamp": 4194,
      "Ġdr": 4195,
      "gaÅĤĠ": 4196,
      "kÄħ,Ġ": 4197,
      "wyÅ¼": 4198,
      "rÄħg": 4199,
      "ĠwÅĤaÅĽnieĠ": 4200,
      "ekĠz": 4201,
      "ĠdalekoĠ": 4202,
      "Ã³zg": 4203,
      "kuĠiĠ": 4204,
      "myÅĽliĠ": 4205,
      "skno": 4206,
      "dosyÄĩ": 4207,
      "aresz": 4208,
      "Ġwieczor": 4209,
      "ĠkÄħcie": 4210,
      "ÅĽwietleĠ": 4211,
      "ĠmiejscaĠ": 4212,
      ",ĠpatrzÄħc": 4213,
      "ÅĤÃ³Å¼koĠ": 4214,
      "skoczyÅĤ": 4215,
      ",ĠktÃ³reĠw": 4216,
      "to,Ġ": 4217,
      "braÅĤĠ": 4218,
      "braÄĩ": 4219,
      "ĠprzybyÅĤ": 4220,
      "szl": 4221,
      "Ġpanicz": 4222,
      "MarcinĠ": 4223,
      "zaczÄħÅĤĠ": 4224,
      "ĠiĠwy": 4225,
      "dokoÅĤaĠ": 4226,
      "aliĠw": 4227,
      "aÅĤeÅĽ": 4228,
      "uszcze": 4229,
      "niÃ³sÅĤĠ": 4230,
      "grÄħ": 4231,
      "aĠroz": 4232,
      "okiemĠ": 4233,
      "ĠmÃ³wiÄĩ": 4234,
      "Ġmod": 4235,
      "Ġzer": 4236,
      "rÃ³wneĠ": 4237,
      "ÄĻĠwy": 4238,
      "dziennik": 4239,
      "jakieÅĽĠ": 4240,
      "poĠupÅĤywie": 4241,
      "koniecĠ": 4242,
      ".ĊĊâĢĶĠNie": 4243,
      "cale": 4244,
      "ĠâĢĶ": 4245,
      "kilkak": 4246,
      "najmniejĠ": 4247,
      "skiĠz": 4248,
      "jedenĠz": 4249,
      "wÅĤaÅĽciwie": 4250,
      "dÅºwiÄĻ": 4251,
      "sym": 4252,
      "towarzysz": 4253,
      "ry,Ġ": 4254,
      "ÅĤĠjeĠ": 4255,
      "mÃ³gÅĤĠ": 4256,
      "uwagiĠ": 4257,
      "âĢĶĠz": 4258,
      "ĠwiÄĻ": 4259,
      "Czy": 4260,
      "Å¼eĠiĠ": 4261,
      "ude": 4262,
      "ĠpiÄĻÅĽci": 4263,
      "male": 4264,
      "fo": 4265,
      "awan": 4266,
      "ĠswÃ³jĠ": 4267,
      "ciÄĻÅ¼ar": 4268,
      "ajÄħcych": 4269,
      "elod": 4270,
      "iaĠ": 4271,
      "*wy": 4272,
      "ÄĻtyĠ": 4273,
      "bog": 4274,
      "ĠpoĠrosyjsku": 4275,
      "nymĠiĠ": 4276,
      "Ġtego,ĠcoĠ": 4277,
      "rÃ³wna": 4278,
      "aĠâĢĶĠ": 4279,
      "nie,ĠaleĠ": 4280,
      "owanieĠ": 4281,
      "usil": 4282,
      "Ġwal": 4283,
      "Ġpowtarz": 4284,
      "dlaĠniegoĠ": 4285,
      "*ĠdoĠ": 4286,
      "umyÅĽl": 4287,
      "mÃ³zg": 4288,
      ",Ġprze": 4289,
      "nieĠbyÅĤĠwĠsta": 4290,
      "naleÅ¼yĠ": 4291,
      "zaÄĩ": 4292,
      "czterdzie": 4293,
      "sprawied": 4294,
      "niekÄħd": 4295,
      "entuzja": 4296,
      "tach": 4297,
      "zglÄĻduĠnaĠ": 4298,
      "to,ĠÅ¼eĠ": 4299,
      "tof": 4300,
      "odlegÅĤoÅĽciĠ": 4301,
      ".ĠWĠczasie": 4302,
      "grzbie": 4303,
      "zier": 4304,
      "Ġwidok": 4305,
      "onot": 4306,
      "onoton": 4307,
      ".ĠAniĠ": 4308,
      ".ĠGdybyĠ": 4309,
      "Ġwa": 4310,
      ".ĊĊPrze": 4311,
      "ĠwidaÄĩĠbyÅĤoĠ": 4312,
      "niejĠz": 4313,
      "zaroÅĽ": 4314,
      "Ġmar": 4315,
      "ra,Ġ": 4316,
      "oma": 4317,
      "nieĠmogÅĤ": 4318,
      "ytaÅĤaĠ": 4319,
      "trwo": 4320,
      "milcze": 4321,
      "Ġzjawi": 4322,
      "chÃ³": 4323,
      "woj": 4324,
      "oraz": 4325,
      "aÅĤaĠdoĠ": 4326,
      "owaĠz": 4327,
      "pÅĤo": 4328,
      "wytrzeszcz": 4329,
      "uÅ¼Ġ": 4330,
      "nakry": 4331,
      "kap": 4332,
      "ĠdÅĤugiĠ": 4333,
      "aÅĤ:ĊĊâĢĶĠ": 4334,
      "skiemĠ": 4335,
      "lÄĻk": 4336,
      "ycho": 4337,
      "Ġpapier": 4338,
      "przygot": 4339,
      "tale": 4340,
      "aliĠsiÄĻĠ": 4341,
      "sj": 4342,
      "szelest": 4343,
      "ĠkryjÃ³w": 4344,
      "naukow": 4345,
      "twarzyĠ": 4346,
      "ota": 4347,
      ".ĊĊâĢĶĠW": 4348,
      "najlepie": 4349,
      "stokro": 4350,
      "Ġbardziej": 4351,
      "siedzi": 4352,
      ",ĠzeĠ": 4353,
      "lecamiĠ": 4354,
      "liÅĤĠ": 4355,
      "akcent": 4356,
      "pytanie": 4357,
      "Pe": 4358,
      ".ĠByÅĤĠ": 4359,
      "!ĠâĢĶĠw": 4360,
      "sze,Ġ": 4361,
      "chÅĤopcÃ³w": 4362,
      "lÄħ": 4363,
      "ÅĤawkiĠ": 4364,
      "ajÄħcĠnaĠ": 4365,
      "owicie": 4366,
      "kilkuĠ": 4367,
      "ksiÄħdz": 4368,
      "ksiÄĻÅ¼y": 4369,
      "nienac": 4370,
      "ÄĻĠz": 4371,
      "kiemĠiĠ": 4372,
      "aĠsiÄĻ": 4373,
      "ÅĤoĠsiÄĻ": 4374,
      "ĠwidziaÅĤĠ": 4375,
      "osobyĠ": 4376,
      "eĠdrzwiach": 4377,
      "cokolwiek": 4378,
      "drzw": 4379,
      "jÄĻĠ": 4380,
      "staraĠ": 4381,
      "ÅĽcier": 4382,
      "cem": 4383,
      "dÅĤugoĠ": 4384,
      "styd": 4385,
      "byĠiĠ": 4386,
      "gÅĤupi": 4387,
      "aÅĤaĠmu": 4388,
      "staliĠ": 4389,
      "gorzaÅĤ": 4390,
      "nÄĻ,Ġ": 4391,
      "kos": 4392,
      "ĠdÅĤugi": 4393,
      "podĠgÃ³r": 4394,
      "osen": 4395,
      "ÅĦcz": 4396,
      "Mosk": 4397,
      "czkiĠ": 4398,
      "nict": 4399,
      "naÅĤĠ": 4400,
      "tornist": 4401,
      "anÄħĠ": 4402,
      "odĠw": 4403,
      "atel": 4404,
      "ogromnymiĠ": 4405,
      "skichĠ": 4406,
      "ÅĤazi": 4407,
      "politycz": 4408,
      "tecz": 4409,
      "stanÄĻ": 4410,
      ".ĠByÅĤoĠ": 4411,
      "Ġpas": 4412,
      "Ã³wĠz": 4413,
      "Ġmur": 4414,
      "Pazura": 4415,
      "wadzieÅĽciaĠ": 4416,
      "insty": 4417,
      "mer": 4418,
      ".ĊĊA": 4419,
      "ziem": 4420,
      "okolicz": 4421,
      "korytarzu": 4422,
      ",ĠaleĠw": 4423,
      ":ĊĊâĢĶĠW": 4424,
      "egzaminu": 4425,
      "dÅĤuÅ¼": 4426,
      "drugiej": 4427,
      "ki*": 4428,
      "niezwÅĤo": 4429,
      "nal": 4430,
      "aĠsiÄĻĠ": 4431,
      "ceniaĠ": 4432,
      "rÄĻkÄħ": 4433,
      "ĠnaĠpo": 4434,
      "sunÄĻÅĤaĠ": 4435,
      ".ĠStaryĠ": 4436,
      "ĠbÅĤy": 4437,
      "Ã³wkiĠ": 4438,
      "matkiĠ": 4439,
      "koÅĦcaĠ": 4440,
      "onÄħ": 4441,
      "ĠdoĠtegoĠ": 4442,
      "hory": 4443,
      "horyz": 4444,
      "niebo": 4445,
      "nÄĻliĠ": 4446,
      "budow": 4447,
      "Warszaw": 4448,
      "ara": 4449,
      "Ġbro": 4450,
      "strÃ³Å¼": 4451,
      "Ġsur": 4452,
      ".ĠJaĠ": 4453,
      "Ġbrat": 4454,
      ".ĊĊâĢĶĠD": 4455,
      "ĠdoskonaleĠ": 4456,
      "ĠpanĠMajew": 4457,
      "tan": 4458,
      "enĠ": 4459,
      "akon": 4460,
      "ĠpaniĠBorowicz": 4461,
      "doÅĤ": 4462,
      "znaczyĠ": 4463,
      "usiÅĤ": 4464,
      ".ĠJuÅ¼": 4465,
      "stancji": 4466,
      "ÄĩĠpoĠ": 4467,
      "Ġprzysz": 4468,
      "ÅĤoÅĽÄĩ": 4469,
      "najbardziej": 4470,
      "let": 4471,
      "ĠniegoĠ": 4472,
      "scen": 4473,
      "ĠpierwszegoĠ": 4474,
      "ÅĤuch": 4475,
      "nieĠmÃ³wi": 4476,
      "fran": 4477,
      "owsze": 4478,
      "akurat": 4479,
      "tru": 4480,
      "panĠMajewskiĠ": 4481,
      "inspektoraĠ": 4482,
      "spoli": 4483,
      "*Ġw": 4484,
      "inspektora": 4485,
      "rzyÅĤoĠ": 4486,
      "ÄĻbyĠ": 4487,
      "dzier": 4488,
      ",ĠaĠgdyĠ": 4489,
      "Å¼ebyÅĽ": 4490,
      "skand": 4491,
      "ĠwyraÅ¼": 4492,
      "Ġprefek": 4493,
      "gul": 4494,
      "Ġwybor": 4495,
      "cÄħ": 4496,
      "aĠPrzepiÃ³rzycaâĢĿ": 4497,
      "czejĠ": 4498,
      "lesie": 4499,
      "niedziel": 4500,
      "cuchnÄħc": 4501,
      "mas": 4502,
      "sÄħsiad": 4503,
      "ogo": 4504,
      "szaĠ": 4505,
      "ĠpannaĠ": 4506,
      "Ġpierwszej": 4507,
      "nieĠchcÄĻ": 4508,
      "mÃ³gÅĤ": 4509,
      "cki,Ġ": 4510,
      "rzyÅĤĠ": 4511,
      "ÄĻz": 4512,
      "caÅĤkiemĠ": 4513,
      "che": 4514,
      "cyd": 4515,
      "ĠwaÄĩ": 4516,
      "polskiej": 4517,
      "gruntu": 4518,
      "str": 4519,
      "ochna": 4520,
      "ÄĻĠdoĠ": 4521,
      "Å¼oÅĤnie": 4522,
      "serceĠ": 4523,
      "bÃ³j": 4524,
      "nied": 4525,
      "wzglÄĻd": 4526,
      "historiiĠ": 4527,
      "ÄħcĠ": 4528,
      "kÄħĠiĠ": 4529,
      "swÃ³j": 4530,
      "uszki": 4531,
      "epo": 4532,
      "nieĠmiaÅĤ": 4533,
      "orazĠ": 4534,
      "goro": 4535,
      "kÄĻĠz": 4536,
      "stwi": 4537,
      "prÃ³cz": 4538,
      "a,ĠÅ¼eĠ": 4539,
      "es": 4540,
      "oklasist": 4541,
      "zjawi": 4542,
      "ĠksiÄĻdz": 4543,
      "jegoĠpo": 4544,
      "jaÅĤowc": 4545,
      "jakiĠ": 4546,
      "cudow": 4547,
      "Ã³jdÄĻ": 4548,
      "ÅĽwiec": 4549,
      "neĠz": 4550,
      "nareszcie": 4551,
      "uni": 4552,
      "ulicyĠ": 4553,
      "pisy": 4554,
      "?ĊĊâĢĶĠNo": 4555,
      "ÅĤap": 4556,
      "dÅĤugimĠ": 4557,
      "âĢŀS": 4558,
      "ĠdniaĠ": 4559,
      ".ĊĊĊĊX": 4560,
      "obszer": 4561,
      "Ko": 4562,
      "zĠnich": 4563,
      ".ĠByÅĤoĠtoĠ": 4564,
      "mi,Ġ": 4565,
      "jakimĠ": 4566,
      "ÅĤoĠw": 4567,
      "ÅĤÄħk": 4568,
      "Miesz": 4569,
      "Mieszocz": 4570,
      "Mieszoczki": 4571,
      "celuĠ": 4572,
      "naprz": 4573,
      "siÃ³dm": 4574,
      "PajÄĻ": 4575,
      "ÅĦstwo": 4576,
      "jÄħ,Ġ": 4577,
      "kurs": 4578,
      "iiĠ": 4579,
      "Buckle'": 4580,
      "âĢŀBal": 4581,
      "âĢŀBalfe": 4582,
      "Warsza": 4583,
      "âĢŀBiruty": 4584,
      "Sy": 4585,
      "ÅºÄĩĠ": 4586,
      "kaĠnaĠ": 4587,
      "wan": 4588,
      "wÅĽrÃ³d": 4589,
      "Ġspokoj": 4590,
      ".ĠSzed": 4591,
      "czast": 4592,
      ",ĠktÃ³ryĠw": 4593,
      "skÄħĠ": 4594,
      "ĠmocnoĠ": 4595,
      "rÄĻka": 4596,
      "achĠw": 4597,
      "jednym": 4598,
      "bowiemĠ": 4599,
      "czasuĠdoĠ": 4600,
      "jednostaj": 4601,
      "ychyl": 4602,
      ",ĠaĠwĠ": 4603,
      "skiĠiĠ": 4604,
      "ÅĤyĠwy": 4605,
      ".ĠOczyĠ": 4606,
      "szÄĻ": 4607,
      ",ĠaleĠzaĠtoĠ": 4608,
      "ojcaĠ": 4609,
      "najom": 4610,
      "lasuĠ": 4611,
      "Naj": 4612,
      "padaÅĤyĠ": 4613,
      "cios": 4614,
      ",Ġniez": 4615,
      "u,Ġwy": 4616,
      "nurz": 4617,
      "nejĠiĠ": 4618,
      "ajÄħcĠgoĠ": 4619,
      "Ġwidzi": 4620,
      "duÅ¼e,Ġ": 4621,
      "ĠwĠÅĤeb": 4622,
      "Borowicza": 4623,
      "amiast": 4624,
      "pach": 4625,
      "ÅĤĠsiÄĻĠwĠ": 4626,
      "twar": 4627,
      "Ġpoprze": 4628,
      "ryÅĤyĠ": 4629,
      "ychĠd": 4630,
      "czÄĻÅĤyĠ": 4631,
      "Ġwyd": 4632,
      "ÅĤez": 4633,
      "ÅĤa:ĊĊâĢĶĠ": 4634,
      "Ow": 4635,
      "Przecie": 4636,
      ".ĠTrzebaĠ": 4637,
      "bab": 4638,
      "ĠsÅĤuch": 4639,
      "koniecz": 4640,
      "ym,Ġ": 4641,
      "oÅĽĠ": 4642,
      "nieod": 4643,
      "Ġdrzwi": 4644,
      "stercz": 4645,
      "Ġdrzew": 4646,
      "san": 4647,
      "ĠsieniĠ": 4648,
      "egorycz": 4649,
      "ÄħdÅº": 4650,
      "strzÄĻ": 4651,
      "kÃ³wĠiĠ": 4652,
      "Ã³wĠw": 4653,
      "ejĠrÄĻ": 4654,
      "tem,Ġ": 4655,
      "ĠzbliÅ¼": 4656,
      ".ĠByÅĤaĠtoĠ": 4657,
      ".ĠTeĠ": 4658,
      "i,ĠcoĠ": 4659,
      "wraÅ¼e": 4660,
      "kombi": 4661,
      "sadz": 4662,
      "zdrowie": 4663,
      "Ġkawale": 4664,
      "Marcina": 4665,
      "?ĠP": 4666,
      "ÅĤaĠzĠ": 4667,
      "staro": 4668,
      "chlub": 4669,
      "ĠwyrazĠ": 4670,
      "niej,Ġ": 4671,
      "mieszkaniaĠ": 4672,
      "skim,Ġ": 4673,
      "ĠswejĠ": 4674,
      ",ĠjakiĠ": 4675,
      "oneĠw": 4676,
      ".ĠPonie": 4677,
      "nÄħĠmi": 4678,
      "prowadzonoĠ": 4679,
      "Ġzajmow": 4680,
      "gÅĤyĠ": 4681,
      "Ġtrz": 4682,
      "kĠjegoĠ": 4683,
      "chud": 4684,
      "bieraÅĤ": 4685,
      "niktĠnie": 4686,
      "aĠprzy": 4687,
      "ÅĽwieÅ¼": 4688,
      "skupi": 4689,
      "Ġbr": 4690,
      "spojrzaÅĤĠnaĠ": 4691,
      "noszÄħc": 4692,
      "kaâĢĿ": 4693,
      "wÅĤaÅĽnieĠ": 4694,
      "ckiego": 4695,
      "chÄĻt": 4696,
      ",Ġmo": 4697,
      "razemĠ": 4698,
      "aÅĤaĠsiÄĻĠz": 4699,
      "Ġbli": 4700,
      "jeĠw": 4701,
      "Ġnadzwyczaj": 4702,
      "ÅĤoĠgoĠ": 4703,
      "grzeb": 4704,
      "roguĠ": 4705,
      "mocyĠ": 4706,
      "her": 4707,
      "ĠzaczÄħÅĤ": 4708,
      "ostatecz": 4709,
      "sÅĤuchaÅĤ": 4710,
      "ĠmÃ³wiÅĤ": 4711,
      "nicy": 4712,
      "siÄĻĠprze": 4713,
      "?âĢ¦ĊĊ": 4714,
      "owyĠiĠ": 4715,
      "ganiaĠ": 4716,
      "nawetĠw": 4717,
      "Å¼ecz": 4718,
      "ĠserceĠ": 4719,
      "abso": 4720,
      "absolut": 4721,
      "niecier": 4722,
      "by,Ġ": 4723,
      "uÅĽmiechem": 4724,
      "nieĠjestem": 4725,
      "dziÅĽĠ": 4726,
      "wieÅĽ": 4727,
      "Ġprzyjem": 4728,
      "mÃ³wiÄĩ": 4729,
      "âĢ¦ĊĊâĢĶĠP": 4730,
      "lategoĠ": 4731,
      "szarp": 4732,
      "naĠob": 4733,
      "aÅĤĠpoĠ": 4734,
      "Ġzapad": 4735,
      "staÅĤĠz": 4736,
      "szybko": 4737,
      "wadran": 4738,
      "Åºnie": 4739,
      "ÅĦstwa": 4740,
      "Ġbieliz": 4741,
      "zÅĤo": 4742,
      "ĠpoÅĽpie": 4743,
      "wysokoĠ": 4744,
      "rÄħkĠ": 4745,
      "zdÅĤuÅ¼": 4746,
      "jakichÅĽĠ": 4747,
      "ĠcoĠ": 4748,
      "Ġbole": 4749,
      "nigdzie": 4750,
      "nieĠma": 4751,
      "niÄĻtymiĠ": 4752,
      "MaÅĤgo": 4753,
      "MaÅĤgosi": 4754,
      "rÄĻcz": 4755,
      "Ġprzer": 4756,
      "areszcie": 4757,
      "zaczÄħÅĤ": 4758,
      "fizj": 4759,
      "aÅĤyĠsiÄĻĠwĠ": 4760,
      "niuĠiĠ": 4761,
      "naĠdoĠ": 4762,
      "olbrzy": 4763,
      "ĠpÃ³": 4764,
      "ÅĤymĠ": 4765,
      "czÄħÅĤĠw": 4766,
      "Ġmro": 4767,
      "nÄħÄĩ": 4768,
      "toĠwszystkoĠ": 4769,
      ",ĠcoĠtoĠ": 4770,
      "ĠmÄĻ": 4771,
      "azajutrz": 4772,
      "czoraj": 4773,
      "dziÅĽ": 4774,
      "jakiego": 4775,
      "pÃ³Åºniej": 4776,
      "ĠmatkaĠ": 4777,
      "prowadziÅĤaĠ": 4778,
      ".ĠNaĠw": 4779,
      "okre": 4780,
      "latĠ": 4781,
      "wymiĠ": 4782,
      "czeĠ": 4783,
      "blicz": 4784,
      "?ĠâĢĶĠspytaÅĤĠ": 4785,
      "ĠspojrzaÅĤĠnaĠ": 4786,
      "ÄĻĠrosyj": 4787,
      "skij": 4788,
      "byÅĤaĠz": 4789,
      "aliĠsiÄĻ": 4790,
      "szystkimĠ": 4791,
      "ciÄħÅ¼Ġ": 4792,
      "rzekÅĤ:ĊĊâĢĶĠ": 4793,
      "!ĠZ": 4794,
      "ĠteÅ¼Ġ": 4795,
      "tek": 4796,
      "seĠ": 4797,
      "imi": 4798,
      "rzekÅĤĠdoĠ": 4799,
      "ĠtÄĻĠ": 4800,
      "robo": 4801,
      "biegÅĤaĠ": 4802,
      "szerokoĠ": 4803,
      "waÅĽ": 4804,
      "ukoÅĦ": 4805,
      "panieĠ": 4806,
      "sÅĤychaÄĩĠbyÅĤoĠ": 4807,
      "Ġwyma": 4808,
      "pre": 4809,
      "jaw": 4810,
      "mina": 4811,
      "ÅĤych": 4812,
      "fab": 4813,
      "elemen": 4814,
      "ÅĽrodek": 4815,
      "dykt": 4816,
      "arytmetycz": 4817,
      "cyf": 4818,
      "ĠsÅĤysz": 4819,
      "aÅĤĠgoĠ": 4820,
      "dobrze": 4821,
      "koroĠ": 4822,
      "Gawronkach": 4823,
      ".ĠStanÄħ": 4824,
      "ÅĽmiesz": 4825,
      "skÃ³r": 4826,
      ",Ġpow": 4827,
      "Ġwskaz": 4828,
      "ĠtakÄħĠ": 4829,
      "Äħ,ĠÅ¼eĠ": 4830,
      "Ã³w.ĠP": 4831,
      "nauczycielemĠ": 4832,
      "spostrzegÅĤ": 4833,
      "owanie": 4834,
      ":ĊĊâĢĶĠT": 4835,
      "Ġpalc": 4836,
      "iÄĻ": 4837,
      ",Ġwi": 4838,
      "kal": 4839,
      ".ĠRe": 4840,
      "wiÄĻcĠ": 4841,
      "ÅĽwiÄĻtyĠ": 4842,
      "ĠzĠnaj": 4843,
      "Ġbyt": 4844,
      "ologicz": 4845,
      "odzien": 4846,
      "skimiĠ": 4847,
      "aÅĤaĠgoĠ": 4848,
      "uczniaĠ": 4849,
      "maÅĤyĠ": 4850,
      "ÅĽred": 4851,
      "mÃ³wiÅĤĠ": 4852,
      "kun": 4853,
      "ĠbÅĤÄĻd": 4854,
      "pÄĻk": 4855,
      "ĠczyĠ": 4856,
      "ÅĽciĠiĠ": 4857,
      "wiÄĻcej": 4858,
      "gramatykiĠ": 4859,
      "miaÅĤoĠ": 4860,
      "ckiegoĠ": 4861,
      "stÄħd": 4862,
      "Ġdobr": 4863,
      "wÅĤas": 4864,
      "acer": 4865,
      "eĠwzglÄĻduĠnaĠ": 4866,
      "Ġsamot": 4867,
      "Å¼yciuĠ": 4868,
      "Ġwizy": 4869,
      ",ĠpeÅĤ": 4870,
      "ÅĽÄĩ,Ġ": 4871,
      "rzÄĻs": 4872,
      "toĠciĠ": 4873,
      "ĠtejĠchwiliĠ": 4874,
      "oroĠ": 4875,
      "przywi": 4876,
      "car": 4877,
      "aja": 4878,
      "dzienni": 4879,
      "naczel": 4880,
      "Ġtrwo": 4881,
      "rady": 4882,
      "prez": 4883,
      "odlegÅĤ": 4884,
      "aĠna": 4885,
      "aÄĩĠiĠ": 4886,
      "wĠnie": 4887,
      "Ġsp": 4888,
      "goÅĽci": 4889,
      "ÄħÅ¼ajÄħc": 4890,
      ",ĠprzyĠ": 4891,
      "Ġpiw": 4892,
      "onĠu": 4893,
      "napeÅĤni": 4894,
      "dziewiÄħt": 4895,
      "ator": 4896,
      "ĠiĠzĠ": 4897,
      "ychodzÄħc": 4898,
      "Jezu": 4899,
      "drzwiamiĠ": 4900,
      "niejszyĠ": 4901,
      "ĠdwuĠ": 4902,
      "dwor": 4903,
      "Cie": 4904,
      "prowadzÄħc": 4905,
      "kolejnoĠ": 4906,
      "Jaczmieniew": 4907,
      "natow": 4908,
      "srebr": 4909,
      "ĠwielmoÅ¼nyĠ": 4910,
      "Ġsercu": 4911,
      "âĢ¦ĠâĢĶĠszep": 4912,
      "Ġprzej": 4913,
      "Ġwas": 4914,
      "ĠzaĠp": 4915,
      "wa,Ġ": 4916,
      "wierzchni": 4917,
      "nauczycielu": 4918,
      "uprzej": 4919,
      "pozy": 4920,
      "ĠtymczasemĠ": 4921,
      "ĠwstaÅĤ": 4922,
      "nk": 4923,
      "iÅĤ": 4924,
      "ci,Ġ": 4925,
      "kiĠod": 4926,
      "wsz": 4927,
      "rak": 4928,
      "y,ĠaleĠ": 4929,
      "!ĠâĢĶĠzawoÅĤaÅĤĠ": 4930,
      "ktÃ³ryĠ": 4931,
      "skiew": 4932,
      "ĠmÃ³w": 4933,
      ".ĊĊâĢĶĠNo": 4934,
      "ĠzwrÃ³ci": 4935,
      "Åºle": 4936,
      "takieĠ": 4937,
      "Å¹": 4938,
      "dziwi": 4939,
      "ĠpolskÄħ": 4940,
      "rezul": 4941,
      "?ĠO": 4942,
      "âĢĶĠtoĠ": 4943,
      "przecie": 4944,
      "ĠdyrektorĠ": 4945,
      ",ĠjaĠ": 4946,
      "szyder": 4947,
      "?ĠJaĠ": 4948,
      "Å¼yÄĩ": 4949,
      "Ġbrze": 4950,
      "gniew": 4951,
      "dziÄĩĠ": 4952,
      "ÅĤatwo": 4953,
      "bÄħ": 4954,
      "nieĠumie": 4955,
      "nieĠmoÅ¼": 4956,
      "naĠwy": 4957,
      "nieĠmoÅ¼eĠ": 4958,
      "ĠksiÄħÅ¼ek": 4959,
      ".ĠNaw": 4960,
      "gadaÄĩ": 4961,
      "Ġprzeciw": 4962,
      "radoÅĽci": 4963,
      "ĠsÅĤo": 4964,
      "rzch": 4965,
      ".ĠKo": 4966,
      "nogaĠzaĠ": 4967,
      "nogaĠzaĠnog": 4968,
      "oddaw": 4969,
      "muĠnaĠ": 4970,
      "ÅĤach": 4971,
      "szakÅ¼eĠ": 4972,
      "Lu": 4973,
      ",ĠgdzieĠ": 4974,
      "maÅĤeĠ": 4975,
      "obywatel": 4976,
      "ciemno": 4977,
      "rodzeĠ": 4978,
      "obycz": 4979,
      "iÅĽcie": 4980,
      "spali": 4981,
      "jekt": 4982,
      "rusy": 4983,
      "aĠznajdow": 4984,
      ".ĠTylkoĠ": 4985,
      "martw": 4986,
      "Ġpia": 4987,
      "byÅĤyĠw": 4988,
      "chÅĤod": 4989,
      "ukrad": 4990,
      "Ġprzedsion": 4991,
      "takĠw": 4992,
      ",Ġzna": 4993,
      "anta": 4994,
      "drugimĠ": 4995,
      "ĠzĠtegoĠ": 4996,
      "uĠgimnazjal": 4997,
      "ĠwÅĤaÅĽnie": 4998,
      "rozmowyĠ": 4999,
      "Ġklerykow": 5000,
      "liĠsiÄĻĠ": 5001,
      "szonyĠ": 5002,
      "izmu": 5003,
      "ĠnieĠbyÅĤoĠ": 5004,
      "Ã³w.ĠW": 5005,
      "itd.,Ġ": 5006,
      "pelu": 5007,
      "ĠteÅ¼": 5008,
      "gospodarz": 5009,
      "awyĠ": 5010,
      "rzucaÅĤĠ": 5011,
      "naĠle": 5012,
      "JÃ³ze": 5013,
      "JÃ³zef": 5014,
      "ĠsobieĠ": 5015,
      "ukÅĤ": 5016,
      "miejscaĠiĠ": 5017,
      "grec": 5018,
      ".ĠMarcinekĠ": 5019,
      "muru": 5020,
      "ÅĤecz": 5021,
      "kÄĻ*": 5022,
      "tÃ³": 5023,
      ".ĠAleĠ": 5024,
      "ĠwyÅ¼sz": 5025,
      "sobÄħĠ": 5026,
      "amkniÄĻt": 5027,
      "byliĠ": 5028,
      "nych,Ġ": 5029,
      "osiemĠ": 5030,
      "Ġswych": 5031,
      "mieÅĽcie": 5032,
      "aÅĤoĠgoĠ": 5033,
      "Ġmura": 5034,
      "nume": 5035,
      "niejszychĠ": 5036,
      "ĠziemiÄĻ": 5037,
      "ÄħĠna": 5038,
      "dzieciÄĻ": 5039,
      "liÅĽcie": 5040,
      "inaczej": 5041,
      "szĠnaĠ": 5042,
      "umiaÅĤ": 5043,
      "Ġta": 5044,
      ".ĠKiedyĠniekiedyĠ": 5045,
      "ejrze": 5046,
      "sprawyĠ": 5047,
      "paniĠBorowiczowej": 5048,
      "miejsca": 5049,
      "odĠrazuĠ": 5050,
      "ÅĤym": 5051,
      "lekcje": 5052,
      "koÅĦcu": 5053,
      "y,ĠgdyĠ": 5054,
      "czkaĠ": 5055,
      "soÅĤ": 5056,
      "mia": 5057,
      "itd.Ġ": 5058,
      "lekcji,Ġ": 5059,
      "p.Ġ": 5060,
      "jawie": 5061,
      ".ĠByÅĤyĠ": 5062,
      "rywajÄħc": 5063,
      "stroj": 5064,
      "nyĠz": 5065,
      "oni": 5066,
      "Ġmateri": 5067,
      "ĠprzerÃ³Å¼neĠ": 5068,
      "Ġtego,Ġ": 5069,
      "eÅĤko": 5070,
      ",ĠgdybyĠ": 5071,
      "nastu": 5072,
      "niaÅĤaĠ": 5073,
      "nymĠruch": 5074,
      "Ġprofeso": 5075,
      "francu": 5076,
      "aczkolwiek": 5077,
      "Rosjanin": 5078,
      "Å¼ydow": 5079,
      "odpowiedzi": 5080,
      "ĠsaliĠ": 5081,
      "szeniĠ": 5082,
      "czyty": 5083,
      "wiÄĻkszoÅĽÄĩĠ": 5084,
      "Pola": 5085,
      "aliĠnaĠ": 5086,
      "inspektorĠ": 5087,
      "darzyÅĤoĠ": 5088,
      "IÅĤari": 5089,
      "kolegÃ³wĠ": 5090,
      "czemĠ": 5091,
      "Niech": 5092,
      "szmer": 5093,
      "skandal": 5094,
      "oto": 5095,
      "Wargul": 5096,
      "wiz": 5097,
      "ciÄħgnÄħÅĤ": 5098,
      "âĢŀstarejĠ": 5099,
      "âĢŀstarejĠPrzepiÃ³rzycy": 5100,
      "dzt": 5101,
      "guĠ": 5102,
      "styĠ": 5103,
      "cjÄĻ,Ġ": 5104,
      "najstar": 5105,
      "starej": 5106,
      "powsta": 5107,
      "Karo": 5108,
      "kuĠz": 5109,
      "aÅĤyĠz": 5110,
      "Ġpensj": 5111,
      "lin": 5112,
      "podwÃ³": 5113,
      "stwie": 5114,
      "tka": 5115,
      "stancjÄĻ": 5116,
      "mizer": 5117,
      "ĠdrzewaĠ": 5118,
      "BoÅ¼e": 5119,
      "Kon": 5120,
      "Konstancj": 5121,
      "negoĠz": 5122,
      "âĢĶĠwy": 5123,
      "kupi": 5124,
      "JuÅ¼": 5125,
      "najo": 5126,
      ".ĠCoĠ": 5127,
      "aÄĩ,Ġ": 5128,
      "Å¼ebymĠ": 5129,
      "Ġtor": 5130,
      "nowegoĠ": 5131,
      "mÄĻdr": 5132,
      "rym": 5133,
      "filozof": 5134,
      "doby": 5135,
      "ĠbÅĤo": 5136,
      "ÅĽwiatÅĤo": 5137,
      "Åºni": 5138,
      "jÄĻzykaĠpol": 5139,
      "obecnoÅĽciĠ": 5140,
      "koniec": 5141,
      "polskie": 5142,
      "gwiz": 5143,
      "Mochna": 5144,
      "ÅĽcig": 5145,
      "klÄĻ": 5146,
      "przecieÅ¼": 5147,
      "ludziĠ": 5148,
      ".ĠJeÅ¼eliĠ": 5149,
      "niÄĻtyĠ": 5150,
      "takĠdale": 5151,
      "szop": 5152,
      "ĠsamymĠ": 5153,
      "Ġzgni": 5154,
      "ÅĽciciel": 5155,
      "okrzy": 5156,
      "wyĠiĠ": 5157,
      "rozdziaÅĤ": 5158,
      "corazĠbardziej": 5159,
      ",ĠjakĠtoĠ": 5160,
      "ktor": 5161,
      "ÅĤujÄħc": 5162,
      "Ġpapieros": 5163,
      "anoĠgoĠ": 5164,
      "szczerzeĠ": 5165,
      ".ĠMyÅĽ": 5166,
      "Puszki": 5167,
      "stronic": 5168,
      "zdob": 5169,
      "dwaj": 5170,
      "y*": 5171,
      "razie": 5172,
      "szczÄĻs": 5173,
      "ĠwĠz": 5174,
      "gimnazjalnych": 5175,
      "czÄĻÅĽcie": 5176,
      "rÃ³b": 5177,
      "ĠkilkuĠ": 5178,
      "kÃ³w,Ġ": 5179,
      "gmach": 5180,
      "Ġprost": 5181,
      "ÅĦcyĠ": 5182,
      "ciszyĠ": 5183,
      "ewnÄħ": 5184,
      "ewnÄħtrz": 5185,
      "wszeĠ": 5186,
      "no-": 5187,
      "ogro": 5188,
      "kiĠwy": 5189,
      "recy": 5190,
      "cyli": 5191,
      "cylind": 5192,
      "sik": 5193,
      "Ġdal": 5194,
      "ener": 5195,
      "kobyÅĤ": 5196,
      "szos": 5197,
      "temĠw": 5198,
      "ÅĤyĠz": 5199,
      "wÄħ": 5200,
      "chyĠ": 5201,
      "Åºre": 5202,
      "czem": 5203,
      "ostroÅ¼": 5204,
      "ÅĽcieÅ¼": 5205,
      "reĠ": 5206,
      "VII": 5207,
      "ĠdoĠklasyĠ": 5208,
      "czasieĠ": 5209,
      "szpie": 5210,
      "nkt": 5211,
      ".ĊĊPew": 5212,
      "aÅĤoĠmuĠsiÄĻ": 5213,
      "hym": 5214,
      "kach,Ġ": 5215,
      "cicho": 5216,
      ",ĠpragnÄħc": 5217,
      "kniÄĻ": 5218,
      "aÅĤĠsiÄĻĠsÅĤyszeÄĩĠ": 5219,
      "gÃ³rÄĻ": 5220,
      "ĠkÅĤad": 5221,
      "ĠLeimĠ": 5222,
      "wersy": 5223,
      "Å¼yt": 5224,
      ".ĠPrzezĠ": 5225,
      "arz": 5226,
      "u,ĠaĠ": 5227,
      "szkoÅĤy,Ġ": 5228,
      "ĠsÅĤÃ³w": 5229,
      "Rosjan": 5230,
      "umiaÅĤĠ": 5231,
      ",Ġzad": 5232,
      "cÄĻ,Ġ": 5233,
      ".ĠPodczas": 5234,
      "utworyĠ": 5235,
      "Ġwieku": 5236,
      "ĠmÃ³wiÅĤĠ": 5237,
      "niechÄĻ": 5238,
      "zgar": 5239,
      "Nogac": 5240,
      "ematy": 5241,
      "Ġparku": 5242,
      "Ġpistole": 5243,
      "pieniÄħdzeĠ": 5244,
      "ĠmieÅĽcie": 5245,
      "materi": 5246,
      "aÅĤu,Ġ": 5247,
      "Ġkrz": 5248,
      "spÄĻdz": 5249,
      ".ĠPew": 5250,
      "gno": 5251,
      "Ġduch": 5252,
      "skrwa": 5253,
      "skrwawi": 5254,
      "najbliÅ¼sz": 5255,
      "ĠwielkiegoĠ": 5256,
      "kÄĻ,Ġ": 5257,
      "rÄĻko": 5258,
      "ÅĤĠgoĠ": 5259,
      "Kostur": 5260,
      "rzyliĠ": 5261,
      "ruszy": 5262,
      "rÃ³cz": 5263,
      "naprzÃ³d": 5264,
      "ĠmoÅ¼naĠ": 5265,
      "korepetycj": 5266,
      "skÄħd": 5267,
      "Ã¡": 5268,
      "kierunku": 5269,
      "Histor": 5270,
      "adyĠ": 5271,
      "ĠmÅĤodzieÅ¼yĠ": 5272,
      "literac": 5273,
      "cyz": 5274,
      "Ã³smoklasist": 5275,
      "pino": 5276,
      "buckle'": 5277,
      "âĢŀBiruta": 5278,
      "97": 5279,
      "jedyna": 5280,
      "siedze": 5281,
      "tyĠw": 5282,
      "kiĠnaĠ": 5283,
      "nach,Ġ": 5284,
      "pamiĠ": 5285,
      "jakĠp": 5286,
      ".ĊĊChÅĤo": 5287,
      "ruĠ": 5288,
      "Ġdawien": 5289,
      "ĠdawienĠdaw": 5290,
      "naĠu": 5291,
      "cjiĠiĠ": 5292,
      "garÅĽci": 5293,
      ",ĠjuÅ¼": 5294,
      "Ġmig": 5295,
      "czerwieni": 5296,
      "onĠtoĠ": 5297,
      "krad": 5298,
      ".ĠÅģ": 5299,
      "olet": 5300,
      "rwiĠ": 5301,
      "ÅĤosyĠ": 5302,
      "ÅĤoÅ¼": 5303,
      "naÅĦ": 5304,
      "rodzin": 5305,
      "pĠ": 5306,
      "Ġdwor": 5307,
      "krzywi": 5308,
      "roÅĽli": 5309,
      "sÄĻp": 5310,
      "dzisz": 5311,
      "my,Ġ": 5312,
      "eli": 5313,
      "rywkiĠ": 5314,
      "byĠpo": 5315,
      "szmat": 5316,
      "ÅĤaj": 5317,
      "ny,Ġprzy": 5318,
      "dostrzegÅĤ": 5319,
      "ÅĽcianyĠ": 5320,
      "worzyÅĤyĠ": 5321,
      "rzekÅĤa:ĊĊâĢĶĠ": 5322,
      "âĢ¦ĠAleĠ": 5323,
      "ÅĽmiechu": 5324,
      "Al": 5325,
      "jechaÅĤ": 5326,
      "Ġpyt": 5327,
      "Ġpowiad": 5328,
      "uczeniaĠ": 5329,
      "ndu": 5330,
      "noÅĽciĠiĠ": 5331,
      "ĠprzeraÅ¼e": 5332,
      "strzÄħs": 5333,
      "stod": 5334,
      "Ġparkan": 5335,
      "chÄĻĠ": 5336,
      "ĠwzglÄĻd": 5337,
      "poÅĤy": 5338,
      "niewiel": 5339,
      "niejszaĠ": 5340,
      "drog": 5341,
      "dom": 5342,
      "ogrÃ³d": 5343,
      "okoÅĤaĠ": 5344,
      "Marcj": 5345,
      "Marcjan": 5346,
      "naĠzĠ": 5347,
      "lisz": 5348,
      "nauczycielowiĠ": 5349,
      "Nauczyciel": 5350,
      "toĠz": 5351,
      "grubeĠ": 5352,
      "kie,Ġ": 5353,
      "eĠm": 5354,
      "atra": 5355,
      "ÄħĠod": 5356,
      "Ġsz": 5357,
      "choÄĩĠ": 5358,
      "dziwnegoĠ": 5359,
      "nauczycielkaĠ": 5360,
      "podobnaĠ": 5361,
      "uchy": 5362,
      ",Ġpowi": 5363,
      "!ĠâĢĶĠwoÅĤ": 5364,
      "skaĠiĠ": 5365,
      "pecj": 5366,
      "nauczyciel,Ġ": 5367,
      "uczucie": 5368,
      "aĠbardzoĠ": 5369,
      "chlubÄħ": 5370,
      "kolwiekĠ": 5371,
      "obywate": 5372,
      "dobrodziej": 5373,
      "âĢ¦âĢĿĠ": 5374,
      "ĠzaÅĽ": 5375,
      "nieĠsÅĤysz": 5376,
      "jednocze": 5377,
      "opuÅĽci": 5378,
      "Ġswobod": 5379,
      "bÅĤyszczÄħc": 5380,
      "szlif": 5381,
      "chwili": 5382,
      ".ĠJeden": 5383,
      "kÄħt": 5384,
      "kolos": 5385,
      "rys": 5386,
      "jakim": 5387,
      "izbyĠszkolnej": 5388,
      "nur": 5389,
      "scypli": 5390,
      "naÅĽlad": 5391,
      "ĠwĠkierunkuĠ": 5392,
      "cja,Ġ": 5393,
      "caÅĤym": 5394,
      ":ĊĊâĢŀ": 5395,
      "aÅĤĠzaĠ": 5396,
      "dziewczyn": 5397,
      "âĢ¦ĠâĢĶĠrzekÅĤaĠ": 5398,
      "ujeĠ": 5399,
      "uĠnas": 5400,
      ".ĠJest": 5401,
      ".ĊĊToĠ": 5402,
      "chociaÅ¼": 5403,
      "pliwo": 5404,
      "spojrz": 5405,
      ".ĠâĢĶĠP": 5406,
      "uÅĽci": 5407,
      "umysÅĤu": 5408,
      "oczymaĠiĠ": 5409,
      "Ġpokoju": 5410,
      "Ġki": 5411,
      "owar": 5412,
      "sko,Ġ": 5413,
      "herbat": 5414,
      "spostrze": 5415,
      "ĠpewnoÅĽciÄħ": 5416,
      "sunÄħÅĤ": 5417,
      "Ġpani": 5418,
      "ÄĻ,ĠboĠ": 5419,
      "choÄĩbyĠ": 5420,
      "Ġpoj": 5421,
      "ĠpoĠraz": 5422,
      "opo": 5423,
      "bÅĤ": 5424,
      "aniuĠ": 5425,
      "ywaÅĤaĠ": 5426,
      "iloÅĽciĠ": 5427,
      "ciÄħgnÄĻÅĤaĠ": 5428,
      "nasy": 5429,
      "azg": 5430,
      "jedzie": 5431,
      "kÃ³jĠ": 5432,
      "ÅĽwiÄħt": 5433,
      "szorst": 5434,
      "dzieckoĠ": 5435,
      "nieĠmam": 5436,
      ".ĠPaniĠ": 5437,
      "byĠsiÄĻ": 5438,
      "rzej": 5439,
      "Ġmatki": 5440,
      "a,ĠaleĠ": 5441,
      "trudno": 5442,
      "Äħci": 5443,
      "otoĠ": 5444,
      ",ĠmÃ³jĠ": 5445,
      "niesionoĠ": 5446,
      "pokojuĠ": 5447,
      ".ĠOkoÅĤoĠ": 5448,
      "kiĠwĠ": 5449,
      "ĠksiÄĻÅ¼y": 5450,
      "nieĠma,Ġ": 5451,
      "ĠdrogiĠ": 5452,
      "*pa": 5453,
      "sypi": 5454,
      "ĠdobrzeĠ": 5455,
      "trzymaÅĤaĠ": 5456,
      "odez": 5457,
      "niosÅĤaĠ": 5458,
      "ĠwĠciem": 5459,
      "liĠgoĠ": 5460,
      ".ĊĊâĢĶĠNi": 5461,
      "chÅĤopiecĠ": 5462,
      "ucieka": 5463,
      "ĠmatkiĠ": 5464,
      "ĠmÃ³zg": 5465,
      "ÅĽciÅĽ": 5466,
      "zÄĻb": 5467,
      "kamiĠiĠ": 5468,
      "tymczasemĠ": 5469,
      "ustawi": 5470,
      "razĠzĠ": 5471,
      "Ġpara": 5472,
      "ĠposÅĤa": 5473,
      "niemĠnaĠ": 5474,
      "Ġtrw": 5475,
      "ĠdÅĤugoĠ": 5476,
      "skaki": 5477,
      "chich": 5478,
      "siÄĻĠroz": 5479,
      "coĠtch": 5480,
      "stosow": 5481,
      "ĠdoĠGawronek": 5482,
      "fizjono": 5483,
      "Å¼wi": 5484,
      "jednÄħĠ": 5485,
      "olbrzymie": 5486,
      "ĠwielkiĠ": 5487,
      "ĠpÃ³ÅĤok": 5488,
      "kami,ĠaĠ": 5489,
      "groz": 5490,
      "ĠsiedziaÅĤĠnaĠ": 5491,
      "sil": 5492,
      "ĠktÃ³rych": 5493,
      "ÅĤyĠdoĠ": 5494,
      "mle": 5495,
      "wĠgÅĤowie": 5496,
      "Iz": 5497,
      "chÅĤopcyĠ": 5498,
      "oknem": 5499,
      "dzieliĠw": 5500,
      "ojc": 5501,
      "czÄĻt": 5502,
      "ra*": 5503,
      "szkoÅĤ": 5504,
      "miesz": 5505,
      "imiÄĻ": 5506,
      "ĠmnieĠ": 5507,
      "?ĊĊMarcin": 5508,
      "rus": 5509,
      "at'": 5510,
      "szeptaÅĤĠ": 5511,
      "czytaÄĩ,Ġ": 5512,
      "gÅĤowÄħĠiĠ": 5513,
      "Ġzo": 5514,
      "lito": 5515,
      "ÅĤawek": 5516,
      "sztur": 5517,
      "Ġmilczeniu": 5518,
      "jeszczeĠraz": 5519,
      "BorowiczaĠiĠ": 5520,
      "IĠ": 5521,
      "stoi": 5522,
      "ciĠiĠ": 5523,
      "powiedziaÅĤ": 5524,
      "patrzÄħc": 5525,
      "Ġkiep": 5526,
      "Ġniezmier": 5527,
      ".ĠOdĠ": 5528,
      "obserw": 5529,
      "niego,Ġ": 5530,
      "iĠzaczÄħÅĤĠ": 5531,
      "ospod": 5532,
      "komen": 5533,
      "siÄĻĠnaĠrÃ³wneĠ": 5534,
      "nogi": 5535,
      "ukoÅĦczeniuĠ": 5536,
      "literal": 5537,
      "ania,Ġ": 5538,
      "indy": 5539,
      "widu": 5540,
      "koÅĦcÃ³w": 5541,
      "wiaÅĤĠ": 5542,
      "Ġostat": 5543,
      "atys": 5544,
      "atysfak": 5545,
      "Å¼Äħ": 5546,
      "ka,ĠaĠ": 5547,
      "krzeÅĽle": 5548,
      ".ĊĊNauczyciel": 5549,
      "prawiaÅĤĠ": 5550,
      "*a": 5551,
      "*âĢ¦Ġ": 5552,
      "*,ĠaĠ": 5553,
      "nibyĠtoĠ": 5554,
      "nudzi": 5555,
      "szeÅĽÄĩ": 5556,
      ".ĊĊC": 5557,
      "ĠmuĠsiÄĻ": 5558,
      "kĠiĠ": 5559,
      "ĠdÅº": 5560,
      ",ĠtÅĤu": 5561,
      "Ġspraw": 5562,
      "racaÅĤ": 5563,
      "czytaniaĠ": 5564,
      "koÅĦcuĠ": 5565,
      ",ĠpÃ³ÅºniejĠ": 5566,
      "tanieĠ": 5567,
      "dziwneĠ": 5568,
      "âĢ¦ĠO": 5569,
      "tuch": 5570,
      "Ġust": 5571,
      "ÅĤawceĠ": 5572,
      "Ġwycie": 5573,
      "aÅĤaĠtak": 5574,
      "bÅĤo": 5575,
      "âĢ¦ĠB": 5576,
      "wyd": 5577,
      "amyĠ": 5578,
      "Kol": 5579,
      "ĠsÅĤa": 5580,
      "âĢ¦ĊĊZ": 5581,
      "Ġmelod": 5582,
      "padÅĤyĠ": 5583,
      "koÅĽcie": 5584,
      "uchoĠ": 5585,
      "czÄħtku": 5586,
      "czenieĠ": 5587,
      "ĠzmuszonyĠbyÅĤ": 5588,
      "wyciÄĻ": 5589,
      "Å¼yÄĩĠ": 5590,
      "chÃ³r": 5591,
      "uczyni": 5592,
      "comĠ": 5593,
      "czyÄĩĠ": 5594,
      "uwagÄĻ": 5595,
      "Ġdrugiej": 5596,
      "Ġzabaw": 5597,
      "chybaĠ": 5598,
      "osi": 5599,
      "niezbyt": 5600,
      "czynaÅĤĠ": 5601,
      "rozmaitych": 5602,
      "owania,Ġ": 5603,
      "pamiÄĻt": 5604,
      "Ġtwier": 5605,
      "ichĠw": 5606,
      "juÅ¼ĠbyÅĤ": 5607,
      "oĠcoĠ": 5608,
      "aÅĤoĠz": 5609,
      "ciÄħgÅĤ": 5610,
      "znacze": 5611,
      "stronicyĠ": 5612,
      "nieĠbÄĻdzie": 5613,
      "ĠprzyjÄĻt": 5614,
      "saÄĩĠ": 5615,
      "Ġkali": 5616,
      "PanĠBÃ³g": 5617,
      "âĢĶĠaĠ": 5618,
      "spacer": 5619,
      "Ġmiejscach": 5620,
      "jednokro": 5621,
      "jednokrot": 5622,
      "literyĠ": 5623,
      "ÄĩwiczeniaĠ": 5624,
      "szlachet": 5625,
      "doĠwy": 5626,
      "broni": 5627,
      "li,ĠaĠ": 5628,
      "ÄĩĠsiÄĻĠzĠ": 5629,
      ".ĠSiedziaÅĤ": 5630,
      "ĠpozaĠ": 5631,
      "rzeszcz": 5632,
      "rzaÅĤyĠ": 5633,
      "ĠzaroÅĽ": 5634,
      "spodĠ": 5635,
      "gramatycz": 5636,
      "nieĠmÃ³gÅĤĠ": 5637,
      "siÄħceĠ": 5638,
      "Å¼adneĠ": 5639,
      "anowi": 5640,
      "ĠwĠstronÄĻ": 5641,
      "stÃ³": 5642,
      "zaroÅĽlaĠ": 5643,
      "ĠdokÅĤad": 5644,
      "odu": 5645,
      "czyÅĤoĠ": 5646,
      "budyn": 5647,
      ",ĠktÃ³rzyĠ": 5648,
      "wcaleĠ": 5649,
      ",ĠcoĠbyĠ": 5650,
      "drg": 5651,
      "onym": 5652,
      ".ĊĊOd": 5653,
      "milczenie": 5654,
      "Ġdla": 5655,
      "ĠpewnejĠ": 5656,
      "nieĠnad": 5657,
      "ĠbÄĻdÄĻ": 5658,
      "Å¼ycia,Ġ": 5659,
      ",Ġnieraz": 5660,
      "niejszÄħ": 5661,
      "porzÄħd": 5662,
      "reprez": 5663,
      "gaÅĤÄĻ": 5664,
      "eczkaĠ": 5665,
      ".ĠCaÅĤeĠ": 5666,
      "przyjÄĻ": 5667,
      "tajemni": 5668,
      "negoĠpo": 5669,
      "aliĠzĠ": 5670,
      ".ĠMiaÅĤĠ": 5671,
      ",ĠuĠ": 5672,
      "miaÅĤĠw": 5673,
      ".ĠJuÅ¼Ġ": 5674,
      "peÅĤniÅĤ": 5675,
      "chu,Ġ": 5676,
      "serca": 5677,
      "kiemĠz": 5678,
      "ĠsposÃ³bĠ": 5679,
      "ĠpowiedzieÄĩ": 5680,
      "znaÄĩ": 5681,
      "ubra": 5682,
      "kam": 5683,
      ":ĊĊâĢĶĠO": 5684,
      "ĠsiÄĻĠw": 5685,
      "obejrz": 5686,
      "*bel": 5687,
      "tr": 5688,
      "Borowicza,Ġ": 5689,
      "bezpie": 5690,
      "ajmow": 5691,
      "!ĠO": 5692,
      "piero": 5693,
      "JezusĠ": 5694,
      "plecyĠ": 5695,
      "strachu": 5696,
      "kroczyÅĤ": 5697,
      "granatow": 5698,
      "chodziÅĤĠ": 5699,
      "jaÅĽnie": 5700,
      "panie": 5701,
      "rektora": 5702,
      "!ĠD": 5703,
      "uÅ¼oĠ": 5704,
      "czÅĤowiekĠ": 5705,
      "ĠwiÄĻkszo": 5706,
      "cie,Ġ": 5707,
      "dawaÅĤĠz": 5708,
      "MoÅ¼eĠ": 5709,
      "nemu": 5710,
      "dzo": 5711,
      "ĠpiersiĠ": 5712,
      "znak": 5713,
      "bÄĻdzieĠ": 5714,
      "charak": 5715,
      ",Ġpew": 5716,
      "Pedago": 5717,
      "elner": 5718,
      "Ġwykwi": 5719,
      "Ġwykwint": 5720,
      "ĠdaÄĩ": 5721,
      "chodziĠ": 5722,
      "roszÄĻĠ": 5723,
      ".ĠKil": 5724,
      "ĠpoĠpolsku,Ġ": 5725,
      "ĠktoĠ": 5726,
      "wiadomo": 5727,
      ",Ġtak": 5728,
      "nicĠnieĠ": 5729,
      ".ĠÅ¹": 5730,
      "poĠpolsku": 5731,
      "katoli": 5732,
      "oznacz": 5733,
      "mis": 5734,
      "Å¼ycze": 5735,
      "Ġtut": 5736,
      "ĠurzÄĻd": 5737,
      "rezultat": 5738,
      "stÃ³w": 5739,
      "ĠkaÅ¼dejĠ": 5740,
      "alĠ": 5741,
      "Ġtytu": 5742,
      "zebra": 5743,
      "opar": 5744,
      ".ĊĊâĢŀ": 5745,
      "skoÅĦczyÅĤ": 5746,
      "Ġmasz": 5747,
      "nieÅĽÄĩ": 5748,
      "czte": 5749,
      "piersi": 5750,
      "emĠwy": 5751,
      "ktoÅĽ": 5752,
      "ÅĤatwoĠ": 5753,
      "tylko": 5754,
      "wiÄĻcejĠ": 5755,
      "noÅĽci,Ġ": 5756,
      "Ġdosta": 5757,
      "cisnÄħÅĤ": 5758,
      "to,ĠcoĠ": 5759,
      "skrÄĻ": 5760,
      "ciÄħÅ¼": 5761,
      "ÅĤudze": 5762,
      "Ġwyrw": 5763,
      "ulu": 5764,
      "byÅĤo": 5765,
      "skiem": 5766,
      "dla": 5767,
      "wamĠsiÄĻĠ": 5768,
      "ĠzarazĠ": 5769,
      "stoĠ": 5770,
      "przekona": 5771,
      "Å¼yweĠ": 5772,
      "nemuĠ": 5773,
      "kowa": 5774,
      "innegoĠ": 5775,
      "iĠprzy": 5776,
      "jÄħĠz": 5777,
      "JeszczeĠ": 5778,
      "ko,ĠcoĠ": 5779,
      "ĠzaczÄħÅĤĠ": 5780,
      "czywszyĠ": 5781,
      "komu": 5782,
      "cham": 5783,
      "lonej": 5784,
      "desk": 5785,
      "ciÄħgnÄĻÅĤyĠ": 5786,
      "oÅĽÄĩ": 5787,
      "ÅĦceĠ": 5788,
      "skrzyd": 5789,
      "gÃ³ry": 5790,
      "ĠzeĠswegoĠ": 5791,
      "dowie": 5792,
      "Ġmet": 5793,
      "kachĠiĠ": 5794,
      "âĢĿĠw": 5795,
      "tamtej": 5796,
      "szczyt": 5797,
      "jestemĠ": 5798,
      "siebieĠ": 5799,
      "stwa": 5800,
      "ĠnaleÅ¼yĠ": 5801,
      "rzyÄĩĠ": 5802,
      "ĠzaĠpomoc": 5803,
      "chÅĤopÃ³w": 5804,
      "korze": 5805,
      "zbu": 5806,
      ",ĠjakĠsiÄĻ": 5807,
      "gruncie": 5808,
      "rusyfi": 5809,
      "ag": 5810,
      "gamiĠ": 5811,
      "atyĠ": 5812,
      "bÅĤÄĻ": 5813,
      ".ĠBy": 5814,
      "dept": 5815,
      "ĠwielkimiĠ": 5816,
      "farb": 5817,
      "zapach": 5818,
      "Ġter": 5819,
      "ÅĤowa": 5820,
      "skÄħ,Ġ": 5821,
      "ciele": 5822,
      "nosiÄĩ": 5823,
      "Äħg": 5824,
      "stÄĻpniak": 5825,
      ".ĊĊSz": 5826,
      "naĠog": 5827,
      "obrÄĻ": 5828,
      "rosyjskiegoĠ": 5829,
      "obcas": 5830,
      "mundur": 5831,
      "Ġmundur": 5832,
      "met": 5833,
      ".ĠWĠd": 5834,
      "ers": 5835,
      ".ĊĊÅ»": 5836,
      "czegÃ³l": 5837,
      "ĠtenĠsposÃ³b": 5838,
      "stÄĻpnejĠ": 5839,
      "cierz": 5840,
      "szystkieĠteĠ": 5841,
      "kojemĠ": 5842,
      "ĠwidaÄĩĠ": 5843,
      ".ĊĊâĢĶĠProszÄĻ": 5844,
      "Ġpanu": 5845,
      "*kore": 5846,
      ".ĊĊKiedyĠ": 5847,
      "kul": 5848,
      "piÄħ": 5849,
      "ruszyÅĤĠdoĠ": 5850,
      "kancelari": 5851,
      "zgromadz": 5852,
      "oddali": 5853,
      "nazi": 5854,
      "a-": 5855,
      "gdzieÅĽĠ": 5856,
      "!ĊĊâĢĶĠA": 5857,
      "kawaler": 5858,
      "Ġodpowie": 5859,
      "ryn": 5860,
      "owaliĠ": 5861,
      "pomi": 5862,
      "ÄħcychĠ": 5863,
      "dzieÄĩ,Ġ": 5864,
      "wieĠiĠ": 5865,
      "Ġsre": 5866,
      "ĠwszedÅĤĠdoĠ": 5867,
      "Äħzyw": 5868,
      "alge": 5869,
      "czne": 5870,
      "wrÃ³c": 5871,
      "ebra": 5872,
      "rosyjskim": 5873,
      "lachcic": 5874,
      "oczeki": 5875,
      "Ã³wczasĠ": 5876,
      "iĠd": 5877,
      "spie": 5878,
      "miej": 5879,
      "nogi,Ġ": 5880,
      "horyzon": 5881,
      "estchnie": 5882,
      "okra": 5883,
      "nimĠw": 5884,
      "prostĠzĠ": 5885,
      "iĠzam": 5886,
      "lw": 5887,
      "kamien": 5888,
      "owego": 5889,
      "dziedziÅĦ": 5890,
      "nieĠmie": 5891,
      "Win": 5892,
      "jÄħĠw": 5893,
      "dziedziniec": 5894,
      "ytam": 5895,
      ".ĠAĠ": 5896,
      "Ġkaz": 5897,
      "zapomni": 5898,
      "Å¼ywoĠ": 5899,
      "spodĠo": 5900,
      "mamĠ": 5901,
      "niejszeĠ": 5902,
      ".ĠCzyĠ": 5903,
      "?ĊĊâĢĶĠD": 5904,
      "bied": 5905,
      "ĠkaÅ¼dyĠ": 5906,
      "Ġzwi": 5907,
      "ĠsobieĠpo": 5908,
      "*?Ġ": 5909,
      "Majewskiego": 5910,
      "ety": 5911,
      "dokÅĤad": 5912,
      "port": 5913,
      "aÅĤat": 5914,
      "trzyĠrub": 5915,
      "trzyĠrubleĠ": 5916,
      "MajewskiegoĠ": 5917,
      "gÅĤÄĻboko": 5918,
      "nosiÅĤĠ": 5919,
      "ĠsamychĠ": 5920,
      "ckiej": 5921,
      "toĠw": 5922,
      ".ĠNad": 5923,
      "granic": 5924,
      "czyz": 5925,
      "pytaniaĠ": 5926,
      "cjÄĻĠ": 5927,
      "profeso": 5928,
      "pudeÅĤ": 5929,
      "egar": 5930,
      "papie": 5931,
      "ejĠnaĠ": 5932,
      "ÅĤoĠnaĠ": 5933,
      "chi": 5934,
      "ksztaÅĤt": 5935,
      "niÅ¼sz": 5936,
      "onych,Ġ": 5937,
      "biÅĤĠ": 5938,
      "szal": 5939,
      "ĠsÅĤych": 5940,
      "prawo": 5941,
      "kw": 5942,
      "lÃ³": 5943,
      "ciÄħĠ": 5944,
      "stanÄħÅĤĠwĠ": 5945,
      "dawnoĠ": 5946,
      "ĠdwomaĠ": 5947,
      "Ġprzygot": 5948,
      "ĠpaniĠBorowiczowej": 5949,
      "rosyjskich": 5950,
      "arÅĤĠ": 5951,
      "lekcji": 5952,
      "Ġdobrze": 5953,
      "toÅĽ": 5954,
      "lekkaĠ": 5955,
      "âĢĶĠnie": 5956,
      "dziÄĻcz": 5957,
      ",ĠÅ¼eĠwy": 5958,
      "osnow": 5959,
      "ĠtrzechĠ": 5960,
      "ciÄĻt": 5961,
      ".ĠInspektor": 5962,
      "rosÅĤ": 5963,
      "ÅĤosÃ³w": 5964,
      "ld": 5965,
      "ologi": 5966,
      "Ozier": 5967,
      "Klerykowa,Ġ": 5968,
      "Ġzebra": 5969,
      "stuĠ": 5970,
      "opi": 5971,
      "czujÄħc": 5972,
      "uÅĽmiechemĠ": 5973,
      "niami": 5974,
      "ĠpoĠrosyjsku,Ġ": 5975,
      "Ã³wĠdoĠ": 5976,
      ",ĠjeÅ¼eliĠ": 5977,
      "sÅĤucha": 5978,
      "klasy": 5979,
      "kiedy": 5980,
      "nosaĠ": 5981,
      "yÅĤĠ": 5982,
      "Ġprefekt": 5983,
      "nazwiskoĠ": 5984,
      "gwizd": 5985,
      "ÅĽmierciĠ": 5986,
      "eo": 5987,
      "eofil": 5988,
      "ĠdomuĠiĠ": 5989,
      "zmar": 5990,
      "uĠz": 5991,
      "bieraÅĤĠ": 5992,
      "Ġpre": 5993,
      "ciÃ³ÅĤ": 5994,
      "brud": 5995,
      "jakĠm": 5996,
      "ujÄħcychĠ": 5997,
      "przeci": 5998,
      "bry": 5999,
      "ÅĤaÅĽnie": 6000,
      "oczuĠ": 6001,
      "no,ĠÅ¼eĠ": 6002,
      "âĢĶĠnaĠ": 6003,
      "ace": 6004,
      "ujÄħcĠ": 6005,
      "sÅĤyszaÅĤĠ": 6006,
      "grosz": 6007,
      "ini": 6008,
      "rytu": 6009,
      "okÄħ": 6010,
      "niech": 6011,
      "zwo": 6012,
      "ĠwszyscyĠ": 6013,
      "ĠparÄĻĠ": 6014,
      "drewni": 6015,
      "cÃ³Å¼Ġ": 6016,
      "ĠpokojuĠ": 6017,
      "ĠsÄħĠ": 6018,
      "rewo": 6019,
      "rewolu": 6020,
      "chadz": 6021,
      "byÅĤĠtoĠ": 6022,
      ".ĊĊRadcaĠ": 6023,
      "Ja": 6024,
      "ss": 6025,
      "nadmiar": 6026,
      "ĠkaÅ¼degoĠ": 6027,
      "ĠtoĠsamoĠ": 6028,
      "oĠtym": 6029,
      "miĠsiÄĻ": 6030,
      "kÃ³wĠw": 6031,
      "trzÄħs": 6032,
      "miaÅ¼d": 6033,
      "nikiemĠ": 6034,
      "ĠwaÄĩpan": 6035,
      "istnÄħĠ": 6036,
      "ĠzaÅĤo": 6037,
      "patrujÄħc": 6038,
      "wod": 6039,
      "radcyĠ": 6040,
      "inniĠw": 6041,
      "ÅĽwiata": 6042,
      "Ġut": 6043,
      "bÅĤot": 6044,
      "istnie": 6045,
      "nieu": 6046,
      "ostatniegoĠ": 6047,
      "Ġucz": 6048,
      "dziÄĻkiĠ": 6049,
      "takÅ¼eĠ": 6050,
      "wsp": 6051,
      "cia,Ġ": 6052,
      "pisaniaĠ": 6053,
      "ĠdalejĠ": 6054,
      "czwartej": 6055,
      "drugoro": 6056,
      "Ġdar": 6057,
      "najczÄĻÅĽcie": 6058,
      "pewien": 6059,
      "Ġrodzaj": 6060,
      "geografi": 6061,
      "czuÅĤ,ĠÅ¼eĠ": 6062,
      "owane": 6063,
      "Ġwszech": 6064,
      "drugiejĠ": 6065,
      "trzeciej": 6066,
      "Ġpauz": 6067,
      "nowyĠ": 6068,
      "Å¼aÅĤ": 6069,
      "cip": 6070,
      "achĠu": 6071,
      "otocz": 6072,
      "Ġtrzecie": 6073,
      "stronÄĻĠ": 6074,
      "pierwszeĠ": 6075,
      "furi": 6076,
      "oboz": 6077,
      "sposobemĠ": 6078,
      "czonyĠ": 6079,
      "ĠsiedziaÅĤ": 6080,
      "much": 6081,
      "iÅĽÄĩĠnaĠ": 6082,
      "ciar": 6083,
      "Ġpach": 6084,
      "skur": 6085,
      "onyĠw": 6086,
      "ĠprzyglÄħd": 6087,
      "sa,Ġ": 6088,
      "ĠpobliÅ¼uĠ": 6089,
      "ejÅĽci": 6090,
      "strumie": 6091,
      "wios": 6092,
      "ĠpagÃ³r": 6093,
      "such": 6094,
      "nieĠmiaÅĤĠ": 6095,
      "Ġtamtej": 6096,
      "niaÅĤyĠ": 6097,
      "smutneĠ": 6098,
      ".ĠTuĠiĠÃ³wdzie": 6099,
      "krzew": 6100,
      "maleÅĦ": 6101,
      "ĠpracyĠ": 6102,
      "strof": 6103,
      "okaz": 6104,
      "ĠtoĠtak": 6105,
      "ĠzakrÄĻ": 6106,
      "*naĠ": 6107,
      "zaÅĽ": 6108,
      "wiecz": 6109,
      ".ĠWtemĠ": 6110,
      "jakoÅĽ": 6111,
      "iĠo": 6112,
      "aĠu": 6113,
      "owanyĠnaĠ": 6114,
      "neĠw": 6115,
      "ĠpewnymĠmiejscu": 6116,
      "ĠwodÄĻ": 6117,
      "gawron": 6118,
      "gawronkow": 6119,
      "rÃ³Å¼ni": 6120,
      "Ġkra": 6121,
      "ĠsiÄĻĠwĠ": 6122,
      "iĠwtedyĠ": 6123,
      "doz": 6124,
      "opis": 6125,
      "energi": 6126,
      "gospodar": 6127,
      ".ĠToteÅ¼Ġ": 6128,
      "Ġwiecz": 6129,
      "Wilcz": 6130,
      "czeÅĦĠ": 6131,
      "ĠchÃ³r": 6132,
      "ĠksiÄĻdza": 6133,
      "jesz": 6134,
      "aÅĤoĠmuĠsiÄĻ,ĠÅ¼eĠ": 6135,
      "ychĠnaĠ": 6136,
      "Ã³w,ĠktÃ³rzyĠ": 6137,
      "schodyĠ": 6138,
      "modlit": 6139,
      "aÅĤ.ĠW": 6140,
      "jÄĻzykuĠ": 6141,
      "ajÄħcĠw": 6142,
      "ĠpoĠschod": 6143,
      "gadaÅĤ": 6144,
      "skuĠiĠ": 6145,
      "ostatnichĠ": 6146,
      "kas": 6147,
      ".ĠId": 6148,
      ".ĠIdÄħc": 6149,
      "literaturyĠ": 6150,
      "skiej,Ġ": 6151,
      "Ġpoch": 6152,
      "onta": 6153,
      "aniĠjednegoĠ": 6154,
      "drÅ¼Äħc": 6155,
      "ĠwielkiejĠ": 6156,
      "takiejĠ": 6157,
      "jego,Ġ": 6158,
      "zupeÅĤ": 6159,
      "winow": 6160,
      "winowaj": 6161,
      "lÄħd": 6162,
      "rywaÅĤĠ": 6163,
      "np.Ġ": 6164,
      "Gogo": 6165,
      "szkadz": 6166,
      "oĠiĠ": 6167,
      "przekÅĤad": 6168,
      "upÅĤywieĠ": 6169,
      "fraz": 6170,
      "umysÅĤyĠ": 6171,
      "Ġkup": 6172,
      "ĠzresztÄħĠ": 6173,
      "parkan": 6174,
      "wiÄĻzie": 6175,
      "ostatniejĠ": 6176,
      "aĠtak": 6177,
      "kazaÅĤĠ": 6178,
      ".ĠBorowiczĠ": 6179,
      "swych": 6180,
      ".ĠZnalaz": 6181,
      "aÅĤĠwĠtymĠ": 6182,
      "chodziÅĤĠw": 6183,
      "dobreĠ": 6184,
      "giegoĠ": 6185,
      "tÅĤumacz": 6186,
      "czuÅĤĠ": 6187,
      "jeszczeĠbardziej": 6188,
      "dzoneĠ": 6189,
      "Ġdubel": 6190,
      "ĠdubeltÃ³w": 6191,
      "korzysta": 6192,
      "ramionaĠ": 6193,
      "erceĠ": 6194,
      "cze,Ġ": 6195,
      "przybysz": 6196,
      "buÅĤ": 6197,
      "gÅĤod": 6198,
      ".ĠKaÅ¼d": 6199,
      "koweĠ": 6200,
      "ĠbyliĠ": 6201,
      "prawaĠ": 6202,
      "LejbaĠ": 6203,
      "is": 6204,
      "ĠdosyÄĩ": 6205,
      "ĠwszystkoĠ": 6206,
      "!ĠT": 6207,
      "ÅĤowi": 6208,
      "Ġtowarzy": 6209,
      "rabu": 6210,
      "Ġpr": 6211,
      "komi": 6212,
      "n,Ġ": 6213,
      "ÅºrÃ³dÅĤa": 6214,
      "turaĠ": 6215,
      "nejĠw": 6216,
      "bÅĤÄħk": 6217,
      "blask": 6218,
      "Kriestoobriadnikow": 6219,
      ".ĊĊIn": 6220,
      "ĠpewnychĠ": 6221,
      "ĠksiÄħÅ¼kiĠ": 6222,
      "waÅ¼Ġ": 6223,
      "raÅ¼enie": 6224,
      "Ġprojekt": 6225,
      ",ĠjakĠgdybyĠ": 6226,
      "loÅ¼": 6227,
      "jÄĻzykĠ": 6228,
      "muĠsiÄĻĠw": 6229,
      "ruchu": 6230,
      "uczniow": 6231,
      "karb": 6232,
      "Ġuczu": 6233,
      "krytycz": 6234,
      "juÅ¼Ġnie": 6235,
      "ĠpÅĤo": 6236,
      "potÄĻÅ¼": 6237,
      "geomet": 6238,
      ".ĠJÄĻdr": 6239,
      "Å¼eĠtoĠ": 6240,
      "czwora": 6241,
      "wersytet": 6242,
      "Ġwychowa": 6243,
      "lewo": 6244,
      ".ĠRadekĠ": 6245,
      "Ã³t": 6246,
      "Radkow": 6247,
      "ĠwiadomoÅĽciĠ": 6248,
      "alog": 6249,
      "CÃ³Å¼Ġ": 6250,
      "ĠwpÅĤyw": 6251,
      "old": 6252,
      "oldba": 6253,
      "âĢŀlitera": 6254,
      "noprÃ³Å¼ni": 6255,
      "siÃ³dmoklasist": 6256,
      "âĢŀp": 6257,
      "sla": 6258,
      "liĠsiÄĻĠdoĠ": 6259,
      "ĠzapaÅĤ": 6260,
      "literackich": 6261,
      "wolnoprÃ³Å¼nia": 6262,
      "lektu": 6263,
      "ruso": 6264,
      "ÅĤe": 6265,
      "âĢŀSpino": 6266,
      "âĢŀBalfegor": 6267,
      "sput": 6268,
      "âĢŀFiga": 6269,
      "ĠtoĠjest": 6270,
      "wĠimie": 6271,
      "Waleckiego": 6272,
      "Mickie": 6273,
      "ĠĠĠĠĠĠĠĠ": 6274,
      ".Ċ": 6275,
      "Efi": 6276,
      "Efial": 6277,
      "Efialte": 6278,
      "Efialtesa": 6279,
      "EfialtesaâĢĿ": 6280,
      "lekt": 6281,
      "âĢŀBirutaâĢĿ": 6282,
      "AnnaĠ": 6283,
      "Å»e": 6284,
      "prace": 6285,
      "8-": 6286,
      "stanowiliĠ": 6287,
      "barw": 6288,
      "em,ĠktÃ³ryĠ": 6289,
      "ÅĤudniaĠ": 6290,
      "mro": 6291,
      "rzyÅĤyĠ": 6292,
      "Ġdoli": 6293,
      "marz": 6294,
      ".ĠSzedÅĤ": 6295,
      "tÄĻdyĠ": 6296,
      "ÄĻs": 6297,
      "drob": 6298,
      "pyÅĤ": 6299,
      "leni": 6300,
      "ĠsiedzÄħc": 6301,
      "Åºle,Ġ": 6302,
      "spiczast": 6303,
      "ĠtamtychĠ": 6304,
      "okolicachĠ": 6305,
      "Ġsuk": 6306,
      "trzymaÅĤĠ": 6307,
      "Ġwielkim": 6308,
      "Å¼adnejĠ": 6309,
      "kÅĤu": 6310,
      "naĠpÃ³ÅĤ": 6311,
      "ĠdroÅ¼y": 6312,
      "przyglÄħd": 6313,
      "atrĠ": 6314,
      "y,ĠktÃ³reĠ": 6315,
      "sili": 6316,
      "siÄĻĠwcaleĠ": 6317,
      "niegdyÅĽ": 6318,
      "owÄħ,Ġ": 6319,
      ".ĊĊM": 6320,
      "krÃ³tkoĠ": 6321,
      "niÄĻtaĠ": 6322,
      "ki.ĠW": 6323,
      "wiezi": 6324,
      "megoĠ": 6325,
      "hum": 6326,
      "szkole": 6327,
      "Ġwio": 6328,
      "schyli": 6329,
      ",ĠjakichĠ": 6330,
      "ĠwisiaÅĤyĠ": 6331,
      "okryteĠ": 6332,
      "ĠzĠna": 6333,
      "swojeĠ": 6334,
      "atrz": 6335,
      "BÄĻdzie": 6336,
      "patryw": 6337,
      "ÅĦĠnaĠ": 6338,
      "lis": 6339,
      "iĠzd": 6340,
      "nica": 6341,
      "szkoÅĤa": 6342,
      "Ġtzw": 6343,
      "ĠwykrÄĻ": 6344,
      "tuĠiĠÃ³wdzie": 6345,
      "gradz": 6346,
      "eĠwĠ": 6347,
      "wysokichĠ": 6348,
      "liniÄĻĠ": 6349,
      "wykÅĤ": 6350,
      "mamusi": 6351,
      ",Ġkochan": 6352,
      ",Ġkochanku": 6353,
      "uczyÄĩ": 6354,
      "Wielkie": 6355,
      "plac": 6356,
      "kÃ³wĠz": 6357,
      "szyĠiĠ": 6358,
      "sma": 6359,
      "rodzicÃ³wĠ": 6360,
      "ÅĽciÅĽnie": 6361,
      "owat": 6362,
      "kapisz": 6363,
      "nieskoÅĦcz": 6364,
      "ÅĤaÅĦcu": 6365,
      "ÅĤaÅĦcuch": 6366,
      "Ġwyob": 6367,
      "przyÅĤ": 6368,
      "Å¼ywszyĠ": 6369,
      "dzieciÄĻc": 6370,
      "liĠwy": 6371,
      "any": 6372,
      ".ĠTymczasemĠ": 6373,
      "ÅĽliz": 6374,
      "kilkanaÅĽcie": 6375,
      "Ġbudyn": 6376,
      "yĠodĠ": 6377,
      "fron": 6378,
      "domo": 6379,
      "wemĠ": 6380,
      ".ĠDokoÅĤaĠ": 6381,
      "placuĠ": 6382,
      "ĠpÅĤot": 6383,
      "aÅĤyĠsiÄĻĠnaĠ": 6384,
      "Wiechowski,Ġ": 6385,
      ":ĊĊâĢĶĠMam": 6386,
      ".ĊĊâĢĶĠAĠczyĠ": 6387,
      "gr": 6388,
      "rusza": 6389,
      "Cich": 6390,
      "bÄħdÅº": 6391,
      "egoĠpo": 6392,
      "nogachĠ": 6393,
      "doĠgÃ³r": 6394,
      "rywaÅĤyĠ": 6395,
      "atramen": 6396,
      "wiÄĻd": 6397,
      "yÅĤaĠ": 6398,
      "czoÅĤ": 6399,
      "nÄħĠdoĠ": 6400,
      "nauczycielowa": 6401,
      "a,ĠczyĠ": 6402,
      "wĠogÃ³leĠ": 6403,
      "taÄĩ": 6404,
      ".ĊĊâĢĶĠJakÅ¼eĠ": 6405,
      "dy,Ġ": 6406,
      "rajÄħcĠ": 6407,
      "swobod": 6408,
      "chwali": 6409,
      "niewie": 6410,
      "rosnÄħc": 6411,
      "nozdrzaĠ": 6412,
      "musiĠ": 6413,
      "pocie": 6414,
      "Ten": 6415,
      "ĠwymÃ³wi": 6416,
      ",Ġna": 6417,
      "Ġzako": 6418,
      "wracajÄħcĠsiÄĻĠdoĠ": 6419,
      "ĠwyrazemĠ": 6420,
      "ni,ĠaĠ": 6421,
      "czyĠtoĠ": 6422,
      "eĠwszystkimĠ": 6423,
      "oĠtej": 6424,
      "âĢŀZ": 6425,
      "ĠtÄħĠ": 6426,
      "ĠzeĠz": 6427,
      "niewymow": 6428,
      "ÅĤaĠgoĠ": 6429,
      "Ġmow": 6430,
      "ostro": 6431,
      "sÄħĠ": 6432,
      "ĠmnÃ³st": 6433,
      ";ĠnaĠ": 6434,
      "drzewa": 6435,
      "kozi": 6436,
      "ograf": 6437,
      ".ĠPrzyĠ": 6438,
      "sznur": 6439,
      "lonejĠ": 6440,
      "doĠz": 6441,
      "ujÄħcymĠ": 6442,
      "sar": 6443,
      "nÃ³Å¼": 6444,
      "MarcinowiĠ": 6445,
      "ĠtakimĠ": 6446,
      "ĠwÅĤos": 6447,
      "ĠzĠgÅĤÄĻbiĠ": 6448,
      "ĠtakiĠsposÃ³b": 6449,
      "iĠpod": 6450,
      "ÅĽwieÅ¼oĠ": 6451,
      "niesieniaĠ": 6452,
      "cierpie": 6453,
      "kĠnaĠ": 6454,
      "ĠdosyÄĩĠ": 6455,
      "ÄĻĠâĢŀ": 6456,
      "âĢ¦ĠâĢĶĠmru": 6457,
      "cieĠsiÄĻ": 6458,
      "temu": 6459,
      "raptow": 6460,
      "stawiÅĤĠ": 6461,
      "leÅ¼an": 6462,
      "korpu": 6463,
      "ÄĻ,Ġpo": 6464,
      "Ġzapa": 6465,
      "cere": 6466,
      "ĠzĠwolnaĠ": 6467,
      "krzes": 6468,
      "Ġdostar": 6469,
      "jciec": 6470,
      "resztÄħ,Ġ": 6471,
      "naĠklu": 6472,
      "ciast": 6473,
      "ĠwĠszkoleĠ": 6474,
      "zosta": 6475,
      "ĠmowyĠ": 6476,
      "ojca,Ġ": 6477,
      "nieodwoÅĤ": 6478,
      "nieodwoÅĤal": 6479,
      "rzeszcze": 6480,
      "Ġmatki,Ġ": 6481,
      "osÅĤa": 6482,
      "ĠksiÄħ": 6483,
      "mimoĠÅ¼eĠ": 6484,
      "spuszcz": 6485,
      ".ĠPrzez": 6486,
      "aĠsamaĠ": 6487,
      "KtoĠ": 6488,
      "Ġsamej": 6489,
      "szczyznÄĻ": 6490,
      ".ĠâĢĶĠNie": 6491,
      "wsi": 6492,
      "rzydzieÅĽciĠ": 6493,
      "chceĠ": 6494,
      "sÅĤugÄĻ": 6495,
      "odrzekÅĤĠ": 6496,
      "dlategoĠ": 6497,
      "asĠ": 6498,
      "zeczy": 6499,
      "oÄĩ": 6500,
      "stawiaÄĩ": 6501,
      "âĢ¦ĊĊâĢĶĠCoĠ": 6502,
      "najlep": 6503,
      "sÅĤusz": 6504,
      "stot": 6505,
      "niespokoj": 6506,
      "Ġzawi": 6507,
      "widziĠ": 6508,
      "siebieĠiĠ": 6509,
      "ĠsÅĤowaĠ": 6510,
      ".ĠOkoÅĤoĠgodzinyĠ": 6511,
      "BorowiczĠw": 6512,
      "na,Ġz": 6513,
      "malec": 6514,
      "postrze": 6515,
      "ano,Ġ": 6516,
      "gn": 6517,
      "jeszczeĠwĠ": 6518,
      "dwÃ³r": 6519,
      "konieĠ": 6520,
      "Ġkuchen": 6521,
      "waÅĤyĠsiÄĻĠ": 6522,
      "y,Ġpod": 6523,
      "MarcinekĠspo": 6524,
      "ÅĽwiatÅĤaĠ": 6525,
      ".ĠChÅĤopak": 6526,
      "rzasnÄħÅĤ": 6527,
      "nÄħÅĤĠsiÄĻ": 6528,
      "pÄĻd": 6529,
      "emĠp": 6530,
      "ziemiÄĻ": 6531,
      "dzwoni": 6532,
      "gdzieÅĽ": 6533,
      "nieĠspo": 6534,
      "amĠsiÄĻĠ": 6535,
      "rzyd": 6536,
      ".ĊĊMarcinekĠu": 6537,
      "Ġboles": 6538,
      "nie:Ġ": 6539,
      "rzuciÅĤĠ": 6540,
      "Ġtwarzy": 6541,
      "zostaÅĤyĠ": 6542,
      "aneĠiĠ": 6543,
      "ÄĩĠp": 6544,
      "moment": 6545,
      "widziaÅĤ": 6546,
      "plamiĠ": 6547,
      "szerokie": 6548,
      "oc": 6549,
      "ÅĤÃ³Å¼kuĠ": 6550,
      "gniat": 6551,
      "czÄĻÅĽÄĩ": 6552,
      "jrzaÅĤĠ": 6553,
      "anoĠwy": 6554,
      "Ġmiar": 6555,
      "chra": 6556,
      "miotu": 6557,
      "widokĠ": 6558,
      "swoimĠ": 6559,
      "racjiĠ": 6560,
      ".ĊĊNazajutrz": 6561,
      "ane,Ġ": 6562,
      "kasz": 6563,
      "pÅĤacz": 6564,
      "egoĠstop": 6565,
      "Ġtajemni": 6566,
      "jakiegoÅĽĠ": 6567,
      "intere": 6568,
      "widowi": 6569,
      "kawalerĠ": 6570,
      "Ġmoz": 6571,
      "Ġdot": 6572,
      "biera": 6573,
      "gorÄħc": 6574,
      "ÅĽniad": 6575,
      "nÄĻÅĤaĠsiÄĻ": 6576,
      ".ĠChÅĤop": 6577,
      "coneĠ": 6578,
      ",Ġlecz": 6579,
      "ĠwÅĽrÃ³d": 6580,
      "wiÄĻkszoÅĽÄĩ": 6581,
      ",ĠktÃ³rej": 6582,
      "ĠmoÅ¼noÅĽciĠ": 6583,
      "ka,Ġz": 6584,
      "Ġdrzw": 6585,
      "nÄħÅĤĠnaĠ": 6586,
      "brzeÅ¼": 6587,
      "lece": 6588,
      "MarcinĠBorowicz": 6589,
      ".ĊĊâĢĶĠAleĠ": 6590,
      "Ġtry": 6591,
      "umf": 6592,
      "opatrz": 6593,
      "ekĠdoĠ": 6594,
      "omat": 6595,
      "miejscuĠiĠ": 6596,
      "rozmowÄĻ": 6597,
      "zaĠrami": 6598,
      "warteĠ": 6599,
      "takĠnie": 6600,
      ",ĠjakbyĠw": 6601,
      ".ĠSkoÅĦ": 6602,
      ".ĊĊâĢĶĠE": 6603,
      "Ġtamten": 6604,
      "naĠpamiÄĻ": 6605,
      "ĠpoĠru": 6606,
      "iel": 6607,
      "NagleĠ": 6608,
      "kogo": 6609,
      "ĠksiÄħÅ¼kÄĻ": 6610,
      "kaÄĩĠ": 6611,
      "ĠpogrÄħ": 6612,
      "rzwiĠ": 6613,
      "Gospod": 6614,
      "szystkieĠ": 6615,
      ".ĊĊWiechowskiĠ": 6616,
      "ĠprzezĠchwilÄĻ": 6617,
      "ĠiĠzaczÄħÅĤĠ": 6618,
      "czytaÄĩĠ": 6619,
      "aÅĤyĠsiÄĻĠsÅĤysze": 6620,
      "koniecĠkoÅĦcÃ³w": 6621,
      "jakiegoÅĽ": 6622,
      "ukazyw": 6623,
      "rÄĻkaĠ": 6624,
      "miÄĻk": 6625,
      "aÅĤoĠtoĠ": 6626,
      "Ġsatysfak": 6627,
      "ĠzupeÅĤnie": 6628,
      "maga": 6629,
      "moni": 6630,
      "ĠtakÄħ": 6631,
      "stanowiÅĤoĠ": 6632,
      "Ġpunkt": 6633,
      "MichcikĠ": 6634,
      ",ĠaĠwÅĤaÅĽciwie": 6635,
      "Ġbaj": 6636,
      "âĢ¦ĊĊD": 6637,
      "kazywaÅĤ": 6638,
      "mruczÄħc": 6639,
      ",ĠaĠsam": 6640,
      "Ġmno": 6641,
      "waÅĤĠz": 6642,
      "ĠwielkimĠ": 6643,
      "oblicz": 6644,
      "ĠdÅºwig": 6645,
      ",ĠtÅĤuma": 6646,
      "juĠ": 6647,
      "st'": 6648,
      "ka,ĠktÃ³ryĠ": 6649,
      "Ġmart": 6650,
      "aÅĤĠsobieĠ": 6651,
      "ĠbrodÄħ": 6652,
      "siedziĠ": 6653,
      "zĠjegoĠ": 6654,
      "ĠmiÅĤoÅĽciĠ": 6655,
      ",ĠnieĠwie": 6656,
      "mu,Ġ": 6657,
      "ĠjeĠ": 6658,
      "ĠpoÅĽpiech": 6659,
      "stÄĻka": 6660,
      "ciÄĻÅ¼koĠ": 6661,
      "iĠzaczÄħÅĤ": 6662,
      "nazwisko": 6663,
      "ĠdwieĠ": 6664,
      ".ĠMaÅĤyĠ": 6665,
      "wĠszkoleĠ": 6666,
      ",ĠwziÄħ": 6667,
      "yÅĤo": 6668,
      "naukaĠ": 6669,
      "ĠdÅĤugo": 6670,
      "ĠtuĠiĠÃ³wdzie": 6671,
      ",Ġwreszcie": 6672,
      "Ġpowietrz": 6673,
      ".ĠJednak": 6674,
      "targnie": 6675,
      ",Ġze": 6676,
      "ÅĽpiewaÄĩ": 6677,
      "ĠdrugimĠ": 6678,
      "KolĠsÅĤa": 6679,
      "KolĠsÅĤawien": 6680,
      "coÅĽĠ": 6681,
      "owaÅĤoĠ": 6682,
      ".ĠReszt": 6683,
      "owaÅ¼": 6684,
      "Å¼ywegoĠ": 6685,
      "jedynyĠ": 6686,
      "moty": 6687,
      "odĠpo": 6688,
      "gÃ³rÄĻĠ": 6689,
      ".ĠChodzi": 6690,
      "ĠzapewneĠ": 6691,
      "corazĠgÅĤoÅĽniej": 6692,
      "staÅĤaĠsiÄĻĠ": 6693,
      "rÃ³z": 6694,
      "nika,Ġ": 6695,
      "niebog": 6696,
      "âĢ¦ĊĊĊĊ": 6697,
      "ĠbytnoÅĽciĠ": 6698,
      ".ĠCodzien": 6699,
      "lekcjÄĻ": 6700,
      "opowiadaÅĤ": 6701,
      "zarazĠ": 6702,
      "dobrze,Ġ": 6703,
      ",ĠwszystkoĠ": 6704,
      "ĠwĠtoĠ": 6705,
      "gen": 6706,
      "ka,ĠtoĠ": 6707,
      "eĠwz": 6708,
      "niosÅĤyĠ": 6709,
      ".ĊĊJeÅ¼eliĠ": 6710,
      "kowoĠ": 6711,
      "niami,Ġ": 6712,
      "âĢ¦ĠW": 6713,
      "ĠzimnyĠ": 6714,
      "pyty": 6715,
      "ÅĽcisk": 6716,
      ",ĠktÃ³raĠw": 6717,
      "Ġdwu": 6718,
      ",ĠtoteÅ¼": 6719,
      "bÅĤÄĻd": 6720,
      "yĠdoĠ": 6721,
      "ĠsobieĠw": 6722,
      "Ã³wĠnaĠ": 6723,
      ".ĠGÅĤowaĠ": 6724,
      "ĠmyÅĽleniaĠ": 6725,
      "nie,ĠaĠ": 6726,
      "niewaÅ¼": 6727,
      "ĠnieĠmÃ³gÅĤ": 6728,
      "ĠpoÅĤud": 6729,
      "Ġkaligrafi": 6730,
      "budzi": 6731,
      "nuĠ": 6732,
      "ymĠiĠ": 6733,
      "liwymĠ": 6734,
      "jednymĠtch": 6735,
      "naukÄĻ": 6736,
      "ĠpiÃ³r": 6737,
      "umiejÄĻtnoÅĽciĠ": 6738,
      "czynnoÅĽciĠ": 6739,
      "obyd": 6740,
      "Ġbawi": 6741,
      "naucz": 6742,
      "nÄħĠw": 6743,
      "sek": 6744,
      ",Ġzw": 6745,
      "nie,Ġg": 6746,
      "nokrÄĻ": 6747,
      "nokrÄĻgu": 6748,
      "Ġmonoton": 6749,
      "u,ĠaniĠ": 6750,
      "swoi": 6751,
      "ĠsiÄĻĠnazy": 6752,
      "wiedz": 6753,
      ".ĠPost": 6754,
      "nieĠ*": 6755,
      "starymĠ": 6756,
      "Ġpowietrzu": 6757,
      ".ĠStanÄħwszyĠ": 6758,
      "nob": 6759,
      "siÄĻĠpoĠ": 6760,
      ".ĠNagleĠ": 6761,
      "ĠzapÅĤak": 6762,
      "ĠsÄħsiedniegoĠ": 6763,
      "miastecz": 6764,
      "nieĠstrze": 6765,
      "Ġton": 6766,
      "wszyscyĠ": 6767,
      "?ĠâĢĶĠzapytaÅĤaĠ": 6768,
      "ÅĤawi": 6769,
      "ĠwielkaĠ": 6770,
      "nieĠwiedzieÄĩ": 6771,
      "nieĠbez": 6772,
      "jakichÅĽ": 6773,
      "rodzinyĠ": 6774,
      "lonyĠ": 6775,
      "aÅĤĠcoĠ": 6776,
      ",ĠnieĠbÄĻdÄĻ": 6777,
      "Ã³kiĠ": 6778,
      "pÃ³Åº": 6779,
      "uczniomĠ": 6780,
      "obwi": 6781,
      "nosiÅĤaĠ": 6782,
      "owiĠiĠ": 6783,
      "ĠpodÅĤo": 6784,
      "szczoneĠ": 6785,
      "dziesiÄĻÄĩ": 6786,
      "waĠiĠ": 6787,
      "Ġkraj": 6788,
      "ĠbuÅĤ": 6789,
      "rozumieĠsiÄĻ": 6790,
      "aĠpoĠ": 6791,
      "nerw": 6792,
      "aÅĤ,ĠaĠ": 6793,
      "ejÅĽÄĩ": 6794,
      "mileĠ": 6795,
      "Ġwprost": 6796,
      "godzinÄĻĠ": 6797,
      "ieĠ": 6798,
      "ÅĽciÄħga": 6799,
      "szkoÅĤyĠiĠ": 6800,
      "nieĠspuszcz": 6801,
      "Ġsumie": 6802,
      "chodziÅĤoĠ": 6803,
      "aÅĤĠtak": 6804,
      "muĠsiÄĻĠ": 6805,
      "Ġdojrze": 6806,
      ".ĠCzu": 6807,
      "nymĠkro": 6808,
      "ĠwiedziaÅĤ": 6809,
      "drzwiĠdoĠ": 6810,
      "anie,Ġ": 6811,
      "dziewa": 6812,
      "Ġspod": 6813,
      "gum": 6814,
      "gÅĤÄĻbokoĠ": 6815,
      "Å¼ak": 6816,
      "gubernial": 6817,
      "nauczyciela": 6818,
      "BardzoĠ": 6819,
      "ĠkuchniĠ": 6820,
      "!ĊĊW": 6821,
      "religij": 6822,
      "ÅĤowÄĻ": 6823,
      "szeptaÅĤ": 6824,
      "pom": 6825,
      "paniĠMarcjan": 6826,
      "ranoĠ": 6827,
      "serc": 6828,
      "liĠsiÄĻ": 6829,
      "szeptem": 6830,
      "wyraÅº": 6831,
      "syla": 6832,
      ".ĊĊDopieroĠ": 6833,
      "razĠzaĠ": 6834,
      "MarcinĠwy": 6835,
      "glÄħ": 6836,
      "szczeli": 6837,
      "tyÅĤ": 6838,
      "Ġkierow": 6839,
      "mĠz": 6840,
      "ĠtakÅ¼eĠ": 6841,
      "iĠzost": 6842,
      "Ġmundu": 6843,
      "duÅ¼ej": 6844,
      "najlepiej,Ġ": 6845,
      "jaÅĽnieĠwielmoÅ¼nyĠ": 6846,
      "dyrektora": 6847,
      "rzadkoĠ": 6848,
      ".ĊĊDyrektor": 6849,
      "?ĠâĢĶĠrzekÅĤĠ": 6850,
      "mistrz": 6851,
      "dra": 6852,
      "szemuĠ": 6853,
      "defil": 6854,
      "anieĠnauczycielu": 6855,
      "egoÅĽ": 6856,
      "kogoĠ": 6857,
      ".ĠDyrektor": 6858,
      "gÅĤowÄħ": 6859,
      "moÅ¼e": 6860,
      "powiedzieÄĩĠ": 6861,
      "sÅĤow": 6862,
      "ĠzÅĤoÅ¼yÅĤ": 6863,
      ",Ġpewny,ĠÅ¼eĠ": 6864,
      "anow": 6865,
      "dÄħ": 6866,
      "przypomin": 6867,
      "staura": 6868,
      "siÄĩĠ": 6869,
      "ĠzĠarytmety": 6870,
      "zbi": 6871,
      "rzasnÄħÅĤĠ": 6872,
      "iro": 6873,
      "parÄĻĠ": 6874,
      "Ġzaledwie": 6875,
      "biÅĤ": 6876,
      "kÅĤĠsiÄĻ": 6877,
      "lazÅĤ": 6878,
      "dÅĤugo": 6879,
      "dzieci,Ġ": 6880,
      "osobie": 6881,
      "ryj": 6882,
      "na*": 6883,
      "jestĠ*": 6884,
      "ĠmaÅĤegoĠ": 6885,
      "odpowiedÅº": 6886,
      ".ĠÅ¹leĠ": 6887,
      "iloÅĽÄĩĠ": 6888,
      ",ĠwcaleĠ": 6889,
      "lekroÄĩ": 6890,
      "peÅĤnia": 6891,
      "szkoÅĤaĠ": 6892,
      "dwajĠ": 6893,
      "ÅĽpiewa": 6894,
      "na.ĠW": 6895,
      "uĠjegoĠ": 6896,
      "niektÃ³reĠ": 6897,
      "ĠzĠnich": 6898,
      "ostatniĠ": 6899,
      "ratunku": 6900,
      "dziÄĩ": 6901,
      "ĠzresztÄħ": 6902,
      "nam": 6903,
      "iĠwchod": 6904,
      "?ĠPrze": 6905,
      "chwyciÅĤ": 6906,
      "Ġbutel": 6907,
      "Ġprzest": 6908,
      ",ĠgdyĠw": 6909,
      "âĢĶĠmÃ³wiÅĤĠ": 6910,
      "!ĠJak": 6911,
      "!ĠJaĠ": 6912,
      "panu": 6913,
      "âĢ¦ĠU": 6914,
      "ĠzaĠnimĠ": 6915,
      ".ĠPrzed": 6916,
      "ĠwyszedÅĤĠz": 6917,
      "ÅĤoni": 6918,
      "gÄĻb": 6919,
      "Å¼emĠ": 6920,
      "prasz": 6921,
      "wielmoÅ¼": 6922,
      "niku,Ġ": 6923,
      "yĠtegoĠ": 6924,
      "nauczyciela,Ġ": 6925,
      "?ĠCoĠ": 6926,
      "trÄħci": 6927,
      "toĠsamoĠ": 6928,
      "cÃ³Å¼ĠtoĠ": 6929,
      "ÅĤoniĠ": 6930,
      "nie,ĠtoĠ": 6931,
      "siÄĻĠs": 6932,
      "przecieĠ": 6933,
      "!ĠNie": 6934,
      "spyt": 6935,
      "niepotrzeb": 6936,
      "lboĠ": 6937,
      ".ĊĊâĢĶĠCh": 6938,
      "ĠzaÅĽmi": 6939,
      "miÄĻĠ": 6940,
      "oĠtymĠ": 6941,
      "eczkoĠ": 6942,
      "piw": 6943,
      "krop": 6944,
      "skute": 6945,
      ",ĠsÅĤysz": 6946,
      ",Ġtrzym": 6947,
      "lasz": 6948,
      "nÃ³w": 6949,
      ",ĠjakĠw": 6950,
      "?ĠBun": 6951,
      "?ĠBunt": 6952,
      "ĠwĠnie": 6953,
      "stoÅĤ": 6954,
      "dawaÅĤĠsiÄĻĠ": 6955,
      "Å¼onegoĠ": 6956,
      "pagÃ³r": 6957,
      "tamtÄħd": 6958,
      "oÅĽwiat": 6959,
      "lecÄħc": 6960,
      "nieĠczu": 6961,
      "ywaÅĤyĠ": 6962,
      "otacz": 6963,
      ".ĠPragnÄħc": 6964,
      "odÄĻ": 6965,
      "ktÃ³raĠ": 6966,
      ".ĠNaj": 6967,
      "lepiej": 6968,
      "naĠplec": 6969,
      "zior": 6970,
      "gawÄĻd": 6971,
      ".ĊĊTeraz": 6972,
      "ogromnych": 6973,
      "naleÅº": 6974,
      "brod": 6975,
      "wiet": 6976,
      "etaĠ": 6977,
      "hu": 6978,
      "czeniu": 6979,
      "cywi": 6980,
      "Ġprawo": 6981,
      "sÅĤaw": 6982,
      "Ġzwierz": 6983,
      "Ġkul": 6984,
      "Ġwierze": 6985,
      "czÄħÄĩ": 6986,
      "bierze": 6987,
      "Ġpoli": 6988,
      "aÅĤaĠsiÄĻĠnaĠ": 6989,
      "ramiĠ": 6990,
      "nok": 6991,
      "Ġdym": 6992,
      "leÅ¼aÅĤaĠ": 6993,
      "Ġpisa": 6994,
      "nikomuĠ": 6995,
      "tajemnicz": 6996,
      "ycznegoĠ": 6997,
      ".ĠByliĠ": 6998,
      "nicy,Ġ": 6999,
      "cy,ĠaĠ": 7000,
      "Ġpiaskow": 7001,
      "starz": 7002,
      "szybyĠ": 7003,
      "rÃ³wnieĠ": 7004,
      "roztwie": 7005,
      "ier": 7006,
      "oszk": 7007,
      "juÅ¼ĠoĠ": 7008,
      "panaĠPazura": 7009,
      "siedziaÅĤ": 7010,
      "jÄĻzyka": 7011,
      "amieni": 7012,
      "ĠzupeÅĤnieĠ": 7013,
      "ĠwyjÄħt": 7014,
      "Ã³wek": 7015,
      "fanta": 7016,
      "doĠktÃ³rejĠ": 7017,
      "rozmowy,Ġ": 7018,
      "ÅĤĠsiÄĻĠiĠ": 7019,
      "zdÅĤuÅ¼Ġ": 7020,
      "niemĠdoĠ": 7021,
      "stanowiÅĤyĠ": 7022,
      "dzieÅĤa": 7023,
      "ÅĽwiadec": 7024,
      "Ġmaj": 7025,
      "osp": 7026,
      "etc": 7027,
      "egzaminÃ³w": 7028,
      "oÅ¼ywi": 7029,
      "uwagi": 7030,
      "Å¼aden": 7031,
      "scyĠ": 7032,
      "ogÅĤo": 7033,
      ",ĠbezĠ": 7034,
      "bliÅ¼ej": 7035,
      "indziej": 7036,
      "Ġprzyby": 7037,
      "domĠ": 7038,
      "matkaĠMarcinkaĠ": 7039,
      "oÅĽÄĩĠ": 7040,
      "racaÅĤyĠ": 7041,
      "chole": 7042,
      "pierwszaĠ": 7043,
      "nator": 7044,
      "Å¼onÄħ": 7045,
      "Ġspojrze": 7046,
      "niaĠnaĠ": 7047,
      "prawoĠiĠ": 7048,
      "aÅĤĠsiÄĻĠprzedĠ": 7049,
      "jegomoÅĽÄĩ": 7050,
      "dut": 7051,
      "âĢ¦ĠâĢĶĠwy": 7052,
      "?ĊĊâĢĶĠDoĠ": 7053,
      "stÃ³p": 7054,
      "ejĠz": 7055,
      "Ã³w,ĠaĠ": 7056,
      "gramatyk": 7057,
      "gimnazi": 7058,
      "asy": 7059,
      "âĢ¦ĠjaĠ": 7060,
      ".ĊĊJ": 7061,
      "sÅĤyszawszyĠ": 7062,
      "rÄĻkÄħĠ": 7063,
      "deli": 7064,
      "Ġsrebr": 7065,
      "powtÃ³": 7066,
      "ĠbÅĤyszczÄħc": 7067,
      "nauczycieleĠ": 7068,
      "ĠkancelariiĠ": 7069,
      "dokÄħd": 7070,
      "prowadziÅĤ": 7071,
      "owania": 7072,
      "tablicyĠ": 7073,
      "nieĠrozumi": 7074,
      ",ĠÅ¼eĠjaĠ": 7075,
      "leÅ¼Ġ": 7076,
      "drzwiĠz": 7077,
      "wrÃ³conyĠ": 7078,
      "ĠdrugiegoĠ": 7079,
      "ĠpowiedzieÄĩĠ": 7080,
      "iÅĽ": 7081,
      "oczekiwa": 7082,
      "ĠpowiedziaÅĤ": 7083,
      "ĠmogÅĤaĠ": 7084,
      "Å¼elazneĠ": 7085,
      "ÅĤzamiĠ": 7086,
      "glÄħdaÅĤĠnaĠ": 7087,
      "tujÄħc": 7088,
      "kamieniamiĠ": 7089,
      "jakĠwĠ": 7090,
      "szÄĻdzie": 7091,
      "hotel": 7092,
      "myĠw": 7093,
      "maÅĤoĠ": 7094,
      "kl": 7095,
      "Å¼eniemĠ": 7096,
      "ĠbyÅĤo": 7097,
      "ĠmurachĠ": 7098,
      "rodzeniaĠ": 7099,
      "uszkaĠ": 7100,
      "rozlegaÅĤĠsiÄĻĠ": 7101,
      "furman": 7102,
      "yĠiĠw": 7103,
      "are": 7104,
      ",Ġ*": 7105,
      "ojcu": 7106,
      "ÄĻ,ĠÅ¼eĠ": 7107,
      "ojcie": 7108,
      "moiĠ": 7109,
      "cemĠ": 7110,
      ".ĊĊSt": 7111,
      "ustach": 7112,
      "ktÃ³rychĠ": 7113,
      ".ĊĊâĢĶĠKtÃ³Å¼": 7114,
      "prawa": 7115,
      "mÄĻÅ¼a,Ġ": 7116,
      "tutaj": 7117,
      "wiem": 7118,
      "On": 7119,
      "czerp": 7120,
      "dawaÅĤĠ": 7121,
      "urzÄħ": 7122,
      "myÅĽlaÅĤ": 7123,
      "yĠm": 7124,
      "ade": 7125,
      "Ġmiesz": 7126,
      "rozakon": 7127,
      "mon": 7128,
      "ogni": 7129,
      "orun": 7130,
      "godzinÄĻ": 7131,
      "panĠMajew": 7132,
      "lewejĠrÄĻ": 7133,
      "paÅĦ": 7134,
      "nieĠchci": 7135,
      "juÅ¼ĠzĠ": 7136,
      "konwer": 7137,
      "towaÅĤĠ": 7138,
      "ĠsynemĠ": 7139,
      "nÄĻli": 7140,
      "eleg": 7141,
      "elegan": 7142,
      "Å¼onymiĠ": 7143,
      "szystko,ĠcoĠ": 7144,
      "Ġwarun": 7145,
      "toĠjuÅ¼Ġ": 7146,
      "rozwaÅ¼": 7147,
      "szystko,Ġ": 7148,
      "rosiÄĻ": 7149,
      "aÅĤaĠsiÄĻĠw": 7150,
      "ĠsprawyĠ": 7151,
      ",Ġzak": 7152,
      "matki": 7153,
      "?ĠJak": 7154,
      "Ġprzerwy": 7155,
      "ostrzy": 7156,
      "ĠswÃ³j": 7157,
      "ĠwielkÄħ": 7158,
      "stanÄħÅĤĠ": 7159,
      "jejĠw": 7160,
      "inten": 7161,
      "szczÄĻÅĽliw": 7162,
      "siÄĻ,ĠÅ¼eĠ": 7163,
      "nastÄħpi": 7164,
      "fot": 7165,
      "ĠwyÅ¼": 7166,
      "niesÅĤychanie": 7167,
      "staÅĤoĠ": 7168,
      "ĠzaczÄĻ": 7169,
      "nicĠz": 7170,
      "Ġpokoj": 7171,
      "ĠsÅĤychaÄĩĠbyÅĤoĠ": 7172,
      ",ĠczyĠtoĠ": 7173,
      "ĠpanĠprofesor": 7174,
      "oczyĠw": 7175,
      "obchodzi": 7176,
      "ÅĦĠw": 7177,
      "taĠbyÅĤaĠ": 7178,
      "nieznacz": 7179,
      "Ġidzie": 7180,
      "owaniem": 7181,
      ")Ġ": 7182,
      "mÅĤodzieÅĦ": 7183,
      "?âĢ¦ĊĊâĢĶĠ": 7184,
      "elementar": 7185,
      "udziel": 7186,
      "wĠgimnazjum": 7187,
      "zji": 7188,
      "ĠpanĠMajewskiĠ": 7189,
      "pliwie": 7190,
      "sprawaĠ": 7191,
      "ĠtychĠd": 7192,
      "niachĠ": 7193,
      "ujÄĻ": 7194,
      "âĢ¦ĊĊâĢĶĠM": 7195,
      "nadziejÄĻ": 7196,
      ".ĠWÅĤadzaĠ": 7197,
      "leka": 7198,
      "!ĠâĢĶĠwoÅĤaÅĤĠ": 7199,
      "ĠwziÄĻ": 7200,
      "ÅĽrodku": 7201,
      "odÅº": 7202,
      "chÅĤopcuĠ": 7203,
      "VĊĊ": 7204,
      "patrywa": 7205,
      "forsownegoĠ": 7206,
      "stu,Ġ": 7207,
      "nieĠiĠz": 7208,
      "dreszcz": 7209,
      "gÅĤasz": 7210,
      "ando": 7211,
      "âĢĿĠnaĠ": 7212,
      "rÄĻkamiĠ": 7213,
      "matycz": 7214,
      ".ĠMajew": 7215,
      ".ĠMajewskiĠ": 7216,
      "sprÃ³": 7217,
      "sprÃ³chni": 7218,
      "onĠSt": 7219,
      "onĠStie": 7220,
      "onĠStiepan": 7221,
      "onĠStiepanycz": 7222,
      "mruknÄħÅĤ": 7223,
      "jegoĠz": 7224,
      "radoÅĽciĠ": 7225,
      "Ġwszel": 7226,
      "zywaÅĤ": 7227,
      "niczym": 7228,
      "iĠzeĠ": 7229,
      "nienawi": 7230,
      ".ĠPanĠMajewskiĠ": 7231,
      ",ĠpÅĤa": 7232,
      "aÅĤĠjegoĠ": 7233,
      "naukĠ": 7234,
      "Ġprzynajmniej": 7235,
      "przyj": 7236,
      "tu,Ġw": 7237,
      "zĠtegoĠ": 7238,
      "ÅĦcÃ³wĠ": 7239,
      "WargulskiĠ": 7240,
      ".ĊĊKsiÄħdz": 7241,
      "garbiony,Ġ": 7242,
      "aĠjegoĠ": 7243,
      "krÃ³tkie": 7244,
      "szczot": 7245,
      ".ĠMÃ³wi": 7246,
      "wasz": 7247,
      ",Ġzm": 7248,
      "Ġkwadran": 7249,
      ".ĠUczniowie": 7250,
      "Ġweso": 7251,
      "onoĠdoĠ": 7252,
      "przedmieÅĽci": 7253,
      "raczejĠ": 7254,
      "adomoĠ": 7255,
      ",ĠjakimĠ": 7256,
      "uka": 7257,
      "a,Ġpo": 7258,
      "sposobie": 7259,
      "Ġprawdzi": 7260,
      "ĠpÃ³Åº": 7261,
      "Ã³sm": 7262,
      "ajad": 7263,
      "KarolĠ": 7264,
      "sreb": 7265,
      "ĠmiastoĠ": 7266,
      "ĠktÃ³rejĠ": 7267,
      "jÄħcĠ": 7268,
      "ĠdÅĤug": 7269,
      "kÃ³r": 7270,
      "juÅ¼ĠzupeÅĤ": 7271,
      "!ĠN": 7272,
      "KlerykowaĠ": 7273,
      "ĠotoĠ": 7274,
      "erazĠ": 7275,
      "amiĠz": 7276,
      "ÄħcejĠ": 7277,
      "czÄĻÅĽciĠ": 7278,
      "umil": 7279,
      "Ġdwie": 7280,
      "nice": 7281,
      "tent": 7282,
      "poĠz": 7283,
      ".ĠÅ»ad": 7284,
      "inicj": 7285,
      ".ĊĊStar": 7286,
      "rzuciÅĤaĠ": 7287,
      "temat": 7288,
      "ĠbyÄĩ": 7289,
      "ĠzÄĻbyĠ": 7290,
      "grunt": 7291,
      "ostaw": 7292,
      "ĠpatrzeÄĩ": 7293,
      "ciÄĻĠ": 7294,
      "ĠwĠjesie": 7295,
      "kiĠpo": 7296,
      "syÅĤ": 7297,
      "ĠpannaĠKonstancj": 7298,
      "Daleszowskich": 7299,
      "roztwar": 7300,
      "prawoĠ": 7301,
      "spor": 7302,
      "ÅĤawyĠ": 7303,
      "ĠwszedÅĤ": 7304,
      ".ĠâĢĶĠT": 7305,
      "roczy": 7306,
      "roztrzÄħs": 7307,
      "paniĠPrzepiÃ³rkow": 7308,
      "eme": 7309,
      "kiw": 7310,
      "swojÄħ": 7311,
      "Grzebicki,Ġ": 7312,
      "ki,ĠaleĠ": 7313,
      "chust": 7314,
      "Ġspostrze": 7315,
      "lask": 7316,
      "ĠmaĠ": 7317,
      "liwieĠ": 7318,
      "ÄĩĠzaĠ": 7319,
      "ÅĤowoĠ": 7320,
      "radc": 7321,
      "nicĠ": 7322,
      "ĠpÄĻd": 7323,
      "cÃ³w,Ġ": 7324,
      "ajÃ³w": 7325,
      "odyĠ": 7326,
      "ĠtakĠzwanyĠ": 7327,
      ".ĠâĢĶĠGdzie": 7328,
      "tury": 7329,
      "âĢĶĠmÃ³wiÅĤ": 7330,
      "*!Ġ": 7331,
      "narod": 7332,
      "jÄĻzykaĠpolskiegoĠ": 7333,
      "ĠmieÅĽcieĠ": 7334,
      ",ĠÅ¼eĠâĢŀ": 7335,
      "nieĠsiÄĻ": 7336,
      "nosemĠiĠ": 7337,
      "chwyt": 7338,
      "âĢŀstaraĠPrzepiÃ³rzycaâĢĿ": 7339,
      "Ġtkwi": 7340,
      "stoleĠ": 7341,
      "lujÄħc": 7342,
      ",ĠaĠraczej": 7343,
      "strzela": 7344,
      "chwilÄħ": 7345,
      "rogowie": 7346,
      "pannaĠ": 7347,
      "ĠwziÄħ": 7348,
      "win": 7349,
      "krzyw": 7350,
      "nieĠdlaĠ": 7351,
      "dzeÅĦ": 7352,
      "worzÄħc": 7353,
      "ÄħĠprze": 7354,
      "biÅĤoĠ": 7355,
      "czyj": 7356,
      "niedb": 7357,
      ",ĠktÃ³rejĠ": 7358,
      "lekko": 7359,
      "lekkomyÅĽl": 7360,
      "ĠswojeĠ": 7361,
      "byĠoĠ": 7362,
      "noÅĽciÄħ,Ġ": 7363,
      "goâĢĿ": 7364,
      "âĢĶĠpo": 7365,
      "*ĠâĢĶĠ": 7366,
      "aÅĤoĠwĠ": 7367,
      "nauk": 7368,
      "niejĠiĠ": 7369,
      "wielkimiĠ": 7370,
      "sji": 7371,
      "zarazemĠ": 7372,
      "usiÅĤujÄħc": 7373,
      "skutekĠtegoĠ": 7374,
      "dlaczegoĠ": 7375,
      "âĢĿĠu": 7376,
      "moÅ¼naĠbyÅĤoĠ": 7377,
      "zyj": 7378,
      ".ĠNic": 7379,
      "kajet": 7380,
      "smak": 7381,
      "pracowa": 7382,
      "zaĠpomoc": 7383,
      ".ĠNieĠ": 7384,
      "ÅĽmierci": 7385,
      "ĠmiÅĤoÅĽci": 7386,
      "ÄĻĠwĠ": 7387,
      ".ĠRaz": 7388,
      "pragnie": 7389,
      "kiej,Ġ": 7390,
      "najbardziejĠ": 7391,
      "ater": 7392,
      "noÅĽciÄħĠ": 7393,
      "nacz": 7394,
      "samymĠ": 7395,
      "amiĠwĠ": 7396,
      "piÃ³r": 7397,
      "miany": 7398,
      "ĠwyraÅº": 7399,
      "Ġpozor": 7400,
      ",ĠÅ¼eĠjest": 7401,
      "tenĠnie": 7402,
      "ĠpamiÄĻciĠ": 7403,
      "Ġnatural": 7404,
      "piÅĽmie": 7405,
      "podobneĠ": 7406,
      "nocy,Ġ": 7407,
      "krewĠ": 7408,
      "Ġsekret": 7409,
      ",Ġgar": 7410,
      "onychĠ": 7411,
      "fest": 7412,
      "odwiedz": 7413,
      "doleĠ": 7414,
      "zbyt": 7415,
      "rÃ³j": 7416,
      "staleĠ": 7417,
      "krzykĠ": 7418,
      "chÃ³ru": 7419,
      "rzem": 7420,
      "amiĠâĢĶĠ": 7421,
      "zwrÃ³c": 7422,
      "aÅĤyĠsiÄĻ,Ġ": 7423,
      "znik": 7424,
      "rozciÄħg": 7425,
      "wis": 7426,
      "drzewaĠ": 7427,
      "liĠsiÄĻĠw": 7428,
      "*G": 7429,
      "cylinder": 7430,
      "anowie": 7431,
      "bit": 7432,
      "krzyk": 7433,
      "rozmawi": 7434,
      "Rom": 7435,
      "a,ĠktÃ³ryĠ": 7436,
      "wĠklasie": 7437,
      "Ġparad": 7438,
      ".ĊĊTegoĠ": 7439,
      "Ġkred": 7440,
      "widocznie": 7441,
      ".ĊĊâĢĶĠT": 7442,
      "kobyÅĤa": 7443,
      "swoje": 7444,
      "neĠpo": 7445,
      "bezĠruch": 7446,
      "kazywaÅĤĠ": 7447,
      ".ĠPie": 7448,
      "wĠjegoĠ": 7449,
      "zek": 7450,
      "niw": 7451,
      "wio": 7452,
      "ÅĽwiÄħ": 7453,
      "oczach": 7454,
      "wiosnÄĻ": 7455,
      "rzekÄĻ": 7456,
      ".ĠToteÅ¼": 7457,
      "naturyĠ": 7458,
      "bryÅĤ": 7459,
      "Ġpiast": 7460,
      "ntow": 7461,
      "waÅĤĠw": 7462,
      "Ġprzod": 7463,
      "wĠcaÅĤejĠ": 7464,
      "wĠcaÅĤejĠokolicyĠ": 7465,
      "sposobu": 7466,
      "niezmiernie": 7467,
      "gniad": 7468,
      "niad": 7469,
      ".ĊĊG": 7470,
      "lacz": 7471,
      "ulubie": 7472,
      "takĠdaleceĠ": 7473,
      "zimow": 7474,
      "JÄĻdrkaĠ": 7475,
      "kÅĤopo": 7476,
      "*ÅĽ": 7477,
      "nadzwyczaj": 7478,
      "patrze": 7479,
      "Dol": 7480,
      "chot": 7481,
      "rota": 7482,
      "ÅĽciek": 7483,
      "aĠjakĠ": 7484,
      "dawaÅĤoĠsiÄĻ,ĠÅ¼eĠ": 7485,
      "nie,Ġw": 7486,
      ".ĠDaw": 7487,
      "mÅĤodeĠ": 7488,
      "przeczu": 7489,
      "Ġsekrecie": 7490,
      "duÅ¼eĠ": 7491,
      "rosÅĤyĠ": 7492,
      "Ġkwiat": 7493,
      "pierwszejĠ": 7494,
      "jakoĠtak": 7495,
      "ĠmniejĠ": 7496,
      "nieboszcz": 7497,
      "nieprzy": 7498,
      "caÅĤkowicieĠ": 7499,
      "siÄĻĠwĠnimĠ": 7500,
      "aÅĤĠmuĠwĠ": 7501,
      "wÃ³j": 7502,
      "stancjÄĻĠiĠ": 7503,
      "nadĠnimĠ": 7504,
      "ÅĽcisÅĤ": 7505,
      "ps": 7506,
      "rabiaÅĤĠ": 7507,
      "ichĠpo": 7508,
      "rÃ³Å¼nychĠ": 7509,
      "owego,Ġ": 7510,
      "Ġpad": 7511,
      "ĠwÄħ": 7512,
      "rator": 7513,
      "sunÄħÅĤĠsiÄĻĠ": 7514,
      "kÄĻĠdoĠ": 7515,
      "jezu": 7516,
      "ĠmiĠw": 7517,
      "anu": 7518,
      "inspektoraĠiĠ": 7519,
      "kiĠiĠz": 7520,
      "caĠdoĠ": 7521,
      ".ĊĊBorowicz": 7522,
      "nieĠwiedziaÅĤ": 7523,
      "niÅ¼szych": 7524,
      "Li": 7525,
      "niejakoĠ": 7526,
      ",ĠwykÅĤad": 7527,
      "powszech": 7528,
      "ÅĽciwieĠ": 7529,
      "gospodarstwoĠ": 7530,
      "chudyĠiĠ": 7531,
      "szale": 7532,
      "ranaĠ": 7533,
      "prowadzeniaĠ": 7534,
      "inow": 7535,
      "inowaj": 7536,
      "nionyĠ": 7537,
      "ki,ĠktÃ³reĠ": 7538,
      "rio": 7539,
      "groma": 7540,
      "bliot": 7541,
      "bliotek": 7542,
      "ĠâĢŀ": 7543,
      "ren": 7544,
      "skaw": 7545,
      "byÅĤĠz": 7546,
      "ĠtyÅĤu": 7547,
      ".ĠNawet": 7548,
      "ĠwspÃ³ÅĤ": 7549,
      "Å¼ur": 7550,
      "ichĠdoĠ": 7551,
      "nastÄĻpnieĠz": 7552,
      "?ĊĊâĢĶĠJaĠ": 7553,
      "zĠnimĠ": 7554,
      "surowoĠ": 7555,
      "lepiÅĤĠoczyĠ": 7556,
      "takaĠ": 7557,
      "odde": 7558,
      ".ĠKaÅ¼dyĠ": 7559,
      "podniÃ³s": 7560,
      "ĠtÅĤuma": 7561,
      "tuÅ¼": 7562,
      "gromadz": 7563,
      "rozprawi": 7564,
      "Äħ,ĠaĠ": 7565,
      "wiedziaÅĤ": 7566,
      "oglÄħd": 7567,
      "podczasĠ": 7568,
      "spe": 7569,
      "specj": 7570,
      "ĠksiÄĻÅ¼": 7571,
      "ĠtakĠdale": 7572,
      "mieszkania": 7573,
      "Ġich": 7574,
      "siedzieliĠ": 7575,
      "strÄĻt": 7576,
      "dzieÅĤaĠ": 7577,
      "ojÄĻt": 7578,
      ".ĠDzi": 7579,
      "rzychodzi": 7580,
      "klerykowskiegoĠ": 7581,
      "chodziÄĩ": 7582,
      "eĠwÅĤas": 7583,
      "rosyjsku": 7584,
      "iĠprze": 7585,
      "pÅĤynÄĻÅĤyĠ": 7586,
      "naĠtoĠ": 7587,
      "rozmaiteĠ": 7588,
      "luf": 7589,
      "oklasi": 7590,
      "ÅĽrut": 7591,
      "nieĠzd": 7592,
      "ĠmyÅĽliw": 7593,
      "osten": 7594,
      "ony,ĠaĠ": 7595,
      ".ĊĊZa": 7596,
      "prowadziÅĤĠ": 7597,
      "ziar": 7598,
      "dywa": 7599,
      "szukaÅĤĠ": 7600,
      "spÃ³l": 7601,
      "powiedzi": 7602,
      "zde": 7603,
      "rozpoczÄĻ": 7604,
      "lizm": 7605,
      "prowadzÄħceĠ": 7606,
      "prowadzÄħceĠdoĠ": 7607,
      "mroku": 7608,
      "Roz": 7609,
      ".ĠPewnegoĠ": 7610,
      "rzemie": 7611,
      ",ĠaĠwreszcie": 7612,
      "jedenĠtylkoĠ": 7613,
      "istotyĠ": 7614,
      "ÅĤonieĠ": 7615,
      "przychodzi": 7616,
      "cznych": 7617,
      "ginÄĻÅĤaĠ": 7618,
      "czesnegoĠ": 7619,
      "bÃ³st": 7620,
      "zresztÄħĠ": 7621,
      "kuchar": 7622,
      "ĠprowadziÅĤĠ": 7623,
      "starych": 7624,
      "tre": 7625,
      "krow": 7626,
      "okÃ³ÅĤ": 7627,
      "nieĠmat": 7628,
      "piln": 7629,
      "kosi": 7630,
      "cywil": 7631,
      "czasĠwol": 7632,
      "Ġkacz": 7633,
      "biÄĩ": 7634,
      "dozor": 7635,
      "Ġtraw": 7636,
      ".ĠSerceĠ": 7637,
      "ĠkrokÃ³w": 7638,
      "ĠzaroÅĽlach": 7639,
      "drzew": 7640,
      "instynkt": 7641,
      "-daĠ": 7642,
      "aloneĠ": 7643,
      ".ĠMÅĤod": 7644,
      "prawd": 7645,
      "chleba,Ġ": 7646,
      "gatun": 7647,
      "szta": 7648,
      "nieĠmiaÅĤĠprawaĠ": 7649,
      "geni": 7650,
      "geniusz": 7651,
      "Scu": 7652,
      "Scubi": 7653,
      "innychĠ": 7654,
      "oÅĤy": 7655,
      "naÅĽcie": 7656,
      "Koniec": 7657,
      "Koniecpol": 7658,
      "spoÅĤu": 7659,
      "amyk": 7660,
      ",ĠwszyscyĠ": 7661,
      "aÅĤup": 7662,
      "aneĠnaĠ": 7663,
      "znaw": 7664,
      "ÄĻdrow": 7665,
      "zgas": 7666,
      ".ĠNogaĠ": 7667,
      "Ġpowsta": 7668,
      "arÅĤ": 7669,
      "lich": 7670,
      "plu": 7671,
      "ĠwiÄĻzie": 7672,
      "historii": 7673,
      "ÄĩĠsiÄĻĠz": 7674,
      "jeÅºdzie": 7675,
      "ĠziemiĠ": 7676,
      "oprÃ³cz": 7677,
      "dor": 7678,
      "ami,ĠktÃ³reĠ": 7679,
      "ciÄĩĠ": 7680,
      "usÅĤyszaÅĤĠ": 7681,
      "staÅĤĠwĠ": 7682,
      "onyĠzost": 7683,
      ",Ġwz": 7684,
      ".ĊĊInspektor": 7685,
      "ucznia": 7686,
      "rzeczywiÅĽcie": 7687,
      "upo": 7688,
      "krewnych": 7689,
      ".ĠPoniewaÅ¼Ġ": 7690,
      "ĠzÅĤa": 7691,
      "ucznia,Ġ": 7692,
      "a,ĠnaĠ": 7693,
      "Ġteatrze": 7694,
      "amator": 7695,
      "ÄĩĠâĢŀ": 7696,
      "czyniÅĤaĠ": 7697,
      "saliĠ": 7698,
      "teatr": 7699,
      "zĠtej": 7700,
      "eniĠ": 7701,
      ",Ġznalaz": 7702,
      "trakt": 7703,
      "nowo": 7704,
      "czm": 7705,
      "siÃ³dmej,Ġ": 7706,
      "szÃ³stej": 7707,
      "mii,Ġ": 7708,
      ",ĠaleĠz": 7709,
      ".ĠPodĠ": 7710,
      ".ĠTego": 7711,
      "uczniowieĠklasyĠ": 7712,
      "Ġpragnie": 7713,
      "juÅ¼ĠpoĠ": 7714,
      "okÃ³ÅĤĠ": 7715,
      "JÄĻd": 7716,
      "nister": 7717,
      "przysz": 7718,
      "odrobi": 7719,
      "Pro": 7720,
      "rÄĻczni": 7721,
      ",ĠaĠwszystkie": 7722,
      "kwar": 7723,
      "kÃ³w,ĠaĠ": 7724,
      "przeciwkoĠ": 7725,
      "ni.ĠZ": 7726,
      "âĢĶĠdoĠ": 7727,
      "PyrzogÅĤowach": 7728,
      "szynkar": 7729,
      "KawkaĠ": 7730,
      "nomyÅĽl": 7731,
      "ee": 7732,
      "pozaĠ": 7733,
      "tu,Ġ": 7734,
      "izd": 7735,
      "izdeb": 7736,
      "ĠnaĠpamiÄĻ": 7737,
      "skieĠw": 7738,
      "nymĠwej": 7739,
      "byÅĤĠdoĠ": 7740,
      "PajÄĻczy": 7741,
      "siÅĤÄħ": 7742,
      "utrzyma": 7743,
      "szedÅĤĠdoĠklasyĠ": 7744,
      "kato": 7745,
      "jĠRadek": 7746,
      "ciÄħgle,Ġ": 7747,
      "soÅĤty": 7748,
      "ostatnimĠ": 7749,
      ".ĊĊRadek": 7750,
      "stanÄħÅĤĠprzyĠ": 7751,
      ",ĠproszÄĻĠwielmoÅ¼": 7752,
      ",ĠproszÄĻĠwielmoÅ¼negoĠ": 7753,
      ",ĠproszÄĻĠwielmoÅ¼negoĠpana": 7754,
      "siÅĤyĠ": 7755,
      ".ĊĊâĢĶĠWĠ": 7756,
      ".ĠWiedziaÅĤ": 7757,
      "bramyĠ": 7758,
      "gnia": 7759,
      "Ġprawi": 7760,
      "lonych": 7761,
      "omac": 7762,
      "ĠklasyĠpiÄħtej": 7763,
      "Ã³dĠ": 7764,
      "Ġwyku": 7765,
      "ctu": 7766,
      "umysÅĤĠ": 7767,
      "Tymkiewicz": 7768,
      "lubu": 7769,
      "prÄĻtyĠ": 7770,
      "leÅ¼aÅĤ": 7771,
      "Å¼oÅĤnierz": 7772,
      ".ĠNiektÃ³rzyĠ": 7773,
      "ĠpewnejĠchwiliĠ": 7774,
      "Goldba": 7775,
      "âĢŀliteratÃ³w": 7776,
      "slawi": 7777,
      "ĠwÅĤaÅĽci": 7778,
      "chÅĤa": 7779,
      "vi": 7780,
      "pozna": 7781,
      "szpieg": 7782,
      "najczÄĻÅĽciej": 7783,
      "skupie": 7784,
      "rewi": 7785,
      "Ili": 7786,
      "ĠmusiaÅĤĠ": 7787,
      "ÅĤecze": 7788,
      "przypis": 7789,
      "neĠÅĤ": 7790,
      "uczonoĠ": 7791,
      "Waleckim": 7792,
      ".ĠWalec": 7793,
      "wÃ³r": 7794,
      "WaleckiĠ": 7795,
      "bunt": 7796,
      "niuĠcaÅĤej": 7797,
      "Ġbag": 7798,
      "Warszawie": 7799,
      ".ĠSztetter": 7800,
      "naszĠ": 7801,
      ".ĠZygie": 7802,
      "Mickiewicz": 7803,
      "Gonta": 7804,
      "MaÅĦ": 7805,
      "Gontal": 7806,
      "âĢŀdziur": 7807,
      "latar": 7808,
      "sunÄħÅĤĠsiÄĻ": 7809,
      ".ĠPannaĠ": 7810,
      "wicyz": 7811,
      "wicyzmu": 7812,
      "âĢŀBirutyâĢĿ": 7813,
      "--": 7814,
      "nelektu": 7815,
      "nelektury": 7816,
      "nelektury.": 7817,
      "nelektury.pl": 7818,
      "ht": 7819,
      "htt": 7820,
      ":/": 7821,
      "://": 7822,
      "WolneĠ": 7823,
      "WolneĠLek": 7824,
      "WolnychĠ": 7825,
      "WolnychĠLek": 7826,
      "WolnychĠLektur": 7827,
      "zyf": 7828,
      "BN": 7829,
      "83": 7830,
      "stawieniaĠ": 7831,
      "byd": 7832,
      "Ġsan": 7833,
      "Å¼onymĠ": 7834,
      "ami,Ġz": 7835,
      "tamtÄĻdyĠ": 7836,
      "przeciÄħg": 7837,
      ",Ġwie": 7838,
      "pkiĠ": 7839,
      "ĠnibyĠ": 7840,
      ".ĠGdzie": 7841,
      ".ĠGdzienie": 7842,
      "smugiĠ": 7843,
      "nyĠdoĠ": 7844,
      "cukruĠ": 7845,
      "owanejĠ": 7846,
      "basz": 7847,
      "odĠdawienĠdaw": 7848,
      "Ġbrunat": 7849,
      "wic": 7850,
      ".ĊĊKo": 7851,
      "wierzch": 7852,
      "Äĩmi": 7853,
      "ku,Ġw": 7854,
      "ĠtwarzyĠiĠ": 7855,
      "owanieĠw": 7856,
      ".ĠÅģzyĠ": 7857,
      "oczachĠ": 7858,
      "namysÅĤ": 7859,
      "gÅĤÄĻbokiejĠ": 7860,
      "rozwa": 7861,
      "emĠdoĠ": 7862,
      "giĠiĠ": 7863,
      "ni,Ġz": 7864,
      "ĠtwarzÄħĠ": 7865,
      "liwe,Ġ": 7866,
      ".ĠMiaÅĤĠnaĠ": 7867,
      "Ġzgrab": 7868,
      "ekie": 7869,
      "ÅĤoÅ¼onoĠ": 7870,
      "ny,ĠzaĠ": 7871,
      "padaÅĤ": 7872,
      "wiezionoĠ": 7873,
      ".ĠZĠnie": 7874,
      "dobryĠ": 7875,
      ",ĠÅ¼eĠwĠ": 7876,
      "Ġwierz": 7877,
      "aĠgÃ³r": 7878,
      "tyĠz": 7879,
      "atych": 7880,
      "ocios": 7881,
      "przedziw": 7882,
      "lod": 7883,
      "ĠpewneĠ": 7884,
      "odkry": 7885,
      "gÅĤÄĻbie": 7886,
      "ĠzajÄĻ": 7887,
      "a,Ġwy": 7888,
      "ÅĽledzi": 7889,
      "futroĠ": 7890,
      "emyĠ": 7891,
      "Zeli": 7892,
      "ĠprzeÅĽlicz": 7893,
      "stud": 7894,
      "Ã³wĠiĠz": 7895,
      "uĠiĠz": 7896,
      "Ġtajem": 7897,
      "niczychĠ": 7898,
      "fiole": 7899,
      "fioletow": 7900,
      "boles": 7901,
      "âĢ¦ĊĊO": 7902,
      "leÅĽnych": 7903,
      "aÅĤoĠsiÄĻ,ĠÅ¼eĠ": 7904,
      "ĠprzestrzeÅĦ": 7905,
      "miejscu,Ġ": 7906,
      "przyku": 7907,
      "kolorem": 7908,
      "mamusiu": 7909,
      "?ĠâĢĶĠzapytaÅĤ": 7910,
      "mus": 7911,
      "âĢ¦ĠToĠ": 7912,
      "Owczar": 7913,
      "Owcza": 7914,
      "Owczarach": 7915,
      "!ĠPrzecie": 7916,
      "czyÄĩ,Ġ": 7917,
      "âĢ¦ĊĊâĢĶĠAleĠ": 7918,
      "Ġud": 7919,
      "anos": 7920,
      "jakĠz": 7921,
      "czaĠ": 7922,
      "strzeliÅĤ": 7923,
      "!ĠAniĠ": 7924,
      "Ã³zek": 7925,
      "szkoÅĤÄĻ": 7926,
      "kogoÅĽ": 7927,
      "JÄĻdrka": 7928,
      "studen": 7929,
      "âĢĿĠâĢĶĠ": 7930,
      "ĠwĠdomuĠ": 7931,
      "zur": 7932,
      "Ġzat": 7933,
      "ĠpoluĠ": 7934,
      "razĠwĠ": 7935,
      "ÅĦĠoĠ": 7936,
      "ach,ĠoĠ": 7937,
      "ÅĦstwie": 7938,
      "ĠwyobraÅ¼e": 7939,
      "wilamiĠ": 7940,
      "zrokiem": 7941,
      "ĠpewnymĠmiejscuĠ": 7942,
      "ktoÅĽĠ": 7943,
      "usta": 7944,
      "aÅĤoĠjegoĠ": 7945,
      "niespodziew": 7946,
      "anczar": 7947,
      "anczaryĠ": 7948,
      "obuĠ": 7949,
      ",ĠpÃ³Åºniej": 7950,
      "y,ĠiĠ": 7951,
      "ulicÄĻ": 7952,
      ".ĠChÅĤopiec": 7953,
      "aÅĤĠjeĠ": 7954,
      "ajÄħcym": 7955,
      "owymiĠ": 7956,
      "kuĠszkol": 7957,
      "obÃ³r": 7958,
      "tuli": 7959,
      ",ĠniecoĠ": 7960,
      "kr": 7961,
      "nawo": 7962,
      "ĠpewnaĠ": 7963,
      "przestrze": 7964,
      ",ĠwĠktÃ³rymĠ": 7965,
      "tegoĠdniaĠ": 7966,
      "anymiĠ": 7967,
      "szcza": 7968,
      "Å¼onaĠ": 7969,
      ",ĠpaniĠ": 7970,
      "ĠzdÄħ": 7971,
      "bliÅ¼y": 7972,
      "ĠmatceĠ": 7973,
      "Ġkategorycz": 7974,
      ":ĊĊâĢĶĠMamusi": 7975,
      "dykaĠ": 7976,
      "strzÄĻpi": 7977,
      "chodze": 7978,
      "szali": 7979,
      "ĠprÄħ": 7980,
      "ielon": 7981,
      "Å¼Ã³ÅĤt": 7982,
      "Å¼Ã³ÅĤtaw": 7983,
      "suk": 7984,
      "owal": 7985,
      "gracj": 7986,
      "ĠpoĠnimĠ": 7987,
      "nieprze": 7988,
      "twarzĠjegoĠ": 7989,
      "czyniÅĤĠ": 7990,
      "ĠwieleĠ": 7991,
      "kaĠprzy": 7992,
      "yÅĤa": 7993,
      "kryteĠ": 7994,
      "oku": 7995,
      "wĠd": 7996,
      "ĠpatrzyĠ": 7997,
      "i,ĠcoĠnaj": 7998,
      "ogromnej": 7999,
      "ĠpaniĠWiechow": 8000,
      "nieĠwiedzieÄĩĠ": 8001,
      "stajÄħc": 8002,
      "ĠuÅĽmiech": 8003,
      "aÄĩĠsiÄĻĠ": 8004,
      "Ġspecj": 8005,
      "Ġkawaler": 8006,
      "?ĠâĢĶĠwy": 8007,
      "paliÅĤ": 8008,
      "rÄĻce": 8009,
      ".ĠâĢĶĠD": 8010,
      "yÅĤoĠ": 8011,
      "Boga,Ġ": 8012,
      "âĢ¦ĠMarcinek": 8013,
      "nienĠtoĠ": 8014,
      "uczuciemĠ": 8015,
      "dymajÄħcĠ": 8016,
      "âĢĶĠÅ¼eĠ": 8017,
      "ujÄħ": 8018,
      "staÄĩĠsiÄĻĠ": 8019,
      "grzybiaÅĤ": 8020,
      "Ġtakim": 8021,
      "pytaÅĤ": 8022,
      "czekĠ": 8023,
      "szpagat": 8024,
      "?âĢĿ": 8025,
      "MarcinekĠz": 8026,
      "Ġziem": 8027,
      "Ġkap": 8028,
      "ofice": 8029,
      ",ĠÅ¼eĠmaĠ": 8030,
      "familii": 8031,
      "Ġsprawie": 8032,
      "ĠpaÅĦstwoĠ": 8033,
      "mojeĠ": 8034,
      "ÅĽwiadcze": 8035,
      "myÅĽlaÅĤĠ": 8036,
      "chwilÄħĠwy": 8037,
      "ĠpatrzaÅĤĠwĠ": 8038,
      "naprÄĻ": 8039,
      "ĠzĠcaÅĤÄħ": 8040,
      "dzwoniÄħc": 8041,
      "siÄħgÅĤ": 8042,
      "owÄħĠ": 8043,
      "ik": 8044,
      "yĠiĠza": 8045,
      "ĠÅĤÃ³Å¼": 8046,
      "kolosal": 8047,
      "stolik": 8048,
      "widocz": 8049,
      "jakimÅĽĠ": 8050,
      "narz": 8051,
      "ÅĽcianach": 8052,
      "ĠprowadzÄħc": 8053,
      "dyscypli": 8054,
      "chwili,ĠkiedyĠ": 8055,
      "zrokĠjegoĠ": 8056,
      "stÄħĠ": 8057,
      "MarcinaĠz": 8058,
      "gestem": 8059,
      ",ĠjakiegoĠ": 8060,
      "czeÅĽnie": 8061,
      "okrut": 8062,
      "ĠtakiĠsposÃ³b,ĠÅ¼eĠ": 8063,
      "ranieĠ": 8064,
      "nabitegoĠ": 8065,
      "grubyĠ": 8066,
      "brak": 8067,
      ".ĠJestĠtoĠ": 8068,
      "sÅĤowoĠ": 8069,
      "emĠza": 8070,
      "Ġobec": 8071,
      "ĠdrogÄĻĠ": 8072,
      "ĠwiÄĻcĠ": 8073,
      "dzieĠiĠ": 8074,
      "JÃ³ziaĠ": 8075,
      "oczami": 8076,
      "legÅĤaĠ": 8077,
      "gÅĤupie": 8078,
      "chÅĤopcu": 8079,
      "Å¼eĠsiÄĻ": 8080,
      "Ġzaczyna": 8081,
      "ChÅĤopiec": 8082,
      "Ġzaczerwieni": 8083,
      "ĠzaczerwieniÅĤĠsiÄĻ": 8084,
      ",Ġsp": 8085,
      "izby,Ġ": 8086,
      "haÅĤasemĠ": 8087,
      "koleÅ¼an": 8088,
      "swÃ³jĠ": 8089,
      "korpus": 8090,
      "yĠprzy": 8091,
      "tom": 8092,
      "otwo": 8093,
      "rzyw": 8094,
      "gina": 8095,
      "czarnÄħĠ": 8096,
      "nÄħĠkoszu": 8097,
      "yĠiĠwy": 8098,
      "tÅĤuszcz": 8099,
      "achĠnie": 8100,
      ".ĊĊSam": 8101,
      "czÄĻtoĠ": 8102,
      "zasy": 8103,
      "ĠwysokoĠ": 8104,
      "odziceĠ": 8105,
      "ĠpÃ³ÅĤro": 8106,
      "uĠszkol": 8107,
      ".ĠPanĠBorowicz": 8108,
      "Wiechowsk": 8109,
      "nyâĢĿ": 8110,
      "ĠmatkiĠiĠ": 8111,
      ":ĊĊâĢĶĠK": 8112,
      "iĠâĢĶĠ": 8113,
      ".ĠBÄĻdzie": 8114,
      "teĠw": 8115,
      "nikaÅĤyĠ": 8116,
      "umysÅĤuĠ": 8117,
      "ny.ĠTeraz": 8118,
      "Ġpojmow": 8119,
      ".ĠWĠtymĠ": 8120,
      "ĠmaÅĤymĠ": 8121,
      "przechodzi": 8122,
      "oporu": 8123,
      "nogami,Ġ": 8124,
      "udziaÅĤ": 8125,
      "ĠksiÄħÅ¼ecz": 8126,
      "âĢĿ,ĠaleĠ": 8127,
      "zawie": 8128,
      "uniesie": 8129,
      "niecierpliwo": 8130,
      "ĠtakĠsamoĠ": 8131,
      "ki,ĠgdyĠ": 8132,
      "odrzekÅĤaĠ": 8133,
      "Å¼ĠtoĠ": 8134,
      "jednoĠz": 8135,
      "Ġwynios": 8136,
      "musie": 8137,
      ",ĠproszÄĻĠpa": 8138,
      "Ġwygod": 8139,
      "kochanaĠ": 8140,
      "wieszĠ": 8141,
      "korepetytoraĠ": 8142,
      "zeczywi": 8143,
      ".ĠChoÄĩ": 8144,
      "guwer": 8145,
      "soĠ": 8146,
      ",ĠaĠzĠ": 8147,
      "obcymĠ": 8148,
      "mÃ³wiÄĩ,Ġ": 8149,
      "tujeĠ": 8150,
      "MarcinkaĠdoĠ": 8151,
      "gorzej": 8152,
      "jakĠu": 8153,
      "paz": 8154,
      "ĠtoĠz": 8155,
      "kaÅ¼e": 8156,
      "ÄĩĠumie": 8157,
      "dojrz": 8158,
      "ĠkÄħci": 8159,
      "ĠsamymiĠ": 8160,
      "kochanyĠ": 8161,
      "policz": 8162,
      ".ĊĊâĢĶĠNo,Ġ": 8163,
      "Ġpora": 8164,
      "Å¼ony": 8165,
      "cÃ³Å¼Ġznowu": 8166,
      "*k": 8167,
      "ka,ĠnaĠ": 8168,
      "sien": 8169,
      "MaÅĤgoÅĽ": 8170,
      "siadÅĤaĠnaĠ": 8171,
      "ki.ĠR": 8172,
      "ĠzaĠniÄħ": 8173,
      "mÅĤodegoĠ": 8174,
      "ramieniu": 8175,
      "koÅĤa": 8176,
      "Ġzary": 8177,
      "samiĠ": 8178,
      "rodziciel": 8179,
      "sunÄħÅĤĠsiÄĻĠnaĠ": 8180,
      "padÅĤĠwĠ": 8181,
      "liwie,Ġ": 8182,
      ".ĠTrafi": 8183,
      "ĠwĠciemnoÅĽci": 8184,
      ".ĠPot": 8185,
      "prowadziliĠ": 8186,
      "czegoÅĽ": 8187,
      "duÅ¼yĠ": 8188,
      "sap": 8189,
      "mieszkania,Ġ": 8190,
      "anym": 8191,
      "Ġkrzes": 8192,
      "myÅĽlaÅĤĠoĠ": 8193,
      "zerun": 8194,
      "tÄĻskno": 8195,
      "szczegÃ³lneĠ": 8196,
      "sÅĤuÅ¼Äħc": 8197,
      ".ĊĊNareszcie": 8198,
      "obier": 8199,
      "Ġporan": 8200,
      "ek,ĠktÃ³reĠ": 8201,
      "aÅĤaĠsiÄĻĠwĠ": 8202,
      "sercu": 8203,
      "rozlew": 8204,
      "Ġplam": 8205,
      "anyĠw": 8206,
      "ĠznuÅ¼e": 8207,
      "toÅĽĠ": 8208,
      "Å¼wiru": 8209,
      "ĠkÄħcieĠ": 8210,
      "ÅĽwietl": 8211,
      "czyje": 8212,
      "skutekĠ": 8213,
      "jeszczeĠdalej": 8214,
      "dÅĤymĠ": 8215,
      "jakĠk": 8216,
      "obna": 8217,
      "miejsce,Ġ": 8218,
      "egoĠiĠ": 8219,
      "kÄħcie": 8220,
      "ĠsiedzieliĠ": 8221,
      "spaÅĤĠ": 8222,
      "Ġwielko": 8223,
      "ÅĤugoĠ": 8224,
      "posÅĤa": 8225,
      "nimĠz": 8226,
      "znaczy": 8227,
      "jakiejĠ": 8228,
      "obu": 8229,
      "rozmai": 8230,
      "odĠczasuĠdoĠ": 8231,
      "haÅĤa": 8232,
      "haÅĤaÅĽli": 8233,
      "wionyĠ": 8234,
      "wyÅ¼szegoĠstop": 8235,
      "ubr": 8236,
      "ÅĤonÄħĠ": 8237,
      "?ĠâĢĶĠkrzy": 8238,
      "Å¼nie": 8239,
      "pierw": 8240,
      "em,ĠboĠ": 8241,
      "szybkoĠwy": 8242,
      "piÅĤ": 8243,
      "czekaÅĤ": 8244,
      "a,Ġw": 8245,
      "ĠtoĠjestĠ": 8246,
      "koÅĽciÃ³ÅĤ": 8247,
      "Å¼adnaĠ": 8248,
      "ÅĤawkach": 8249,
      "siedzieliĠw": 8250,
      "Ġsukman": 8251,
      "ojcowskich": 8252,
      "Ġmatczy": 8253,
      "okrÄĻ": 8254,
      "ÅĽciemĠ": 8255,
      "siedzÄħc": 8256,
      "tuÅ¼Ġ": 8257,
      "tuÅ¼Ġobok": 8258,
      "blon": 8259,
      "ĠmiejsceĠdlaĠ": 8260,
      "szÅĤa,Ġ": 8261,
      "negoĠspo": 8262,
      "zdumieniem": 8263,
      "cichut": 8264,
      ":ĊĊâĢĶĠJaĠ": 8265,
      "wiesza": 8266,
      "Pau": 8267,
      "Paul": 8268,
      "Paulso": 8269,
      "stary": 8270,
      "Ġdrugo": 8271,
      "ymczasem": 8272,
      "eĠwszystkichĠ": 8273,
      "tworzyÅĤ": 8274,
      "ruchomo": 8275,
      "roksy": 8276,
      "Å¼eli": 8277,
      "nowi": 8278,
      "ÄħcĠsiÄĻ": 8279,
      "cjona": 8280,
      "ramat": 8281,
      "!ĠS": 8282,
      "!ĠI": 8283,
      "miaĠ": 8284,
      "ielno": 8285,
      "niÃ³sÅĤĠgÅĤowÄĻĠiĠ": 8286,
      "patrzÄħcĠnaĠ": 8287,
      ",ĠnieĠwiedzieÄĩ": 8288,
      ",ĠaĠnawetĠ": 8289,
      "ÅĤoÅ¼e": 8290,
      ":ĊĊâĢĶĠWi": 8291,
      "cek": 8292,
      "czynnoÅĽÄĩ": 8293,
      "wĠsta": 8294,
      "roboty": 8295,
      "gromadaĠ": 8296,
      "szturcha": 8297,
      "rozwar": 8298,
      "szej": 8299,
      ".ĠRzu": 8300,
      "okiemĠnaĠ": 8301,
      "MarcinkaĠiĠ": 8302,
      "kwaÅĽ": 8303,
      "nÄħÅĤĠdoĠ": 8304,
      "gÅĤoÅĽno": 8305,
      "eklam": 8306,
      "modli": 8307,
      "ĠnaĠkomen": 8308,
      "ĠnaĠkomendÄĻ": 8309,
      ",ĠaĠpoĠ": 8310,
      "sm": 8311,
      "noÅĽ": 8312,
      "nastÄĻpnieĠ": 8313,
      "otworzyÅĤĠ": 8314,
      "rosyjskimĠ": 8315,
      "cisza": 8316,
      ".ĠDopieroĠpoĠupÅĤywie": 8317,
      "ĠdawaÅĤyĠsiÄĻĠsÅĤysze": 8318,
      "indywidu": 8319,
      "gÅĤos:ĊĊâĢĶĠ": 8320,
      "kilkakroÄĩ": 8321,
      ",ĠÅ¼eĠgdyĠ": 8322,
      "zĠkole": 8323,
      "ÄħĠiĠw": 8324,
      "ĠtegoĠwszystkie": 8325,
      "nie,ĠboĠ": 8326,
      "aniĠwy": 8327,
      "*pre": 8328,
      "wszystkieĠ": 8329,
      "oknoĠ": 8330,
      "rzaski": 8331,
      "waÅĤĠzĠ": 8332,
      "ludow": 8333,
      "jĠoĠ": 8334,
      "centyĠ": 8335,
      "izbieĠ": 8336,
      "*a*,Ġ*": 8337,
      "*a*,Ġ*be": 8338,
      "*a*,Ġ*be*,Ġ*": 8339,
      "alfab": 8340,
      ",ĠâĢŀ": 8341,
      "waÅ¼naĠ": 8342,
      "nibyĠtoĠwĠ": 8343,
      "coÅĽĠpodĠ": 8344,
      "coÅĽĠpodĠnos": 8345,
      "kÄĻ,Ġz": 8346,
      "ĠwyszedÅĤĠnaĠ": 8347,
      "tablicy": 8348,
      "owaÅĤĠmu": 8349,
      "Å¼nÄħĠ": 8350,
      "moÅ¼naĠbyĠ": 8351,
      "siÄĩ": 8352,
      "ÄĩĠrazyĠ": 8353,
      "Ġtrzydzie": 8354,
      "ĠmamĠ": 8355,
      "Ġwykony": 8356,
      "rÄħb": 8357,
      ".ĠSkoroĠ": 8358,
      "gÅĤosem,Ġ": 8359,
      "ĠsÅĤyszaÅĤ": 8360,
      "âĢ¦ĊĊA": 8361,
      "nauczycielĠnie": 8362,
      "cyzm": 8363,
      ",ĠsÅĤuch": 8364,
      "kraw": 8365,
      "wĠGawronkach": 8366,
      "caÅĤymiĠ": 8367,
      "jakĠÅ¼y": 8368,
      "Å»y": 8369,
      "Å»ydzi": 8370,
      "ĠwiecznieĠ": 8371,
      "iĠze": 8372,
      "koÅ¼": 8373,
      "koÅ¼uch": 8374,
      "rani": 8375,
      "ĠmuĠnaĠ": 8376,
      "skÃ³rÄĻĠ": 8377,
      "Ġpalec": 8378,
      "aÄĩĠsiÄĻ": 8379,
      "dzieÄĩĠcze": 8380,
      "wiÄħ": 8381,
      "rzeniem": 8382,
      "a,ĠjakbyĠ": 8383,
      "MarcinekĠs": 8384,
      "ÅĤoÅĽciÄħ": 8385,
      "kakrot": 8386,
      "czoÅĤo": 8387,
      "Kap": 8388,
      "Ġposuw": 8389,
      "nauczycielskiegoĠ": 8390,
      "nÄħĠrÄĻkÄĻ": 8391,
      "Ã³wkÄĻ": 8392,
      "ĠpewnoĠ": 8393,
      "nikÅĤĠw": 8394,
      "ĠtÅĤumie": 8395,
      ".ĊĊTaĠ": 8396,
      "Ġsen": 8397,
      "pÅĤat": 8398,
      "patrywaÅĤ": 8399,
      "ĠmimoĠ": 8400,
      "nÄĻÅĤo": 8401,
      ",ĠspostrzegÅĤ": 8402,
      "dziĠsiÄĻ": 8403,
      "nie.ĠNaĠ": 8404,
      "szczÄĻÅĽcie": 8405,
      ".ĠProfesor": 8406,
      "ĠprzerwaÅĤĠ": 8407,
      "ĠzĠkated": 8408,
      "ryĠiĠ": 8409,
      "ÅĽÅĦ": 8410,
      "naboÅ¼": 8411,
      "takĠsamoĠ": 8412,
      "Si": 8413,
      "PiÄħtek": 8414,
      "ĠtamtejĠ": 8415,
      "koÅĽcieleĠ": 8416,
      "Åļwi": 8417,
      "musiaÅĤ": 8418,
      "caÅĤyĠog": 8419,
      "ĠpamiÄĻÄĩ": 8420,
      "Ġzdumie": 8421,
      "Ġzdumieniem": 8422,
      ",Ġwywi": 8423,
      ",ĠwywijajÄħc": 8424,
      "ĠpiÄĻÅĽciÄħ": 8425,
      "widzial": 8426,
      "tchu": 8427,
      "siÄĻcznej": 8428,
      ".ĊĊTak": 8429,
      "Ġdono": 8430,
      "siÅĤaĠ": 8431,
      "dziaÅĤaniaĠ": 8432,
      "etym": 8433,
      "syntak": 8434,
      "niejszÄħĠ": 8435,
      "Ġzwrac": 8436,
      "godzinie": 8437,
      "rozpoczyn": 8438,
      "MarcinkiemĠ": 8439,
      ".ĠChÅĤopiecĠ": 8440,
      "Ġuryw": 8441,
      "ĠtreÅĽÄĩ": 8442,
      "niezbytĠ": 8443,
      "Ġude": 8444,
      "nazwy": 8445,
      ".ĠZamiast": 8446,
      "nauceĠ": 8447,
      "Ã³rĠ": 8448,
      ",ĠpanĠWiechowskiĠ": 8449,
      "razi": 8450,
      "nazwyĠ": 8451,
      "Ġprzedmiot": 8452,
      ":Ġu": 8453,
      "rzetel": 8454,
      "straci": 8455,
      "Ġmach": 8456,
      "inal": 8457,
      "nieĠpowtarz": 8458,
      "pedago": 8459,
      "arytmetykiĠ": 8460,
      "*z": 8461,
      "na,Ġwy": 8462,
      "Ġpoprzek": 8463,
      "gÃ³ra": 8464,
      "dydat": 8465,
      "nieĠrobi": 8466,
      "Ġwska": 8467,
      "ĠpisaniaĠ": 8468,
      "Ġpoprzed": 8469,
      "ĠbiednyĠ": 8470,
      "Ġumie": 8471,
      "pamiÄĻÄĩĠ": 8472,
      "gramatykiĠrosyjskiej": 8473,
      "najwiÄĻk": 8474,
      "Ġks": 8475,
      "sÄĻdzi": 8476,
      "odpowiedziaÅĤ": 8477,
      "tÄĻĠnaukÄĻ": 8478,
      "stÄĻpowaÅĤaĠ": 8479,
      "poniekÄħd": 8480,
      "czne,Ġ": 8481,
      "niejednokrot": 8482,
      "entuzjazm": 8483,
      "koÅĽl": 8484,
      "koÅĽlaw": 8485,
      "naĠstar": 8486,
      ".ĠZarÃ³wnoĠ": 8487,
      "y,Ġjak": 8488,
      "budz": 8489,
      "Ġkaje": 8490,
      "eÅĤnia": 8491,
      "unurz": 8492,
      "cieĠiĠ": 8493,
      "powod": 8494,
      "dÅĤa": 8495,
      "anoĠmuĠ": 8496,
      "ciÄħgleĠw": 8497,
      "skichĠiĠ": 8498,
      ".ĠSamĠ": 8499,
      "kaĠdoĠ": 8500,
      "leÅ¼aÅĤĠ": 8501,
      "wida": 8502,
      "Ġwiorst": 8503,
      "szarzaÅĤyĠ": 8504,
      "oĠtejĠporzeĠ": 8505,
      "rÃ³wni": 8506,
      "gonÃ³w": 8507,
      "ceniemĠ": 8508,
      "czÄĻsto": 8509,
      ",ĠaĠnastÄĻp": 8510,
      "aÅĤyĠiĠ": 8511,
      ".ĠDlaĠ": 8512,
      "Ġbezden": 8513,
      "nieĠsmut": 8514,
      "ÄħĠmiÄĻdzyĠ": 8515,
      ".ĠGdybyĠgoĠ": 8516,
      "miesiÄħceĠ": 8517,
      ".ĠPostanowi": 8518,
      "tami": 8519,
      "azĠ": 8520,
      ".ĠPoszliĠ": 8521,
      "lasem": 8522,
      "skra": 8523,
      "kachĠz": 8524,
      "obaczyÅĤĠ": 8525,
      "gÃ³rÄĻ,Ġ": 8526,
      "naĠtleĠ": 8527,
      "bĠ": 8528,
      "gÅĤoÅĽnoĠiĠ": 8529,
      "opry": 8530,
      "oprysk": 8531,
      "liwe": 8532,
      "niepojÄĻt": 8533,
      "ychĠdniach": 8534,
      ",Ġpowie": 8535,
      "tygodniu": 8536,
      "nieĠmogÅĤoĠ": 8537,
      "wargiĠ": 8538,
      "opad": 8539,
      "PaÅĤy": 8540,
      "PaÅĤyszew": 8541,
      "ktÃ³Å¼": 8542,
      "wĠcaÅĤymĠ": 8543,
      "czego,Ġ": 8544,
      "palcach,Ġ": 8545,
      "rzew": 8546,
      "nieĠpoĠ": 8547,
      "czeki": 8548,
      "Ġzjawisk": 8549,
      "sposobem": 8550,
      "skoroĠ": 8551,
      "odpowiedziĠ": 8552,
      "tanie": 8553,
      "!âĢĿĠ": 8554,
      "ceĠwy": 8555,
      "czÅĤon": 8556,
      "ujÄħcejĠ": 8557,
      "zdwoj": 8558,
      "niÄĻcie": 8559,
      ",ĠbÅĤa": 8560,
      "arem": 8561,
      "ste": 8562,
      ",ĠnierazĠdoĠ": 8563,
      "Ġniewymow": 8564,
      "jeszczeĠbardziejĠ": 8565,
      "obwisÅĤ": 8566,
      "byÅĤaĠwĠ": 8567,
      "ruchuĠ": 8568,
      "ska:Ġ": 8569,
      "tleĠ": 8570,
      "ÅĽnieĠz": 8571,
      "jeĠdoĠ": 8572,
      "gÃ³rnymĠ": 8573,
      "gz": 8574,
      "gzym": 8575,
      ",Ġwyso": 8576,
      "becz": 8577,
      "zag": 8578,
      "ĠzostaÅĤaĠ": 8579,
      "gaÅĤÄĻzi": 8580,
      "tele": 8581,
      "dawaÄĩ": 8582,
      "tajemniczyĠ": 8583,
      "ÅĽcisÅĤo": 8584,
      "ÅĽcisÅĤoÅĽciÄħ": 8585,
      "Ġwiej": 8586,
      "negoĠdniaĠ": 8587,
      "ÅĽwitu": 8588,
      "oczyma": 8589,
      "niecĠ": 8590,
      "ÄĻbi": 8591,
      "wsiĠ": 8592,
      "wizy": 8593,
      ",ĠzdÄħÅ¼ajÄħc": 8594,
      "odĠsam": 8595,
      "odĠsamegoĠ": 8596,
      "ĠwyglÄħd": 8597,
      "ktÃ³rym": 8598,
      "czyÅĤĠsiÄĻĠ": 8599,
      "any,Ġ": 8600,
      "ami.ĠW": 8601,
      "butel": 8602,
      "zaczÄĻÅĤyĠ": 8603,
      "serwa": 8604,
      "nieĠspuszczaÅĤĠ": 8605,
      "nieĠspuszczaÅĤĠokaĠ": 8606,
      "nieĠspuszczaÅĤĠokaĠzĠ": 8607,
      "Ġsumien": 8608,
      "chwila,Ġ": 8609,
      "Ġoczy": 8610,
      "ÅĤzami": 8611,
      "widnokrÄĻgu": 8612,
      "Ġpunk": 8613,
      "cikĠ": 8614,
      "ÅĽledziÅĤĠ": 8615,
      ".ĠNareszcie": 8616,
      "ĠkrzesÅĤa": 8617,
      "podniesi": 8618,
      ",ĠcoĠw": 8619,
      "naleÅ¼y": 8620,
      "rzaskiemĠ": 8621,
      "daÅĤaĠ": 8622,
      "wyciÄĻt": 8623,
      "amiz": 8624,
      "amizel": 8625,
      "naby": 8626,
      "owanej": 8627,
      "idÅº": 8628,
      "schow": 8629,
      "razemĠzĠ": 8630,
      "fra*": 8631,
      ".ĠTwarzĠ": 8632,
      "biaÅĤaĠ": 8633,
      "przym": 8634,
      "Chry": 8635,
      "sier": 8636,
      "ĠdlaĠsiebieĠiĠ": 8637,
      "nieĠzaĠ": 8638,
      "ogromnÄħĠ": 8639,
      "leniĠ": 8640,
      "obydwojeĠ": 8641,
      "gorliwo": 8642,
      "aliĠsobie": 8643,
      "jakieÅĽĠnie": 8644,
      "zaĠniÄħĠ": 8645,
      "razĠzaĠrazem": 8646,
      "JezusĠkochan": 8647,
      "swejĠkryjÃ³w": 8648,
      "liĠsiÄĻĠnaĠ": 8649,
      "Ġklu": 8650,
      "niach,Ġ": 8651,
      "ogromneĠ": 8652,
      "egoĠdoĠ": 8653,
      "chyl": 8654,
      "liĠdoĠ": 8655,
      "arni": 8656,
      "ĠJaczmieniew": 8657,
      "strzegÅĤsz": 8658,
      "strzegÅĤszy,ĠÅ¼eĠ": 8659,
      "czÅĤowiek,Ġ": 8660,
      ",ĠktÃ³rÄħĠ": 8661,
      "prawieĠnie": 8662,
      "spoglÄħdaÅĤyĠ": 8663,
      "przyjaciel": 8664,
      ".ĊĊâĢĶĠAleÅ¼": 8665,
      "doÅĽwiad": 8666,
      "âĢ¦ĠâĢĶĠszepnÄħÅĤĠ": 8667,
      "aÅ¼Ġw": 8668,
      "ĠpiÄĻt": 8669,
      "tego,ĠcoĠ": 8670,
      "ajÄħcĠoczyĠ": 8671,
      "ĠprzewaÅ¼": 8672,
      "ĠzaĠplecamiĠ": 8673,
      "dawaÅĤĠzna": 8674,
      "woÅĤaÅĤ:ĊĊâĢĶĠ": 8675,
      "wiaĠ": 8676,
      "!ĊĊD": 8677,
      "ustamiĠ": 8678,
      "defilowaÅĤ": 8679,
      "woÅĤa": 8680,
      "ĠzeĠswychĠ": 8681,
      "uczniÃ³wĠ": 8682,
      "usÅĤysze": 8683,
      "MoÅ¼eĠjaÅĽnieĠwielmoÅ¼nyĠ": 8684,
      "MoÅ¼eĠjaÅĽnieĠwielmoÅ¼nyĠpan": 8685,
      "jednoczeÅĽnieĠ": 8686,
      "gajÄħcĠ": 8687,
      ":ĊĊâĢĶĠNie": 8688,
      "wah": 8689,
      "ka,ĠktÃ³regoĠ": 8690,
      "sadzi": 8691,
      "stÄħpiÅĤ": 8692,
      "naĠkated": 8693,
      "podpar": 8694,
      "koncer": 8695,
      "chwyta": 8696,
      "jÄħĠnaĠ": 8697,
      "znak,ĠÅ¼eĠ": 8698,
      "JaczmieniewĠ": 8699,
      "cieĠo": 8700,
      "powieÅĽciĠ": 8701,
      "ĠzawoÅĤaÅĤĠ": 8702,
      "schyl": 8703,
      "Wiechowskiego,Ġ": 8704,
      "mujeĠ": 8705,
      "zgod": 8706,
      "rozumieniaĠ": 8707,
      "restaura": 8708,
      "fortu": 8709,
      "ki,ĠzĠ": 8710,
      "dzo,Ġ": 8711,
      "Ġtemu": 8712,
      "liczkÄĻ": 8713,
      "poÅĤyĠ": 8714,
      ".ĠZanimĠ": 8715,
      "âĢ¦ĊĊWĠ": 8716,
      "czasz": 8717,
      "powy": 8718,
      "Ġple": 8719,
      "mÃ³wie": 8720,
      "szedÅĤszyĠ": 8721,
      "usÅĤyszaÅĤ,ĠÅ¼eĠ": 8722,
      "ĠmÃ³wiĠ": 8723,
      "rozkazaÅĤ": 8724,
      "ryjna*": 8725,
      "czyli": 8726,
      "ĠzwrÃ³ciÅĤĠsiÄĻĠdoĠ": 8727,
      "*ĠzĠ": 8728,
      "*d": 8729,
      "sÅĤuchawszyĠ": 8730,
      "miÄĻdzyĠÅĤaw": 8731,
      "eĠwsiĠ": 8732,
      ",ĠpanieĠ": 8733,
      "stad": 8734,
      "Ġznacz": 8735,
      "czytaĠ": 8736,
      "stosunku": 8737,
      "ruskie": 8738,
      "iloÅĽÄĩ": 8739,
      "ĠtoĠnawet": 8740,
      "katolik": 8741,
      ",Ġprowa": 8742,
      "pag": 8743,
      "pagand": 8744,
      "pagandÄĻ": 8745,
      "poj": 8746,
      "siÄĻĠwĠnich": 8747,
      "innymĠ": 8748,
      "ÅĤadz": 8749,
      "Ġtutaj": 8750,
      ".ĠMaÅĤoĠ": 8751,
      "Ġwidz": 8752,
      "staty": 8753,
      "sÄħĠtoĠ": 8754,
      "owtarz": 8755,
      "niemalĠ": 8756,
      "âĢ¦ĠJaĠ": 8757,
      "owol": 8758,
      "bÃ³": 8759,
      "bÃ³lu": 8760,
      "âĢ¦ĊĊâĢĶĠNie": 8761,
      "pens": 8762,
      "pensjÄĻ": 8763,
      "wĠnichĠ": 8764,
      "ĠksiÄħÅ¼ki": 8765,
      "ramiona": 8766,
      "uszan": 8767,
      "prowadziÄĩĠ": 8768,
      "ĠmyÅĽlaÅĤ": 8769,
      "ĠtuĠ": 8770,
      "trzyma": 8771,
      "sÄħdu": 8772,
      "otworzyÅĤĠdrzwiĠ": 8773,
      "jednymĠspojrze": 8774,
      "rwaÅĤĠ": 8775,
      ",ĠgdyĠwtemĠ": 8776,
      "aÅĤĠdoĠdrzwi": 8777,
      "skiĠzĠ": 8778,
      "obieĠ": 8779,
      "gÅĤup": 8780,
      "âĢ¦ĠAĠ": 8781,
      "âĢ¦ĠI": 8782,
      "ĠnieĠza": 8783,
      "tyl": 8784,
      "ÅºnieĠ": 8785,
      "iĠwyszedÅĤ": 8786,
      "izby": 8787,
      "ĠwĠkrok": 8788,
      "ĠpoĠwy": 8789,
      "Ġtyl": 8790,
      ",ĠwiÄĻcĠ": 8791,
      "owiÅĤĠ": 8792,
      "kanaÅĽcieĠ": 8793,
      "Ġdrogi": 8794,
      "niu,ĠÅ¼eĠ": 8795,
      "piĠ": 8796,
      "ÅĤaĠdoĠ": 8797,
      "szyjÄĻ": 8798,
      "ÅĽwiadczyÅĤ": 8799,
      "sz?ĊĊâĢĶĠ": 8800,
      "nicĠnieĠwie": 8801,
      "aszĠ": 8802,
      "towa,Ġ": 8803,
      "rozpowie": 8804,
      "owiedziaÅĤaĠ": 8805,
      "wielmoÅ¼nyĠ": 8806,
      "naczelniku,Ġ": 8807,
      "cemyĠtegoĠ": 8808,
      "naĠto": 8809,
      "nieĠpod": 8810,
      "gadaÄĩĠ": 8811,
      "poĠru": 8812,
      "naĠksiÄħÅ¼": 8813,
      "waÅĤÄĻs": 8814,
      "ce,ĠaĠ": 8815,
      "ichĠnie": 8816,
      "taâĢ¦Ġ": 8817,
      "âĢĶĠza": 8818,
      "Å¼yweĠoczyĠ": 8819,
      "Ġdlat": 8820,
      "ĠzaÅĽmiaÅĤĠsiÄĻ": 8821,
      "Ġzapomni": 8822,
      "koza": 8823,
      "ziaj": 8824,
      "stanÄħÅĤĠprzedĠ": 8825,
      "siu,Ġ": 8826,
      "szĠtyĠ": 8827,
      "co,Ġ": 8828,
      "uje": 8829,
      "âĢ¦ĊĊP": 8830,
      "dosyÄĩĠ": 8831,
      "Äĩwier": 8832,
      "tylkoĠw": 8833,
      "kÄĻĠzĠ": 8834,
      "bÄĻdÄħĠ": 8835,
      "jesz,Ġ": 8836,
      "?ĠS": 8837,
      "ĠchciaÅĤ": 8838,
      "ĠzrobiÄĩ": 8839,
      "aÅĤĠzeĠ": 8840,
      "sof": 8841,
      "czyÅĤĠsiÄĻĠnaĠ": 8842,
      "dÅĤugÄħĠ": 8843,
      "pÅĤynÄĻÅĤaĠ": 8844,
      "szpar": 8845,
      "Ġpotem": 8846,
      "nÄĻĠdoĠ": 8847,
      ":ĊĊĊA": 8848,
      ".ĠStamtÄħd": 8849,
      "rÃ³dĠ": 8850,
      "ĠsÅĤoÅĦceĠ": 8851,
      "licy": 8852,
      "Ġwios": 8853,
      "nieĠciÄħg": 8854,
      "nogaĠzaĠnogÄħ,Ġ": 8855,
      "niom": 8856,
      "nieĠmi": 8857,
      "kuĠnie": 8858,
      "GÃ³r": 8859,
      "dalekiĠ": 8860,
      "Szwaj": 8861,
      "Szwajc": 8862,
      "Szwajcari": 8863,
      "studiÃ³wĠ": 8864,
      "decy": 8865,
      "decydow": 8866,
      "ktÃ³raĠbyĠ": 8867,
      "obfi": 8868,
      "Angli": 8869,
      "miec": 8870,
      "eĠwszystkich": 8871,
      "nictwoĠ": 8872,
      "ÄĻ,Ġz": 8873,
      "ÄĻdrujÄħc": 8874,
      "ĠodĠ": 8875,
      "ode": 8876,
      "ÅĦskiegoĠ": 8877,
      "ÅĤychĠ": 8878,
      ",Ġwspo": 8879,
      "gwo": 8880,
      "Åºdzi": 8881,
      "gÄĻĠiĠ": 8882,
      "wich": 8883,
      "ĠzeĠswejĠ": 8884,
      "rodziny,Ġ": 8885,
      "Å¼yciu": 8886,
      "lasu,Ġ": 8887,
      "szuka": 8888,
      "liÅĽÄĩ": 8889,
      "kich,Ġ": 8890,
      "uczci": 8891,
      "szwaj": 8892,
      "szwajcar": 8893,
      "tyĠwĠ": 8894,
      "powrot": 8895,
      "jezior": 8896,
      "ÅĤaziÅĤ": 8897,
      "roznie": 8898,
      "caÄĩĠ": 8899,
      "ÅĽrÃ³dĠciem": 8900,
      "Ġznaczeniu": 8901,
      "ĠznaczeniuĠtegoĠ": 8902,
      "ÄĻĠrosyjskÄħ": 8903,
      "âĢĿ.ĠNaĠ": 8904,
      "cywili": 8905,
      "cywiliza": 8906,
      "ukoch": 8907,
      "bud": 8908,
      "ĠprzedsiÄĻ": 8909,
      "niespodziewa": 8910,
      "aret": 8911,
      "aĠznajdowaÅĤaĠsiÄĻĠnaĠ": 8912,
      "szczycie": 8913,
      "ejĠstronyĠ": 8914,
      "ny.ĠT": 8915,
      "ko,ĠdalekoĠ": 8916,
      "sÅĤani": 8917,
      "pami": 8918,
      "dolnymĠ": 8919,
      "ĠzamoÅ¼": 8920,
      ".ĠCaÅĤyĠ": 8921,
      "kÄħĠz": 8922,
      "cieÅĦĠiĠ": 8923,
      "e,Ġz": 8924,
      "mienieĠ": 8925,
      "ciÅĤyĠ": 8926,
      "oszklon": 8927,
      "pedel": 8928,
      "udo": 8929,
      "sÅĤuÅ¼yÅĤ": 8930,
      "wadzieÅĽciaĠpiÄĻ": 8931,
      "wadzieÅĽciaĠpiÄĻÄĩĠ": 8932,
      "cjiĠz": 8933,
      "ajÄħcej": 8934,
      "skÅĤadajÄħc": 8935,
      "ÄħĠsiÄĻĠz": 8936,
      ",ĠktÃ³rych": 8937,
      "ĠtreÅĽÄĩĠ": 8938,
      "ĠchÄĻt": 8939,
      "nosie": 8940,
      "yka": 8941,
      "cieles": 8942,
      "straciÅĤĠ": 8943,
      "chodziliĠ": 8944,
      "naĠogÃ³ÅĤ": 8945,
      "u,ĠÅ¼eĠ": 8946,
      "prowadzonaĠ": 8947,
      "ĠbyÅĤĠâĢŀ": 8948,
      ".ĊĊTeĠ": 8949,
      "ĠuczniÃ³w": 8950,
      "stanu": 8951,
      "Äħtkow": 8952,
      "pieniaĠ": 8953,
      "naleÅ¼Äħc": 8954,
      "przesuw": 8955,
      "Ġpomoc": 8956,
      "nikÃ³wĠgospodarzyĠklas": 8957,
      "Ġprawdopodob": 8958,
      ".ĠSzczegÃ³l": 8959,
      "niepokoj": 8960,
      "ĠzĠdale": 8961,
      "ĠminÄħÅĤ": 8962,
      "niuĠwy": 8963,
      "naĠod": 8964,
      "ĠtenĠsposÃ³b,ĠÅ¼eĠ": 8965,
      "wanyĠ": 8966,
      "Ġpacierz": 8967,
      "Ġmil": 8968,
      "przyjÄĻt": 8969,
      "nieĠmogliĠ": 8970,
      "jechaÄĩ": 8971,
      "dawaÅĤ": 8972,
      "obe": 8973,
      "obecĠ": 8974,
      "pÅĤywuĠ": 8975,
      "czoneĠ": 8976,
      "niepokojemĠ": 8977,
      "para": 8978,
      "kapelu": 8979,
      "Ġbog": 8980,
      "glan": 8981,
      "szuw": 8982,
      "szuwak": 8983,
      "egzamina": 8984,
      "mÃ³jĠpa": 8985,
      ",ĠcoĠrobi": 8986,
      "Åļpie": 8987,
      ",ĠproszÄĻĠ": 8988,
      ",ĠproszÄĻĠÅĤaskiĠ": 8989,
      "cierpi": 8990,
      "nieĠmasz": 8991,
      ",ĠtoĠon": 8992,
      "ny*": 8993,
      "stÄĻpnejĠklasy": 8994,
      "owaniuĠ": 8995,
      "ĠkrÃ³tkoĠ": 8996,
      "rzemĠiĠ": 8997,
      "woÅĤaÅĤĠnaĠ": 8998,
      "karku": 8999,
      ".ĊĊâĢĶĠKtoĠ": 9000,
      "nadel": 9001,
      "beÅĤ": 9002,
      "badaw": 9003,
      "zgromadzonych": 9004,
      "stanÄĻÅĤaĠ": 9005,
      "popraw": 9006,
      "sprawiÅĤ": 9007,
      "Ġpradziad": 9008,
      "mionyĠ": 9009,
      "goĠpo": 9010,
      "dot": 9011,
      "jejĠsy": 9012,
      "Ġschod": 9013,
      "Ġmgnie": 9014,
      "ĠmgnieniuĠ": 9015,
      "ĠmgnieniuĠokaĠ": 9016,
      "ĠmrokuĠ": 9017,
      ",ĠgdzieĠmieÅĽci": 9018,
      "szkolne": 9019,
      ".ĊĊJed": 9020,
      "cokolwie": 9021,
      "aniĠBorowiczowaĠz": 9022,
      "Å¼yÅĤaĠ": 9023,
      "siÄĻĠdoĠniegoĠ": 9024,
      "ramie": 9025,
      ".ĠWÃ³wczasĠw": 9026,
      "muĠwĠ": 9027,
      "powtÃ³rzyÅĤaĠ": 9028,
      "ÅĤysi": 9029,
      "pÃ³j": 9030,
      "liwoÅĽciĠ": 9031,
      "ĠwskazÃ³wkiĠ": 9032,
      "ĠtÅĤumu": 9033,
      "wychodzi": 9034,
      "siÄĻĠnaĠpiÄĻt": 9035,
      "ĠprofesorÃ³w": 9036,
      "doĠtejĠ": 9037,
      "Ġproce": 9038,
      "!ĊĊâĢĶĠAleÅ¼Ġ": 9039,
      "ĠdrogÄħĠ": 9040,
      "ochÅĤon": 9041,
      "ÄħÅĤ": 9042,
      "ig": 9043,
      "ĠbardziejĠ": 9044,
      "grupaĠ": 9045,
      "Ġsekretarz": 9046,
      ".ĠOby": 9047,
      "ni,Ġw": 9048,
      "ĠproÅĽ": 9049,
      "gdyÅ¼Ġ": 9050,
      "ĠwstÄĻpnej": 9051,
      ",ĠjakiÅĽ": 9052,
      "jaÅĽni": 9053,
      "wiÄĻkszyĠ": 9054,
      "mogÅĤoĠ": 9055,
      "miastaĠ": 9056,
      "kotaĠ": 9057,
      ",Ġtra": 9058,
      "ku,ĠaĠ": 9059,
      "Ġdomo": 9060,
      "ĠtamĠnaĠ": 9061,
      "maÅĤoĠcoĠ": 9062,
      "brukow": 9063,
      "doÅĽÄĩĠ": 9064,
      "dwuĠstron": 9065,
      "Ġodkry": 9066,
      "placy": 9067,
      "goszczÄħc": 9068,
      "jazd": 9069,
      "rapan": 9070,
      "napi": 9071,
      "owaneĠw": 9072,
      ".ĠTam": 9073,
      "szkaÅĤĠ": 9074,
      "szelkiegoĠrodzaj": 9075,
      "szelkiegoĠrodzaju,Ġ": 9076,
      "jakichĠ": 9077,
      "ÅĽwiatĠ": 9078,
      "jejĠpo": 9079,
      "mowaÅĤyĠ": 9080,
      "ÅĤosk": 9081,
      "ÅĤoskot": 9082,
      "aÅĽĠ": 9083,
      "numeru": 9084,
      "niaĠoĠ": 9085,
      "Ġzajad": 9086,
      "bale": 9087,
      "Ġwy,Ġ": 9088,
      "Ġwy,ĠmoiĠ": 9089,
      "Ġwy,ĠmoiĠludzie": 9090,
      "adaÅĤĠ": 9091,
      "Daj": 9092,
      "yĠpokÃ³j": 9093,
      "mÄħĠ": 9094,
      "jakĠnie": 9095,
      "patycz": 9096,
      ".ĊĊRoz": 9097,
      "interesowaÅĤ": 9098,
      "tomiast": 9099,
      "ĠmieszkaniaĠ": 9100,
      "aÅĤĠtamĠ": 9101,
      "kost": 9102,
      "numer": 9103,
      "nejĠpaniĠ": 9104,
      "JestemĠ": 9105,
      "interesie": 9106,
      "swojej": 9107,
      "âĢ¦ĠTak": 9108,
      "okropneĠ": 9109,
      "ĠmÃ³wiÄĩĠ": 9110,
      "waÅ¼niejszeĠ": 9111,
      "mojaĠpaniĠ": 9112,
      "jestĠnie": 9113,
      "aĠwz": 9114,
      "nieĠbardzoĠ": 9115,
      "duÅ¼oĠ": 9116,
      ",Ġpowiad": 9117,
      "paniĠBorowiczowa": 9118,
      "zdaniaĠ": 9119,
      "obli": 9120,
      "naszeĠ": 9121,
      "ÅĤacinyĠ": 9122,
      "osz": 9123,
      "spotk": 9124,
      "Ġzwiast": 9125,
      "Ã³jĠbrat": 9126,
      "najlepiej": 9127,
      "jemuĠ": 9128,
      "daÅĤĠsiÄĻĠdoĠ": 9129,
      "panaĠMajewskiego": 9130,
      "ĠprzezĠcaÅĤyĠ": 9131,
      "ÅĤaciÅĤ": 9132,
      "?ĊĊâĢĶĠT": 9133,
      "siÄĻĠzdaje": 9134,
      "nieduÅ¼": 9135,
      "chodziÅĤĠdoĠ": 9136,
      "ĠmieszkaĠ": 9137,
      "przedmieÅĽcie": 9138,
      "âĢ¦ĊĊâĢĶĠJaĠ": 9139,
      "koszt": 9140,
      "wsze": 9141,
      "wszem,Ġ": 9142,
      "mogÄĻ": 9143,
      "starozakon": 9144,
      "owiemĠ": 9145,
      "aÅĤaĠoĠ": 9146,
      "szeniaĠ": 9147,
      "ujÄħceĠ": 9148,
      "ÅĽrodkiĠ": 9149,
      "szczeĠw": 9150,
      "trzyĠrubleĠzaĠ": 9151,
      "dwadzieÅĽciaĠ": 9152,
      ".ĠÅ»e": 9153,
      "byĠtoĠ": 9154,
      "Moskiew": 9155,
      "âĢĶĠzaĠ": 9156,
      "usiÅĤowaÅĤ": 9157,
      "kÄĻĠoĠ": 9158,
      "medy": 9159,
[...]
