{
  "version": "1.0",
  "truncation": null,
  "padding": null,
  "added_tokens": [],
  "normalizer": null,
  "pre_tokenizer": {
    "type": "ByteLevel",
    "add_prefix_space": false,
    "trim_offsets": true,
    "use_regex": false
  },
  "post_processor": {
    "type": "ByteLevel",
    "add_prefix_space": true,
    "trim_offsets": true,
    "use_regex": true
  },
  "decoder": {
    "type": "ByteLevel",
    "add_prefix_space": true,
    "trim_offsets": true,
    "use_regex": true
  },
  "model": {
    "type": "BPE",
    "dropout": null,
    "unk_token": null,
    "continuing_subword_prefix": null,
    "end_of_word_suffix": null,
    "fuse_unk": false,
    "byte_fallback": false,
    "ignore_merges": false,
    "vocab": {
      "Ā": 0,
      "ā": 1,
      "Ă": 2,
      "ă": 3,
      "Ą": 4,
      "ą": 5,
      "Ć": 6,
      "ć": 7,
      "Ĉ": 8,
      "ĉ": 9,
      "Ċ": 10,
      "ċ": 11,
      "Č": 12,
      "č": 13,
      "Ď": 14,
      "ď": 15,
      "Đ": 16,
      "đ": 17,
      "Ē": 18,
      "ē": 19,
      "Ĕ": 20,
      "ĕ": 21,
      "Ė": 22,
      "ė": 23,
      "Ę": 24,
      "ę": 25,
      "Ě": 26,
      "ě": 27,
      "Ĝ": 28,
      "ĝ": 29,
      "Ğ": 30,
      "ğ": 31,
      "Ġ": 32,
      "!": 33,
      "\"": 34,
      "#": 35,
      "$": 36,
      "%": 37,
      "&": 38,
      "'": 39,
      "(": 40,
      ")": 41,
      "*": 42,
      "+": 43,
      ",": 44,
      "-": 45,
      ".": 46,
      "/": 47,
      "0": 48,
      "1": 49,
      "2": 50,
      "3": 51,
      "4": 52,
      "5": 53,
      "6": 54,
      "7": 55,
      "8": 56,
      "9": 57,
      ":": 58,
      ";": 59,
      "<": 60,
      "=": 61,
      ">": 62,
      "?": 63,
      "@": 64,
      "A": 65,
      "B": 66,
      "C": 67,
      "D": 68,
      "E": 69,
      "F": 70,
      "G": 71,
      "H": 72,
      "I": 73,
      "J": 74,
      "K": 75,
      "L": 76,
      "M": 77,
      "N": 78,
      "O": 79,
      "P": 80,
      "Q": 81,
      "R": 82,
      "S": 83,
      "T": 84,
      "U": 85,
      "V": 86,
      "W": 87,
      "X": 88,
      "Y": 89,
      "Z": 90,
      "[": 91,
      "\\": 92,
      "]": 93,
      "^": 94,
      "_": 95,
      "`": 96,
      "a": 97,
      "b": 98,
      "c": 99,
      "d": 100,
      "e": 101,
      "f": 102,
      "g": 103,
      "h": 104,
      "i": 105,
      "j": 106,
      "k": 107,
      "l": 108,
      "m": 109,
      "n": 110,
      "o": 111,
      "p": 112,
      "q": 113,
      "r": 114,
      "s": 115,
      "t": 116,
      "u": 117,
      "v": 118,
      "w": 119,
      "x": 120,
      "y": 121,
      "z": 122,
      "{": 123,
      "|": 124,
      "}": 125,
      "~": 126,
      "ġ": 127,
      "Ģ": 128,
      "ģ": 129,
      "Ĥ": 130,
      "ĥ": 131,
      "Ħ": 132,
      "ħ": 133,
      "Ĩ": 134,
      "ĩ": 135,
      "Ī": 136,
      "ī": 137,
      "Ĭ": 138,
      "ĭ": 139,
      "Į": 140,
      "į": 141,
      "İ": 142,
      "ı": 143,
      "Ĳ": 144,
      "ĳ": 145,
      "Ĵ": 146,
      "ĵ": 147,
      "Ķ": 148,
      "ķ": 149,
      "ĸ": 150,
      "Ĺ": 151,
      "ĺ": 152,
      "Ļ": 153,
      "ļ": 154,
      "Ľ": 155,
      "ľ": 156,
      "Ŀ": 157,
      "ŀ": 158,
      "Ł": 159,
      "ł": 160,
      "¡": 161,
      "¢": 162,
      "£": 163,
      "¤": 164,
      "¥": 165,
      "¦": 166,
      "§": 167,
      "¨": 168,
      "©": 169,
      "ª": 170,
      "«": 171,
      "¬": 172,
      "Ń": 173,
      "®": 174,
      "¯": 175,
      "°": 176,
      "±": 177,
      "²": 178,
      "³": 179,
      "´": 180,
      "µ": 181,
      "¶": 182,
      "·": 183,
      "¸": 184,
      "¹": 185,
      "º": 186,
      "»": 187,
      "¼": 188,
      "½": 189,
      "¾": 190,
      "¿": 191,
      "À": 192,
      "Á": 193,
      "Â": 194,
      "Ã": 195,
      "Ä": 196,
      "Å": 197,
      "Æ": 198,
      "Ç": 199,
      "È": 200,
      "É": 201,
      "Ê": 202,
      "Ë": 203,
      "Ì": 204,
      "Í": 205,
      "Î": 206,
      "Ï": 207,
      "Ð": 208,
      "Ñ": 209,
      "Ò": 210,
      "Ó": 211,
      "Ô": 212,
      "Õ": 213,
      "Ö": 214,
      "×": 215,
      "Ø": 216,
      "Ù": 217,
      "Ú": 218,
      "Û": 219,
      "Ü": 220,
      "Ý": 221,
      "Þ": 222,
      "ß": 223,
      "à": 224,
      "á": 225,
      "â": 226,
      "ã": 227,
      "ä": 228,
      "å": 229,
      "æ": 230,
      "ç": 231,
      "è": 232,
      "é": 233,
      "ê": 234,
      "ë": 235,
      "ì": 236,
      "í": 237,
      "î": 238,
      "ï": 239,
      "ð": 240,
      "ñ": 241,
      "ò": 242,
      "ó": 243,
      "ô": 244,
      "õ": 245,
      "ö": 246,
      "÷": 247,
      "ø": 248,
      "ù": 249,
      "ú": 250,
      "û": 251,
      "ü": 252,
      "ý": 253,
      "þ": 254,
      "ÿ": 255,
      "ÅĤ": 256,
      "ie": 257,
      ",Ġ": 258,
      "aĠ": 259,
      "oĠ": 260,
      "iĠ": 261,
      "ÄĻ": 262,
      "yĠ": 263,
      "cz": 264,
      "Äħ": 265,
      "rz": 266,
      "aÅĤ": 267,
      "ch": 268,
      "nie": 269,
      "sz": 270,
      "eĠ": 271,
      "st": 272,
      "Å¼": 273,
      "ow": 274,
      "Ã³": 275,
      "Ġp": 276,
      "âĢ": 277,
      "Ġw": 278,
      ".Ġ": 279,
      "ni": 280,
      "ÅĽ": 281,
      "dz": 282,
      "si": 283,
      "Ġz": 284,
      "ro": 285,
      "na": 286,
      "ra": 287,
      "rze": 288,
      "naĠ": 289,
      "mĠ": 290,
      "ci": 291,
      "ĊĊ": 292,
      "siÄĻ": 293,
      "ar": 294,
      "Äĩ": 295,
      "an": 296,
      "ak": 297,
      "Ġt": 298,
      "goĠ": 299,
      "Ġd": 300,
      "âĢĶ": 301,
      "sk": 302,
      "wi": 303,
      "po": 304,
      "le": 305,
      "je": 306,
      "Ġm": 307,
      "am": 308,
      "ko": 309,
      "ej": 310,
      "âĢĶĠ": 311,
      "yÅĤ": 312,
      "uĠ": 313,
      "li": 314,
      "ad": 315,
      "aÅĤĠ": 316,
      "ych": 317,
      "od": 318,
      "Ã³w": 319,
      "on": 320,
      "Äħc": 321,
      ".ĊĊ": 322,
      "cie": 323,
      "al": 324,
      "ĠiĠ": 325,
      "or": 326,
      "at": 327,
      "ob": 328,
      "dzie": 329,
      "dzi": 330,
      "Ġs": 331,
      "Ġb": 332,
      "Ġk": 333,
      "wy": 334,
      "ek": 335,
      "rzy": 336,
      "czy": 337,
      "egoĠ": 338,
      "wie": 339,
      "as": 340,
      "jak": 341,
      "ÅĤo": 342,
      "aj": 343,
      "ÅĤĠ": 344,
      "ru": 345,
      "mi": 346,
      "âĢ¦": 347,
      "mie": 348,
      "ka": 349,
      "te": 350,
      "kie": 351,
      "no": 352,
      "nieĠ": 353,
      "ÄħĠ": 354,
      "ki": 355,
      "ÄĩĠ": 356,
      "Å¼eĠ": 357,
      "go": 358,
      "siÄĻĠ": 359,
      "ÅĦ": 360,
      "ÅĤa": 361,
      "Ã³r": 362,
      "zĠ": 363,
      "y,Ġ": 364,
      "ym": 365,
      "ĠdoĠ": 366,
      "owi": 367,
      "re": 368,
      "ymĠ": 369,
      "wa": 370,
      "za": 371,
      "roz": 372,
      "kt": 373,
      "Ġwy": 374,
      "sze": 375,
      "aÅĤaĠ": 376,
      "wĠ": 377,
      "ĠwĠ": 378,
      "a,Ġ": 379,
      "prze": 380,
      "Ġpo": 381,
      "ÅĽci": 382,
      "gÅĤ": 383,
      "dyĠ": 384,
      "ejĠ": 385,
      "wo": 386,
      "ry": 387,
      "cze": 388,
      "Ġprze": 389,
      "ach": 390,
      "pi": 391,
      "toĠ": 392,
      "byĠ": 393,
      "aÅĤyĠ": 394,
      "em": 395,
      "kaĠ": 396,
      "nÄħ": 397,
      "ÅĤaĠ": 398,
      "liĠ": 399,
      "kiĠ": 400,
      "niaĠ": 401,
      "ÅĤu": 402,
      "koĠ": 403,
      "ĊĊâĢĶĠ": 404,
      "pie": 405,
      "szy": 406,
      "aw": 407,
      "ku": 408,
      "doĠ": 409,
      "ta": 410,
      "neĠ": 411,
      "er": 412,
      ".ĠW": 413,
      ",ĠaĠ": 414,
      ",ĠÅ¼eĠ": 415,
      "ajÄħc": 416,
      "ty": 417,
      "owie": 418,
      "en": 419,
      "âĢ¦Ġ": 420,
      "rÃ³": 421,
      "owa": 422,
      "Å¼e": 423,
      "ÄĻĠ": 424,
      "bi": 425,
      "ami": 426,
      "ĠzĠ": 427,
      "do": 428,
      "âĢŀ": 429,
      "âĢĿ": 430,
      "ju": 431,
      "szcz": 432,
      ".ĊĊâĢĶĠ": 433,
      "ychĠ": 434,
      "mu": 435,
      "cj": 436,
      "nyĠ": 437,
      "ktÃ³r": 438,
      "Mar": 439,
      "raz": 440,
      "Ġza": 441,
      "mo": 442,
      "byÅĤ": 443,
      "emĠ": 444,
      "dy": 445,
      "Marci": 446,
      "skie": 447,
      "ciĠ": 448,
      "sp": 449,
      "ÅĤyĠ": 450,
      "amiĠ": 451,
      "Ġnie": 452,
      "gi": 453,
      "leĠ": 454,
      "owicz": 455,
      "las": 456,
      "os": 457,
      "la": 458,
      "Marcin": 459,
      "jĠ": 460,
      ",Ġp": 461,
      "pod": 462,
      "tu": 463,
      "coĠ": 464,
      "ce": 465,
      "ÅĤy": 466,
      ",Ġz": 467,
      "ich": 468,
      "ok": 469,
      "og": 470,
      "jed": 471,
      "rÄĻ": 472,
      "nÄĻ": 473,
      "sta": 474,
      "aniĠ": 475,
      "bie": 476,
      "Å¼y": 477,
      "Åº": 478,
      "ĠbyÅĤ": 479,
      ".ĠP": 480,
      "da": 481,
      "Ġwie": 482,
      "Bor": 483,
      "ot": 484,
      "aleĠ": 485,
      "jegoĠ": 486,
      "Borowicz": 487,
      ".ĠN": 488,
      "ma": 489,
      "tak": 490,
      "nau": 491,
      "in": 492,
      "czas": 493,
      "sy": 494,
      "pe": 495,
      "Å¼Ġ": 496,
      "!Ġ": 497,
      "ÄĻt": 498,
      "naj": 499,
      ",Ġjak": 500,
      "przy": 501,
      "ost": 502,
      "ĠtoĠ": 503,
      "Ġmi": 504,
      "czyĠ": 505,
      "spo": 506,
      "ceĠ": 507,
      "sie": 508,
      "pa": 509,
      "Ġwi": 510,
      "lu": 511,
      "ÄĻd": 512,
      "et": 513,
      "zy": 514,
      "Ġprzy": 515,
      "Ġu": 516,
      "rw": 517,
      "Ġtak": 518,
      "jÄħc": 519,
      ",Ġw": 520,
      "Äħd": 521,
      "cyĠ": 522,
      "negoĠ": 523,
      "?Ġ": 524,
      "yÅĽ": 525,
      "pra": 526,
      "ÅĤoĠ": 527,
      ",ĠktÃ³r": 528,
      "aliĠ": 529,
      ".ĠZ": 530,
      "lkoĠ": 531,
      "niej": 532,
      "tor": 533,
      "czycie": 534,
      "nej": 535,
      "ciÄħ": 536,
      "kÅĤ": 537,
      "aÅĤoĠ": 538,
      "szyst": 539,
      "ÅĽÄĩ": 540,
      "ski": 541,
      ",Ġg": 542,
      "Ã³wĠ": 543,
      "ĠpoĠ": 544,
      "rzyĠ": 545,
      "szyĠ": 546,
      "kÄĻ": 547,
      "zaĠ": 548,
      "ÅĽciĠ": 549,
      "caÅĤ": 550,
      "nych": 551,
      "nymĠ": 552,
      "cy": 553,
      "ur": 554,
      "cho": 555,
      "ol": 556,
      "by": 557,
      "kow": 558,
      ".ĠS": 559,
      "fi": 560,
      "ale": 561,
      "ucz": 562,
      "now": 563,
      "gÅĤo": 564,
      "stan": 565,
      "ymiĠ": 566,
      "war": 567,
      "ut": 568,
      "ĠnaĠ": 569,
      ",ĠaleĠ": 570,
      "om": 571,
      "nauczycie": 572,
      "noĠ": 573,
      "Äħt": 574,
      "ÅĽwi": 575,
      "star": 576,
      "dĠ": 577,
      "obie": 578,
      "laĠ": 579,
      "Ã³wi": 580,
      "stÄĻ": 581,
      "zi": 582,
      "Ã³ÅĤ": 583,
      "kuĠ": 584,
      "Ġpod": 585,
      "aÅĤĠsiÄĻ": 586,
      ".ĠT": 587,
      "caĠ": 588,
      "nieĠm": 589,
      "jest": 590,
      "anĠ": 591,
      "ez": 592,
      "sto": 593,
      "js": 594,
      "u,Ġ": 595,
      "iĠz": 596,
      ":ĊĊâĢĶĠ": 597,
      "usz": 598,
      "waĠ": 599,
      "naz": 600,
      "to": 601,
      "juÅ¼": 602,
      "cu": 603,
      "ĠzaĠ": 604,
      "poĠ": 605,
      "ciÄħg": 606,
      "iĠw": 607,
      "ne": 608,
      "stÄĻp": 609,
      "gie": 610,
      "ja": 611,
      "ekĠ": 612,
      ",ĠcoĠ": 613,
      "ÅĽcie": 614,
      "Ġpi": 615,
      "Ġklas": 616,
      "Ġpa": 617,
      "âĢ¦ĊĊ": 618,
      "ĠsiÄĻ": 619,
      "chĠ": 620,
      "amĠ": 621,
      "aÄĩ": 622,
      "bo": 623,
      ".ĠC": 624,
      "eĠw": 625,
      "uch": 626,
      "chwi": 627,
      "naw": 628,
      "ektor": 629,
      "niĠ": 630,
      "szed": 631,
      "sÅĤ": 632,
      "Ġty": 633,
      ".ĠO": 634,
      "ÅĽmie": 635,
      "sw": 636,
      "chÅĤo": 637,
      "?ĊĊâĢĶĠ": 638,
      "co": 639,
      "miĠ": 640,
      "dziaÅĤ": 641,
      "ew": 642,
      "su": 643,
      "skiĠ": 644,
      "szczeĠ": 645,
      "owan": 646,
      "um": 647,
      "czyÅĤ": 648,
      "jÄĻ": 649,
      "boĠ": 650,
      "ist": 651,
      "szko": 652,
      "zd": 653,
      "muĠ": 654,
      "pad": 655,
      "kĠ": 656,
      "onyĠ": 657,
      "jeĠ": 658,
      "jÄħ": 659,
      ".ĠJ": 660,
      "sam": 661,
      "Rad": 662,
      "aÅĤĠnaĠ": 663,
      "so": 664,
      "ki,Ġ": 665,
      "rowa": 666,
      "mat": 667,
      "siÄħ": 668,
      ".ĠB": 669,
      "szt": 670,
      "Ġdo": 671,
      "yt": 672,
      "nÄħĠ": 673,
      "Ġpra": 674,
      "czu": 675,
      "zg": 676,
      "razĠ": 677,
      "jeszczeĠ": 678,
      ".ĠD": 679,
      "Ġmie": 680,
      "nad": 681,
      "waÅĤ": 682,
      "gim": 683,
      "pro": 684,
      "szeĠ": 685,
      "lek": 686,
      "rzeĠ": 687,
      "nÄħÅĤ": 688,
      "nic": 689,
      "âĢ¦ĊĊâĢĶĠ": 690,
      "jakĠ": 691,
      "nauczyciel": 692,
      "rzu": 693,
      "woĠ": 694,
      ".ĠM": 695,
      "nejĠ": 696,
      "nawet": 697,
      "nÄħÅĤĠ": 698,
      "bar": 699,
      "ÄĻdz": 700,
      "ast": 701,
      "ÄĻk": 702,
      "ÅĽĠ": 703,
      ",Ġnie": 704,
      "yĠiĠ": 705,
      "miejs": 706,
      "bu": 707,
      "Marcinek": 708,
      "jakie": 709,
      "bli": 710,
      "aĠw": 711,
      "zna": 712,
      "Ã³w,Ġ": 713,
      "de": 714,
      "pu": 715,
      "stro": 716,
      "siÄĻĠnaĠ": 717,
      "uĠiĠ": 718,
      "gÅĤow": 719,
      "Ġpie": 720,
      "oneĠ": 721,
      "m,Ġ": 722,
      "peÅĤ": 723,
      "tylkoĠ": 724,
      "giĠ": 725,
      "Äħ,Ġ": 726,
      "chÅĤop": 727,
      "aÅ¼": 728,
      "gimnaz": 729,
      "jaĠ": 730,
      "nia": 731,
      "Ã³Å¼": 732,
      ".ĠG": 733,
      "czÄĻ": 734,
      "umie": 735,
      "syj": 736,
      "nym": 737,
      "gra": 738,
      "strze": 739,
      "Ġpro": 740,
      "aje": 741,
      "aĠiĠ": 742,
      "rosyj": 743,
      "klas": 744,
      "Ġspo": 745,
      "ny,Ġ": 746,
      "sko": 747,
      ".ĠK": 748,
      "ÅĽÄĩĠ": 749,
      "leÅ¼": 750,
      "nia,Ġ": 751,
      "rod": 752,
      "tyĠ": 753,
      "anoĠ": 754,
      "dob": 755,
      ":Ġ": 756,
      "rÃ³w": 757,
      "rzek": 758,
      "czÄħ": 759,
      "Ġte": 760,
      "siad": 761,
      "ny": 762,
      "szedÅĤ": 763,
      ",Ġwy": 764,
      "jej": 765,
      "nychĠ": 766,
      "odĠ": 767,
      "Å¼yÅĤ": 768,
      "aĠz": 769,
      "fe": 770,
      "Å¼ebyĠ": 771,
      "niu": 772,
      "nieĠz": 773,
      "Ġwiel": 774,
      "powie": 775,
      "rÃ³Å¼": 776,
      "rwsz": 777,
      "cjiĠ": 778,
      ".ĊĊP": 779,
      "chow": 780,
      "ÄĻ,Ġ": 781,
      "myÅĽ": 782,
      "ujÄħc": 783,
      "gÃ³r": 784,
      "pol": 785,
      "sÅĤu": 786,
      "lery": 787,
      "ter": 788,
      "taĠ": 789,
      "pier": 790,
      "ÅĤĠnaĠ": 791,
      "rzyÅĤ": 792,
      "sobie": 793,
      "Ġmu": 794,
      "kiedyĠ": 795,
      "it": 796,
      "gru": 797,
      "ĠzeĠ": 798,
      "bra": 799,
      "il": 800,
      "achĠ": 801,
      "chodzi": 802,
      "uÅ¼": 803,
      "ÄĻc": 804,
      "el": 805,
      "gÅĤos": 806,
      "ĠbyÅĤoĠ": 807,
      "ÄĻÅ¼": 808,
      "Ġo": 809,
      "kÃ³w": 810,
      "nimĠ": 811,
      "prowa": 812,
      "ga": 813,
      "Ġpan": 814,
      "nie,Ġ": 815,
      "siÄĻĠw": 816,
      "dzoĠ": 817,
      ".ĠâĢĶĠ": 818,
      "szcze": 819,
      "go,Ġ": 820,
      "mow": 821,
      "daw": 822,
      "rom": 823,
      "zie": 824,
      "gÅĤÄĻ": 825,
      ".ĠByÅĤ": 826,
      "licz": 827,
      "ÄħĠiĠ": 828,
      "leg": 829,
      "kiemĠ": 830,
      "ÄĻĠiĠ": 831,
      "Ã³j": 832,
      "ÄĻdzyĠ": 833,
      "ed": 834,
      "Ġmo": 835,
      "ÄĻdzie": 836,
      "niegoĠ": 837,
      "przed": 838,
      "tegoĠ": 839,
      "drz": 840,
      "ten": 841,
      "ĠtylkoĠ": 842,
      ".ĠNie": 843,
      "aÅĤĠw": 844,
      "skich": 845,
      "Äĩ,Ġ": 846,
      "niemĠ": 847,
      "ÅĤad": 848,
      "cieĠ": 849,
      "wieĠ": 850,
      "pat": 851,
      "Wie": 852,
      "ÅĽwiat": 853,
      "Nie": 854,
      "yĠz": 855,
      "kÅĤad": 856,
      "kiem": 857,
      "Ġpew": 858,
      "gu": 859,
      "sku": 860,
      "tow": 861,
      "Ġsam": 862,
      "az": 863,
      "onoĠ": 864,
      "im": 865,
      "bez": 866,
      "nu": 867,
      "siÄĻĠz": 868,
      "noÅĽci": 869,
      ",ĠtoĠ": 870,
      "ÅĦĠ": 871,
      "teĠ": 872,
      "rodz": 873,
      "dow": 874,
      "nik": 875,
      "siÄħÅ¼": 876,
      "pow": 877,
      "rzym": 878,
      "gl": 879,
      "kol": 880,
      "chu": 881,
      "Ġsw": 882,
      "mÃ³wi": 883,
      "ajew": 884,
      "lat": 885,
      "niÄĻt": 886,
      "ÅĽnie": 887,
      "yĠw": 888,
      "oj": 889,
      "stawi": 890,
      "imĠ": 891,
      "ÅĤod": 892,
      "godzi": 893,
      "pan": 894,
      "ycz": 895,
      "nak": 896,
      "owaĠ": 897,
      "gdyĠ": 898,
      "âĢ¦ĠâĢĶĠ": 899,
      "dru": 900,
      "trze": 901,
      "uk": 902,
      "aÅĤĠsiÄĻĠ": 903,
      "sa": 904,
      "rad": 905,
      "nieĠw": 906,
      "niem": 907,
      "ÅĤĠsiÄĻ": 908,
      "robi": 909,
      "nieĠiĠ": 910,
      "for": 911,
      "szk": 912,
      "op": 913,
      "aneĠ": 914,
      "Ġprzed": 915,
      "gimnazju": 916,
      "ĠtegoĠ": 917,
      "Wiechow": 918,
      ".ĊĊW": 919,
      "uczni": 920,
      "un": 921,
      "kÄħ": 922,
      "byÅĤoĠ": 923,
      "Majew": 924,
      "oko": 925,
      "oÅĤ": 926,
      "kaz": 927,
      "sza": 928,
      "skiegoĠ": 929,
      "aniĠBorowicz": 930,
      "âĢĿĠ": 931,
      ",Ġza": 932,
      "yw": 933,
      "ĠmÃ³wi": 934,
      "ĠtymĠ": 935,
      "kro": 936,
      "rektor": 937,
      "Ġsie": 938,
      "juÅ¼Ġ": 939,
      "niuĠ": 940,
      "Ġna": 941,
      "ca": 942,
      "anyĠ": 943,
      "Prze": 944,
      "kach": 945,
      "szyb": 946,
      "eg": 947,
      "tarz": 948,
      "insp": 949,
      "kil": 950,
      "e,Ġ": 951,
      "owaÅĤ": 952,
      "oczyĠ": 953,
      "myĠ": 954,
      "ust": 955,
      "ÄĻdr": 956,
      "noÅĽciĠ": 957,
      "niejĠ": 958,
      "szep": 959,
      "laz": 960,
      "rodzi": 961,
      "maĠ": 962,
      "lkie": 963,
      "owiad": 964,
      "szystki": 965,
      "iz": 966,
      "wyĠ": 967,
      "kar": 968,
      "Sz": 969,
      "eÅĤ": 970,
      "tar": 971,
      "oczy": 972,
      "alboĠ": 973,
      "ÅĽmiech": 974,
      "baĠ": 975,
      "pÅĤy": 976,
      "stra": 977,
      "rÄħ": 978,
      "ka,Ġ": 979,
      "ÅĽwie": 980,
      "pieroĠ": 981,
      "wiĠ": 982,
      "czyt": 983,
      "ÅĽrÃ³": 984,
      "ocz": 985,
      "upeÅĤ": 986,
      "sob": 987,
      "dlaĠ": 988,
      "rzekÅĤ": 989,
      "tamĠ": 990,
      "szka": 991,
      "byÅĤaĠ": 992,
      "szystkie": 993,
      "Klery": 994,
      ",ĠktÃ³ryĠ": 995,
      "Å¼ad": 996,
      "rÃ³t": 997,
      "em,Ġ": 998,
      "ajÄħcĠ": 999,
      "ser": 1000,
      "rzÄħ": 1001,
      "acz": 1002,
      "Ã³b": 1003,
      "amie": 1004,
      "Ġtam": 1005,
      "yk": 1006,
      "tej": 1007,
      "chwiliĠ": 1008,
      "onaĠ": 1009,
      "nÄĻÅĤaĠ": 1010,
      "rzekÅĤĠ": 1011,
      "rud": 1012,
      "ĠpanĠ": 1013,
      "ami,Ġ": 1014,
      "ecz": 1015,
      "koÅĦ": 1016,
      "cji": 1017,
      "jÄĻzy": 1018,
      "sÅĤy": 1019,
      "dze": 1020,
      "uwa": 1021,
      "gÄĻ": 1022,
      "dziw": 1023,
      ".ĠWĠ": 1024,
      "!ĊĊ": 1025,
      "pis": 1026,
      "mar": 1027,
      "br": 1028,
      ".ĠNaĠ": 1029,
      ".ĊĊT": 1030,
      ",ĠgdyĠ": 1031,
      "ostat": 1032,
      "ÅĤowie": 1033,
      "Ġdale": 1034,
      "Radek": 1035,
      "ÅĦst": 1036,
      "dzÄħc": 1037,
      "par": 1038,
      "ran": 1039,
      "aÅĤĠz": 1040,
      "iĠpo": 1041,
      "czyn": 1042,
      "odzi": 1043,
      "Ġdru": 1044,
      "aÅĤo": 1045,
      ",Ġgdy": 1046,
      "sor": 1047,
      "onych": 1048,
      "nibyĠ": 1049,
      "niejsz": 1050,
      "lach": 1051,
      "ĠdÅĤu": 1052,
      "ĠmyÅĽ": 1053,
      "ckie": 1054,
      "jeden": 1055,
      "gdzie": 1056,
      "niez": 1057,
      "ryw": 1058,
      "Ġzap": 1059,
      "owiĠ": 1060,
      "dÅĤu": 1061,
      "cĠ": 1062,
      "temĠ": 1063,
      ".ĠGdyĠ": 1064,
      "ÅĤĠw": 1065,
      "ÅĤaw": 1066,
      "ciaĠ": 1067,
      "fesor": 1068,
      "tam": 1069,
      "ska": 1070,
      "ba": 1071,
      "kÄĻĠ": 1072,
      "wicz": 1073,
      "nymiĠ": 1074,
      "iedyĠ": 1075,
      "dale": 1076,
      "kan": 1077,
      "moc": 1078,
      "iĠza": 1079,
      "bardzoĠ": 1080,
      "!ĠâĢĶ": 1081,
      "cÃ³w": 1082,
      "Ã³l": 1083,
      "ÅĽpie": 1084,
      "szys": 1085,
      "inspektor": 1086,
      "nowuĠ": 1087,
      "glÄħd": 1088,
      "Ġmat": 1089,
      ",ĠjakbyĠ": 1090,
      "du": 1091,
      "nicz": 1092,
      "cha": 1093,
      "wszyĠ": 1094,
      "gÅĤoÅĽ": 1095,
      "siĠ": 1096,
      "rzecz": 1097,
      "est": 1098,
      "py": 1099,
      "Ġtrze": 1100,
      "Ã³d": 1101,
      "dw": 1102,
      "ĠmuĠ": 1103,
      "tem": 1104,
      "ĠiĠz": 1105,
      ".ĠR": 1106,
      "ÄĩĠnaĠ": 1107,
      "Ġpowie": 1108,
      "chwil": 1109,
      "siÄĻĠdoĠ": 1110,
      ".ĊĊâĢĶĠA": 1111,
      "jrz": 1112,
      "waÄĩ": 1113,
      "spra": 1114,
      "ĠprzezĠ": 1115,
      "szystkoĠ": 1116,
      "Ġklasie": 1117,
      "Ġma": 1118,
      "gar": 1119,
      "czar": 1120,
      "ryĠ": 1121,
      "sch": 1122,
      "lad": 1123,
      "wier": 1124,
      "ucze": 1125,
      "rog": 1126,
      "ros": 1127,
      "tedyĠ": 1128,
      "siÅĤ": 1129,
      "caÅĤyĠ": 1130,
      "nich": 1131,
      "woÅĤ": 1132,
      "czÅĤowie": 1133,
      ",ĠktÃ³reĠ": 1134,
      "nieĠb": 1135,
      "*,Ġ": 1136,
      "jÄħĠ": 1137,
      "zami": 1138,
      "ĠtamĠ": 1139,
      "pew": 1140,
      "gdy": 1141,
      "Ġten": 1142,
      "jem": 1143,
      "oz": 1144,
      "ezĠ": 1145,
      "ogrom": 1146,
      "umi": 1147,
      "Ġzw": 1148,
      "szyscyĠ": 1149,
      "ÅĤodzie": 1150,
      "Å»": 1151,
      "Ġod": 1152,
      "wymĠ": 1153,
      "lic": 1154,
      "krÃ³t": 1155,
      "jejĠ": 1156,
      ",Ġpo": 1157,
      "aÅĤyĠsiÄĻ": 1158,
      "stu": 1159,
      "ent": 1160,
      "tÃ³r": 1161,
      "Ġswo": 1162,
      "dÅº": 1163,
      "nÄħc": 1164,
      "Ġdy": 1165,
      "kiĠiĠ": 1166,
      "spod": 1167,
      "skiej": 1168,
      "tych": 1169,
      "jednak": 1170,
      "koj": 1171,
      "swo": 1172,
      ",Ġt": 1173,
      "âĢ¦ĠâĢĶ": 1174,
      "Ġroz": 1175,
      "rafi": 1176,
      "praw": 1177,
      "myÅĽl": 1178,
      "sÅĤuch": 1179,
      "dziĠ": 1180,
      "Ġmiejs": 1181,
      "kat": 1182,
      "Ġpow": 1183,
      "miÄĻdzyĠ": 1184,
      "zyĠ": 1185,
      ",ĠnaĠ": 1186,
      ",Ġgdzie": 1187,
      "Tak": 1188,
      "ron": 1189,
      "zeĠ": 1190,
      "Ġpierwsz": 1191,
      "kore": 1192,
      "ciem": 1193,
      "noÅĽÄĩ": 1194,
      "tym": 1195,
      "ĠsiÄĻĠ": 1196,
      "czyta": 1197,
      "ÅĤas": 1198,
      "pierwsz": 1199,
      "warz": 1200,
      "przez": 1201,
      "nog": 1202,
      "krzy": 1203,
      "ÅĽli": 1204,
      ".ĠA": 1205,
      "staw": 1206,
      "sztaÅĤ": 1207,
      "au": 1208,
      "na,Ġ": 1209,
      "row": 1210,
      "byÅĤyĠ": 1211,
      "ÅĽrod": 1212,
      "Ġkil": 1213,
      "kon": 1214,
      "pety": 1215,
      "mÃ³": 1216,
      "czek": 1217,
      "Ġzna": 1218,
      "skaĠ": 1219,
      "amiÄĻ": 1220,
      "moÅ¼": 1221,
      "Ġsobie": 1222,
      "ali": 1223,
      "Przepi": 1224,
      "istor": 1225,
      "Ġbi": 1226,
      "staÅĤ": 1227,
      "nowu": 1228,
      "ĠktÃ³r": 1229,
      "uÅĽmiech": 1230,
      "emĠiĠ": 1231,
      "ego": 1232,
      "Ġpar": 1233,
      "kaĠiĠ": 1234,
      "sty": 1235,
      "Ġpat": 1236,
      "tycz": 1237,
      "dziej": 1238,
      "drzwi": 1239,
      "o,Ġ": 1240,
      "ĠiĠw": 1241,
      "ec": 1242,
      "reszt": 1243,
      "tymĠ": 1244,
      "ĠklasyĠ": 1245,
      "sÅĤa": 1246,
      "niÄħ": 1247,
      "rzuci": 1248,
      "Äħz": 1249,
      "ri": 1250,
      "rzÄħd": 1251,
      "rÃ³ci": 1252,
      "ÅĤÄħ": 1253,
      "maÅĤ": 1254,
      "JÄĻdr": 1255,
      ".ĠCh": 1256,
      "zro": 1257,
      "wiel": 1258,
      "aÄĩĠ": 1259,
      "rosz": 1260,
      "kolwie": 1261,
      "resz": 1262,
      "itd": 1263,
      "JaĠ": 1264,
      "cel": 1265,
      "ÅĽciÄħ": 1266,
      "waÅĤĠ": 1267,
      "Å¼eliĠ": 1268,
      "owaÅĤĠ": 1269,
      "prost": 1270,
      ".ĠI": 1271,
      "sÄħ": 1272,
      "nyĠiĠ": 1273,
      "Ġku": 1274,
      "rob": 1275,
      "och": 1276,
      "Ġbar": 1277,
      "ÅĤos": 1278,
      "ÅĽle": 1279,
      "?ĠâĢĶ": 1280,
      "Ã³Åº": 1281,
      "lon": 1282,
      "nim": 1283,
      "Ġch": 1284,
      "okro": 1285,
      "sÃ³b": 1286,
      ".ĠU": 1287,
      "onĠ": 1288,
      "siebie": 1289,
      "Ã³s": 1290,
      "dzien": 1291,
      "kole": 1292,
      "stÄħ": 1293,
      "Kleryk": 1294,
      "rodzaj": 1295,
      "ap": 1296,
      "nieĠwy": 1297,
      "Å¼on": 1298,
      "czaj": 1299,
      "caleĠ": 1300,
      ".ĠCz": 1301,
      "ĠdlaĠ": 1302,
      "zw": 1303,
      "ĠprzyĠ": 1304,
      "szkol": 1305,
      "kamiĠ": 1306,
      "ze": 1307,
      "rac": 1308,
      "nieĠs": 1309,
      ".ĊĊN": 1310,
      "tÅĤu": 1311,
      "korepety": 1312,
      "ura": 1313,
      "Ã³wczas": 1314,
      "ktÃ³": 1315,
      "iĠwy": 1316,
      "rew": 1317,
      "dzieÄĩ": 1318,
      "egzami": 1319,
      "ruch": 1320,
      "aÅĤ,Ġ": 1321,
      "kory": 1322,
      "rusz": 1323,
      "nieĠbyÅĤ": 1324,
      "Å¼sz": 1325,
      "CoĠ": 1326,
      "eÅĽ": 1327,
      "rzÄĻ": 1328,
      "ca,Ġ": 1329,
      "ach,Ġ": 1330,
      "oÅ¼": 1331,
      "Ġdrz": 1332,
      "Ã³st": 1333,
      "ski,Ġ": 1334,
      "czo": 1335,
      "siÄĻĠwĠ": 1336,
      "miast": 1337,
      "Ġzie": 1338,
      "cich": 1339,
      "panĠ": 1340,
      "rzÄĻd": 1341,
      "tel": 1342,
      "god": 1343,
      "paniĠBorowicz": 1344,
      "noc": 1345,
      "prowadzi": 1346,
      "gad": 1347,
      "ej,Ġ": 1348,
      "ÅĽni": 1349,
      "jakbyĠ": 1350,
      "ĠksiÄħÅ¼": 1351,
      "me": 1352,
      "szczÄĻ": 1353,
      "ĠtejĠ": 1354,
      "sÅĤysz": 1355,
      "koleg": 1356,
      "jakoĠ": 1357,
      "oweĠ": 1358,
      "wyczaj": 1359,
      "tÄĻ": 1360,
      "ciÄĻÅ¼": 1361,
      "my": 1362,
      ".ĊĊZ": 1363,
      "ichĠ": 1364,
      ".ĊĊâĢĶĠP": 1365,
      "Ġpol": 1366,
      "dzieci": 1367,
      "Ġbu": 1368,
      "gleĠ": 1369,
      "aÅĤĠwĠ": 1370,
      "raj": 1371,
      "skiego": 1372,
      "MarcinekĠ": 1373,
      "osob": 1374,
      "szĠ": 1375,
      "awron": 1376,
      "nastÄĻp": 1377,
      "ÄħceĠ": 1378,
      "ÅĤow": 1379,
      "przezĠ": 1380,
      "powiad": 1381,
      "Ġkar": 1382,
      "aÅĤĠdoĠ": 1383,
      "histor": 1384,
      "nadĠ": 1385,
      "szczy": 1386,
      "ch,Ġ": 1387,
      "Ġsy": 1388,
      "teÅ¼": 1389,
      "gÅĤÄĻbo": 1390,
      "bÄĻdzie": 1391,
      "ĠprzedĠ": 1392,
      "cuĠ": 1393,
      "czasemĠ": 1394,
      "anie": 1395,
      "pal": 1396,
      "ajÄħceĠ": 1397,
      "drze": 1398,
      "Ġob": 1399,
      "Ġwol": 1400,
      "aÅ¼ĠdoĠ": 1401,
      "ab": 1402,
      "podĠ": 1403,
      "stop": 1404,
      "lecz": 1405,
      "jaki": 1406,
      "ÅĽmier": 1407,
      "lite": 1408,
      "prawi": 1409,
      "anieĠ": 1410,
      "Ġtakie": 1411,
      "wiÄĻc": 1412,
      "aÅ¼d": 1413,
      "ÅĤĠsiÄĻĠ": 1414,
      "klasyĠ": 1415,
      "jedy": 1416,
      "ni,Ġ": 1417,
      "kowi": 1418,
      "le,Ġ": 1419,
      "podob": 1420,
      "niÄħĠ": 1421,
      "czer": 1422,
      "wyk": 1423,
      "dziaÅĤĠ": 1424,
      "ole": 1425,
      "wor": 1426,
      "aĠpo": 1427,
      "Wi": 1428,
      "kaÅ¼": 1429,
      "MarcinkaĠ": 1430,
      "Ã³wĠiĠ": 1431,
      "rÃ³wnie": 1432,
      "wiÄĻk": 1433,
      "kÄħĠ": 1434,
      "rami": 1435,
      "ajÄħcĠsiÄĻ": 1436,
      "czÄħÅĤ": 1437,
      "naĠz": 1438,
      "gÅĤÄĻb": 1439,
      "naĠw": 1440,
      "ĠteĠ": 1441,
      "szelkie": 1442,
      "siÃ³d": 1443,
      "ktÃ³rzyĠ": 1444,
      "czyst": 1445,
      ",ĠjakĠ": 1446,
      "aÅ¼ebyĠ": 1447,
      "ksiÄħÅ¼": 1448,
      "nist": 1449,
      "gimnazj": 1450,
      "gimnazjal": 1451,
      "ĠĠ": 1452,
      "Ġwod": 1453,
      "min": 1454,
      "ÅĽrÃ³d": 1455,
      "trz": 1456,
      "lew": 1457,
      "Ġdaw": 1458,
      "mier": 1459,
      ".ĠMi": 1460,
      ",Ġprzy": 1461,
      "usi": 1462,
      "ToĠ": 1463,
      "Ġdom": 1464,
      "waÅ¼": 1465,
      "Ġkie": 1466,
      ",ĠkiedyĠ": 1467,
      "wÅĤa": 1468,
      "nieĠp": 1469,
      "szu": 1470,
      "aÅĤa": 1471,
      "aniaĠ": 1472,
      "nos": 1473,
      "takĠ": 1474,
      "gor": 1475,
      "jestĠ": 1476,
      "tur": 1477,
      "zyw": 1478,
      "gnie": 1479,
      "owej": 1480,
      "naleÅ¼": 1481,
      "odpowie": 1482,
      "dziel": 1483,
      "swegoĠ": 1484,
      "mnie": 1485,
      "ari": 1486,
      "âĢĿ,Ġ": 1487,
      "gimnazjumĠ": 1488,
      "ÅĤaci": 1489,
      "yĠnaĠ": 1490,
      "wien": 1491,
      "Wale": 1492,
      "liw": 1493,
      "dwaĠ": 1494,
      "jech": 1495,
      "jrze": 1496,
      ".ĠPrze": 1497,
      "oĠw": 1498,
      "nÄĻÅĤyĠ": 1499,
      "jakieÅĽ": 1500,
      "Ġzd": 1501,
      "czyni": 1502,
      "szczeg": 1503,
      "ral": 1504,
      "prowadz": 1505,
      "tejĠ": 1506,
      ".ĠSt": 1507,
      "umy": 1508,
      "kolwiek": 1509,
      "ĠnieĠ": 1510,
      "takie": 1511,
      "lec": 1512,
      "ÅĤĠwĠ": 1513,
      "liwie": 1514,
      "niko": 1515,
      "oba": 1516,
      "Mich": 1517,
      "nieĠpo": 1518,
      "czÄħÅĤĠ": 1519,
      "nosi": 1520,
      "Ã³g": 1521,
      "czter": 1522,
      "aÅĤy": 1523,
      "ĠmiÄĻdzyĠ": 1524,
      "czegoĠ": 1525,
      "res": 1526,
      "MajewskiĠ": 1527,
      ".ĠBorowicz": 1528,
      "stanowi": 1529,
      "ek,Ġ": 1530,
      "Ġzad": 1531,
      "legÅĤ": 1532,
      "szar": 1533,
      "jedno": 1534,
      "wyci": 1535,
      "szlach": 1536,
      "eĠiĠ": 1537,
      "kry": 1538,
      "naĠpo": 1539,
      "koch": 1540,
      "ona": 1541,
      "raÅ¼e": 1542,
      "Ġpe": 1543,
      "szero": 1544,
      "y,ĠaĠ": 1545,
      "sposob": 1546,
      "!ĠâĢĶĠ": 1547,
      "run": 1548,
      "Ġdu": 1549,
      "âĢĶĠiĠ": 1550,
      "ĠsposÃ³b": 1551,
      ".ĊĊS": 1552,
      "Ġbie": 1553,
      "asz": 1554,
      "nios": 1555,
      "lam": 1556,
      "Gawron": 1557,
      "gro": 1558,
      "ĠwÅĤa": 1559,
      "aty": 1560,
      "skimĠ": 1561,
      "eĠz": 1562,
      "lekcj": 1563,
      "Å¼yw": 1564,
      "owaniaĠ": 1565,
      "zaw": 1566,
      "kich": 1567,
      "ĠbyÅĤĠ": 1568,
      "kwi": 1569,
      "rzuc": 1570,
      "ku,Ġ": 1571,
      "dol": 1572,
      "Klerykowie": 1573,
      "lasi": 1574,
      "ygie": 1575,
      "Ch": 1576,
      ".ĊĊK": 1577,
      "mut": 1578,
      "ucie": 1579,
      "Ġprzez": 1580,
      "rozma": 1581,
      "paniĠ": 1582,
      "Jak": 1583,
      "rozumie": 1584,
      "lub": 1585,
      "No": 1586,
      "tÄħd": 1587,
      "miÄĻ": 1588,
      "ĠwiÄĻc": 1589,
      "ÄĩĠw": 1590,
      "niÄĻ": 1591,
      "anÄħ": 1592,
      "obok": 1593,
      "Ġtej": 1594,
      "reszcie": 1595,
      "Ġdob": 1596,
      "ciÄħgleĠ": 1597,
      "mni": 1598,
      "?ĊĊ": 1599,
      "ĠzupeÅĤ": 1600,
      "najm": 1601,
      "ĠpodĠ": 1602,
      "zm": 1603,
      "skÄħ": 1604,
      "ado": 1605,
      "Ros": 1606,
      "niec": 1607,
      "drzwiĠ": 1608,
      "wol": 1609,
      "korytarz": 1610,
      "âĢŀB": 1611,
      "spÃ³ÅĤ": 1612,
      "Le": 1613,
      "tet": 1614,
      "naĠp": 1615,
      "koÅĤ": 1616,
      "ĠduÅ¼": 1617,
      "wido": 1618,
      "ĠwoÅĤ": 1619,
      "panaĠ": 1620,
      "rach": 1621,
      "zgl": 1622,
      "stru": 1623,
      "Ġka": 1624,
      "?ĠâĢĶĠ": 1625,
      "Ġzak": 1626,
      "mieszka": 1627,
      "ÅĽrÃ³dĠ": 1628,
      "tuĠ": 1629,
      "owaÄĩ": 1630,
      "rzÄħc": 1631,
      "ĠpÃ³ÅĤ": 1632,
      "rok": 1633,
      "krze": 1634,
      "and": 1635,
      "Ġser": 1636,
      "ul": 1637,
      "amiĠiĠ": 1638,
      "mej": 1639,
      "*Ġ": 1640,
      "ac": 1641,
      "kle": 1642,
      "nego": 1643,
      ",Ġb": 1644,
      "Ġbez": 1645,
      "szybkoĠ": 1646,
      "Michci": 1647,
      "krÃ³tceĠ": 1648,
      "di": 1649,
      "dwie": 1650,
      "aÅĤaĠsiÄĻĠ": 1651,
      "czÄĻst": 1652,
      ",ĠgdyÅ¼": 1653,
      "jÄĻt": 1654,
      "ychodzi": 1655,
      "dyrektor": 1656,
      "cyj": 1657,
      "fil": 1658,
      "ajÄħcyĠ": 1659,
      "owaÄĩĠ": 1660,
      "rzeczy": 1661,
      "czni": 1662,
      "gimnazjum": 1663,
      "dziedzi": 1664,
      "Nog": 1665,
      "mal": 1666,
      "ÅĤÃ³Å¼": 1667,
      "ono": 1668,
      ".ĠSz": 1669,
      "trzym": 1670,
      "rza": 1671,
      "wierz": 1672,
      "up": 1673,
      "cier": 1674,
      "oczymaĠ": 1675,
      "ÅĤot": 1676,
      "kami": 1677,
      "czÄħc": 1678,
      "Ġznaj": 1679,
      "aÅĤaĠsiÄĻ": 1680,
      "men": 1681,
      "ĠjegoĠ": 1682,
      "ajÄħ": 1683,
      "ĠiĠza": 1684,
      "syn": 1685,
      "teÅ¼Ġ": 1686,
      "waÄĩĠ": 1687,
      "cÃ³Å¼": 1688,
      "id": 1689,
      "stos": 1690,
      "przyĠ": 1691,
      "stanÄħ": 1692,
      "i,Ġ": 1693,
      "ĠsÅĤy": 1694,
      "chy": 1695,
      "War": 1696,
      "nt": 1697,
      "ĠtakĠ": 1698,
      "dago": 1699,
      "pyta": 1700,
      "stÄĻpnej": 1701,
      "niepo": 1702,
      "jawi": 1703,
      "nichĠ": 1704,
      "goĠw": 1705,
      "got": 1706,
      "Pol": 1707,
      ".ĠWie": 1708,
      "nieĠd": 1709,
      "Ġtych": 1710,
      "gospod": 1711,
      "Za": 1712,
      "Ġprofesor": 1713,
      "stancj": 1714,
      ".ĊĊO": 1715,
      "gÅĤÃ³w": 1716,
      "dniaĠ": 1717,
      ".ĊĊD": 1718,
      "nieĠod": 1719,
      "Ġpal": 1720,
      "owejĠ": 1721,
      ".ĠByÅĤĠtoĠ": 1722,
      "brze": 1723,
      "mieni": 1724,
      "ciec": 1725,
      "kichĠ": 1726,
      "rze,Ġ": 1727,
      "gdybyĠ": 1728,
      "zglÄĻd": 1729,
      "rÃ³d": 1730,
      "emuĠ": 1731,
      "auczycie": 1732,
      "sobieĠ": 1733,
      "dzieÄĩĠ": 1734,
      "moÅ¼eĠ": 1735,
      "Ġzaw": 1736,
      "skoĠ": 1737,
      ".ĠPo": 1738,
      "nap": 1739,
      "aÅĤeĠ": 1740,
      "gÅĤÄĻbiĠ": 1741,
      "koju": 1742,
      "esz": 1743,
      "ÄĻĠw": 1744,
      "Å¼Äħc": 1745,
      "istot": 1746,
      "y,Ġw": 1747,
      "mÅĤod": 1748,
      "rÄĻceĠ": 1749,
      "ce,Ġ": 1750,
      "pÅĤ": 1751,
      "gni": 1752,
      "inte": 1753,
      "bel": 1754,
      "Je": 1755,
      "Ġde": 1756,
      "aryt": 1757,
      "arytme": 1758,
      "sztu": 1759,
      "sied": 1760,
      "daÄĩ": 1761,
      "Ã³gÅĤ": 1762,
      ".ĠNi": 1763,
      "czasie": 1764,
      "Ġdyrektor": 1765,
      "nieĠch": 1766,
      "ge": 1767,
      "kamie": 1768,
      "histori": 1769,
      "szech": 1770,
      "prawie": 1771,
      "onegoĠ": 1772,
      "pewneĠ": 1773,
      "yĠwĠ": 1774,
      "ÅĽlad": 1775,
      "iĠu": 1776,
      "wajÄħc": 1777,
      "ÅĤa,Ġ": 1778,
      "ryÅĤ": 1779,
      ".ĠKiedyĠ": 1780,
      "moĠ": 1781,
      "waÅĤyĠ": 1782,
      "piec": 1783,
      "âĢ¦ĠâĢĶĠrzekÅĤĠ": 1784,
      ",ĠoĠ": 1785,
      "stron": 1786,
      "ĠbezĠ": 1787,
      "Pi": 1788,
      "owa,Ġ": 1789,
      "eri": 1790,
      "ekre": 1791,
      "ych,Ġ": 1792,
      "koÅĽci": 1793,
      "nikt": 1794,
      "ÅĽnieĠ": 1795,
      "ĠksiÄĻ": 1796,
      "sunÄħÅĤĠ": 1797,
      "Ġwielkie": 1798,
      "ĠmaÅĤ": 1799,
      "ĠmiaÅĤĠ": 1800,
      "owaÅĤaĠ": 1801,
      "szedÅĤĠdoĠ": 1802,
      "znacz": 1803,
      "dr": 1804,
      "ziÄĻ": 1805,
      "neĠiĠ": 1806,
      "gaĠ": 1807,
      "dzieciĠ": 1808,
      "skim": 1809,
      "yd": 1810,
      "Åļ": 1811,
      "Ġzam": 1812,
      "byt": 1813,
      "czymĠ": 1814,
      "gramat": 1815,
      "ÅĽcieĠ": 1816,
      "Ġbra": 1817,
      ".ĠZa": 1818,
      "uĠnaĠ": 1819,
      "kur": 1820,
      "niach": 1821,
      "adomo": 1822,
      "obec": 1823,
      "sÅĤo": 1824,
      "Ġmiast": 1825,
      "j,Ġ": 1826,
      "sĠ": 1827,
      "uĠw": 1828,
      "ktoĠ": 1829,
      "niaĠiĠ": 1830,
      "An": 1831,
      "Ġpraw": 1832,
      "wÃ³": 1833,
      "lekcjiĠ": 1834,
      "piÄħt": 1835,
      "prÃ³Å¼": 1836,
      "Zygie": 1837,
      "kimĠ": 1838,
      "duÅ¼": 1839,
      "gÅĤaĠ": 1840,
      "bieg": 1841,
      "krÄĻ": 1842,
      "aÅĤoĠsiÄĻ": 1843,
      "ÅĤaĠsiÄĻ": 1844,
      "wyso": 1845,
      "ĠtÄĻ": 1846,
      "gi,Ġ": 1847,
      "liÅĤ": 1848,
      "sz,Ġ": 1849,
      "Å¼yci": 1850,
      "rzaĠ": 1851,
      ";Ġ": 1852,
      "ĠtÅĤu": 1853,
      "ymczasemĠ": 1854,
      "Ġkat": 1855,
      "ĠpaniĠ": 1856,
      "ytaÅĤĠ": 1857,
      "wale": 1858,
      "roszÄĻ": 1859,
      "ĠpanaĠ": 1860,
      "rzekÅĤaĠ": 1861,
      "nieĠtylkoĠ": 1862,
      "czyliĠ": 1863,
      "ÄħĠw": 1864,
      "mien": 1865,
      ":ĊĊ": 1866,
      "owoĠ": 1867,
      "ĠsweĠ": 1868,
      "daÄĩĠ": 1869,
      "ÄĻĠnaĠ": 1870,
      "nawetĠ": 1871,
      "cisz": 1872,
      "ciel": 1873,
      ".ĊĊMarcinek": 1874,
      "czor": 1875,
      "nocyĠ": 1876,
      "cieka": 1877,
      "ĠdrzwiĠ": 1878,
      "szo": 1879,
      "ĠpoĠpol": 1880,
      "szept": 1881,
      "nie,ĠÅ¼eĠ": 1882,
      "dziejĠ": 1883,
      "tw": 1884,
      "nazwi": 1885,
      "gÅĤoÅĽnoĠ": 1886,
      "wszystkie": 1887,
      "omĠ": 1888,
      "owarzy": 1889,
      "razyĠ": 1890,
      "Ã³ÅĤĠ": 1891,
      "rzeczyĠ": 1892,
      "ksztaÅĤ": 1893,
      "cji,Ġ": 1894,
      "bad": 1895,
      "ĠzawoÅĤ": 1896,
      "przedĠ": 1897,
      "Ġtra": 1898,
      "uczniÃ³w": 1899,
      "dopieroĠ": 1900,
      "drugie": 1901,
      "emĠw": 1902,
      "PrzepiÃ³": 1903,
      "PrzepiÃ³rzy": 1904,
      "omon": 1905,
      "rabi": 1906,
      "Ġzas": 1907,
      "kim": 1908,
      "cic": 1909,
      "staÅĤyĠ": 1910,
      "jakiej": 1911,
      "miaÅĤĠ": 1912,
      "ÅĽwiÄĻt": 1913,
      "ÄĩĠiĠ": 1914,
      "nigdyĠ": 1915,
      "tro": 1916,
      "roĠ": 1917,
      "gÅĤuch": 1918,
      "aÅĤaĠnaĠ": 1919,
      "tajem": 1920,
      "kÃ³wĠ": 1921,
      "worzyÅĤ": 1922,
      "âĢ¦ĠA": 1923,
      "rÃ³wnieÅ¼": 1924,
      "onymĠ": 1925,
      "rzÄħs": 1926,
      "strz": 1927,
      "dziew": 1928,
      "GdyĠ": 1929,
      "!âĢ¦ĊĊ": 1930,
      "Ġpodob": 1931,
      "wielkie": 1932,
      "nieĠwie": 1933,
      "dat": 1934,
      "sÅĤych": 1935,
      ".ĠJed": 1936,
      "rÄĻkÄĻ": 1937,
      "gÄħ": 1938,
      "leci": 1939,
      "Ã³jĠ": 1940,
      "czes": 1941,
      "peÅĤni": 1942,
      "ÄĩĠz": 1943,
      ",ĠÅ¼ebyĠ": 1944,
      "anegoĠ": 1945,
      "tra": 1946,
      "jad": 1947,
      "korepetytor": 1948,
      "ĠmÅĤod": 1949,
      "WiechowskiĠ": 1950,
      "nieĠu": 1951,
      "pl": 1952,
      "skut": 1953,
      "nami": 1954,
      ".ĠPoĠ": 1955,
      "otwar": 1956,
      "liĠw": 1957,
      "opieroĠ": 1958,
      ",ĠtylkoĠ": 1959,
      "samĠ": 1960,
      "urzÄĻd": 1961,
      "cen": 1962,
      "coÅĽ": 1963,
      "uczeÅĦ": 1964,
      "aĠwĠ": 1965,
      "ÅĽpiew": 1966,
      "gimĠ": 1967,
      "licyĠ": 1968,
      "ciw": 1969,
      "ory": 1970,
      "miot": 1971,
      "nicyĠ": 1972,
      "y,ĠÅ¼eĠ": 1973,
      "ÅĤeĠ": 1974,
      "rez": 1975,
      "erw": 1976,
      "ĠkaÅ¼d": 1977,
      "Mo": 1978,
      "miejscu": 1979,
      "ĠmÅĤodzie": 1980,
      "lerykow": 1981,
      "gwi": 1982,
      "ÅĤadzi": 1983,
      "litera": 1984,
      "tetter": 1985,
      "iru": 1986,
      "spi": 1987,
      "tychĠ": 1988,
      "czasu": 1989,
      "ÄħĠz": 1990,
      "kilkaĠ": 1991,
      "rĠ": 1992,
      "ĠbardzoĠ": 1993,
      "onymiĠ": 1994,
      "Ġzaj": 1995,
      "ska,Ġ": 1996,
      "ychĠw": 1997,
      "ĠtychĠ": 1998,
      "gaÅĤ": 1999,
      "uczu": 2000,
      "skoÅĦ": 2001,
      "patrz": 2002,
      "caÅĤÄħ": 2003,
      "ukaz": 2004,
      "upÅĤy": 2005,
      "Ġdrze": 2006,
      "szere": 2007,
      "widzi": 2008,
      "auczyciel": 2009,
      "grub": 2010,
      "zak": 2011,
      "bliÅ¼": 2012,
      "kom": 2013,
      "szczegÃ³l": 2014,
      "Cz": 2015,
      "ÅĽwiad": 2016,
      "tÃ³w": 2017,
      "izbyĠ": 2018,
      "prac": 2019,
      "Ġdost": 2020,
      "chÄĻ": 2021,
      "rub": 2022,
      "lepie": 2023,
      "godzinyĠ": 2024,
      "czego": 2025,
      "ĠmyÅĽl": 2026,
      "siadÅĤĠnaĠ": 2027,
      "wiÄħz": 2028,
      "nagleĠ": 2029,
      "knÄħÅĤ": 2030,
      "mru": 2031,
      ",ĠwĠ": 2032,
      "Äĩwi": 2033,
      "aĠzĠ": 2034,
      "sku,Ġ": 2035,
      "grom": 2036,
      "szedÅĤĠ": 2037,
      "*,Ġ*": 2038,
      "ĠpiÄĻ": 2039,
      "akiĠ": 2040,
      "gicz": 2041,
      "byÄĩ": 2042,
      "mok": 2043,
      "byÅĤĠ": 2044,
      "ne,Ġ": 2045,
      "bro": 2046,
      "dobr": 2047,
      "Å¼eb": 2048,
      "roÅĽ": 2049,
      "cznie": 2050,
      "miaÅĤ": 2051,
      "rwo": 2052,
      "owanoĠ": 2053,
      "ĠbÄĻdzie": 2054,
      "idzie": 2055,
      "ÅĤat": 2056,
      "ĠmiĠ": 2057,
      "St": 2058,
      "skrzy": 2059,
      ".ĠPrzy": 2060,
      "nd": 2061,
      "czej": 2062,
      "gospoda": 2063,
      "pÅĤyw": 2064,
      "!ĊĊâĢĶĠ": 2065,
      ",ĠgdyÅ¼Ġ": 2066,
      "ĠoĠ": 2067,
      "tÅĤuma": 2068,
      "mieÅĽci": 2069,
      "Ġby": 2070,
      "âĢŀstar": 2071,
      "Szwar": 2072,
      "omonowicz": 2073,
      "chle": 2074,
      "lasist": 2075,
      "kiewicz": 2076,
      "konie": 2077,
      "niezmier": 2078,
      "anychĠ": 2079,
      "Ġdro": 2080,
      "warzyĠ": 2081,
      "nale": 2082,
      ".ĠWy": 2083,
      "ĠwidziaÅĤ": 2084,
      "eb": 2085,
      "Ã³wdzie": 2086,
      "strzegÅĤ": 2087,
      "ĠsÅĤu": 2088,
      "nÄĻÅĤoĠ": 2089,
      "ÅĤoÅĽci": 2090,
      "chod": 2091,
      "pli": 2092,
      "Ġpy": 2093,
      "strasz": 2094,
      "rozmait": 2095,
      "nieĠprze": 2096,
      "fami": 2097,
      "Ġwym": 2098,
      "Ġwyraz": 2099,
      "caÅĤejĠ": 2100,
      "puÅĽci": 2101,
      "szczÄħc": 2102,
      "znowuĠ": 2103,
      "gÅĤowie": 2104,
      "okrop": 2105,
      "gna": 2106,
      "gÅĤowÄĻ": 2107,
      "âĢ¦âĢĿ": 2108,
      "JÃ³": 2109,
      "aÅĤem": 2110,
      "kieĠ": 2111,
      "nauczycielaĠ": 2112,
      "ĠmiaÅĤ": 2113,
      "Ġzami": 2114,
      "owyĠ": 2115,
      "kien": 2116,
      "rozpa": 2117,
      ",Ġu": 2118,
      "dzieÅĦ": 2119,
      "puszcz": 2120,
      "wiÄĻ": 2121,
      "koÅĤoĠ": 2122,
      ".ĊĊâĢĶĠN": 2123,
      "ruszyÅĤ": 2124,
      ".ĠOd": 2125,
      "ĠiĠu": 2126,
      "muĠsiÄĻ": 2127,
      ".ĊĊB": 2128,
      ",ĠpoĠ": 2129,
      "ÅĤon": 2130,
      "aÅĤyĠnaĠ": 2131,
      "ĠmoÅ¼": 2132,
      "WĠ": 2133,
      "rozmow": 2134,
      "lcze": 2135,
      "ÅĤyĠsiÄĻĠ": 2136,
      "bÅĤa": 2137,
      "naĠt": 2138,
      "rosyjskie": 2139,
      "tenĠ": 2140,
      "ziÄħ": 2141,
      "caÅĤeĠ": 2142,
      "aÅĤoĠsiÄĻĠ": 2143,
      "roÅ¼": 2144,
      "ĠsÄħ": 2145,
      "rycz": 2146,
      "Ġdw": 2147,
      "ÅĤud": 2148,
      "rozpo": 2149,
      ",ĠiĠ": 2150,
      "zawszeĠ": 2151,
      "Å¼yĠ": 2152,
      "swymĠ": 2153,
      "niÅ¼": 2154,
      "dziÅĤĠ": 2155,
      "fra": 2156,
      "nalaz": 2157,
      "mienie": 2158,
      "ekto": 2159,
      "emu": 2160,
      "stÄħpi": 2161,
      "ajÄħcychĠ": 2162,
      "aĠdoĠ": 2163,
      "grun": 2164,
      "ÅĦcaĠ": 2165,
      ",ĠzaĠ": 2166,
      "Ġkan": 2167,
      ",Ġpra": 2168,
      "miejscaĠ": 2169,
      "sweĠ": 2170,
      "szÅĤoĠ": 2171,
      "szer": 2172,
      "lo": 2173,
      "mach": 2174,
      "lÄĻ": 2175,
      "ref": 2176,
      "PrzepiÃ³r": 2177,
      "PrzepiÃ³rkow": 2178,
      ",ĠaniĠ": 2179,
      "utwor": 2180,
      "Kost": 2181,
      "ckle": 2182,
      "âĢŀBiru": 2183,
      "szkoÅĤyĠ": 2184,
      "ustan": 2185,
      "aÅĤyĠw": 2186,
      "ukry": 2187,
      "onej": 2188,
      "ktÃ³reĠ": 2189,
      "Ġzach": 2190,
      "ÄĩĠsiÄĻ": 2191,
      "uĠiĠÃ³wdzie": 2192,
      "cÃ³wĠ": 2193,
      "ÅĤĠsiÄĻĠnaĠ": 2194,
      "kra": 2195,
      "?ĠâĢĶĠzap": 2196,
      "ytaÅĤ": 2197,
      "âĢ¦ĊĊâĢĶĠA": 2198,
      "ÅĤÄĻ": 2199,
      ".ĠâĢŀ": 2200,
      ".ĠMarcin": 2201,
      "Ġpil": 2202,
      "ĠksztaÅĤ": 2203,
      "nÃ³st": 2204,
      "nach": 2205,
      "tychmiast": 2206,
      "wali": 2207,
      "czyÅĤĠ": 2208,
      "ĠiĠpo": 2209,
      "ÄĻb": 2210,
      "Ġprowa": 2211,
      "piÄĻ": 2212,
      "musz": 2213,
      "oli": 2214,
      "czÄħt": 2215,
      "zap": 2216,
      "osÃ³b": 2217,
      "gÅĤosem": 2218,
      "nieĠmog": 2219,
      "szkoleĠ": 2220,
      "ÅĤaĠnaĠ": 2221,
      "lep": 2222,
      "jednymĠ": 2223,
      "dziÅĤ": 2224,
      "knÄħÅĤĠ": 2225,
      "aÅĤaĠw": 2226,
      "zost": 2227,
      "lan": 2228,
      "ÅĽwiet": 2229,
      "ĠwĠsta": 2230,
      "a,ĠaĠ": 2231,
      "wid": 2232,
      "Ġdusz": 2233,
      "se": 2234,
      "mian": 2235,
      "przej": 2236,
      "Ġniez": 2237,
      "jakiÅĽ": 2238,
      "Å¼yÅĤĠsiÄĻ": 2239,
      "gromad": 2240,
      "staÅĤĠ": 2241,
      "zad": 2242,
      "spoglÄħd": 2243,
      "uczyÅĤ": 2244,
      "ÅĤaĠsiÄĻĠ": 2245,
      "cÄĻ": 2246,
      "Ġba": 2247,
      "egzamin": 2248,
      "musi": 2249,
      "kniÄĻt": 2250,
      "Ġdrugie": 2251,
      "waniaĠ": 2252,
      "ĠwykÅĤad": 2253,
      "amiÄĻt": 2254,
      ".ĠWtedyĠ": 2255,
      "tÄĻĠ": 2256,
      "kÄħd": 2257,
      "ens": 2258,
      "aÅĤĠsiÄĻĠdoĠ": 2259,
      "owych": 2260,
      "jaÅĤ": 2261,
      "stancjiĠ": 2262,
      "kimiĠ": 2263,
      "skÅĤad": 2264,
      "siadÅĤ": 2265,
      "Ġto": 2266,
      "Sie": 2267,
      "ksiÄĻ": 2268,
      "jeÅ¼eliĠ": 2269,
      ".ĠJak": 2270,
      "kona": 2271,
      "ĠwÅĤas": 2272,
      "szystkich": 2273,
      "ĠbyĠ": 2274,
      "âĢĿĠiĠ": 2275,
      "Paz": 2276,
      "anych": 2277,
      "aĠwy": 2278,
      ".ĠL": 2279,
      "mÅĤodzie": 2280,
      "ĠbyÅĤaĠ": 2281,
      "Somonowicz": 2282,
      "ont": 2283,
      "Ġposta": 2284,
      "schod": 2285,
      "rzo": 2286,
      "czwar": 2287,
      "zwyczaj": 2288,
      "oĠtoĠ": 2289,
      "zgÃ³": 2290,
      "pust": 2291,
      "dusz": 2292,
      "nat": 2293,
      "yĠwy": 2294,
      "ud": 2295,
      "rÄĻd": 2296,
      "cznieĠ": 2297,
      "ojciec": 2298,
      "ajĠ": 2299,
      "no,Ġ": 2300,
      "mam": 2301,
      "cieÅ¼": 2302,
      "czyÄĩ": 2303,
      "ulic": 2304,
      ".ĠChÅĤo": 2305,
      "szereg": 2306,
      "niecoĠ": 2307,
      "nauczycielĠ": 2308,
      "gwaÅĤ": 2309,
      "Ġwyso": 2310,
      "caÅĤaĠ": 2311,
      "ÄĩĠsiÄĻĠ": 2312,
      ":ĠâĢŀ": 2313,
      "raÅº": 2314,
      "ko,Ġ": 2315,
      ",Ġjakie": 2316,
      "trud": 2317,
      "niesie": 2318,
      "wit": 2319,
      "nieĠk": 2320,
      "grze": 2321,
      "Wol": 2322,
      "brz": 2323,
      "ilo": 2324,
      "one": 2325,
      "Ġdomu": 2326,
      "nieĠwĠ": 2327,
      "awszyĠ": 2328,
      "ĠsÅĤ": 2329,
      "czasuĠ": 2330,
      "ani": 2331,
      "ÄħÅ¼": 2332,
      "pÄĻ": 2333,
      "jakich": 2334,
      "skaz": 2335,
      "yĠpo": 2336,
      "ÅĤy,Ġ": 2337,
      "czyÅĤaĠ": 2338,
      "rewni": 2339,
      "uczniowie": 2340,
      "rozumi": 2341,
      "razu": 2342,
      "ĠsÅĤysze": 2343,
      "we": 2344,
      "owÄħ": 2345,
      "aĠnaĠ": 2346,
      "caÅĤymĠ": 2347,
      "sow": 2348,
      "onejĠ": 2349,
      "II": 2350,
      "arytmety": 2351,
      "nadtoĠ": 2352,
      "caÅĤÄħĠ": 2353,
      "lepi": 2354,
      "ajÄĻ": 2355,
      "kowiĠ": 2356,
      "pamiÄĻ": 2357,
      "ech": 2358,
      "Ġmiejsc": 2359,
      "cy,Ġ": 2360,
      "czeniaĠ": 2361,
      "bÄĻd": 2362,
      "nieĠmo": 2363,
      "Å¼ycie": 2364,
      "deÅĤ": 2365,
      "ekĠiĠ": 2366,
      ",ĠaÅ¼ebyĠ": 2367,
      "ÅĽciÄħĠ": 2368,
      "aczmienie": 2369,
      "ĠsamĠ": 2370,
      "rozwi": 2371,
      "siÄħdz": 2372,
      "eĠdrzwi": 2373,
      "samoĠ": 2374,
      "rado": 2375,
      "gnÄħc": 2376,
      "rozt": 2377,
      "mÄĻ": 2378,
      "rzeczywi": 2379,
      "Ġklasy": 2380,
      "naĠiĠ": 2381,
      "Å¼elaz": 2382,
      "wiat": 2383,
      "resztÄħĠ": 2384,
      "jednegoĠ": 2385,
      "radcaĠ": 2386,
      ".ĠJe": 2387,
      "JÄĻdrek": 2388,
      "Sztetter": 2389,
      "WÅĤadzi": 2390,
      "ckle'": 2391,
      "okolic": 2392,
      "ĠznowuĠ": 2393,
      "yl": 2394,
      "uwaÅ¼": 2395,
      "Ġpier": 2396,
      "ÅĽmi": 2397,
      "piÄĻk": 2398,
      "ĠtenĠ": 2399,
      "wal": 2400,
      "ano": 2401,
      "Ġznowu": 2402,
      "ÅĤyĠsiÄĻ": 2403,
      "teraz": 2404,
      "Å¼e,Ġ": 2405,
      ",Ġo": 2406,
      "leÅĽ": 2407,
      ".ĊĊâĢĶĠCoĠ": 2408,
      "juÅ¼Ġw": 2409,
      "dalekoĠ": 2410,
      "obej": 2411,
      "Ġtu": 2412,
      "ĠdomuĠ": 2413,
      "jakĠgdybyĠ": 2414,
      "owe": 2415,
      "staÅĤaĠ": 2416,
      "ster": 2417,
      "biegÅĤ": 2418,
      ",ĠpanĠ": 2419,
      "ĠdwaĠ": 2420,
      "pyĠ": 2421,
      "aÅĤĠzĠ": 2422,
      "natychmiast": 2423,
      ",ĠczyĠ": 2424,
      "aÅĤ,ĠÅ¼eĠ": 2425,
      "Marcinka": 2426,
      "famili": 2427,
      "stam": 2428,
      "stamtÄħd": 2429,
      "ĠzawszeĠ": 2430,
      "rem": 2431,
      "aÅĤĠsiÄĻĠw": 2432,
      "achĠiĠ": 2433,
      "owegoĠ": 2434,
      "raÅ¼": 2435,
      "dzeniaĠ": 2436,
      "pry": 2437,
      "bier": 2438,
      "âĢ¦âĢĿĊĊ": 2439,
      "osy": 2440,
      "Ġdrog": 2441,
      "trzeszcz": 2442,
      "dÄĻ": 2443,
      "kiegoĠ": 2444,
      "aÅĤĠmu": 2445,
      "wer": 2446,
      "obc": 2447,
      "Mi": 2448,
      "siÃ³dmej": 2449,
      "ÅĤoÅ¼yÅĤ": 2450,
      "ary": 2451,
      "idÄħc": 2452,
      "nicĠnie": 2453,
      "naÅĤ": 2454,
      "Ġmusi": 2455,
      "zj": 2456,
      "nieĠbyÅĤoĠ": 2457,
      "Ġprawie": 2458,
      "ĠdopieroĠ": 2459,
      "anej": 2460,
      "pot": 2461,
      "niÃ³s": 2462,
      "PiÄħt": 2463,
      "bardziejĠ": 2464,
      "ÅĽmiertel": 2465,
      "dzyĠ": 2466,
      "czytaÅĤ": 2467,
      "wig": 2468,
      "art": 2469,
      "rot": 2470,
      "nÄĻdz": 2471,
      "Ġwido": 2472,
      "trw": 2473,
      "ĠpamiÄĻ": 2474,
      "list": 2475,
      ".ĊĊWĠ": 2476,
      "czteryĠ": 2477,
      "rozbi": 2478,
      "Ġtego": 2479,
      "szÅĤyĠ": 2480,
      "ina": 2481,
      "cje": 2482,
      "red": 2483,
      "Ġpedago": 2484,
      "Ġwar": 2485,
      "iem": 2486,
      "syĠ": 2487,
      "kiĠw": 2488,
      "szaf": 2489,
      "owiÄħz": 2490,
      "najmniej": 2491,
      "jÃ³w": 2492,
      "Jaczmienie": 2493,
      "czÅĤowiek": 2494,
      "ĠwielmoÅ¼": 2495,
      "mur": 2496,
      "CzyĠ": 2497,
      "kÃ³j": 2498,
      "mÃ³w": 2499,
      "zaraz": 2500,
      "Ã³Å¼Ġ": 2501,
      "Fi": 2502,
      "prÃ³": 2503,
      "szel": 2504,
      "kaÅ¼d": 2505,
      "stronyĠ": 2506,
      "bla": 2507,
      "oby": 2508,
      "nimiĠ": 2509,
      "daĠ": 2510,
      "pomoc": 2511,
      "Py": 2512,
      "nieĠzĠ": 2513,
      "Dale": 2514,
      ",ĠaĠnawet": 2515,
      "celari": 2516,
      "ludzie": 2517,
      "wzro": 2518,
      "rokuĠ": 2519,
      "fol": 2520,
      "folwar": 2521,
      "wz": 2522,
      "fur": 2523,
      "interes": 2524,
      "bardziej": 2525,
      "dzw": 2526,
      "dzwon": 2527,
      "Ġkro": 2528,
      "dziÄĻ": 2529,
      "Szwarc": 2530,
      "lok": 2531,
      "siÄħt": 2532,
      "riu": 2533,
      "RadekĠ": 2534,
      "Walec": 2535,
      "Zygier": 2536,
      "ÅĦstwoĠ": 2537,
      "pÅĤa": 2538,
      "zgÃ³rz": 2539,
      "lot": 2540,
      "led": 2541,
      "aniĠBorowiczowaĠ": 2542,
      "Åģ": 2543,
      "Ġprzerw": 2544,
      "mysÅĤ": 2545,
      "gorz": 2546,
      "nÄħĠiĠ": 2547,
      "czap": 2548,
      "smut": 2549,
      "rozko": 2550,
      "nikÅĤ": 2551,
      "stojÄħc": 2552,
      "okry": 2553,
      "chÅĤopcaĠ": 2554,
      "?ĊĊâĢĶĠA": 2555,
      "Ġzaraz": 2556,
      "aÅĤĠsiÄĻĠwĠ": 2557,
      "kaÅĤ": 2558,
      "bole": 2559,
      "miejsc": 2560,
      "mimoĠ": 2561,
      "spojrze": 2562,
      "Å¼d": 2563,
      "Ã³z": 2564,
      "wil": 2565,
      "miejsceĠ": 2566,
      "buch": 2567,
      ",ĠzĠ": 2568,
      "zu": 2569,
      "liĠz": 2570,
      "spad": 2571,
      "ywaÅĤĠ": 2572,
      ".ĠByÅĤaĠ": 2573,
      "CÃ³Å¼": 2574,
      ",ĠproszÄĻ": 2575,
      "ceĠiĠ": 2576,
      "ÅĽci,Ġ": 2577,
      "wrac": 2578,
      "coraz": 2579,
      "ate": 2580,
      "ÄĩĠoĠ": 2581,
      "ĠtakiĠ": 2582,
      "pomin": 2583,
      ",ĠktÃ³raĠ": 2584,
      "jrzaÅĤĠnaĠ": 2585,
      "nas": 2586,
      "rap": 2587,
      "nogiĠ": 2588,
      "baw": 2589,
      "noÅĽÄĩĠ": 2590,
      "noÅĽciÄħ": 2591,
      "ÄĩĠzĠ": 2592,
      "czuÅĤ": 2593,
      "rozpacz": 2594,
      "Ġprzecie": 2595,
      "mÃ³wiÅĤ": 2596,
      ".ĊĊâĢĶĠO": 2597,
      "aĠzaĠ": 2598,
      "takiĠ": 2599,
      "ÄĩĠdoĠ": 2600,
      "kiem,Ġ": 2601,
      "nast": 2602,
      "aki": 2603,
      "tch": 2604,
      "kÄĻĠiĠ": 2605,
      "wszystkoĠ": 2606,
      "ony": 2607,
      "Ġmieszka": 2608,
      ".ĠZaĠ": 2609,
      "ÅĤszyĠ": 2610,
      "owskich": 2611,
      "jas": 2612,
      "Po": 2613,
      "taj": 2614,
      "nieĠo": 2615,
      "sur": 2616,
      "kated": 2617,
      "onÄħĠ": 2618,
      ".ĠDopieroĠ": 2619,
      "kazyw": 2620,
      "ÅĽciwie": 2621,
      "aÅĤĠd": 2622,
      "pomni": 2623,
      "wiej": 2624,
      "staryĠ": 2625,
      ":ĊĊĊ": 2626,
      "ĠpoĠrosyj": 2627,
      "profesor": 2628,
      "Ġpor": 2629,
      "giemĠ": 2630,
      "Ġzim": 2631,
      "jakÄħ": 2632,
      "PanĠ": 2633,
      "bezĠ": 2634,
      "arÃ³w": 2635,
      ".ĠZĠ": 2636,
      "Ġwz": 2637,
      "ychowa": 2638,
      "niebie": 2639,
      "Ġwiadomo": 2640,
      "ÅĤaĠw": 2641,
      "ĠzĠb": 2642,
      "wÅĤad": 2643,
      "namiĠ": 2644,
      "Ġze": 2645,
      "akÃ³w": 2646,
      ".ĠWszyscyĠ": 2647,
      "bliÅ¼yÅĤĠsiÄĻ": 2648,
      "kachĠ": 2649,
      "gÅĤosemĠ": 2650,
      "ektora": 2651,
      "ĠmoÅ¼eĠ": 2652,
      "ÅĤĠsiÄĻĠdoĠ": 2653,
      "tat": 2654,
      "ciaÅĤ": 2655,
      "ĠzĠt": 2656,
      "roku": 2657,
      "rozkaz": 2658,
      "prz": 2659,
      "niena": 2660,
      "ĠkuĠ": 2661,
      "ÅĤĠdoĠ": 2662,
      "skieĠ": 2663,
      "skuĠ": 2664,
      "rÃ³Å¼neĠ": 2665,
      "szÅĤaĠ": 2666,
      "stareĠ": 2667,
      ".ĊĊĊĊ": 2668,
      "pt": 2669,
      "ĠĠĠĠ": 2670,
      ",ĠÅ¼eĠtoĠ": 2671,
      "Ġsekre": 2672,
      "ĠzĠw": 2673,
      "laczegoĠ": 2674,
      "owo": 2675,
      "Klerykow": 2676,
      "skiejĠ": 2677,
      "Ġkamie": 2678,
      "imie": 2679,
      "ora": 2680,
      "rzebi": 2681,
      "kier": 2682,
      "chleb": 2683,
      "cÄħc": 2684,
      "turyĠ": 2685,
      "ziemi": 2686,
      ".ĠPod": 2687,
      "ct": 2688,
      "uÅĤ": 2689,
      "strzel": 2690,
      "Pyrzo": 2691,
      "noprÃ³Å¼": 2692,
      "MarcinaĠ": 2693,
      "dzieÅĦĠ": 2694,
      "zim": 2695,
      "ÅĽnieg": 2696,
      "aÅĤyĠsiÄĻĠ": 2697,
      "ĠswymĠ": 2698,
      "ĠpewnegoĠ": 2699,
      "robot": 2700,
      "nieĠt": 2701,
      "bok": 2702,
      "ĠpiÄĻk": 2703,
      "owejĠchwiliĠ": 2704,
      "Ġtwarz": 2705,
      "goĠdoĠ": 2706,
      "wiesz": 2707,
      "ĠdÅĤugie": 2708,
      "stronÄĻ": 2709,
      "ciÅĤĠ": 2710,
      "gÅĤowÄĻĠiĠ": 2711,
      "ÅĦcu": 2712,
      "kolor": 2713,
      "toĠjest": 2714,
      "cza": 2715,
      "ajÄħĠ": 2716,
      "pla": 2717,
      "Ġzda": 2718,
      "ymĠw": 2719,
      "ĠpewnymĠ": 2720,
      "znowu": 2721,
      "gÄħĠ": 2722,
      "niespo": 2723,
      "Ã³Åºniej": 2724,
      "biel": 2725,
      "dyn": 2726,
      "aÅĦ": 2727,
      "jednoĠ": 2728,
      "mnÃ³st": 2729,
      ".ĊĊGdyĠ": 2730,
      "Å¼Ã³ÅĤ": 2731,
      "ÄħĠwĠ": 2732,
      "twarz": 2733,
      "gwaÅĤtow": 2734,
      "corazĠ": 2735,
      "rajÄħc": 2736,
      "nien": 2737,
      "âĢĶĠmÃ³wi": 2738,
      "por": 2739,
      "biaÅĤ": 2740,
      "ajÄħcĠsiÄĻĠdoĠ": 2741,
      "eĠwszystki": 2742,
      "miar": 2743,
      "onyĠbyÅĤ": 2744,
      "ĠkÄħt": 2745,
      "sion": 2746,
      "len": 2747,
      "nej,Ġ": 2748,
      "a,ĠktÃ³r": 2749,
      "Ġzost": 2750,
      "pokoju": 2751,
      "szÄħc": 2752,
      "Pie": 2753,
      "dosy": 2754,
      "caÅĤkowi": 2755,
      "!âĢ¦Ġ": 2756,
      "szedÅĤĠnaĠ": 2757,
      "izb": 2758,
      "cof": 2759,
      "owy": 2760,
      "dzwyczaj": 2761,
      "gan": 2762,
      "Ġkilku": 2763,
      "ĠwolnaĠ": 2764,
      "pÃ³ÅĤ": 2765,
      "ĠterazĠ": 2766,
      "eraz": 2767,
      "ĠwĠtymĠ": 2768,
      "ÅĤÄĻd": 2769,
      "nieĠjest": 2770,
      "orst": 2771,
      "dziec": 2772,
      "Ġsyn": 2773,
      "ciÄħgnÄħÅĤĠ": 2774,
      "gÅĤa": 2775,
      "niesi": 2776,
      "kojuĠ": 2777,
      "Gawronek": 2778,
      "Ġjak": 2779,
      "ĠnieĠm": 2780,
      "Ġkrze": 2781,
      "kaĠwy": 2782,
      "chni": 2783,
      "sen": 2784,
      "kawale": 2785,
      "man": 2786,
      "Michcik": 2787,
      "ÅĤawie": 2788,
      "ho": 2789,
      "Na": 2790,
      "nakĠ": 2791,
      "mod": 2792,
      "chwilÄĻ": 2793,
      "niekiedyĠ": 2794,
      "czaÅĤĠ": 2795,
      "dzeĠ": 2796,
      "amiĠnaĠ": 2797,
      "Ã³ÅºniejĠ": 2798,
      "suw": 2799,
      "ĠgoĠ": 2800,
      "nabo": 2801,
      ",ĠaĠw": 2802,
      "ĠtedyĠ": 2803,
      ".ĠÅ»": 2804,
      "robiÄĩ": 2805,
      "samegoĠ": 2806,
      ".ĠNa": 2807,
      "nieniaĠ": 2808,
      "kola": 2809,
      "gramaty": 2810,
      "lubi": 2811,
      "fizy": 2812,
      "owaÅĤyĠ": 2813,
      "stw": 2814,
      "gon": 2815,
      ",Ġod": 2816,
      "daÄĩĠbyÅĤoĠ": 2817,
      "jaÅĤow": 2818,
      "ĠbÄĻd": 2819,
      "niÅĤ": 2820,
      "Rosj": 2821,
      "godzin": 2822,
      ":ĊĊâĢĶĠP": 2823,
      "ber": 2824,
      "czneĠ": 2825,
      "jÄħÅĤ": 2826,
      "âĢĶĠrzekÅĤĠ": 2827,
      ",ĠktÃ³regoĠ": 2828,
      "coĠdoĠ": 2829,
      "rwi": 2830,
      "czym": 2831,
      "oÅĤa": 2832,
      ".ĊĊâĢĶĠTak": 2833,
      "czasĠ": 2834,
      "stole": 2835,
      "Ġtym": 2836,
      "kot": 2837,
      "ÅĤaĠiĠ": 2838,
      "wrÃ³ci": 2839,
      "owaneĠ": 2840,
      "siÄĻg": 2841,
      "szych": 2842,
      "cisk": 2843,
      "bru": 2844,
      "dziÅĤyĠ": 2845,
      "gÅĤosĠ": 2846,
      "samo": 2847,
      "mÄĻÅ¼": 2848,
      "razuĠ": 2849,
      "goĠzĠ": 2850,
      "skona": 2851,
      "Ġdalej": 2852,
      "mieszk": 2853,
      "Å¼yciaĠ": 2854,
      "cjaĠ": 2855,
      "liÅ¼": 2856,
      "feso": 2857,
      "cjeĠ": 2858,
      "cichoĠ": 2859,
      "klerykow": 2860,
      "nadzie": 2861,
      "uz": 2862,
      "ÅĤug": 2863,
      "Dalesz": 2864,
      "radz": 2865,
      "Grzebi": 2866,
      "obja": 2867,
      "zor": 2868,
      "Ġpob": 2869,
      "spomnie": 2870,
      ".ĠCzas": 2871,
      "dziesiÄħt": 2872,
      "Bu": 2873,
      "Ġbad": 2874,
      "Waleckie": 2875,
      "okoÅĤoĠ": 2876,
      "Ġmoc": 2877,
      "staj": 2878,
      "BorowiczĠ": 2879,
      "szlachcic": 2880,
      "miaÅĤaĠ": 2881,
      "alec": 2882,
      "aÅ¼Ġ": 2883,
      "utrz": 2884,
      "ktÃ³rymĠ": 2885,
      "terazĠ": 2886,
      "Ġprzestrze": 2887,
      "naĠd": 2888,
      "zas": 2889,
      "ĠpeÅĤ": 2890,
      "siÄĻĠu": 2891,
      "goÅĽ": 2892,
      "rwszyĠ": 2893,
      "aÅĤu": 2894,
      "chat": 2895,
      "kana": 2896,
      "amiĠw": 2897,
      "Ġznajdow": 2898,
      "kiĠz": 2899,
      "rodze": 2900,
      "Ġpyta": 2901,
      "nieĠdoĠ": 2902,
      "szepnÄħÅĤ": 2903,
      "Bog": 2904,
      "dobro": 2905,
      "osta": 2906,
      "obyw": 2907,
      "lem": 2908,
      "remĠ": 2909,
      "kandy": 2910,
      "ÄħĠwy": 2911,
      "bÅĤy": 2912,
      "kraj": 2913,
      "lit": 2914,
      "Å¼eniaĠ": 2915,
      "dziesiÄĻ": 2916,
      "cien": 2917,
      "kre": 2918,
      "ÄĩĠnie": 2919,
      "piÄħc": 2920,
      "nyĠw": 2921,
      "brzy": 2922,
      "koszu": 2923,
      "choÄĩ": 2924,
      "ÅĤaĠwĠ": 2925,
      "ktu": 2926,
      "nieĠwi": 2927,
      "dziaÅĤaĠ": 2928,
      "uszcz": 2929,
      "samaĠ": 2930,
      "szczyz": 2931,
      "siÄħc": 2932,
      "ĠkiedyĠ": 2933,
      "iad": 2934,
      "ĠtrzebaĠ": 2935,
      "paniĠBorowiczowaĠ": 2936,
      "be": 2937,
      "mÃ³jĠ": 2938,
      "âĢ¦ĠâĢĶĠrzekÅĤ": 2939,
      "pch": 2940,
      "Ġkuch": 2941,
      "ejĠiĠ": 2942,
      "Ni": 2943,
      "ÅĽÄĩĠiĠ": 2944,
      ".ĠMarcinek": 2945,
      "ÅĤok": 2946,
      "chwyci": 2947,
      "poz": 2948,
      "czeniuĠ": 2949,
      "mag": 2950,
      "najdow": 2951,
      "otworzyÅĤ": 2952,
      "ciekawo": 2953,
      "czytaÅĤĠ": 2954,
      "szy,Ġ": 2955,
      "rie": 2956,
      ".ĠTen": 2957,
      "aÄĩĠbyÅĤoĠ": 2958,
      "kak": 2959,
      "fak": 2960,
      "Ġpatrze": 2961,
      "ÄĩĠwĠ": 2962,
      "kazy": 2963,
      "tÄħ": 2964,
      "Å¼al": 2965,
      "caÅĤej": 2966,
      "swychĠ": 2967,
      "okolicyĠ": 2968,
      "Bo": 2969,
      ",Ċ": 2970,
      "forsow": 2971,
      "cznej": 2972,
      "olo": 2973,
      "Ġtre": 2974,
      "Ġtrud": 2975,
      "yÅĽl": 2976,
      "jednakĠ": 2977,
      "Ġwypad": 2978,
      "rosyjskiej": 2979,
      "arÃ³wnoĠ": 2980,
      "jegoĠw": 2981,
      "czaÅĤ": 2982,
      "czyÅĤyĠ": 2983,
      "nychĠiĠ": 2984,
      "grz": 2985,
      "obraz": 2986,
      "szliĠ": 2987,
      "yrektor": 2988,
      "nieĠnaĠ": 2989,
      ".ĊĊâĢĶĠK": 2990,
      "domu": 2991,
      "cznyĠ": 2992,
      "ĠtakĠzw": 2993,
      "odĠnie": 2994,
      "czel": 2995,
      "mak": 2996,
      "trzyĠ": 2997,
      "ÅĦc": 2998,
      "dziewi": 2999,
      "ciemĠ": 3000,
      "reli": 3001,
      "sre": 3002,
      "sÅĤysze": 3003,
      "ĠpanuĠ": 3004,
      "cjÄĻ": 3005,
      "mÃ³wiÄħc": 3006,
      "cent": 3007,
      "ÅĽciaĠ": 3008,
      "nieĠmaĠ": 3009,
      "dwuĠ": 3010,
      ".ĠPan": 3011,
      "dobrzeĠ": 3012,
      "Ġteat": 3013,
      "ony,Ġ": 3014,
      "nÄĻtrz": 3015,
      ",ĠktÃ³rychĠ": 3016,
      "rzyma": 3017,
      "oÅĽ": 3018,
      "stwo": 3019,
      "skar": 3020,
      "waj": 3021,
      "rujÄħc": 3022,
      ".ĠTo": 3023,
      "nychĠw": 3024,
      "wĠKlerykowie": 3025,
      "itd.": 3026,
      "matkaĠ": 3027,
      ",Ġpod": 3028,
      "dam": 3029,
      ".ĠStar": 3030,
      "rÃ³c": 3031,
      "osie": 3032,
      "nieraz": 3033,
      "ĠprawieĠ": 3034,
      ".ĠToĠ": 3035,
      "ana": 3036,
      "aÅ¼dyĠ": 3037,
      "ĠklasieĠ": 3038,
      "fun": 3039,
      "zĠb": 3040,
      "wym": 3041,
      "ografi": 3042,
      "dwu": 3043,
      "Rosja": 3044,
      "piÄħtej": 3045,
      "jÄĻzykaĠ": 3046,
      "odby": 3047,
      "aÅĤĠmuĠ": 3048,
      "refek": 3049,
      "wach": 3050,
      "cÃ³r": 3051,
      "okien": 3052,
      "cukier": 3053,
      "obowiÄħz": 3054,
      "fer": 3055,
      "gal": 3056,
      "spraw": 3057,
      "Mie": 3058,
      "LeimĠ": 3059,
      "kolegÃ³w": 3060,
      "syst": 3061,
      "ty,Ġ": 3062,
      "ÅºrÃ³d": 3063,
      "Kostriu": 3064,
      "Pal": 3065,
      "PÅĤo": 3066,
      "PÅĤonie": 3067,
      "PÅĤoniewicz": 3068,
      "moklasist": 3069,
      "stycz": 3070,
      "odwie": 3071,
      "smu": 3072,
      "pak": 3073,
      "ÅĽl": 3074,
      "lej": 3075,
      ".ĠWi": 3076,
      ".ĠTwarz": 3077,
      "chÅĤopak": 3078,
      "ĠtyleĠ": 3079,
      "nÄħ,Ġ": 3080,
      "ileĠ": 3081,
      "kaĠw": 3082,
      "koÅĤnie": 3083,
      "ki,Ġz": 3084,
      "rÄĻdkoĠ": 3085,
      "kiej": 3086,
      "sÄĻ": 3087,
      "szuk": 3088,
      ",Ġzd": 3089,
      ".ĠRoz": 3090,
      "ĠpÅĤa": 3091,
      "anaĠ": 3092,
      ",ĠwĠktÃ³r": 3093,
      "lini": 3094,
      ".ĊĊâĢĶĠToĠ": 3095,
      "ĠswojÄħ": 3096,
      "PoĠ": 3097,
      "szegoĠ": 3098,
      "Ġmin": 3099,
      "tabli": 3100,
      "trafi": 3101,
      ".ĊĊâĢĶĠAĠ": 3102,
      "dziur": 3103,
      "czerw": 3104,
      "ÅĤoÅĽciĠ": 3105,
      "ogÃ³": 3106,
      "ogÃ³leĠ": 3107,
      "rzeniaĠ": 3108,
      "ton": 3109,
      "iĠroz": 3110,
      "dym": 3111,
      "rodzicÃ³w": 3112,
      "gat": 3113,
      "ofi": 3114,
      "siÄĻĠza": 3115,
      "ÅĤysz": 3116,
      "uwag": 3117,
      "dzwo": 3118,
      "egoĠw": 3119,
      "okÅĤad": 3120,
      "scy": 3121,
      "Ġkierun": 3122,
      "gest": 3123,
      "Ġzwyk": 3124,
      "Lej": 3125,
      "mniej": 3126,
      "dzaĠ": 3127,
      "gÅĤu": 3128,
      "oczym": 3129,
      ".ĊĊR": 3130,
      "aÅĤĠpo": 3131,
      "ÄĻĠoĠ": 3132,
      "byÅĽ": 3133,
      "bymĠ": 3134,
      "mojaĠ": 3135,
      "resztÄħ": 3136,
      "siÄĻĠiĠ": 3137,
      "liz": 3138,
      "MaÅĤ": 3139,
      "zdÅĤu": 3140,
      "Ġsiebie": 3141,
      "stwoĠ": 3142,
      "zdumie": 3143,
      "waÅĤaĠ": 3144,
      "Ġwszystkie": 3145,
      "aÅĤĠsobie": 3146,
      "Äħcie": 3147,
      "steĠ": 3148,
      ".ĊĊU": 3149,
      "dzieliĠ": 3150,
      "Ġsiedzi": 3151,
      ",Ġpat": 3152,
      "rozleg": 3153,
      "us": 3154,
      "okn": 3155,
      "izbie": 3156,
      "wiÄĻkszo": 3157,
      ".ĊĊByÅĤ": 3158,
      "robiÅĤ": 3159,
      "stanow": 3160,
      "?ĠâĢĶĠsp": 3161,
      "ÅĤĠoczyĠ": 3162,
      "czasem": 3163,
      "Ġkrok": 3164,
      "koÅĤaĠ": 3165,
      "Ġmilcze": 3166,
      "âĢĶĠrzekÅĤ": 3167,
      "ÅĦcÃ³w": 3168,
      "ÅĤyĠwĠ": 3169,
      "upÅĤywie": 3170,
      "gwar": 3171,
      "owarzysz": 3172,
      "ĠtakiegoĠ": 3173,
      "mÃ³g": 3174,
      "Å»yd": 3175,
      "czÄĻstoĠ": 3176,
      "Ġbrod": 3177,
      "ja,Ġ": 3178,
      "Ġbut": 3179,
      "ĠtrzyĠ": 3180,
      "lemĠ": 3181,
      "ĠporzÄħd": 3182,
      "ĠsÄħsied": 3183,
      "rofesor": 3184,
      ".ĠDzie": 3185,
      "jajÄħc": 3186,
      "cer": 3187,
      ".ĠÅļ": 3188,
      "przeciw": 3189,
      "opowiad": 3190,
      ".ĊĊPoĠ": 3191,
      ".ĊĊI": 3192,
      "Ġprzypad": 3193,
      "formu": 3194,
      "Ġprac": 3195,
      "alnyĠ": 3196,
      "codzien": 3197,
      "powtarz": 3198,
      "klasyĠw": 3199,
      "wied": 3200,
      "zja": 3201,
      "ychĠk": 3202,
      "legÅĤo": 3203,
      "zda": 3204,
      "wĠtymĠ": 3205,
      "nud": 3206,
      "goĠza": 3207,
      "ÅĤoÅ¼y": 3208,
      "okoĠ": 3209,
      "ktÃ³rejĠ": 3210,
      "niĠz": 3211,
      "Äħcz": 3212,
      "blad": 3213,
      ",Ġpanie": 3214,
      "NaĠ": 3215,
      "Ġmieszk": 3216,
      "okaĠ": 3217,
      "aÅĤĠsiÄĻĠnaĠ": 3218,
      "dar": 3219,
      "Ġteraz": 3220,
      "razem": 3221,
      "liwo": 3222,
      "dro": 3223,
      "anejĠ": 3224,
      "siÄĻ,Ġ": 3225,
      "rwa": 3226,
      "ny,ĠÅ¼eĠ": 3227,
      "!ĠâĢĶĠzawoÅĤ": 3228,
      "jakĠw": 3229,
      "Ka": 3230,
      "ane": 3231,
      "Polak": 3232,
      "Ġpis": 3233,
      "Star": 3234,
      "nikĠ": 3235,
      "der": 3236,
      "iÅĽÄĩ": 3237,
      ".ĠDoĠ": 3238,
      "toteÅ¼Ġ": 3239,
      "studi": 3240,
      ".ĠPra": 3241,
      "aÅĤĠsiÄĻĠzĠ": 3242,
      "zer": 3243,
      "litycz": 3244,
      "ujÄħcyĠ": 3245,
      "ylkoĠ": 3246,
      ".ĊĊPo": 3247,
      "przyby": 3248,
      "ndur": 3249,
      "Å¼ywi": 3250,
      "gospodarzyĠ": 3251,
      "owymĠ": 3252,
      "ĠnieĠwie": 3253,
      "wÅĤo": 3254,
      "owany": 3255,
      "ĠkrÃ³t": 3256,
      "szyn": 3257,
      "DoĠ": 3258,
      "Ġklasy,Ġ": 3259,
      "ĠmieÅĽci": 3260,
      "czniowie": 3261,
      "warg": 3262,
      "nieĠmÃ³gÅĤ": 3263,
      "piÄĻt": 3264,
      "myÅĽli": 3265,
      "ram": 3266,
      "sÄħsied": 3267,
      "Ġpapie": 3268,
      "liĠnaĠ": 3269,
      "jednej": 3270,
      "tÃ³Å¼": 3271,
      "chodziÅĤ": 3272,
      "ĠmyÅĽliĠ": 3273,
      "rodzajuĠ": 3274,
      "Ġpu": 3275,
      "istneĠ": 3276,
      "giel": 3277,
      "celu": 3278,
      "ychĠz": 3279,
      ".ĠIn": 3280,
      "jeÅĽ": 3281,
      "jeÅĽliĠ": 3282,
      "ÅĤoĠiĠ": 3283,
      "ostawi": 3284,
      "aÅĤemĠ": 3285,
      "mawi": 3286,
      "przedmiot": 3287,
      "aĠPrzepiÃ³rzy": 3288,
      "aĠPrzepiÃ³rzyca": 3289,
      ",ĠaĠz": 3290,
      "starusz": 3291,
      "jesie": 3292,
      "pÄĻdz": 3293,
      "Ġziemi": 3294,
      "ĠbyÅĤyĠ": 3295,
      "ĠnieĠz": 3296,
      "skry": 3297,
      "wieczor": 3298,
      "mierz": 3299,
      "koz": 3300,
      "gry": 3301,
      "jedenĠzĠ": 3302,
      "Gum": 3303,
      "Gumowicz": 3304,
      "ÅĽÄĩĠnaĠ": 3305,
      "siÅĤĠ": 3306,
      "sobÄħ": 3307,
      "ewnÄĻtrz": 3308,
      "aÅĤĠsiÄĻĠsÅĤysze": 3309,
      "tyleĠ": 3310,
      "umys": 3311,
      "Borowicz,Ġ": 3312,
      "staregoĠ": 3313,
      "korzy": 3314,
      "fig": 3315,
      "szÃ³st": 3316,
      "Palusz": 3317,
      ".ĠRadek": 3318,
      "WÅĤadzioĠ": 3319,
      "âĢŀFi": 3320,
      "ger": 3321,
      "Stog": 3322,
      "miejsce": 3323,
      "owanych": 3324,
      "pierwszej": 3325,
      "nieustan": 3326,
      "tymiĠ": 3327,
      "bowie": 3328,
      "aÅĤy,Ġ": 3329,
      ".ĊĊPanĠ": 3330,
      "juÅ¼ĠtoĠ": 3331,
      "ÅĤz": 3332,
      "lar": 3333,
      "rozum": 3334,
      "anymĠ": 3335,
      "zaĠtoĠ": 3336,
      "brzeg": 3337,
      "gdzieĠ": 3338,
      "ĠwoÅĤaÅĤĠ": 3339,
      "Gdzie": 3340,
      "ÅĤeb": 3341,
      "Ġbo": 3342,
      "jednÄħ": 3343,
      "rÃ³g": 3344,
      "ĠbiaÅĤ": 3345,
      "weĠ": 3346,
      "kochan": 3347,
      "?ĊĊâĢĶĠTak": 3348,
      ".ĠTrze": 3349,
      "!ĠA": 3350,
      "jeÅ¼d": 3351,
      "kapi": 3352,
      "miejscuĠ": 3353,
      "ejĠw": 3354,
      "gÅĤoÅĽniej": 3355,
      "czerni": 3356,
      "kup": 3357,
      "egor": 3358,
      "Mam": 3359,
      "mocnoĠ": 3360,
      "dÅĤugie": 3361,
      "Äħs": 3362,
      "leÅ¼Äħc": 3363,
      "ustaĠ": 3364,
      "ki,Ġp": 3365,
      "marszcz": 3366,
      "aÅĤa,Ġ": 3367,
      "?ĠâĢĶĠzapytaÅĤĠ": 3368,
      "chwilÄĻĠ": 3369,
      "obod": 3370,
      "?ĠB": 3371,
      "wamĠ": 3372,
      "!ĠP": 3373,
      "grzy": 3374,
      "ĠpÅĤy": 3375,
      "jestĠtoĠ": 3376,
      "wyÅ¼sz": 3377,
      "wymow": 3378,
      "sÅĤuchi": 3379,
      "niesÅĤych": 3380,
      "drugiĠ": 3381,
      "owanyĠ": 3382,
      "ychĠdoĠ": 3383,
      "czupry": 3384,
      "uÅ¼y": 3385,
      "rut": 3386,
      "gÅĤowÄĻĠ": 3387,
      "nabi": 3388,
      "ktÃ³rej": 3389,
      "ĠmiÄĻ": 3390,
      "ĠwiÄĻcejĠ": 3391,
      "Ġdosy": 3392,
      "JÃ³zi": 3393,
      "umysÅĤ": 3394,
      "cjÄħ": 3395,
      "ĠpostÄĻp": 3396,
      "kor": 3397,
      ".ĠSpo": 3398,
      ".ĠPanĠ": 3399,
      "ÅĽwiatÅĤoĠ": 3400,
      "kaza": 3401,
      "czynaĠ": 3402,
      "ÅĤowaĠ": 3403,
      "sprawi": 3404,
      "los": 3405,
      "rzÄħdz": 3406,
      "ĠsamoĠ": 3407,
      "rzydzie": 3408,
      "bawi": 3409,
      "doĠw": 3410,
      "odd": 3411,
      "staĠ": 3412,
      ".ĠOn": 3413,
      ".ĠJegoĠ": 3414,
      ".ĠWÃ³wczas": 3415,
      "rzas": 3416,
      "sem": 3417,
      "aÅĤĠoĠ": 3418,
      ",ĠboĠ": 3419,
      "dali": 3420,
      "raÄĩ": 3421,
      "ÄħĠu": 3422,
      "ciu": 3423,
      "ÅĽcian": 3424,
      "maÅĤegoĠ": 3425,
      "stal": 3426,
      "mio": 3427,
      "ajutrz": 3428,
      ",Ġroz": 3429,
      "miaÅĤyĠ": 3430,
      "myÅĽle": 3431,
      "szystkichĠ": 3432,
      "Ġ*": 3433,
      "szczer": 3434,
      "jemĠ": 3435,
      ".ĊĊByÅĤĠtoĠ": 3436,
      "ĠmiejsceĠ": 3437,
      "dzonyĠ": 3438,
      "ĠpoĠpolsku": 3439,
      "Ġdrewni": 3440,
      "ĠwyÅĤ": 3441,
      "mieĠ": 3442,
      "Ġwier": 3443,
      "ciej": 3444,
      "âĢŀP": 3445,
      "serw": 3446,
      "rzeĠiĠ": 3447,
      "namĠ": 3448,
      "Ġbrz": 3449,
      "noĠiĠ": 3450,
      "Jest": 3451,
      ".ĠSam": 3452,
      "Ġpun": 3453,
      "ÅĽla": 3454,
      "ele": 3455,
      "leczĠ": 3456,
      "ĠdrugiĠ": 3457,
      "Ġtrafi": 3458,
      "ĠkilkaĠ": 3459,
      "jakiÅĽĠ": 3460,
      "ogar": 3461,
      "jÄħÅĤĠ": 3462,
      "isto": 3463,
      "mogÅĤ": 3464,
      "rwszeĠ": 3465,
      "JeÅ¼eliĠ": 3466,
      "odpowiad": 3467,
      "lekcjeĠ": 3468,
      "stÄĻpujÄħc": 3469,
      "jakÄħÅĽ": 3470,
      "Ġpedagog": 3471,
      "saniaĠ": 3472,
      "grafi": 3473,
      ":ĠâĢĶĠ": 3474,
      "BÃ³g": 3475,
      "ha": 3476,
      "entu": 3477,
      "ÄħĠnaĠ": 3478,
      "rodzic": 3479,
      "zwal": 3480,
      ".ĠSie": 3481,
      "Ġwid": 3482,
      "odlegÅĤo": 3483,
      "pas": 3484,
      "kart": 3485,
      "ÅĤak": 3486,
      "Wiechowski": 3487,
      "tygod": 3488,
      "iĠiĠ": 3489,
      "niemĠiĠ": 3490,
      "âĢĶĠw": 3491,
      "rÅ¼": 3492,
      "gotow": 3493,
      "niedo": 3494,
      "czeÅĦ": 3495,
      "kuch": 3496,
      "gard": 3497,
      "skiego,Ġ": 3498,
      "guber": 3499,
      "ardzoĠ": 3500,
      "aka": 3501,
      "waliĠ": 3502,
      "szele": 3503,
      "swej": 3504,
      "Ġkry": 3505,
      "kolej": 3506,
      "lecyĠ": 3507,
      "rek": 3508,
      "rzuciÅĤ": 3509,
      "przyja": 3510,
      "Ġpewien": 3511,
      "ĠoczyĠ": 3512,
      ".ĠNikt": 3513,
      "grzecz": 3514,
      "*ĠiĠ": 3515,
      "chwy": 3516,
      "ĠnieĠtylkoĠ": 3517,
      "szczÄĻÅĽli": 3518,
      "takĠzw": 3519,
      "usÅĤysz": 3520,
      "ciebie": 3521,
      "poĠpol": 3522,
      ",ĠjakoĠ": 3523,
      "ĠsÅĤow": 3524,
      "âĢ¦ĠNie": 3525,
      "staran": 3526,
      "ĠpaÅĦ": 3527,
      "patrzyÅĤ": 3528,
      "sÄħd": 3529,
      "aÅĤĠiĠ": 3530,
      "Ġpens": 3531,
      "lko": 3532,
      "mnieĠ": 3533,
      "Ġprzyja": 3534,
      "sad": 3535,
      "kÅĤa": 3536,
      "?ĠA": 3537,
      ".ĊĊâĢĶĠM": 3538,
      "lĠ": 3539,
      "ĠtaĠ": 3540,
      "siÄĻĠd": 3541,
      "stanÄħÅĤ": 3542,
      "przeby": 3543,
      "kilku": 3544,
      "cud": 3545,
      "eso": 3546,
      "gaw": 3547,
      "swejĠ": 3548,
      "szkÃ³ÅĤ": 3549,
      "ajeĠ": 3550,
      "ta,Ġ": 3551,
      "ÅĦĠiĠ": 3552,
      "Pazur": 3553,
      "ÅĽwiecie": 3554,
      "Ġwyj": 3555,
      "nieĠza": 3556,
      "Ġkancelari": 3557,
      "gospodarzyĠklas": 3558,
      "woĠiĠ": 3559,
      "madz": 3560,
      "gre": 3561,
      "czepi": 3562,
      "marze": 3563,
      "Å¼ar": 3564,
      "tk": 3565,
      "nikomu": 3566,
      "uczeÅĦĠ": 3567,
      "wykÅĤad": 3568,
      "uli": 3569,
      "Åºdzie": 3570,
      "niamiĠ": 3571,
      ",Ġdo": 3572,
      "num": 3573,
      "szelkiegoĠ": 3574,
      "strÄĻ": 3575,
      "âĢ¦ĊĊW": 3576,
      "ĠswegoĠ": 3577,
      "ĠmaÅĤyĠ": 3578,
      "gÅĤÄĻbi": 3579,
      "Ġtru": 3580,
      "ĠzÅĤo": 3581,
      "naĠwĠ": 3582,
      "miÅĤ": 3583,
      "ÅĦstw": 3584,
      "bÄĻ": 3585,
      "womaĠ": 3586,
      "pana": 3587,
      "wypad": 3588,
      "Ġmal": 3589,
      "spektor": 3590,
      "ĠwĠklasie": 3591,
      "ludz": 3592,
      ".ĊĊNie": 3593,
      "szystkim": 3594,
      "sercaĠ": 3595,
      "li,Ġ": 3596,
      "siÄĻĠzĠ": 3597,
      "nikogoĠ": 3598,
      "bor": 3599,
      "orÃ³w": 3600,
      ",ĠÅ¼eĠw": 3601,
      "niu,Ġ": 3602,
      "Ġtwo": 3603,
      "jÄĻzyk": 3604,
      "fu": 3605,
      "ÅĽmyĠ": 3606,
      "prÄĻ": 3607,
      "liwyĠ": 3608,
      "âĢ¦ĠT": 3609,
      "cki": 3610,
      "RadcaĠ": 3611,
      "filoz": 3612,
      "of": 3613,
      ",Ġsk": 3614,
      "Å¼oÅĤ": 3615,
      "niĠw": 3616,
      "krz": 3617,
      "kaje": 3618,
      "ĠpostaciĠ": 3619,
      "ÅĤyĠw": 3620,
      "kawaÅĤ": 3621,
      ".ĠMie": 3622,
      "Ġjej": 3623,
      "nikow": 3624,
      "nÄħÄĩĠ": 3625,
      "awaÅĤ": 3626,
      "spÃ³ÅĤczu": 3627,
      "lÅĽni": 3628,
      "Wil": 3629,
      "nneĠ": 3630,
      "zam": 3631,
      "kami,Ġ": 3632,
      "tyk": 3633,
      "net": 3634,
      "dÅºwig": 3635,
      ".ĠCzasamiĠ": 3636,
      "uczÄĻ": 3637,
      "raĠ": 3638,
      "pieniÄħ": 3639,
      "wora": 3640,
      "kaÅ¼dyĠ": 3641,
      "ĠprawaĠ": 3642,
      "cia": 3643,
      "NogaĠ": 3644,
      "Ġkur": 3645,
      "ÄħĠs": 3646,
      "Kostriulew": 3647,
      "PyrzogÅĤow": 3648,
      "Paluszkiewicz": 3649,
      "Kaw": 3650,
      "kierun": 3651,
      "Stogow": 3652,
      "IĊĊ": 3653,
      "Ġwisi": 3654,
      "ĠzĠpo": 3655,
      "niÄĻteĠ": 3656,
      "niejszegoĠ": 3657,
      "ChÅĤo": 3658,
      "gÅĤowyĠ": 3659,
      "Ġbru": 3660,
      "eÅĤni": 3661,
      ",ĠnieĠ": 3662,
      "toteÅ¼": 3663,
      "myk": 3664,
      "saĠ": 3665,
      "ÅĽniegu": 3666,
      "kÄĻĠnaĠ": 3667,
      "kop": 3668,
      ".ĊĊPaniĠBorowiczowaĠ": 3669,
      "owanychĠ": 3670,
      "syna": 3671,
      "Ġtro": 3672,
      "jakiejÅĽĠ": 3673,
      "rzemĠ": 3674,
      "szkoÅĤy": 3675,
      "ĠprÄĻdkoĠ": 3676,
      "yli": 3677,
      "czÄĻÅĤaĠ": 3678,
      "garbi": 3679,
      "obszar": 3680,
      "fut": 3681,
      "stat": 3682,
      "zdaw": 3683,
      "Ġtakich": 3684,
      "ÅĦstwaĠ": 3685,
      "nymi": 3686,
      "ĠtyĠ": 3687,
      "jesteÅĽ": 3688,
      "daje": 3689,
      "boÅ¼": 3690,
      "nocy": 3691,
      "jeÅ¼dÅ¼": 3692,
      "den": 3693,
      "ĠpierwszyĠ": 3694,
      "skoÅĦcz": 3695,
      "doĠniegoĠ": 3696,
      "yĠza": 3697,
      "Ġminut": 3698,
      "strzym": 3699,
      "ĠwiÄĻk": 3700,
      "szymĠ": 3701,
      "stwaĠ": 3702,
      "napis": 3703,
      "warzy": 3704,
      "uczy": 3705,
      "guzi": 3706,
      "kobie": 3707,
      "ÅºleĠ": 3708,
      "niÄħc": 3709,
      "zdr": 3710,
      "aniĠnaĠ": 3711,
      "!âĢ¦ĊĊâĢĶĠ": 3712,
      ".ĊĊâĢĶĠS": 3713,
      "âĢĶĠrzekÅĤaĠ": 3714,
      "Ġpowi": 3715,
      ",ĠaleĠiĠ": 3716,
      "sekre": 3717,
      "powi": 3718,
      "kandydat": 3719,
      "Ġpatrz": 3720,
      "szli": 3721,
      "niezna": 3722,
      "ychĠiĠ": 3723,
      "szkolnej": 3724,
      "ĠduÅ¼yĠ": 3725,
      ",ĠaĠnaĠ": 3726,
      ".ĠWÅĤa": 3727,
      "dre": 3728,
      "estch": 3729,
      "sposÃ³b": 3730,
      "daÅĤĠ": 3731,
      "Ġzmusz": 3732,
      "kiemĠw": 3733,
      "czÄħtkuĠ": 3734,
      "Ġwzro": 3735,
      ".ĊĊTymczasemĠ": 3736,
      "ĠduÅ¼eĠ": 3737,
      "nÄĻÅĤa": 3738,
      "Ġmru": 3739,
      "knÄĻÅĤaĠ": 3740,
      "haÅĤ": 3741,
      "haÅĤas": 3742,
      "ciÅĤaĠ": 3743,
      "Ġsob": 3744,
      "Ġbrud": 3745,
      "stoÅĤu": 3746,
      "bat": 3747,
      "gli": 3748,
      ".ĊĊMarcinekĠ": 3749,
      "mÃ³j": 3750,
      "klu": 3751,
      "mieniu": 3752,
      "rzyÅĤaĠ": 3753,
      "rÃ³wnieÅ¼Ġ": 3754,
      "owychĠ": 3755,
      "paÅĤĠ": 3756,
      "ÅĤÃ³": 3757,
      ".ĠCzy": 3758,
      "liĠwĠ": 3759,
      "staÄĩ": 3760,
      "rubli": 3761,
      "takiegoĠ": 3762,
      "ner": 3763,
      "niÅ¼Ġ": 3764,
      "trzebaĠ": 3765,
      "trzeb": 3766,
      "neĠwy": 3767,
      "jrzaÅĤ": 3768,
      "dwieĠ": 3769,
      ".ĊĊâĢĶĠWi": 3770,
      "ÅĤzyĠ": 3771,
      "Ġsmut": 3772,
      "wad": 3773,
      "nÄħwszyĠ": 3774,
      "wadzie": 3775,
      "ĠwyszedÅĤ": 3776,
      ".ĠNauczyciel": 3777,
      "ĠtyÅĤ": 3778,
      "ÄħĠdoĠ": 3779,
      "piecĠ": 3780,
      "âĢ¦ĠP": 3781,
      "nieĠbyÅĤo": 3782,
      "âĢ¦ĠZ": 3783,
      "usiadÅĤĠnaĠ": 3784,
      "nika": 3785,
      "Ġmarze": 3786,
      "pÅĤak": 3787,
      "dalej": 3788,
      "Ġznajom": 3789,
      "strach": 3790,
      "ki,ĠaĠ": 3791,
      "nieĠbÄĻd": 3792,
      "sro": 3793,
      "obaczy": 3794,
      "aÅĤĠsiÄĻĠz": 3795,
      "Ġznalaz": 3796,
      "mieliĠ": 3797,
      ".ĠWszystkoĠ": 3798,
      "Ġwej": 3799,
      "abyĠ": 3800,
      ",Ġma": 3801,
      "ĠpierwszejĠ": 3802,
      "rost": 3803,
      "czytaÄĩ": 3804,
      "umĠ": 3805,
      "rucho": 3806,
      "je,Ġ": 3807,
      "ĠwiedzieÄĩ": 3808,
      "ĠnieĠbyÅĤ": 3809,
      "ledwie": 3810,
      "Ġjest": 3811,
      "roÄĩ": 3812,
      "skutek": 3813,
      "ĠdÅĤo": 3814,
      "Å¼yÅĤĠ": 3815,
      "wyraz": 3816,
      "nia,ĠÅ¼eĠ": 3817,
      "moÅ¼naĠ": 3818,
      "kony": 3819,
      "ĠswojÄħĠ": 3820,
      "ÅĽlep": 3821,
      "Ġpust": 3822,
      "niego": 3823,
      "sÅĤowa": 3824,
      "snu": 3825,
      ".ĊĊNaĠ": 3826,
      "yĠzost": 3827,
      "swojÄħĠ": 3828,
      "umiejÄĻt": 3829,
      "patry": 3830,
      "etĠ": 3831,
      "Ġkated": 3832,
      "jo": 3833,
      "razĠnaĠ": 3834,
      "roczyst": 3835,
      "ktÃ³regoĠ": 3836,
      "nieĠoĠ": 3837,
      "ciÄħgu": 3838,
      "poÅĤud": 3839,
      "szyÅĤ": 3840,
      "nku": 3841,
      "sza,Ġ": 3842,
      "ÅĤegoĠ": 3843,
      "oĠczymĠ": 3844,
      "gÃ³": 3845,
      "MarcinkowiĠ": 3846,
      "klasyĠwstÄĻpnej": 3847,
      "ĠwcaleĠ": 3848,
      "Ġzasad": 3849,
      "Ġbied": 3850,
      "liter": 3851,
      "ciÅĤ": 3852,
      "âĢŀpan": 3853,
      "stÃ³ÅĤ": 3854,
      "ĠwiÄĻcej": 3855,
      "Ġtrzech": 3856,
      "ĠporzeĠ": 3857,
      "Ã³gÅĤĠ": 3858,
      ".ĠGdy": 3859,
      "nazy": 3860,
      "tÄħĠ": 3861,
      "ÅĽwier": 3862,
      "trzu": 3863,
      "kit": 3864,
      "rzec": 3865,
      "bezwÅĤad": 3866,
      "szew": 3867,
      "mujÄħc": 3868,
      "palc": 3869,
      "liwy": 3870,
      "sieĠ": 3871,
      "kaĠz": 3872,
      "szaw": 3873,
      "skon": 3874,
      "prawieĠ": 3875,
      "niaĠz": 3876,
      "ĠwĠrÄĻ": 3877,
      "bliÅ¼yÅĤĠsiÄĻĠdoĠ": 3878,
      "skiĠw": 3879,
      "dzieĠ": 3880,
      "nikaĠ": 3881,
      "obaczyÅĤ": 3882,
      "religi": 3883,
      "Jez": 3884,
      "szklan": 3885,
      "del": 3886,
      "chodzÄħc": 3887,
      "rzad": 3888,
      "Å¼ycz": 3889,
      "tego": 3890,
      "Wy": 3891,
      "ÅĤask": 3892,
      "czasamiĠ": 3893,
      "emĠod": 3894,
      "tĠ": 3895,
      "ĠâĢĶĠ": 3896,
      "mor": 3897,
      "sÅĤowaĠ": 3898,
      "nag": 3899,
      ".ĊĊâĢĶĠZ": 3900,
      "?ĊĊâĢĶĠNie": 3901,
      "koÅĽcioÅĤa": 3902,
      "stosun": 3903,
      "Ġkrzy": 3904,
      "aÅĤaĠiĠ": 3905,
      "ratu": 3906,
      "nieĠmamĠ": 3907,
      "Å¼egna": 3908,
      "szĠpan": 3909,
      "mowaÅĤĠ": 3910,
      "krew": 3911,
      "czeg": 3912,
      "ĠwĠpo": 3913,
      "ĠpiÄħt": 3914,
      "stuk": 3915,
      "cis": 3916,
      "krok": 3917,
      "!ĠâĢĶĠkrzy": 3918,
      "trÄħ": 3919,
      "ÅĤem": 3920,
      "ÅĤemĠ": 3921,
      ".ĠWkrÃ³tceĠ": 3922,
      "jednejĠ": 3923,
      "nikÃ³w": 3924,
      "KiedyĠ": 3925,
      "chyÅĤ": 3926,
      "rozkosz": 3927,
      "szak": 3928,
      "prawyĠ": 3929,
      "skich,Ġ": 3930,
      "Ġmas": 3931,
      "ĠnaleÅ¼": 3932,
      "nieĠprzy": 3933,
      "obyĠ": 3934,
      "odz": 3935,
      "try": 3936,
      "skow": 3937,
      "sal": 3938,
      "far": 3939,
      "chudyĠ": 3940,
      "czyÅĤĠsiÄĻ": 3941,
      "stÄĻpni": 3942,
      "nego,Ġ": 3943,
      "Ġuczni": 3944,
      "ogÃ³l": 3945,
      "nikÃ³wĠ": 3946,
      "dopodob": 3947,
      "inneĠ": 3948,
      "namiÄĻt": 3949,
      "pil": 3950,
      "koryta": 3951,
      "stara": 3952,
      "moÅĽÄĩ": 3953,
      "ÅĤaskiĠ": 3954,
      "czÅĤowiekaĠ": 3955,
      "pani": 3956,
      "szczegÃ³ÅĤ": 3957,
      "ĠT": 3958,
      "zgro": 3959,
      "ÅĤb": 3960,
      "ÅĤaciÅĦ": 3961,
      "ĠpodwÃ³": 3962,
      "dziad": 3963,
      "klasy,Ġ": 3964,
      "aÅĤĠsiÄĻĠiĠ": 3965,
      "grup": 3966,
      "paniĠBorowiczowa,Ġ": 3967,
      "dniĠ": 3968,
      "ĠswoimĠ": 3969,
      ".ĊĊâĢĶĠJaĠ": 3970,
      "Oj": 3971,
      "owy,Ġ": 3972,
      "kÅĤo": 3973,
      "szychĠ": 3974,
      "oniĠ": 3975,
      "skonaleĠ": 3976,
      "ĠmiastaĠ": 3977,
      "brycz": 3978,
      "ciuĠ": 3979,
      "odzie": 3980,
      "szÄħĠ": 3981,
      "dziÅĤaĠ": 3982,
      "ÅĤys": 3983,
      "mnÃ³stwoĠ": 3984,
      "Klerykowa": 3985,
      "aÅĤaĠz": 3986,
      "dawaÅĤoĠsiÄĻ": 3987,
      "Rosjani": 3988,
      "naukiĠ": 3989,
      "ĠtylkoĠw": 3990,
      "akura": 3991,
      "aÅĤoĠw": 3992,
      "czÄĻstokro": 3993,
      "ÅĤari": 3994,
      "liĠiĠ": 3995,
      ".ĠTak": 3996,
      "anoĠnaĠ": 3997,
      "pieÅĦ": 3998,
      "ĠzĠklasyĠ": 3999,
      "iĠwĠ": 4000,
      "form": 4001,
      "Å¼adnegoĠ": 4002,
      "wole": 4003,
      "moral": 4004,
      "ĠwyciÄħg": 4005,
      "PrzepiÃ³rzycy": 4006,
      "ĠmiaÅĤaĠ": 4007,
      "adom": 4008,
      "opie": 4009,
      "Å¼adnej": 4010,
      "edÅĤug": 4011,
      "cuch": 4012,
      "raczej": 4013,
      "ÅĤam": 4014,
      "smar": 4015,
      "jednaĠ": 4016,
      ":ĊĊâĢĶĠA": 4017,
      "nosiÅĤ": 4018,
      "zach": 4019,
      "aliĠdoĠ": 4020,
      "y,Ġz": 4021,
      "jaÅĤĠ": 4022,
      "paÄĩ": 4023,
      "liÅĽmyĠ": 4024,
      "buj": 4025,
      "objaÅĽni": 4026,
      "omet": 4027,
      "one,Ġ": 4028,
      "ĠmÃ³gÅĤ": 4029,
      "Daleszow": 4030,
      "rodzaju": 4031,
      "samot": 4032,
      "alneĠ": 4033,
      "ulicz": 4034,
      "ogrod": 4035,
      "wabi": 4036,
      "oddziaÅĤ": 4037,
      "ctwoĠ": 4038,
      "gÅĤusz": 4039,
      "ciÄħguĠ": 4040,
      "ĠpobliÅ¼": 4041,
      "ĠwĠKlerykowie": 4042,
      "bocz": 4043,
      "upeÅĤnie": 4044,
      "Ġprz": 4045,
      "ÅĤyĠnaĠ": 4046,
      "kwiat": 4047,
      "Leim": 4048,
      "naboÅ¼e": 4049,
      "ÅĤĠiĠ": 4050,
      "tÄĻÅ¼": 4051,
      "Ã³smej": 4052,
      "uczÄĻszcz": 4053,
      "Å¼eÅĦ": 4054,
      "ĠduszyĠ": 4055,
      "Ġdesk": 4056,
      ".ĠNog": 4057,
      "emat": 4058,
      "nÄĻĠ": 4059,
      "upad": 4060,
      "figur": 4061,
      "riesto": 4062,
      "riestoob": 4063,
      "riestoobri": 4064,
      "riestoobriad": 4065,
      "riestoobriadnikow": 4066,
      "Zabiel": 4067,
      "teat": 4068,
      "RadkaĠ": 4069,
      "JÄĻdrekĠ": 4070,
      "ymkiewicz": 4071,
      "noprÃ³Å¼nia": 4072,
      "Sieger": 4073,
      "Gont": 4074,
      "Lek": 4075,
      "stawie": 4076,
      "padÅĤĠnaĠ": 4077,
      "wojeĠ": 4078,
      "nym,Ġ": 4079,
      "strzy": 4080,
      "zazwyczaj": 4081,
      "Ġpowszech": 4082,
      "rozlegÅĤ": 4083,
      "cuk": 4084,
      "Ġda": 4085,
      "otrzym": 4086,
      "wÄĻ": 4087,
      "kiejĠ": 4088,
      "ledwoĠ": 4089,
      "rzask": 4090,
      "ajÄħcymĠ": 4091,
      "czerwie": 4092,
      "ĠtwarzyĠ": 4093,
      "zapewneĠ": 4094,
      "rusze": 4095,
      "skier": 4096,
      "gdyÅĽ": 4097,
      "niszcz": 4098,
      "Ġpiersi": 4099,
      "ĠsiedziaÅĤĠ": 4100,
      "koni": 4101,
      "Å¼oneĠ": 4102,
      "Å¼a": 4103,
      "grab": 4104,
      "ajÄħcegoĠ": 4105,
      "widok": 4106,
      "oczu": 4107,
      "bliÅ¼sz": 4108,
      "ktÃ³rych": 4109,
      "chwilaĠ": 4110,
      "?ĠD": 4111,
      "dzÄĻ": 4112,
      "âĢ¦ĠM": 4113,
      "ÅĽlicz": 4114,
      "âĢ¦ĊĊMarcinek": 4115,
      "szÄħ": 4116,
      "caÅĤegoĠ": 4117,
      "Ġtaje": 4118,
      "gÄĻĠ": 4119,
      "chÅĤopiec": 4120,
      "kocha": 4121,
      "Ġmam": 4122,
      "?âĢĿĠ": 4123,
      "panicz": 4124,
      "szedÅĤĠw": 4125,
      "ostrze": 4126,
      "mil": 4127,
      "gimnazjum,Ġ": 4128,
      "jakiejÅĽ": 4129,
      "innych": 4130,
      "ĠmyÅĽle": 4131,
      "upeÅĤnieĠ": 4132,
      "Å¼yÅĤyĠ": 4133,
      "dÅºwiÄĻk": 4134,
      "kanaÅĽcie": 4135,
      "oknaĠ": 4136,
      ".ĠObok": 4137,
      "atrzym": 4138,
      "jego": 4139,
      "ÄĩĠsiÄĻĠdoĠ": 4140,
      "nieĠsiÄĻĠ": 4141,
      "but": 4142,
      "krÄĻc": 4143,
      ".ĠNieĠwie": 4144,
      "naĠniegoĠ": 4145,
      ".ĊĊâĢĶĠJak": 4146,
      "nozd": 4147,
      "oczek": 4148,
      "Äĩ,ĠÅ¼eĠ": 4149,
      "tural": 4150,
      "szpa": 4151,
      "byÄĩĠ": 4152,
      "Ġmnie": 4153,
      "nuÅ¼e": 4154,
      ",ĠdoĠ": 4155,
      "ÅĽrodkuĠ": 4156,
      "kanap": 4157,
      "stoli": 4158,
      "ÅĽcia": 4159,
      "raf": 4160,
      "darz": 4161,
      "ment": 4162,
      "No,Ġ": 4163,
      "ĠkierunkuĠ": 4164,
      "ĠzwykleĠ": 4165,
      "spokoj": 4166,
      "niem,Ġ": 4167,
      "niÃ³": 4168,
      "niÃ³sÅĤ": 4169,
      "Wiechowskiego": 4170,
      "choci": 4171,
      "isk": 4172,
      "potemĠ": 4173,
      "uchaĠ": 4174,
      "czyna": 4175,
      "!ĠW": 4176,
      "ÅĽrodekĠ": 4177,
      "nial": 4178,
      "Ġzamian": 4179,
      "ĠzamianĠzaĠ": 4180,
      "udzie": 4181,
      "chci": 4182,
      ".ĠTeraz": 4183,
      "leĠiĠ": 4184,
      ".ĠKtoĠ": 4185,
      "lut": 4186,
      "?âĢ¦Ġ": 4187,
      "reszcieĠ": 4188,
      ".ĊĊâĢĶĠI": 4189,
      "miesiÄħc": 4190,
      "lepiejĠ": 4191,
      "ĠmÄĻÅ¼": 4192,
      "pani,Ġ": 4193,
      "lamp": 4194,
      "Ġdr": 4195,
      "gaÅĤĠ": 4196,
      "kÄħ,Ġ": 4197,
      "wyÅ¼": 4198,
      "rÄħg": 4199,
      "ĠwÅĤaÅĽnieĠ": 4200,
      "ekĠz": 4201,
      "ĠdalekoĠ": 4202,
      "Ã³zg": 4203,
      "kuĠiĠ": 4204,
      "myÅĽliĠ": 4205,
      "skno": 4206,
      "dosyÄĩ": 4207,
      "aresz": 4208,
      "Ġwieczor": 4209,
      "ĠkÄħcie": 4210,
      "ÅĽwietleĠ": 4211,
      "ĠmiejscaĠ": 4212,
      ",ĠpatrzÄħc": 4213,
      "ÅĤÃ³Å¼koĠ": 4214,
      "skoczyÅĤ": 4215,
      ",ĠktÃ³reĠw": 4216,
      "to,Ġ": 4217,
      "braÅĤĠ": 4218,
      "braÄĩ": 4219,
      "ĠprzybyÅĤ": 4220,
      "szl": 4221,
      "Ġpanicz": 4222,
      "MarcinĠ": 4223,
      "zaczÄħÅĤĠ": 4224,
      "ĠiĠwy": 4225,
      "dokoÅĤaĠ": 4226,
      "aliĠw": 4227,
      "aÅĤeÅĽ": 4228,
      "uszcze": 4229,
      "niÃ³sÅĤĠ": 4230,
      "grÄħ": 4231,
      "aĠroz": 4232,
      "okiemĠ": 4233,
      "ĠmÃ³wiÄĩ": 4234,
      "Ġmod": 4235,
      "Ġzer": 4236,
      "rÃ³wneĠ": 4237,
      "ÄĻĠwy": 4238,
      "dziennik": 4239,
      "jakieÅĽĠ": 4240,
      "poĠupÅĤywie": 4241,
      "koniecĠ": 4242,
      ".ĊĊâĢĶĠNie": 4243,
      "cale": 4244,
      "ĠâĢĶ": 4245,
      "kilkak": 4246,
      "najmniejĠ": 4247,
      "skiĠz": 4248,
      "jedenĠz": 4249,
      "wÅĤaÅĽciwie": 4250,
      "dÅºwiÄĻ": 4251,
      "sym": 4252,
      "towarzysz": 4253,
      "ry,Ġ": 4254,
      "ÅĤĠjeĠ": 4255,
      "mÃ³gÅĤĠ": 4256,
      "uwagiĠ": 4257,
      "âĢĶĠz": 4258,
      "ĠwiÄĻ": 4259,
      "Czy": 4260,
      "Å¼eĠiĠ": 4261,
      "ude": 4262,
      "ĠpiÄĻÅĽci": 4263,
      "male": 4264,
      "fo": 4265,
      "awan": 4266,
      "ĠswÃ³jĠ": 4267,
      "ciÄĻÅ¼ar": 4268,
      "ajÄħcych": 4269,
      "elod": 4270,
      "iaĠ": 4271,
      "*wy": 4272,
      "ÄĻtyĠ": 4273,
      "bog": 4274,
      "ĠpoĠrosyjsku": 4275,
      "nymĠiĠ": 4276,
      "Ġtego,ĠcoĠ": 4277,
      "rÃ³wna": 4278,
      "aĠâĢĶĠ": 4279,
      "nie,ĠaleĠ": 4280,
      "owanieĠ": 4281,
      "usil": 4282,
      "Ġwal": 4283,
      "Ġpowtarz": 4284,
      "dlaĠniegoĠ": 4285,
      "*ĠdoĠ": 4286,
      "umyÅĽl": 4287,
      "mÃ³zg": 4288,
      ",Ġprze": 4289,
      "nieĠbyÅĤĠwĠsta": 4290,
      "naleÅ¼yĠ": 4291,
      "zaÄĩ": 4292,
      "czterdzie": 4293,
      "sprawied": 4294,
      "niekÄħd": 4295,
      "entuzja": 4296,
      "tach": 4297,
      "zglÄĻduĠnaĠ": 4298,
      "to,ĠÅ¼eĠ": 4299,
      "tof": 4300,
      "odlegÅĤoÅĽciĠ": 4301,
      ".ĠWĠczasie": 4302,
      "grzbie": 4303,
      "zier": 4304,
      "Ġwidok": 4305,
      "onot": 4306,
      "onoton": 4307,
      ".ĠAniĠ": 4308,
      ".ĠGdybyĠ": 4309,
      "Ġwa": 4310,
      ".ĊĊPrze": 4311,
      "ĠwidaÄĩĠbyÅĤoĠ": 4312,
      "niejĠz": 4313,
      "zaroÅĽ": 4314,
      "Ġmar": 4315,
      "ra,Ġ": 4316,
      "oma": 4317,
      "nieĠmogÅĤ": 4318,
      "ytaÅĤaĠ": 4319,
      "trwo": 4320,
      "milcze": 4321,
      "Ġzjawi": 4322,
      "chÃ³": 4323,
      "woj": 4324,
      "oraz": 4325,
      "aÅĤaĠdoĠ": 4326,
      "owaĠz": 4327,
      "pÅĤo": 4328,
      "wytrzeszcz": 4329,
      "uÅ¼Ġ": 4330,
      "nakry": 4331,
      "kap": 4332,
      "ĠdÅĤugiĠ": 4333,
      "aÅĤ:ĊĊâĢĶĠ": 4334,
      "skiemĠ": 4335,
      "lÄĻk": 4336,
      "ycho": 4337,
      "Ġpapier": 4338,
      "przygot": 4339,
      "tale": 4340,
      "aliĠsiÄĻĠ": 4341,
      "sj": 4342,
      "szelest": 4343,
      "ĠkryjÃ³w": 4344,
      "naukow": 4345,
      "twarzyĠ": 4346,
      "ota": 4347,
      ".ĊĊâĢĶĠW": 4348,
      "najlepie": 4349,
      "stokro": 4350,
      "Ġbardziej": 4351,
      "siedzi": 4352,
      ",ĠzeĠ": 4353,
      "lecamiĠ": 4354,
      "liÅĤĠ": 4355,
      "akcent": 4356,
      "pytanie": 4357,
      "Pe": 4358,
      ".ĠByÅĤĠ": 4359,
      "!ĠâĢĶĠw": 4360,
      "sze,Ġ": 4361,
      "chÅĤopcÃ³w": 4362,
      "lÄħ": 4363,
      "ÅĤawkiĠ": 4364,
      "ajÄħcĠnaĠ": 4365,
      "owicie": 4366,
      "kilkuĠ": 4367,
      "ksiÄħdz": 4368,
      "ksiÄĻÅ¼y": 4369,
      "nienac": 4370,
      "ÄĻĠz": 4371,
      "kiemĠiĠ": 4372,
      "aĠsiÄĻ": 4373,
      "ÅĤoĠsiÄĻ": 4374,
      "ĠwidziaÅĤĠ": 4375,
      "osobyĠ": 4376,
      "eĠdrzwiach": 4377,
      "cokolwiek": 4378,
      "drzw": 4379,
      "jÄĻĠ": 4380,
      "staraĠ": 4381,
      "ÅĽcier": 4382,
      "cem": 4383,
      "dÅĤugoĠ": 4384,
      "styd": 4385,
      "byĠiĠ": 4386,
      "gÅĤupi": 4387,
      "aÅĤaĠmu": 4388,
      "staliĠ": 4389,
      "gorzaÅĤ": 4390,
      "nÄĻ,Ġ": 4391,
      "kos": 4392,
      "ĠdÅĤugi": 4393,
      "podĠgÃ³r": 4394,
      "osen": 4395,
      "ÅĦcz": 4396,
      "Mosk": 4397,
      "czkiĠ": 4398,
      "nict": 4399,
      "naÅĤĠ": 4400,
      "tornist": 4401,
      "anÄħĠ": 4402,
      "odĠw": 4403,
      "atel": 4404,
      "ogromnymiĠ": 4405,
      "skichĠ": 4406,
      "ÅĤazi": 4407,
      "politycz": 4408,
      "tecz": 4409,
      "stanÄĻ": 4410,
      ".ĠByÅĤoĠ": 4411,
      "Ġpas": 4412,
      "Ã³wĠz": 4413,
      "Ġmur": 4414,
      "Pazura": 4415,
      "wadzieÅĽciaĠ": 4416,
      "insty": 4417,
      "mer": 4418,
      ".ĊĊA": 4419,
      "ziem": 4420,
      "okolicz": 4421,
      "korytarzu": 4422,
      ",ĠaleĠw": 4423,
      ":ĊĊâĢĶĠW": 4424,
      "egzaminu": 4425,
      "dÅĤuÅ¼": 4426,
      "drugiej": 4427,
      "ki*": 4428,
      "niezwÅĤo": 4429,
      "nal": 4430,
      "aĠsiÄĻĠ": 4431,
      "ceniaĠ": 4432,
      "rÄĻkÄħ": 4433,
      "ĠnaĠpo": 4434,
      "sunÄĻÅĤaĠ": 4435,
      ".ĠStaryĠ": 4436,
      "ĠbÅĤy": 4437,
      "Ã³wkiĠ": 4438,
      "matkiĠ": 4439,
      "koÅĦcaĠ": 4440,
      "onÄħ": 4441,
      "ĠdoĠtegoĠ": 4442,
      "hory": 4443,
      "horyz": 4444,
      "niebo": 4445,
      "nÄĻliĠ": 4446,
      "budow": 4447,
      "Warszaw": 4448,
      "ara": 4449,
      "Ġbro": 4450,
      "strÃ³Å¼": 4451,
      "Ġsur": 4452,
      ".ĠJaĠ": 4453,
      "Ġbrat": 4454,
      ".ĊĊâĢĶĠD": 4455,
      "ĠdoskonaleĠ": 4456,
      "ĠpanĠMajew": 4457,
      "tan": 4458,
      "enĠ": 4459,
      "akon": 4460,
      "ĠpaniĠBorowicz": 4461,
      "doÅĤ": 4462,
      "znaczyĠ": 4463,
      "usiÅĤ": 4464,
      ".ĠJuÅ¼": 4465,
      "stancji": 4466,
      "ÄĩĠpoĠ": 4467,
      "Ġprzysz": 4468,
      "ÅĤoÅĽÄĩ": 4469,
      "najbardziej": 4470,
      "let": 4471,
      "ĠniegoĠ": 4472,
      "scen": 4473,
      "ĠpierwszegoĠ": 4474,
      "ÅĤuch": 4475,
      "nieĠmÃ³wi": 4476,
      "fran": 4477,
      "owsze": 4478,
      "akurat": 4479,
      "tru": 4480,
      "panĠMajewskiĠ": 4481,
      "inspektoraĠ": 4482,
      "spoli": 4483,
      "*Ġw": 4484,
      "inspektora": 4485,
      "rzyÅĤoĠ": 4486,
      "ÄĻbyĠ": 4487,
      "dzier": 4488,
      ",ĠaĠgdyĠ": 4489,
      "Å¼ebyÅĽ": 4490,
      "skand": 4491,
      "ĠwyraÅ¼": 4492,
      "Ġprefek": 4493,
      "gul": 4494,
      "Ġwybor": 4495,
      "cÄħ": 4496,
      "aĠPrzepiÃ³rzycaâĢĿ": 4497,
      "czejĠ": 4498,
      "lesie": 4499,
      "niedziel": 4500,
      "cuchnÄħc": 4501,
      "mas": 4502,
      "sÄħsiad": 4503,
      "ogo": 4504,
      "szaĠ": 4505,
      "ĠpannaĠ": 4506,
      "Ġpierwszej": 4507,
      "nieĠchcÄĻ": 4508,
      "mÃ³gÅĤ": 4509,
      "cki,Ġ": 4510,
      "rzyÅĤĠ": 4511,
      "ÄĻz": 4512,
      "caÅĤkiemĠ": 4513,
      "che": 4514,
      "cyd": 4515,
      "ĠwaÄĩ": 4516,
      "polskiej": 4517,
      "gruntu": 4518,
      "str": 4519,
      "ochna": 4520,
      "ÄĻĠdoĠ": 4521,
      "Å¼oÅĤnie": 4522,
      "serceĠ": 4523,
      "bÃ³j": 4524,
      "nied": 4525,
      "wzglÄĻd": 4526,
      "historiiĠ": 4527,
      "ÄħcĠ": 4528,
      "kÄħĠiĠ": 4529,
      "swÃ³j": 4530,
      "uszki": 4531,
      "epo": 4532,
      "nieĠmiaÅĤ": 4533,
      "orazĠ": 4534,
      "goro": 4535,
      "kÄĻĠz": 4536,
      "stwi": 4537,
      "prÃ³cz": 4538,
      "a,ĠÅ¼eĠ": 4539,
      "es": 4540,
      "oklasist": 4541,
      "zjawi": 4542,
      "ĠksiÄĻdz": 4543,
      "jegoĠpo": 4544,
      "jaÅĤowc": 4545,
      "jakiĠ": 4546,
      "cudow": 4547,
      "Ã³jdÄĻ": 4548,
      "ÅĽwiec": 4549,
      "neĠz": 4550,
      "nareszcie": 4551,
      "uni": 4552,
      "ulicyĠ": 4553,
      "pisy": 4554,
      "?ĊĊâĢĶĠNo": 4555,
      "ÅĤap": 4556,
      "dÅĤugimĠ": 4557,
      "âĢŀS": 4558,
      "ĠdniaĠ": 4559,
      ".ĊĊĊĊX": 4560,
      "obszer": 4561,
      "Ko": 4562,
      "zĠnich": 4563,
      ".ĠByÅĤoĠtoĠ": 4564,
      "mi,Ġ": 4565,
      "jakimĠ": 4566,
      "ÅĤoĠw": 4567,
      "ÅĤÄħk": 4568,
      "Miesz": 4569,
      "Mieszocz": 4570,
      "Mieszoczki": 4571,
      "celuĠ": 4572,
      "naprz": 4573,
      "siÃ³dm": 4574,
      "PajÄĻ": 4575,
      "ÅĦstwo": 4576,
      "jÄħ,Ġ": 4577,
      "kurs": 4578,
      "iiĠ": 4579,
      "Buckle'": 4580,
      "âĢŀBal": 4581,
      "âĢŀBalfe": 4582,
      "Warsza": 4583,
      "âĢŀBiruty": 4584,
      "Sy": 4585,
      "ÅºÄĩĠ": 4586,
      "kaĠnaĠ": 4587,
      "wan": 4588,
      "wÅĽrÃ³d": 4589,
      "Ġspokoj": 4590,
      ".ĠSzed": 4591,
      "czast": 4592,
      ",ĠktÃ³ryĠw": 4593,
      "skÄħĠ": 4594,
      "ĠmocnoĠ": 4595,
      "rÄĻka": 4596,
      "achĠw": 4597,
      "jednym": 4598,
      "bowiemĠ": 4599,
      "czasuĠdoĠ": 4600,
      "jednostaj": 4601,
      "ychyl": 4602,
      ",ĠaĠwĠ": 4603,
      "skiĠiĠ": 4604,
      "ÅĤyĠwy": 4605,
      ".ĠOczyĠ": 4606,
      "szÄĻ": 4607,
      ",ĠaleĠzaĠtoĠ": 4608,
      "ojcaĠ": 4609,
      "najom": 4610,
      "lasuĠ": 4611,
      "Naj": 4612,
      "padaÅĤyĠ": 4613,
      "cios": 4614,
      ",Ġniez": 4615,
      "u,Ġwy": 4616,
      "nurz": 4617,
      "nejĠiĠ": 4618,
      "ajÄħcĠgoĠ": 4619,
      "Ġwidzi": 4620,
      "duÅ¼e,Ġ": 4621,
      "ĠwĠÅĤeb": 4622,
      "Borowicza": 4623,
      "amiast": 4624,
      "pach": 4625,
      "ÅĤĠsiÄĻĠwĠ": 4626,
      "twar": 4627,
      "Ġpoprze": 4628,
      "ryÅĤyĠ": 4629,
      "ychĠd": 4630,
      "czÄĻÅĤyĠ": 4631,
      "Ġwyd": 4632,
      "ÅĤez": 4633,
      "ÅĤa:ĊĊâĢĶĠ": 4634,
      "Ow": 4635,
      "Przecie": 4636,
      ".ĠTrzebaĠ": 4637,
      "bab": 4638,
      "ĠsÅĤuch": 4639,
      "koniecz": 4640,
      "ym,Ġ": 4641,
      "oÅĽĠ": 4642,
      "nieod": 4643,
      "Ġdrzwi": 4644,
      "stercz": 4645,
      "Ġdrzew": 4646,
      "san": 4647,
      "ĠsieniĠ": 4648,
      "egorycz": 4649,
      "ÄħdÅº": 4650,
      "strzÄĻ": 4651,
      "kÃ³wĠiĠ": 4652,
      "Ã³wĠw": 4653,
      "ejĠrÄĻ": 4654,
      "tem,Ġ": 4655,
      "ĠzbliÅ¼": 4656,
      ".ĠByÅĤaĠtoĠ": 4657,
      ".ĠTeĠ": 4658,
      "i,ĠcoĠ": 4659,
      "wraÅ¼e": 4660,
      "kombi": 4661,
      "sadz": 4662,
      "zdrowie": 4663,
      "Ġkawale": 4664,
      "Marcina": 4665,
      "?ĠP": 4666,
      "ÅĤaĠzĠ": 4667,
      "staro": 4668,
      "chlub": 4669,
      "ĠwyrazĠ": 4670,
      "niej,Ġ": 4671,
      "mieszkaniaĠ": 4672,
      "skim,Ġ": 4673,
      "ĠswejĠ": 4674,
      ",ĠjakiĠ": 4675,
      "oneĠw": 4676,
      ".ĠPonie": 4677,
      "nÄħĠmi": 4678,
      "prowadzonoĠ": 4679,
      "Ġzajmow": 4680,
      "gÅĤyĠ": 4681,
      "Ġtrz": 4682,
      "kĠjegoĠ": 4683,
      "chud": 4684,
      "bieraÅĤ": 4685,
      "niktĠnie": 4686,
      "aĠprzy": 4687,
      "ÅĽwieÅ¼": 4688,
      "skupi": 4689,
      "Ġbr": 4690,
      "spojrzaÅĤĠnaĠ": 4691,
      "noszÄħc": 4692,
      "kaâĢĿ": 4693,
      "wÅĤaÅĽnieĠ": 4694,
      "ckiego": 4695,
      "chÄĻt": 4696,
      ",Ġmo": 4697,
      "razemĠ": 4698,
      "aÅĤaĠsiÄĻĠz": 4699,
      "Ġbli": 4700,
      "jeĠw": 4701,
      "Ġnadzwyczaj": 4702,
      "ÅĤoĠgoĠ": 4703,
      "grzeb": 4704,
      "roguĠ": 4705,
      "mocyĠ": 4706,
      "her": 4707,
      "ĠzaczÄħÅĤ": 4708,
      "ostatecz": 4709,
      "sÅĤuchaÅĤ": 4710,
      "ĠmÃ³wiÅĤ": 4711,
      "nicy": 4712,
      "siÄĻĠprze": 4713,
      "?âĢ¦ĊĊ": 4714,
      "owyĠiĠ": 4715,
      "ganiaĠ": 4716,
      "nawetĠw": 4717,
      "Å¼ecz": 4718,
      "ĠserceĠ": 4719,
      "abso": 4720,
      "absolut": 4721,
      "niecier": 4722,
      "by,Ġ": 4723,
      "uÅĽmiechem": 4724,
      "nieĠjestem": 4725,
      "dziÅĽĠ": 4726,
      "wieÅĽ": 4727,
      "Ġprzyjem": 4728,
      "mÃ³wiÄĩ": 4729,
      "âĢ¦ĊĊâĢĶĠP": 4730,
      "lategoĠ": 4731,
      "szarp": 4732,
      "naĠob": 4733,
      "aÅĤĠpoĠ": 4734,
      "Ġzapad": 4735,
      "staÅĤĠz": 4736,
      "szybko": 4737,
      "wadran": 4738,
      "Åºnie": 4739,
      "ÅĦstwa": 4740,
      "Ġbieliz": 4741,
      "zÅĤo": 4742,
      "ĠpoÅĽpie": 4743,
      "wysokoĠ": 4744,
      "rÄħkĠ": 4745,
      "zdÅĤuÅ¼": 4746,
      "jakichÅĽĠ": 4747,
      "ĠcoĠ": 4748,
      "Ġbole": 4749,
      "nigdzie": 4750,
      "nieĠma": 4751,
      "niÄĻtymiĠ": 4752,
      "MaÅĤgo": 4753,
      "MaÅĤgosi": 4754,
      "rÄĻcz": 4755,
      "Ġprzer": 4756,
      "areszcie": 4757,
      "zaczÄħÅĤ": 4758,
      "fizj": 4759,
      "aÅĤyĠsiÄĻĠwĠ": 4760,
      "niuĠiĠ": 4761,
      "naĠdoĠ": 4762,
      "olbrzy": 4763,
      "ĠpÃ³": 4764,
      "ÅĤymĠ": 4765,
      "czÄħÅĤĠw": 4766,
      "Ġmro": 4767,
      "nÄħÄĩ": 4768,
      "toĠwszystkoĠ": 4769,
      ",ĠcoĠtoĠ": 4770,
      "ĠmÄĻ": 4771,
      "azajutrz": 4772,
      "czoraj": 4773,
      "dziÅĽ": 4774,
      "jakiego": 4775,
      "pÃ³Åºniej": 4776,
      "ĠmatkaĠ": 4777,
      "prowadziÅĤaĠ": 4778,
      ".ĠNaĠw": 4779,
      "okre": 4780,
      "latĠ": 4781,
      "wymiĠ": 4782,
      "czeĠ": 4783,
      "blicz": 4784,
      "?ĠâĢĶĠspytaÅĤĠ": 4785,
      "ĠspojrzaÅĤĠnaĠ": 4786,
      "ÄĻĠrosyj": 4787,
      "skij": 4788,
      "byÅĤaĠz": 4789,
      "aliĠsiÄĻ": 4790,
      "szystkimĠ": 4791,
      "ciÄħÅ¼Ġ": 4792,
      "rzekÅĤ:ĊĊâĢĶĠ": 4793,
      "!ĠZ": 4794,
      "ĠteÅ¼Ġ": 4795,
      "tek": 4796,
      "seĠ": 4797,
      "imi": 4798,
      "rzekÅĤĠdoĠ": 4799,
      "ĠtÄĻĠ": 4800,
      "robo": 4801,
      "biegÅĤaĠ": 4802,
      "szerokoĠ": 4803,
      "waÅĽ": 4804,
      "ukoÅĦ": 4805,
      "panieĠ": 4806,
      "sÅĤychaÄĩĠbyÅĤoĠ": 4807,
      "Ġwyma": 4808,
      "pre": 4809,
      "jaw": 4810,
      "mina": 4811,
      "ÅĤych": 4812,
      "fab": 4813,
      "elemen": 4814,
      "ÅĽrodek": 4815,
      "dykt": 4816,
      "arytmetycz": 4817,
      "cyf": 4818,
      "ĠsÅĤysz": 4819,
      "aÅĤĠgoĠ": 4820,
      "dobrze": 4821,
      "koroĠ": 4822,
      "Gawronkach": 4823,
      ".ĠStanÄħ": 4824,
      "ÅĽmiesz": 4825,
      "skÃ³r": 4826,
      ",Ġpow": 4827,
      "Ġwskaz": 4828,
      "ĠtakÄħĠ": 4829,
      "Äħ,ĠÅ¼eĠ": 4830,
      "Ã³w.ĠP": 4831,
      "nauczycielemĠ": 4832,
      "spostrzegÅĤ": 4833,
      "owanie": 4834,
      ":ĊĊâĢĶĠT": 4835,
      "Ġpalc": 4836,
      "iÄĻ": 4837,
      ",Ġwi": 4838,
      "kal": 4839,
      ".ĠRe": 4840,
      "wiÄĻcĠ": 4841,
      "ÅĽwiÄĻtyĠ": 4842,
      "ĠzĠnaj": 4843,
      "Ġbyt": 4844,
      "ologicz": 4845,
      "odzien": 4846,
      "skimiĠ": 4847,
      "aÅĤaĠgoĠ": 4848,
      "uczniaĠ": 4849,
      "maÅĤyĠ": 4850,
      "ÅĽred": 4851,
      "mÃ³wiÅĤĠ": 4852,
      "kun": 4853,
      "ĠbÅĤÄĻd": 4854,
      "pÄĻk": 4855,
      "ĠczyĠ": 4856,
      "ÅĽciĠiĠ": 4857,
      "wiÄĻcej": 4858,
      "gramatykiĠ": 4859,
      "miaÅĤoĠ": 4860,
      "ckiegoĠ": 4861,
      "stÄħd": 4862,
      "Ġdobr": 4863,
      "wÅĤas": 4864,
      "acer": 4865,
      "eĠwzglÄĻduĠnaĠ": 4866,
      "Ġsamot": 4867,
      "Å¼yciuĠ": 4868,
      "Ġwizy": 4869,
      ",ĠpeÅĤ": 4870,
      "ÅĽÄĩ,Ġ": 4871,
      "rzÄĻs": 4872,
      "toĠciĠ": 4873,
      "ĠtejĠchwiliĠ": 4874,
      "oroĠ": 4875,
      "przywi": 4876,
      "car": 4877,
      "aja": 4878,
      "dzienni": 4879,
      "naczel": 4880,
      "Ġtrwo": 4881,
      "rady": 4882,
      "prez": 4883,
      "odlegÅĤ": 4884,
      "aĠna": 4885,
      "aÄĩĠiĠ": 4886,
      "wĠnie": 4887,
      "Ġsp": 4888,
      "goÅĽci": 4889,
      "ÄħÅ¼ajÄħc": 4890,
      ",ĠprzyĠ": 4891,
      "Ġpiw": 4892,
      "onĠu": 4893,
      "napeÅĤni": 4894,
      "dziewiÄħt": 4895,
      "ator": 4896,
      "ĠiĠzĠ": 4897,
      "ychodzÄħc": 4898,
      "Jezu": 4899,
      "drzwiamiĠ": 4900,
      "niejszyĠ": 4901,
      "ĠdwuĠ": 4902,
      "dwor": 4903,
      "Cie": 4904,
      "prowadzÄħc": 4905,
      "kolejnoĠ": 4906,
      "Jaczmieniew": 4907,
      "natow": 4908,
      "srebr": 4909,
      "ĠwielmoÅ¼nyĠ": 4910,
      "Ġsercu": 4911,
      "âĢ¦ĠâĢĶĠszep": 4912,
      "Ġprzej": 4913,
      "Ġwas": 4914,
      "ĠzaĠp": 4915,
      "wa,Ġ": 4916,
      "wierzchni": 4917,
      "nauczycielu": 4918,
      "uprzej": 4919,
      "pozy": 4920,
      "ĠtymczasemĠ": 4921,
      "ĠwstaÅĤ": 4922,
      "nk": 4923,
      "iÅĤ": 4924,
      "ci,Ġ": 4925,
      "kiĠod": 4926,
      "wsz": 4927,
      "rak": 4928,
      "y,ĠaleĠ": 4929,
      "!ĠâĢĶĠzawoÅĤaÅĤĠ": 4930,
      "ktÃ³ryĠ": 4931,
      "skiew": 4932,
      "ĠmÃ³w": 4933,
      ".ĊĊâĢĶĠNo": 4934,
      "ĠzwrÃ³ci": 4935,
      "Åºle": 4936,
      "takieĠ": 4937,
      "Å¹": 4938,
      "dziwi": 4939,
      "ĠpolskÄħ": 4940,
      "rezul": 4941,
      "?ĠO": 4942,
      "âĢĶĠtoĠ": 4943,
      "przecie": 4944,
      "ĠdyrektorĠ": 4945,
      ",ĠjaĠ": 4946,
      "szyder": 4947,
      "?ĠJaĠ": 4948,
      "Å¼yÄĩ": 4949,
      "Ġbrze": 4950,
      "gniew": 4951,
      "dziÄĩĠ": 4952,
      "ÅĤatwo": 4953,
      "bÄħ": 4954,
      "nieĠumie": 4955,
      "nieĠmoÅ¼": 4956,
      "naĠwy": 4957,
      "nieĠmoÅ¼eĠ": 4958,
      "ĠksiÄħÅ¼ek": 4959,
      ".ĠNaw": 4960,
      "gadaÄĩ": 4961,
      "Ġprzeciw": 4962,
      "radoÅĽci": 4963,
      "ĠsÅĤo": 4964,
      "rzch": 4965,
      ".ĠKo": 4966,
      "nogaĠzaĠ": 4967,
      "nogaĠzaĠnog": 4968,
      "oddaw": 4969,
      "muĠnaĠ": 4970,
      "ÅĤach": 4971,
      "szakÅ¼eĠ": 4972,
      "Lu": 4973,
      ",ĠgdzieĠ": 4974,
      "maÅĤeĠ": 4975,
      "obywatel": 4976,
      "ciemno": 4977,
      "rodzeĠ": 4978,
      "obycz": 4979,
      "iÅĽcie": 4980,
      "spali": 4981,
      "jekt": 4982,
      "rusy": 4983,
      "aĠznajdow": 4984,
      ".ĠTylkoĠ": 4985,
      "martw": 4986,
      "Ġpia": 4987,
      "byÅĤyĠw": 4988,
      "chÅĤod": 4989,
      "ukrad": 4990,
      "Ġprzedsion": 4991,
      "takĠw": 4992,
      ",Ġzna": 4993,
      "anta": 4994,
      "drugimĠ": 4995,
      "ĠzĠtegoĠ": 4996,
      "uĠgimnazjal": 4997,
      "ĠwÅĤaÅĽnie": 4998,
      "rozmowyĠ": 4999
    },
    "merges": [
      [
        "Å",
        "Ĥ"
      ],
      [
        "i",
        "e"
      ],
      [
        ",",
        "Ġ"
      ],
      [
        "a",
        "Ġ"
      ],
      [
        "o",
        "Ġ"
      ],
      [
        "i",
        "Ġ"
      ],
      [
        "Ä",
        "Ļ"
      ],
      [
        "y",
        "Ġ"
      ],
      [
        "c",
        "z"
      ],
      [
        "Ä",
        "ħ"
      ],
      [
        "r",
        "z"
      ],
      [
        "a",
        "ÅĤ"
      ],
      [
        "c",
        "h"
      ],
      [
        "n",
        "ie"
      ],
      [
        "s",
        "z"
      ],
      [
        "e",
        "Ġ"
      ],
      [
        "s",
        "t"
      ],
      [
        "Å",
        "¼"
      ],
      [
        "o",
        "w"
      ],
      [
        "Ã",
        "³"
      ],
      [
        "Ġ",
        "p"
      ],
      [
        "â",
        "Ģ"
      ],
      [
        "Ġ",
        "w"
      ],
      [
        ".",
        "Ġ"
      ],
      [
        "n",
        "i"
      ],
      [
        "Å",
        "Ľ"
      ],
      [
        "d",
        "z"
      ],
      [
        "s",
        "i"
      ],
      [
        "Ġ",
        "z"
      ],
      [
        "r",
        "o"
      ],
      [
        "n",
        "a"
      ],
      [
        "r",
        "a"
      ],
      [
        "rz",
        "e"
      ],
      [
        "n",
        "aĠ"
      ],
      [
        "m",
        "Ġ"
      ],
      [
        "c",
        "i"
      ],
      [
        "Ċ",
        "Ċ"
      ],
      [
        "si",
        "ÄĻ"
      ],
      [
        "a",
        "r"
      ],
      [
        "Ä",
        "ĩ"
      ],
      [
        "a",
        "n"
      ],
      [
        "a",
        "k"
      ],
      [
        "Ġ",
        "t"
      ],
      [
        "g",
        "oĠ"
      ],
      [
        "Ġ",
        "d"
      ],
      [
        "âĢ",
        "Ķ"
      ],
      [
        "s",
        "k"
      ],
      [
        "w",
        "i"
      ],
      [
        "p",
        "o"
      ],
      [
        "l",
        "e"
      ],
      [
        "j",
        "e"
      ],
      [
        "Ġ",
        "m"
      ],
      [
        "a",
        "m"
      ],
      [
        "k",
        "o"
      ],
      [
        "e",
        "j"
      ],
      [
        "âĢĶ",
        "Ġ"
      ],
      [
        "y",
        "ÅĤ"
      ],
      [
        "u",
        "Ġ"
      ],
      [
        "l",
        "i"
      ],
      [
        "a",
        "d"
      ],
      [
        "aÅĤ",
        "Ġ"
      ],
      [
        "y",
        "ch"
      ],
      [
        "o",
        "d"
      ],
      [
        "Ã³",
        "w"
      ],
      [
        "o",
        "n"
      ],
      [
        "Äħ",
        "c"
      ],
      [
        ".",
        "ĊĊ"
      ],
      [
        "c",
        "ie"
      ],
      [
        "a",
        "l"
      ],
      [
        "Ġ",
        "iĠ"
      ],
      [
        "o",
        "r"
      ],
      [
        "a",
        "t"
      ],
      [
        "o",
        "b"
      ],
      [
        "dz",
        "ie"
      ],
      [
        "dz",
        "i"
      ],
      [
        "Ġ",
        "s"
      ],
      [
        "Ġ",
        "b"
      ],
      [
        "Ġ",
        "k"
      ],
      [
        "w",
        "y"
      ],
      [
        "e",
        "k"
      ],
      [
        "rz",
        "y"
      ],
      [
        "cz",
        "y"
      ],
      [
        "e",
        "goĠ"
      ],
      [
        "w",
        "ie"
      ],
      [
        "a",
        "s"
      ],
      [
        "j",
        "ak"
      ],
      [
        "ÅĤ",
        "o"
      ],
      [
        "a",
        "j"
      ],
      [
        "ÅĤ",
        "Ġ"
      ],
      [
        "r",
        "u"
      ],
      [
        "m",
        "i"
      ],
      [
        "âĢ",
        "¦"
      ],
      [
        "m",
        "ie"
      ],
      [
        "k",
        "a"
      ],
      [
        "t",
        "e"
      ],
      [
        "k",
        "ie"
      ],
      [
        "n",
        "o"
      ],
      [
        "nie",
        "Ġ"
      ],
      [
        "Äħ",
        "Ġ"
      ],
      [
        "k",
        "i"
      ],
      [
        "Äĩ",
        "Ġ"
      ],
      [
        "Å¼",
        "eĠ"
      ],
      [
        "g",
        "o"
      ],
      [
        "siÄĻ",
        "Ġ"
      ],
      [
        "Å",
        "Ħ"
      ],
      [
        "ÅĤ",
        "a"
      ],
      [
        "Ã³",
        "r"
      ],
      [
        "z",
        "Ġ"
      ],
      [
        "y",
        ",Ġ"
      ],
      [
        "y",
        "m"
      ],
      [
        "Ġd",
        "oĠ"
      ],
      [
        "ow",
        "i"
      ],
      [
        "r",
        "e"
      ],
      [
        "y",
        "mĠ"
      ],
      [
        "w",
        "a"
      ],
      [
        "z",
        "a"
      ],
      [
        "ro",
        "z"
      ],
      [
        "k",
        "t"
      ],
      [
        "Ġw",
        "y"
      ],
      [
        "sz",
        "e"
      ],
      [
        "aÅĤ",
        "aĠ"
      ],
      [
        "w",
        "Ġ"
      ],
      [
        "Ġw",
        "Ġ"
      ],
      [
        "a",
        ",Ġ"
      ],
      [
        "p",
        "rze"
      ],
      [
        "Ġp",
        "o"
      ],
      [
        "ÅĽ",
        "ci"
      ],
      [
        "g",
        "ÅĤ"
      ],
      [
        "d",
        "yĠ"
      ],
      [
        "ej",
        "Ġ"
      ],
      [
        "w",
        "o"
      ],
      [
        "r",
        "y"
      ],
      [
        "cz",
        "e"
      ],
      [
        "Ġp",
        "rze"
      ],
      [
        "a",
        "ch"
      ],
      [
        "p",
        "i"
      ],
      [
        "t",
        "oĠ"
      ],
      [
        "b",
        "yĠ"
      ],
      [
        "aÅĤ",
        "yĠ"
      ],
      [
        "e",
        "m"
      ],
      [
        "k",
        "aĠ"
      ],
      [
        "n",
        "Äħ"
      ],
      [
        "ÅĤ",
        "aĠ"
      ],
      [
        "l",
        "iĠ"
      ],
      [
        "k",
        "iĠ"
      ],
      [
        "ni",
        "aĠ"
      ],
      [
        "ÅĤ",
        "u"
      ],
      [
        "k",
        "oĠ"
      ],
      [
        "ĊĊ",
        "âĢĶĠ"
      ],
      [
        "p",
        "ie"
      ],
      [
        "sz",
        "y"
      ],
      [
        "a",
        "w"
      ],
      [
        "k",
        "u"
      ],
      [
        "d",
        "oĠ"
      ],
      [
        "t",
        "a"
      ],
      [
        "n",
        "eĠ"
      ],
      [
        "e",
        "r"
      ],
      [
        ".Ġ",
        "W"
      ],
      [
        ",Ġ",
        "aĠ"
      ],
      [
        ",Ġ",
        "Å¼eĠ"
      ],
      [
        "aj",
        "Äħc"
      ],
      [
        "t",
        "y"
      ],
      [
        "ow",
        "ie"
      ],
      [
        "e",
        "n"
      ],
      [
        "âĢ¦",
        "Ġ"
      ],
      [
        "r",
        "Ã³"
      ],
      [
        "ow",
        "a"
      ],
      [
        "Å¼",
        "e"
      ],
      [
        "ÄĻ",
        "Ġ"
      ],
      [
        "b",
        "i"
      ],
      [
        "am",
        "i"
      ],
      [
        "Ġz",
        "Ġ"
      ],
      [
        "d",
        "o"
      ],
      [
        "âĢ",
        "ŀ"
      ],
      [
        "âĢ",
        "Ŀ"
      ],
      [
        "j",
        "u"
      ],
      [
        "sz",
        "cz"
      ],
      [
        ".ĊĊ",
        "âĢĶĠ"
      ],
      [
        "ych",
        "Ġ"
      ],
      [
        "m",
        "u"
      ],
      [
        "c",
        "j"
      ],
      [
        "n",
        "yĠ"
      ],
      [
        "kt",
        "Ã³r"
      ],
      [
        "M",
        "ar"
      ],
      [
        "ra",
        "z"
      ],
      [
        "Ġz",
        "a"
      ],
      [
        "m",
        "o"
      ],
      [
        "b",
        "yÅĤ"
      ],
      [
        "e",
        "mĠ"
      ],
      [
        "d",
        "y"
      ],
      [
        "Mar",
        "ci"
      ],
      [
        "sk",
        "ie"
      ],
      [
        "c",
        "iĠ"
      ],
      [
        "s",
        "p"
      ],
      [
        "ÅĤ",
        "yĠ"
      ],
      [
        "am",
        "iĠ"
      ],
      [
        "Ġ",
        "nie"
      ],
      [
        "g",
        "i"
      ],
      [
        "l",
        "eĠ"
      ],
      [
        "owi",
        "cz"
      ],
      [
        "l",
        "as"
      ],
      [
        "o",
        "s"
      ],
      [
        "l",
        "a"
      ],
      [
        "Marci",
        "n"
      ],
      [
        "j",
        "Ġ"
      ],
      [
        ",Ġ",
        "p"
      ],
      [
        "po",
        "d"
      ],
      [
        "t",
        "u"
      ],
      [
        "c",
        "oĠ"
      ],
      [
        "c",
        "e"
      ],
      [
        "ÅĤ",
        "y"
      ],
      [
        ",Ġ",
        "z"
      ],
      [
        "i",
        "ch"
      ],
      [
        "o",
        "k"
      ],
      [
        "o",
        "g"
      ],
      [
        "je",
        "d"
      ],
      [
        "r",
        "ÄĻ"
      ],
      [
        "n",
        "ÄĻ"
      ],
      [
        "st",
        "a"
      ],
      [
        "an",
        "iĠ"
      ],
      [
        "b",
        "ie"
      ],
      [
        "Å¼",
        "y"
      ],
      [
        "Å",
        "º"
      ],
      [
        "Ġb",
        "yÅĤ"
      ],
      [
        ".Ġ",
        "P"
      ],
      [
        "d",
        "a"
      ],
      [
        "Ġw",
        "ie"
      ],
      [
        "B",
        "or"
      ],
      [
        "o",
        "t"
      ],
      [
        "al",
        "eĠ"
      ],
      [
        "je",
        "goĠ"
      ],
      [
        "Bor",
        "owicz"
      ],
      [
        ".Ġ",
        "N"
      ],
      [
        "m",
        "a"
      ],
      [
        "t",
        "ak"
      ],
      [
        "na",
        "u"
      ],
      [
        "i",
        "n"
      ],
      [
        "cz",
        "as"
      ],
      [
        "s",
        "y"
      ],
      [
        "p",
        "e"
      ],
      [
        "Å¼",
        "Ġ"
      ],
      [
        "!",
        "Ġ"
      ],
      [
        "ÄĻ",
        "t"
      ],
      [
        "na",
        "j"
      ],
      [
        ",Ġ",
        "jak"
      ],
      [
        "p",
        "rzy"
      ],
      [
        "o",
        "st"
      ],
      [
        "Ġt",
        "oĠ"
      ],
      [
        "Ġm",
        "i"
      ],
      [
        "cz",
        "yĠ"
      ],
      [
        "s",
        "po"
      ],
      [
        "c",
        "eĠ"
      ],
      [
        "s",
        "ie"
      ],
      [
        "p",
        "a"
      ],
      [
        "Ġw",
        "i"
      ],
      [
        "l",
        "u"
      ],
      [
        "ÄĻ",
        "d"
      ],
      [
        "e",
        "t"
      ],
      [
        "z",
        "y"
      ],
      [
        "Ġp",
        "rzy"
      ],
      [
        "Ġ",
        "u"
      ],
      [
        "r",
        "w"
      ],
      [
        "Ġt",
        "ak"
      ],
      [
        "j",
        "Äħc"
      ],
      [
        ",Ġ",
        "w"
      ],
      [
        "Äħ",
        "d"
      ],
      [
        "c",
        "yĠ"
      ],
      [
        "n",
        "egoĠ"
      ],
      [
        "?",
        "Ġ"
      ],
      [
        "y",
        "ÅĽ"
      ],
      [
        "p",
        "ra"
      ],
      [
        "ÅĤ",
        "oĠ"
      ],
      [
        ",Ġ",
        "ktÃ³r"
      ],
      [
        "al",
        "iĠ"
      ],
      [
        ".Ġ",
        "Z"
      ],
      [
        "l",
        "koĠ"
      ],
      [
        "nie",
        "j"
      ],
      [
        "t",
        "or"
      ],
      [
        "czy",
        "cie"
      ],
      [
        "n",
        "ej"
      ],
      [
        "ci",
        "Äħ"
      ],
      [
        "k",
        "ÅĤ"
      ],
      [
        "aÅĤ",
        "oĠ"
      ],
      [
        "szy",
        "st"
      ],
      [
        "ÅĽ",
        "Äĩ"
      ],
      [
        "sk",
        "i"
      ],
      [
        ",Ġ",
        "g"
      ],
      [
        "Ã³w",
        "Ġ"
      ],
      [
        "Ġp",
        "oĠ"
      ],
      [
        "rz",
        "yĠ"
      ],
      [
        "sz",
        "yĠ"
      ],
      [
        "k",
        "ÄĻ"
      ],
      [
        "z",
        "aĠ"
      ],
      [
        "ÅĽ",
        "ciĠ"
      ],
      [
        "c",
        "aÅĤ"
      ],
      [
        "n",
        "ych"
      ],
      [
        "n",
        "ymĠ"
      ],
      [
        "c",
        "y"
      ],
      [
        "u",
        "r"
      ],
      [
        "ch",
        "o"
      ],
      [
        "o",
        "l"
      ],
      [
        "b",
        "y"
      ],
      [
        "k",
        "ow"
      ],
      [
        ".Ġ",
        "S"
      ],
      [
        "f",
        "i"
      ],
      [
        "a",
        "le"
      ],
      [
        "u",
        "cz"
      ],
      [
        "n",
        "ow"
      ],
      [
        "g",
        "ÅĤo"
      ],
      [
        "st",
        "an"
      ],
      [
        "ym",
        "iĠ"
      ],
      [
        "w",
        "ar"
      ],
      [
        "u",
        "t"
      ],
      [
        "Ġ",
        "naĠ"
      ],
      [
        ",Ġ",
        "aleĠ"
      ],
      [
        "o",
        "m"
      ],
      [
        "nau",
        "czycie"
      ],
      [
        "n",
        "oĠ"
      ],
      [
        "Äħ",
        "t"
      ],
      [
        "ÅĽ",
        "wi"
      ],
      [
        "st",
        "ar"
      ],
      [
        "d",
        "Ġ"
      ],
      [
        "ob",
        "ie"
      ],
      [
        "l",
        "aĠ"
      ],
      [
        "Ã³",
        "wi"
      ],
      [
        "st",
        "ÄĻ"
      ],
      [
        "z",
        "i"
      ],
      [
        "Ã³",
        "ÅĤ"
      ],
      [
        "k",
        "uĠ"
      ],
      [
        "Ġp",
        "od"
      ],
      [
        "aÅĤĠ",
        "siÄĻ"
      ],
      [
        ".Ġ",
        "T"
      ],
      [
        "c",
        "aĠ"
      ],
      [
        "nie",
        "Ġm"
      ],
      [
        "je",
        "st"
      ],
      [
        "an",
        "Ġ"
      ],
      [
        "e",
        "z"
      ],
      [
        "st",
        "o"
      ],
      [
        "j",
        "s"
      ],
      [
        "u",
        ",Ġ"
      ],
      [
        "iĠ",
        "z"
      ],
      [
        ":",
        "ĊĊâĢĶĠ"
      ],
      [
        "u",
        "sz"
      ],
      [
        "w",
        "aĠ"
      ],
      [
        "na",
        "z"
      ],
      [
        "t",
        "o"
      ],
      [
        "ju",
        "Å¼"
      ],
      [
        "c",
        "u"
      ],
      [
        "Ġz",
        "aĠ"
      ],
      [
        "p",
        "oĠ"
      ],
      [
        "ciÄħ",
        "g"
      ],
      [
        "iĠ",
        "w"
      ],
      [
        "n",
        "e"
      ],
      [
        "stÄĻ",
        "p"
      ],
      [
        "g",
        "ie"
      ],
      [
        "j",
        "a"
      ],
      [
        "ek",
        "Ġ"
      ],
      [
        ",Ġ",
        "coĠ"
      ],
      [
        "ÅĽ",
        "cie"
      ],
      [
        "Ġp",
        "i"
      ],
      [
        "Ġk",
        "las"
      ],
      [
        "Ġp",
        "a"
      ],
      [
        "âĢ¦",
        "ĊĊ"
      ],
      [
        "Ġ",
        "siÄĻ"
      ],
      [
        "ch",
        "Ġ"
      ],
      [
        "a",
        "mĠ"
      ],
      [
        "a",
        "Äĩ"
      ],
      [
        "b",
        "o"
      ],
      [
        ".Ġ",
        "C"
      ],
      [
        "eĠ",
        "w"
      ],
      [
        "u",
        "ch"
      ],
      [
        "ch",
        "wi"
      ],
      [
        "na",
        "w"
      ],
      [
        "ek",
        "tor"
      ],
      [
        "n",
        "iĠ"
      ],
      [
        "sze",
        "d"
      ],
      [
        "s",
        "ÅĤ"
      ],
      [
        "Ġt",
        "y"
      ],
      [
        ".Ġ",
        "O"
      ],
      [
        "ÅĽ",
        "mie"
      ],
      [
        "s",
        "w"
      ],
      [
        "ch",
        "ÅĤo"
      ],
      [
        "?",
        "ĊĊâĢĶĠ"
      ],
      [
        "c",
        "o"
      ],
      [
        "m",
        "iĠ"
      ],
      [
        "dzi",
        "aÅĤ"
      ],
      [
        "e",
        "w"
      ],
      [
        "s",
        "u"
      ],
      [
        "sk",
        "iĠ"
      ],
      [
        "szcz",
        "eĠ"
      ],
      [
        "ow",
        "an"
      ],
      [
        "u",
        "m"
      ],
      [
        "cz",
        "yÅĤ"
      ],
      [
        "j",
        "ÄĻ"
      ],
      [
        "b",
        "oĠ"
      ],
      [
        "i",
        "st"
      ],
      [
        "sz",
        "ko"
      ],
      [
        "z",
        "d"
      ],
      [
        "m",
        "uĠ"
      ],
      [
        "p",
        "ad"
      ],
      [
        "k",
        "Ġ"
      ],
      [
        "on",
        "yĠ"
      ],
      [
        "j",
        "eĠ"
      ],
      [
        "j",
        "Äħ"
      ],
      [
        ".Ġ",
        "J"
      ],
      [
        "s",
        "am"
      ],
      [
        "R",
        "ad"
      ],
      [
        "aÅĤĠ",
        "naĠ"
      ],
      [
        "s",
        "o"
      ],
      [
        "ki",
        ",Ġ"
      ],
      [
        "r",
        "owa"
      ],
      [
        "m",
        "at"
      ],
      [
        "si",
        "Äħ"
      ],
      [
        ".Ġ",
        "B"
      ],
      [
        "sz",
        "t"
      ],
      [
        "Ġd",
        "o"
      ],
      [
        "y",
        "t"
      ],
      [
        "n",
        "ÄħĠ"
      ],
      [
        "Ġp",
        "ra"
      ],
      [
        "cz",
        "u"
      ],
      [
        "z",
        "g"
      ],
      [
        "ra",
        "zĠ"
      ],
      [
        "je",
        "szczeĠ"
      ],
      [
        ".Ġ",
        "D"
      ],
      [
        "Ġm",
        "ie"
      ],
      [
        "na",
        "d"
      ],
      [
        "w",
        "aÅĤ"
      ],
      [
        "gi",
        "m"
      ],
      [
        "p",
        "ro"
      ],
      [
        "sz",
        "eĠ"
      ],
      [
        "le",
        "k"
      ],
      [
        "rz",
        "eĠ"
      ],
      [
        "nÄħ",
        "ÅĤ"
      ],
      [
        "ni",
        "c"
      ],
      [
        "âĢ¦",
        "ĊĊâĢĶĠ"
      ],
      [
        "jak",
        "Ġ"
      ],
      [
        "nauczycie",
        "l"
      ],
      [
        "rz",
        "u"
      ],
      [
        "w",
        "oĠ"
      ],
      [
        ".Ġ",
        "M"
      ],
      [
        "n",
        "ejĠ"
      ],
      [
        "naw",
        "et"
      ],
      [
        "nÄħ",
        "ÅĤĠ"
      ],
      [
        "b",
        "ar"
      ],
      [
        "ÄĻ",
        "dz"
      ],
      [
        "a",
        "st"
      ],
      [
        "ÄĻ",
        "k"
      ],
      [
        "ÅĽ",
        "Ġ"
      ],
      [
        ",Ġ",
        "nie"
      ],
      [
        "yĠ",
        "iĠ"
      ],
      [
        "mie",
        "js"
      ],
      [
        "b",
        "u"
      ],
      [
        "Marcin",
        "ek"
      ],
      [
        "jak",
        "ie"
      ],
      [
        "b",
        "li"
      ],
      [
        "aĠ",
        "w"
      ],
      [
        "z",
        "na"
      ],
      [
        "Ã³w",
        ",Ġ"
      ],
      [
        "d",
        "e"
      ],
      [
        "p",
        "u"
      ],
      [
        "st",
        "ro"
      ],
      [
        "siÄĻĠ",
        "naĠ"
      ],
      [
        "uĠ",
        "iĠ"
      ],
      [
        "gÅĤ",
        "ow"
      ],
      [
        "Ġp",
        "ie"
      ],
      [
        "on",
        "eĠ"
      ],
      [
        "m",
        ",Ġ"
      ],
      [
        "pe",
        "ÅĤ"
      ],
      [
        "ty",
        "lkoĠ"
      ],
      [
        "g",
        "iĠ"
      ],
      [
        "Äħ",
        ",Ġ"
      ],
      [
        "chÅĤo",
        "p"
      ],
      [
        "a",
        "Å¼"
      ],
      [
        "gim",
        "naz"
      ],
      [
        "j",
        "aĠ"
      ],
      [
        "ni",
        "a"
      ],
      [
        "Ã³",
        "Å¼"
      ],
      [
        ".Ġ",
        "G"
      ],
      [
        "cz",
        "ÄĻ"
      ],
      [
        "u",
        "mie"
      ],
      [
        "sy",
        "j"
      ],
      [
        "n",
        "ym"
      ],
      [
        "g",
        "ra"
      ],
      [
        "st",
        "rze"
      ],
      [
        "Ġp",
        "ro"
      ],
      [
        "a",
        "je"
      ],
      [
        "aĠ",
        "iĠ"
      ],
      [
        "ro",
        "syj"
      ],
      [
        "k",
        "las"
      ],
      [
        "Ġs",
        "po"
      ],
      [
        "n",
        "y,Ġ"
      ],
      [
        "sk",
        "o"
      ],
      [
        ".Ġ",
        "K"
      ],
      [
        "ÅĽ",
        "ÄĩĠ"
      ],
      [
        "le",
        "Å¼"
      ],
      [
        "ni",
        "a,Ġ"
      ],
      [
        "ro",
        "d"
      ],
      [
        "t",
        "yĠ"
      ],
      [
        "an",
        "oĠ"
      ],
      [
        "d",
        "ob"
      ],
      [
        ":",
        "Ġ"
      ],
      [
        "r",
        "Ã³w"
      ],
      [
        "rze",
        "k"
      ],
      [
        "cz",
        "Äħ"
      ],
      [
        "Ġt",
        "e"
      ],
      [
        "si",
        "ad"
      ],
      [
        "n",
        "y"
      ],
      [
        "szed",
        "ÅĤ"
      ],
      [
        ",Ġ",
        "wy"
      ],
      [
        "je",
        "j"
      ],
      [
        "n",
        "ychĠ"
      ],
      [
        "od",
        "Ġ"
      ],
      [
        "Å¼",
        "yÅĤ"
      ],
      [
        "aĠ",
        "z"
      ],
      [
        "f",
        "e"
      ],
      [
        "Å¼e",
        "byĠ"
      ],
      [
        "ni",
        "u"
      ],
      [
        "nie",
        "Ġz"
      ],
      [
        "Ġwie",
        "l"
      ],
      [
        "p",
        "owie"
      ],
      [
        "rÃ³",
        "Å¼"
      ],
      [
        "rw",
        "sz"
      ],
      [
        "cj",
        "iĠ"
      ],
      [
        ".ĊĊ",
        "P"
      ],
      [
        "ch",
        "ow"
      ],
      [
        "ÄĻ",
        ",Ġ"
      ],
      [
        "m",
        "yÅĽ"
      ],
      [
        "u",
        "jÄħc"
      ],
      [
        "g",
        "Ã³r"
      ],
      [
        "po",
        "l"
      ],
      [
        "s",
        "ÅĤu"
      ],
      [
        "le",
        "ry"
      ],
      [
        "te",
        "r"
      ],
      [
        "t",
        "aĠ"
      ],
      [
        "pie",
        "r"
      ],
      [
        "ÅĤĠ",
        "naĠ"
      ],
      [
        "rz",
        "yÅĤ"
      ],
      [
        "s",
        "obie"
      ],
      [
        "Ġm",
        "u"
      ],
      [
        "kie",
        "dyĠ"
      ],
      [
        "i",
        "t"
      ],
      [
        "g",
        "ru"
      ],
      [
        "Ġz",
        "eĠ"
      ],
      [
        "b",
        "ra"
      ],
      [
        "i",
        "l"
      ],
      [
        "ach",
        "Ġ"
      ],
      [
        "cho",
        "dzi"
      ],
      [
        "u",
        "Å¼"
      ],
      [
        "ÄĻ",
        "c"
      ],
      [
        "e",
        "l"
      ],
      [
        "gÅĤo",
        "s"
      ],
      [
        "ĠbyÅĤ",
        "oĠ"
      ],
      [
        "ÄĻ",
        "Å¼"
      ],
      [
        "Ġ",
        "o"
      ],
      [
        "k",
        "Ã³w"
      ],
      [
        "ni",
        "mĠ"
      ],
      [
        "p",
        "rowa"
      ],
      [
        "g",
        "a"
      ],
      [
        "Ġp",
        "an"
      ],
      [
        "nie",
        ",Ġ"
      ],
      [
        "siÄĻ",
        "Ġw"
      ],
      [
        "dz",
        "oĠ"
      ],
      [
        ".Ġ",
        "âĢĶĠ"
      ],
      [
        "sz",
        "cze"
      ],
      [
        "go",
        ",Ġ"
      ],
      [
        "m",
        "ow"
      ],
      [
        "d",
        "aw"
      ],
      [
        "ro",
        "m"
      ],
      [
        "z",
        "ie"
      ],
      [
        "gÅĤ",
        "ÄĻ"
      ],
      [
        ".ĠB",
        "yÅĤ"
      ],
      [
        "li",
        "cz"
      ],
      [
        "Äħ",
        "ĠiĠ"
      ],
      [
        "le",
        "g"
      ],
      [
        "kie",
        "mĠ"
      ],
      [
        "ÄĻ",
        "ĠiĠ"
      ],
      [
        "Ã³",
        "j"
      ],
      [
        "ÄĻdz",
        "yĠ"
      ],
      [
        "e",
        "d"
      ],
      [
        "Ġm",
        "o"
      ],
      [
        "ÄĻ",
        "dzie"
      ],
      [
        "nie",
        "goĠ"
      ],
      [
        "prze",
        "d"
      ],
      [
        "t",
        "egoĠ"
      ],
      [
        "d",
        "rz"
      ],
      [
        "te",
        "n"
      ],
      [
        "Ġty",
        "lkoĠ"
      ],
      [
        ".ĠN",
        "ie"
      ],
      [
        "aÅĤ",
        "Ġw"
      ],
      [
        "sk",
        "ich"
      ],
      [
        "Äĩ",
        ",Ġ"
      ],
      [
        "nie",
        "mĠ"
      ],
      [
        "ÅĤ",
        "ad"
      ],
      [
        "cie",
        "Ġ"
      ],
      [
        "wie",
        "Ġ"
      ],
      [
        "p",
        "at"
      ],
      [
        "W",
        "ie"
      ],
      [
        "ÅĽwi",
        "at"
      ],
      [
        "N",
        "ie"
      ],
      [
        "yĠ",
        "z"
      ],
      [
        "kÅĤ",
        "ad"
      ],
      [
        "kie",
        "m"
      ],
      [
        "Ġp",
        "ew"
      ],
      [
        "g",
        "u"
      ],
      [
        "sk",
        "u"
      ],
      [
        "t",
        "ow"
      ],
      [
        "Ġs",
        "am"
      ],
      [
        "a",
        "z"
      ],
      [
        "on",
        "oĠ"
      ],
      [
        "i",
        "m"
      ],
      [
        "b",
        "ez"
      ],
      [
        "n",
        "u"
      ],
      [
        "siÄĻ",
        "Ġz"
      ],
      [
        "no",
        "ÅĽci"
      ],
      [
        ",Ġ",
        "toĠ"
      ],
      [
        "ÅĦ",
        "Ġ"
      ],
      [
        "t",
        "eĠ"
      ],
      [
        "ro",
        "dz"
      ],
      [
        "d",
        "ow"
      ],
      [
        "ni",
        "k"
      ],
      [
        "siÄħ",
        "Å¼"
      ],
      [
        "p",
        "ow"
      ],
      [
        "rzy",
        "m"
      ],
      [
        "g",
        "l"
      ],
      [
        "ko",
        "l"
      ],
      [
        "ch",
        "u"
      ],
      [
        "Ġs",
        "w"
      ],
      [
        "m",
        "Ã³wi"
      ],
      [
        "aje",
        "w"
      ],
      [
        "l",
        "at"
      ],
      [
        "ni",
        "ÄĻt"
      ],
      [
        "ÅĽ",
        "nie"
      ],
      [
        "yĠ",
        "w"
      ],
      [
        "o",
        "j"
      ],
      [
        "sta",
        "wi"
      ],
      [
        "i",
        "mĠ"
      ],
      [
        "ÅĤ",
        "od"
      ],
      [
        "go",
        "dzi"
      ],
      [
        "p",
        "an"
      ],
      [
        "y",
        "cz"
      ],
      [
        "na",
        "k"
      ],
      [
        "ow",
        "aĠ"
      ],
      [
        "g",
        "dyĠ"
      ],
      [
        "âĢ¦Ġ",
        "âĢĶĠ"
      ],
      [
        "d",
        "ru"
      ],
      [
        "t",
        "rze"
      ],
      [
        "u",
        "k"
      ],
      [
        "aÅĤĠ",
        "siÄĻĠ"
      ],
      [
        "s",
        "a"
      ],
      [
        "ra",
        "d"
      ],
      [
        "nie",
        "Ġw"
      ],
      [
        "nie",
        "m"
      ],
      [
        "ÅĤĠ",
        "siÄĻ"
      ],
      [
        "ro",
        "bi"
      ],
      [
        "nie",
        "ĠiĠ"
      ],
      [
        "f",
        "or"
      ],
      [
        "sz",
        "k"
      ],
      [
        "o",
        "p"
      ],
      [
        "an",
        "eĠ"
      ],
      [
        "Ġprze",
        "d"
      ],
      [
        "gimnaz",
        "ju"
      ],
      [
        "Ġt",
        "egoĠ"
      ],
      [
        "Wie",
        "chow"
      ],
      [
        ".ĊĊ",
        "W"
      ],
      [
        "ucz",
        "ni"
      ],
      [
        "u",
        "n"
      ],
      [
        "k",
        "Äħ"
      ],
      [
        "byÅĤ",
        "oĠ"
      ],
      [
        "M",
        "ajew"
      ],
      [
        "o",
        "ko"
      ],
      [
        "o",
        "ÅĤ"
      ],
      [
        "ka",
        "z"
      ],
      [
        "sz",
        "a"
      ],
      [
        "skie",
        "goĠ"
      ],
      [
        "aniĠ",
        "Borowicz"
      ],
      [
        "âĢĿ",
        "Ġ"
      ],
      [
        ",Ġ",
        "za"
      ],
      [
        "y",
        "w"
      ],
      [
        "Ġm",
        "Ã³wi"
      ],
      [
        "Ġt",
        "ymĠ"
      ],
      [
        "k",
        "ro"
      ],
      [
        "r",
        "ektor"
      ],
      [
        "Ġs",
        "ie"
      ],
      [
        "ju",
        "Å¼Ġ"
      ],
      [
        "ni",
        "uĠ"
      ],
      [
        "Ġ",
        "na"
      ],
      [
        "c",
        "a"
      ],
      [
        "an",
        "yĠ"
      ],
      [
        "P",
        "rze"
      ],
      [
        "ka",
        "ch"
      ],
      [
        "szy",
        "b"
      ],
      [
        "e",
        "g"
      ],
      [
        "ta",
        "rz"
      ],
      [
        "in",
        "sp"
      ],
      [
        "ki",
        "l"
      ],
      [
        "e",
        ",Ġ"
      ],
      [
        "ow",
        "aÅĤ"
      ],
      [
        "o",
        "czyĠ"
      ],
      [
        "m",
        "yĠ"
      ],
      [
        "u",
        "st"
      ],
      [
        "ÄĻd",
        "r"
      ],
      [
        "no",
        "ÅĽciĠ"
      ],
      [
        "nie",
        "jĠ"
      ],
      [
        "sze",
        "p"
      ],
      [
        "la",
        "z"
      ],
      [
        "ro",
        "dzi"
      ],
      [
        "m",
        "aĠ"
      ],
      [
        "l",
        "kie"
      ],
      [
        "owi",
        "ad"
      ],
      [
        "szyst",
        "ki"
      ],
      [
        "i",
        "z"
      ],
      [
        "w",
        "yĠ"
      ],
      [
        "k",
        "ar"
      ],
      [
        "S",
        "z"
      ],
      [
        "e",
        "ÅĤ"
      ],
      [
        "t",
        "ar"
      ],
      [
        "o",
        "czy"
      ],
      [
        "al",
        "boĠ"
      ],
      [
        "ÅĽmie",
        "ch"
      ],
      [
        "b",
        "aĠ"
      ],
      [
        "p",
        "ÅĤy"
      ],
      [
        "st",
        "ra"
      ],
      [
        "r",
        "Äħ"
      ],
      [
        "ka",
        ",Ġ"
      ],
      [
        "ÅĽ",
        "wie"
      ],
      [
        "pier",
        "oĠ"
      ],
      [
        "w",
        "iĠ"
      ],
      [
        "czy",
        "t"
      ],
      [
        "ÅĽ",
        "rÃ³"
      ],
      [
        "o",
        "cz"
      ],
      [
        "u",
        "peÅĤ"
      ],
      [
        "s",
        "ob"
      ],
      [
        "d",
        "laĠ"
      ],
      [
        "rze",
        "kÅĤ"
      ],
      [
        "ta",
        "mĠ"
      ],
      [
        "sz",
        "ka"
      ],
      [
        "byÅĤ",
        "aĠ"
      ],
      [
        "szyst",
        "kie"
      ],
      [
        "K",
        "lery"
      ],
      [
        ",ĠktÃ³r",
        "yĠ"
      ],
      [
        "Å¼",
        "ad"
      ],
      [
        "rÃ³",
        "t"
      ],
      [
        "em",
        ",Ġ"
      ],
      [
        "ajÄħc",
        "Ġ"
      ],
      [
        "s",
        "er"
      ],
      [
        "rz",
        "Äħ"
      ],
      [
        "a",
        "cz"
      ],
      [
        "Ã³",
        "b"
      ],
      [
        "am",
        "ie"
      ],
      [
        "Ġt",
        "am"
      ],
      [
        "y",
        "k"
      ],
      [
        "t",
        "ej"
      ],
      [
        "chwi",
        "liĠ"
      ],
      [
        "o",
        "naĠ"
      ],
      [
        "nÄĻ",
        "ÅĤaĠ"
      ],
      [
        "rzek",
        "ÅĤĠ"
      ],
      [
        "ru",
        "d"
      ],
      [
        "Ġp",
        "anĠ"
      ],
      [
        "ami",
        ",Ġ"
      ],
      [
        "e",
        "cz"
      ],
      [
        "ko",
        "ÅĦ"
      ],
      [
        "cj",
        "i"
      ],
      [
        "jÄĻ",
        "zy"
      ],
      [
        "s",
        "ÅĤy"
      ],
      [
        "dz",
        "e"
      ],
      [
        "u",
        "wa"
      ],
      [
        "g",
        "ÄĻ"
      ],
      [
        "dzi",
        "w"
      ],
      [
        ".ĠW",
        "Ġ"
      ],
      [
        "!",
        "ĊĊ"
      ],
      [
        "pi",
        "s"
      ],
      [
        "m",
        "ar"
      ],
      [
        "b",
        "r"
      ],
      [
        ".ĠN",
        "aĠ"
      ],
      [
        ".ĊĊ",
        "T"
      ],
      [
        ",Ġg",
        "dyĠ"
      ],
      [
        "ost",
        "at"
      ],
      [
        "ÅĤ",
        "owie"
      ],
      [
        "Ġd",
        "ale"
      ],
      [
        "Rad",
        "ek"
      ],
      [
        "ÅĦ",
        "st"
      ],
      [
        "dz",
        "Äħc"
      ],
      [
        "p",
        "ar"
      ],
      [
        "ra",
        "n"
      ],
      [
        "aÅĤ",
        "Ġz"
      ],
      [
        "iĠ",
        "po"
      ],
      [
        "czy",
        "n"
      ],
      [
        "o",
        "dzi"
      ],
      [
        "Ġd",
        "ru"
      ],
      [
        "aÅĤ",
        "o"
      ],
      [
        ",Ġg",
        "dy"
      ],
      [
        "s",
        "or"
      ],
      [
        "on",
        "ych"
      ],
      [
        "ni",
        "byĠ"
      ],
      [
        "niej",
        "sz"
      ],
      [
        "l",
        "ach"
      ],
      [
        "Ġd",
        "ÅĤu"
      ],
      [
        "Ġm",
        "yÅĽ"
      ],
      [
        "c",
        "kie"
      ],
      [
        "jed",
        "en"
      ],
      [
        "g",
        "dzie"
      ],
      [
        "nie",
        "z"
      ],
      [
        "ry",
        "w"
      ],
      [
        "Ġza",
        "p"
      ],
      [
        "ow",
        "iĠ"
      ],
      [
        "d",
        "ÅĤu"
      ],
      [
        "c",
        "Ġ"
      ],
      [
        "te",
        "mĠ"
      ],
      [
        ".ĠG",
        "dyĠ"
      ],
      [
        "ÅĤ",
        "Ġw"
      ],
      [
        "ÅĤa",
        "w"
      ],
      [
        "ci",
        "aĠ"
      ],
      [
        "fe",
        "sor"
      ],
      [
        "t",
        "am"
      ],
      [
        "sk",
        "a"
      ],
      [
        "b",
        "a"
      ],
      [
        "k",
        "ÄĻĠ"
      ],
      [
        "wi",
        "cz"
      ],
      [
        "n",
        "ymiĠ"
      ],
      [
        "ie",
        "dyĠ"
      ],
      [
        "da",
        "le"
      ],
      [
        "k",
        "an"
      ],
      [
        "mo",
        "c"
      ],
      [
        "iĠ",
        "za"
      ],
      [
        "bar",
        "dzoĠ"
      ],
      [
        "!Ġ",
        "âĢĶ"
      ],
      [
        "c",
        "Ã³w"
      ],
      [
        "Ã³",
        "l"
      ],
      [
        "ÅĽ",
        "pie"
      ],
      [
        "szy",
        "s"
      ],
      [
        "insp",
        "ektor"
      ],
      [
        "now",
        "uĠ"
      ],
      [
        "gl",
        "Äħd"
      ],
      [
        "Ġm",
        "at"
      ],
      [
        ",Ġjak",
        "byĠ"
      ],
      [
        "d",
        "u"
      ],
      [
        "ni",
        "cz"
      ],
      [
        "ch",
        "a"
      ],
      [
        "w",
        "szyĠ"
      ],
      [
        "gÅĤo",
        "ÅĽ"
      ],
      [
        "s",
        "iĠ"
      ],
      [
        "rze",
        "cz"
      ],
      [
        "e",
        "st"
      ],
      [
        "p",
        "y"
      ],
      [
        "Ġt",
        "rze"
      ],
      [
        "Ã³",
        "d"
      ],
      [
        "d",
        "w"
      ],
      [
        "Ġm",
        "uĠ"
      ],
      [
        "te",
        "m"
      ],
      [
        "ĠiĠ",
        "z"
      ],
      [
        ".Ġ",
        "R"
      ],
      [
        "ÄĩĠ",
        "naĠ"
      ],
      [
        "Ġp",
        "owie"
      ],
      [
        "chwi",
        "l"
      ],
      [
        "siÄĻ",
        "ĠdoĠ"
      ],
      [
        ".ĊĊâĢĶĠ",
        "A"
      ],
      [
        "j",
        "rz"
      ],
      [
        "wa",
        "Äĩ"
      ],
      [
        "sp",
        "ra"
      ],
      [
        "Ġprze",
        "zĠ"
      ],
      [
        "szyst",
        "koĠ"
      ],
      [
        "Ġklas",
        "ie"
      ],
      [
        "Ġm",
        "a"
      ],
      [
        "g",
        "ar"
      ],
      [
        "cz",
        "ar"
      ],
      [
        "r",
        "yĠ"
      ],
      [
        "s",
        "ch"
      ],
      [
        "l",
        "ad"
      ],
      [
        "wie",
        "r"
      ],
      [
        "u",
        "cze"
      ],
      [
        "ro",
        "g"
      ],
      [
        "ro",
        "s"
      ],
      [
        "te",
        "dyĠ"
      ],
      [
        "si",
        "ÅĤ"
      ],
      [
        "c",
        "aÅĤyĠ"
      ],
      [
        "ni",
        "ch"
      ],
      [
        "wo",
        "ÅĤ"
      ],
      [
        "cz",
        "ÅĤowie"
      ],
      [
        ",ĠktÃ³r",
        "eĠ"
      ],
      [
        "nie",
        "Ġb"
      ],
      [
        "*",
        ",Ġ"
      ],
      [
        "j",
        "ÄħĠ"
      ],
      [
        "z",
        "ami"
      ],
      [
        "Ġt",
        "amĠ"
      ],
      [
        "pe",
        "w"
      ],
      [
        "g",
        "dy"
      ],
      [
        "Ġt",
        "en"
      ],
      [
        "je",
        "m"
      ],
      [
        "o",
        "z"
      ],
      [
        "e",
        "zĠ"
      ],
      [
        "og",
        "rom"
      ],
      [
        "u",
        "mi"
      ],
      [
        "Ġz",
        "w"
      ],
      [
        "szys",
        "cyĠ"
      ],
      [
        "ÅĤo",
        "dzie"
      ],
      [
        "Å",
        "»"
      ],
      [
        "Ġ",
        "od"
      ],
      [
        "wy",
        "mĠ"
      ],
      [
        "li",
        "c"
      ],
      [
        "k",
        "rÃ³t"
      ],
      [
        "je",
        "jĠ"
      ],
      [
        ",Ġ",
        "po"
      ],
      [
        "aÅĤyĠ",
        "siÄĻ"
      ],
      [
        "st",
        "u"
      ],
      [
        "en",
        "t"
      ],
      [
        "t",
        "Ã³r"
      ],
      [
        "Ġs",
        "wo"
      ],
      [
        "d",
        "Åº"
      ],
      [
        "n",
        "Äħc"
      ],
      [
        "Ġd",
        "y"
      ],
      [
        "kiĠ",
        "iĠ"
      ],
      [
        "s",
        "pod"
      ],
      [
        "skie",
        "j"
      ],
      [
        "t",
        "ych"
      ],
      [
        "jed",
        "nak"
      ],
      [
        "ko",
        "j"
      ],
      [
        "s",
        "wo"
      ],
      [
        ",Ġ",
        "t"
      ],
      [
        "âĢ¦Ġ",
        "âĢĶ"
      ],
      [
        "Ġ",
        "roz"
      ],
      [
        "ra",
        "fi"
      ],
      [
        "pra",
        "w"
      ],
      [
        "myÅĽ",
        "l"
      ],
      [
        "sÅĤu",
        "ch"
      ],
      [
        "dz",
        "iĠ"
      ],
      [
        "Ġmie",
        "js"
      ],
      [
        "k",
        "at"
      ],
      [
        "Ġp",
        "ow"
      ],
      [
        "mi",
        "ÄĻdzyĠ"
      ],
      [
        "z",
        "yĠ"
      ],
      [
        ",Ġ",
        "naĠ"
      ],
      [
        ",Ġg",
        "dzie"
      ],
      [
        "T",
        "ak"
      ],
      [
        "ro",
        "n"
      ],
      [
        "z",
        "eĠ"
      ],
      [
        "Ġpie",
        "rwsz"
      ],
      [
        "ko",
        "re"
      ],
      [
        "cie",
        "m"
      ],
      [
        "no",
        "ÅĽÄĩ"
      ],
      [
        "t",
        "ym"
      ],
      [
        "Ġ",
        "siÄĻĠ"
      ],
      [
        "czy",
        "ta"
      ],
      [
        "ÅĤ",
        "as"
      ],
      [
        "pie",
        "rwsz"
      ],
      [
        "wa",
        "rz"
      ],
      [
        "prze",
        "z"
      ],
      [
        "no",
        "g"
      ],
      [
        "k",
        "rzy"
      ],
      [
        "ÅĽ",
        "li"
      ],
      [
        ".Ġ",
        "A"
      ],
      [
        "st",
        "aw"
      ],
      [
        "szt",
        "aÅĤ"
      ],
      [
        "a",
        "u"
      ],
      [
        "na",
        ",Ġ"
      ],
      [
        "r",
        "ow"
      ],
      [
        "byÅĤ",
        "yĠ"
      ],
      [
        "ÅĽ",
        "rod"
      ],
      [
        "Ġk",
        "il"
      ],
      [
        "ko",
        "n"
      ],
      [
        "pe",
        "ty"
      ],
      [
        "m",
        "Ã³"
      ],
      [
        "cz",
        "ek"
      ],
      [
        "Ġz",
        "na"
      ],
      [
        "sk",
        "aĠ"
      ],
      [
        "ami",
        "ÄĻ"
      ],
      [
        "mo",
        "Å¼"
      ],
      [
        "Ġs",
        "obie"
      ],
      [
        "a",
        "li"
      ],
      [
        "Prze",
        "pi"
      ],
      [
        "ist",
        "or"
      ],
      [
        "Ġb",
        "i"
      ],
      [
        "st",
        "aÅĤ"
      ],
      [
        "now",
        "u"
      ],
      [
        "Ġk",
        "tÃ³r"
      ],
      [
        "u",
        "ÅĽmiech"
      ],
      [
        "emĠ",
        "iĠ"
      ],
      [
        "e",
        "go"
      ],
      [
        "Ġp",
        "ar"
      ],
      [
        "kaĠ",
        "iĠ"
      ],
      [
        "st",
        "y"
      ],
      [
        "Ġp",
        "at"
      ],
      [
        "ty",
        "cz"
      ],
      [
        "dzie",
        "j"
      ],
      [
        "drz",
        "wi"
      ],
      [
        "o",
        ",Ġ"
      ],
      [
        "ĠiĠ",
        "w"
      ],
      [
        "e",
        "c"
      ],
      [
        "re",
        "szt"
      ],
      [
        "t",
        "ymĠ"
      ],
      [
        "Ġklas",
        "yĠ"
      ],
      [
        "s",
        "ÅĤa"
      ],
      [
        "ni",
        "Äħ"
      ],
      [
        "rzu",
        "ci"
      ],
      [
        "Äħ",
        "z"
      ],
      [
        "r",
        "i"
      ],
      [
        "rz",
        "Äħd"
      ],
      [
        "rÃ³",
        "ci"
      ],
      [
        "ÅĤ",
        "Äħ"
      ],
      [
        "m",
        "aÅĤ"
      ],
      [
        "J",
        "ÄĻdr"
      ],
      [
        ".ĠC",
        "h"
      ],
      [
        "z",
        "ro"
      ],
      [
        "wie",
        "l"
      ],
      [
        "a",
        "ÄĩĠ"
      ],
      [
        "ro",
        "sz"
      ],
      [
        "kol",
        "wie"
      ],
      [
        "re",
        "sz"
      ],
      [
        "it",
        "d"
      ],
      [
        "J",
        "aĠ"
      ],
      [
        "ce",
        "l"
      ],
      [
        "ÅĽci",
        "Äħ"
      ],
      [
        "w",
        "aÅĤĠ"
      ],
      [
        "Å¼e",
        "liĠ"
      ],
      [
        "ow",
        "aÅĤĠ"
      ],
      [
        "pro",
        "st"
      ],
      [
        ".Ġ",
        "I"
      ],
      [
        "s",
        "Äħ"
      ],
      [
        "nyĠ",
        "iĠ"
      ],
      [
        "Ġk",
        "u"
      ],
      [
        "ro",
        "b"
      ],
      [
        "o",
        "ch"
      ],
      [
        "Ġb",
        "ar"
      ],
      [
        "ÅĤo",
        "s"
      ],
      [
        "ÅĽ",
        "le"
      ],
      [
        "?Ġ",
        "âĢĶ"
      ],
      [
        "Ã³",
        "Åº"
      ],
      [
        "l",
        "on"
      ],
      [
        "ni",
        "m"
      ],
      [
        "Ġ",
        "ch"
      ],
      [
        "ok",
        "ro"
      ],
      [
        "s",
        "Ã³b"
      ],
      [
        ".Ġ",
        "U"
      ],
      [
        "on",
        "Ġ"
      ],
      [
        "sie",
        "bie"
      ],
      [
        "Ã³",
        "s"
      ],
      [
        "dzie",
        "n"
      ],
      [
        "ko",
        "le"
      ],
      [
        "st",
        "Äħ"
      ],
      [
        "Klery",
        "k"
      ],
      [
        "rodz",
        "aj"
      ],
      [
        "a",
        "p"
      ],
      [
        "nie",
        "Ġwy"
      ],
      [
        "Å¼",
        "on"
      ],
      [
        "cz",
        "aj"
      ],
      [
        "c",
        "aleĠ"
      ],
      [
        ".ĠC",
        "z"
      ],
      [
        "Ġd",
        "laĠ"
      ],
      [
        "z",
        "w"
      ],
      [
        "Ġp",
        "rzyĠ"
      ],
      [
        "szko",
        "l"
      ],
      [
        "k",
        "amiĠ"
      ],
      [
        "z",
        "e"
      ],
      [
        "ra",
        "c"
      ],
      [
        "nie",
        "Ġs"
      ],
      [
        ".ĊĊ",
        "N"
      ],
      [
        "t",
        "ÅĤu"
      ],
      [
        "kore",
        "pety"
      ],
      [
        "u",
        "ra"
      ],
      [
        "Ã³w",
        "czas"
      ],
      [
        "kt",
        "Ã³"
      ],
      [
        "iĠ",
        "wy"
      ],
      [
        "re",
        "w"
      ],
      [
        "dzie",
        "Äĩ"
      ],
      [
        "eg",
        "zami"
      ],
      [
        "ru",
        "ch"
      ],
      [
        "aÅĤ",
        ",Ġ"
      ],
      [
        "ko",
        "ry"
      ],
      [
        "ru",
        "sz"
      ],
      [
        "nie",
        "ĠbyÅĤ"
      ],
      [
        "Å¼",
        "sz"
      ],
      [
        "C",
        "oĠ"
      ],
      [
        "e",
        "ÅĽ"
      ],
      [
        "rz",
        "ÄĻ"
      ],
      [
        "c",
        "a,Ġ"
      ],
      [
        "ach",
        ",Ġ"
      ],
      [
        "o",
        "Å¼"
      ],
      [
        "Ġd",
        "rz"
      ],
      [
        "Ã³",
        "st"
      ],
      [
        "ski",
        ",Ġ"
      ],
      [
        "cz",
        "o"
      ],
      [
        "siÄĻ",
        "ĠwĠ"
      ],
      [
        "mi",
        "ast"
      ],
      [
        "Ġz",
        "ie"
      ],
      [
        "ci",
        "ch"
      ],
      [
        "p",
        "anĠ"
      ],
      [
        "rz",
        "ÄĻd"
      ],
      [
        "te",
        "l"
      ],
      [
        "g",
        "od"
      ],
      [
        "p",
        "aniĠBorowicz"
      ],
      [
        "no",
        "c"
      ],
      [
        "prowa",
        "dzi"
      ],
      [
        "g",
        "ad"
      ],
      [
        "ej",
        ",Ġ"
      ],
      [
        "ÅĽ",
        "ni"
      ],
      [
        "jak",
        "byĠ"
      ],
      [
        "Ġk",
        "siÄħÅ¼"
      ],
      [
        "m",
        "e"
      ],
      [
        "szcz",
        "ÄĻ"
      ],
      [
        "Ġt",
        "ejĠ"
      ],
      [
        "sÅĤy",
        "sz"
      ],
      [
        "ko",
        "leg"
      ],
      [
        "jak",
        "oĠ"
      ],
      [
        "ow",
        "eĠ"
      ],
      [
        "wy",
        "czaj"
      ],
      [
        "t",
        "ÄĻ"
      ],
      [
        "ci",
        "ÄĻÅ¼"
      ],
      [
        "m",
        "y"
      ],
      [
        ".ĊĊ",
        "Z"
      ],
      [
        "ich",
        "Ġ"
      ],
      [
        ".ĊĊâĢĶĠ",
        "P"
      ],
      [
        "Ġpo",
        "l"
      ],
      [
        "dzie",
        "ci"
      ],
      [
        "Ġb",
        "u"
      ],
      [
        "g",
        "leĠ"
      ],
      [
        "aÅĤ",
        "ĠwĠ"
      ],
      [
        "ra",
        "j"
      ],
      [
        "skie",
        "go"
      ],
      [
        "Marcin",
        "ekĠ"
      ],
      [
        "os",
        "ob"
      ],
      [
        "sz",
        "Ġ"
      ],
      [
        "aw",
        "ron"
      ],
      [
        "na",
        "stÄĻp"
      ],
      [
        "Äħc",
        "eĠ"
      ],
      [
        "ÅĤ",
        "ow"
      ],
      [
        "prze",
        "zĠ"
      ],
      [
        "p",
        "owiad"
      ],
      [
        "Ġk",
        "ar"
      ],
      [
        "aÅĤ",
        "ĠdoĠ"
      ],
      [
        "h",
        "istor"
      ],
      [
        "na",
        "dĠ"
      ],
      [
        "sz",
        "czy"
      ],
      [
        "ch",
        ",Ġ"
      ],
      [
        "Ġs",
        "y"
      ],
      [
        "te",
        "Å¼"
      ],
      [
        "gÅĤÄĻ",
        "bo"
      ],
      [
        "b",
        "ÄĻdzie"
      ],
      [
        "Ġprze",
        "dĠ"
      ],
      [
        "c",
        "uĠ"
      ],
      [
        "czas",
        "emĠ"
      ],
      [
        "a",
        "nie"
      ],
      [
        "p",
        "al"
      ],
      [
        "ajÄħc",
        "eĠ"
      ],
      [
        "d",
        "rze"
      ],
      [
        "Ġ",
        "ob"
      ],
      [
        "Ġw",
        "ol"
      ],
      [
        "aÅ¼",
        "ĠdoĠ"
      ],
      [
        "a",
        "b"
      ],
      [
        "pod",
        "Ġ"
      ],
      [
        "sto",
        "p"
      ],
      [
        "le",
        "cz"
      ],
      [
        "jak",
        "i"
      ],
      [
        "ÅĽmie",
        "r"
      ],
      [
        "li",
        "te"
      ],
      [
        "pra",
        "wi"
      ],
      [
        "a",
        "nieĠ"
      ],
      [
        "Ġtak",
        "ie"
      ],
      [
        "wi",
        "ÄĻc"
      ],
      [
        "aÅ¼",
        "d"
      ],
      [
        "ÅĤĠ",
        "siÄĻĠ"
      ],
      [
        "klas",
        "yĠ"
      ],
      [
        "je",
        "dy"
      ],
      [
        "ni",
        ",Ġ"
      ],
      [
        "k",
        "owi"
      ],
      [
        "le",
        ",Ġ"
      ],
      [
        "pod",
        "ob"
      ],
      [
        "ni",
        "ÄħĠ"
      ],
      [
        "cze",
        "r"
      ],
      [
        "wy",
        "k"
      ],
      [
        "dzi",
        "aÅĤĠ"
      ],
      [
        "o",
        "le"
      ],
      [
        "w",
        "or"
      ],
      [
        "aĠ",
        "po"
      ],
      [
        "W",
        "i"
      ],
      [
        "ka",
        "Å¼"
      ],
      [
        "Marcin",
        "kaĠ"
      ],
      [
        "Ã³w",
        "ĠiĠ"
      ],
      [
        "rÃ³w",
        "nie"
      ],
      [
        "wi",
        "ÄĻk"
      ],
      [
        "k",
        "ÄħĠ"
      ],
      [
        "ra",
        "mi"
      ],
      [
        "ajÄħc",
        "ĠsiÄĻ"
      ],
      [
        "czÄħ",
        "ÅĤ"
      ],
      [
        "naĠ",
        "z"
      ],
      [
        "gÅĤÄĻ",
        "b"
      ],
      [
        "naĠ",
        "w"
      ],
      [
        "Ġt",
        "eĠ"
      ],
      [
        "sze",
        "lkie"
      ],
      [
        "si",
        "Ã³d"
      ],
      [
        "ktÃ³",
        "rzyĠ"
      ],
      [
        "czy",
        "st"
      ],
      [
        ",Ġjak",
        "Ġ"
      ],
      [
        "a",
        "Å¼ebyĠ"
      ],
      [
        "k",
        "siÄħÅ¼"
      ],
      [
        "ni",
        "st"
      ],
      [
        "gimnaz",
        "j"
      ],
      [
        "gimnazj",
        "al"
      ],
      [
        "Ġ",
        "Ġ"
      ],
      [
        "Ġw",
        "od"
      ],
      [
        "mi",
        "n"
      ],
      [
        "ÅĽrÃ³",
        "d"
      ],
      [
        "t",
        "rz"
      ],
      [
        "le",
        "w"
      ],
      [
        "Ġd",
        "aw"
      ],
      [
        "mie",
        "r"
      ],
      [
        ".ĠM",
        "i"
      ],
      [
        ",Ġp",
        "rzy"
      ],
      [
        "u",
        "si"
      ],
      [
        "T",
        "oĠ"
      ],
      [
        "Ġd",
        "om"
      ],
      [
        "wa",
        "Å¼"
      ],
      [
        "Ġk",
        "ie"
      ],
      [
        ",Ġ",
        "kiedyĠ"
      ],
      [
        "w",
        "ÅĤa"
      ],
      [
        "nie",
        "Ġp"
      ],
      [
        "sz",
        "u"
      ],
      [
        "aÅĤ",
        "a"
      ],
      [
        "a",
        "niaĠ"
      ],
      [
        "no",
        "s"
      ],
      [
        "tak",
        "Ġ"
      ],
      [
        "g",
        "or"
      ],
      [
        "jest",
        "Ġ"
      ],
      [
        "tu",
        "r"
      ],
      [
        "zy",
        "w"
      ],
      [
        "g",
        "nie"
      ],
      [
        "ow",
        "ej"
      ],
      [
        "na",
        "leÅ¼"
      ],
      [
        "od",
        "powie"
      ],
      [
        "dzie",
        "l"
      ],
      [
        "sw",
        "egoĠ"
      ],
      [
        "m",
        "nie"
      ],
      [
        "ar",
        "i"
      ],
      [
        "âĢĿ",
        ",Ġ"
      ],
      [
        "gimnazju",
        "mĠ"
      ],
      [
        "ÅĤa",
        "ci"
      ],
      [
        "yĠ",
        "naĠ"
      ],
      [
        "wie",
        "n"
      ],
      [
        "W",
        "ale"
      ],
      [
        "li",
        "w"
      ],
      [
        "d",
        "waĠ"
      ],
      [
        "je",
        "ch"
      ],
      [
        "j",
        "rze"
      ],
      [
        ".ĠP",
        "rze"
      ],
      [
        "oĠ",
        "w"
      ],
      [
        "nÄĻ",
        "ÅĤyĠ"
      ],
      [
        "jakie",
        "ÅĽ"
      ],
      [
        "Ġz",
        "d"
      ],
      [
        "czy",
        "ni"
      ],
      [
        "szcze",
        "g"
      ],
      [
        "ra",
        "l"
      ],
      [
        "prowa",
        "dz"
      ],
      [
        "t",
        "ejĠ"
      ],
      [
        ".ĠS",
        "t"
      ],
      [
        "um",
        "y"
      ],
      [
        "kolwie",
        "k"
      ],
      [
        "Ġ",
        "nieĠ"
      ],
      [
        "tak",
        "ie"
      ],
      [
        "le",
        "c"
      ],
      [
        "ÅĤ",
        "ĠwĠ"
      ],
      [
        "li",
        "wie"
      ],
      [
        "ni",
        "ko"
      ],
      [
        "ob",
        "a"
      ],
      [
        "M",
        "ich"
      ],
      [
        "nie",
        "Ġpo"
      ],
      [
        "czÄħ",
        "ÅĤĠ"
      ],
      [
        "no",
        "si"
      ],
      [
        "Ã³",
        "g"
      ],
      [
        "cz",
        "ter"
      ],
      [
        "aÅĤ",
        "y"
      ],
      [
        "Ġmi",
        "ÄĻdzyĠ"
      ],
      [
        "cz",
        "egoĠ"
      ],
      [
        "re",
        "s"
      ],
      [
        "Majew",
        "skiĠ"
      ],
      [
        ".Ġ",
        "Borowicz"
      ],
      [
        "stan",
        "owi"
      ],
      [
        "ek",
        ",Ġ"
      ],
      [
        "Ġz",
        "ad"
      ],
      [
        "le",
        "gÅĤ"
      ],
      [
        "sz",
        "ar"
      ],
      [
        "jed",
        "no"
      ],
      [
        "wy",
        "ci"
      ],
      [
        "sz",
        "lach"
      ],
      [
        "eĠ",
        "iĠ"
      ],
      [
        "k",
        "ry"
      ],
      [
        "naĠ",
        "po"
      ],
      [
        "ko",
        "ch"
      ],
      [
        "o",
        "na"
      ],
      [
        "ra",
        "Å¼e"
      ],
      [
        "Ġp",
        "e"
      ],
      [
        "sze",
        "ro"
      ],
      [
        "y,Ġ",
        "aĠ"
      ],
      [
        "spo",
        "sob"
      ],
      [
        "!Ġ",
        "âĢĶĠ"
      ],
      [
        "ru",
        "n"
      ],
      [
        "Ġd",
        "u"
      ],
      [
        "âĢĶĠ",
        "iĠ"
      ],
      [
        "Ġspo",
        "sÃ³b"
      ],
      [
        ".ĊĊ",
        "S"
      ],
      [
        "Ġb",
        "ie"
      ],
      [
        "a",
        "sz"
      ],
      [
        "ni",
        "os"
      ],
      [
        "l",
        "am"
      ],
      [
        "G",
        "awron"
      ],
      [
        "g",
        "ro"
      ],
      [
        "Ġw",
        "ÅĤa"
      ],
      [
        "at",
        "y"
      ],
      [
        "ski",
        "mĠ"
      ],
      [
        "eĠ",
        "z"
      ],
      [
        "lek",
        "cj"
      ],
      [
        "Å¼y",
        "w"
      ],
      [
        "owa",
        "niaĠ"
      ],
      [
        "za",
        "w"
      ],
      [
        "ki",
        "ch"
      ],
      [
        "ĠbyÅĤ",
        "Ġ"
      ],
      [
        "k",
        "wi"
      ],
      [
        "rzu",
        "c"
      ],
      [
        "ku",
        ",Ġ"
      ],
      [
        "do",
        "l"
      ],
      [
        "Kleryk",
        "owie"
      ],
      [
        "la",
        "si"
      ],
      [
        "y",
        "gie"
      ],
      [
        "C",
        "h"
      ],
      [
        ".ĊĊ",
        "K"
      ],
      [
        "mu",
        "t"
      ],
      [
        "u",
        "cie"
      ],
      [
        "Ġprze",
        "z"
      ],
      [
        "roz",
        "ma"
      ],
      [
        "p",
        "aniĠ"
      ],
      [
        "J",
        "ak"
      ],
      [
        "roz",
        "umie"
      ],
      [
        "lu",
        "b"
      ],
      [
        "N",
        "o"
      ],
      [
        "t",
        "Äħd"
      ],
      [
        "mi",
        "ÄĻ"
      ],
      [
        "Ġwi",
        "ÄĻc"
      ],
      [
        "Äĩ",
        "Ġw"
      ],
      [
        "ni",
        "ÄĻ"
      ],
      [
        "an",
        "Äħ"
      ],
      [
        "ob",
        "ok"
      ],
      [
        "Ġt",
        "ej"
      ],
      [
        "resz",
        "cie"
      ],
      [
        "Ġd",
        "ob"
      ],
      [
        "ciÄħg",
        "leĠ"
      ],
      [
        "m",
        "ni"
      ],
      [
        "?",
        "ĊĊ"
      ],
      [
        "Ġz",
        "upeÅĤ"
      ],
      [
        "naj",
        "m"
      ],
      [
        "Ġpod",
        "Ġ"
      ],
      [
        "z",
        "m"
      ],
      [
        "sk",
        "Äħ"
      ],
      [
        "ad",
        "o"
      ],
      [
        "R",
        "os"
      ],
      [
        "nie",
        "c"
      ],
      [
        "drz",
        "wiĠ"
      ],
      [
        "wo",
        "l"
      ],
      [
        "kory",
        "tarz"
      ],
      [
        "âĢŀ",
        "B"
      ],
      [
        "sp",
        "Ã³ÅĤ"
      ],
      [
        "L",
        "e"
      ],
      [
        "te",
        "t"
      ],
      [
        "naĠ",
        "p"
      ],
      [
        "ko",
        "ÅĤ"
      ],
      [
        "Ġd",
        "uÅ¼"
      ],
      [
        "wi",
        "do"
      ],
      [
        "Ġw",
        "oÅĤ"
      ],
      [
        "pa",
        "naĠ"
      ],
      [
        "ra",
        "ch"
      ],
      [
        "zg",
        "l"
      ],
      [
        "st",
        "ru"
      ],
      [
        "Ġk",
        "a"
      ],
      [
        "?Ġ",
        "âĢĶĠ"
      ],
      [
        "Ġz",
        "ak"
      ],
      [
        "mie",
        "szka"
      ],
      [
        "ÅĽrÃ³",
        "dĠ"
      ],
      [
        "t",
        "uĠ"
      ],
      [
        "owa",
        "Äĩ"
      ],
      [
        "rz",
        "Äħc"
      ],
      [
        "Ġp",
        "Ã³ÅĤ"
      ],
      [
        "ro",
        "k"
      ],
      [
        "k",
        "rze"
      ],
      [
        "an",
        "d"
      ],
      [
        "Ġs",
        "er"
      ],
      [
        "u",
        "l"
      ],
      [
        "amiĠ",
        "iĠ"
      ],
      [
        "m",
        "ej"
      ],
      [
        "*",
        "Ġ"
      ],
      [
        "a",
        "c"
      ],
      [
        "k",
        "le"
      ],
      [
        "ne",
        "go"
      ],
      [
        ",Ġ",
        "b"
      ],
      [
        "Ġb",
        "ez"
      ],
      [
        "szyb",
        "koĠ"
      ],
      [
        "Mich",
        "ci"
      ],
      [
        "krÃ³t",
        "ceĠ"
      ],
      [
        "d",
        "i"
      ],
      [
        "d",
        "wie"
      ],
      [
        "aÅĤaĠ",
        "siÄĻĠ"
      ],
      [
        "czÄĻ",
        "st"
      ],
      [
        ",Ġgdy",
        "Å¼"
      ],
      [
        "j",
        "ÄĻt"
      ],
      [
        "ych",
        "odzi"
      ],
      [
        "dy",
        "rektor"
      ],
      [
        "cy",
        "j"
      ],
      [
        "fi",
        "l"
      ],
      [
        "ajÄħc",
        "yĠ"
      ],
      [
        "owa",
        "ÄĩĠ"
      ],
      [
        "rze",
        "czy"
      ],
      [
        "cz",
        "ni"
      ],
      [
        "gimnazju",
        "m"
      ],
      [
        "dzie",
        "dzi"
      ],
      [
        "N",
        "og"
      ],
      [
        "m",
        "al"
      ],
      [
        "ÅĤ",
        "Ã³Å¼"
      ],
      [
        "on",
        "o"
      ],
      [
        ".ĠS",
        "z"
      ],
      [
        "t",
        "rzym"
      ],
      [
        "rz",
        "a"
      ],
      [
        "wie",
        "rz"
      ],
      [
        "u",
        "p"
      ],
      [
        "cie",
        "r"
      ],
      [
        "oczy",
        "maĠ"
      ],
      [
        "ÅĤo",
        "t"
      ],
      [
        "k",
        "ami"
      ],
      [
        "cz",
        "Äħc"
      ],
      [
        "Ġz",
        "naj"
      ],
      [
        "aÅĤaĠ",
        "siÄĻ"
      ],
      [
        "m",
        "en"
      ],
      [
        "Ġ",
        "jegoĠ"
      ],
      [
        "aj",
        "Äħ"
      ],
      [
        "ĠiĠ",
        "za"
      ],
      [
        "sy",
        "n"
      ],
      [
        "te",
        "Å¼Ġ"
      ],
      [
        "wa",
        "ÄĩĠ"
      ],
      [
        "c",
        "Ã³Å¼"
      ],
      [
        "i",
        "d"
      ],
      [
        "st",
        "os"
      ],
      [
        "p",
        "rzyĠ"
      ],
      [
        "stan",
        "Äħ"
      ],
      [
        "i",
        ",Ġ"
      ],
      [
        "Ġs",
        "ÅĤy"
      ],
      [
        "ch",
        "y"
      ],
      [
        "W",
        "ar"
      ],
      [
        "n",
        "t"
      ],
      [
        "Ġtak",
        "Ġ"
      ],
      [
        "da",
        "go"
      ],
      [
        "py",
        "ta"
      ],
      [
        "stÄĻp",
        "nej"
      ],
      [
        "nie",
        "po"
      ],
      [
        "ja",
        "wi"
      ],
      [
        "ni",
        "chĠ"
      ],
      [
        "goĠ",
        "w"
      ],
      [
        "go",
        "t"
      ],
      [
        "P",
        "ol"
      ],
      [
        ".ĠW",
        "ie"
      ],
      [
        "nie",
        "Ġd"
      ],
      [
        "Ġt",
        "ych"
      ],
      [
        "go",
        "spod"
      ],
      [
        "Z",
        "a"
      ],
      [
        "Ġpro",
        "fesor"
      ],
      [
        "stan",
        "cj"
      ],
      [
        ".ĊĊ",
        "O"
      ],
      [
        "gÅĤ",
        "Ã³w"
      ],
      [
        "d",
        "niaĠ"
      ],
      [
        ".ĊĊ",
        "D"
      ],
      [
        "nieĠ",
        "od"
      ],
      [
        "Ġp",
        "al"
      ],
      [
        "ow",
        "ejĠ"
      ],
      [
        ".ĠByÅĤ",
        "ĠtoĠ"
      ],
      [
        "b",
        "rze"
      ],
      [
        "mie",
        "ni"
      ],
      [
        "cie",
        "c"
      ],
      [
        "ki",
        "chĠ"
      ],
      [
        "rze",
        ",Ġ"
      ],
      [
        "gdy",
        "byĠ"
      ],
      [
        "zgl",
        "ÄĻd"
      ],
      [
        "rÃ³",
        "d"
      ],
      [
        "em",
        "uĠ"
      ],
      [
        "au",
        "czycie"
      ],
      [
        "sobie",
        "Ġ"
      ],
      [
        "dzie",
        "ÄĩĠ"
      ],
      [
        "mo",
        "Å¼eĠ"
      ],
      [
        "Ġz",
        "aw"
      ],
      [
        "sk",
        "oĠ"
      ],
      [
        ".ĠP",
        "o"
      ],
      [
        "na",
        "p"
      ],
      [
        "aÅĤ",
        "eĠ"
      ],
      [
        "gÅĤÄĻb",
        "iĠ"
      ],
      [
        "ko",
        "ju"
      ],
      [
        "e",
        "sz"
      ],
      [
        "ÄĻ",
        "Ġw"
      ],
      [
        "Å¼",
        "Äħc"
      ],
      [
        "ist",
        "ot"
      ],
      [
        "y,Ġ",
        "w"
      ],
      [
        "m",
        "ÅĤod"
      ],
      [
        "rÄĻ",
        "ceĠ"
      ],
      [
        "ce",
        ",Ġ"
      ],
      [
        "p",
        "ÅĤ"
      ],
      [
        "g",
        "ni"
      ],
      [
        "in",
        "te"
      ],
      [
        "b",
        "el"
      ],
      [
        "J",
        "e"
      ],
      [
        "Ġd",
        "e"
      ],
      [
        "ar",
        "yt"
      ],
      [
        "aryt",
        "me"
      ],
      [
        "sz",
        "tu"
      ],
      [
        "sie",
        "d"
      ],
      [
        "da",
        "Äĩ"
      ],
      [
        "Ã³",
        "gÅĤ"
      ],
      [
        ".ĠN",
        "i"
      ],
      [
        "czas",
        "ie"
      ],
      [
        "Ġdy",
        "rektor"
      ],
      [
        "nieĠ",
        "ch"
      ],
      [
        "g",
        "e"
      ],
      [
        "k",
        "amie"
      ],
      [
        "histor",
        "i"
      ],
      [
        "sze",
        "ch"
      ],
      [
        "pra",
        "wie"
      ],
      [
        "on",
        "egoĠ"
      ],
      [
        "pew",
        "neĠ"
      ],
      [
        "yĠ",
        "wĠ"
      ],
      [
        "ÅĽ",
        "lad"
      ],
      [
        "iĠ",
        "u"
      ],
      [
        "w",
        "ajÄħc"
      ],
      [
        "ÅĤa",
        ",Ġ"
      ],
      [
        "r",
        "yÅĤ"
      ],
      [
        ".ĠK",
        "iedyĠ"
      ],
      [
        "m",
        "oĠ"
      ],
      [
        "w",
        "aÅĤyĠ"
      ],
      [
        "pie",
        "c"
      ],
      [
        "âĢ¦ĠâĢĶĠ",
        "rzekÅĤĠ"
      ],
      [
        ",Ġ",
        "oĠ"
      ],
      [
        "stro",
        "n"
      ],
      [
        "Ġb",
        "ezĠ"
      ],
      [
        "P",
        "i"
      ],
      [
        "ow",
        "a,Ġ"
      ],
      [
        "er",
        "i"
      ],
      [
        "ek",
        "re"
      ],
      [
        "ych",
        ",Ġ"
      ],
      [
        "ko",
        "ÅĽci"
      ],
      [
        "ni",
        "kt"
      ],
      [
        "ÅĽ",
        "nieĠ"
      ],
      [
        "Ġk",
        "siÄĻ"
      ],
      [
        "su",
        "nÄħÅĤĠ"
      ],
      [
        "Ġwiel",
        "kie"
      ],
      [
        "Ġm",
        "aÅĤ"
      ],
      [
        "Ġmi",
        "aÅĤĠ"
      ],
      [
        "ow",
        "aÅĤaĠ"
      ],
      [
        "szedÅĤ",
        "ĠdoĠ"
      ],
      [
        "zna",
        "cz"
      ],
      [
        "d",
        "r"
      ],
      [
        "zi",
        "ÄĻ"
      ],
      [
        "neĠ",
        "iĠ"
      ],
      [
        "g",
        "aĠ"
      ],
      [
        "dzie",
        "ciĠ"
      ],
      [
        "ski",
        "m"
      ],
      [
        "y",
        "d"
      ],
      [
        "Å",
        "ļ"
      ],
      [
        "Ġz",
        "am"
      ],
      [
        "by",
        "t"
      ],
      [
        "czy",
        "mĠ"
      ],
      [
        "gra",
        "mat"
      ],
      [
        "ÅĽcie",
        "Ġ"
      ],
      [
        "Ġb",
        "ra"
      ],
      [
        ".ĠZ",
        "a"
      ],
      [
        "uĠ",
        "naĠ"
      ],
      [
        "ku",
        "r"
      ],
      [
        "ni",
        "ach"
      ],
      [
        "ado",
        "mo"
      ],
      [
        "ob",
        "ec"
      ],
      [
        "s",
        "ÅĤo"
      ],
      [
        "Ġmi",
        "ast"
      ],
      [
        "j",
        ",Ġ"
      ],
      [
        "s",
        "Ġ"
      ],
      [
        "u",
        "Ġw"
      ],
      [
        "kt",
        "oĠ"
      ],
      [
        "niaĠ",
        "iĠ"
      ],
      [
        "A",
        "n"
      ],
      [
        "Ġpra",
        "w"
      ],
      [
        "w",
        "Ã³"
      ],
      [
        "lek",
        "cjiĠ"
      ],
      [
        "pi",
        "Äħt"
      ],
      [
        "p",
        "rÃ³Å¼"
      ],
      [
        "Z",
        "ygie"
      ],
      [
        "ki",
        "mĠ"
      ],
      [
        "d",
        "uÅ¼"
      ],
      [
        "gÅĤ",
        "aĠ"
      ],
      [
        "bie",
        "g"
      ],
      [
        "k",
        "rÄĻ"
      ],
      [
        "aÅĤoĠ",
        "siÄĻ"
      ],
      [
        "ÅĤaĠ",
        "siÄĻ"
      ],
      [
        "wy",
        "so"
      ],
      [
        "Ġt",
        "ÄĻ"
      ],
      [
        "gi",
        ",Ġ"
      ],
      [
        "li",
        "ÅĤ"
      ],
      [
        "sz",
        ",Ġ"
      ],
      [
        "Å¼y",
        "ci"
      ],
      [
        "rz",
        "aĠ"
      ],
      [
        ";",
        "Ġ"
      ],
      [
        "Ġt",
        "ÅĤu"
      ],
      [
        "ym",
        "czasemĠ"
      ],
      [
        "Ġk",
        "at"
      ],
      [
        "Ġp",
        "aniĠ"
      ],
      [
        "yt",
        "aÅĤĠ"
      ],
      [
        "wa",
        "le"
      ],
      [
        "rosz",
        "ÄĻ"
      ],
      [
        "Ġpa",
        "naĠ"
      ],
      [
        "rzek",
        "ÅĤaĠ"
      ],
      [
        "nie",
        "ĠtylkoĠ"
      ],
      [
        "czy",
        "liĠ"
      ],
      [
        "Äħ",
        "Ġw"
      ],
      [
        "mie",
        "n"
      ],
      [
        ":",
        "ĊĊ"
      ],
      [
        "ow",
        "oĠ"
      ],
      [
        "Ġsw",
        "eĠ"
      ],
      [
        "da",
        "ÄĩĠ"
      ],
      [
        "ÄĻĠ",
        "naĠ"
      ],
      [
        "nawet",
        "Ġ"
      ],
      [
        "ci",
        "sz"
      ],
      [
        "cie",
        "l"
      ],
      [
        ".ĊĊ",
        "Marcinek"
      ],
      [
        "cz",
        "or"
      ],
      [
        "no",
        "cyĠ"
      ],
      [
        "cie",
        "ka"
      ],
      [
        "Ġdrz",
        "wiĠ"
      ],
      [
        "sz",
        "o"
      ],
      [
        "ĠpoĠ",
        "pol"
      ],
      [
        "szep",
        "t"
      ],
      [
        "nie",
        ",ĠÅ¼eĠ"
      ],
      [
        "dzie",
        "jĠ"
      ],
      [
        "t",
        "w"
      ],
      [
        "naz",
        "wi"
      ],
      [
        "gÅĤoÅĽ",
        "noĠ"
      ],
      [
        "w",
        "szystkie"
      ],
      [
        "o",
        "mĠ"
      ],
      [
        "owa",
        "rzy"
      ],
      [
        "raz",
        "yĠ"
      ],
      [
        "Ã³",
        "ÅĤĠ"
      ],
      [
        "rze",
        "czyĠ"
      ],
      [
        "k",
        "sztaÅĤ"
      ],
      [
        "cji",
        ",Ġ"
      ],
      [
        "b",
        "ad"
      ],
      [
        "Ġza",
        "woÅĤ"
      ],
      [
        "prze",
        "dĠ"
      ],
      [
        "Ġt",
        "ra"
      ],
      [
        "uczni",
        "Ã³w"
      ],
      [
        "do",
        "pieroĠ"
      ],
      [
        "dru",
        "gie"
      ],
      [
        "em",
        "Ġw"
      ],
      [
        "Przepi",
        "Ã³"
      ],
      [
        "PrzepiÃ³",
        "rzy"
      ],
      [
        "om",
        "on"
      ],
      [
        "ra",
        "bi"
      ],
      [
        "Ġz",
        "as"
      ],
      [
        "ki",
        "m"
      ],
      [
        "ci",
        "c"
      ],
      [
        "st",
        "aÅĤyĠ"
      ],
      [
        "jakie",
        "j"
      ],
      [
        "mi",
        "aÅĤĠ"
      ],
      [
        "ÅĽwi",
        "ÄĻt"
      ],
      [
        "Äĩ",
        "ĠiĠ"
      ],
      [
        "ni",
        "gdyĠ"
      ],
      [
        "t",
        "ro"
      ],
      [
        "r",
        "oĠ"
      ],
      [
        "gÅĤ",
        "uch"
      ],
      [
        "aÅĤaĠ",
        "naĠ"
      ],
      [
        "ta",
        "jem"
      ],
      [
        "k",
        "Ã³wĠ"
      ],
      [
        "wo",
        "rzyÅĤ"
      ],
      [
        "âĢ¦Ġ",
        "A"
      ],
      [
        "rÃ³wnie",
        "Å¼"
      ],
      [
        "on",
        "ymĠ"
      ],
      [
        "rzÄħ",
        "s"
      ],
      [
        "st",
        "rz"
      ],
      [
        "dzie",
        "w"
      ],
      [
        "G",
        "dyĠ"
      ],
      [
        "!",
        "âĢ¦ĊĊ"
      ],
      [
        "Ġpod",
        "ob"
      ],
      [
        "wie",
        "lkie"
      ],
      [
        "nie",
        "Ġwie"
      ],
      [
        "d",
        "at"
      ],
      [
        "sÅĤ",
        "ych"
      ],
      [
        ".ĠJ",
        "ed"
      ],
      [
        "rÄĻ",
        "kÄĻ"
      ],
      [
        "g",
        "Äħ"
      ],
      [
        "le",
        "ci"
      ],
      [
        "Ã³",
        "jĠ"
      ],
      [
        "cze",
        "s"
      ],
      [
        "peÅĤ",
        "ni"
      ],
      [
        "Äĩ",
        "Ġz"
      ],
      [
        ",Ġ",
        "Å¼ebyĠ"
      ],
      [
        "an",
        "egoĠ"
      ],
      [
        "t",
        "ra"
      ],
      [
        "j",
        "ad"
      ],
      [
        "korepety",
        "tor"
      ],
      [
        "Ġm",
        "ÅĤod"
      ],
      [
        "Wiechow",
        "skiĠ"
      ],
      [
        "nieĠ",
        "u"
      ],
      [
        "p",
        "l"
      ],
      [
        "sk",
        "ut"
      ],
      [
        "na",
        "mi"
      ],
      [
        ".ĠP",
        "oĠ"
      ],
      [
        "ot",
        "war"
      ],
      [
        "liĠ",
        "w"
      ],
      [
        "o",
        "pieroĠ"
      ],
      [
        ",Ġ",
        "tylkoĠ"
      ],
      [
        "s",
        "amĠ"
      ],
      [
        "u",
        "rzÄĻd"
      ],
      [
        "c",
        "en"
      ],
      [
        "co",
        "ÅĽ"
      ],
      [
        "ucze",
        "ÅĦ"
      ],
      [
        "aĠ",
        "wĠ"
      ],
      [
        "ÅĽpie",
        "w"
      ],
      [
        "gi",
        "mĠ"
      ],
      [
        "li",
        "cyĠ"
      ],
      [
        "ci",
        "w"
      ],
      [
        "or",
        "y"
      ],
      [
        "mi",
        "ot"
      ],
      [
        "ni",
        "cyĠ"
      ],
      [
        "y,Ġ",
        "Å¼eĠ"
      ],
      [
        "ÅĤ",
        "eĠ"
      ],
      [
        "re",
        "z"
      ],
      [
        "er",
        "w"
      ],
      [
        "Ġk",
        "aÅ¼d"
      ],
      [
        "M",
        "o"
      ],
      [
        "miejs",
        "cu"
      ],
      [
        "Ġm",
        "ÅĤodzie"
      ],
      [
        "lery",
        "kow"
      ],
      [
        "g",
        "wi"
      ],
      [
        "ÅĤa",
        "dzi"
      ],
      [
        "lite",
        "ra"
      ],
      [
        "tet",
        "ter"
      ],
      [
        "i",
        "ru"
      ],
      [
        "s",
        "pi"
      ],
      [
        "t",
        "ychĠ"
      ],
      [
        "czas",
        "u"
      ],
      [
        "Äħ",
        "Ġz"
      ],
      [
        "kil",
        "kaĠ"
      ],
      [
        "r",
        "Ġ"
      ],
      [
        "Ġbar",
        "dzoĠ"
      ],
      [
        "on",
        "ymiĠ"
      ],
      [
        "Ġz",
        "aj"
      ],
      [
        "sk",
        "a,Ġ"
      ],
      [
        "ych",
        "Ġw"
      ],
      [
        "Ġt",
        "ychĠ"
      ],
      [
        "g",
        "aÅĤ"
      ],
      [
        "ucz",
        "u"
      ],
      [
        "sko",
        "ÅĦ"
      ],
      [
        "pat",
        "rz"
      ],
      [
        "caÅĤ",
        "Äħ"
      ],
      [
        "u",
        "kaz"
      ],
      [
        "u",
        "pÅĤy"
      ],
      [
        "Ġd",
        "rze"
      ],
      [
        "sze",
        "re"
      ],
      [
        "wi",
        "dzi"
      ],
      [
        "auczycie",
        "l"
      ],
      [
        "gru",
        "b"
      ],
      [
        "z",
        "ak"
      ],
      [
        "bli",
        "Å¼"
      ],
      [
        "ko",
        "m"
      ],
      [
        "szczeg",
        "Ã³l"
      ],
      [
        "C",
        "z"
      ],
      [
        "ÅĽwi",
        "ad"
      ],
      [
        "t",
        "Ã³w"
      ],
      [
        "iz",
        "byĠ"
      ],
      [
        "pra",
        "c"
      ],
      [
        "Ġd",
        "ost"
      ],
      [
        "ch",
        "ÄĻ"
      ],
      [
        "ru",
        "b"
      ],
      [
        "le",
        "pie"
      ],
      [
        "godzi",
        "nyĠ"
      ],
      [
        "cze",
        "go"
      ],
      [
        "ĠmyÅĽ",
        "l"
      ],
      [
        "siad",
        "ÅĤĠnaĠ"
      ],
      [
        "wi",
        "Äħz"
      ],
      [
        "na",
        "gleĠ"
      ],
      [
        "k",
        "nÄħÅĤ"
      ],
      [
        "m",
        "ru"
      ],
      [
        ",Ġ",
        "wĠ"
      ],
      [
        "Äĩ",
        "wi"
      ],
      [
        "aĠ",
        "zĠ"
      ],
      [
        "sk",
        "u,Ġ"
      ],
      [
        "g",
        "rom"
      ],
      [
        "szed",
        "ÅĤĠ"
      ],
      [
        "*,Ġ",
        "*"
      ],
      [
        "Ġpi",
        "ÄĻ"
      ],
      [
        "ak",
        "iĠ"
      ],
      [
        "gi",
        "cz"
      ],
      [
        "by",
        "Äĩ"
      ],
      [
        "mo",
        "k"
      ],
      [
        "byÅĤ",
        "Ġ"
      ],
      [
        "ne",
        ",Ġ"
      ],
      [
        "b",
        "ro"
      ],
      [
        "dob",
        "r"
      ],
      [
        "Å¼e",
        "b"
      ],
      [
        "ro",
        "ÅĽ"
      ],
      [
        "cz",
        "nie"
      ],
      [
        "mi",
        "aÅĤ"
      ],
      [
        "r",
        "wo"
      ],
      [
        "owan",
        "oĠ"
      ],
      [
        "Ġb",
        "ÄĻdzie"
      ],
      [
        "i",
        "dzie"
      ],
      [
        "ÅĤ",
        "at"
      ],
      [
        "Ġm",
        "iĠ"
      ],
      [
        "S",
        "t"
      ],
      [
        "sk",
        "rzy"
      ],
      [
        ".ĠP",
        "rzy"
      ],
      [
        "n",
        "d"
      ],
      [
        "cz",
        "ej"
      ],
      [
        "gospod",
        "a"
      ],
      [
        "pÅĤy",
        "w"
      ],
      [
        "!",
        "ĊĊâĢĶĠ"
      ],
      [
        ",Ġgdy",
        "Å¼Ġ"
      ],
      [
        "Ġ",
        "oĠ"
      ],
      [
        "tÅĤu",
        "ma"
      ],
      [
        "mie",
        "ÅĽci"
      ],
      [
        "Ġb",
        "y"
      ],
      [
        "âĢŀ",
        "star"
      ],
      [
        "Sz",
        "war"
      ],
      [
        "omon",
        "owicz"
      ],
      [
        "ch",
        "le"
      ],
      [
        "lasi",
        "st"
      ],
      [
        "kie",
        "wicz"
      ],
      [
        "ko",
        "nie"
      ],
      [
        "niez",
        "mier"
      ],
      [
        "an",
        "ychĠ"
      ],
      [
        "Ġd",
        "ro"
      ],
      [
        "wa",
        "rzyĠ"
      ],
      [
        "na",
        "le"
      ],
      [
        ".ĠW",
        "y"
      ],
      [
        "Ġwi",
        "dziaÅĤ"
      ],
      [
        "e",
        "b"
      ],
      [
        "Ã³w",
        "dzie"
      ],
      [
        "strze",
        "gÅĤ"
      ],
      [
        "Ġs",
        "ÅĤu"
      ],
      [
        "nÄĻ",
        "ÅĤoĠ"
      ],
      [
        "ÅĤo",
        "ÅĽci"
      ],
      [
        "ch",
        "od"
      ],
      [
        "p",
        "li"
      ],
      [
        "Ġp",
        "y"
      ],
      [
        "stra",
        "sz"
      ],
      [
        "rozma",
        "it"
      ],
      [
        "nie",
        "Ġprze"
      ],
      [
        "f",
        "ami"
      ],
      [
        "Ġw",
        "ym"
      ],
      [
        "Ġwy",
        "raz"
      ],
      [
        "caÅĤ",
        "ejĠ"
      ],
      [
        "pu",
        "ÅĽci"
      ],
      [
        "szcz",
        "Äħc"
      ],
      [
        "z",
        "nowuĠ"
      ],
      [
        "gÅĤ",
        "owie"
      ],
      [
        "okro",
        "p"
      ],
      [
        "g",
        "na"
      ],
      [
        "gÅĤow",
        "ÄĻ"
      ],
      [
        "âĢ¦",
        "âĢĿ"
      ],
      [
        "J",
        "Ã³"
      ],
      [
        "aÅĤ",
        "em"
      ],
      [
        "kie",
        "Ġ"
      ],
      [
        "nauczycie",
        "laĠ"
      ],
      [
        "Ġmi",
        "aÅĤ"
      ],
      [
        "Ġz",
        "ami"
      ],
      [
        "ow",
        "yĠ"
      ],
      [
        "kie",
        "n"
      ],
      [
        "roz",
        "pa"
      ],
      [
        ",Ġ",
        "u"
      ],
      [
        "dzie",
        "ÅĦ"
      ],
      [
        "pu",
        "szcz"
      ],
      [
        "wi",
        "ÄĻ"
      ],
      [
        "ko",
        "ÅĤoĠ"
      ],
      [
        ".ĊĊâĢĶĠ",
        "N"
      ],
      [
        "rusz",
        "yÅĤ"
      ],
      [
        ".ĠO",
        "d"
      ],
      [
        "ĠiĠ",
        "u"
      ],
      [
        "muĠ",
        "siÄĻ"
      ],
      [
        ".ĊĊ",
        "B"
      ],
      [
        ",Ġp",
        "oĠ"
      ],
      [
        "ÅĤ",
        "on"
      ],
      [
        "aÅĤyĠ",
        "naĠ"
      ],
      [
        "Ġmo",
        "Å¼"
      ],
      [
        "W",
        "Ġ"
      ],
      [
        "roz",
        "mow"
      ],
      [
        "l",
        "cze"
      ],
      [
        "ÅĤyĠ",
        "siÄĻĠ"
      ],
      [
        "b",
        "ÅĤa"
      ],
      [
        "naĠ",
        "t"
      ],
      [
        "rosyj",
        "skie"
      ],
      [
        "ten",
        "Ġ"
      ],
      [
        "zi",
        "Äħ"
      ],
      [
        "caÅĤ",
        "eĠ"
      ],
      [
        "aÅĤoĠ",
        "siÄĻĠ"
      ],
      [
        "ro",
        "Å¼"
      ],
      [
        "Ġs",
        "Äħ"
      ],
      [
        "ry",
        "cz"
      ],
      [
        "Ġd",
        "w"
      ],
      [
        "ÅĤu",
        "d"
      ],
      [
        "roz",
        "po"
      ],
      [
        ",Ġ",
        "iĠ"
      ],
      [
        "zaw",
        "szeĠ"
      ],
      [
        "Å¼",
        "yĠ"
      ],
      [
        "s",
        "wymĠ"
      ],
      [
        "ni",
        "Å¼"
      ],
      [
        "dzi",
        "ÅĤĠ"
      ],
      [
        "f",
        "ra"
      ],
      [
        "na",
        "laz"
      ],
      [
        "mie",
        "nie"
      ],
      [
        "ek",
        "to"
      ],
      [
        "em",
        "u"
      ],
      [
        "stÄħ",
        "pi"
      ],
      [
        "ajÄħc",
        "ychĠ"
      ],
      [
        "aĠ",
        "doĠ"
      ],
      [
        "gru",
        "n"
      ],
      [
        "ÅĦ",
        "caĠ"
      ],
      [
        ",Ġz",
        "aĠ"
      ],
      [
        "Ġk",
        "an"
      ],
      [
        ",Ġp",
        "ra"
      ],
      [
        "miejs",
        "caĠ"
      ],
      [
        "sw",
        "eĠ"
      ],
      [
        "sz",
        "ÅĤoĠ"
      ],
      [
        "sze",
        "r"
      ],
      [
        "l",
        "o"
      ],
      [
        "m",
        "ach"
      ],
      [
        "l",
        "ÄĻ"
      ],
      [
        "re",
        "f"
      ],
      [
        "Przepi",
        "Ã³r"
      ],
      [
        "PrzepiÃ³r",
        "kow"
      ],
      [
        ",Ġ",
        "aniĠ"
      ],
      [
        "ut",
        "wor"
      ],
      [
        "K",
        "ost"
      ],
      [
        "c",
        "kle"
      ],
      [
        "âĢŀB",
        "iru"
      ],
      [
        "szko",
        "ÅĤyĠ"
      ],
      [
        "u",
        "stan"
      ],
      [
        "aÅĤyĠ",
        "w"
      ],
      [
        "uk",
        "ry"
      ],
      [
        "on",
        "ej"
      ],
      [
        "ktÃ³r",
        "eĠ"
      ],
      [
        "Ġz",
        "ach"
      ],
      [
        "ÄĩĠ",
        "siÄĻ"
      ],
      [
        "uĠiĠ",
        "Ã³wdzie"
      ],
      [
        "c",
        "Ã³wĠ"
      ],
      [
        "ÅĤĠ",
        "siÄĻĠnaĠ"
      ],
      [
        "k",
        "ra"
      ],
      [
        "?ĠâĢĶ",
        "Ġzap"
      ],
      [
        "yt",
        "aÅĤ"
      ],
      [
        "âĢ¦ĊĊâĢĶĠ",
        "A"
      ],
      [
        "ÅĤ",
        "ÄĻ"
      ],
      [
        ".Ġ",
        "âĢŀ"
      ],
      [
        ".Ġ",
        "Marcin"
      ],
      [
        "Ġpi",
        "l"
      ],
      [
        "Ġk",
        "sztaÅĤ"
      ],
      [
        "n",
        "Ã³st"
      ],
      [
        "na",
        "ch"
      ],
      [
        "tych",
        "miast"
      ],
      [
        "wa",
        "li"
      ],
      [
        "czyÅĤ",
        "Ġ"
      ],
      [
        "ĠiĠ",
        "po"
      ],
      [
        "ÄĻ",
        "b"
      ],
      [
        "Ġp",
        "rowa"
      ],
      [
        "pi",
        "ÄĻ"
      ],
      [
        "mu",
        "sz"
      ],
      [
        "o",
        "li"
      ],
      [
        "cz",
        "Äħt"
      ],
      [
        "za",
        "p"
      ],
      [
        "os",
        "Ã³b"
      ],
      [
        "gÅĤos",
        "em"
      ],
      [
        "nieĠm",
        "og"
      ],
      [
        "szko",
        "leĠ"
      ],
      [
        "ÅĤaĠ",
        "naĠ"
      ],
      [
        "le",
        "p"
      ],
      [
        "jed",
        "nymĠ"
      ],
      [
        "dzi",
        "ÅĤ"
      ],
      [
        "k",
        "nÄħÅĤĠ"
      ],
      [
        "aÅĤaĠ",
        "w"
      ],
      [
        "z",
        "ost"
      ],
      [
        "l",
        "an"
      ],
      [
        "ÅĽwie",
        "t"
      ],
      [
        "ĠwĠ",
        "sta"
      ],
      [
        "a,Ġ",
        "aĠ"
      ],
      [
        "wi",
        "d"
      ],
      [
        "Ġd",
        "usz"
      ],
      [
        "s",
        "e"
      ],
      [
        "mi",
        "an"
      ],
      [
        "prze",
        "j"
      ],
      [
        "Ġnie",
        "z"
      ],
      [
        "jaki",
        "ÅĽ"
      ],
      [
        "Å¼yÅĤ",
        "ĠsiÄĻ"
      ],
      [
        "grom",
        "ad"
      ],
      [
        "st",
        "aÅĤĠ"
      ],
      [
        "z",
        "ad"
      ],
      [
        "spo",
        "glÄħd"
      ],
      [
        "ucz",
        "yÅĤ"
      ],
      [
        "ÅĤaĠ",
        "siÄĻĠ"
      ],
      [
        "c",
        "ÄĻ"
      ],
      [
        "Ġb",
        "a"
      ],
      [
        "egzami",
        "n"
      ],
      [
        "mu",
        "si"
      ],
      [
        "k",
        "niÄĻt"
      ],
      [
        "Ġdru",
        "gie"
      ],
      [
        "wa",
        "niaĠ"
      ],
      [
        "Ġwy",
        "kÅĤad"
      ],
      [
        "ami",
        "ÄĻt"
      ],
      [
        ".ĠW",
        "tedyĠ"
      ],
      [
        "t",
        "ÄĻĠ"
      ],
      [
        "k",
        "Äħd"
      ],
      [
        "en",
        "s"
      ],
      [
        "aÅĤĠsiÄĻ",
        "ĠdoĠ"
      ],
      [
        "ow",
        "ych"
      ],
      [
        "j",
        "aÅĤ"
      ],
      [
        "stan",
        "cjiĠ"
      ],
      [
        "ki",
        "miĠ"
      ],
      [
        "sk",
        "ÅĤad"
      ],
      [
        "siad",
        "ÅĤ"
      ],
      [
        "Ġt",
        "o"
      ],
      [
        "S",
        "ie"
      ],
      [
        "k",
        "siÄĻ"
      ],
      [
        "je",
        "Å¼eliĠ"
      ],
      [
        ".ĠJ",
        "ak"
      ],
      [
        "ko",
        "na"
      ],
      [
        "Ġw",
        "ÅĤas"
      ],
      [
        "szystki",
        "ch"
      ],
      [
        "Ġb",
        "yĠ"
      ],
      [
        "âĢĿ",
        "ĠiĠ"
      ],
      [
        "P",
        "az"
      ],
      [
        "an",
        "ych"
      ],
      [
        "aĠ",
        "wy"
      ],
      [
        ".Ġ",
        "L"
      ],
      [
        "m",
        "ÅĤodzie"
      ],
      [
        "ĠbyÅĤ",
        "aĠ"
      ],
      [
        "S",
        "omonowicz"
      ],
      [
        "on",
        "t"
      ],
      [
        "Ġpo",
        "sta"
      ],
      [
        "sch",
        "od"
      ],
      [
        "rz",
        "o"
      ],
      [
        "cz",
        "war"
      ],
      [
        "z",
        "wyczaj"
      ],
      [
        "oĠ",
        "toĠ"
      ],
      [
        "zg",
        "Ã³"
      ],
      [
        "pu",
        "st"
      ],
      [
        "d",
        "usz"
      ],
      [
        "na",
        "t"
      ],
      [
        "yĠ",
        "wy"
      ],
      [
        "u",
        "d"
      ],
      [
        "rÄĻ",
        "d"
      ],
      [
        "cz",
        "nieĠ"
      ],
      [
        "oj",
        "ciec"
      ],
      [
        "aj",
        "Ġ"
      ],
      [
        "no",
        ",Ġ"
      ],
      [
        "m",
        "am"
      ],
      [
        "cie",
        "Å¼"
      ],
      [
        "czy",
        "Äĩ"
      ],
      [
        "u",
        "lic"
      ],
      [
        ".ĠCh",
        "ÅĤo"
      ],
      [
        "szere",
        "g"
      ],
      [
        "nie",
        "coĠ"
      ],
      [
        "nauczyciel",
        "Ġ"
      ],
      [
        "g",
        "waÅĤ"
      ],
      [
        "Ġwy",
        "so"
      ],
      [
        "c",
        "aÅĤaĠ"
      ],
      [
        "ÄĩĠ",
        "siÄĻĠ"
      ],
      [
        ":Ġ",
        "âĢŀ"
      ],
      [
        "ra",
        "Åº"
      ],
      [
        "ko",
        ",Ġ"
      ],
      [
        ",Ġjak",
        "ie"
      ],
      [
        "t",
        "rud"
      ],
      [
        "nie",
        "sie"
      ],
      [
        "wi",
        "t"
      ],
      [
        "nie",
        "Ġk"
      ],
      [
        "g",
        "rze"
      ],
      [
        "W",
        "ol"
      ],
      [
        "b",
        "rz"
      ],
      [
        "il",
        "o"
      ],
      [
        "on",
        "e"
      ],
      [
        "Ġdo",
        "mu"
      ],
      [
        "nie",
        "ĠwĠ"
      ],
      [
        "aw",
        "szyĠ"
      ],
      [
        "Ġs",
        "ÅĤ"
      ],
      [
        "czas",
        "uĠ"
      ],
      [
        "a",
        "ni"
      ],
      [
        "Äħ",
        "Å¼"
      ],
      [
        "p",
        "ÄĻ"
      ],
      [
        "jak",
        "ich"
      ],
      [
        "sk",
        "az"
      ],
      [
        "yĠ",
        "po"
      ],
      [
        "ÅĤ",
        "y,Ġ"
      ],
      [
        "czyÅĤ",
        "aĠ"
      ],
      [
        "rew",
        "ni"
      ],
      [
        "uczni",
        "owie"
      ],
      [
        "roz",
        "umi"
      ],
      [
        "raz",
        "u"
      ],
      [
        "ĠsÅĤy",
        "sze"
      ],
      [
        "w",
        "e"
      ],
      [
        "ow",
        "Äħ"
      ],
      [
        "aĠ",
        "naĠ"
      ],
      [
        "caÅĤ",
        "ymĠ"
      ],
      [
        "s",
        "ow"
      ],
      [
        "on",
        "ejĠ"
      ],
      [
        "I",
        "I"
      ],
      [
        "arytme",
        "ty"
      ],
      [
        "nad",
        "toĠ"
      ],
      [
        "caÅĤ",
        "ÄħĠ"
      ],
      [
        "le",
        "pi"
      ],
      [
        "aj",
        "ÄĻ"
      ],
      [
        "kow",
        "iĠ"
      ],
      [
        "p",
        "amiÄĻ"
      ],
      [
        "e",
        "ch"
      ],
      [
        "Ġmiejs",
        "c"
      ],
      [
        "c",
        "y,Ġ"
      ],
      [
        "cze",
        "niaĠ"
      ],
      [
        "b",
        "ÄĻd"
      ],
      [
        "nieĠm",
        "o"
      ],
      [
        "Å¼y",
        "cie"
      ],
      [
        "de",
        "ÅĤ"
      ],
      [
        "ek",
        "ĠiĠ"
      ],
      [
        ",Ġ",
        "aÅ¼ebyĠ"
      ],
      [
        "ÅĽci",
        "ÄħĠ"
      ],
      [
        "acz",
        "mienie"
      ],
      [
        "Ġs",
        "amĠ"
      ],
      [
        "roz",
        "wi"
      ],
      [
        "siÄħ",
        "dz"
      ],
      [
        "eĠ",
        "drzwi"
      ],
      [
        "sam",
        "oĠ"
      ],
      [
        "ra",
        "do"
      ],
      [
        "g",
        "nÄħc"
      ],
      [
        "roz",
        "t"
      ],
      [
        "m",
        "ÄĻ"
      ],
      [
        "rzeczy",
        "wi"
      ],
      [
        "Ġklas",
        "y"
      ],
      [
        "naĠ",
        "iĠ"
      ],
      [
        "Å¼e",
        "laz"
      ],
      [
        "wi",
        "at"
      ],
      [
        "reszt",
        "ÄħĠ"
      ],
      [
        "jed",
        "negoĠ"
      ],
      [
        "rad",
        "caĠ"
      ],
      [
        ".ĠJ",
        "e"
      ],
      [
        "JÄĻdr",
        "ek"
      ],
      [
        "Sz",
        "tetter"
      ],
      [
        "W",
        "ÅĤadzi"
      ],
      [
        "ckle",
        "'"
      ],
      [
        "oko",
        "lic"
      ],
      [
        "Ġz",
        "nowuĠ"
      ],
      [
        "y",
        "l"
      ],
      [
        "uwa",
        "Å¼"
      ],
      [
        "Ġpie",
        "r"
      ],
      [
        "ÅĽ",
        "mi"
      ],
      [
        "pi",
        "ÄĻk"
      ],
      [
        "Ġten",
        "Ġ"
      ],
      [
        "w",
        "al"
      ],
      [
        "an",
        "o"
      ],
      [
        "Ġz",
        "nowu"
      ],
      [
        "ÅĤyĠ",
        "siÄĻ"
      ],
      [
        "te",
        "raz"
      ],
      [
        "Å¼e",
        ",Ġ"
      ],
      [
        ",Ġ",
        "o"
      ],
[...]
