{
  "version": "1.0",
  "truncation": null,
  "padding": null,
  "added_tokens": [],
  "normalizer": null,
  "pre_tokenizer": {
    "type": "ByteLevel",
    "add_prefix_space": false,
    "trim_offsets": true,
    "use_regex": true
  },
  "post_processor": {
    "type": "ByteLevel",
    "add_prefix_space": true,
    "trim_offsets": true,
    "use_regex": true
  },
  "decoder": {
    "type": "ByteLevel",
    "add_prefix_space": true,
    "trim_offsets": true,
    "use_regex": true
  },
  "model": {
    "type": "BPE",
    "dropout": null,
    "unk_token": null,
    "continuing_subword_prefix": null,
    "end_of_word_suffix": null,
    "fuse_unk": false,
    "byte_fallback": false,
    "ignore_merges": false,
    "vocab": {
      "Ā": 0,
      "ā": 1,
      "Ă": 2,
      "ă": 3,
      "Ą": 4,
      "ą": 5,
      "Ć": 6,
      "ć": 7,
      "Ĉ": 8,
      "ĉ": 9,
      "Ċ": 10,
      "ċ": 11,
      "Č": 12,
      "č": 13,
      "Ď": 14,
      "ď": 15,
      "Đ": 16,
      "đ": 17,
      "Ē": 18,
      "ē": 19,
      "Ĕ": 20,
      "ĕ": 21,
      "Ė": 22,
      "ė": 23,
      "Ę": 24,
      "ę": 25,
      "Ě": 26,
      "ě": 27,
      "Ĝ": 28,
      "ĝ": 29,
      "Ğ": 30,
      "ğ": 31,
      "Ġ": 32,
      "!": 33,
      "\"": 34,
      "#": 35,
      "$": 36,
      "%": 37,
      "&": 38,
      "'": 39,
      "(": 40,
      ")": 41,
      "*": 42,
      "+": 43,
      ",": 44,
      "-": 45,
      ".": 46,
      "/": 47,
      "0": 48,
      "1": 49,
      "2": 50,
      "3": 51,
      "4": 52,
      "5": 53,
      "6": 54,
      "7": 55,
      "8": 56,
      "9": 57,
      ":": 58,
      ";": 59,
      "<": 60,
      "=": 61,
      ">": 62,
      "?": 63,
      "@": 64,
      "A": 65,
      "B": 66,
      "C": 67,
      "D": 68,
      "E": 69,
      "F": 70,
      "G": 71,
      "H": 72,
      "I": 73,
      "J": 74,
      "K": 75,
      "L": 76,
      "M": 77,
      "N": 78,
      "O": 79,
      "P": 80,
      "Q": 81,
      "R": 82,
      "S": 83,
      "T": 84,
      "U": 85,
      "V": 86,
      "W": 87,
      "X": 88,
      "Y": 89,
      "Z": 90,
      "[": 91,
      "\\": 92,
      "]": 93,
      "^": 94,
      "_": 95,
      "`": 96,
      "a": 97,
      "b": 98,
      "c": 99,
      "d": 100,
      "e": 101,
      "f": 102,
      "g": 103,
      "h": 104,
      "i": 105,
      "j": 106,
      "k": 107,
      "l": 108,
      "m": 109,
      "n": 110,
      "o": 111,
      "p": 112,
      "q": 113,
      "r": 114,
      "s": 115,
      "t": 116,
      "u": 117,
      "v": 118,
      "w": 119,
      "x": 120,
      "y": 121,
      "z": 122,
      "{": 123,
      "|": 124,
      "}": 125,
      "~": 126,
      "ġ": 127,
      "Ģ": 128,
      "ģ": 129,
      "Ĥ": 130,
      "ĥ": 131,
      "Ħ": 132,
      "ħ": 133,
      "Ĩ": 134,
      "ĩ": 135,
      "Ī": 136,
      "ī": 137,
      "Ĭ": 138,
      "ĭ": 139,
      "Į": 140,
      "į": 141,
      "İ": 142,
      "ı": 143,
      "Ĳ": 144,
      "ĳ": 145,
      "Ĵ": 146,
      "ĵ": 147,
      "Ķ": 148,
      "ķ": 149,
      "ĸ": 150,
      "Ĺ": 151,
      "ĺ": 152,
      "Ļ": 153,
      "ļ": 154,
      "Ľ": 155,
      "ľ": 156,
      "Ŀ": 157,
      "ŀ": 158,
      "Ł": 159,
      "ł": 160,
      "¡": 161,
      "¢": 162,
      "£": 163,
      "¤": 164,
      "¥": 165,
      "¦": 166,
      "§": 167,
      "¨": 168,
      "©": 169,
      "ª": 170,
      "«": 171,
      "¬": 172,
      "Ń": 173,
      "®": 174,
      "¯": 175,
      "°": 176,
      "±": 177,
      "²": 178,
      "³": 179,
      "´": 180,
      "µ": 181,
      "¶": 182,
      "·": 183,
      "¸": 184,
      "¹": 185,
      "º": 186,
      "»": 187,
      "¼": 188,
      "½": 189,
      "¾": 190,
      "¿": 191,
      "À": 192,
      "Á": 193,
      "Â": 194,
      "Ã": 195,
      "Ä": 196,
      "Å": 197,
      "Æ": 198,
      "Ç": 199,
      "È": 200,
      "É": 201,
      "Ê": 202,
      "Ë": 203,
      "Ì": 204,
      "Í": 205,
      "Î": 206,
      "Ï": 207,
      "Ð": 208,
      "Ñ": 209,
      "Ò": 210,
      "Ó": 211,
      "Ô": 212,
      "Õ": 213,
      "Ö": 214,
      "×": 215,
      "Ø": 216,
      "Ù": 217,
      "Ú": 218,
      "Û": 219,
      "Ü": 220,
      "Ý": 221,
      "Þ": 222,
      "ß": 223,
      "à": 224,
      "á": 225,
      "â": 226,
      "ã": 227,
      "ä": 228,
      "å": 229,
      "æ": 230,
      "ç": 231,
      "è": 232,
      "é": 233,
      "ê": 234,
      "ë": 235,
      "ì": 236,
      "í": 237,
      "î": 238,
      "ï": 239,
      "ð": 240,
      "ñ": 241,
      "ò": 242,
      "ó": 243,
      "ô": 244,
      "õ": 245,
      "ö": 246,
      "÷": 247,
      "ø": 248,
      "ù": 249,
      "ú": 250,
      "û": 251,
      "ü": 252,
      "ý": 253,
      "þ": 254,
      "ÿ": 255,
      "ie": 256,
      "ÅĤ": 257,
      "Ġp": 258,
      "ia": 259,
      "Ġw": 260,
      "ow": 261,
      "or": 262,
      "st": 263,
      "Ġz": 264,
      "na": 265,
      "cz": 266,
      "te": 267,
      "Ã³": 268,
      "ÄĻ": 269,
      "an": 270,
      "ch": 271,
      "Äħ": 272,
      "rz": 273,
      "Ġs": 274,
      "ra": 275,
      "ro": 276,
      "Ġd": 277,
      "Å¼": 278,
      "Ġo": 279,
      "nie": 280,
      "ka": 281,
      "li": 282,
      "ni": 283,
      "Ka": 284,
      "dz": 285,
      "Ġm": 286,
      "teg": 287,
      "Ġpo": 288,
      "Ġk": 289,
      "sz": 290,
      "tegor": 291,
      "tegoria": 292,
      "Kategoria": 293,
      "Ġna": 294,
      "ÅĽ": 295,
      "ne": 296,
      "Ġi": 297,
      "rze": 298,
      "ar": 299,
      "ÅĤa": 300,
      "ki": 301,
      "Ġt": 302,
      "go": 303,
      "je": 304,
      "Ã³w": 305,
      "re": 306,
      "ny": 307,
      "le": 308,
      "ĠP": 309,
      "iÄĻ": 310,
      "Ġza": 311,
      "cj": 312,
      "Ġb": 313,
      "Ġdo": 314,
      "ĠĊ": 315,
      "en": 316,
      "wa": 317,
      "ÅĤo": 318,
      "ty": 319,
      "Äĩ": 320,
      "ci": 321,
      "Ġwy": 322,
      "ku": 323,
      "ĠW": 324,
      "la": 325,
      "Ġu": 326,
      "er": 327,
      "ĠS": 328,
      "kie": 329,
      "Ġprze": 330,
      "sta": 331,
      "ta": 332,
      "cy": 333,
      "Ġ2": 334,
      "owa": 335,
      "ko": 336,
      "da": 337,
      "ce": 338,
      "mi": 339,
      "on": 340,
      "rzy": 341,
      "ÅĦ": 342,
      "Ġa": 343,
      "Å¼e": 344,
      "ol": 345,
      "ĠsiÄĻ": 346,
      "Ġje": 347,
      "ĠM": 348,
      "Ġ1": 349,
      "Ġro": 350,
      "jÄħ": 351,
      "ry": 352,
      "czy": 353,
      "ma": 354,
      "âĢ": 355,
      "ja": 356,
      "tu": 357,
      "Ġnie": 358,
      "po": 359,
      "no": 360,
      "zy": 361,
      "ski": 362,
      "nia": 363,
      "wi": 364,
      "Ġ(": 365,
      "ĠK": 366,
      "rÃ³": 367,
      "ÅĤy": 368,
      "wo": 369,
      "owan": 370,
      "Ġ20": 371,
      "Ġg": 372,
      "dy": 373,
      "cji": 374,
      "Ġod": 375,
      "wie": 376,
      "ska": 377,
      "ru": 378,
      "cze": 379,
      "ĠÅ": 380,
      "owe": 381,
      "dzie": 382,
      "cie": 383,
      "skie": 384,
      "ĠB": 385,
      "ĠR": 386,
      "ÅĽci": 387,
      "ĠA": 388,
      "ob": 389,
      "owy": 390,
      "dzi": 391,
      "ca": 392,
      "ĠT": 393,
      "Ġst": 394,
      "Ġte": 395,
      "ĠÅ¼e": 396,
      "tÃ³": 397,
      "nych": 398,
      "ĠN": 399,
      "in": 400,
      "em": 401,
      "om": 402,
      "ĠktÃ³": 403,
      "ĠC": 404,
      "ĠĊĠĊ": 405,
      "ĠâĢ": 406,
      "ĠD": 407,
      "ĠZ": 408,
      "rÃ³d": 409,
      "ĊĊ": 410,
      "cja": 411,
      "ĠJ": 412,
      "owie": 413,
      "ĠL": 414,
      "ĠO": 415,
      "ĠG": 416,
      "as": 417,
      "mie": 418,
      "by": 419,
      "ani": 420,
      "Ġty": 421,
      "ek": 422,
      "Ġ-": 423,
      "ora": 424,
      "Ġf": 425,
      "Ġpod": 426,
      "pa": 427,
      "szy": 428,
      "Ġpro": 429,
      "Ġby": 430,
      "Ġprzy": 431,
      "lu": 432,
      "za": 433,
      "¹rÃ³d": 434,
      "ÅĤu": 435,
      "du": 436,
      "os": 437,
      "ĠÅ¹rÃ³d": 438,
      "anie": 439,
      "Ġin": 440,
      "is": 441,
      "Ġjest": 442,
      "Ġma": 443,
      "pe": 444,
      "Å¼y": 445,
      "Ġcz": 446,
      "Ġta": 447,
      "nej": 448,
      "lo": 449,
      "ĠÅ¹rÃ³dÅĤa": 450,
      "Ġroku": 451,
      "wia": 452,
      "pra": 453,
      "sze": 454,
      "Ġto": 455,
      "Ġzo": 456,
      "Ġob": 457,
      "ania": 458,
      "00": 459,
      "Ġja": 460,
      "ier": 461,
      "Ġko": 462,
      "Ġdz": 463,
      "my": 464,
      "to": 465,
      "iaÅĤ": 466,
      "Ġre": 467,
      "Ġmo": 468,
      "ĠI": 469,
      "Ġe": 470,
      "ze": 471,
      "kÃ³w": 472,
      "Ġmie": 473,
      "ent": 474,
      "ĠF": 475,
      "ĠâĢĵ": 476,
      "Ġ202": 477,
      "ĠÅĽ": 478,
      "Ġprzez": 479,
      "nego": 480,
      "gi": 481,
      "si": 482,
      "owi": 483,
      "Ġroz": 484,
      "Ġpra": 485,
      "Ġli": 486,
      "um": 487,
      "ĠPol": 488,
      "ga": 489,
      "il": 490,
      "ÅĽÄĩ": 491,
      "ĠPo": 492,
      "Ġzosta": 493,
      "ĠE": 494,
      "am": 495,
      "ed": 496,
      "sp": 497,
      "tor": 498,
      "ran": 499,
      "mu": 500,
      "sza": 501,
      "wy": 502,
      "Ġkon": 503,
      "oraz": 504,
      "for": 505,
      "de": 506,
      "Ġka": 507,
      "un": 508,
      "Ġ\"": 509,
      "dni": 510,
      "Ġoraz": 511,
      "owo": 512,
      "ĠU": 513,
      "ter": 514,
      "skiego": 515,
      "ĠĠ": 516,
      "ĠNa": 517,
      "co": 518,
      "js": 519,
      "Pol": 520,
      "ĠKa": 521,
      "Ġze": 522,
      "bi": 523,
      "Åº": 524,
      "al": 525,
      "Ġgo": 526,
      "any": 527,
      "ĠbÄĻ": 528,
      "nÄħ": 529,
      "stÄĻ": 530,
      "niej": 531,
      "enia": 532,
      "nym": 533,
      "ur": 534,
      "ej": 535,
      "owej": 536,
      "Ġpre": 537,
      "Ġjed": 538,
      "Ġra": 539,
      "sty": 540,
      "Ġos": 541,
      "stÄĻp": 542,
      "Ġ3": 543,
      "Polska": 544,
      "cho": 545,
      "jÄĻ": 546,
      "pie": 547,
      "Ġpa": 548,
      "ju": 549,
      "ĠH": 550,
      "Ã³ÅĤ": 551,
      "owych": 552,
      "ĠktÃ³ry": 553,
      "ii": 554,
      "cia": 555,
      "skiej": 556,
      "sy": 557,
      "ona": 558,
      "lity": 559,
      "nika": 560,
      "lne": 561,
      "ub": 562,
      "ez": 563,
      "zna": 564,
      "Po": 565,
      "Ġdla": 566,
      "kt": 567,
      "Ġ200": 568,
      "rowa": 569,
      "fi": 570,
      "el": 571,
      "Ġspo": 572,
      "uro": 573,
      "Ġ19": 574,
      "Ġn": 575,
      "chi": 576,
      "Ġr": 577,
      "gra": 578,
      "Ġsz": 579,
      "âĢĿ": 580,
      "pi": 581,
      "Äħd": 582,
      "iki": 583,
      "ĠktÃ³re": 584,
      "czÄħ": 585,
      "rod": 586,
      "Ġtak": 587,
      "tk": 588,
      "Ġtym": 589,
      "ul": 590,
      "niu": 591,
      "ri": 592,
      "ba": 593,
      "dziaÅĤ": 594,
      "et": 595,
      "ji": 596,
      "Ġnaj": 597,
      "sa": 598,
      "mo": 599,
      "Ġwie": 600,
      "Ġprzed": 601,
      "ÅĦski": 602,
      "tego": 603,
      "noÅĽci": 604,
      "ĠâĢŀ": 605,
      "Ġmiejs": 606,
      "Ġh": 607,
      "owaÅĤ": 608,
      "ad": 609,
      "zyd": 610,
      "Ġwyb": 611,
      "th": 612,
      "Ġlu": 613,
      "gu": 614,
      "sto": 615,
      "jÄħcy": 616,
      "Ġmi": 617,
      "ĠMa": 618,
      "ÅĤe": 619,
      "Ġzap": 620,
      "Äħz": 621,
      "ÅĦst": 622,
      "cza": 623,
      "Ar": 624,
      "Ġch": 625,
      "Ġzna": 626,
      "owego": 627,
      "ud": 628,
      "Ġczy": 629,
      "rak": 630,
      "Ġdzie": 631,
      "Ġspra": 632,
      "ĠsÄħ": 633,
      "one": 634,
      "cjÄĻ": 635,
      "ĠbÄĻdzie": 636,
      "tÃ³w": 637,
      "owane": 638,
      "cyj": 639,
      "Ġni": 640,
      "owany": 641,
      "ierw": 642,
      "wÃ³": 643,
      "chiwa": 644,
      "kÅĤa": 645,
      "Ġsp": 646,
      "Ġde": 647,
      "Ġla": 648,
      "ane": 649,
      "chiwalne": 650,
      "Archiwalne": 651,
      "Ġjak": 652,
      "Ã³b": 653,
      "gani": 654,
      "sk": 655,
      "sie": 656,
      "we": 657,
      "art": 658,
      "Ġwo": 659,
      "ubli": 660,
      "Ġ4": 661,
      "czas": 662,
      "ĠMi": 663,
      "dze": 664,
      "ĠJa": 665,
      "arsza": 666,
      "nist": 667,
      "cje": 668,
      "Ġ5": 669,
      "forma": 670,
      "and": 671,
      "Ġpol": 672,
      "ĠWiki": 673,
      "cu": 674,
      "ory": 675,
      "owania": 676,
      "ĠZa": 677,
      "mia": 678,
      "su": 679,
      "spo": 680,
      "dzy": 681,
      "Ġsta": 682,
      "war": 683,
      "pad": 684,
      "jÄħce": 685,
      "bie": 686,
      "enta": 687,
      "ĠPa": 688,
      "Ġco": 689,
      "umb": 690,
      "zi": 691,
      "wiÄĻ": 692,
      "Ġtra": 693,
      "owanie": 694,
      "Ġgru": 695,
      "do": 696,
      "ĠKo": 697,
      "iaÅĤa": 698,
      "tni": 699,
      "zu": 700,
      "Ġswo": 701,
      "jÄħc": 702,
      "Ġwi": 703,
      "ery": 704,
      "thumb": 705,
      "ÅĤÃ³w": 706,
      "ĠtakÅ¼e": 707,
      "trzy": 708,
      "lej": 709,
      "sÅĤa": 710,
      "20": 711,
      "dÄħ": 712,
      "ĠSt": 713,
      "cha": 714,
      "nik": 715,
      "ĠLe": 716,
      "cki": 717,
      "wiÄħz": 718,
      "ĠMar": 719,
      "),": 720,
      "ut": 721,
      "Ġop": 722,
      "Ġzd": 723,
      "Ġsam": 724,
      "iÅĤ": 725,
      "Ġar": 726,
      "skich": 727,
      "cznie": 728,
      "cznych": 729,
      "Ġpierw": 730,
      "cznej": 731,
      "wiat": 732,
      "Ġfi": 733,
      "Åļ": 734,
      "owym": 735,
      ").": 736,
      "Ġczas": 737,
      "ono": 738,
      "Ġsy": 739,
      "Ġju": 740,
      "Ġor": 741,
      "ĠosÃ³b": 742,
      "wier": 743,
      "lityka": 744,
      "Ġpowie": 745,
      "Ġpow": 746,
      "Ġ6": 747,
      "ec": 748,
      "Ġkom": 749,
      "ĠCh": 750,
      "owaÄĩ": 751,
      "ony": 752,
      "nak": 753,
      "Ġwsp": 754,
      "ĠteÅ¼": 755,
      "usz": 756,
      "ĠĊĊ": 757,
      "Ġprezyd": 758,
      "Na": 759,
      "ĠTo": 760,
      "ĠwÅĤa": 761,
      "Ġog": 762,
      "Å¼a": 763,
      "Ġme": 764,
      "ort": 765,
      "cÃ³w": 766,
      "px": 767,
      "Ġbez": 768,
      "Ġ,": 769,
      "ali": 770,
      "nd": 771,
      "nÄĻ": 772,
      "ĠNie": 773,
      "Ġ201": 774,
      "pis": 775,
      "Ġgodzi": 776,
      "czne": 777,
      "ĠEuro": 778,
      "ĠrÃ³w": 779,
      "kre": 780,
      "Ġle": 781,
      "Ġ.": 782,
      "ĠzostaÅĤ": 783,
      "ot": 784,
      "bywa": 785,
      "Ġtego": 786,
      "oby": 787,
      "ak": 788,
      "Ġmu": 789,
      "ĠjuÅ¼": 790,
      "Ġjako": 791,
      "Ġrz": 792,
      "prowa": 793,
      "siÄĻ": 794,
      "anych": 795,
      "pre": 796,
      "ĠWy": 797,
      "zie": 798,
      "ÅĽcie": 799,
      "Ġno": 800,
      "ĠmoÅ¼": 801,
      "mier": 802,
      "rza": 803,
      "Ġmia": 804,
      "ĠÅļ": 805,
      "tem": 806,
      "nieÅ¼": 807,
      "ĠLi": 808,
      "ĠwiÄĻ": 809,
      "siÄħ": 810,
      "rÄĻ": 811,
      "szyst": 812,
      "Ġak": 813,
      "Ġwz": 814,
      "iÄĻdzy": 815,
      "Ġdy": 816,
      "ckie": 817,
      "iel": 818,
      "kra": 819,
      "Ġkra": 820,
      "ĠIn": 821,
      "est": 822,
      "orz": 823,
      "Ġ2024": 824,
      "Ġstro": 825,
      "Ġ7": 826,
      "Ġdru": 827,
      "oba": 828,
      "ÅĤÄħ": 829,
      "ano": 830,
      "ĠrÃ³wnieÅ¼": 831,
      "ren": 832,
      "ti": 833,
      "owni": 834,
      "edia": 835,
      "lan": 836,
      "fe": 837,
      "ĠPi": 838,
      "Ġjego": 839,
      "stan": 840,
      "bo": 841,
      "ĠbyÅĤ": 842,
      "Ġjednak": 843,
      "tek": 844,
      "Ġkil": 845,
      "owski": 846,
      "ĠRa": 847,
      "niÄĻ": 848,
      "orzy": 849,
      "Ġc": 850,
      "Ġpe": 851,
      "ĠÅģ": 852,
      "Ġmiejsce": 853,
      "ene": 854,
      "dzia": 855,
      "form": 856,
      "ciÄħ": 857,
      "Ġinforma": 858,
      "uk": 859,
      "kiem": 860,
      "\".": 861,
      "olo": 862,
      "ĠV": 863,
      "Ġale": 864,
      "lÄħ": 865,
      "pu": 866,
      "Ġkolej": 867,
      "ĠÅ¼y": 868,
      "Ġ2025": 869,
      "Ġlo": 870,
      "ÅĤug": 871,
      "ĠSz": 872,
      "19": 873,
      "Ġstan": 874,
      "Ġau": 875,
      "Ġorgani": 876,
      "powie": 877,
      "owÄħ": 878,
      "py": 879,
      "lÄĻ": 880,
      "Polityka": 881,
      "szÅĤo": 882,
      "Ġ10": 883,
      "lko": 884,
      "owia": 885,
      "Ġpop": 886,
      "Ġwszyst": 887,
      "Ġmar": 888,
      "Wy": 889,
      "ĠDo": 890,
      "Åļwiat": 891,
      "Ã³r": 892,
      "tura": 893,
      "liwo": 894,
      "Ġtej": 895,
      "Ġ8": 896,
      "Ġdoty": 897,
      "rani": 898,
      "ĠÅ¼": 899,
      "mis": 900,
      "czÄĻ": 901,
      "Ġpot": 902,
      "ĠgÅĤo": 903,
      "noÅĽÄĩ": 904,
      "kÄĻ": 905,
      "wiet": 906,
      "Ġoko": 907,
      "mar": 908,
      "lem": 909,
      "ĠWarsza": 910,
      "sce": 911,
      "ĠbÄĻdÄħ": 912,
      "ĠmoÅ¼e": 913,
      "se": 914,
      "erw": 915,
      "onych": 916,
      "Ġlat": 917,
      "nad": 918,
      "unk": 919,
      "25": 920,
      "Ġpor": 921,
      "kÅĤad": 922,
      "Ġpowo": 923,
      "ĠĊĠĊĠĊ": 924,
      "Ġpoz": 925,
      "Ġwe": 926,
      "czeÅĦst": 927,
      "kona": 928,
      "jÄħcych": 929,
      "tel": 930,
      "ÅĽli": 931,
      "Ġwyda": 932,
      "Ġce": 933,
      "sÅĤaw": 934,
      "dnia": 935,
      "uch": 936,
      "gro": 937,
      "owaÅĤa": 938,
      "szcze": 939,
      "wiad": 940,
      "Ġproje": 941,
      "Ġ9": 942,
      "Ġpolity": 943,
      "so": 944,
      "Ġmog": 945,
      "ĠPolsce": 946,
      "ct": 947,
      "Ġca": 948,
      "szych": 949,
      "nii": 950,
      "ĠzwiÄħz": 951,
      "stawi": 952,
      "skim": 953,
      "Ġnad": 954,
      "di": 955,
      "Ġpubli": 956,
      "cÄħ": 957,
      "nister": 958,
      "bu": 959,
      "pej": 960,
      "pod": 961,
      "ÅĽnie": 962,
      "Ġsze": 963,
      "tyw": 964,
      "ĠbyÅĤo": 965,
      "sko": 966,
      "Ġpi": 967,
      "fa": 968,
      "ĠRe": 969,
      "stÄħ": 970,
      "ĠbyÄĩ": 971,
      "inform": 972,
      "kich": 973,
      "mery": 974,
      "Ġ15": 975,
      "zji": 976,
      "Ġosta": 977,
      "Ġusta": 978,
      "kaÅĦ": 979,
      "Ġpraw": 980,
      "dnie": 981,
      "im": 982,
      "kÄħ": 983,
      "ĠdziaÅĤa": 984,
      "czny": 985,
      "wodni": 986,
      "Ġbar": 987,
      "Ġprowa": 988,
      "tury": 989,
      "dzÄħ": 990,
      "Ġrze": 991,
      "Ã³l": 992,
      "mach": 993,
      "ĠktÃ³ra": 994,
      "stanie": 995,
      "Ġpoinform": 996,
      "praw": 997,
      "Ġbo": 998,
      "Ġsty": 999,
      "Ġwybor": 1000,
      "Ġrozpo": 1001,
      "dziÅĤ": 1002,
      "ĠPolski": 1003,
      "ĠczÄĻ": 1004,
      "obie": 1005,
      "ĠpowiedziaÅĤ": 1006,
      "rzÄĻ": 1007,
      "Åºdzie": 1008,
      "edÅĤug": 1009,
      "maÅĤy": 1010,
      "terne": 1011,
      "Ġpodczas": 1012,
      "Ġru": 1013,
      "bli": 1014,
      "bÄĻ": 1015,
      "ĠRo": 1016,
      "gh": 1017,
      "lam": 1018,
      "Ġda": 1019,
      "Ġsie": 1020,
      "oÅĤ": 1021,
      "dzenia": 1022,
      "iu": 1023,
      "30": 1024,
      "koÅĦ": 1025,
      "Ġtrze": 1026,
      "ral": 1027,
      "Ġich": 1028,
      "es": 1029,
      "raz": 1030,
      "ĠbyÅĤy": 1031,
      "):": 1032,
      "cznego": 1033,
      "Ġim": 1034,
      "dzo": 1035,
      "stwa": 1036,
      "Ã³d": 1037,
      "ĠmiÄĻdzy": 1038,
      "ian": 1039,
      "ĠTe": 1040,
      "rwa": 1041,
      "ĠzostaÅĤo": 1042,
      "Ġ2007": 1043,
      "ped": 1044,
      "entu": 1045,
      "cjal": 1046,
      "czyÅĤ": 1047,
      "onal": 1048,
      "ist": 1049,
      "gÅĤo": 1050,
      "czenia": 1051,
      "ner": 1052,
      "gie": 1053,
      "tych": 1054,
      "Ġwyni": 1055,
      "aniu": 1056,
      "Ġponad": 1057,
      "ĠPro": 1058,
      "ĠgÅĤos": 1059,
      "ĠĠĠĠ": 1060,
      "Ġarty": 1061,
      "rÃ³Å¼": 1062,
      "szym": 1063,
      "stu": 1064,
      "Ġprac": 1065,
      "Ġkie": 1066,
      "Ġspraw": 1067,
      "Ġsprawie": 1068,
      "stwo": 1069,
      "zja": 1070,
      "niem": 1071,
      "ĠKaczy": 1072,
      "ĠJe": 1073,
      "ĠPre": 1074,
      "nku": 1075,
      "Ġczerw": 1076,
      "ers": 1077,
      "owano": 1078,
      "ĠdoszÅĤo": 1079,
      "Ġmin": 1080,
      "SA": 1081,
      "zacji": 1082,
      "us": 1083,
      "kaza": 1084,
      "Ġtylko": 1085,
      "Ġswoje": 1086,
      "Ġser": 1087,
      "ge": 1088,
      "dza": 1089,
      "ĠPrze": 1090,
      "lar": 1091,
      "ĠzÅĤo": 1092,
      "ĠWo": 1093,
      "Ġspotk": 1094,
      "Ġpar": 1095,
      "Ġpoja": 1096,
      "obacz": 1097,
      "Ġkwiet": 1098,
      "Ġkar": 1099,
      "10": 1100,
      "Ġstycz": 1101,
      "ÅĤuÅ¼": 1102,
      "ĠokoÅĤo": 1103,
      "Ġ12": 1104,
      "Ġmaja": 1105,
      "Åºdzier": 1106,
      "stro": 1107,
      "tom": 1108,
      "szej": 1109,
      "ĠpaÅºdzier": 1110,
      "szÄħ": 1111,
      "oru": 1112,
      "dem": 1113,
      "rzÄħ": 1114,
      "maty": 1115,
      "Ġstra": 1116,
      "sÅĤ": 1117,
      "czna": 1118,
      "at": 1119,
      "mÃ³w": 1120,
      "cer": 1121,
      "ciw": 1122,
      "ĠuÅ¼y": 1123,
      "Ġmarca": 1124,
      "Ġpoli": 1125,
      "âĢĿ.": 1126,
      "ck": 1127,
      "ĠspoÅĤe": 1128,
      "Ġpart": 1129,
      "ĠPra": 1130,
      "rzenia": 1131,
      "Ġ0": 1132,
      "ĠÅĽrod": 1133,
      "Ġof": 1134,
      "stra": 1135,
      "Ġdro": 1136,
      "rum": 1137,
      "ĠbyÅĤa": 1138,
      "pada": 1139,
      "stem": 1140,
      "Ġznaj": 1141,
      "ÅĽnia": 1142,
      "der": 1143,
      "Ġodby": 1144,
      "ĠwspÃ³ÅĤ": 1145,
      "ĠEuropej": 1146,
      "ĠzostaÅĤa": 1147,
      "Ġodpowie": 1148,
      "Ġzmar": 1149,
      "ĠKon": 1150,
      "Ġkwietnia": 1151,
      "trzyma": 1152,
      "ĠRos": 1153,
      "rÃ³w": 1154,
      "ĠTu": 1155,
      "ĠpaÅĦst": 1156,
      "Ġsk": 1157,
      "Ġbra": 1158,
      "Ġwar": 1159,
      "Ġba": 1160,
      "ĠKrak": 1161,
      "In": 1162,
      "feren": 1163,
      "tro": 1164,
      "cej": 1165,
      "Ġ14": 1166,
      "Ġlub": 1167,
      "owanych": 1168,
      "Ġten": 1169,
      "gen": 1170,
      "uje": 1171,
      "Ġprogra": 1172,
      "stytu": 1173,
      "Ġstycznia": 1174,
      "Ġok": 1175,
      "pl": 1176,
      "12": 1177,
      "Ġlip": 1178,
      "Ġwrze": 1179,
      "ĠAr": 1180,
      "ĠBo": 1181,
      "Ġczerwca": 1182,
      "ĠFran": 1183,
      "waj": 1184,
      "tnie": 1185,
      "Ġobec": 1186,
      "Ġpoda": 1187,
      "Ġmiesz": 1188,
      "ciÄĻ": 1189,
      "dno": 1190,
      "strze": 1191,
      "wiÄĻk": 1192,
      "Ġsa": 1193,
      "ĠmoÅ¼na": 1194,
      "Ġdecy": 1195,
      "Ġ18": 1196,
      "nan": 1197,
      "Ġjej": 1198,
      "port": 1199,
      "trz": 1200,
      "res": 1201,
      "rem": 1202,
      "ĠpaÅºdziernika": 1203,
      "15": 1204,
      "cjÄħ": 1205,
      "Ġ2023": 1206,
      "Ġwyk": 1207,
      "tach": 1208,
      "ĠPolska": 1209,
      "rek": 1210,
      "Ġ16": 1211,
      "lef": 1212,
      "yt": 1213,
      "Ġucze": 1214,
      "Ġtu": 1215,
      "ciu": 1216,
      "chodzi": 1217,
      "Ġbi": 1218,
      "dÃ³w": 1219,
      "tej": 1220,
      "waÅ¼": 1221,
      "ternet": 1222,
      "ktu": 1223,
      "sku": 1224,
      "Ġlisto": 1225,
      "ĠAn": 1226,
      "roni": 1227,
      "ĠBa": 1228,
      "Ġgrudnia": 1229,
      "Ġ17": 1230,
      "ÅĽniej": 1231,
      "Ġzmia": 1232,
      "tar": 1233,
      "kach": 1234,
      "ĠPod": 1235,
      "ĠGa": 1236,
      "ght": 1237,
      "Ġsier": 1238,
      "Ġzab": 1239,
      "Ġwol": 1240,
      "ĠnastÄĻp": 1241,
      "dzenie": 1242,
      "Ġ13": 1243,
      "ĠmÃ³w": 1244,
      "uka": 1245,
      "ĠMo": 1246,
      "ÅĽmy": 1247,
      "stni": 1248,
      "ĠÅĽmier": 1249,
      "ÅĦskiego": 1250,
      "Ġ11": 1251,
      "Ġbud": 1252,
      "rzu": 1253,
      "czeÅĽniej": 1254,
      "owali": 1255,
      "aniem": 1256,
      "nek": 1257,
      "âĢĵ": 1258,
      "24": 1259,
      "osta": 1260,
      "tal": 1261,
      "ing": 1262,
      "czni": 1263,
      "Ġlipca": 1264,
      "Ġsierp": 1265,
      "nymi": 1266,
      "ĠZobacz": 1267,
      "owana": 1268,
      "sÅĤu": 1269,
      "tua": 1270,
      "Ġraz": 1271,
      "ĠudziaÅĤ": 1272,
      "Ġwska": 1273,
      "Ġspe": 1274,
      "sia": 1275,
      "prez": 1276,
      "min": 1277,
      "iÅĤka": 1278,
      "ĠAnd": 1279,
      "Ġry": 1280,
      "Ġdnia": 1281,
      "lek": 1282,
      "stawie": 1283,
      "andy": 1284,
      "ryw": 1285,
      "owis": 1286,
      "stÄħpi": 1287,
      "ĠzakoÅĦ": 1288,
      "ĠdotyczÄħ": 1289,
      "czenie": 1290,
      "Ġsto": 1291,
      "Ġosoby": 1292,
      "Ġcy": 1293,
      "ĠÅ»": 1294,
      "Ġjeszcze": 1295,
      "czo": 1296,
      "szego": 1297,
      "ĠmajÄħ": 1298,
      "200": 1299,
      "ĠĊĠĊĠĊĠĊ": 1300,
      "kim": 1301,
      "Ġkier": 1302,
      "Ġgdy": 1303,
      "Ġon": 1304,
      "Ġdu": 1305,
      "iast": 1306,
      "pera": 1307,
      "Ġek": 1308,
      "mina": 1309,
      "ĠktÃ³rzy": 1310,
      "kaz": 1311,
      "czu": 1312,
      "ĠWD": 1313,
      "bor": 1314,
      "nios": 1315,
      "Ġprzeciw": 1316,
      "rÄħ": 1317,
      "trzym": 1318,
      "bywatel": 1319,
      "Ġaby": 1320,
      "Ġan": 1321,
      "ĠX": 1322,
      "ĠwrzeÅĽnia": 1323,
      "ÅĤon": 1324,
      "ÅĤem": 1325,
      "Ġgodziny": 1326,
      "Ġlistopada": 1327,
      "ĠWikiped": 1328,
      "Za": 1329,
      "Ġprzedstawi": 1330,
      "stÃ³w": 1331,
      "..": 1332,
      "Pra": 1333,
      "lat": 1334,
      "dar": 1335,
      "Ġwa": 1336,
      "Euro": 1337,
      "ĠCz": 1338,
      "ĠKra": 1339,
      "Ġot": 1340,
      "Ġgdzie": 1341,
      "omo": 1342,
      "kacji": 1343,
      "AR": 1344,
      "right": 1345,
      "pro": 1346,
      "ĠgÅĤÃ³w": 1347,
      "czyÄĩ": 1348,
      "Ġfor": 1349,
      "Ġdoda": 1350,
      "jedno": 1351,
      "kiej": 1352,
      "Ġfir": 1353,
      "czone": 1354,
      "ĠWi": 1355,
      "Ġbardzo": 1356,
      "Ġsierpnia": 1357,
      "media": 1358,
      "szu": 1359,
      "Ġwoj": 1360,
      "ĠKaczyÅĦski": 1361,
      "St": 1362,
      "ĠOd": 1363,
      "kty": 1364,
      "Ġfil": 1365,
      "skÄħ": 1366,
      "Ġzwy": 1367,
      "ary": 1368,
      "Ġpomo": 1369,
      "ĠktÃ³rym": 1370,
      "pozy": 1371,
      "entrum": 1372,
      "cka": 1373,
      "ĠSta": 1374,
      "Ġwyg": 1375,
      "unda": 1376,
      "den": 1377,
      "owarzy": 1378,
      "nach": 1379,
      "ÄĻÅ¼": 1380,
      "Ġga": 1381,
      "Ġ25": 1382,
      "Ġartyku": 1383,
      "Ġfunk": 1384,
      "Ġsamo": 1385,
      "Nie": 1386,
      "liwoÅĽci": 1387,
      "wski": 1388,
      "ĠWa": 1389,
      "got": 1390,
      "ĠSa": 1391,
      "ÅĤÄĻ": 1392,
      "Ġwal": 1393,
      "Ġeta": 1394,
      "nistra": 1395,
      "chu": 1396,
      "bro": 1397,
      "esti": 1398,
      "ws": 1399,
      "Ġplan": 1400,
      "13": 1401,
      "Ġedy": 1402,
      "Ġur": 1403,
      "tku": 1404,
      "Ġsytua": 1405,
      "Ã³Åº": 1406,
      "ĠrzÄħd": 1407,
      "Ġprzypad": 1408,
      "ĠRze": 1409,
      "Ġtram": 1410,
      "Ġzw": 1411,
      "czej": 1412,
      "cych": 1413,
      "oro": 1414,
      "cznÄħ": 1415,
      "Ġzg": 1416,
      "ĠmiaÅĤ": 1417,
      "ĠrzÄħ": 1418,
      "Ġtych": 1419,
      "ha": 1420,
      "Ġran": 1421,
      "ransp": 1422,
      "ste": 1423,
      "ĠdostÄĻp": 1424,
      "io": 1425,
      "Ma": 1426,
      "ĠktÃ³rych": 1427,
      "Ġfa": 1428,
      "pol": 1429,
      "daÅĦ": 1430,
      "Mi": 1431,
      "ÅĤowie": 1432,
      "daw": 1433,
      "Ġuczestni": 1434,
      "ĠktÃ³rej": 1435,
      "ĠSo": 1436,
      "ber": 1437,
      "lewi": 1438,
      "Ġpowodu": 1439,
      "cen": 1440,
      "Ġlutego": 1441,
      "Å¼Äħ": 1442,
      "jÄĻzy": 1443,
      "ĠZjedno": 1444,
      "cach": 1445,
      "ĠzÅĤ": 1446,
      "he": 1447,
      "nans": 1448,
      "Ġsystem": 1449,
      "Europa": 1450,
      "ĠnoÅ¼": 1451,
      "Ġuwa": 1452,
      "ÅĽrÃ³d": 1453,
      "ĠdwÃ³": 1454,
      "Ġokre": 1455,
      "ultura": 1456,
      "zd": 1457,
      "Ġ30": 1458,
      "ryty": 1459,
      "Ġkilka": 1460,
      "ÅĽwiad": 1461,
      "ĠKrakowie": 1462,
      "Wiki": 1463,
      "Ġstwier": 1464,
      "ÄĻÅ¼czy": 1465,
      "Ġpracy": 1466,
      "owaÅĤo": 1467,
      "Ġal": 1468,
      "Ġdzien": 1469,
      "ĠAl": 1470,
      "ĠRad": 1471,
      "kom": 1472,
      "Ġzapowie": 1473,
      "ĠTa": 1474,
      "kur": 1475,
      "per": 1476,
      "por": 1477,
      "Do": 1478,
      "ir": 1479,
      "wania": 1480,
      "cznym": 1481,
      "Ġprezydenta": 1482,
      "waÅĤ": 1483,
      "Ã³ÅĤno": 1484,
      "tomiast": 1485,
      "dzt": 1486,
      "Å¼enia": 1487,
      "Ġcze": 1488,
      "kar": 1489,
      "ckiego": 1490,
      "ĠwiÄĻk": 1491,
      "cin": 1492,
      "Ġjedno": 1493,
      "krai": 1494,
      "andyda": 1495,
      "ktÃ³w": 1496,
      "Ġostatni": 1497,
      "siÄĻcy": 1498,
      "anu": 1499,
      "Ġbu": 1500,
      "11": 1501,
      "ĠwspÃ³ÅĤpra": 1502,
      "nu": 1503,
      "WD": 1504,
      "wiÄħ": 1505,
      "czeÅĦstwo": 1506,
      "Ġponie": 1507,
      "Ġkraju": 1508,
      "entÃ³w": 1509,
      "Ġnich": 1510,
      "Ġzdoby": 1511,
      "Ġtrwa": 1512,
      "ĠogÅĤo": 1513,
      "ĠPiS": 1514,
      "Ġszko": 1515,
      "prze": 1516,
      "Ko": 1517,
      "narod": 1518,
      "misji": 1519,
      "mat": 1520,
      "Kon": 1521,
      "Ġauto": 1522,
      "kura": 1523,
      "Ġparlam": 1524,
      "Ġdob": 1525,
      "wor": 1526,
      "Ġmiasta": 1527,
      "wali": 1528,
      "Ġut": 1529,
      "ĠdwÃ³ch": 1530,
      "emo": 1531,
      "szenie": 1532,
      "ĠdziaÅĤ": 1533,
      "ĠOr": 1534,
      "ĠodbÄĻ": 1535,
      "logi": 1536,
      "ĠWarszawie": 1537,
      "tka": 1538,
      "vi": 1539,
      "licy": 1540,
      "ĠSej": 1541,
      "lep": 1542,
      "rzej": 1543,
      "now": 1544,
      "ruk": 1545,
      "Ġprzeprowa": 1546,
      "ĠPola": 1547,
      "Ġml": 1548,
      "poÅĤe": 1549,
      "ĠrÃ³Å¼": 1550,
      "ĠczÅĤon": 1551,
      "rony": 1552,
      "estiwa": 1553,
      "Ġamery": 1554,
      "szta": 1555,
      "Ġpoprze": 1556,
      "staw": 1557,
      "\",": 1558,
      "liwoÅĽÄĩ": 1559,
      "000": 1560,
      "Ã©": 1561,
      "Ja": 1562,
      "Ġloka": 1563,
      "ĠwczeÅĽniej": 1564,
      "Ġtam": 1565,
      "ĠII": 1566,
      "nÄĻtrz": 1567,
      "ÅĤego": 1568,
      "onu": 1569,
      "Ġinformacji": 1570,
      "Ġprezydent": 1571,
      "peÅĤ": 1572,
      "Pro": 1573,
      "inÄĻ": 1574,
      "ĠkoÅĦ": 1575,
      "Ġotrzyma": 1576,
      "jewÃ³": 1577,
      "ĠzostaÅĤy": 1578,
      "owiÄħz": 1579,
      "dal": 1580,
      "ĠBar": 1581,
      "Ġzde": 1582,
      "row": 1583,
      "Ġzespo": 1584,
      "hi": 1585,
      "Ġorganiza": 1586,
      "Prawo": 1587,
      "szo": 1588,
      "Ġzgo": 1589,
      "kiego": 1590,
      "à®": 1591,
      "23": 1592,
      "strz": 1593,
      "Ġwprowa": 1594,
      "ĠzwyciÄĻ": 1595,
      "ĠPrezyd": 1596,
      "ĠNarod": 1597,
      "Ġserwi": 1598,
      "ÅĤaw": 1599,
      "ÅĤat": 1600,
      "ĠprÃ³": 1601,
      "ÅĤudni": 1602,
      "14": 1603,
      "wnÄĻtrz": 1604,
      "Ġsprze": 1605,
      "lekt": 1606,
      "dziej": 1607,
      "Ġeuro": 1608,
      "ologi": 1609,
      "cznoÅĽci": 1610,
      "Ġprob": 1611,
      "ng": 1612,
      "Ġpozy": 1613,
      "Ġproc": 1614,
      "ĠniÅ¼": 1615,
      "torÃ³w": 1616,
      "Ġczasu": 1617,
      "Ġhist": 1618,
      "ĠJed": 1619,
      "Ġrodzi": 1620,
      "Ġgra": 1621,
      "Åģ": 1622,
      "ten": 1623,
      "ĠWikipedii": 1624,
      "Ġkm": 1625,
      "era": 1626,
      "waÄĩ": 1627,
      "Ġata": 1628,
      "gÄĻ": 1629,
      "tki": 1630,
      "Ġtrzy": 1631,
      "ÅĦska": 1632,
      "ich": 1633,
      "ĠÅĽmierci": 1634,
      "kow": 1635,
      "Ġmuzy": 1636,
      "Ġuro": 1637,
      "Ġzostanie": 1638,
      "mniej": 1639,
      "kro": 1640,
      "ĠmÃ³wi": 1641,
      "Ġse": 1642,
      "Ġprezyden": 1643,
      "Ã³ÅĤnoc": 1644,
      "cyd": 1645,
      "Te": 1646,
      "ĠpeÅĤ": 1647,
      "ĠmÄĻÅ¼czy": 1648,
      "Ġczasie": 1649,
      "ĠpoczÄħ": 1650,
      "Ġzatrzym": 1651,
      "wicz": 1652,
      "Ġtramwaj": 1653,
      "ĠrozpoczÄĻ": 1654,
      "Ġtygo": 1655,
      "Ġotwar": 1656,
      "ezpie": 1657,
      "ownikÃ³w": 1658,
      "ĠkaÅ¼": 1659,
      "pÅĤy": 1660,
      "Ġprzygot": 1661,
      "chy": 1662,
      "Ġramach": 1663,
      "Ġspos": 1664,
      "lni": 1665,
      "ĠsÅĤuÅ¼": 1666,
      "pita": 1667,
      "ĠmogÄħ": 1668,
      "Ġinnych": 1669,
      "syj": 1670,
      "tÄĻ": 1671,
      "mal": 1672,
      "Ġnaz": 1673,
      "Ġuzy": 1674,
      "ler": 1675,
      "owaniu": 1676,
      "Ġzda": 1677,
      "dziÄĩ": 1678,
      "mieni": 1679,
      "owaÅĤy": 1680,
      "kum": 1681,
      "roc": 1682,
      "Ġkandyda": 1683,
      "czeÅĦstwa": 1684,
      "Ġlicz": 1685,
      "Ġwyso": 1686,
      "Ġrzecz": 1687,
      "ard": 1688,
      "ore": 1689,
      "ĠMie": 1690,
      "prawie": 1691,
      "Sport": 1692,
      "spoli": 1693,
      "ve": 1694,
      "anda": 1695,
      "ÅĤym": 1696,
      "Ġproce": 1697,
      "Ġdni": 1698,
      "ĠObywatel": 1699,
      "anii": 1700,
      "ĠPe": 1701,
      "Ã³Åºniej": 1702,
      "left": 1703,
      "rosÅĤaw": 1704,
      "ctwa": 1705,
      "Ġpla": 1706,
      "Ġmet": 1707,
      "odzi": 1708,
      "miesz": 1709,
      "Ġdrugie": 1710,
      "pospoli": 1711,
      "ĠKom": 1712,
      "Ġmiejsc": 1713,
      "scy": 1714,
      "Pod": 1715,
      "Ġszcze": 1716,
      "wiata": 1717,
      "ser": 1718,
      "Ġosob": 1719,
      "Ġminu": 1720,
      "ĠNaj": 1721,
      "Ġwia": 1722,
      "Ġwygra": 1723,
      "pew": 1724,
      "ĠpoinformowaÅĤ": 1725,
      "mowy": 1726,
      "ĠHa": 1727,
      "Ġ194": 1728,
      "siÅĤ": 1729,
      "wÃ³r": 1730,
      "wet": 1731,
      "ron": 1732,
      "ĠSe": 1733,
      "ĠciÄħ": 1734,
      "Pre": 1735,
      "Ġmili": 1736,
      "gnie": 1737,
      "Ã³j": 1738,
      "Ġkilku": 1739,
      "Ġwykorzy": 1740,
      "ÅĤowa": 1741,
      "250": 1742,
      "ĠmieszkaÅĦ": 1743,
      "wen": 1744,
      "ĠTV": 1745,
      "ĠTy": 1746,
      "Ġkomu": 1747,
      "Ġbezpie": 1748,
      "Ġpremie": 1749,
      "Ġ21": 1750,
      "ans": 1751,
      "Li": 1752,
      "ĠPolskiej": 1753,
      "Ġ2008": 1754,
      "Ġwszystkich": 1755,
      "Kultura": 1756,
      "owisko": 1757,
      "Ġstar": 1758,
      "Ġpotwier": 1759,
      "asa": 1760,
      "cÄĻ": 1761,
      "ĠwyÅĽci": 1762,
      "Ġpolityka": 1763,
      "Ġkieru": 1764,
      "oÅĤnie": 1765,
      "worz": 1766,
      "Ġsob": 1767,
      "ĠDa": 1768,
      "Re": 1769,
      "pisa": 1770,
      "gÃ³l": 1771,
      "dmi": 1772,
      "Ġznajdu": 1773,
      "ĠAu": 1774,
      "ytanie": 1775,
      "Ġkraj": 1776,
      "Ġdwa": 1777,
      "Ġnale": 1778,
      "towi": 1779,
      "lasy": 1780,
      "ÅĽcia": 1781,
      "ĠktÃ³rego": 1782,
      "let": 1783,
      "glÄĻ": 1784,
      "ĠJan": 1785,
      "chaÅĤ": 1786,
      "22": 1787,
      "Ġminister": 1788,
      "ĠMu": 1789,
      "Ġszy": 1790,
      "dÄĻ": 1791,
      "Ġzam": 1792,
      "ĠÅ¹rÃ³dÅĤo": 1793,
      "ĠczÄĻÅĽci": 1794,
      "Ġstrony": 1795,
      "szko": 1796,
      "18": 1797,
      "Ġpozosta": 1798,
      "Ġprodu": 1799,
      "news": 1800,
      "ĠLin": 1801,
      "Ġ23": 1802,
      "ĠJo": 1803,
      "tyka": 1804,
      "Ġter": 1805,
      "chni": 1806,
      "Ġruchu": 1807,
      "ĠUni": 1808,
      "owiada": 1809,
      "czyk": 1810,
      "maga": 1811,
      "ĠpiÄĻ": 1812,
      "ĠDe": 1813,
      "Ġkonkur": 1814,
      "Ġrozryw": 1815,
      "ÄĻg": 1816,
      "17": 1817,
      "Kra": 1818,
      "Ġ22": 1819,
      "onia": 1820,
      "ĠDzie": 1821,
      "Ġuzna": 1822,
      "Ġautor": 1823,
      "nienia": 1824,
      "mienia": 1825,
      "rzÄħd": 1826,
      "ego": 1827,
      "west": 1828,
      "lnych": 1829,
      "Ġ193": 1830,
      "ĠNi": 1831,
      "ĠKrzy": 1832,
      "gia": 1833,
      "grani": 1834,
      "Ġelekt": 1835,
      "prawied": 1836,
      "Ġwykona": 1837,
      "Ġpierwszy": 1838,
      "Ġ24": 1839,
      "ficjal": 1840,
      "Ġdziennika": 1841,
      "amo": 1842,
      "ĠpiÄħ": 1843,
      "Ġtys": 1844,
      "obec": 1845,
      "Ġtemat": 1846,
      "Ġklu": 1847,
      "szenia": 1848,
      "Ġfinans": 1849,
      "16": 1850,
      "emokra": 1851,
      "jsk": 1852,
      "Ġkonferen": 1853,
      "ĠjÄħ": 1854,
      "dr": 1855,
      "ĠprzestÄĻp": 1856,
      "âĢĿ,": 1857,
      "Ġgodz": 1858,
      "ert": 1859,
      "ĠiÅ¼": 1860,
      "Ġzdr": 1861,
      "Ġzach": 1862,
      "be": 1863,
      "zm": 1864,
      "od": 1865,
      "Ġszef": 1866,
      "rowane": 1867,
      "ĠodbÄĻdzie": 1868,
      "len": 1869,
      "Ġgodzinie": 1870,
      "ultury": 1871,
      "Ġczyli": 1872,
      "Ġreprez": 1873,
      "Prze": 1874,
      "SpoÅĤe": 1875,
      "Ġmln": 1876,
      "ĠWie": 1877,
      "ĠPO": 1878,
      "onda": 1879,
      "ĠÅ¼ad": 1880,
      "tion": 1881,
      "Mar": 1882,
      "ÅĤych": 1883,
      "Ġautomaty": 1884,
      "dÅĤ": 1885,
      "ok": 1886,
      "Ġwyd": 1887,
      "Å¼ej": 1888,
      "Ġprzyzna": 1889,
      "lenia": 1890,
      "ublik": 1891,
      "gram": 1892,
      "gÅĤ": 1893,
      "Ġkobie": 1894,
      "Ġpew": 1895,
      "Ġinternet": 1896,
      "me": 1897,
      "Ġwnios": 1898,
      "ĠPrzy": 1899,
      "wem": 1900,
      "spÃ³ÅĤ": 1901,
      "tÄħ": 1902,
      "rologi": 1903,
      "iÄĻki": 1904,
      "ĠUSA": 1905,
      "Å¼u": 1906,
      "lega": 1907,
      "ĠKu": 1908,
      "Ġjedy": 1909,
      "arÃ³w": 1910,
      "Ġspotkania": 1911,
      "Ġstanowi": 1912,
      "ĠY": 1913,
      "podar": 1914,
      "Ġpojawi": 1915,
      "Ġpartii": 1916,
      "ĠWiel": 1917,
      "ransport": 1918,
      "ospodar": 1919,
      "rywa": 1920,
      "SpoÅĤeczeÅĦstwo": 1921,
      "Ġmiejscu": 1922,
      "lÄħd": 1923,
      "Ġdokum": 1924,
      "czych": 1925,
      "pospolitej": 1926,
      "wu": 1927,
      "ĠÅ¼oÅĤnie": 1928,
      "Ġmedia": 1929,
      "Ġcelu": 1930,
      "ÅĽni": 1931,
      "Ġnawet": 1932,
      "Ġrozrywka": 1933,
      "Ġeksp": 1934,
      "ĠJu": 1935,
      "lok": 1936,
      "Ġpodkre": 1937,
      "Ġkiedy": 1938,
      "stawienie": 1939,
      "ekrologi": 1940,
      "ĠWÅĤo": 1941,
      "star": 1942,
      "Ġgene": 1943,
      "ĠskÅĤa": 1944,
      "Ġjeden": 1945,
      "rÃ³ci": 1946,
      "Ġprzedstawicie": 1947,
      "ĠSprawied": 1948,
      "Nekrologi": 1949,
      "ĠBy": 1950,
      "Ġtrak": 1951,
      "Ġkonie": 1952,
      "Ġkoncer": 1953,
      "str": 1954,
      "Ġzapew": 1955,
      "Ġgospo": 1956,
      "Ġdzi": 1957,
      "onÃ³w": 1958,
      "qu": 1959,
      "ĠPoli": 1960,
      "ĠpÃ³Åºniej": 1961,
      "jÄĻcia": 1962,
      "lica": 1963,
      "czora": 1964,
      "ĠJak": 1965,
      "man": 1966,
      "wer": 1967,
      "ĠdziaÅĤania": 1968,
      "kami": 1969,
      "Co": 1970,
      "ĠPiot": 1971,
      "Ġcie": 1972,
      "Ġ2009": 1973,
      "ĠRy": 1974,
      "Ġwielu": 1975,
      "ĠCa": 1976,
      "Ġ26": 1977,
      "masz": 1978,
      "ĠnajwiÄĻk": 1979,
      "Ġludzi": 1980,
      "Ġopera": 1981,
      "Ġtakie": 1982,
      "Ġtre": 1983,
      "Ġ2026": 1984,
      "ĠuÅ¼ytk": 1985,
      "tora": 1986,
      "onie": 1987,
      "Ġpom": 1988,
      "bior": 1989,
      "zra": 1990,
      "wÃ³j": 1991,
      "ÅĦskich": 1992,
      "ho": 1993,
      "muje": 1994,
      "Od": 1995,
      "Ġobie": 1996,
      "ĠrzÄħdu": 1997,
      "ĠsposÃ³b": 1998,
      "Ġdzieci": 1999,
      "ĠnoÅ¼na": 2000,
      "czoraj": 2001,
      "Ġpodej": 2002,
      "Ġpotrze": 2003,
      "ss": 2004,
      "ĠtysiÄĻcy": 2005,
      "Ġzaj": 2006,
      "ĠTusk": 2007,
      "Ġaut": 2008,
      "ĠĠĠ": 2009,
      "26": 2010,
      "ortu": 2011,
      "tera": 2012,
      "Ġnauk": 2013,
      "Ġprzej": 2014,
      "Warsza": 2015,
      "Ġpopar": 2016,
      "ĠwÅĤas": 2017,
      "naÅĤ": 2018,
      "ĠÅĤa": 2019,
      "ium": 2020,
      "ĠjÄĻzy": 2021,
      "Ġwypad": 2022,
      "ĠOb": 2023,
      "ĠWedÅĤug": 2024,
      "ĠzwiÄħzku": 2025,
      "Le": 2026,
      "gor": 2027,
      "ĠzginÄĻ": 2028,
      "Ġtemu": 2029,
      "bar": 2030,
      "Ġuda": 2031,
      "Ġzawie": 2032,
      "Ġprote": 2033,
      "redni": 2034,
      "Ġdrog": 2035,
      "Ġsobie": 2036,
      "rory": 2037,
      "Ġautomatycznie": 2038,
      "Ġstronie": 2039,
      "mii": 2040,
      "Ġgrupy": 2041,
      "ĠPar": 2042,
      "Ġ+": 2043,
      "50": 2044,
      "cyjnych": 2045,
      "Å¼enie": 2046,
      "ĠobowiÄħz": 2047,
      "liÅĽmy": 2048,
      "Ġpowin": 2049,
      "jÄħÅĤ": 2050,
      "Ġpowsta": 2051,
      "land": 2052,
      "Ġpremier": 2053,
      "ÅĦskiej": 2054,
      "szto": 2055,
      "leks": 2056,
      "owoÅĽci": 2057,
      "ĠmiaÅĤa": 2058,
      "Ġsku": 2059,
      "laz": 2060,
      "Ġdniu": 2061,
      "Ġozna": 2062,
      "cyjne": 2063,
      "jÄħcej": 2064,
      "gle": 2065,
      "czyÅĤa": 2066,
      "Ġ199": 2067,
      "Ġszpita": 2068,
      "domo": 2069,
      "mon": 2070,
      "Ġczte": 2071,
      "Ġwyniku": 2072,
      "Ġgro": 2073,
      "ĠzaÅĤo": 2074,
      "Ġwers": 2075,
      "sem": 2076,
      "ĠCentrum": 2077,
      "oli": 2078,
      "To": 2079,
      "Ġ100": 2080,
      "koÅĽci": 2081,
      "Ġnatomiast": 2082,
      "kowi": 2083,
      "Ġ2010": 2084,
      "Ġfunkcj": 2085,
      "Ġopublik": 2086,
      "ĠSi": 2087,
      "Ġbram": 2088,
      "ĠSy": 2089,
      "danych": 2090,
      "Ġuzyska": 2091,
      "dopod": 2092,
      "niÄħ": 2093,
      "jÄħcego": 2094,
      "Ġul": 2095,
      "orach": 2096,
      "czego": 2097,
      "Ġ2005": 2098,
      "ĠmÅĤo": 2099,
      "Ġtere": 2100,
      "teli": 2101,
      "ĠpiÅĤ": 2102,
      "ance": 2103,
      "ĠJest": 2104,
      "Ġsek": 2105,
      "ĠSP": 2106,
      "Ġdzis": 2107,
      "ĠLu": 2108,
      "Ġchce": 2109,
      "Jak": 2110,
      "letni": 2111,
      "ĠÅģodzi": 2112,
      "Ġpie": 2113,
      "Ġ27": 2114,
      "Ġstos": 2115,
      "fy": 2116,
      "Ġwskaz": 2117,
      "Ġwygene": 2118,
      "wodniczÄħ": 2119,
      "iar": 2120,
      "Ġsamocho": 2121,
      "ĠAf": 2122,
      "Ġnau": 2123,
      "ĠPart": 2124,
      "organi": 2125,
      "Ġsu": 2126,
      "onald": 2127,
      "padki": 2128,
      "27": 2129,
      "Ġzawodni": 2130,
      "tami": 2131,
      "Ġkosz": 2132,
      "nosi": 2133,
      "ĠpaÅĦstw": 2134,
      "Ġodbywa": 2135,
      "ĠcaÅĤ": 2136,
      "kor": 2137,
      "ĠFi": 2138,
      "ĠwpÅĤy": 2139,
      "ĠNo": 2140,
      "Ġwiele": 2141,
      "ĠwÅĤaÅĽnie": 2142,
      "Ġkomunika": 2143,
      "VI": 2144,
      "Ġnr": 2145,
      "ĠpoczÄħtku": 2146,
      "dÅº": 2147,
      "ospodarka": 2148,
      "Ġkorzy": 2149,
      "Ġkontro": 2150,
      "Ġmeczu": 2151,
      "ĠLa": 2152,
      "Ġwice": 2153,
      "Ġhistor": 2154,
      "ĠoÅĽwiad": 2155,
      "ĠRzeczy": 2156,
      "Ġparlament": 2157,
      "Ġgrani": 2158,
      "wyÅ¼": 2159,
      "mp": 2160,
      "wanie": 2161,
      "czonych": 2162,
      "Ġzestawienie": 2163,
      "nau": 2164,
      "Ġ2021": 2165,
      "Warszawa": 2166,
      "Ġpras": 2167,
      "Gospodarka": 2168,
      "dopodob": 2169,
      "Ġwobec": 2170,
      "PiÅĤka": 2171,
      "Ġwygenerowane": 2172,
      "jcie": 2173,
      "Ġtelewi": 2174,
      "ĠRob": 2175,
      "czeniu": 2176,
      "Å¼yÅĤ": 2177,
      "KrakÃ³w": 2178,
      "lnego": 2179,
      "ien": 2180,
      "dziÅĤa": 2181,
      "cego": 2182,
      "ckich": 2183,
      "Ġprawa": 2184,
      "ĠFunda": 2185,
      "WedÅĤug": 2186,
      "ĠZjednoczone": 2187,
      "Ġkole": 2188,
      "liz": 2189,
      "czes": 2190,
      "jewÃ³dzt": 2191,
      "ĠRzeczypospolitej": 2192,
      "28": 2193,
      "ĠwyborÃ³w": 2194,
      "anÃ³w": 2195,
      "lia": 2196,
      "ÅĽla": 2197,
      "Pa": 2198,
      "Ġdecyz": 2199,
      "Ġrosyj": 2200,
      "fli": 2201,
      "Ġzad": 2202,
      "Ġnim": 2203,
      "lin": 2204,
      "Ġwojsk": 2205,
      "isz": 2206,
      "Ġ2022": 2207,
      "Ġpremiera": 2208,
      "ĠÅ¼eby": 2209,
      "Ġczwar": 2210,
      "bel": 2211,
      "wersy": 2212,
      "ĠWikinews": 2213,
      "kacja": 2214,
      "ĠwzglÄĻ": 2215,
      "Wypadki": 2216,
      "ĠFa": 2217,
      "Ġmater": 2218,
      "zuje": 2219,
      "Ġprojekt": 2220,
      "Ġ50": 2221,
      "Ġustawy": 2222,
      "rzenie": 2223,
      "jem": 2224,
      "niesie": 2225,
      "ĠEuropy": 2226,
      "ĠGo": 2227,
      "Ġ2006": 2228,
      "torzy": 2229,
      "chodzÄħ": 2230,
      "Ġprojektu": 2231,
      "jne": 2232,
      "tt": 2233,
      "ĠÅĤÄħ": 2234,
      "wersyte": 2235,
      "skar": 2236,
      "ĠdruÅ¼y": 2237,
      "orzÄħd": 2238,
      "ĠRP": 2239,
      "Ġ28": 2240,
      "ryt": 2241,
      "ĠLo": 2242,
      "Ġdrugi": 2243,
      "Ġpolskiego": 2244,
      "ĠosiÄħ": 2245,
      "Ġswoich": 2246,
      "strzy": 2247,
      "Ġlatach": 2248,
      "Ġmniej": 2249,
      "Å¼li": 2250,
      "ĠpiÅĤka": 2251,
      "Ġnowych": 2252,
      "ĠSejmu": 2253,
      "jÄħca": 2254,
      "kowski": 2255,
      "biega": 2256,
      "ĠMe": 2257,
      "tur": 2258,
      "ĠzewnÄĻtrz": 2259,
      "graf": 2260,
      "Ġfestiwa": 2261,
      "ote": 2262,
      "Ġsamy": 2263,
      "ĠPÃ³ÅĤnoc": 2264,
      "Ġoch": 2265,
      "ĠwiÄĻcej": 2266,
      "ĠGru": 2267,
      "Ġposia": 2268,
      "ĠCy": 2269,
      "Ġinter": 2270,
      "ĠpaÅĦstwa": 2271,
      "Ġprokura": 2272,
      "Ġregi": 2273,
      "Ġmy": 2274,
      "Ġzasa": 2275,
      "stanÄħ": 2276,
      "ĠstwierdziÅĤ": 2277,
      "kon": 2278,
      "dministra": 2279,
      "struk": 2280,
      "ĠRady": 2281,
      "rÃ³t": 2282,
      "ĠdziÅĽ": 2283,
      "ĠWroc": 2284,
      "Ġtwier": 2285,
      "Ġgospodar": 2286,
      "eÅĤ": 2287,
      "va": 2288,
      "gÃ³w": 2289,
      "br": 2290,
      "Ġznale": 2291,
      "ĠEuropejskiej": 2292,
      "Ġbad": 2293,
      "Ġtor": 2294,
      "sÅĤawa": 2295,
      "Ġtrafi": 2296,
      "ĠWol": 2297,
      "ĠwspÃ³l": 2298,
      "Ġlotni": 2299,
      "ant": 2300,
      "ckiej": 2301,
      "Ġtygodni": 2302,
      "nar": 2303,
      "ĠMinister": 2304,
      "ĠUkrai": 2305,
      "kazaÅĤ": 2306,
      "Ġwieku": 2307,
      "ktÃ³": 2308,
      "gna": 2309,
      "ĠUnii": 2310,
      "lii": 2311,
      "Ġzapytanie": 2312,
      "21": 2313,
      "zent": 2314,
      "Ġzdecyd": 2315,
      "Ġminucie": 2316,
      "Ġorganizacji": 2317,
      "ĠWikimedia": 2318,
      "ĠBi": 2319,
      "ĠÅĽwiata": 2320,
      "leÅ¼": 2321,
      "ĠMia": 2322,
      "Ġnowe": 2323,
      "niÅĤ": 2324,
      "QL": 2325,
      "Ġ29": 2326,
      "Ġwynika": 2327,
      "ĠRosji": 2328,
      "ger": 2329,
      "Ġnag": 2330,
      "cyjny": 2331,
      "ĠOp": 2332,
      "osmi": 2333,
      "ĠciÄħgu": 2334,
      "ank": 2335,
      "Ġwyja": 2336,
      "Ġwyra": 2337,
      "Ġkierunku": 2338,
      "dam": 2339,
      "organiz": 2340,
      "Ġpodob": 2341,
      "Ġedycji": 2342,
      "Ġuroczy": 2343,
      "Ã³dz": 2344,
      "rany": 2345,
      "29": 2346,
      "Ġpolskich": 2347,
      "rona": 2348,
      "Ġakcji": 2349,
      "zacja": 2350,
      "czoÅĽÄĩ": 2351,
      "Ġpun": 2352,
      "Ġzmarli": 2353,
      "Ġwskazano": 2354,
      "owska": 2355,
      "ĠCo": 2356,
      "leksand": 2357,
      "Ġbudy": 2358,
      "jÄħcym": 2359,
      "ĠWikidanych": 2360,
      "ĠmÄĻÅ¼czyz": 2361,
      "Ġkierow": 2362,
      "ĠPozna": 2363,
      "ĠÅĽwiat": 2364,
      "ĠwiÄĻc": 2365,
      "ĠSPAR": 2366,
      "Ġstanie": 2367,
      "ĠRuch": 2368,
      "nienie": 2369,
      "niki": 2370,
      "ĠÅĽwie": 2371,
      "bia": 2372,
      "ĠSPARQL": 2373,
      "worzy": 2374,
      "Ġobra": 2375,
      "Ġzaka": 2376,
      "kiewicz": 2377,
      "jski": 2378,
      "owÄĻ": 2379,
      "omie": 2380,
      "Ġmis": 2381,
      "daÄĩ": 2382,
      "Ġku": 2383,
      "tra": 2384,
      "Sz": 2385,
      "Ġmanda": 2386,
      "tastro": 2387,
      "Ġspecjal": 2388,
      "Å¼o": 2389,
      "Ġpreze": 2390,
      "Ġkons": 2391,
      "ĠmiesiÄħ": 2392,
      "bory": 2393,
      "Ġzamk": 2394,
      "ĠSte": 2395,
      "arszaÅĤ": 2396,
      "bra": 2397,
      "Ġkonferencji": 2398,
      "sztof": 2399,
      "ciej": 2400,
      "misja": 2401,
      "dziaÅĤu": 2402,
      "Ġpolski": 2403,
      "Ġjakie": 2404,
      "ĠWe": 2405,
      "Ġcho": 2406,
      "ĠartykuÅĤÃ³w": 2407,
      "ĠponiewaÅ¼": 2408,
      "ĠnastÄĻpu": 2409,
      "tkÃ³w": 2410,
      "nicja": 2411,
      "Ġ000": 2412,
      "par": 2413,
      "ver": 2414,
      "dzone": 2415,
      "ĠUE": 2416,
      "Ġnajlep": 2417,
      "Ġsi": 2418,
      "mcy": 2419,
      "Ġwyborach": 2420,
      "olu": 2421,
      "nowi": 2422,
      "Ġwiadomo": 2423,
      "ĠÅĽwiad": 2424,
      "ĠĠĊ": 2425,
      "cyjnego": 2426,
      "ĠdziaÅĤal": 2427,
      "iaÅĤoru": 2428,
      "pom": 2429,
      "cenie": 2430,
      "ĠgÅĤosÃ³w": 2431,
      "ctwo": 2432,
      "omet": 2433,
      "lasyfi": 2434,
      "Ġzawo": 2435,
      "Ulica": 2436,
      "jÄĻcie": 2437,
      "Ġpierwszej": 2438,
      "Ġbie": 2439,
      "Ġzapro": 2440,
      "edi": 2441,
      "ĠBu": 2442,
      "pli": 2443,
      "Ġparlamentar": 2444,
      "ĠNe": 2445,
      "Ġniez": 2446,
      "Ġorganiz": 2447,
      "ĠpÅĤy": 2448,
      "czywi": 2449,
      "ĠwyÅĽcigu": 2450,
      "Ġprzeciwko": 2451,
      "Ġzro": 2452,
      "Ġoficjal": 2453,
      "czony": 2454,
      "Å»": 2455,
      "rybu": 2456,
      "com": 2457,
      "dziaÅĤa": 2458,
      "Ġreali": 2459,
      "are": 2460,
      "Ġszyb": 2461,
      "ĠÅĽwiÄĻ": 2462,
      "ww": 2463,
      "czka": 2464,
      "oto": 2465,
      "mawia": 2466,
      "ĠZie": 2467,
      "...": 2468,
      "ĠczÄĻÅĽÄĩ": 2469,
      "Ġzie": 2470,
      "ĠpoÅĽ": 2471,
      "Ġinformacje": 2472,
      "tak": 2473,
      "daÅĤ": 2474,
      "dach": 2475,
      "ĠmÃ³": 2476,
      "owskiego": 2477,
      "ĠSch": 2478,
      "ĠLech": 2479,
      "ĠKrakÃ³w": 2480,
      "Å¼ar": 2481,
      "enty": 2482,
      "ĠwiÄĻkszo": 2483,
      "dniej": 2484,
      "Ġterenie": 2485,
      "bieg": 2486,
      "Ġwzro": 2487,
      "it": 2488,
      "Ġzatrzymania": 2489,
      "ĠÅĽle": 2490,
      "Ã³dÅº": 2491,
      "czeÅĽnie": 2492,
      "Ġkaden": 2493,
      "ĠwystÄĻp": 2494,
      "Ġdrugiej": 2495,
      "Ġzwie": 2496,
      "Ġzorganiz": 2497,
      "wane": 2498,
      "Ġniego": 2499,
      "Ġtrzech": 2500,
      "Ġmiejsca": 2501,
      "ĠBra": 2502,
      "ular": 2503,
      "Ġener": 2504,
      "Ġzagrani": 2505,
      "stw": 2506,
      "ĠzostaÄĩ": 2507,
      "Ġprawo": 2508,
      "Ġautob": 2509,
      "Ġzarzu": 2510,
      "AT": 2511,
      "nale": 2512,
      "lacji": 2513,
      "Stany": 2514,
      "ĠÅļlÄħ": 2515,
      "ĠZe": 2516,
      "Ġjednym": 2517,
      "ĠPiotr": 2518,
      "dzono": 2519,
      "Ġsytuacji": 2520,
      "ĠosiÄħg": 2521,
      "jaw": 2522,
      "gii": 2523,
      "cenia": 2524,
      "onÄħ": 2525,
      "Ġniedzie": 2526,
      "Ġswoim": 2527,
      "Ġznalaz": 2528,
      "moÅ¼li": 2529,
      "fr": 2530,
      "Ġminut": 2531,
      "Ġswojej": 2532,
      "Ġpozi": 2533,
      "ke": 2534,
      "ĠBryt": 2535,
      "rea": 2536,
      "Ra": 2537,
      "ĠCze": 2538,
      "lnej": 2539,
      "Ġzablok": 2540,
      "Ġtakich": 2541,
      "Ġpodpis": 2542,
      "CoV": 2543,
      "sÃ³w": 2544,
      "Ġpis": 2545,
      "Ġzdarzenia": 2546,
      "kry": 2547,
      "wany": 2548,
      "ĠdÅĤu": 2549,
      "Ġdanych": 2550,
      "kÃ³ÅĤ": 2551,
      "bignie": 2552,
      "ÅĦskie": 2553,
      "Ġzdrowia": 2554,
      "ĠksiÄħ": 2555,
      "Ġameryka": 2556,
      "Ġpos": 2557,
      "ĠAndrzej": 2558,
      "Ġgry": 2559,
      "cjach": 2560,
      "Ros": 2561,
      "chÃ³d": 2562,
      "Ġwydarzenia": 2563,
      "Ġzagro": 2564,
      "iusz": 2565,
      "Ġodwo": 2566,
      "Ġkola": 2567,
      "ĠwÅĽrÃ³d": 2568,
      "ĠzewnÄĻtrzne": 2569,
      "ĠprzestÄĻpczoÅĽÄĩ": 2570,
      "ĠzgÅĤo": 2571,
      "ĠKar": 2572,
      "amoob": 2573,
      "Ġsamym": 2574,
      "Ġrok": 2575,
      "ĠdziÄĻki": 2576,
      "owod": 2577,
      "Ġona": 2578,
      "Ġpunk": 2579,
      "ĠurzÄĻ": 2580,
      "nikÃ³w": 2581,
      "Ġprogram": 2582,
      "Ġwszystkie": 2583,
      "ĠzostanÄħ": 2584,
      "lenie": 2585,
      "Ġsez": 2586,
      "ou": 2587,
      "bud": 2588,
      "orem": 2589,
      "zrael": 2590,
      "ft": 2591,
      "Ġdwie": 2592,
      "ĠSer": 2593,
      "ina": 2594,
      "ĠswojÄħ": 2595,
      "Ġniemie": 2596,
      "ĠWybor": 2597,
      "Ġwybuch": 2598,
      "ĠPaw": 2599,
      "Ġ2012": 2600,
      "ckim": 2601,
      "Ġus": 2602,
      "lny": 2603,
      "ĊĠĊ": 2604,
      "Ġtru": 2605,
      "ĠmiÄĻdzynarod": 2606,
      "jskiej": 2607,
      "Ġkoali": 2608,
      "chn": 2609,
      "Ġfirmy": 2610,
      "strzo": 2611,
      "Ġobecnie": 2612,
      "ĠdotyczÄħce": 2613,
      "ĠzginÄĻÅĤo": 2614,
      "Ġzain": 2615,
      "kiet": 2616,
      "cyjnej": 2617,
      "ĠdzieÅĦ": 2618,
      "nio": 2619,
      "Ġkry": 2620,
      ".,": 2621,
      "wskiego": 2622,
      "Ġprzyczy": 2623,
      "wÄĻ": 2624,
      "ĠciÄĻ": 2625,
      "ĠDu": 2626,
      "ĠwspÃ³ÅĤpracy": 2627,
      "ĠTomasz": 2628,
      "ĠskÅĤad": 2629,
      "ĠbezpieczeÅĦstwa": 2630,
      "Ġlata": 2631,
      "iaj": 2632,
      "worze": 2633,
      "ĠWÅĤa": 2634,
      "Ġsieci": 2635,
      "nem": 2636,
      "teres": 2637,
      "ĠMiÄĻdzy": 2638,
      "Ġograni": 2639,
      "Wikimedia": 2640,
      "tym": 2641,
      "niÄĩ": 2642,
      "Ġwarun": 2643,
      "ĠjeÅĽli": 2644,
      "Ġne": 2645,
      "ĠmieszkaÅĦcÃ³w": 2646,
      "ĠÅº": 2647,
      "Ġkwest": 2648,
      "Ġpolskiej": 2649,
      "ĠGe": 2650,
      "ĠzespoÅĤu": 2651,
      "giel": 2652,
      "ĠÅ¼ycia": 2653,
      "Ġspotkanie": 2654,
      "Ġzre": 2655,
      "zw": 2656,
      "toli": 2657,
      "stoÅĽci": 2658,
      "rektor": 2659,
      "Ġoskar": 2660,
      "Ġzbro": 2661,
      "legÅĤo": 2662,
      "Ġwypadku": 2663,
      "dostÄĻp": 2664,
      "ĠwaÅ¼": 2665,
      "undu": 2666,
      "Ġnum": 2667,
      "Ġjednego": 2668,
      "Ġproble": 2669,
      "ĠtÅĤu": 2670,
      "Ġmom": 2671,
      "jaz": 2672,
      "ĠLinki": 2673,
      "Ġtrakcie": 2674,
      "owymi": 2675,
      "Ġcha": 2676,
      "ĠÅ¼oÅĤnierzy": 2677,
      "zydent": 2678,
      "Ġdniach": 2679,
      "fek": 2680,
      "emon": 2681,
      "Ġstud": 2682,
      "zowie": 2683,
      "Ġkor": 2684,
      "mite": 2685,
      "onari": 2686,
      "Ġhas": 2687,
      "ĊĠ": 2688,
      "ĠAle": 2689,
      "Ġzmieni": 2690,
      "Ġkompu": 2691,
      "owanej": 2692,
      "Ġwraz": 2693,
      "dak": 2694,
      "Ġprogramu": 2695,
      "300": 2696,
      "âĢŀ": 2697,
      "ĠzamkniÄĻ": 2698,
      "Ġobej": 2699,
      "encie": 2700,
      "jÄħcÄħ": 2701,
      "mierza": 2702,
      "Ġinnymi": 2703,
      "czÄħÅĤ": 2704,
      "And": 2705,
      "kuje": 2706,
      "cjan": 2707,
      "owanego": 2708,
      "Ġpoza": 2709,
      "tkowo": 2710,
      "Ġwiel": 2711,
      "car": 2712,
      "ĠÅĽwiecie": 2713,
      "Ġostatnich": 2714,
      "Transport": 2715,
      "Ġsprzeda": 2716,
      "Ġteraz": 2717,
      "ĠUniwersyte": 2718,
      "iÄĻk": 2719,
      "ĠJednak": 2720,
      "Ġanty": 2721,
      "bliÅ¼": 2722,
      "Âł": 2723,
      "ĠuwaÅ¼a": 2724,
      "szcz": 2725,
      "czeÅĦ": 2726,
      "dan": 2727,
      "owanym": 2728,
      "Ġnas": 2729,
      "ĠsÄħd": 2730,
      "stos": 2731,
      "Ġbli": 2732,
      "Ġoka": 2733,
      "Ġchwi": 2734,
      "Ã¡": 2735,
      "ĠObywatelska": 2736,
      "ĠwedÅĤug": 2737,
      "amiÄĻ": 2738,
      "Ġjedynie": 2739,
      "Ġhistorii": 2740,
      "Ġwszystkim": 2741,
      "las": 2742,
      "ĠDz": 2743,
      "ĠmoÅ¼liwoÅĽÄĩ": 2744,
      "iej": 2745,
      "Ġl": 2746,
      "Internet": 2747,
      "ang": 2748,
      "woju": 2749,
      "lik": 2750,
      "Ġzmiany": 2751,
      "Ġucie": 2752,
      "taj": 2753,
      "ĠPaÅĦst": 2754,
      "Ġproblem": 2755,
      "tedy": 2756,
      "Å¹rÃ³d": 2757,
      "Ġopozy": 2758,
      "ĠczÅĤowie": 2759,
      "owaÅ¼": 2760,
      "Ġ40": 2761,
      "ton": 2762,
      "ĠEuropejska": 2763,
      "emokraty": 2764,
      "Ġprzypadku": 2765,
      "Ġpierwszym": 2766,
      "ÅĽliÅĤ": 2767,
      "ĠamerykaÅĦ": 2768,
      "Ġso": 2769,
      "Ġnajmniej": 2770,
      "Ġprzewi": 2771,
      "Ġetap": 2772,
      "ĠzarzÄħ": 2773,
      "âĢĻ": 2774,
      "Ġ198": 2775,
      "czyli": 2776,
      "ĠLep": 2777,
      "Ġpomy": 2778,
      "ĠpoinformowaÅĤa": 2779,
      "ciem": 2780,
      "Ġnowego": 2781,
      "arÃ³wno": 2782,
      "Ġzamiesz": 2783,
      "Ġzapre": 2784,
      "ĠPolakÃ³w": 2785,
      "ÅĤam": 2786,
      "weÅĤ": 2787,
      "Ġmusi": 2788,
      "Ġds": 2789,
      "Ġgrup": 2790,
      "czki": 2791,
      "Ġodno": 2792,
      "Ġinne": 2793,
      "ĠAleksand": 2794,
      "Amery": 2795,
      "ĠGdaÅĦ": 2796,
      "Ġdysku": 2797,
      "Wo": 2798,
      "ĠprzewodniczÄħ": 2799,
      "Ġnarod": 2800,
      "ĠMarcin": 2801,
      "szt": 2802,
      "Ġwczoraj": 2803,
      "scho": 2804,
      "ĠKatowi": 2805,
      "pon": 2806,
      "ĠpÃ³ÅĤ": 2807,
      "Ġist": 2808,
      "Ġedu": 2809,
      "Pi": 2810,
      "Å¼er": 2811,
      "45": 2812,
      "Ġaktyw": 2813,
      "wal": 2814,
      "krÄĻ": 2815,
      "Ġpapie": 2816,
      "rans": 2817,
      "ĠpociÄħ": 2818,
      "jska": 2819,
      "ĠsÄĻ": 2820,
      "wÄħ": 2821,
      "tual": 2822,
      "ĠwÅĤadze": 2823,
      "Ġrazem": 2824,
      "iera": 2825,
      "naÅĤu": 2826,
      "Ġone": 2827,
      "Ġulicy": 2828,
      "ĠrÄĻ": 2829,
      "Ġwypowie": 2830,
      "stawy": 2831,
      "ĠgÃ³r": 2832,
      "ĠOs": 2833,
      "szech": 2834,
      "Ġporo": 2835,
      "Ġpolicji": 2836,
      "ĠTVP": 2837,
      "Ġpierwsze": 2838,
      "ĠJana": 2839,
      "Wybory": 2840,
      "ĠStowarzy": 2841,
      "rom": 2842,
      "zaleÅ¼": 2843,
      "Ġdal": 2844,
      "moc": 2845,
      "Ġuli": 2846,
      "ĠoÅĽ": 2847,
      "jazd": 2848,
      "Ġzamach": 2849,
      "gar": 2850,
      "Wi": 2851,
      "Ġare": 2852,
      "Ġokoli": 2853,
      "ĠszczegÃ³l": 2854,
      "Ġani": 2855,
      "ĠwojewÃ³dzt": 2856,
      "Podczas": 2857,
      "ĠKultury": 2858,
      "nami": 2859,
      "ĠRoz": 2860,
      "cami": 2861,
      "olar": 2862,
      "ownicy": 2863,
      "ĠmiaÅĤo": 2864,
      "sztaÅĤ": 2865,
      "groma": 2866,
      "nk": 2867,
      "Informa": 2868,
      "lacja": 2869,
      "ĠkaÅ¼dy": 2870,
      "szuki": 2871,
      "Nauka": 2872,
      "Minister": 2873,
      "bardziej": 2874,
      "czycie": 2875,
      "cjali": 2876,
      "Ġkoniec": 2877,
      "jnych": 2878,
      "ĠsÅĤu": 2879,
      "Ġtelef": 2880,
      "Ġkto": 2881,
      "ĠnaleÅ¼y": 2882,
      "ĠÅ»y": 2883,
      "Au": 2884,
      "entacja": 2885,
      "Ġwarto": 2886,
      "grody": 2887,
      "rach": 2888,
      "ĠzÅĤotych": 2889,
      "ĠrozwiÄħz": 2890,
      "ĠpiÄħtek": 2891,
      "ĠdecyzjÄĻ": 2892,
      "Ġ195": 2893,
      "gÄħ": 2894,
      "ĠpoÅĤudni": 2895,
      "ĠponiedziaÅĤ": 2896,
      "Ġczym": 2897,
      "ĠChi": 2898,
      "Ġkilomet": 2899,
      "ster": 2900,
      "stÄħpie": 2901,
      "Ġgeneral": 2902,
      "ĠInter": 2903,
      "ĠLewi": 2904,
      "serwa": 2905,
      "Ġinstytu": 2906,
      "Ġsobot": 2907,
      "szedÅĤ": 2908,
      "Ġfilm": 2909,
      "lim": 2910,
      "ĠCzy": 2911,
      "Ġszpitala": 2912,
      "Ro": 2913,
      "ĠwÅĤaÅĽci": 2914,
      "PK": 2915,
      "Ġsonda": 2916,
      "ĠspoÅĤecznoÅĽci": 2917,
      "ĠPlat": 2918,
      "ram": 2919,
      "Ġ31": 2920,
      "dzin": 2921,
      "ĠmiaÅĤy": 2922,
      "ui": 2923,
      "Ġdecyzji": 2924,
      "ĠwysokoÅĽci": 2925,
      "ĠdziaÅĤaÅĦ": 2926,
      "ĠprÃ³b": 2927,
      "Ġdrogowe": 2928,
      "ĠÅļwiÄĻ": 2929,
      "ĠniektÃ³": 2930,
      "prawi": 2931,
      "Ġsystemu": 2932,
      "Ġspotka": 2933,
      "Ġtytu": 2934,
      "ĠAmery": 2935,
      "Ġbardziej": 2936,
      "Ġspowod": 2937,
      "eli": 2938,
      "ĠudostÄĻp": 2939,
      "tru": 2940,
      "ĠnastÄĻpnie": 2941,
      "ĠPrzed": 2942,
      "czyna": 2943,
      "Ġzabi": 2944,
      "chczas": 2945,
      "Ġwtor": 2946,
      "ĠmoÅ¼liwoÅĽci": 2947,
      "Ġdotychczas": 2948,
      "ĠSprawiedliwoÅĽÄĩ": 2949,
      "ĠwystÄħpi": 2950,
      "ĠMiÄĻdzynarod": 2951,
      "ĠzwiÄħzane": 2952,
      "Ġwyco": 2953,
      "liÅĤ": 2954,
      "Ġkomisji": 2955,
      "Ġtramwajowym": 2956,
      "owiec": 2957,
      "ciaÅĤ": 2958,
      "ancelar": 2959,
      "Ġzale": 2960,
      "ciÅĤ": 2961,
      "Ġcharak": 2962,
      "ĠCO": 2963,
      "ĠspÃ³ÅĤ": 2964,
      "Ġwybory": 2965,
      "mb": 2966,
      "ĠSzcze": 2967,
      "owiska": 2968,
      "ĠnajbliÅ¼": 2969,
      "ĠPoÅĤudni": 2970,
      "Azja": 2971,
      "rancu": 2972,
      "ĠudaÅĤo": 2973,
      "Ġoznacza": 2974,
      "ĠzwiÄĻk": 2975,
      "Ġstrze": 2976,
      "dzieÄĩ": 2977,
      "ujÄħ": 2978,
      "Ġwspar": 2979,
      "Ġtar": 2980,
      "ÅĦskim": 2981,
      "Ġad": 2982,
      "Ġ2011": 2983,
      "ĠBer": 2984,
      "Ġat": 2985,
      "Å¼yÄĩ": 2986,
      "Ġprzysz": 2987,
      "Å¼eli": 2988,
      "ĠPierw": 2989,
      "iaÅĤy": 2990,
      "liza": 2991,
      "Ġodpowiedzia": 2992,
      "mierz": 2993,
      "wan": 2994,
      "Ġstacji": 2995,
      "Ġopi": 2996,
      "ĠPrezydenta": 2997,
      "onariu": 2998,
      "ĠWil": 2999,
      "Ġzaa": 3000,
      "Ġwej": 3001,
      "ĠZbignie": 3002,
      "Ġprowadzi": 3003,
      "Ġwznowi": 3004,
      "ĠSamoob": 3005,
      "powiada": 3006,
      "dzeniu": 3007,
      "Ġpojaz": 3008,
      "tuje": 3009,
      "Ġpory": 3010,
      "Ġkonta": 3011,
      "Ġsza": 3012,
      "Ġtur": 3013,
      "Ġzaprezent": 3014,
      "bliote": 3015,
      "Ġprez": 3016,
      "ĠbudÅ¼e": 3017,
      "ĠLud": 3018,
      "gda": 3019,
      "tory": 3020,
      "trze": 3021,
      "ĠodbyÅĤa": 3022,
      "Ġpowia": 3023,
      "dyna": 3024,
      "ĠwÅĤadz": 3025,
      "cym": 3026,
      "Ġadministra": 3027,
      "pisy": 3028,
      "Ġ60": 3029,
      "Ġpasa": 3030,
      "stki": 3031,
      "mil": 3032,
      "ologii": 3033,
      "Ġstanu": 3034,
      "gn": 3035,
      "jciech": 3036,
      "ens": 3037,
      "staÄĩ": 3038,
      "Ġkamp": 3039,
      "rag": 3040,
      "ĠMarek": 3041,
      "Ġpropozy": 3042,
      "Ġwiecz": 3043,
      "Ġobywa": 3044,
      "mir": 3045,
      "ĠIra": 3046,
      "Ġprojek": 3047,
      "wala": 3048,
      "Ġsztu": 3049,
      "Ġbyli": 3050,
      "ĠzespÃ³ÅĤ": 3051,
      "ukasz": 3052,
      "//": 3053,
      "ĠtwÃ³r": 3054,
      "Ġpowi": 3055,
      "à¯": 3056,
      "Ġinicja": 3057,
      "rol": 3058,
      "pt": 3059,
      "zef": 3060,
      "rÃ³cz": 3061,
      "Ġministra": 3062,
      "ĠzarÃ³wno": 3063,
      "Ġpokona": 3064,
      "publi": 3065,
      "Ġdokona": 3066,
      "ĠmoÅ¼li": 3067,
      "dzony": 3068,
      "che": 3069,
      "ÄħÅĤ": 3070,
      "jskich": 3071,
      "krzy": 3072,
      "ĠJarosÅĤaw": 3073,
      "belian": 3074,
      "Prezydent": 3075,
      "bezpie": 3076,
      "Ġmogli": 3077,
      "czyÅĤo": 3078,
      "dow": 3079,
      "leko": 3080,
      "westy": 3081,
      "Cz": 3082,
      "ktora": 3083,
      "Ġnadal": 3084,
      "Ġbroni": 3085,
      "Ġswojego": 3086,
      "ĠWarszawa": 3087,
      "ĠBe": 3088,
      "ogle": 3089,
      "ĠMiasta": 3090,
      "dne": 3091,
      "ĠwzglÄĻdu": 3092,
      "ĠmiejscowoÅĽci": 3093,
      "Ġcywi": 3094,
      "prac": 3095,
      "ÅĤasz": 3096,
      "Ġkadencji": 3097,
      "Ġpolsko": 3098,
      "Ġwizy": 3099,
      "Ġkonty": 3100,
      "40": 3101,
      "Ġkur": 3102,
      "Ġblo": 3103,
      "fik": 3104,
      "naj": 3105,
      "ĠCi": 3106,
      "Ġzau": 3107,
      "Ġtypu": 3108,
      "ĠgÅĤosowania": 3109,
      "Ġposiada": 3110,
      "ĠmÄĻÅ¼czyzn": 3111,
      "owaniem": 3112,
      "ĠÅºrÃ³d": 3113,
      "ĠpostÄĻp": 3114,
      "ĠmÃ³gÅĤ": 3115,
      "owani": 3116,
      "nicy": 3117,
      "edera": 3118,
      "Ġkolei": 3119,
      "Ġpomoc": 3120,
      "Rosja": 3121,
      "Ġmecz": 3122,
      "Je": 3123,
      "ĠFo": 3124,
      "Ġprzebiega": 3125,
      "Ġniej": 3126,
      "ĠZjednoczonych": 3127,
      "Ġzapowiedzi": 3128,
      "cem": 3129,
      "ĠwygraÅĤ": 3130,
      "ttp": 3131,
      "ĠSu": 3132,
      "Ġsko": 3133,
      "nÃ³w": 3134,
      "zeum": 3135,
      "Ġprawie": 3136,
      "ejm": 3137,
      "szka": 3138,
      "ĠWal": 3139,
      "Ġdow": 3140,
      "Ameryka": 3141,
      "isku": 3142,
      "Ġsil": 3143,
      "Ġprzebywa": 3144,
      "Ġmedy": 3145,
      "Ġgrupa": 3146,
      "://": 3147,
      "zo": 3148,
      "fry": 3149,
      "Ġreje": 3150,
      "ĠStani": 3151,
      "anego": 3152,
      "mio": 3153,
      "ĠwyÅĤÄħ": 3154,
      "piero": 3155,
      "Ġska": 3156,
      "Ġpog": 3157,
      "ĠpoÅĤÄħ": 3158,
      "ĠuwagÄĻ": 3159,
      "Ġspad": 3160,
      "ĠzapowiedziaÅĤ": 3161,
      "ĠGÃ³r": 3162,
      "tecznie": 3163,
      "pisaÅĤ": 3164,
      "iszp": 3165,
      "noÅĽciÄħ": 3166,
      "Ġrazie": 3167,
      "sÅĤugi": 3168,
      "anna": 3169,
      "Ġtaki": 3170,
      "ĠodbyÅĤ": 3171,
      "ĠzdobyÅĤ": 3172,
      "ĠKrzysztof": 3173,
      "Ġkolejne": 3174,
      "ĠkoÅĦca": 3175,
      "Ġwniosek": 3176,
      "asad": 3177,
      "ĠDy": 3178,
      "rzeg": 3179,
      "jach": 3180,
      "ĠktÃ³rÄħ": 3181,
      "ĠMicha": 3182,
      "Ġrozm": 3183,
      "ĠuzyskaÅĤ": 3184,
      "fie": 3185,
      "czak": 3186,
      "Ġagen": 3187,
      "nÄħÄĩ": 3188,
      "Ġprof": 3189,
      "Ġprzewa": 3190,
      "ĠĠĠĠĠĠĠĠ": 3191,
      "Ġlide": 3192,
      "ĠStra": 3193,
      "ĠpunktÃ³w": 3194,
      "ĠOl": 3195,
      "31": 3196,
      "ĠZwiÄħz": 3197,
      "wz": 3198,
      "duje": 3199,
      "pedia": 3200,
      "ĠDla": 3201,
      "del": 3202,
      "tniego": 3203,
      "ĠCom": 3204,
      "ĠSzy": 3205,
      "ĠgÅĤÃ³wnie": 3206,
      "Ġzmian": 3207,
      "Ġwyzna": 3208,
      "ĠnastÄħpi": 3209,
      "ower": 3210,
      "Ġzakre": 3211,
      "Ġeuropej": 3212,
      "Ġautobus": 3213,
      "Ġmieli": 3214,
      "Ġposie": 3215,
      "ĠWarszawy": 3216,
      "tegoro": 3217,
      "Ġprzestrze": 3218,
      "Ġtegoro": 3219,
      "ĠFor": 3220,
      "ĠGro": 3221,
      "dopodobnie": 3222,
      "Ġpomocy": 3223,
      "Ġdolar": 3224,
      "nes": 3225,
      "Ġznajduje": 3226,
      "owicz": 3227,
      "ĠwÅĤo": 3228,
      "Ġkosmi": 3229,
      "Ġimpre": 3230,
      "cznoÅĽÄĩ": 3231,
      "ces": 3232,
      "ĠGÅĤÃ³w": 3233,
      "kan": 3234,
      "ĠciÄĻÅ¼": 3235,
      "formy": 3236,
      "Ġjaki": 3237,
      "ĠKi": 3238,
      "Ġodci": 3239,
      "leg": 3240,
      "Ġskie": 3241,
      "ĠThe": 3242,
      "Ġopie": 3243,
      "tacji": 3244,
      "Ġtechni": 3245,
      "tery": 3246,
      "fer": 3247,
      "ĠpiÅĤce": 3248,
      "ĠTour": 3249,
      "ĠGre": 3250,
      "Ch": 3251,
      "Ġpan": 3252,
      "Niemcy": 3253,
      "Ġoba": 3254,
      "ĠOba": 3255,
      "Ġkryty": 3256,
      "Ġpoko": 3257,
      "Ġzrobi": 3258,
      "stawia": 3259,
      "ĠQ": 3260,
      "ĠsÅĤuÅ¼by": 3261,
      "Naj": 3262,
      "ÅĤach": 3263,
      "Ġwyniki": 3264,
      "ĠsobotÄĻ": 3265,
      "Ġzostali": 3266,
      "VID": 3267,
      "Ġponow": 3268,
      "ĠWar": 3269,
      "ĠKor": 3270,
      "Ġklasyfi": 3271,
      "Ġnajbardziej": 3272,
      "nÄħÅĤ": 3273,
      "Ġporozu": 3274,
      "Ġleka": 3275,
      "ĠrÃ³Å¼nych": 3276,
      "mit": 3277,
      "tastrofy": 3278,
      "Ġmil": 3279,
      "ĠsiÅĤ": 3280,
      "stania": 3281,
      "fra": 3282,
      "ĠtÄĻ": 3283,
      "wÃ³d": 3284,
      "spek": 3285,
      "ĠdodaÅĤ": 3286,
      "Ġuz": 3287,
      "Ġproduk": 3288,
      "Ġredak": 3289,
      "Ġobu": 3290,
      "ĠaÅ¼": 3291,
      "ĠpracownikÃ³w": 3292,
      "ĠAdam": 3293,
      "ĠSÄħ": 3294,
      "Ġwarsza": 3295,
      "owcÃ³w": 3296,
      "Ġzni": 3297,
      "ĠPolskiego": 3298,
      "ilm": 3299,
      "Ġeki": 3300,
      "ĠprzedsiÄĻ": 3301,
      "PR": 3302,
      "Ġnar": 3303,
      "Ġbadania": 3304,
      "Ġterrory": 3305,
      "dro": 3306,
      "stanowi": 3307,
      "Ġfrancu": 3308,
      "Ġana": 3309,
      "ĠotrzymaÅĤ": 3310,
      "ĠSie": 3311,
      "ĠRom": 3312,
      "ĠdolarÃ³w": 3313,
      "ÅĽciu": 3314,
      "Ġdwu": 3315,
      "ĠInstytu": 3316,
      "torium": 3317,
      "ig": 3318,
      "Ġtrady": 3319,
      "ĠzakÅĤa": 3320,
      "Ġetapu": 3321,
      "potk": 3322,
      "ĠNiemie": 3323,
      "Ġosoba": 3324,
      "tne": 3325,
      "wiÄħza": 3326,
      "ĠJego": 3327,
      "Ġude": 3328,
      "ĠÅ¼ycie": 3329,
      "ĠGu": 3330,
      "ĠPÃ³ÅĤnocna": 3331,
      "Ġrebelian": 3332,
      "Ġfirm": 3333,
      "tnych": 3334,
      "Ġwyro": 3335,
      "ĠokrÄĻ": 3336,
      "Ġha": 3337,
      "Ġstop": 3338,
      "ediÃ³w": 3339,
      "ĠPie": 3340,
      "ĠzaÅĽ": 3341,
      "ĠnastÄĻpujÄħce": 3342,
      "ĠAgen": 3343,
      "cyjna": 3344,
      "ĠchcÄħ": 3345,
      "ĠznaleÅº": 3346,
      "Ġsprawy": 3347,
      "Ġ2020": 3348,
      "ĠkrajÃ³w": 3349,
      "Ġzawiera": 3350,
      "ĠOrgani": 3351,
      "ĠnoÅ¼nej": 3352,
      "ĠCOVID": 3353,
      "godnie": 3354,
      "bÃ³w": 3355,
      "ĠPrezydent": 3356,
      "owanÄħ": 3357,
      "Ġzainteres": 3358,
      "nki": 3359,
      "Ġtechn": 3360,
      "kowie": 3361,
      "Mu": 3362,
      "Ġelem": 3363,
      "Ġocze": 3364,
      "2024": 3365,
      "Ġrannych": 3366,
      "Ġwymia": 3367,
      "Ġdemon": 3368,
      "Ġprywa": 3369,
      "ĠAfgani": 3370,
      "les": 3371,
      "Ġtworz": 3372,
      "jekt": 3373,
      "wska": 3374,
      "JarosÅĤaw": 3375,
      "ÅĦczy": 3376,
      "Ġzaplan": 3377,
      "faÅĤ": 3378,
      "ĠâĢĶ": 3379,
      "ĠmilionÃ³w": 3380,
      "Ġab": 3381,
      "ks": 3382,
      "ĠpowaÅ¼": 3383,
      "Ġodwie": 3384,
      "Ġmnie": 3385,
      "ĠumoÅ¼li": 3386,
      "Ġwielo": 3387,
      "cek": 3388,
      "ĠÅĤ": 3389,
      "ĠgdyÅ¼": 3390,
      "ondy": 3391,
      "Wiel": 3392,
      "Ġfoto": 3393,
      "torem": 3394,
      "Ġpoprzez": 3395,
      "Ġodpowiedzi": 3396,
      "Ġzaw": 3397,
      "koÅĤo": 3398,
      "Ġlinii": 3399,
      "Dzie": 3400,
      "Ġczego": 3401,
      "Ġliczba": 3402,
      "Ġzamia": 3403,
      "ĠPla": 3404,
      "kony": 3405,
      "Ġpoka": 3406,
      "Ġrek": 3407,
      "ĠKaczyÅĦskiego": 3408,
      "ĠksiÄħÅ¼": 3409,
      "mienie": 3410,
      "ĠmieÄĩ": 3411,
      "II": 3412,
      "ĠuÅ¼ytkownikÃ³w": 3413,
      "szyscy": 3414,
      "ĠsÅĤowa": 3415,
      "ĠSpraw": 3416,
      "stwie": 3417,
      "reta": 3418,
      "czyÅĤy": 3419,
      "ĠMy": 3420,
      "ĠtÅĤuma": 3421,
      "poÅĽ": 3422,
      "Ġznajd": 3423,
      "Ġudzie": 3424,
      "Ġstanowisko": 3425,
      "dnoÅĽci": 3426,
      "Ġdyrektor": 3427,
      "rych": 3428,
      "Ġuni": 3429,
      "ÅļlÄħ": 3430,
      "Ta": 3431,
      "owaÅĦ": 3432,
      "ecnie": 3433,
      "Ġlicen": 3434,
      "Ġpodstaw": 3435,
      "Ġdoprowa": 3436,
      "Ġwynik": 3437,
      "ĠmÃ³wiÅĤ": 3438,
      "Przy": 3439,
      "dami": 3440,
      "stawa": 3441,
      "iÄħ": 3442,
      "Ã³sÅĤ": 3443,
      "35": 3444,
      "Ġnowy": 3445,
      "fika": 3446,
      "Ġuch": 3447,
      "gru": 3448,
      "zeta": 3449,
      "raca": 3450,
      "ĠpÅĤa": 3451,
      "ĠMS": 3452,
      "Ġdek": 3453,
      "ĠDar": 3454,
      "Ġnp": 3455,
      "Ga": 3456,
      "Ġnowo": 3457,
      "Ġwydarze": 3458,
      "niÄĻcia": 3459,
      "zer": 3460,
      "ĠwziÄĻ": 3461,
      "Ġdzisiaj": 3462,
      "ĠSto": 3463,
      "Ġofer": 3464,
      "Ġkomputer": 3465,
      "ph": 3466,
      "ĠDi": 3467,
      "ux": 3468,
      "Ġdr": 3469,
      "Ġwiki": 3470,
      "seÅĤ": 3471,
      "ĠHe": 3472,
      "ĠIraku": 3473,
      "ĠFrancji": 3474,
      "ĠPaweÅĤ": 3475,
      "Ġpublicznej": 3476,
      "usza": 3477,
      "Ġwersji": 3478,
      "Media": 3479,
      "Ġwtedy": 3480,
      "czek": 3481,
      "Ġsamolo": 3482,
      "Ġem": 3483,
      "tysty": 3484,
      "Ġataku": 3485,
      "Ġdobrze": 3486,
      "Å¼ony": 3487,
      "sor": 3488,
      "Andrzej": 3489,
      "Ġopis": 3490,
      "ĠpodjÄĻ": 3491,
      "Ġzapo": 3492,
      "ela": 3493,
      "ĠInforma": 3494,
      "jskie": 3495,
      "WÅĤo": 3496,
      "bur": 3497,
      "Ġtrzeba": 3498,
      "Ġwznowiono": 3499,
      "ĠRobert": 3500,
      "anym": 3501,
      "ĠprowadzÄħ": 3502,
      "Ġobcho": 3503,
      "Å¼eÅĦ": 3504,
      "Ġsprawa": 3505,
      "ly": 3506,
      "ĠzaczÄĻ": 3507,
      "jewÃ³dz": 3508,
      "cznik": 3509,
      "turÄĻ": 3510,
      "sti": 3511,
      "Ġpotrzeb": 3512,
      "ple": 3513,
      "ĠGra": 3514,
      "ĠPodczas": 3515,
      "Ġwspo": 3516,
      "Ġradi": 3517,
      "ĠswÃ³j": 3518,
      "Ġuru": 3519,
      "zyka": 3520,
      "Ġpl": 3521,
      "entacji": 3522,
      "Ġzazna": 3523,
      "aru": 3524,
      "Ġ70": 3525,
      "ĠDonald": 3526,
      "ĠKomisji": 3527,
      "ĠBel": 3528,
      "son": 3529,
      "Unia": 3530,
      "Ġtzw": 3531,
      "Ġtrzeci": 3532,
      "Ġkultury": 3533,
      "Ġmisji": 3534,
      "Ġnadz": 3535,
      "Ġnocy": 3536,
      "%.": 3537,
      "jen": 3538,
      "Ġ196": 3539,
      "ment": 3540,
      "Ġkonkursu": 3541,
      "ziÅĽ": 3542,
      "ĠLinie": 3543,
      "czono": 3544,
      "oni": 3545,
      "end": 3546,
      "tore": 3547,
      "ĠwrÄĻ": 3548,
      "ĠLepper": 3549,
      "Ġgodzin": 3550,
      "wych": 3551,
      "Ġwtorek": 3552,
      "jecha": 3553,
      "ĠzmarÅĤ": 3554,
      "Ġstart": 3555,
      "ATO": 3556,
      "Ġspotkaniu": 3557,
      "anga": 3558,
      "Fran": 3559,
      "Ġwszystko": 3560,
      "ĠmiesiÄĻcy": 3561,
      "mos": 3562,
      "ĠBiaÅĤoru": 3563,
      "Zmia": 3564,
      "Informatyka": 3565,
      "Ġinfor": 3566,
      "van": 3567,
      "cent": 3568,
      "ĠMichaÅĤ": 3569,
      "ĠCzÄĻ": 3570,
      "ĠSÄħd": 3571,
      "Ġbryty": 3572,
      "mer": 3573,
      "ĠRi": 3574,
      "Ġtali": 3575,
      "lnie": 3576,
      "Ġzagra": 3577,
      "Å¼yÅĤa": 3578,
      "ĠskÅĤadzie": 3579,
      "ĠczÅĤonkÃ³w": 3580,
      "Ġwez": 3581,
      "Ġobywatel": 3582,
      "grzy": 3583,
      "Ġkierowane": 3584,
      "ĠGi": 3585,
      "ĠniedzielÄĻ": 3586,
      "Ġkategor": 3587,
      "pÅĤat": 3588,
      "gÃ³": 3589,
      "miny": 3590,
      "orÄħ": 3591,
      "Ġrynku": 3592,
      "Ġmas": 3593,
      "Ġzdaniem": 3594,
      "ĠMil": 3595,
      "dzonych": 3596,
      "ĠczÅĤowieka": 3597,
      "ĠzajÄĻ": 3598,
      "dli": 3599,
      "LD": 3600,
      "ĠÅĽrodkÃ³w": 3601,
      "Ġdzisiej": 3602,
      "Ġjednej": 3603,
      "dzili": 3604,
      "Ġtro": 3605,
      "ĠprzyszÅĤo": 3606,
      "ĠponiedziaÅĤek": 3607,
      "czywiÅĽcie": 3608,
      "waÅĤa": 3609,
      "entral": 3610,
      "ĠodwoÅĤ": 3611,
      "ĠKraj": 3612,
      "Ġlecz": 3613,
      "Ġinwesty": 3614,
      "ĠjednÄħ": 3615,
      "ĠmetrÃ³w": 3616,
      "ĠkaÅ¼de": 3617,
      "KS": 3618,
      "ĠczÄĻsto": 3619,
      "ĠJoh": 3620,
      "ted": 3621,
      "Ġpozwo": 3622,
      "Ġofiar": 3623,
      "stÄĻpnie": 3624,
      "lami": 3625,
      "Ġwynosi": 3626,
      "Ġtramwajowy": 3627,
      "ĠogÅĤosiÅĤ": 3628,
      "Ġaktor": 3629,
      "chodni": 3630,
      "Ġprzeg": 3631,
      "Ġreak": 3632,
      "ĠpoÅĽwiÄĻ": 3633,
      "ĠSzko": 3634,
      "ord": 3635,
      "pusz": 3636,
      "ĠurzÄħ": 3637,
      "jskiego": 3638,
      "krÄĻg": 3639,
      "Ġnam": 3640,
      "Ġpolityk": 3641,
      "Ġtygodniu": 3642,
      "Ġprzer": 3643,
      "Ġeko": 3644,
      "Ġpt": 3645,
      "SS": 3646,
      "Sta": 3647,
      "Ġkont": 3648,
      "Ġtowarzy": 3649,
      "wans": 3650,
      "ĠOpen": 3651,
      "Ter": 3652,
      "ĠNiem": 3653,
      "cro": 3654,
      "rzegorz": 3655,
      "ĠWielkiej": 3656,
      "ĠWojciech": 3657,
      "wiru": 3658,
      "Or": 3659,
      "ĠPraw": 3660,
      "ĠpasaÅ¼er": 3661,
      "Ġrozmowy": 3662,
      "ĠchoÄĩ": 3663,
      "ĠNiemiec": 3664,
      "ĠPartia": 3665,
      "Ġkolejny": 3666,
      "Ġujaw": 3667,
      "ĠdoÅĽwiad": 3668,
      "09": 3669,
      "Ġtury": 3670,
      "lina": 3671,
      "orzÄħ": 3672,
      "lony": 3673,
      "Ġprzezna": 3674,
      "Ġefek": 3675,
      "jsko": 3676,
      "Ġpyt": 3677,
      "Ġdom": 3678,
      "ĠTak": 3679,
      "Ġum": 3680,
      "rowin": 3681,
      "Ġturniej": 3682,
      "Ġdopiero": 3683,
      "ĠpoÅ¼ar": 3684,
      "ĠEl": 3685,
      "ownika": 3686,
      "Ġdziedzi": 3687,
      "jczy": 3688,
      "Ġcentrum": 3689,
      "Ġstre": 3690,
      "Ġnaru": 3691,
      "waÅ¼niej": 3692,
      "2025": 3693,
      "mas": 3694,
      "Ġtek": 3695,
      "ĠSp": 3696,
      "waÅĤy": 3697,
      "ÅĽcio": 3698,
      "Ã³wczas": 3699,
      "twa": 3700,
      "ĠZi": 3701,
      "ĠÐ": 3702,
      "ĠzastÄĻp": 3703,
      "ĠDru": 3704,
      "lski": 3705,
      "ĠuroczystoÅĽci": 3706,
      "Ġklasyfikacji": 3707,
      "ÅĽciÄħ": 3708,
      "ĠTVN": 3709,
      "ĠGdy": 3710,
      "Ġci": 3711,
      "rech": 3712,
      "ciÄĩ": 3713,
      "Ġistnie": 3714,
      "Ġpobli": 3715,
      "cov": 3716,
      "nien": 3717,
      "tarzy": 3718,
      "Ġrozwoju": 3719,
      "Ba": 3720,
      "Ġokazji": 3721,
      "center": 3722,
      "ĠuczestnikÃ³w": 3723,
      "ÅĽciÃ³ÅĤ": 3724,
      "33": 3725,
      "Ġbom": 3726,
      "Ġsport": 3727,
      "Ġstosun": 3728,
      "Ġsiebie": 3729,
      "ĠprzykÅĤad": 3730,
      "Ġpolicjan": 3731,
      "Ġnadzie": 3732,
      "Ġpoprzedni": 3733,
      "Ġkolejnych": 3734,
      "ĠpomiÄĻdzy": 3735,
      "liÄĩ": 3736,
      "ĠKos": 3737,
      "nomi": 3738,
      "ĠLubli": 3739,
      "Ġwojny": 3740,
      "Ġnowej": 3741,
      "ĠmieÅĽcie": 3742,
      "ĠMc": 3743,
      "Rze": 3744,
      "Ġcel": 3745,
      "Ġobrony": 3746,
      "Ġ197": 3747,
      "Ġszefa": 3748,
      "ĠcaÅĤkowi": 3749,
      "ĠrozpoczÄħÅĤ": 3750,
      "ĠTar": 3751,
      "ĠEuropie": 3752,
      "Ġroczni": 3753,
      "''": 3754,
      "Ġpoziom": 3755,
      "Ġrzecznik": 3756,
      "miÄĻ": 3757,
      "Ġawar": 3758,
      "wicza": 3759,
      "ĠĊĠĊĊ": 3760,
      "deo": 3761,
      "sh": 3762,
      "Ġpracu": 3763,
      "pedy": 3764,
      "lizacji": 3765,
      "ĠprzyjÄĻ": 3766,
      "Dz": 3767,
      "Ġdyskus": 3768,
      "kin": 3769,
      "ĠWrocÅĤa": 3770,
      "Ġlider": 3771,
      "ÅĽlÄħ": 3772,
      "Ġdeba": 3773,
      "Ġroze": 3774,
      "Ġrobi": 3775,
      "uba": 3776,
      "ciar": 3777,
      "ÅĽciej": 3778,
      "potkanie": 3779,
      "Ġregu": 3780,
      "Ġsiedzi": 3781,
      "ĠwolnoÅĽci": 3782,
      "pel": 3783,
      "Ġkonstytu": 3784,
      "Ġoce": 3785,
      "Ġcztery": 3786,
      "ĠdziaÅĤalnoÅĽci": 3787,
      "ĠcaÅĤy": 3788,
      "ĠpamiÄĻ": 3789,
      "Lo": 3790,
      "orwe": 3791,
      "Ġki": 3792,
      "Ġfunkcjonariu": 3793,
      "tywy": 3794,
      "gorza": 3795,
      "ĠpodkreÅĽla": 3796,
      "Ġ80": 3797,
      "Ġzawar": 3798,
      "racji": 3799,
      "onawiru": 3800,
      "Mo": 3801,
      "wro": 3802,
      "Ġpolicja": 3803,
      "Ġteren": 3804,
      "Ġokaza": 3805,
      "ÄĻdzie": 3806,
      "wencji": 3807,
      "Ġspa": 3808,
      "Ġstron": 3809,
      "leÅĦ": 3810,
      "Wikipedia": 3811,
      "Ġprakty": 3812,
      "ownik": 3813,
      "Ġzare": 3814,
      "ĠSprawiedliwoÅĽci": 3815,
      "Ġskrzy": 3816,
      "Ġchwili": 3817,
      "Ġchodzi": 3818,
      "Ġserwisie": 3819,
      "nen": 3820,
      "cjami": 3821,
      "Ġczyn": 3822,
      "Ġzapis": 3823,
      "ĠbadaÅĦ": 3824,
      "lnym": 3825,
      "Ġwarszta": 3826,
      "Ġprawdopodobnie": 3827,
      "Ġprzede": 3828,
      "ĠFundacja": 3829,
      "Ġkatoli": 3830,
      "ĠTrze": 3831,
      "bii": 3832,
      "Ġdodatk": 3833,
      "ĠHu": 3834,
      "TA": 3835,
      "limpi": 3836,
      "ĠcaÅĤej": 3837,
      "Pierw": 3838,
      "Ob": 3839,
      "Ġtrans": 3840,
      "kol": 3841,
      "Ġeg": 3842,
      "ĠokreÅĽ": 3843,
      "Ġtwierdzi": 3844,
      "owca": 3845,
      "Ġprowin": 3846,
      "ĠsÅĤuÅ¼b": 3847,
      "Ġmimo": 3848,
      "pÅĤa": 3849,
      "cjalne": 3850,
      "ĠwiÄĻzie": 3851,
      "Ġlek": 3852,
      "ER": 3853,
      "ĠdÅĤugo": 3854,
      "ĠPawÅĤa": 3855,
      "Ġpozycji": 3856,
      "%,": 3857,
      "ARS": 3858,
      "ON": 3859,
      "ĠPolskich": 3860,
      "Jed": 3861,
      "ĠTrybu": 3862,
      "Ġskar": 3863,
      "Ġostrze": 3864,
      "Ġjedna": 3865,
      "stru": 3866,
      "By": 3867,
      "Ġoni": 3868,
      "ĠbezpoÅĽ": 3869,
      "Ġczwartek": 3870,
      "Ġ90": 3871,
      "ĠJÃ³": 3872,
      "ĠpiÄĻÄĩ": 3873,
      "spon": 3874,
      "orea": 3875,
      "Ġsce": 3876,
      "ĠposeÅĤ": 3877,
      "rzo": 3878,
      "ĠBor": 3879,
      "34": 3880,
      "ĠWszyst": 3881,
      "Ġreprezent": 3882,
      "kowych": 3883,
      "czona": 3884,
      "ĠTuska": 3885,
      "ĠtysiÄħ": 3886,
      "ĠNowa": 3887,
      "ciÄħÅ¼": 3888,
      "lna": 3889,
      "Ġilo": 3890,
      "ĠTur": 3891,
      "ASA": 3892,
      "ĠprzebiegajÄħce": 3893,
      "obi": 3894,
      "Ġstolicy": 3895,
      "ĠWrocÅĤaw": 3896,
      "ĠpÃ³ÅĤnoc": 3897,
      "ĠSam": 3898,
      "ĠpomocÄħ": 3899,
      "ĠTym": 3900,
      "border": 3901,
      "ĠĠĠĠĠ": 3902,
      "Ġbrak": 3903,
      "Ġwymaga": 3904,
      "Donald": 3905,
      "Ġzagranicznych": 3906,
      "Ġpozwala": 3907,
      "Ġzabezpie": 3908,
      "Ġzgodnie": 3909,
      "Ġprzekaz": 3910,
      "Ġrakie": 3911,
      "Ġfestiwalu": 3912,
      "wajcar": 3913,
      "ĠSARS": 3914,
      "Ġhistory": 3915,
      "ĠKancelar": 3916,
      "gre": 3917,
      "Ġzgroma": 3918,
      "Ġzablokowane": 3919,
      "czym": 3920,
      "Ry": 3921,
      "plo": 3922,
      "Ty": 3923,
      "lip": 3924,
      "Ġodpowiada": 3925,
      "Ġprocent": 3926,
      "ĠpodkreÅĽliÅĤ": 3927,
      "ÅĤowy": 3928,
      "ĠCho": 3929,
      "Ġrat": 3930,
      "ciel": 3931,
      "worzenie": 3932,
      "ĠprzywÃ³d": 3933,
      "podlegÅĤo": 3934,
      "Ġpierwszego": 3935,
      "Ġchor": 3936,
      "daniem": 3937,
      "Ġdomu": 3938,
      "anta": 3939,
      "Ġczeka": 3940,
      "ĠwiÄĻkszoÅĽÄĩ": 3941,
      "Ġpkt": 3942,
      "ĠniezaleÅ¼": 3943,
      "gach": 3944,
      "Ġproces": 3945,
      "ĠFestiwa": 3946,
      "kowa": 3947,
      "Ġkontynu": 3948,
      "ĠParlam": 3949,
      "niÃ³sÅĤ": 3950,
      "ĠprojektÃ³w": 3951,
      "ĠGoogle": 3952,
      "jan": 3953,
      "skiem": 3954,
      "Ġpowinien": 3955,
      "Ġkro": 3956,
      "Ġodnot": 3957,
      "Ġkonfli": 3958,
      "dum": 3959,
      "ĠsamorzÄħd": 3960,
      "Ġwody": 3961,
      "Ġnumer": 3962,
      "Ġgodzinach": 3963,
      "ĠCar": 3964,
      "An": 3965,
      "ĠNarodowego": 3966,
      "ĠOsta": 3967,
      "ĠamerykaÅĦski": 3968,
      "Ġcyk": 3969,
      "ĠÅĽw": 3970,
      "rÃ³j": 3971,
      "osen": 3972,
      "46": 3973,
      "ĠposÅĤÃ³w": 3974,
      "ĠĊĠĊĠĊĠĊĠĊ": 3975,
      "Ġpublicznych": 3976,
      "gryw": 3977,
      "Å¼onych": 3978,
      "onor": 3979,
      "ĠAndrze": 3980,
      "wid": 3981,
      "stanu": 3982,
      "pÄĻ": 3983,
      "ĠZbigniew": 3984,
      "Ġwywo": 3985,
      "nowa": 3986,
      "RS": 3987,
      "ÅĽciach": 3988,
      "36": 3989,
      "ÅĤoby": 3990,
      "chÄĻ": 3991,
      "ĠMor": 3992,
      "ĠÅģukasz": 3993,
      "Ġprezes": 3994,
      "wiÄĻcej": 3995,
      "Ġwystar": 3996,
      "ĠkomÃ³r": 3997,
      "ĠpowoÅĤ": 3998,
      "Ġsuk": 3999,
      "Ġpara": 4000,
      "Ġseku": 4001,
      "Ġtorowisko": 4002,
      "ĠzmarÅĤy": 4003,
      "niku": 4004,
      "kade": 4005,
      "Ġzbrojne": 4006,
      "ĠÅĽrodÄĻ": 4007,
      "ĠWÄĻg": 4008,
      "2023": 4009,
      "Ġruch": 4010,
      "Ġarchi": 4011,
      "ĠPonad": 4012,
      "trzymy": 4013,
      "tan": 4014,
      "yta": 4015,
      "Ġrej": 4016,
      "tkÄĻ": 4017,
      "try": 4018,
      "Mie": 4019,
      "MPK": 4020,
      "Ġwalki": 4021,
      "ÃŃ": 4022,
      "Ġareszt": 4023,
      "ĠudziaÅĤu": 4024,
      "wienia": 4025,
      "ĠzwiÄħzanych": 4026,
      "Ġdaw": 4027,
      "eksu": 4028,
      "Ġcelem": 4029,
      "ĠOkrÄĻg": 4030,
      "Ġprzewo": 4031,
      "ĠÅģÃ³dÅº": 4032,
      "vo": 4033,
      "Ġupraw": 4034,
      "ĠMos": 4035,
      "ĠAnna": 4036,
      "ĠmarszaÅĤ": 4037,
      "Konfli": 4038,
      "rzyÅĤ": 4039,
      "grup": 4040,
      "Ġzatrzyma": 4041,
      "Ġprzedstawia": 4042,
      "Ġ35": 4043,
      "ĠobjÄĻ": 4044,
      "krotnie": 4045,
      "cio": 4046,
      "jechaÅĤ": 4047,
      "stria": 4048,
      "Ġmistrzo": 4049,
      "Ġwolny": 4050,
      "Zobacz": 4051,
      "Ġ500": 4052,
      "Ġprace": 4053,
      "Ġobro": 4054,
      "ĠJos": 4055,
      "ĠogÃ³l": 4056,
      "Ġludzie": 4057,
      "ĠCe": 4058,
      "Ġinte": 4059,
      "Ġodrzu": 4060,
      "Ġ36": 4061,
      "ĠchciaÅĤ": 4062,
      "ff": 4063,
      "Ġumie": 4064,
      "Terrory": 4065,
      "Ġalbo": 4066,
      "ĠPolicji": 4067,
      "ĠmediÃ³w": 4068,
      "zujÄħ": 4069,
      "Å¼one": 4070,
      "lacje": 4071,
      "rab": 4072,
      "ĠInd": 4073,
      "byt": 4074,
      "ĠGier": 4075,
      "ĠdotyczÄħcych": 4076,
      "Ġtransp": 4077,
      "bry": 4078,
      "Gru": 4079,
      "Ġspecjali": 4080,
      "szczy": 4081,
      "jÄĻÄĩ": 4082,
      "ĠzdjÄĻcia": 4083,
      "ĠzwyciÄĻz": 4084,
      "Ġew": 4085,
      "Ġzawsze": 4086,
      "ĠstronÄĻ": 4087,
      "zem": 4088,
      "ĠPK": 4089,
      "Ġusu": 4090,
      "ranie": 4091,
      "ĠpoÅĤo": 4092,
      "Ġprostu": 4093,
      "Ġwicepre": 4094,
      "Ġrazy": 4095,
      "szkod": 4096,
      "ksy": 4097,
      "Ġpodstawie": 4098,
      "poli": 4099,
      "ĠKazi": 4100,
      "Ġmor": 4101,
      "anej": 4102,
      "ĠUkrainy": 4103,
      "Ġparlamentarne": 4104,
      "Ã¼": 4105,
      "cebo": 4106,
      "ĠmÄĻÅ¼czyzna": 4107,
      "Ġwstrzy": 4108,
      "Ġpoparcia": 4109,
      "ĠdokÅĤad": 4110,
      "PN": 4111,
      "Ġsytuacja": 4112,
      "ĠDemokraty": 4113,
      "bum": 4114,
      "Ministerstwo": 4115,
      "Ġubieg": 4116,
      "Ġpopular": 4117,
      "wana": 4118,
      "Ġminist": 4119,
      "Ġpozna": 4120,
      "rane": 4121,
      "staÅĤ": 4122,
      "brze": 4123,
      "Ġbudynku": 4124,
      "Ġserwis": 4125,
      "Ġprzekro": 4126,
      "Ġporta": 4127,
      "fo": 4128,
      "Ġuczni": 4129,
      "ya": 4130,
      "lub": 4131,
      "ĠjednoczeÅĽnie": 4132,
      "Ġczterech": 4133,
      "wiek": 4134,
      "ĠPiÅĤ": 4135,
      "Terroryzm": 4136,
      "Ġcen": 4137,
      "Ġmiasto": 4138,
      "ĠSLD": 4139,
      "Ġdalej": 4140,
      "55": 4141,
      "ĠogÅĤosi": 4142,
      "dzna": 4143,
      "Ġziemi": 4144,
      "angaÅ¼": 4145,
      "ĠMate": 4146,
      "ĠRu": 4147,
      "ĠSh": 4148,
      "Ġprzedstawiciele": 4149,
      "Ġkomenta": 4150,
      "37": 4151,
      "Ġkwo": 4152,
      "ĠNatomiast": 4153,
      "croso": 4154,
      "ĠkandydatÃ³w": 4155,
      "Ġnauczycie": 4156,
      "cyjnym": 4157,
      "lesty": 4158,
      "ĠBrytanii": 4159,
      "zdy": 4160,
      "Ġkategorii": 4161,
      "grafi": 4162,
      "Å¹rÃ³dÅĤo": 4163,
      "Ġdane": 4164,
      "ĠÅĽredni": 4165,
      "Ġpolskim": 4166,
      "gne": 4167,
      "Ġliczby": 4168,
      "ĠON": 4169,
      "porta": 4170,
      "Ġhand": 4171,
      "giem": 4172,
      "cjen": 4173,
      "Ġforma": 4174,
      "Ġzas": 4175,
      "Ġtutaj": 4176,
      "Å¼d": 4177,
      "ĠÅĤÃ³dz": 4178,
      "dia": 4179,
      "Ġrano": 4180,
      "val": 4181,
      "latforma": 4182,
      "dwie": 4183,
      "ĠnajwaÅ¼niej": 4184,
      "ferendum": 4185,
      "ĠDonal": 4186,
      "ĠHiszp": 4187,
      "kolwiek": 4188,
      "ĠHo": 4189,
      "Ġtrasy": 4190,
      "ĠÅĽlÄħ": 4191,
      "szek": 4192,
      "06": 4193,
      "Ġ2015": 4194,
      "OR": 4195,
      "ĠpodaÅĤ": 4196,
      "tna": 4197,
      "ĠsÄħdu": 4198,
      "mÃ³wie": 4199,
      "Ġkoncert": 4200,
      "rat": 4201,
      "Ġkobiet": 4202,
      "biera": 4203,
      "rew": 4204,
      "Ġnic": 4205,
      "lÄħda": 4206,
      "ĠStre": 4207,
      "dnych": 4208,
      "ĠUniwersytetu": 4209,
      "ĠmateriaÅĤ": 4210,
      "ÅĤopol": 4211,
      "SL": 4212,
      "dzeÅĦ": 4213,
      "Ġatak": 4214,
      "Ġstanowiska": 4215,
      "owcy": 4216,
      "nkÃ³w": 4217,
      "ĠÅļwiat": 4218,
      "zur": 4219,
      "strak": 4220,
      "ĠtreÅĽci": 4221,
      "Ã¶": 4222,
      "__": 4223,
      "Ġkli": 4224,
      "frastruk": 4225,
      "oria": 4226,
      "lec": 4227,
      "ĠPan": 4228,
      "Ġniewie": 4229,
      "ĠwstÄĻp": 4230,
      "erwo": 4231,
      "dzieÅĦ": 4232,
      ".)": 4233,
      "ĠÅļwiata": 4234,
      "Ġochrony": 4235,
      "ĠprzedsiÄĻbior": 4236,
      "ĠplacÃ³w": 4237,
      "owskiej": 4238,
      "ĠDom": 4239,
      "ĠOkoÅĤo": 4240,
      "Ġdlatego": 4241,
      "Lech": 4242,
      "ulta": 4243,
      "cznymi": 4244,
      "Ġponownie": 4245,
      "ĠpolskojÄĻzy": 4246,
      "rÃ³ciÅĤ": 4247,
      "Ġstrza": 4248,
      "lien": 4249,
      "ĠJapo": 4250,
      "Dru": 4251,
      "Ġsing": 4252,
      "Ġmamy": 4253,
      "Ð°": 4254,
      "lona": 4255,
      "ĠpodrÃ³Å¼": 4256,
      "kop": 4257,
      "jÄħÄĩ": 4258,
      "Ġrzu": 4259,
      "Ġbr": 4260,
      "tniej": 4261,
      "ĠÅ¼ywi": 4262,
      "gety": 4263,
      "Ġindy": 4264,
      "zach": 4265,
      "Ġmediach": 4266,
      "dzania": 4267,
      "olni": 4268,
      "Ġple": 4269,
      "ĠÅ¼adnych": 4270,
      "Ġpolityki": 4271,
      "Ġen": 4272,
      "Ġpolskie": 4273,
      "Ġwyrazi": 4274,
      "Ġtery": 4275,
      "ÅĽwiet": 4276,
      "Ġprofe": 4277,
      "Jest": 4278,
      "Ġcoraz": 4279,
      "38": 4280,
      "ĠpowiedziaÅĤa": 4281,
      "Ġsamego": 4282,
      "net": 4283,
      "ĠpracÄĻ": 4284,
      "Ġpiel": 4285,
      "Ġelektry": 4286,
      "lena": 4287,
      "Ġawans": 4288,
      "Poli": 4289,
      "ĠodbyÅĤo": 4290,
      "ĠmÃ³wiÄħ": 4291,
      "ĠcaÅĤym": 4292,
      "Ġpodzie": 4293,
      "Ġwykorzysty": 4294,
      "Ġosie": 4295,
      "ĠFundacji": 4296,
      "ĠTade": 4297,
      "ĠwÄħ": 4298,
      "ĠBie": 4299,
      "ĠsiÅĤy": 4300,
      "Ġpsy": 4301,
      "ĠHen": 4302,
      "ĠRepubli": 4303,
      "ĠzaangaÅ¼": 4304,
      "Ġpojawia": 4305,
      "Me": 4306,
      "owiat": 4307,
      "syw": 4308,
      "Ca": 4309,
      "Ġugrup": 4310,
      "Konflikty": 4311,
      "Ġadres": 4312,
      "ĠKur": 4313,
      "tr": 4314,
      "menta": 4315,
      "32": 4316,
      "Ġhttp": 4317,
      "org": 4318,
      "ĠwystÄħpie": 4319,
      "Ġwpis": 4320,
      "ĠMuzeum": 4321,
      "Ġodpowiedni": 4322,
      "ĠJanusz": 4323,
      "ĠKwa": 4324,
      "Ġboj": 4325,
      "ĠrozpoczÄĻÅĤa": 4326,
      "wit": 4327,
      "dzona": 4328,
      "lone": 4329,
      "Jan": 4330,
      "ĠklÄĻ": 4331,
      "Ġmomencie": 4332,
      "ĠÅĽrodowiska": 4333,
      "Ġwywia": 4334,
      "ĠStu": 4335,
      "Ġbudowy": 4336,
      "ĠKrÃ³": 4337,
      "Ġdostar": 4338,
      "ĠprzesÅĤu": 4339,
      "Ġrekor": 4340,
      "ĠzwyciÄĻstwo": 4341,
      "stronau": 4342,
      "Ġpole": 4343,
      "owisku": 4344,
      "ube": 4345,
      "De": 4346,
      "Ġpodaje": 4347,
      "Ġprowincji": 4348,
      "kowej": 4349,
      "ĠduÅ¼y": 4350,
      "Reprez": 4351,
      "strza": 4352,
      "100": 4353,
      "Ġrun": 4354,
      "ĠProkura": 4355,
      "alne": 4356,
      "ĠKolej": 4357,
      "ĠWÅĽrÃ³d": 4358,
      "Przed": 4359,
      "Ġkoalicji": 4360,
      "Ġpozba": 4361,
      "Ġsprawied": 4362,
      "Ġpytania": 4363,
      "Ni": 4364,
      "kowe": 4365,
      "szyÄĩ": 4366,
      "ĠVi": 4367,
      "WÅĤochy": 4368,
      "enko": 4369,
      "Ġszero": 4370,
      "prawa": 4371,
      "pii": 4372,
      "nica": 4373,
      "Ġkryzy": 4374,
      "ĠposÅĤ": 4375,
      "ĠXVI": 4376,
      "kÅĤadzie": 4377,
      "ĠcaÅĤego": 4378,
      "Ġszan": 4379,
      "150": 4380,
      "Ġchi": 4381,
      "rin": 4382,
      "Ġzaku": 4383,
      "Ġfunkcjon": 4384,
      "tywa": 4385,
      "Ġklubu": 4386,
      "ÅĤka": 4387,
      "Ġfak": 4388,
      "Ġskom": 4389,
      "ĠKomen": 4390,
      "Ġtematy": 4391,
      "ĠTeam": 4392,
      "lach": 4393,
      "Ġzapowiada": 4394,
      "Ġrozwi": 4395,
      "ĠPow": 4396,
      "Ġturnieju": 4397,
      "ĠUrzÄĻ": 4398,
      "ong": 4399,
      "ĠzajÄħÅĤ": 4400,
      "Ġdyplo": 4401,
      "ĠLub": 4402,
      "Ġpartia": 4403,
      "rami": 4404,
      "Ġfirma": 4405,
      "jusz": 4406,
      "Ġangiel": 4407,
      "aliz": 4408,
      "leni": 4409,
      "Ġobywateli": 4410,
      "ety": 4411,
      "Ġobsz": 4412,
      "ĠNarodowej": 4413,
      "Å¼ek": 4414,
      "ĠtÄħ": 4415,
      "ĠAb": 4416,
      "ham": 4417,
      "Czy": 4418,
      "Ġkul": 4419,
      "Ġdrugim": 4420,
      "Ġrozmawia": 4421,
      "szty": 4422,
      "stian": 4423,
      "Ġpoje": 4424,
      "39": 4425,
      "ĠKonstytu": 4426,
      "Ġstatu": 4427,
      "Ġdomaga": 4428,
      "ĠNATO": 4429,
      "ĠwygraÅĤa": 4430,
      "mujÄħ": 4431,
      "olog": 4432,
      "ÅĤoÅĽci": 4433,
      "Ġpu": 4434,
      "ĠniektÃ³rych": 4435,
      "Ġpx": 4436,
      "Ġszczy": 4437,
      "Ġnauki": 4438,
      "oland": 4439,
      "Ġstrona": 4440,
      "ĠwokÃ³ÅĤ": 4441,
      "ĠIs": 4442,
      "Ġkampanii": 4443,
      "ĠksiÄĻ": 4444,
      "Åºni": 4445,
      "Ġnego": 4446,
      "noÅĽlÄħ": 4447,
      "Ġmusz": 4448,
      "Ġpas": 4449,
      "Ġtem": 4450,
      "Ġprzekaza": 4451,
      "nos": 4452,
      "Ġeksplo": 4453,
      "Ġ2004": 4454,
      "Ġamb": 4455,
      "ĠwciÄħÅ¼": 4456,
      "ĠKacz": 4457,
      "ĠOt": 4458,
      "Ġzatru": 4459,
      "Ġszybko": 4460,
      "ĠÅĽledzt": 4461,
      "Ġodda": 4462,
      "Ġsym": 4463,
      "sum": 4464,
      "ĠCzar": 4465,
      "Ġdobre": 4466,
      "zyj": 4467,
      "ĠkrÃ³t": 4468,
      "Ġisto": 4469,
      "Ġetapie": 4470,
      "ktor": 4471,
      "ĠporÃ³w": 4472,
      "ĠDro": 4473,
      "Ġwielko": 4474,
      "piej": 4475,
      "Wielka": 4476,
      "ĠBrytania": 4477,
      "ĠWikipedia": 4478,
      "Ġsateli": 4479,
      "ĠbÅĤÄĻ": 4480,
      "Ġmieszka": 4481,
      "ĠkrÃ³": 4482,
      "Ġstraj": 4483,
      "styczne": 4484,
      "ĠÅļrod": 4485,
      "Ġpopraw": 4486,
      "chnika": 4487,
      "obÃ³j": 4488,
      "ĠMaciej": 4489,
      "Ġkrajach": 4490,
      "Ġprzegra": 4491,
      "ĠpieniÄĻ": 4492,
      "Ġoprac": 4493,
      "ĠWis": 4494,
      "gres": 4495,
      "ĠObywatelskiej": 4496,
      "Ġposta": 4497,
      "Ġnapis": 4498,
      "Ġzawod": 4499,
      "pierw": 4500,
      "ĠZiob": 4501,
      "chani": 4502,
      "ĠpochodzÄħ": 4503,
      "Ġwybrany": 4504,
      "Ġnapraw": 4505,
      "Ġzamierza": 4506,
      "ĠpiÅĤkarz": 4507,
      "ĠdostÄĻpne": 4508,
      "ĠznaleÅºÄĩ": 4509,
      "ĠAndrzeja": 4510,
      "nÄĻÅĤa": 4511,
      "Ġwszyscy": 4512,
      "gramowanie": 4513,
      "Ġopar": 4514,
      "Ġfunda": 4515,
      "rocÅĤaw": 4516,
      "Ġprotestu": 4517,
      "ĠONZ": 4518,
      "ĠodbyÅĤy": 4519,
      "wanych": 4520,
      "ĠmÅĤodzie": 4521,
      "Ġuszko": 4522,
      "ĠzakoÅĦczyÅĤ": 4523,
      "Ġpora": 4524,
      "dukacja": 4525,
      "Ġratu": 4526,
      "Ġofia": 4527,
      "ble": 4528,
      "sen": 4529,
      "ologia": 4530,
      "Sejm": 4531,
      "ĠĊĊĠĊ": 4532,
      "Ġwyklu": 4533,
      "Ġimprezy": 4534,
      "ĠPri": 4535,
      "Ġode": 4536,
      "ĠMon": 4537,
      "ĠsprawÄĻ": 4538,
      "ĠLek": 4539,
      "sach": 4540,
      "wory": 4541,
      "ĠEuropejskiego": 4542,
      "ontar": 4543,
      "Ġprasowej": 4544,
      "ĠMaria": 4545,
      "Ġodkry": 4546,
      "ĠÅ¼ywioÅĤ": 4547,
      "05": 4548,
      "rzem": 4549,
      "Ġposzuki": 4550,
      "ĠEk": 4551,
      "ĠnarzÄĻ": 4552,
      "ĠPubli": 4553,
      "niÄĻcie": 4554,
      "Ġzaby": 4555,
      "orÃ³w": 4556,
      "ĠNau": 4557,
      "zes": 4558,
      "ĠprÄĻ": 4559,
      "Ġpoparcie": 4560,
      "Ġwycof": 4561,
      "ĠdruÅ¼yny": 4562,
      "dzÄĻ": 4563,
      "gdy": 4564,
      "ĠrozmÃ³w": 4565,
      "Ġnieu": 4566,
      "ĠWojewÃ³dz": 4567,
      "gan": 4568,
      "AN": 4569,
      "Å¼yser": 4570,
      "zacjÄĻ": 4571,
      "biÃ³r": 4572,
      "Ġwypo": 4573,
      "Ġdoj": 4574,
      "ÅĤaby": 4575,
      "ÅĦskÄħ": 4576,
      "Ġportal": 4577,
      "Ġprzyj": 4578,
      "Ġprzyby": 4579,
      "cieli": 4580,
      "ĠsprawiedliwoÅĽci": 4581,
      "Ġalko": 4582,
      "Zmiana": 4583,
      "ĠlÄħd": 4584,
      "Ð¾": 4585,
      "Ðµ": 4586,
      "ĠCB": 4587,
      "ĠnajwyÅ¼": 4588,
      "ĠwspÃ³ÅĤprac": 4589,
      "ĠEn": 4590,
      "ĠduÅ¼o": 4591,
      "Ġrez": 4592,
      "chomi": 4593,
      "cyk": 4594,
      "Ġpozytyw": 4595,
      "dziÅĤo": 4596,
      "ĠwÃ³wczas": 4597,
      "Ġnazwi": 4598,
      "ĠnadziejÄĻ": 4599,
      "ĠJeÅĽli": 4600,
      "SARS": 4601,
      "Ð¸": 4602,
      "ĠSena": 4603,
      "lob": 4604,
      "Ġkonkre": 4605,
      "Ġzwo": 4606,
      "Ġfotograf": 4607,
      "ĠwartoÅĽci": 4608,
      "portu": 4609,
      "47": 4610,
      "Ġ2014": 4611,
      "ĠTra": 4612,
      "ĠPoznaÅĦ": 4613,
      "Reprezentacja": 4614,
      "Ġnarciar": 4615,
      "iura": 4616,
      "ĠwÅĤadzy": 4617,
      "cle": 4618,
      "Ġtelewizji": 4619,
      "ĠStowarzyszenie": 4620,
      "ĠusÅĤug": 4621,
      "Francja": 4622,
      "szone": 4623,
      "kub": 4624,
      "ĠSan": 4625,
      "ĠpobliÅ¼u": 4626,
      "ĠNawro": 4627,
      "Ġmus": 4628,
      "Ġwynikiem": 4629,
      "ĠpoÅĽwiÄĻco": 4630,
      "sat": 4631,
      "Ġ2019": 4632,
      "ĠKomisja": 4633,
      "Ġdrodze": 4634,
      "tyk": 4635,
      "Ġzakresie": 4636,
      "terze": 4637,
      "Ġrower": 4638,
      "SC": 4639,
      "mien": 4640,
      "ĠGran": 4641,
      "ĠsÄĻdzi": 4642,
      "stoch": 4643,
      "ĠprzeÅĤo": 4644,
      "pomor": 4645,
      "toni": 4646,
      "ĠAfry": 4647,
      "Ġ/": 4648,
      "Ġmini": 4649,
      "ĠObecnie": 4650,
      "waku": 4651,
      "ĠDonalda": 4652,
      "Ġnagrody": 4653,
      "Sonda": 4654,
      "ĠodbÄĻdÄħ": 4655,
      "ĠcoÅĽ": 4656,
      "munika": 4657,
      "Ġprzemy": 4658,
      "raÅĤ": 4659,
      "Ġdecyzja": 4660,
      "Krzy": 4661,
      "GB": 4662,
      "Ġkol": 4663,
      "Ġsezonie": 4664,
      "szyÅĤ": 4665,
      "ĠMer": 4666,
      "Ġpowierz": 4667,
      "ĠZdr": 4668,
      "Ġpatro": 4669,
      "fia": 4670,
      "ĠsobÄħ": 4671,
      "ris": 4672,
      "DziÅĽ": 4673,
      "ĠchÄĻ": 4674,
      "Ġnajnow": 4675,
      "ÅĦca": 4676,
      "szczÄĻ": 4677,
      "aniel": 4678,
      "Fi": 4679,
      "Ġedycja": 4680,
      "Ġwykony": 4681,
      "ciÄħg": 4682,
      "Ġpostanowi": 4683,
      "ĠwojewÃ³dztwa": 4684,
      "Ġumowy": 4685,
      "Ġblisko": 4686,
      "ĠCon": 4687,
      "darzenie": 4688,
      "Ġwarszaw": 4689,
      "szony": 4690,
      "ĠwyÅ¼": 4691,
      "Ġizrael": 4692,
      "finans": 4693,
      "cyjnÄħ": 4694,
      "ĠPaÅĦstw": 4695,
      "Ġpier": 4696,
      "90": 4697,
      "ĠRoman": 4698,
      "ĠKwaÅĽnie": 4699,
      "Ġmoc": 4700,
      "ĠObro": 4701,
      "ĠPlatformy": 4702,
      "Ġzoba": 4703,
      "Ġgot": 4704,
      "ĠLecha": 4705,
      "Ġzb": 4706,
      "miÄħ": 4707,
      "ĠduÅ¼e": 4708,
      "Ju": 4709,
      "Ġmedal": 4710,
      "Ġup": 4711,
      "owiem": 4712,
      "eÅĽmy": 4713,
      "sÅĤo": 4714,
      "Ġpierwszych": 4715,
      "Ġopro": 4716,
      "Muzyka": 4717,
      "Ġelektroni": 4718,
      "ĠInterne": 4719,
      "ctwem": 4720,
      "Ġrady": 4721,
      "ĠJacek": 4722,
      "ĠMosk": 4723,
      "ĠbezpoÅĽredni": 4724,
      "entem": 4725,
      "Ġtakiej": 4726,
      "win": 4727,
      "Ġobserwa": 4728,
      "So": 4729,
      "Al": 4730,
      "Ġpolska": 4731,
      "ĠwyjÄħ": 4732,
      "ĠStanÃ³w": 4733,
      "mons": 4734,
      "czeniem": 4735,
      "id": 4736,
      "ĠJaro": 4737,
      "Ġrolni": 4738,
      "ĠST": 4739,
      "Ġlist": 4740,
      "Ġenergety": 4741,
      "Ġzapa": 4742,
      "Ġemery": 4743,
      "ziono": 4744,
      "retarz": 4745,
      "Ġpotem": 4746,
      "ĠFrance": 4747,
      "ĠSamoobrony": 4748,
      "à¯į": 4749,
      "dziÅĤy": 4750,
      "Ġreferendum": 4751,
      "Ġdowo": 4752,
      "ĠmogÅĤy": 4753,
      "wyk": 4754,
      "Ġwieczorem": 4755,
      "terna": 4756,
      "Ġstand": 4757,
      "tokrzy": 4758,
      "owoÅĽÄĩ": 4759,
      "pia": 4760,
      "line": 4761,
      "ĠPolacy": 4762,
      "lekomunika": 4763,
      "ĠGene": 4764,
      "Ġnor": 4765,
      "Ġdotyczy": 4766,
      "Ġzaatak": 4767,
      "omy": 4768,
      "Ġmld": 4769,
      "stka": 4770,
      "ĠSikor": 4771,
      "owiÄħ": 4772,
      "wej": 4773,
      "ĠRadio": 4774,
      "44": 4775,
      "Ġ2013": 4776,
      "Ukrai": 4777,
      "ĠzdjÄĻÄĩ": 4778,
      "Ġtramwa": 4779,
      "ĠklÄĻski": 4780,
      "ĠwiadomoÅĽci": 4781,
      "Ġostatnim": 4782,
      "wiec": 4783,
      "ĠSpoÅĤe": 4784,
      "rodÄĻ": 4785,
      "prawy": 4786,
      "gum": 4787,
      "We": 4788,
      "otore": 4789,
      "nitor": 4790,
      "Ġpety": 4791,
      "gÃ³ÅĤ": 4792,
      "ĠzÅĤoÅ¼yÅĤ": 4793,
      "Ġprocedu": 4794,
      "ĠpojawiÅĤy": 4795,
      "ĠwewnÄĻtrz": 4796,
      "tarzyna": 4797,
      "Ġzapewnia": 4798,
      "ĠKry": 4799,
      "ĠpolitykÃ³w": 4800,
      "kowska": 4801,
      "ÅģÃ³dÅº": 4802,
      "Ġinformuje": 4803,
      "WÅĤa": 4804,
      "ĠdoÅĤÄħ": 4805,
      "ĠMaÅĤ": 4806,
      "ota": 4807,
      "ĠAfganistanie": 4808,
      "entuje": 4809,
      "ĠsprzedaÅ¼": 4810,
      "Prote": 4811,
      "Ġtaka": 4812,
      "Ġinterne": 4813,
      "Sy": 4814,
      "Ġzesz": 4815,
      "schÃ³d": 4816,
      "nis": 4817,
      "cep": 4818,
      "Ġprzepis": 4819,
      "Ġmiliar": 4820,
      "rania": 4821,
      "ĠinformacjÄĻ": 4822,
      "stycznych": 4823,
      "Ġschodzi": 4824,
      "Ġduch": 4825,
      "alnej": 4826,
      "ĠdziaÅĤalnoÅĽÄĩ": 4827,
      "ĠKomite": 4828,
      "Edukacja": 4829,
      "Ġzareje": 4830,
      "ĠFundu": 4831,
      "ĠHar": 4832,
      "Da": 4833,
      "Ġogrom": 4834,
      "ĠkilometrÃ³w": 4835,
      "ĠmoÅ¼liwe": 4836,
      "ĠJor": 4837,
      "ĠznajdujÄħ": 4838,
      "ĠGrzegorz": 4839,
      "ĠBli": 4840,
      "ĠsprzÄĻ": 4841,
      "ĠszczegÃ³lnie": 4842,
      "ĠWstÄĻp": 4843,
      "ÅĽrod": 4844,
      "80": 4845,
      "Platforma": 4846,
      "www": 4847,
      "ÄħÄĩ": 4848,
      "Ġzao": 4849,
      "Ġinten": 4850,
      "Ġserwisu": 4851,
      "szeniu": 4852,
      "ĠliÅĽcie": 4853,
      "Ġgwia": 4854,
      "ujÄħc": 4855,
      "ĠwÄĻg": 4856,
      "ĠPu": 4857,
      "nione": 4858,
      "stek": 4859,
      "Bar": 4860,
      "Ġlep": 4861,
      "Ġrodzin": 4862,
      "Ġcia": 4863,
      "ĠbyÅĤego": 4864,
      "orami": 4865,
      "Ġrodziny": 4866,
      "Wie": 4867,
      "ĠtakÄħ": 4868,
      "Ġprzekona": 4869,
      "koÅĤa": 4870,
      "ĠKrakowa": 4871,
      "ĠStanisÅĤaw": 4872,
      "Ġmieszk": 4873,
      "dych": 4874,
      "Ġstartu": 4875,
      "ĠNastÄĻpnie": 4876,
      "ĠMistrzo": 4877,
      "ĠRosja": 4878,
      "Ġtrasie": 4879,
      "jawi": 4880,
      "fikacji": 4881,
      "vid": 4882,
      "lewizja": 4883,
      "Ġcyfr": 4884,
      "Ġwzi": 4885,
      "naÅĽcie": 4886,
      "ĠPer": 4887,
      "Ġtrzecie": 4888,
      "Ġalbum": 4889,
      "Ġeksper": 4890,
      "ĠPut": 4891,
      "Ġrodza": 4892,
      "ortuga": 4893,
      "au": 4894,
      "ĠFacebo": 4895,
      "ĠBezpie": 4896,
      "lono": 4897,
      "Ġtakiego": 4898,
      "Ġopozycji": 4899,
      "bÄħ": 4900,
      "Ġ45": 4901,
      "Ġpotra": 4902,
      "ĠUr": 4903,
      "uri": 4904,
      "Ġnieo": 4905,
      "Ġokresie": 4906,
      "Ġper": 4907,
      "ĠwiÄĻkszoÅĽci": 4908,
      "Ġwspiera": 4909,
      "fery": 4910,
      "old": 4911,
      "Ġproblemy": 4912,
      "ĠDoda": 4913,
      "Ġedukacji": 4914,
      "ĠRej": 4915,
      "spozy": 4916,
      "ĠAm": 4917,
      "Ġpytanie": 4918,
      "ĠKami": 4919,
      "anki": 4920,
      "Ġmam": 4921,
      "Ġpierwsza": 4922,
      "ĠZam": 4923,
      "uÅĽci": 4924,
      "Ġwypowiedzi": 4925,
      "ĠwÅĤÄħ": 4926,
      "Ġpacjen": 4927,
      "lnÄħ": 4928,
      "niesienia": 4929,
      "wiu": 4930,
      "ĠCommons": 4931,
      "Ġide": 4932,
      "ĠLPR": 4933,
      "ĠrebeliantÃ³w": 4934,
      "ĠEx": 4935,
      "czÄĻÅĽciej": 4936,
      "Marek": 4937,
      "wodnik": 4938,
      "Ġochro": 4939,
      "olidar": 4940,
      "waÅ¼a": 4941,
      "ĠrolÄĻ": 4942,
      "ĠnaleÅ¼Äħ": 4943,
      "ĠMarka": 4944,
      "Ġkonkurs": 4945,
      "Ġrozgryw": 4946,
      "ĠFer": 4947,
      "Ġnegocja": 4948,
      "Ġgrozi": 4949,
      "Ġserii": 4950,
      "nt": 4951,
      "dzien": 4952,
      "ĠÅĽwiet": 4953,
      "tyku": 4954,
      "ĠdowÃ³d": 4955,
      "osÅĤa": 4956,
      "ĠPoznaniu": 4957,
      "landia": 4958,
      "Ġapli": 4959,
      "Ġkonku": 4960,
      "ĠÅĽmierÄĩ": 4961,
      "KI": 4962,
      "Ġ32": 4963,
      "stry": 4964,
      "Organi": 4965,
      "Ġaktual": 4966,
      "ĠÅĽci": 4967,
      "jÄħcymi": 4968,
      "ĠSk": 4969,
      "Ġenergii": 4970,
      "ĠPrawa": 4971,
      "Å¼yna": 4972,
      "Ġprzejrz": 4973,
      "ĠSejm": 4974,
      "ĠLondy": 4975,
      "Ġwyprze": 4976,
      "jskÄħ": 4977,
      "gno": 4978,
      "ĠpowiedzieÄĩ": 4979,
      "Ġinternetowej": 4980,
      "Tube": 4981,
      "Ġv": 4982,
      "crosoft": 4983,
      "mag": 4984,
      "Ġzbior": 4985,
      "wano": 4986,
      "Ġgranicy": 4987,
      "twier": 4988,
      "ĠIzra": 4989,
      "ĠNauk": 4990,
      "ĠbezpÅĤat": 4991,
      "ĠMary": 4992,
      "Ġprezydentem": 4993,
      "nikiem": 4994,
      "Ġpoziomie": 4995,
      "Katastrofy": 4996,
      "Ġlisty": 4997,
      "noczeÅĽnie": 4998,
      "Ġsumie": 4999,
      "wzglÄĻ": 5000,
      "Ġawarii": 5001,
      "wyciÄĻ": 5002,
      "Ġewentu": 5003,
      "Ġumiesz": 5004,
      "Ġmani": 5005,
      "Ġnowym": 5006,
      "ĠjÄĻzyku": 5007,
      "...)": 5008,
      "Ġses": 5009,
      "Ġkatolicki": 5010,
      "ĠrozwiÄħzania": 5011,
      "niÄħdze": 5012,
      "Ġpostawi": 5013,
      "Ġofi": 5014,
      "Ġrobo": 5015,
      "ĠprzyszÅĤoÅĽci": 5016,
      "niak": 5017,
      "zowieckie": 5018,
      "Ġdowie": 5019,
      "szel": 5020,
      "Ġoperacji": 5021,
      "osob": 5022,
      "Ġnimi": 5023,
      "tri": 5024,
      "Ġprezydenckich": 5025,
      "ÅĤaÅĤ": 5026,
      "AP": 5027,
      "ĠBiaÅĤorusi": 5028,
      "Koncer": 5029,
      "dniego": 5030,
      "ĠZdrowia": 5031,
      "ĠjÄħdr": 5032,
      "ĠWaÅĤÄĻ": 5033,
      "czno": 5034,
      "04": 5035,
      "wchodzi": 5036,
      "Rad": 5037,
      "Ġeduka": 5038,
      "wego": 5039,
      "ĠBen": 5040,
      "Ġprzystan": 5041,
      "Ġlos": 5042,
      "Ġoczeki": 5043,
      "wczy": 5044,
      "rzÄħt": 5045,
      "nieÅĦ": 5046,
      "Ġzy": 5047,
      "ĠprÄĻd": 5048,
      "kÅĤadu": 5049,
      "log": 5050,
      "zety": 5051,
      "ĠjeÅ¼eli": 5052,
      "ĠKaczmar": 5053,
      "Ġstrateg": 5054,
      "ĠopuÅĽci": 5055,
      "lot": 5056,
      "ouTube": 5057,
      "malnie": 5058,
      "ĠudziaÅĤem": 5059,
      "Ġmeto": 5060,
      "przy": 5061,
      "Ġdrogi": 5062,
      "ĠJerzy": 5063,
      "Ġprzeka": 5064,
      "Ġzob": 5065,
      "Ġkoszt": 5066,
      "Ġuka": 5067,
      "ĠEdu": 5068,
      "czaj": 5069,
      "Ġgminy": 5070,
      "Ġsia": 5071,
      "Ġminuty": 5072,
      "07": 5073,
      "ĠXX": 5074,
      "Ġ34": 5075,
      "ÅĤawo": 5076,
      "Ġzmniej": 5077,
      "ĠLit": 5078,
      "ĠÅ¼ywioÅĤowe": 5079,
      "ĠGiertych": 5080,
      "all": 5081,
      "ĠRysz": 5082,
      "FA": 5083,
      "dna": 5084,
      "Ġpali": 5085,
      "piera": 5086,
      "Ġbramki": 5087,
      "ĠRzecz": 5088,
      "mieniu": 5089,
      "stracji": 5090,
      "ĠmaÅĤ": 5091,
      "czania": 5092,
      "ĠMimo": 5093,
      "ĠLewicy": 5094,
      "up": 5095,
      "ĠWin": 5096,
      "ĠpoÅĤowie": 5097,
      "Ġzbyt": 5098,
      "Ġ300": 5099,
      "ĠGÃ³": 5100,
      "PO": 5101,
      "Vi": 5102,
      "ĠZwiÄħzku": 5103,
      "ĠzawodnikÃ³w": 5104,
      "ĠnapisaÅĤ": 5105,
      "Ġ:": 5106,
      "tional": 5107,
      "Ġtema": 5108,
      "Ġbowiem": 5109,
      "rano": 5110,
      "Ġzakaz": 5111,
      "federa": 5112,
      "miast": 5113,
      "ĠmieszkaÅĦcy": 5114,
      "spie": 5115,
      "ĠwyjaÅĽni": 5116,
      "Åºnie": 5117,
      "otoreporta": 5118,
      "Ġzarzuty": 5119,
      "Ġpisa": 5120,
      "warant": 5121,
      "ĠZosta": 5122,
      "Ġpr": 5123,
      "Ġrywali": 5124,
      "karpa": 5125,
      "Ġmuzyczne": 5126,
      "rÃ³ciÄĩ": 5127,
      "linie": 5128,
      "omos": 5129,
      "ĠBezpieczeÅĦstwa": 5130,
      "ĠzastÄħpi": 5131,
      "Ġwscho": 5132,
      "ĠzakoÅĦczeniu": 5133,
      "waniu": 5134,
      "ĠspeÅĤ": 5135,
      "Ġ38": 5136,
      "Ġtakim": 5137,
      "ĠprzyznaÅĤ": 5138,
      "Premier": 5139,
      "jazdu": 5140,
      "Ġwspom": 5141,
      "pen": 5142,
      "NE": 5143,
      "ieÅĤ": 5144,
      "ĠKosmi": 5145,
      "ĠPrzemy": 5146,
      "Ġwyna": 5147,
      "Ġpowinna": 5148,
      "ĠpolskojÄĻzycznej": 5149,
      "ĠMan": 5150,
      "ĠPrawo": 5151,
      "Ġznisz": 5152,
      "ĠgoÅĽci": 5153,
      "cko": 5154,
      "Ġsekund": 5155,
      "Ġrozpocznie": 5156,
      "ling": 5157,
      "landii": 5158,
      "Ġekipy": 5159,
      "Ġkoronawiru": 5160,
      "dzeniem": 5161,
      "ĠskÅĤada": 5162,
      "ĠzakÅĤad": 5163,
      "Ġzaprze": 5164,
      "Ġfunkcji": 5165,
      "iskup": 5166,
      "Ġpoten": 5167,
      "lak": 5168,
      "tz": 5169,
      "ĠWczeÅĽniej": 5170,
      "dra": 5171,
      "Ġwzrost": 5172,
      "ĠCzÄĻstoch": 5173,
      "ĠpopeÅĤ": 5174,
      "Ġobo": 5175,
      "ĠJohn": 5176,
      "Ġzastos": 5177,
      "ĠprzewodniczÄħcy": 5178,
      "Ġtygodnia": 5179,
      "ĠpiÄĻciu": 5180,
      "ĠRejon": 5181,
      "mimo": 5182,
      "Ġkorzysta": 5183,
      "ĠwyrÃ³Å¼": 5184,
      "mana": 5185,
      "Ġ33": 5186,
      "dzieli": 5187,
      "Ġwier": 5188,
      "widu": 5189,
      "Rob": 5190,
      "zyli": 5191,
      "niesi": 5192,
      "ĠwydarzeÅĦ": 5193,
      "Ġewaku": 5194,
      "ĠIII": 5195,
      "ĠKaro": 5196,
      "ĠwiÄĻzienia": 5197,
      "ĠÅĤat": 5198,
      "ĠszkoÅĤy": 5199,
      "danie": 5200,
      "Ġand": 5201,
      "ell": 5202,
      "Ġklien": 5203,
      "ĠKomu": 5204,
      "Ġprzewodni": 5205,
      "szÅĤa": 5206,
      "Ġdziennikarzy": 5207,
      "Ġodcinku": 5208,
      "Ġniedaw": 5209,
      "Ġdrze": 5210,
      "Ġrealiz": 5211,
      "najmniej": 5212,
      "Ġlidera": 5213,
      "minie": 5214,
      "Ġodzna": 5215,
      "ĠtalibÃ³w": 5216,
      "Ġalkoh": 5217,
      "ĠProdu": 5218,
      "nictwo": 5219,
      "ÅĤudnie": 5220,
      "ĠMart": 5221,
      "kista": 5222,
      "Ġstowarzy": 5223,
      "ĠFrancu": 5224,
      "Ġmonitor": 5225,
      "Ġukrai": 5226,
      "nieniu": 5227,
      "Ġunie": 5228,
      "ĠpodwyÅ¼": 5229,
      "ĠÅĽled": 5230,
      "Ġszans": 5231,
      "ĠWrocÅĤawiu": 5232,
      "frastruktury": 5233,
      "Ġ()": 5234,
      "ÅĤÃ³": 5235,
      "ĠWyniki": 5236,
      "Ġmuzyki": 5237,
      "ĠmandatÃ³w": 5238,
      "udio": 5239,
      "tychmiast": 5240,
      "Ġmiast": 5241,
      "ĠmuszÄħ": 5242,
      "zygn": 5243,
      "ĠHer": 5244,
      "ĠmoÅ¼emy": 5245,
      "ĠAleksander": 5246,
      "Ġape": 5247,
      "Å¼em": 5248,
      "ĠKiel": 5249,
      "Ġpunkt": 5250,
      "Ġuczestnicy": 5251,
      "ĠWÅĤoch": 5252,
      "rzÄĻsie": 5253,
      "Ġparlamentu": 5254,
      "ÅĽle": 5255,
      "Ġfrag": 5256,
      "ĠAt": 5257,
      "krÃ³t": 5258,
      "Bo": 5259,
      "Ġira": 5260,
      "Ġpowinny": 5261,
      "wiÄĩ": 5262,
      "Wa": 5263,
      "ĠStar": 5264,
      "Ġmoje": 5265,
      "ĠksztaÅĤ": 5266,
      "ÅĤos": 5267,
      "Ġdzielni": 5268,
      "ĠpapieÅ¼a": 5269,
      "minacji": 5270,
      "oty": 5271,
      "ÅĦcÃ³w": 5272,
      "stycznej": 5273,
      "Dzien": 5274,
      "Ġ37": 5275,
      "iana": 5276,
      "48": 5277,
      "Ġportalu": 5278,
      "iego": 5279,
      "bil": 5280,
      "Ġpiosen": 5281,
      "Ġprowadzenie": 5282,
      "Ġprzet": 5283,
      "Ġposzcze": 5284,
      "Å¹rÃ³dÅĤa": 5285,
      "ĠamerykaÅĦskich": 5286,
      "Ġprezesa": 5287,
      "ĠMinist": 5288,
      "ĠtrafiÅĤ": 5289,
      "Å¼eniu": 5290,
      "covery": 5291,
      "ĠZiemi": 5292,
      "ĠSÅĤowa": 5293,
      "Ġsamochodu": 5294,
      "lew": 5295,
      "Ġrozp": 5296,
      "orup": 5297,
      "Ġtymczas": 5298,
      "ĠGar": 5299,
      "Ġobsza": 5300,
      "Ġreli": 5301,
      "Ġkla": 5302,
      "centÃ³w": 5303,
      "ĠreÅ¼yser": 5304,
      "ĠNASA": 5305,
      "Ale": 5306,
      "01": 5307,
      "onar": 5308,
      "ĠdostÄĻpu": 5309,
      "Ġpira": 5310,
      "Ġprzedstawicieli": 5311,
      "dor": 5312,
      "Ġargum": 5313,
      "Ukraina": 5314,
      "gip": 5315,
      ".\"": 5316,
      "ĠÅ»oli": 5317,
      "Ġwydaw": 5318,
      "Ġpelet": 5319,
      "ĠtwierdzÄħ": 5320,
      "ĠRadia": 5321,
      "Ġdotar": 5322,
      "dek": 5323,
      "ĠMinisterstwo": 5324,
      "zywa": 5325,
      "szono": 5326,
      "OS": 5327,
      "iaÅĤo": 5328,
      "ĠwyÅĽcig": 5329,
      "ĠgÃ³": 5330,
      "Ġrelacji": 5331,
      "ĠCie": 5332,
      "mÃ³wi": 5333,
      "Ġkontroli": 5334,
      "entowaÅĤ": 5335,
      "enedy": 5336,
      "ĠumoÅ¼liwia": 5337,
      "Ġinstytucji": 5338,
      "Ġho": 5339,
      "ĠPolity": 5340,
      "Ġzu": 5341,
      "ĠDzien": 5342,
      "ĠKomor": 5343,
      "Ġznacznie": 5344,
      "Ġmecze": 5345,
      "Ġlicencji": 5346,
      "Ġzamachu": 5347,
      "ĠPolo": 5348,
      "alnych": 5349,
      "ill": 5350,
      "iscovery": 5351,
      "rowni": 5352,
      "misjÄĻ": 5353,
      "ÅĽcioÅĤa": 5354,
      "nel": 5355,
      "Ġlubel": 5356,
      "Ġnaszego": 5357,
      "ĠEd": 5358,
      "Ġkos": 5359,
      "tnia": 5360,
      "terÃ³w": 5361,
      "urmi": 5362,
      "Ġplat": 5363,
      "jna": 5364,
      "zjÄĻ": 5365,
      "Ġniebezpie": 5366,
      "ĠFranci": 5367,
      "Ġkonkuren": 5368,
      "ĠGaler": 5369,
      "ĠpeÅĤni": 5370,
      "ĠTh": 5371,
      "ĠPoÅĤudniowej": 5372,
      "Ġthe": 5373,
      "ĠKatowice": 5374,
      "tny": 5375,
      "ĠrÃ³Å¼ne": 5376,
      "Ġpodejrz": 5377,
      "Ġdor": 5378,
      "ĠNauki": 5379,
      "tkiem": 5380,
      "osÅĤaw": 5381,
      "rium": 5382,
      "Ġprezydenckie": 5383,
      "szewski": 5384,
      "ĠÄĩ": 5385,
      "Ġwniosku": 5386,
      "ction": 5387,
      "Ġkobiety": 5388,
      "pomina": 5389,
      "ĠNob": 5390,
      "Ġpowiatu": 5391,
      "Ġge": 5392,
      "Ġwyj": 5393,
      "Kolej": 5394,
      "ĠchÅĤo": 5395,
      "berg": 5396,
      "ĠsÅĤo": 5397,
      "Ġcieka": 5398,
      "Å¼ona": 5399,
      "ĠsytuacjÄĻ": 5400,
      "Ġzajm": 5401,
      "ĠRzy": 5402,
      "Roz": 5403,
      "ĠspÃ³ÅĤki": 5404,
      "Ġkierowca": 5405,
      "Ġdziennikarz": 5406,
      "ZwiÄħz": 5407,
      "ĠDemokra": 5408,
      "OT": 5409,
      "ĠnaprawdÄĻ": 5410,
      "Ġopinii": 5411,
      "Ġrozpa": 5412,
      "muni": 5413,
      "dano": 5414,
      "ÅļlÄħsk": 5415,
      "Ġwojen": 5416,
      "ĠSza": 5417,
      "Chi": 5418,
      "Ġobs": 5419,
      ".:": 5420,
      "ĠIran": 5421,
      "Kom": 5422,
      "dyn": 5423,
      "koÅĽÄĩ": 5424,
      "noszÄħ": 5425,
      "zÄħd": 5426,
      "ÅĤow": 5427,
      "ĠDziÄĻki": 5428,
      "nin": 5429,
      "49": 5430,
      "ĠÅ¼Ã³ÅĤ": 5431,
      "ÄĻgnia": 5432,
      "Ġprogramie": 5433,
      "Ġpozwoli": 5434,
      "Ġpunkty": 5435,
      "Ġpodejm": 5436,
      "AM": 5437,
      "skÄĻ": 5438,
      "ĠsondaÅ¼u": 5439,
      "ĠKana": 5440,
      "Ġtermin": 5441,
      "Ġinform": 5442,
      "ĠWscho": 5443,
      "lnoÅĽci": 5444,
      "Ġprokuratury": 5445,
      "Ġoficjalnie": 5446,
      "ĠodniÃ³sÅĤ": 5447,
      "Ġorbi": 5448,
      "ĠCha": 5449,
      "ĠMas": 5450,
      "Ġostatecznie": 5451,
      "ede": 5452,
      "jÃ³w": 5453,
      "ĠAk": 5454,
      "Ġintere": 5455,
      "jeÅ¼d": 5456,
      "ura": 5457,
      "ĠLigi": 5458,
      "Ġfilmu": 5459,
      "Ġwsparcie": 5460,
      "Ġokres": 5461,
      "ĠAkade": 5462,
      "ĠPartii": 5463,
      "ĠktoÅĽ": 5464,
      "Ġprzyja": 5465,
      "ira": 5466,
      "ĠurzÄĻdu": 5467,
      "KoÅĽciÃ³ÅĤ": 5468,
      "ĠwpÅĤyw": 5469,
      "ĠMÅĤo": 5470,
      "GBT": 5471,
      "ĠRÃ³w": 5472,
      "Ġkana": 5473,
      "Ġpromo": 5474,
      "Ġzaba": 5475,
      "cieÅ¼": 5476,
      "Ġporozumienia": 5477,
      "ĠfunkcjÄĻ": 5478,
      "alicja": 5479,
      "szÄĻ": 5480,
      "Ġfizy": 5481,
      "ĠpasaÅ¼erÃ³w": 5482,
      "kowy": 5483,
      "ĠrozwÃ³j": 5484,
      "ĠMagda": 5485,
      "ĠHenry": 5486,
      "los": 5487,
      "ĠObama": 5488,
      "dny": 5489,
      "Ġkrak": 5490,
      "Ġinformacja": 5491,
      "Ġnatychmiast": 5492,
      "krÃ³tce": 5493,
      "blioteka": 5494,
      "bym": 5495,
      "ĠKancelarii": 5496,
      "Ġatmos": 5497,
      "Ġrozsze": 5498,
      "ĠwyÅĤÄħcznie": 5499,
      "Ãĵ": 5500,
      "ĠKol": 5501,
      "Ġrekord": 5502,
      "Ġgrupie": 5503,
      "Ġposel": 5504,
      "ĠBroni": 5505,
      "wym": 5506,
      "Ġkonsek": 5507,
      "ownictwa": 5508,
      "duk": 5509,
      "Ġutru": 5510,
      "Ġuwagi": 5511,
      "turze": 5512,
      "ĠprzypadkÃ³w": 5513,
      "ĠMazowie": 5514,
      "Ġnaszych": 5515,
      "taÄĩ": 5516,
      "ĠnajwiÄĻcej": 5517,
      "talia": 5518,
      "tystyki": 5519,
      "Ġpers": 5520,
      "Ze": 5521,
      "US": 5522,
      "ĠMichael": 5523,
      "Ġteat": 5524,
      "prawdopodob": 5525,
      "ĠUkra": 5526,
      "tnej": 5527,
      "Ġindywidu": 5528,
      "75": 5529,
      "ĠogÃ³": 5530,
      "Ġwszel": 5531,
      "ĠStrona": 5532,
      "dziesiÄħ": 5533,
      "ĠCol": 5534,
      "ĠpierwszÄħ": 5535,
      "Ġprzewie": 5536,
      "Ġeli": 5537,
      "Ġ2000": 5538,
      "Ġstworz": 5539,
      "ĠPoz": 5540,
      "Ġtramwaju": 5541,
      "Ġpogo": 5542,
      "Ġsena": 5543,
      "ĠprzekazaÅĤ": 5544,
      "ĠzagroÅ¼enia": 5545,
      "ĠukoÅĦ": 5546,
      "ĠQui": 5547,
      "Ġzajmu": 5548,
      "Grupa": 5549,
      "Ġhar": 5550,
      "ĠPolskie": 5551,
      "Ġkontra": 5552,
      "ĠsamochÃ³d": 5553,
      "ĠPR": 5554,
      "Fotoreporta": 5555,
      "Ġ(...)": 5556,
      "wencja": 5557,
      "ĠGdaÅĦsku": 5558,
      "ĠKatowicach": 5559,
      "tp": 5560,
      "ĠnajwiÄĻkszych": 5561,
      "gnieszka": 5562,
      "kopol": 5563,
      "tis": 5564,
      "Ġkomite": 5565,
      "jskim": 5566,
      "ĠprzeglÄħd": 5567,
      "ĠParlamentu": 5568,
      "ĠGeor": 5569,
      "ĠCentral": 5570,
      "ĠodbyÄĩ": 5571,
      "60": 5572,
      "ĠRegi": 5573,
      "Ġtyle": 5574,
      "leb": 5575,
      "ĠniÄħ": 5576,
      "Ġ&": 5577,
      "ĠFre": 5578,
      "nionych": 5579,
      "denty": 5580,
      "Ġzak": 5581,
      "ĠbieÅ¼Äħ": 5582,
      "Ġstara": 5583,
      "stoÅĽÄĩ": 5584,
      "Ġdar": 5585,
      "rusz": 5586,
      "kowskiego": 5587,
      "Ġuruchomi": 5588,
      "ĠTre": 5589,
      "ĠAleksandra": 5590,
      "twÃ³r": 5591,
      "ĠdziesiÄĻ": 5592,
      "ĠLoka": 5593,
      "Jo": 5594,
      "Ġpolega": 5595,
      "ĠFilm": 5596,
      "Ġpli": 5597,
      "ĠpiÅĤkÄĻ": 5598,
      "ĠOtwar": 5599,
      "ĠbÄĻdziemy": 5600,
      "ĠoÅĽwiadczyÅĤ": 5601,
      "ĠLam": 5602,
      "Krzysztof": 5603,
      "ĠwyÅĽwiet": 5604,
      "ĠKe": 5605,
      "Ġpowro": 5606,
      "lara": 5607,
      "2022": 5608,
      "istoria": 5609,
      "Ġspot": 5610,
      "czestni": 5611,
      "ĠpieniÄĻdzy": 5612,
      "Ġreprezentacji": 5613,
      "ĠStowarzyszenia": 5614,
      "tamy": 5615,
      "fan": 5616,
      "lasa": 5617,
      "Wczoraj": 5618,
      "Ġkontakt": 5619,
      "ĠgÅĤosu": 5620,
      "ĠpotwierdziÅĤ": 5621,
      "owskim": 5622,
      "Ġterytorium": 5623,
      "ĠWÅĤady": 5624,
      "Ġwybuchu": 5625,
      "Å¼yli": 5626,
      "prawdopodobniej": 5627,
      "Ġmaszy": 5628,
      "worzyÄĩ": 5629,
      "ĠPiotra": 5630,
      "Ġniepo": 5631,
      "ĠWszystkie": 5632,
      "ĠznalazÅĤ": 5633,
      "roz": 5634,
      "wol": 5635,
      "Ġban": 5636,
      "ĠDodaÅĤ": 5637,
      "Ġ39": 5638,
      "Å¼nej": 5639,
      "fryka": 5640,
      "Ġfakt": 5641,
      "Ġratunk": 5642,
      "Ġpolitycznych": 5643,
      "Ġklub": 5644,
      "Ġnoc": 5645,
      "ĠpoÅĤudniu": 5646,
      "ĠksiÄħÅ¼ki": 5647,
      "eksy": 5648,
      "2007": 5649,
      "siÄĩ": 5650,
      "Ġinsta": 5651,
      "karz": 5652,
      "udy": 5653,
      "Policja": 5654,
      "ĠÅĤÄħcznie": 5655,
      "niÅ¼ej": 5656,
      "ckÄħ": 5657,
      "OC": 5658,
      "tam": 5659,
      "ĠPaki": 5660,
      "Ġostatniej": 5661,
      "uber": 5662,
      "ĠÅļwiÄħ": 5663,
      "ÑĢ": 5664,
      "ĠproblemÃ³w": 5665,
      "zmu": 5666,
      "Ġkwestii": 5667,
      "Ġpozo": 5668,
      "Ġsukce": 5669,
      "peÅĤnos": 5670,
      "ĠSob": 5671,
      "emi": 5672,
      "ĠAdministra": 5673,
      "Ġnaszej": 5674,
      "und": 5675,
      "ĠPuch": 5676,
      "ĠDemokratycznej": 5677,
      "ĠpiÅĤkar": 5678,
      "sper": 5679,
      "peÅĤnospraw": 5680,
      "dnienia": 5681,
      "ĠbudowÄĻ": 5682,
      "ĠÅģa": 5683,
      "had": 5684,
      "ĠTadeusz": 5685,
      "ld": 5686,
      "genty": 5687,
      "stral": 5688,
      "ĠSze": 5689,
      "ĠBro": 5690,
      "Ġwystawy": 5691,
      "IE": 5692,
      "Ġzapropon": 5693,
      "ĠKsiÄĻ": 5694,
      "ĠNiemcy": 5695,
      "ĠpojawiÅĤ": 5696,
      "Wol": 5697,
      "ÂŃ": 5698,
      "Ġpowy": 5699,
      "ĠbudÅ¼etu": 5700,
      "ÅĤami": 5701,
      "ÄĻdzi": 5702,
      "ĠoÅĽrod": 5703,
      "ĠzdecydowaÅĤ": 5704,
      "ĠRada": 5705,
      "ĠAli": 5706,
      "Ġobni": 5707,
      "ĠKaÅ¼": 5708,
      "Ġprzyw": 5709,
      "Ġprzedmio": 5710,
      "ĠcaÅĤkowicie": 5711,
      "jeÅ¼dÅ¼a": 5712,
      "ĠKie": 5713,
      "08": 5714,
      "wand": 5715,
      "ĠOlimpi": 5716,
      "Ġgen": 5717,
      "Ġwykonaw": 5718,
      "ĠurzÄĻdni": 5719,
      "ĠÅĽwiatowej": 5720,
      "stety": 5721,
      "CC": 5722,
      "Ġprezent": 5723,
      "ingu": 5724,
      "stre": 5725,
      "dzÃ³w": 5726,
      "ĠPSL": 5727,
      "Ġelektrowni": 5728,
      "Ġ2003": 5729,
      "Sa": 5730,
      "Ġprzynajmniej": 5731,
      "TV": 5732,
      "Stra": 5733,
      "umu": 5734,
      "styczna": 5735,
      "War": 5736,
      "Ġkultura": 5737,
      "ĠÅģÃ³dz": 5738,
      "Ġ150": 5739,
      "Ġsub": 5740,
      "gÅĤÄĻ": 5741,
      "dniu": 5742,
      "Ġkobieta": 5743,
      "ĠrozwiÄħza": 5744,
      "ensy": 5745,
      "ĠKore": 5746,
      "Ġkopii": 5747,
      "ĠzrobiÄĩ": 5748,
      "Ġodnotowano": 5749,
      "Ġocenia": 5750,
      "ĠurzÄħd": 5751,
      "ĠPlan": 5752,
      "ĠSar": 5753,
      "ĠPonadto": 5754,
      "ĠZarzÄħ": 5755,
      "Ġrakiety": 5756,
      "liwi": 5757,
      "ĠToma": 5758,
      "ĠPos": 5759,
      "set": 5760,
      "Ġpokaz": 5761,
      "ĠTeat": 5762,
      "Ġnikt": 5763,
      "Tak": 5764,
      "mara": 5765,
      "programowanie": 5766,
      "Mazowieckie": 5767,
      "borz": 5768,
      "ãĥ": 5769,
      "ÅĤasza": 5770,
      "ĠMinisterstwa": 5771,
      "Ġokolicach": 5772,
      "ĠfinaÅĤu": 5773,
      "ĠJaponii": 5774,
      "ÅĤgar": 5775,
      "Ġpewno": 5776,
      "Ġrzeczy": 5777,
      "ĠliczbÄĻ": 5778,
      "ĠszeÅĽÄĩ": 5779,
      "gatyw": 5780,
      "ĠzwierzÄħt": 5781,
      "ĠpieniÄħdze": 5782,
      "ĠIz": 5783,
      "Ġcharakter": 5784,
      "ĠWia": 5785,
      "anitar": 5786,
      "ĠPolicja": 5787,
      "ĠKowa": 5788,
      "ĠtytuÅĤ": 5789,
      "Wyniki": 5790,
      "Ġwybra": 5791,
      "ĠâĢľ": 5792,
      "Ġnigdy": 5793,
      "Ġklucz": 5794,
      "ĠwysÅĤ": 5795,
      "ĠTim": 5796,
      "ĠuczniÃ³w": 5797,
      "ĠnowÄħ": 5798,
      "gdan": 5799,
      "ĠporÃ³wna": 5800,
      "Ġepi": 5801,
      "ĠSpotkanie": 5802,
      "ZwiÄħzek": 5803,
      "ĠPolsat": 5804,
      "Ġkraje": 5805,
      "olot": 5806,
      "57": 5807,
      "zywaÄĩ": 5808,
      "Si": 5809,
      "nier": 5810,
      "ĠFu": 5811,
      "ĠkaÅ¼dego": 5812,
      "Ġrea": 5813,
      "Ġniemal": 5814,
      "Ð½": 5815,
      "Ġdobry": 5816,
      "Ġjakby": 5817,
      "Ġmechani": 5818,
      "ĠbiorÄħ": 5819,
      "niaÅĤ": 5820,
      "Ġwiedzy": 5821,
      "Ġtechnologii": 5822,
      "tosz": 5823,
      "bara": 5824,
      "Tomasz": 5825,
      "Wal": 5826,
      "Ġpostaci": 5827,
      "Ġwido": 5828,
      "jsce": 5829,
      "etro": 5830,
      "ĠpokÅĤadzie": 5831,
      "niec": 5832,
      "ĠAustra": 5833,
      "Film": 5834,
      "Ġjestem": 5835,
      "Ġkolarzy": 5836,
      "dziaÅĤy": 5837,
      "Ġniewiel": 5838,
      "Ġrakiet": 5839,
      "Ġbiz": 5840,
      "Ġdrugiego": 5841,
      "kujÄħ": 5842,
      "ĠwspÃ³lnie": 5843,
      "niÅĤa": 5844,
      "Ġwojska": 5845,
      "ponia": 5846,
      "ĠBÄĻdzie": 5847,
      "Ġformie": 5848,
      "lend": 5849,
      "ĠpoinformowaÅĤo": 5850,
      "Ġopowie": 5851,
      "inÄħÅĤ": 5852,
      "podlegÅĤoÅĽci": 5853,
      "Ek": 5854,
      "SondaÅ¼e": 5855,
      "ts": 5856,
      "Go": 5857,
      "Ġwysy": 5858,
      "Organiza": 5859,
      "BC": 5860,
      "ĠPor": 5861,
      "Ġnagro": 5862,
      "Ġosobi": 5863,
      "cina": 5864,
      "Ġnielega": 5865,
      "nopol": 5866,
      "Telewizja": 5867,
      "ĠBus": 5868,
      "Ġwersja": 5869,
      "ĠudostÄĻpnia": 5870,
      "ĠObrony": 5871,
      "Ġprodukcji": 5872,
      "ĠprzepisÃ³w": 5873,
      "ĠdokumentÃ³w": 5874,
      "ĠFin": 5875,
      "ĠGrand": 5876,
      "FotoreportaÅ¼e": 5877,
      "niejszych": 5878,
      "ĠMarszaÅĤ": 5879,
      "ĠWschÃ³d": 5880,
      "ĠIzraela": 5881,
      "Ġlau": 5882,
      "niosÅĤo": 5883,
      "Ġgdyby": 5884,
      "piÅĤka": 5885,
      "Se": 5886,
      "ĠMinistrÃ³w": 5887,
      "piÄĻ": 5888,
      "Ġfundu": 5889,
      "Ġpoinformowano": 5890,
      "asi": 5891,
      "ĠtrwajÄħ": 5892,
      "miera": 5893,
      "dgo": 5894,
      "ach": 5895,
      "Ġscena": 5896,
      "jo": 5897,
      "Ġszpitalu": 5898,
      "dzanie": 5899,
      "ĠMaÅĤgorza": 5900,
      "Ġprzestrzeni": 5901,
      "nom": 5902,
      "WrocÅĤaw": 5903,
      "Ġbomb": 5904,
      "Cie": 5905,
      "kwi": 5906,
      "ĠmateriaÅĤy": 5907,
      "ĠpomysÅĤ": 5908,
      "51": 5909,
      "58": 5910,
      "czba": 5911,
      "czasem": 5912,
      "ĠUS": 5913,
      "ont": 5914,
      "Ġuzysk": 5915,
      "Ġwyborczej": 5916,
      "Ġzmienia": 5917,
      "ÅĤaszcza": 5918,
      "Ġkonstruk": 5919,
      "ĠPaÅĤa": 5920,
      "stracja": 5921,
      "ÅĤoÅĽÄĩ": 5922,
      "ilka": 5923,
      "ĠspotkaÅĦ": 5924,
      "ley": 5925,
      "%)": 5926,
      "Ġdw": 5927,
      "ĠNews": 5928,
      "Ġobraz": 5929,
      "Ġmaksy": 5930,
      "emu": 5931,
      "Ġpyta": 5932,
      "Ġwolontar": 5933,
      "ĠMis": 5934,
      "Ġprowadzone": 5935,
      "ĠczoÅĤ": 5936,
      "ĠtydzieÅĦ": 5937,
      "ĠfilmÃ³w": 5938,
      "Å¼na": 5939,
      "Ġpotrwa": 5940,
      "ĠWyborcza": 5941,
      "ĠPowie": 5942,
      "dujÄħ": 5943,
      "orze": 5944,
      "dom": 5945,
      "nastu": 5946,
      "ĠFestiwal": 5947,
      "szli": 5948,
      "Ġekonomi": 5949,
      "ĠJarosÅĤawa": 5950,
      "ĠszczegÃ³ÅĤ": 5951,
      "Ġinicjatywy": 5952,
      "ĠwspÃ³ÅĤczes": 5953,
      "dimir": 5954,
      "Ġalkoholu": 5955,
      "Ġks": 5956,
      "ulary": 5957,
      "Ġ44": 5958,
      "Ġpakista": 5959,
      "ĠmusiaÅĤ": 5960,
      "ĠwynikÃ³w": 5961,
      "ĠPau": 5962,
      "dzki": 5963,
      "Ġsamej": 5964,
      "rzeÄĩ": 5965,
      "Ġskon": 5966,
      "ĠTelewi": 5967,
      "Ġucz": 5968,
      "ĠzÅĤa": 5969,
      "lety": 5970,
      "ĠZiobro": 5971,
      "cs": 5972,
      "ĠpÅĤyta": 5973,
      "Ġkolarze": 5974,
      "Bli": 5975,
      "ĠUrzÄĻdu": 5976,
      "Ġmode": 5977,
      "ĠgÅĤÃ³wnej": 5978,
      "ĠTen": 5979,
      "ĠOch": 5980,
      "Ġskaz": 5981,
      "Ġmiejscach": 5982,
      "Ġbrz": 5983,
      "ĠKali": 5984,
      "Cze": 5985,
      "Ġraport": 5986,
      "ĠczÅĤonkowie": 5987,
      "Ġkatastrofy": 5988,
      "ĠAng": 5989,
      "Oprogramowanie": 5990,
      "ĠSzwajcar": 5991,
      "Ġsamolotu": 5992,
      "Ġutworz": 5993,
      "kowego": 5994,
      "Ġsiedmi": 5995,
      "Ġwicemi": 5996,
      "dania": 5997,
      "czoÅĽci": 5998,
      "ĠCza": 5999,
      "ciaÅ¼": 6000,
      "Ġzezna": 6001,
      "ĠskrzyÅ¼": 6002,
      "die": 6003,
      "ĠJakub": 6004,
      "Ġrozmowie": 6005,
      "Lin": 6006,
      "Ġ48": 6007,
      "prasza": 6008,
      "EN": 6009,
      "ĠMSZ": 6010,
      "pÃ³w": 6011,
      "ciele": 6012,
      "zÃ³w": 6013,
      "Ġwarunki": 6014,
      "Ġdyploma": 6015,
      "ĠfinaÅĤ": 6016,
      "Ã³Å¼": 6017,
      "Ġzrezygn": 6018,
      "ÅĽlÄĻ": 6019,
      "Ġ[": 6020,
      "Ġregionie": 6021,
      "54": 6022,
      "ĠszkÃ³ÅĤ": 6023,
      "Ġposzkod": 6024,
      "ĠÅ¼ywo": 6025,
      "ĠAgencja": 6026,
      "Ġkary": 6027,
      "Ġpocho": 6028,
      "rukse": 6029,
      "ĠSpe": 6030,
      "Piot": 6031,
      "Ġodcinek": 6032,
      "anka": 6033,
      "Ġinwestycji": 6034,
      "niony": 6035,
      "onalne": 6036,
      "Ġdia": 6037,
      "ĠIPN": 6038,
      "ĠPomo": 6039,
      "ĠbudÅ¼et": 6040,
      "ĠPZ": 6041,
      "ĠMacie": 6042,
      "ĠzachÄĻ": 6043,
      "Ġinternetowych": 6044,
      "ÅĦsko": 6045,
      "ik": 6046,
      "Ġczytel": 6047,
      "Ġcyklu": 6048,
      "czech": 6049,
      "Ġzmianie": 6050,
      "Ġile": 6051,
      "Ġchcia": 6052,
      "Ġostatniego": 6053,
      "czÄħÄĩ": 6054,
      "Ġ46": 6055,
      "Ġzwyk": 6056,
      "bot": 6057,
      "ĠsprzedaÅ¼y": 6058,
      "Technika": 6059,
      "SÄħd": 6060,
      "Ġgrafi": 6061,
      "Ġwalk": 6062,
      "ĠAg": 6063,
      "Tu": 6064,
      "ĠdÅº": 6065,
      "ĠAndre": 6066,
      "ZÅĤo": 6067,
      "wiecki": 6068,
      "AC": 6069,
      "Protesty": 6070,
      "Ġzachodni": 6071,
      "ĠzakaÅ¼enia": 6072,
      "kÅĤady": 6073,
      "letniego": 6074,
      "Ġzajmuje": 6075,
      "ĠzaznaczyÅĤ": 6076,
      "Ġwnio": 6077,
      "Ġprzepisy": 6078,
      "Ġadministracji": 6079,
      "reg": 6080,
      "ĠpodaÅĤa": 6081,
      "ĠKatarzyna": 6082,
      "rakiet": 6083,
      "Ġzauf": 6084,
      "skry": 6085,
      "iszpa": 6086,
      "Koncerty": 6087,
      "Ġaktu": 6088,
      "Ġspodzie": 6089,
      "tali": 6090,
      "prawidÅĤ": 6091,
      "nieÅĽÄĩ": 6092,
      "ĠKonferen": 6093,
      "Nowa": 6094,
      "Ġczu": 6095,
      "ĠstanowiÄħ": 6096,
      "Ġuzasad": 6097,
      "ĠZÅĤo": 6098,
      "ĠjakoÅĽci": 6099,
      "ĠsÅĤ": 6100,
      "lane": 6101,
      "Ġprzypomina": 6102,
      "Ġkopa": 6103,
      "Ġmandat": 6104,
      "ĠZo": 6105,
      "IA": 6106,
      "ĠGazeta": 6107,
      "Ġx": 6108,
      "ĠbramkÄĻ": 6109,
      "Ġhandl": 6110,
      "Ġpozostaje": 6111,
      "Ġwyborczych": 6112,
      "ĠStan": 6113,
      "Ġpartie": 6114,
      "Ġsztuki": 6115,
      "chaÄĩ": 6116,
      "ĠprzesÅĤuch": 6117,
      "Ġdot": 6118,
      "ĠposzczegÃ³l": 6119,
      "ĠpielÄĻgnia": 6120,
      "Ġdora": 6121,
      "ĠporzÄħd": 6122,
      "Wojsko": 6123,
      "Ser": 6124,
      "miu": 6125,
      "ĠwojewÃ³dztwie": 6126,
      "Ġkwali": 6127,
      "Ġwizyty": 6128,
      "ĠIm": 6129,
      "ĠBenedy": 6130,
      "Ġpodpisa": 6131,
      "Ġwikipedy": 6132,
      "nawia": 6133,
      "Zgodnie": 6134,
      "ĠMariusz": 6135,
      "ion": 6136,
      "cyzja": 6137,
      "ĠhaseÅĤ": 6138,
      "ĠSÅĤuÅ¼": 6139,
      "Ġwarsztaty": 6140,
      "Ġpublikacji": 6141,
      "Ġobywate": 6142,
      "Ġoprogram": 6143,
      "ffi": 6144,
      "ĠIr": 6145,
      "Mist": 6146,
      "Ġhu": 6147,
      "Ġpolitycznej": 6148,
      "Ġuchwa": 6149,
      "Ġnegatyw": 6150,
      "Ġskier": 6151,
      "Ġostate": 6152,
      "ĠSztu": 6153,
      "ĠmateriaÅĤÃ³w": 6154,
      "ĠInstytutu": 6155,
      "Ġgazu": 6156,
      "ĠJÃ³zef": 6157,
      "ĠNiemczech": 6158,
      "56": 6159,
      "ĠVa": 6160,
      "Ġgola": 6161,
      "orwa": 6162,
      "ĠLektury": 6163,
      "ĠwysÅĤa": 6164,
      "Ġdruga": 6165,
      "ĠgÅĤÄĻ": 6166,
      "Ġparlamentarnych": 6167,
      "ĠRodzi": 6168,
      "ĠRafaÅĤ": 6169,
      "Ġkibi": 6170,
      "ĠPary": 6171,
      "szoÅĽÄĩ": 6172,
      "Ġpromu": 6173,
      "Ġpodobnie": 6174,
      "Ã¤": 6175,
      "Ġkontrol": 6176,
      "Ġrejonie": 6177,
      "czkÄĻ": 6178,
      "Ġostatnie": 6179,
      "Ġokaz": 6180,
      "Ġsiedem": 6181,
      "ĠsÅĤy": 6182,
      "cjon": 6183,
      "Ġzanie": 6184,
      "kta": 6185,
      "Ġpochodzi": 6186,
      "ĠEurope": 6187,
      "ÅĤawomir": 6188,
      "ĠJose": 6189,
      "IT": 6190,
      "ĠRodzin": 6191,
      "ĠGiro": 6192,
      "Polonia": 6193,
      "Ġustaw": 6194,
      "Ġtransport": 6195,
      "ĠgÅĤosowanie": 6196,
      "Ġkara": 6197,
      "Ġakcja": 6198,
      "ĠÅ¼a": 6199,
      "lecia": 6200,
      "Ġatrak": 6201,
      "ĠDavid": 6202,
      "Ġzdo": 6203,
      "ĠSÅĤo": 6204,
      "ĠpolicjÄĻ": 6205,
      "ĠBas": 6206,
      "ĠWyborczej": 6207,
      "Ġdyskusji": 6208,
      "ĠSeba": 6209,
      "hu": 6210,
      "ĠmyÅĽli": 6211,
      "Ġprzewidzia": 6212,
      "ĠpoÅĽredni": 6213,
      "Ġdocho": 6214,
      "nera": 6215,
      "wnÄħ": 6216,
      "Ġseria": 6217,
      "ĠobsÅĤugi": 6218,
      "ĠotrzymaÅĤa": 6219,
      "Ġpostu": 6220,
      "kowaÅĤ": 6221,
      "ĠBez": 6222,
      "Ġimprez": 6223,
      "Ġnaszym": 6224,
      "OM": 6225,
      "Ġwprowadzenie": 6226,
      "43": 6227,
      "ĠNorwe": 6228,
      "Ġobli": 6229,
      "Ġsygna": 6230,
      "Ġjazdy": 6231,
      "Ġwybi": 6232,
      "ĠokazaÅĤo": 6233,
      "Ġodcin": 6234,
      "Ġis": 6235,
      "stran": 6236,
      "ĠPom": 6237,
      "ĠpÄĻ": 6238,
      "lus": 6239,
      "ĠPracy": 6240,
      "Ġdosta": 6241,
      "ĠjakÄħ": 6242,
      "olarstwo": 6243,
      "Ġrealizacji": 6244,
      "ĠnieprawidÅĤ": 6245,
      "wnoÅĽci": 6246,
      "ĠSejmie": 6247,
      "ĠrzÄħdzÄħ": 6248,
      "wienie": 6249,
      "Ġsch": 6250,
      "ĠodbywaÄĩ": 6251,
      "ĠposÅĤa": 6252,
      "ĠJej": 6253,
      "Ġ2001": 6254,
      "har": 6255,
      "Funda": 6256,
      "Ġdostaw": 6257,
      "Ġlewi": 6258,
      "77": 6259,
      "ĠredaktorÃ³w": 6260,
      "czajÄħ": 6261,
      "Ġplacu": 6262,
      "nikami": 6263,
      "ĠwykÅĤad": 6264,
      "ĠliczyÄĩ": 6265,
      "Ġgeneralnej": 6266,
      "ĠTom": 6267,
      "ĠdruÅ¼yn": 6268,
      "Ha": 6269,
      "ult": 6270,
      "isiaj": 6271,
      "Ġjednostki": 6272,
      "Ġkurs": 6273,
      "letnia": 6274,
      "godni": 6275,
      "ĠOrganiza": 6276,
      "festa": 6277,
      "rodzenia": 6278,
      "Ġmetra": 6279,
      "rzeniu": 6280,
      "ĠWsp": 6281,
      "logu": 6282,
      "ĠÅ¼yciu": 6283,
      "ĠUnia": 6284,
      "ĠogÃ³le": 6285,
      "zupeÅĤ": 6286,
      "ĠkilkanaÅĽcie": 6287,
      "Ġnowa": 6288,
      "Ġstawia": 6289,
      "Ġprawi": 6290,
      "Ġpozbawienia": 6291,
      "ĠgodzinÄĻ": 6292,
      "Ġmiliona": 6293,
      "Ġchroni": 6294,
      "SP": 6295,
      "Ġrozpoczyna": 6296,
      "ĠÅĤadu": 6297,
      "ĠznalazÅĤy": 6298,
      "Ġstraci": 6299,
      "Piotr": 6300,
      "Ġfestiwale": 6301,
      "lewski": 6302,
      "ĠNajlep": 6303,
      "kiewicza": 6304,
      "Ġpowietrz": 6305,
      "pital": 6306,
      "Ġlokalnych": 6307,
      "Ġnies": 6308,
      "ÅļwiÄĻ": 6309,
      "ĠNajwyÅ¼": 6310,
      "dane": 6311,
      "szymi": 6312,
      "Part": 6313,
      "ĠGil": 6314,
      "Ġpowinno": 6315,
      "Ġzauwa": 6316,
      "ĠNowy": 6317,
      "Rynek": 6318,
      "sÅĤugu": 6319,
      "ĠPolskÄĻ": 6320,
      "ÅĽniu": 6321,
      "nij": 6322,
      "ĠAna": 6323,
      "42": 6324,
      "Ġpotrzeby": 6325,
      "99": 6326,
      "Ġfestiwal": 6327,
      "jeÅºdzie": 6328,
      "Ġwiru": 6329,
      "Ġagencji": 6330,
      "Ġduchow": 6331,
      "Ġuruch": 6332,
      "Ġzbli": 6333,
      "ĠInternet": 6334,
      "ĠNawrocki": 6335,
      "Ġrozstrzy": 6336,
      "Ġsymbo": 6337,
      "rektora": 6338,
      "ksztaÅĤ": 6339,
      "ĠRadzie": 6340,
      "ĠByÅĤ": 6341,
      "Ġkrzy": 6342,
      "02": 6343,
      "Ġrodzaju": 6344,
      "ĠoprÃ³cz": 6345,
      "ĠKazimierz": 6346,
      "start": 6347,
      "Ġlokalnego": 6348,
      "ĠAudio": 6349,
      "ĠKli": 6350,
      "stanowie": 6351,
      "para": 6352,
      "Ġ2016": 6353,
      "put": 6354,
      "ĠBru": 6355,
      "Ġklasy": 6356,
      "ĠsamobÃ³j": 6357,
      "Ġnapa": 6358,
      "Ġutra": 6359,
      "ĠCBA": 6360,
      "enezu": 6361,
      "decyd": 6362,
      "ĠwrzeÅĽniu": 6363,
      "des": 6364,
      "wod": 6365,
      "irma": 6366,
      "ĠVal": 6367,
      "Ġpopiera": 6368,
      "ĠpostÄĻpowania": 6369,
      ");": 6370,
      "Ġsejm": 6371,
      "Ġabs": 6372,
      "ĠnagrodÄĻ": 6373,
      "ĠzakÅĤada": 6374,
      "Ġinternau": 6375,
      "Osta": 6376,
      "tyki": 6377,
      "Ġprofes": 6378,
      "ĠiloÅĽci": 6379,
      "ĠNag": 6380,
      "ĠBiel": 6381,
      "tatu": 6382,
      "ĠuderzyÅĤ": 6383,
      "ĠAd": 6384,
      "Ġpotrafi": 6385,
      "que": 6386,
      "ĠGazy": 6387,
      "Ġtransportu": 6388,
      "Ġjakim": 6389,
      "styczny": 6390,
      "ĠChri": 6391,
      "Å¼bie": 6392,
      "dzonego": 6393,
      "ĠoÅĽwiadczenie": 6394,
      "mÄħ": 6395,
      "ĠAkademii": 6396,
      "ward": 6397,
      "Ġdelega": 6398,
      "rÃ³g": 6399,
      "ĠuznaÅĤ": 6400,
      "ĠDariusz": 6401,
      "liam": 6402,
      "ĠOpera": 6403,
      "ÅĤonek": 6404,
      "ĠdrugÄħ": 6405,
      "derni": 6406,
      "ĠÅĤo": 6407,
      "Ġzag": 6408,
      "Ġpowinni": 6409,
      "Ġczar": 6410,
      "Ġopa": 6411,
      "Ġkre": 6412,
      "ĠwyniosÅĤa": 6413,
      "ĠIgrzy": 6414,
      "Ġwsparcia": 6415,
      "Ġrzeczywi": 6416,
      "ĠGrupa": 6417,
      "Ġodnale": 6418,
      "ĠtysiÄħce": 6419,
      "nic": 6420,
      "ĠstaÅĤ": 6421,
      "ĠOgÃ³l": 6422,
      "koj": 6423,
      "Ġjapo": 6424,
      "Ġmistrzostw": 6425,
      "Trze": 6426,
      "ĠFaceboo": 6427,
      "ĠDzieÅĦ": 6428,
      "ĠdoÅĽÄĩ": 6429,
      "towice": 6430,
      "ĠkÄħ": 6431,
      "ĠnajbliÅ¼szych": 6432,
      "Ġdofinans": 6433,
      "owice": 6434,
      "Ġpowierzchni": 6435,
      "pach": 6436,
      "ĠcaÅĤÄħ": 6437,
      "sun": 6438,
      "ĠMateusz": 6439,
      "Video": 6440,
      "Centrum": 6441,
      "Ġprom": 6442,
      "ĠszeÅĽciu": 6443,
      "Ġtrener": 6444,
      "Ġwskaza": 6445,
      "Ġobok": 6446,
      "Ġopusz": 6447,
      "Ġrezy": 6448,
      "Ġremon": 6449,
      "wolu": 6450,
      "CZ": 6451,
      "ĠGruzji": 6452,
      "Robert": 6453,
      "ĠZdaniem": 6454,
      "Ġdaje": 6455,
      "86": 6456,
      "Ġzara": 6457,
      "rwi": 6458,
      "ĠoczywiÅĽcie": 6459,
      "ĠCam": 6460,
      "ĠpozycjÄĻ": 6461,
      "Ġkomunikacji": 6462,
      "ĠKarol": 6463,
      "chÃ³w": 6464,
      "ĠmÅĤodych": 6465,
      "Ġdziennikar": 6466,
      "Ġtest": 6467,
      "anuel": 6468,
      "Ġzwol": 6469,
      "Ã³c": 6470,
      "ĠzdobyÅĤa": 6471,
      "ĠFunduszu": 6472,
      "pla": 6473,
      "ĠPortuga": 6474,
      "Fundacja": 6475,
      "Ġskorzy": 6476,
      "Ġkarie": 6477,
      "roczy": 6478,
      "Bi": 6479,
      "ĠspoÅĤecznych": 6480,
      "ĠFedera": 6481,
      "ĠProgram": 6482,
      "Ġfunkcjonariuszy": 6483,
      "Ġstatek": 6484,
      "isa": 6485,
      "ĠBal": 6486,
      "Ġbraku": 6487,
      "ĠfinansÃ³w": 6488,
      "Ġdra": 6489,
      "liÅĦski": 6490,
      "Ġorg": 6491,
      "Ġcodzien": 6492,
      "ĠPeter": 6493,
      "Ġkandydata": 6494,
      "ĠNowym": 6495,
      "stok": 6496,
      "Ġsezonu": 6497,
      "Ġ65": 6498,
      "ĠwygÅĤo": 6499,
      "Ġniezwyk": 6500,
      "Ġinnym": 6501,
      "Ġprotest": 6502,
      "For": 6503,
      "Ġzabitych": 6504,
      "ĠzÅĤoÅ¼yÅĤa": 6505,
      "Bliski": 6506,
      "78": 6507,
      "ĠzwÅĤaszcza": 6508,
      "Ġludz": 6509,
      "Ġakty": 6510,
      "ST": 6511,
      "Ġhonor": 6512,
      "bora": 6513,
      "ĠUkrainie": 6514,
      "ĠJako": 6515,
      "ĠsÅĤa": 6516,
      "Ġpokaza": 6517,
      "ine": 6518,
      "Ġseksu": 6519,
      "Ġnume": 6520,
      "con": 6521,
      "Ġweek": 6522,
      "jki": 6523,
      "Ġskute": 6524,
      "Ġpowszech": 6525,
      "demar": 6526,
      "ET": 6527,
      "ĠwyborcÃ³w": 6528,
      "ĠAmeryk": 6529,
      "chodniej": 6530,
      "ĠstaÅĤo": 6531,
      "Ġkonkursie": 6532,
      "viÄĩ": 6533,
      "Ġgrudniu": 6534,
      "ĠartykuÅĤy": 6535,
      "ĠwzglÄĻdem": 6536,
      "shi": 6537,
      "rtual": 6538,
      "Ġsprin": 6539,
      "Ġzmu": 6540,
      "Ġskierowa": 6541,
      "pp": 6542,
      "stycznego": 6543,
      "ĠAnge": 6544,
      "Ġplanuje": 6545,
      "szcie": 6546,
      "Ġpolitycy": 6547,
      "stwem": 6548,
      "Ġinteg": 6549,
      "Ġproblemu": 6550,
      "Ġkomp": 6551,
      "ĠVan": 6552,
      "ĠNobla": 6553,
      "ĠtuÅ¼": 6554,
      "Ġtele": 6555,
      "Ġupad": 6556,
      "Ġmety": 6557,
      "ĠTeraz": 6558,
      "Ġwywiadzie": 6559,
      "ĠKwaÅĽniewski": 6560,
      "ĠjesteÅĽmy": 6561,
      "jemy": 6562,
      "ĠrozpoczÄĻÅĤy": 6563,
      "ĠBrukse": 6564,
      "Ġszac": 6565,
      "ĠsprawÄħ": 6566,
      "ligia": 6567,
      "ĠFl": 6568,
      "Ġbada": 6569,
      "Ġszta": 6570,
      "pieÅĦ": 6571,
      "Ġburmi": 6572,
      "ĠwydaÅĤ": 6573,
      "ĠpÅĤo": 6574,
      "sek": 6575,
      "Ġscenie": 6576,
      "03": 6577,
      "ĠgÅĤ": 6578,
      "ĠSzwe": 6579,
      "Ġopowiada": 6580,
      "omoseksu": 6581,
      "ĠProducentÃ³w": 6582,
      "ĠGeorge": 6583,
      "ĠskoÅĦ": 6584,
      "ĠszczÄĻ": 6585,
      "Ġprzypadkach": 6586,
      "ÑĤ": 6587,
      "IP": 6588,
      "Ġkoor": 6589,
      "Ġdemokraty": 6590,
      "dziel": 6591,
      "ĠartykuÅĤ": 6592,
      "Ġotwarcia": 6593,
      "Ġprawem": 6594,
      "ĠKobie": 6595,
      "Ġinfrastruktury": 6596,
      "ĠpodjÄħÅĤ": 6597,
      "szÅĤy": 6598,
      "Ġkontrow": 6599,
      "ĠzapÅĤa": 6600,
      "ĠEwa": 6601,
      "kali": 6602,
      "Ġistnieje": 6603,
      "41": 6604,
      "ĠPas": 6605,
      "stralia": 6606,
      "ĠRich": 6607,
      "ÅļlÄħskie": 6608,
      "Ġlitera": 6609,
      "ĠMedia": 6610,
      "ĠmogÅĤa": 6611,
      "ĠTer": 6612,
      "Ġwycie": 6613,
      "ĠBur": 6614,
      "AL": 6615,
      "Ġautobu": 6616,
      "illa": 6617,
      "Ġoku": 6618,
      "ĠIch": 6619,
      "ĠPrix": 6620,
      "ĠmiesiÄħce": 6621,
      "Ġlekarzy": 6622,
      "dio": 6623,
      "ĠGeneral": 6624,
      "Ġpodsum": 6625,
      "lla": 6626,
      "Ġhi": 6627,
      "Mistrzo": 6628,
      "ĠjÄĻzyka": 6629,
      "IV": 6630,
      "siÄħÅ¼": 6631,
      "rack": 6632,
      "Ġwywiad": 6633,
      "ĠusÅĤy": 6634,
      "ĠspoÅĽrÃ³d": 6635,
      "Ġmocy": 6636,
      "ujÄħcych": 6637,
      "ĠwspÃ³ÅĤpracÄĻ": 6638,
      "Ġniedo": 6639,
      "ĠzakoÅĦczenie": 6640,
      "ĠRober": 6641,
      "ĠuwzglÄĻ": 6642,
      "Ġwyposa": 6643,
      "Ġ1000": 6644,
      "ĠYouTube": 6645,
      "skach": 6646,
      "ĠWojsk": 6647,
      "Mistrzostwa": 6648,
      "Ġbran": 6649,
      "Ġwprowadzenia": 6650,
      "Ġzaledwie": 6651,
      "cyklo": 6652,
      "ĠwyjaÅĽnie": 6653,
      "ĠNet": 6654,
      "Projekt": 6655,
      "ĠPaÅĦstwa": 6656,
      "Ġugrupowania": 6657,
      "ĠSport": 6658,
      "ĠmaÅĤo": 6659,
      "ĠKupa": 6660,
      "ĠpolicjantÃ³w": 6661,
      "szeÅĦ": 6662,
      "Ne": 6663,
      "ĠpojazdÃ³w": 6664,
      "ĠobowiÄħ": 6665,
      "Katowice": 6666,
      "ĠSos": 6667,
      "tnego": 6668,
      "nka": 6669,
      "Ġzjawi": 6670,
      "ĠBiaÅĤ": 6671,
      "ĠRyszard": 6672,
      "obÃ³w": 6673,
      "Ġprzedstawiciel": 6674,
      "Ġmiastach": 6675,
      "Ġambasad": 6676,
      "Nowy": 6677,
      "Ġnajprawdopodobniej": 6678,
      "styna": 6679,
      "Ġoby": 6680,
      "ĠHoland": 6681,
      "strybu": 6682,
      "ĠLewand": 6683,
      "ĠdziesiÄħ": 6684,
      "ĠwyglÄħda": 6685,
      "Ġaf": 6686,
      "ÅĦczykÃ³w": 6687,
      "Astronau": 6688,
      "Ġpotwierdza": 6689,
      "Ġnowoczes": 6690,
      "ĠsÄĻdzia": 6691,
      "Ġprocesu": 6692,
      "gÅĤos": 6693,
      "Ġincyd": 6694,
      "ĠOprÃ³cz": 6695,
      "iach": 6696,
      "ĠgÅĤÃ³wnym": 6697,
      "mann": 6698,
      "lera": 6699,
      "Ġstadi": 6700,
      "Ġzwolen": 6701,
      "Ġantyrakiet": 6702,
      "ĠRozwoju": 6703,
      "ĠSenatu": 6704,
      "ĠGrze": 6705,
      "lonych": 6706,
      "ĠZbro": 6707,
      "ÅĽciami": 6708,
      "Ġzba": 6709,
      "Ġwystaw": 6710,
      "Ġreklam": 6711,
      "szyb": 6712,
      "http": 6713,
      "dows": 6714,
      "52": 6715,
      "Ġnieza": 6716,
      "cyna": 6717,
      "Ġkandydat": 6718,
      "ĠoÅĽwiadczeniu": 6719,
      "tow": 6720,
      "Ġ42": 6721,
      "czaÄĩ": 6722,
      "70": 6723,
      "anÄħ": 6724,
      "ĠPremier": 6725,
      "ĠLublinie": 6726,
      "ĠVo": 6727,
      "Ġwystart": 6728,
      "ĠposzczegÃ³lnych": 6729,
      "Ġosiem": 6730,
      "Ġprawne": 6731,
      "Ġzeb": 6732,
      "Ġczele": 6733,
      "ĠwaÅ¼ne": 6734,
      "owisk": 6735,
      "ÅĽmie": 6736,
      "wyczaj": 6737,
      "fera": 6738,
      "ĠzakoÅĦczyÅĤa": 6739,
      "Ġkomi": 6740,
      "Ġniezna": 6741,
      "Ġprzypom": 6742,
      "ĠChar": 6743,
      "ĠzwierzÄĻ": 6744,
      "Ġkolejki": 6745,
      "Ġstanowisku": 6746,
      "Ġzasady": 6747,
      "Ġotwarcie": 6748,
      "leniu": 6749,
      "Ġpracownicy": 6750,
      "Ġznajdzie": 6751,
      "Ġwskazuje": 6752,
      "ĠJam": 6753,
      "Ġrela": 6754,
      "Ġbazy": 6755,
      "Ġorganizatorzy": 6756,
      "ĠzaczÄħÅĤ": 6757,
      "ĠkaÅ¼dym": 6758,
      "ĠWaÅĤÄĻsa": 6759,
      "blioteki": 6760,
      "ĠMad": 6761,
      "ĠSikorski": 6762,
      "Ġ49": 6763,
      "ĠDaniel": 6764,
      "ÄĻd": 6765,
      "Ġskle": 6766,
      "ĠPolskÄħ": 6767,
      "ĠartykuÅĤu": 6768,
      "Ġczasem": 6769,
      "Ġà®": 6770,
      "czanie": 6771,
      "ĠuzupeÅĤ": 6772,
      "Ġreg": 6773,
      "dla": 6774,
      "Ġzastrze": 6775,
      "ĠIzrael": 6776,
      "Ġtran": 6777,
      "Uni": 6778,
      "ĠprÃ³by": 6779,
      "ĠOchrony": 6780,
      "stych": 6781,
      "ĠzginÄħÅĤ": 6782,
      "rie": 6783,
      "ĠStanisÅĤawa": 6784,
      "Spotkanie": 6785,
      "Ġszanse": 6786,
      "Ġhum": 6787,
      "%).": 6788,
      "59": 6789,
      "Ġbe": 6790,
      "alnie": 6791,
      "ĠKubi": 6792,
      "ĠDor": 6793,
      "ĠEgip": 6794,
      "federacja": 6795,
      "Ġzle": 6796,
      "Ã³ÅĤnocy": 6797,
      "ĠKole": 6798,
      "Ġmarcu": 6799,
      "ĠRed": 6800,
      "ita": 6801,
      "Ġdemokra": 6802,
      "ĠtrzÄĻsie": 6803,
      "ĠÅĽwiÄħ": 6804,
      "ĠDlatego": 6805,
      "Religia": 6806,
      "ĠEdukacji": 6807,
      "Ġformu": 6808,
      "ĠznaczÄħ": 6809,
      "iz": 6810,
      "ĠBogdan": 6811,
      "Dar": 6812,
      "Ġtelewizyj": 6813,
      "jewÃ³dztwo": 6814,
      "ĠodlegÅĤo": 6815,
      "ĠÅĽmi": 6816,
      "Kolarstwo": 6817,
      "lues": 6818,
      "ĠzarzÄħdu": 6819,
      "Ġ99": 6820,
      "Ġwykry": 6821,
      "Ġzaczyna": 6822,
      "ĠpodpisaÅĤ": 6823,
      "Ġfla": 6824,
      "Izrael": 6825,
      "ĠCor": 6826,
      "ĠChorz": 6827,
      "ĠBud": 6828,
      "EL": 6829,
      "ÅĦstwa": 6830,
      "iaÅĤystok": 6831,
      "Ġatom": 6832,
      "bine": 6833,
      "ĠMicrosoft": 6834,
      "Ġono": 6835,
      "ĠBryty": 6836,
      "Ġwiem": 6837,
      "Ġkoszul": 6838,
      "ĠÅ»oliborz": 6839,
      "Ġparty": 6840,
      "Ġprzejrzane": 6841,
      "Ġwyboru": 6842,
      "ĠbezpoÅĽrednio": 6843,
      "Ġegza": 6844,
      "Ġgatu": 6845,
      "ĠpowstaÅĤ": 6846,
      "Ġdyrek": 6847,
      "ĠbezpieczeÅĦstwo": 6848,
      "ĠPodob": 6849,
      "Ġprawdzi": 6850,
      "Ġtras": 6851,
      "Ġzdrowo": 6852,
      "Ġziem": 6853,
      "Ġkierowcy": 6854,
      "lÃ³w": 6855,
      "Ġwsi": 6856,
      "ĠÃ": 6857,
      "Ġart": 6858,
      "Ġdi": 6859,
      "ownia": 6860,
      "ĠSÅĤ": 6861,
      "orld": 6862,
      "ĠGos": 6863,
      "Ñģ": 6864,
      "czonym": 6865,
      "ĠSystem": 6866,
      "ĠAgencji": 6867,
      "Ġanali": 6868,
      "Ġjesie": 6869,
      "ĠbyÅĤoby": 6870,
      "stej": 6871,
      "Ġpisze": 6872,
      "ukro": 6873,
      "atch": 6874,
      "ĠSyl": 6875,
      "yba": 6876,
      "ĠÅģom": 6877,
      "tive": 6878,
      "Ġbank": 6879,
      "Ġrozmowa": 6880,
      "Adam": 6881,
      "ĠDol": 6882,
      "ĠBogu": 6883,
      "spozycji": 6884,
      "ĠDiscovery": 6885,
      "ĠdziewiÄĻ": 6886,
      "La": 6887,
      "rzeÅĦ": 6888,
      "ĠÅĽrodki": 6889,
      "chodÅº": 6890,
      "Historia": 6891,
      "ĠprzeszÅĤo": 6892,
      "ĠDziedzi": 6893,
      "ĠTrybunaÅĤu": 6894,
      "ĠPlatforma": 6895,
      "rzeb": 6896,
      "rik": 6897,
      "Ġ75": 6898,
      "ĠNico": 6899,
      "Ġkonstytucji": 6900,
      "ĠLinux": 6901,
      "Ġpublik": 6902,
      "ĠpozarzÄħd": 6903,
      "ĠInterna": 6904,
      "zefa": 6905,
      "Ġbudow": 6906,
      "ĠDÄħ": 6907,
      "Ġtry": 6908,
      "Ġarmii": 6909,
      "Polskie": 6910,
      "ĠRadom": 6911,
      "opomor": 6912,
      "ĠFil": 6913,
      "tat": 6914,
      "ĠWiÄĻ": 6915,
      "Ġkolar": 6916,
      "ĠTele": 6917,
      "ĠBiura": 6918,
      "Ġnarodowej": 6919,
      "Ġbru": 6920,
      "WÅĽrÃ³d": 6921,
      "Ġrezygna": 6922,
      "dej": 6923,
      "stym": 6924,
      "ĠprzemÃ³wie": 6925,
      "zwo": 6926,
      "ĠspoÅĤeczeÅĦstwa": 6927,
      "ĠTrak": 6928,
      "ĠSoli": 6929,
      "ĠopÅĤa": 6930,
      "czeni": 6931,
      "ĠJul": 6932,
      "Ġzbud": 6933,
      "Ġwydany": 6934,
      "Afryka": 6935,
      "Astronautyka": 6936,
      "Chiny": 6937,
      "ĠDob": 6938,
      "ĠÅºrÃ³deÅĤ": 6939,
      "Ġ400": 6940,
      "Ġtrakt": 6941,
      "Ġpartner": 6942,
      "Ġres": 6943,
      "gazy": 6944,
      "Ġnaukowych": 6945,
      "ĠKlu": 6946,
      "ĠuÅĤat": 6947,
      "woje": 6948,
      "ĠInstytut": 6949,
      "tkowe": 6950,
      "biÅĤ": 6951,
      "ĠczÄĻÅĽciÄħ": 6952,
      "Ġstabi": 6953,
      "ĠprzewagÄĻ": 6954,
      "ĠOÅĽrod": 6955,
      "telity": 6956,
      "test": 6957,
      "BW": 6958,
      "ĠZy": 6959,
      "Ste": 6960,
      "Com": 6961,
      "Ġalterna": 6962,
      "styki": 6963,
      "ĠgÅĤosowaniu": 6964,
      "ĠtworzÄħ": 6965,
      "Ġstandar": 6966,
      "pres": 6967,
      "ĠdokÅĤadnie": 6968,
      "ĠJoanna": 6969,
      "Ġzrealiz": 6970,
      "ĠopÃ³Åº": 6971,
      "Ġhiszpa": 6972,
      "ĠczasÃ³w": 6973,
      "kingu": 6974,
      "ĠNoÅ¼nej": 6975,
      "ĠFe": 6976,
      "Ġhomoseksu": 6977,
      "Af": 6978,
      "Ġturze": 6979,
      "Ġnasze": 6980,
      "Zawodnik": 6981,
      "Ġpoprawi": 6982,
      "Ġdwor": 6983,
      "Ġposiedzenia": 6984,
      "nictwa": 6985,
      "stwach": 6986,
      "okra": 6987,
      "Ġmarki": 6988,
      "Ġotrzy": 6989,
      "ket": 6990,
      "Ġzmie": 6991,
      "ĠpapieÅ¼": 6992,
      "Ġczerwcu": 6993,
      "ĠJÃ³zefa": 6994,
      "ĠwidaÄĩ": 6995,
      "Ġdokumenty": 6996,
      "Ġgospodarki": 6997,
      "Ġinny": 6998,
      "ĠwspÃ³": 6999,
      "ning": 7000,
      "ĠAs": 7001,
      "ĠstraÅ¼a": 7002,
      "Ġwios": 7003,
      "Ġhttps": 7004,
      "ĠWazi": 7005,
      "cel": 7006,
      "Ġwynagro": 7007,
      "ÄĻdzia": 7008,
      "szyÅĤa": 7009,
      "ĠPamiÄĻ": 7010,
      "ĠLondynie": 7011,
      "cuje": 7012,
      "GÅĤÃ³w": 7013,
      "Ġpokazy": 7014,
      "Å¼eniem": 7015,
      "wskiej": 7016,
      "ĠprzyczynÄħ": 7017,
      "Ġznany": 7018,
      "prawia": 7019,
      "ander": 7020,
      "Lubli": 7021,
      "ĠTelewizji": 7022,
      "ĠPoÅĤudniowa": 7023,
      "ÅģÃ³dz": 7024,
      "tli": 7025,
      "ĠPÃ³ÅĤnocnej": 7026,
      "dzaÄĩ": 7027,
      "mali": 7028,
      "ĠtrochÄĻ": 7029,
      "Ġmateria": 7030,
      "rekwencja": 7031,
      "ersje": 7032,
      "Ġliczne": 7033,
      "tnoÅĽci": 7034,
      "Ġdziedzinie": 7035,
      "Ġprojekty": 7036,
      "Ġwin": 7037,
      "tuÅĤ": 7038,
      "ban": 7039,
      "Ġ41": 7040,
      "Ġnajpierw": 7041,
      "ic": 7042,
      "Ġtempera": 7043,
      "strzÃ³w": 7044,
      "Ġnieco": 7045,
      "ĠÅ¼oÅĤnierze": 7046,
      "ĠPrzez": 7047,
      "ĠstraÅ¼": 7048,
      "niesienie": 7049,
      "Ġpropon": 7050,
      "ana": 7051,
      "ĠwkrÃ³tce": 7052,
      "gina": 7053,
      "puÅĽci": 7054,
      "ĠSpo": 7055,
      "PL": 7056,
      "Ġjas": 7057,
      "ĠMora": 7058,
      "ÅĦstwo": 7059,
      "wajÄħ": 7060,
      "jczyk": 7061,
      "demokra": 7062,
      "Liga": 7063,
      "Ġrosyjskich": 7064,
      "ĠCyber": 7065,
      "Sam": 7066,
      "wziÄĻ": 7067,
      "ĠpaÅºdzierniku": 7068,
      "Ġstru": 7069,
      "Ġorganizacja": 7070,
      "Ġprokuratura": 7071,
      "Ġobecny": 7072,
      "szczenie": 7073,
      "Ġprowadzenia": 7074,
      "ĠukazaÅĤ": 7075,
      "Ġnara": 7076,
      "ĠZas": 7077,
      "Ġodej": 7078,
      "ĠprÄĻdkoÅĽci": 7079,
      "Ġtygodnie": 7080,
      "ĠCzech": 7081,
      "ĠÅ¼adnego": 7082,
      "Ġset": 7083,
      "Ġgospoda": 7084,
      "mÄĻ": 7085,
      "Ġdol": 7086,
      "ĠKorei": 7087,
      "ĠpÅĤ": 7088,
      "ĠTrz": 7089,
      "ĠDia": 7090,
      "ĠwziÄħÄĩ": 7091,
      "Ġstyczniu": 7092,
      "ĠspoÅĤecznoÅĽciowych": 7093,
      "bach": 7094,
      "ĠWÅĤodzi": 7095,
      "lnoÅĽÄĩ": 7096,
      "cept": 7097,
      "led": 7098,
      "ĠniepeÅĤnospraw": 7099,
      "Ġdebaty": 7100,
      "ĠwyjaÅĽnia": 7101,
      "ĠokolicznoÅĽci": 7102,
      "Ġprzystanku": 7103,
      "ĠzapewniÅĤ": 7104,
      "strono": 7105,
      "wach": 7106,
      "Ġznane": 7107,
      "Ġ55": 7108,
      "ĠNor": 7109,
      "ĠRas": 7110,
      "stal": 7111,
      "Ġwywal": 7112,
      "zj": 7113,
      "Ġutrzym": 7114,
      "ĠduÅ¼Äħ": 7115,
      "Ġzasad": 7116,
      "Ġniemiecki": 7117,
      "Ġzebra": 7118,
      "szona": 7119,
      "ĠpodrÃ³": 7120,
      "fryzacji": 7121,
      "Ġobszarze": 7122,
      "ĠwyrÃ³w": 7123,
      "ĠpoÅĤowy": 7124,
      "eklar": 7125,
      "jny": 7126,
      "Ġlaurea": 7127,
      "ĠSoju": 7128,
      "ĠPolak": 7129,
      "Ġoprogramowania": 7130,
      "ĠÅģÄħ": 7131,
      "Ġofensy": 7132,
      "ĠPrac": 7133,
      "Gdy": 7134,
      "Lublin": 7135,
      "prost": 7136,
      "Tym": 7137,
      "Ġraczej": 7138,
      "'''": 7139,
      "Ġlud": 7140,
      "Ġpokoj": 7141,
      "ĠamerykaÅĦskiej": 7142,
      "Ġwykorzystanie": 7143,
      "Ġ2018": 7144,
      "Ġregionu": 7145,
      "ĠwiÄħ": 7146,
      "ĠÅĽmiertel": 7147,
      "ĠakcjÄĻ": 7148,
      "ĠurzÄħdzenia": 7149,
      "Ġwyrok": 7150,
      "Ġtworzenia": 7151,
      "tonie": 7152,
      "dziÄĻk": 7153,
      "Ġpowstanie": 7154,
      "ĠwarunkÃ³w": 7155,
      "Ġ120": 7156,
      "niach": 7157,
      "ĠAda": 7158,
      "czestnicy": 7159,
      "szeni": 7160,
      "Inter": 7161,
      "ĠFesti": 7162,
      "Ġzaraz": 7163,
      "79": 7164,
      "Ġnosi": 7165,
      "Kai": 7166,
      "matu": 7167,
      "Ġkorup": 7168,
      "ĠLewica": 7169,
      "latek": 7170,
      "zÄĻ": 7171,
      "waÅĤo": 7172,
      "Miejsce": 7173,
      "The": 7174,
      "rzami": 7175,
      "dali": 7176,
      "ker": 7177,
      "Op": 7178,
      "Ġwahad": 7179,
      "Ġstraty": 7180,
      "Ġnapisa": 7181,
      "Ġsesji": 7182,
      "NI": 7183,
      "ĠproÅĽ": 7184,
      "Dy": 7185,
      "Ġnatura": 7186,
      "Ġobrad": 7187,
      "ĠwyraziÅĤ": 7188,
      "ĠZaby": 7189,
      "sami": 7190,
      "ros": 7191,
      "chach": 7192,
      "ĠnaleÅ¼a": 7193,
      "miot": 7194,
      "ĠpoÅĤudnie": 7195,
      "ĠPiÅĤce": 7196,
      "Ġkatastro": 7197,
      "ĠÅĽpie": 7198,
      "ĠÅ¼yje": 7199,
      "Ġmandaty": 7200,
      "kel": 7201,
      "ĠWaziri": 7202,
      "Ġrozstrzyg": 7203,
      "Ġkompozy": 7204,
      "techni": 7205,
      "ĠspÄĻ": 7206,
      "strady": 7207,
      "post": 7208,
      "Ġspek": 7209,
      "ĠBan": 7210,
      "ĠLesz": 7211,
      "Dla": 7212,
      "mami": 7213,
      "ÄħdÅº": 7214,
      "wodniczÄħcy": 7215,
      "Ġdystrybu": 7216,
      "ĠDuda": 7217,
      "ĠIV": 7218,
      "ĠChin": 7219,
      "remo": 7220,
      "ĠgÅĤÄĻbo": 7221,
      "Ġpolityczne": 7222,
      "ĠPet": 7223,
      "Ġrozwija": 7224,
      "ĠKrzyszto": 7225,
      "Ġsali": 7226,
      "Ġmusie": 7227,
      "ÅĽciem": 7228,
      "jewski": 7229,
      "ĠpÃ³ÅĤnocy": 7230,
      "Ġprzetar": 7231,
      "OP": 7232,
      "ĠzespoÅĤy": 7233,
      "Ġeuropejskich": 7234,
      "rodni": 7235,
      "Ġprzeczy": 7236,
      "Ġhab": 7237,
      "Ġolimpi": 7238,
      "ĠZwiÄħzek": 7239,
      "ĠJednoczeÅĽnie": 7240,
      "ĠoddziaÅĤ": 7241,
      "Kraj": 7242,
      "ĠnawiÄħz": 7243,
      "tychczas": 7244,
      "mira": 7245,
      "ĠprzedstawiÅĤ": 7246,
      "stron": 7247,
      "ĠSzczecin": 7248,
      "No": 7249,
      "ĠPomocy": 7250,
      "wajÄħc": 7251,
      "ĠAgnieszka": 7252,
      "Ġpremierem": 7253,
      "Szef": 7254,
      "Ġposiedzeniu": 7255,
      "ĠHiszpanii": 7256,
      "ĠokazaÅĤ": 7257,
      "pr": 7258,
      "igas": 7259,
      "Ġwymag": 7260,
      "Ġzwraca": 7261,
      "ĠpoÅĤowa": 7262,
      "Ġintensyw": 7263,
      "Ġpubliczne": 7264,
      "ĠdziaÅĤanie": 7265,
      "Ġzatwier": 7266,
      "waran": 7267,
      "ĠJagiel": 7268,
      "Ġbio": 7269,
      "Ã³z": 7270,
      "kraj": 7271,
      "sbur": 7272,
      "Ġregional": 7273,
      "Ġpsych": 7274,
      "Ġzaplanowano": 7275,
      "nÄĻÅĤy": 7276,
      "Sie": 7277,
      "Ġzamiast": 7278,
      "ĠToru": 7279,
      "ĠPoza": 7280,
      "ĠprzyszÅĤym": 7281,
      "Ġrocznicy": 7282,
      "ĠAh": 7283,
      "Ġzlo": 7284,
      "Ġstronach": 7285,
      "ĠzabÃ³j": 7286,
      "Ġdokumenta": 7287,
      "ĠniezbÄĻ": 7288,
      "ologiczne": 7289,
      "Ġaktywi": 7290,
      "ĠsamochodÃ³w": 7291,
      "ome": 7292,
      "ĠProjekt": 7293,
      "Ġfunkcjonariusze": 7294,
      "ĠMich": 7295,
      "Ġpowstania": 7296,
      "ĠaktywnoÅĽci": 7297,
      "Ġstosunku": 7298,
      "Ġzmiana": 7299,
      "czÄħc": 7300,
      "ĠRoku": 7301,
      "ĠatakÃ³w": 7302,
      "Ġliderem": 7303,
      "ĠÅĽwiÄĻta": 7304,
      "Å¡": 7305,
      "ĠTowarzy": 7306,
      "Ġwyszuki": 7307,
      "ĠusÅĤugi": 7308,
      "niosÅĤa": 7309,
      "Ġcent": 7310,
      "Ġkontek": 7311,
      "Ġpomaga": 7312,
      "ĠKrzysztofa": 7313,
      "iscy": 7314,
      "Ġwra": 7315,
      "omoÅĽci": 7316,
      "stami": 7317,
      "met": 7318,
      "ĠPKP": 7319,
      "Ġprofi": 7320,
      "Ġautorstwa": 7321,
      "Pos": 7322,
      "noro": 7323,
      "polity": 7324,
      "Ġpoch": 7325,
      "Ġpotrzebu": 7326,
      "Zdaniem": 7327,
      "ĠPÅĤo": 7328,
      "tkÄħ": 7329,
      "jak": 7330,
      "ĠAlex": 7331,
      "ĠHel": 7332,
      "Ġtrzecim": 7333,
      "czyÅĦski": 7334,
      "ĠiloÅĽÄĩ": 7335,
      "Natomiast": 7336,
      "nat": 7337,
      "Aleksand": 7338,
      "ĠÅºrÃ³dÅĤa": 7339,
      "obil": 7340,
      "ĠYa": 7341,
      "dziela": 7342,
      "Ġreligi": 7343,
      "strowa": 7344,
      "ĠpamiÄĻci": 7345,
      "ĠDodatkowo": 7346,
      "wnÄħtrz": 7347,
      "towych": 7348,
      "ĠwypeÅĤ": 7349,
      "Ġpolicjanci": 7350,
      "pier": 7351,
      "Ġporusza": 7352,
      "Ġdop": 7353,
      "ÅĤÄħd": 7354,
      "ziem": 7355,
      "ĠgÅĤosy": 7356,
      "dziesiÄħt": 7357,
      "ĠSpa": 7358,
      "ĠstudentÃ³w": 7359,
      "Ġdopusz": 7360,
      "ĠpokonaÅĤ": 7361,
      "Ġdzielnicy": 7362,
      "rzut": 7363,
      "ĠZgroma": 7364,
      "ĠRejonowy": 7365,
      "owskie": 7366,
      "Ġkonfliktu": 7367,
      "cono": 7368,
      "lili": 7369,
      "Ġsamochodem": 7370,
      "ĠspoÅĤecznej": 7371,
      "dzonym": 7372,
      "ĠPrezyden": 7373,
      "nice": 7374,
      "ĠprzyjÄĻcie": 7375,
      "kot": 7376,
      "ĠPozosta": 7377,
      "ĠWielkopol": 7378,
      "ĠmarszaÅĤka": 7379,
      "MichaÅĤ": 7380,
      "Rzecz": 7381,
      "bili": 7382,
      "ĠosiÄħgniÄĻ": 7383,
      "ĠChan": 7384,
      "ĠKomorowski": 7385,
      "Ġdecyzje": 7386,
      "nionym": 7387,
      "Ġzi": 7388,
      "Ġcharakterze": 7389,
      "ciela": 7390,
      "Ġprzewiduje": 7391,
      "Ġzyska": 7392,
      "Ġqu": 7393,
      "ĠpozostaÅĤych": 7394,
      "Ġniewy": 7395,
      "Ġmanifesta": 7396,
      "Ġszuka": 7397,
      "Ġoto": 7398,
      "toÅĽÄĩ": 7399,
      "ĠzespoÅĤÃ³w": 7400,
      "ĠSzczeci": 7401,
      "ĠWilliam": 7402,
      "wojewÃ³dztwo": 7403,
      "Ġwymieni": 7404,
      "ĠRadosÅĤaw": 7405,
      "chody": 7406,
      "Ce": 7407,
      "ĠFestiwalu": 7408,
      "kul": 7409,
      "Ġchcieli": 7410,
      "wica": 7411,
      "Ġnajlepszy": 7412,
      "ĠÅ»e": 7413,
      "ĠszÃ³": 7414,
      "obile": 7415,
      "Ġud": 7416,
      "ĠjakieÅĽ": 7417,
      "Ġtarczy": 7418,
      "Ġpunktu": 7419,
      "ĠczynnoÅĽci": 7420,
      "Ġcentral": 7421,
      "Ġstopni": 7422,
      "Ġlekko": 7423,
      "ĠUrzÄħd": 7424,
      "Ġmetro": 7425,
      "Ġdyrektora": 7426,
      "Ġwojskowych": 7427,
      "ĠzbiÃ³r": 7428,
      "ĠPutin": 7429,
      "ranych": 7430,
      "ĠUkrainÄĻ": 7431,
      "Ġokolicy": 7432,
      "Ġstaw": 7433,
      "ĠpomÃ³c": 7434,
      "ĠBrukseli": 7435,
      "198": 7436,
      "ĠJuÅ¼": 7437,
      "kawo": 7438,
      "ĠGdaÅĦsk": 7439,
      "Ġspecjalnych": 7440,
      "53": 7441,
      "Ġkupi": 7442,
      "ĠElÅ¼bie": 7443,
      "Ġosobom": 7444,
      "Ġprasowy": 7445,
      "ĠubiegÅĤym": 7446,
      "ĠkierowcÃ³w": 7447,
      "dziale": 7448,
      "ĠwewnÄĻtrznych": 7449,
      "ĠNew": 7450,
      "Ġwydarzenie": 7451,
      "tujÄħ": 7452,
      "ĠSolidar": 7453,
      "Ġwarunkach": 7454,
      "iak": 7455,
      "ĠKomunika": 7456,
      "ĠSmo": 7457,
      "pek": 7458,
      "tyfika": 7459,
      "Hiszp": 7460,
      "rzeÅĽci": 7461,
      "ulti": 7462,
      "ĠRoki": 7463,
      "Å»Ã³ÅĤ": 7464,
      "Ġpublicznego": 7465,
      "ĠurzÄħdzeÅĦ": 7466,
      "Ġotrzymali": 7467,
      "Obecnie": 7468,
      "cone": 7469,
      "ĠPaÅĤacu": 7470,
      "ĠStron": 7471,
      "ĠÅĽwia": 7472,
      "ĠogÅĤosiÅĤa": 7473,
      "Ġodzy": 7474,
      "ĠFC": 7475,
      "Ġepide": 7476,
      "Ġkardyna": 7477,
      "ĠLewandowski": 7478,
      "rÃ³b": 7479,
      "Ġzdecydowanie": 7480,
      "ĠgieÅĤ": 7481,
      "Ġnada": 7482,
      "ĠSÄħdu": 7483,
      "Ġlega": 7484,
      "usa": 7485,
      "niejsze": 7486,
      "ĠKielce": 7487,
      "ĠzwiÄħzek": 7488,
      "konu": 7489,
      "kÅĤada": 7490,
      "ĠprzesÅĤ": 7491,
      "ĠspotkaÅĤ": 7492,
      "Ġdochodzi": 7493,
      "Pozna": 7494,
      "Ġrozeg": 7495,
      "ĠEsto": 7496,
      "nal": 7497,
      "rad": 7498,
      "ven": 7499,
      "Gry": 7500,
      "ĠRepubliki": 7501,
      "Ġdziewczy": 7502,
      "quigas": 7503,
      "ĠpaÅĦstwo": 7504,
      "Ġmowa": 7505,
      "alnego": 7506,
      "ĠPowo": 7507,
      "ĠgÅĤowy": 7508,
      "ĠrozwiÄħzanie": 7509,
      "ÅĤania": 7510,
      "Ġuchy": 7511,
      "kacje": 7512,
      "Å¼s": 7513,
      "Ġszefem": 7514,
      "ĠTi": 7515,
      "tes": 7516,
      "ĠStanach": 7517,
      "ĠnajwiÄĻksze": 7518,
      "Ġgier": 7519,
      "ĠFestival": 7520,
      "Ġfinale": 7521,
      "Ġlepiej": 7522,
      "Ġmodli": 7523,
      "ĠpowoÅĤu": 7524,
      "ĠInternational": 7525,
      "Ġkomunikacie": 7526,
      "Ġglob": 7527,
      "Ġpotwierdzono": 7528,
      "Ġpubliczny": 7529,
      "Ġdeklar": 7530,
      "Ġws": 7531,
      "woj": 7532,
      "kwida": 7533,
      "ĠBank": 7534,
      "toria": 7535,
      "ĠKsiÄĻÅ¼y": 7536,
      "Ġdymisji": 7537,
      "Å¼onego": 7538,
      "antÃ³w": 7539,
      "ĠzawodÃ³w": 7540,
      "rez": 7541,
      "tyczne": 7542,
      "Ġzarejestr": 7543,
      "76": 7544,
      "podlegÅĤoÅĽÄĩ": 7545,
      "ĠPucharu": 7546,
      "Ġnadaw": 7547,
      "ĠnaÅĤo": 7548,
      "omienie": 7549,
      "ĠzwiÄħzany": 7550,
      "Ġencyklo": 7551,
      "Ġtr": 7552,
      "ĠzmianÄĻ": 7553,
      "ĠBla": 7554,
      "Ġkonserwa": 7555,
      "Lu": 7556,
      "ĠpodziÄĻk": 7557,
      "ĠSkar": 7558,
      "skimi": 7559,
      "Ġnaro": 7560,
      "Ġroli": 7561,
      "cjonal": 7562,
      "dzeni": 7563,
      "Ġinnego": 7564,
      "ĠrozporzÄħ": 7565,
      "ĠkoÅĦcu": 7566,
      "liÅĤa": 7567,
      "rzyÄĩ": 7568,
      "wne": 7569,
      "Ġkoncertu": 7570,
      "wis": 7571,
      "plex": 7572,
      "ĠdotyczÄħcy": 7573,
      "ĠprzewodniczÄħcego": 7574,
      "Ġbiznes": 7575,
      "jnego": 7576,
      "Ġgrzy": 7577,
      "ĠodpowiedziaÅĤ": 7578,
      "Ġsekretarz": 7579,
      "Ġimieniu": 7580,
      "ĠBBC": 7581,
      "Ġautorskie": 7582,
      "ĠLuca": 7583,
      "tti": 7584,
      "ĠmiesiÄħcu": 7585,
      "ĠzdjÄĻcie": 7586,
      "ĠÅ¼adnej": 7587,
      "ĠczÅĤonek": 7588,
      "ĠduÅ¼ej": 7589,
      "IS": 7590,
      "AS": 7591,
      "ĠponiÅ¼ej": 7592,
      "ĠMaÅĤgorzata": 7593,
      "Ġmaju": 7594,
      "Ġsatelity": 7595,
      "cony": 7596,
      "Ġcu": 7597,
      "cyjnie": 7598,
      "Ġdwukro": 7599,
      "straklasa": 7600,
      "ĠjakiÅĽ": 7601,
      "Ġarab": 7602,
      "Ã¨": 7603,
      "ĠMinistra": 7604,
      "ĠRzecznik": 7605,
      "Ġzatrzymany": 7606,
      "Ġupa": 7607,
      "Ġuczelni": 7608,
      "ĠzobaczyÄĩ": 7609,
      "szonych": 7610,
      "Ġtabli": 7611,
      "zda": 7612,
      "ĠNajwiÄĻk": 7613,
      "Ġ52": 7614,
      "ĠwspÃ³lnego": 7615,
      "Ġznaleziono": 7616,
      "ĠkaÅ¼dej": 7617,
      "Ġutrzyma": 7618,
      "Fa": 7619,
      "Hiszpania": 7620,
      "eld": 7621,
      "Ġdefi": 7622,
      "Ġonline": 7623,
      "Ġstoi": 7624,
      "lasyfikacja": 7625,
      "ps": 7626,
      "czem": 7627,
      "ĠpokonaÅĤa": 7628,
      "Ġjakich": 7629,
      "Ġstrefy": 7630,
      "Ġpoziomu": 7631,
      "ĠprzyjÄħÅĤ": 7632,
      "Ġstabil": 7633,
      "Ġwstrzyma": 7634,
      "Ġzgody": 7635,
      "MF": 7636,
      "Ġkolejowy": 7637,
      "ies": 7638,
      "ieranie": 7639,
      "beli": 7640,
      "ĠwÄħtp": 7641,
      "Ġsamodzie": 7642,
      "ĠumÃ³w": 7643,
      "Ġpoprowa": 7644,
      "ĠÅļlÄħska": 7645,
      "Ġutrzymy": 7646,
      "ĠzajÄĻÅĤa": 7647,
      "ĠKier": 7648,
      "Ġzaprasza": 7649,
      "iÄĻkszoÅĽÄĩ": 7650,
      "199": 7651,
      "ĠÄ": 7652,
      "owicza": 7653,
      "ĠMiÄĻdzynarodowej": 7654,
      "ĠSamoobrona": 7655,
      "ĠzobowiÄħz": 7656,
      "Ġustawa": 7657,
      "ĠEu": 7658,
      "ric": 7659,
      "ĠMiasto": 7660,
      "ĠBrazy": 7661,
      "Ġbrytyjski": 7662,
      "ĠkoÅĤo": 7663,
      "ĠGliwi": 7664,
      "ĠÃ³w": 7665,
      "ĠSier": 7666,
      "ĠWewnÄĻtrz": 7667,
      "Ġwystawa": 7668,
      "Ġliczy": 7669,
      "ĠZwyciÄĻ": 7670,
      "kowo": 7671,
      "Ġprzypadki": 7672,
      "pospolita": 7673,
      "Ġorganizacje": 7674,
      "Ġprojekcie": 7675,
      "MS": 7676,
      "piÄħ": 7677,
      "imna": 7678,
      "Ġsen": 7679,
      "ĠpoÅĽrednictwem": 7680,
      "Ġdokument": 7681,
      "Par": 7682,
      "Ġmusieli": 7683,
      "onego": 7684,
      "ĠprowadziÄĩ": 7685,
      "ĠokrÄħ": 7686,
      "Ġam": 7687,
      "ĠLotni": 7688,
      "ĠstwierdziÅĤa": 7689,
      "ĠDel": 7690,
      "bami": 7691,
      "ÅģÃ³dzkie": 7692,
      "iro": 7693,
      "Ġzawodnicy": 7694,
      "Ġwg": 7695,
      "2009": 7696,
      "Ġrezulta": 7697,
      "ĠZgodnie": 7698,
      "Rzecznik": 7699,
      "strum": 7700,
      "Ġwych": 7701,
      "Ġtrag": 7702,
      "ĠprogramÃ³w": 7703,
      "JeÅĽli": 7704,
      "Ġoj": 7705,
      "Ġinteresu": 7706,
      "ĠMÄĻÅ¼czy": 7707,
      "nÄĻÅĤo": 7708,
      "dzajÄħc": 7709,
      "zmem": 7710,
      "toÅĽci": 7711,
      "Ġpracowni": 7712,
      "ĠZespÃ³ÅĤ": 7713,
      "ĠpowstaÅĤa": 7714,
      "Ġ2002": 7715,
      "ĠbÄħdÅº": 7716,
      "Ġ56": 7717,
      "ĠstrzeliÅĤ": 7718,
      "Ġzali": 7719,
      "LE": 7720,
      "ĠArgenty": 7721,
      "Ð¾Ð": 7722,
      "Ġblok": 7723,
      "Ġalar": 7724,
      "lear": 7725,
      "Ġmon": 7726,
      "Ġcele": 7727,
      "Ġobserw": 7728,
      "Ġlista": 7729,
      "ĠznaleÅºli": 7730,
      "ĠgroÅº": 7731,
      "pora": 7732,
      "ĠPiÄħ": 7733,
      "Ġ1939": 7734,
      "ĠArtur": 7735,
      "ĠstraciÅĤ": 7736,
      "Ġdemonstran": 7737,
      "Ġdziecka": 7738,
      "czach": 7739,
      "Ġsingel": 7740,
      "Logo": 7741,
      "ĠOrkie": 7742,
      "ĠFacebooku": 7743,
      "ĠTrzas": 7744,
      "ĠchociaÅ¼": 7745,
      "ĠsystemÃ³w": 7746,
      ".).": 7747,
      "ann": 7748,
      "Ġabsol": 7749,
      "anoni": 7750,
      "ĠhasÅĤa": 7751,
      "ĠzabytkÃ³w": 7752,
      "ĠZbigniewa": 7753,
      "Pla": 7754,
      "ĠkorzystaÄĩ": 7755,
      "ĠuwaÅ¼": 7756,
      "dnej": 7757,
      "ĠKla": 7758,
      "Ġfragm": 7759,
      "Ġasy": 7760,
      "Ġtrzeciej": 7761,
      "Ġwid": 7762,
      "Ġtamtej": 7763,
      "ĠpociÄħgÃ³w": 7764,
      "ĠCra": 7765,
      "Ġspecjalne": 7766,
      "Ġgenera": 7767,
      "wiÅĤ": 7768,
      "ÅĤugo": 7769,
      "pieÅ¼": 7770,
      "ĠCzÅĤowie": 7771,
      "zz": 7772,
      "Ġnajszyb": 7773,
      "Afgani": 7774,
      "ĠWindows": 7775,
      "Ġpublicznie": 7776,
      "Ġlutym": 7777,
      "ĠWit": 7778,
      "szkaÅĦ": 7779,
      "ĠpeÅĤno": 7780,
      "Ġbadaw": 7781,
      "grafii": 7782,
      "ĠHoÅĤ": 7783,
      "ĠfaÅĤ": 7784,
      "ll": 7785,
      "ĠkosztÃ³w": 7786,
      "Ġakt": 7787,
      "Ġkierowni": 7788,
      "Ġkwietniu": 7789,
      "ĠpociÄħg": 7790,
      "ĠMagdalena": 7791,
      "ĠbiaÅĤoru": 7792,
      "lÄħdaÄĩ": 7793,
      "Ġdlaczego": 7794,
      "ung": 7795,
      "ĠMona": 7796,
      "Ġbramka": 7797,
      "Ġâ": 7798,
      "DruÅ¼yna": 7799,
      "RR": 7800,
      "ĠbÄĻdÄĻ": 7801,
      "Ġ|": 7802,
      "Ġdodaje": 7803,
      "Complex": 7804,
      "zujÄħc": 7805,
      "Ġrozpozna": 7806,
      "Ġ58": 7807,
      "ĠuzyskaÄĩ": 7808,
      "ĠkarÄĻ": 7809,
      "ĠlistÄĻ": 7810,
      "Ġprzekra": 7811,
      "ĠszansÄĻ": 7812,
      "Ġ)": 7813,
      "termin": 7814,
      "Ġwykaza": 7815,
      "Ġwzmoc": 7816,
      "ĠuchodÅº": 7817,
      "ĠpÃ³ÅĤfi": 7818,
      "Gre": 7819,
      "ĠFM": 7820,
      "Ġraportu": 7821,
      "ZÅĤota": 7822,
      "ĠkartkÄĻ": 7823,
      "Konferen": 7824,
      "NOT": 7825,
      "ĠdostaÅĤ": 7826,
      "ĠTaj": 7827,
      "PiS": 7828,
      "ĠPologne": 7829,
      "kacjÄĻ": 7830,
      "ĠobjÄħÅĤ": 7831,
      "jÄħco": 7832,
      "brania": 7833,
      "ĠKrajowej": 7834,
      "74": 7835,
      "ĠBad": 7836,
      "Wydarzenie": 7837,
      "ĠprotestÃ³w": 7838,
      "Ġinicjatyw": 7839,
      "Ġskali": 7840,
      "dÅĤa": 7841,
      "ĠgÅĤÃ³wnych": 7842,
      "ĠKamiÅĦski": 7843,
      "ÅĤaÄĩ": 7844,
      "ĠwidzÃ³w": 7845,
      "ĠMusi": 7846,
      "ĠumowÄĻ": 7847,
      "Ġrowe": 7848,
      "tycznie": 7849,
      "int": 7850,
      "ĠRosjan": 7851,
      "Afganistan": 7852,
      "dziesiÄĻ": 7853,
      "Ġmagazy": 7854,
      "ĠWÅĤadze": 7855,
      "ĠKarola": 7856,
      "ĠokreÅĽla": 7857,
      "ĠPodkre": 7858,
      "Ġprzepro": 7859,
      "ĠMal": 7860,
      "ĠDomi": 7861,
      "ĠRumu": 7862,
      "Ġspon": 7863,
      "Ġzawodnik": 7864,
      "Mis": 7865,
      "Ġrapor": 7866,
      "ĠCzÄĻstochowa": 7867,
      "ĠBarce": 7868,
      "Bra": 7869,
      "ĠChorwa": 7870,
      "Ġchyba": 7871,
      "szÃ³w": 7872,
      "ĠWY": 7873,
      "Linux": 7874,
      "ĠCSC": 7875,
      "Ġpeletonu": 7876,
      "ĠSTS": 7877,
      "ruch": 7878,
      "onej": 7879,
      "lav": 7880,
      "strzÄħ": 7881,
      "Ġprojektem": 7882,
      "ĠzarzutÃ³w": 7883,
      "Prokura": 7884,
      "Ġtegorocznej": 7885,
      "ĠgwaÅĤ": 7886,
      "Ġgwaran": 7887,
      "ĠdÄħ": 7888,
      "Konkur": 7889,
      "GdaÅĦ": 7890,
      "ĠOrder": 7891,
      "RA": 7892,
      "ziony": 7893,
      "ĠamerykaÅĦskiego": 7894,
      "rebr": 7895,
      "ĠstraÅ¼y": 7896,
      "ĠtrÃ³j": 7897,
      "Ġpani": 7898,
      "ĠMarian": 7899,
      "Ġobjazd": 7900,
      "ĠAre": 7901,
      "luje": 7902,
      "ĠSal": 7903,
      "ĠWtedy": 7904,
      "Ġstarcie": 7905,
      ".),": 7906,
      "ĠSzmy": 7907,
      "ĠplikÃ³w": 7908,
      "Ciekawo": 7909,
      "ĠDziedzictwa": 7910,
      "ĠMiejskiej": 7911,
      "lender": 7912,
      "ĠpojawiÅĤa": 7913,
      "Ġunik": 7914,
      "Ġinteres": 7915,
      "ĠÅĽwiÄĻtokrzy": 7916,
      "Å¼samo": 7917,
      "ĠmiÄĻdzynarodowej": 7918,
      "ĠciaÅĤa": 7919,
      "ĠreÅ¼": 7920,
      "unku": 7921,
      "Ġkarnego": 7922,
      "Ġwalce": 7923,
      "ĠprzeszedÅĤ": 7924,
      "ĠZostaÅĤ": 7925,
      "ĠmaÅĤopol": 7926,
      "wÅĤa": 7927,
      "padÅĤ": 7928,
      "Ġpodatku": 7929,
      "ĠBul": 7930,
      "HP": 7931,
      "worzyÅĤ": 7932,
      "ĠTwit": 7933,
      "Ã§": 7934,
      "ĠDroga": 7935,
      "ĠAfryki": 7936,
      "ĠKamil": 7937,
      "Ġzdania": 7938,
      "Ġdonosi": 7939,
      "ĠprzeglÄħdar": 7940,
      "Å¼ono": 7941,
      "ĠzgÅĤasza": 7942,
      "Ġdorad": 7943,
      "uter": 7944,
      "niono": 7945,
      "Ġsamolot": 7946,
      "ĠpowiÄħz": 7947,
      "andro": 7948,
      "ĠobecnoÅĽÄĩ": 7949,
      "ĠkoÅĽcie": 7950,
      "unkcj": 7951,
      "ys": 7952,
      "ĠzaÅĤoÅ¼y": 7953,
      "tus": 7954,
      "Ġzadeklar": 7955,
      "owuje": 7956,
      "Ġwyborczy": 7957,
      "jew": 7958,
      "ĠPowiat": 7959,
      "Ġzaapel": 7960,
      "roÅĦ": 7961,
      "sud": 7962,
      "ĠwybÃ³r": 7963,
      "ĠwziÄĻÅĤo": 7964,
      "versi": 7965,
      "siak": 7966,
      "Japonia": 7967,
      "Ġstatku": 7968,
      "ĠmÅĤodzieÅ¼y": 7969,
      "Ġrekla": 7970,
      "ĠMistrzostw": 7971,
      "cjaldemokra": 7972,
      "Wystawy": 7973,
      "ĠzupeÅĤ": 7974,
      "Czas": 7975,
      "Ġ47": 7976,
      "Ġprzesy": 7977,
      "Ġpotencjal": 7978,
      "Ġwyborami": 7979,
      "ĠZg": 7980,
      "Ġdziennie": 7981,
      "ĠczÅĤonkiem": 7982,
      "partam": 7983,
      "Ġodbi": 7984,
      "ĠKoÅĽcioÅĤa": 7985,
      "ĠSzczy": 7986,
      "ĠmiesiÄħca": 7987,
      "worÃ³w": 7988,
      "ĠInternecie": 7989,
      "Ġodczy": 7990,
      "ĠMeksy": 7991,
      "ĠdziaÅĤaÄĩ": 7992,
      "Ġsolidar": 7993,
      "Ġkomisja": 7994,
      "Ġafga": 7995,
      "ĠLibii": 7996,
      "ĠKomendy": 7997,
      "gania": 7998,
      "ĠRafa": 7999,
      "zar": 8000,
      "ĠplacÃ³wki": 8001,
      "ĠwchodzÄħ": 8002,
      "niÄĻty": 8003,
      "zdni": 8004,
      "ĠZarzÄħdu": 8005,
      "65": 8006,
      "ĠoÅĽwiadczenia": 8007,
      "ĠorganizatorÃ³w": 8008,
      "Ġlikwida": 8009,
      "piec": 8010,
      "Pe": 8011,
      "wart": 8012,
      "Cy": 8013,
      "Ġwio": 8014,
      "nkach": 8015,
      "ĠzmieniÄĩ": 8016,
      "Ġobecnej": 8017,
      "ĠBagda": 8018,
      "ĠmarszaÅĤek": 8019,
      "ĠHan": 8020,
      "ĠnajczÄĻÅĽciej": 8021,
      "ĠÅļwi": 8022,
      "Ġtargi": 8023,
      "ĠUEFA": 8024,
      "à®¿": 8025,
      "gramu": 8026,
      "enda": 8027,
      "Program": 8028,
      "Ġaudy": 8029,
      "ĠPierwszy": 8030,
      "ĠmÅĤodzieÅ¼": 8031,
      "Qui": 8032,
      "Ġinterwencji": 8033,
      "tuacja": 8034,
      "Ġprzech": 8035,
      "fil": 8036,
      "Ġsama": 8037,
      "ĠgrupÄĻ": 8038,
      "ĠwziÄĻli": 8039,
      "jka": 8040,
      "Ġstopniu": 8041,
      "Ġwww": 8042,
      "lon": 8043,
      "Ġzan": 8044,
      "ĠBory": 8045,
      "ĠjÄĻzyk": 8046,
      "Ġalternatyw": 8047,
      "czonego": 8048,
      "Ġryzy": 8049,
      "Ġnaci": 8050,
      "lany": 8051,
      "Ġ00": 8052,
      "Ġagencja": 8053,
      "GÃ³r": 8054,
      "aniec": 8055,
      "ĠskomentowaÅĤ": 8056,
      "ĠodbywajÄħ": 8057,
      "janie": 8058,
      "gami": 8059,
      "Ġwykorzystu": 8060,
      "imi": 8061,
      "Ġnauczycieli": 8062,
      "ĠInternetu": 8063,
      "wiera": 8064,
      "Ġmistrz": 8065,
      "Ġzadanie": 8066,
      "Ġpoprzednich": 8067,
      "64": 8068,
      "ĠsiÃ³d": 8069,
      "Åģukasz": 8070,
      "laj": 8071,
      "sztaty": 8072,
      "cien": 8073,
      "bowie": 8074,
      "NOTOC": 8075,
      "Ġkoronawirusa": 8076,
      "Ġgre": 8077,
      "ĠĊĠĊĠĊĠĊĠĊĠĊ": 8078,
      "ĠpostÄĻpowanie": 8079,
      "Ġprzygotowy": 8080,
      "ĠLudwi": 8081,
      "Ġulicach": 8082,
      "Ġczaso": 8083,
      "ĠzarzÄħd": 8084,
      "Ġzachowanie": 8085,
      "ĠmÄĻ": 8086,
      "ĠpublicznoÅĽci": 8087,
      "ĠzaÅĤogi": 8088,
      "Ġwyroku": 8089,
      "ĠtrwaÅĤa": 8090,
      "ĠFrancja": 8091,
      "Ġ250": 8092,
      "ĠGaleria": 8093,
      "nerem": 8094,
      "ĠJeden": 8095,
      "ĠBydgo": 8096,
      "ĠdomÃ³w": 8097,
      "ĠWatch": 8098,
      "ĠMazur": 8099,
      "Ġprawda": 8100,
      "ĠIT": 8101,
      "ĠWikim": 8102,
      "Ġduchowny": 8103,
      "Ġnagra": 8104,
      "padzie": 8105,
      "ĠinternautÃ³w": 8106,
      "ĠsÄĻdziÃ³w": 8107,
      "ÅĤod": 8108,
      "Ġporozumienie": 8109,
      "ĠPrzemysÅĤaw": 8110,
      "Marcin": 8111,
      "ĠWÅĤadysÅĤaw": 8112,
      "Ġtelefoni": 8113,
      "ĠczÅĤonkow": 8114,
      "Tra": 8115,
      "ED": 8116,
      "Ġ51": 8117,
      "ĠOce": 8118,
      "ĠStraÅ¼y": 8119,
      "fii": 8120,
      "ĠrozwiÄħzaÅĦ": 8121,
      "Ġwyborcza": 8122,
      "ĠKowal": 8123,
      "Ġpaliw": 8124,
      "ĠSebastian": 8125,
      "ĠksiÄħÅ¼ek": 8126,
      "ĠdostÄĻpny": 8127,
      "homas": 8128,
      "ĠVer": 8129,
      "ĠJanu": 8130,
      "fu": 8131,
      "Ġpetycji": 8132,
      "danta": 8133,
      "owaliÅĽmy": 8134,
      "ĠÅģomÅ¼y": 8135,
      "ĠprzedsiÄĻwziÄĻ": 8136,
      "jnej": 8137,
      "Ġ43": 8138,
      "ĠMirosÅĤaw": 8139,
      "ĠedycjÄĻ": 8140,
      "Ġton": 8141,
      "skÃ³w": 8142,
      "ĠZagrani": 8143,
      "ĠDomu": 8144,
      "ĠodsÅĤo": 8145,
      "scypli": 8146,
      "ĠdrogÄĻ": 8147,
      "Ġprofesor": 8148,
      "mem": 8149,
      "ret": 8150,
      "ĠOlej": 8151,
      "Ġdowol": 8152,
      "ĠDnia": 8153,
      "czajÄħc": 8154,
      "Ġsymboli": 8155,
      "towaÄĩ": 8156,
      "ĠKorea": 8157,
      "ĠniektÃ³re": 8158,
      "ĠmogÅĤo": 8159,
      "berto": 8160,
      "Ġmikro": 8161,
      "Litera": 8162,
      "Ġczemu": 8163,
      "ĠzeszÅĤym": 8164,
      "Ġpomimo": 8165,
      "2010": 8166,
      "ĠDziÅĽ": 8167,
      "kinie": 8168,
      "biegu": 8169,
      "Ġdel": 8170,
      "ĠodwoÅĤania": 8171,
      "ĠustaleÅĦ": 8172,
      "Ġaktorka": 8173,
      "Ġwielokrotnie": 8174,
      "ĠmiesiÄħc": 8175,
      "ĠobowiÄħzki": 8176,
      "Ġpok": 8177,
      "Ġsuger": 8178,
      "ĠrzeÅº": 8179,
      "ĠOlszty": 8180,
      "ĠStanu": 8181,
      "ĠprowadziÅĤ": 8182,
      "ĠPoÅ¼ar": 8183,
      "ĠtestÃ³w": 8184,
      "ĠorganizacjÄĻ": 8185,
      "Ġsprzed": 8186,
      "Ġgeneralny": 8187,
      "rki": 8188,
      "sch": 8189,
      "ĠFormu": 8190,
      "Ġnacze": 8191,
      "ĠAC": 8192,
      "Ġniedawno": 8193,
      "BOR": 8194,
      "mosze": 8195,
      "Ġchcemy": 8196,
      "ĠJeÅ¼eli": 8197,
      "Australia": 8198,
      "Ġstabiliza": 8199,
      "Ġpracuje": 8200,
      "ĠwskazujÄħ": 8201,
      "Ġfawory": 8202,
      "ĠzadaÅĦ": 8203,
      "dynaÅĤ": 8204,
      "Ġlistopadzie": 8205,
      "ĠpodrÃ³Å¼y": 8206,
      "ĠuÅ¼ytkownika": 8207,
      "ĠpodkreÅĽli": 8208,
      "Karol": 8209,
      "Zbignie": 8210,
      "Ġsur": 8211,
      "Ġwystrze": 8212,
      "ĠCelem": 8213,
      "dzonej": 8214,
      "Komisja": 8215,
      "GdaÅĦsk": 8216,
      "ĠOdrodzenia": 8217,
      "ĠMaÅĤy": 8218,
      "Ġmodu": 8219,
      "ĠTam": 8220,
      "Ġportu": 8221,
      "PoznaÅĦ": 8222,
      "ĠzaleÅ¼": 8223,
      "%),": 8224,
      "ĠKaczmarek": 8225,
      "ĠZapisy": 8226,
      "ĠLubi": 8227,
      "ĠMoÅ¼na": 8228,
      "Ġfini": 8229,
      "Ġkwarant": 8230,
      "tycznych": 8231,
      "Ġjednostek": 8232,
      "Ġsiedmiu": 8233,
      "ĠobecnoÅĽci": 8234,
      "zek": 8235,
      "Ġiz": 8236,
      "Ġmomentu": 8237,
      "Ġemo": 8238,
      "ĠsÅĤucha": 8239,
      "ĠWspÃ³ÅĤ": 8240,
      "ĠInicja": 8241,
      "Ġrozbud": 8242,
      "Ġzapozna": 8243,
      "Ġeksplozji": 8244,
      "Ġzim": 8245,
      "Ġplanowane": 8246,
      "ĠBiaÅĤystok": 8247,
      "lowej": 8248,
      "myÅĽ": 8249,
      "Ġwysp": 8250,
      "Ġprzerwa": 8251,
      "Ġfilmowy": 8252,
      "ĠStefan": 8253,
      "ĠMartin": 8254,
      "ĠÅ¼Ã³ÅĤtÄħ": 8255,
      "biut": 8256,
      "ĠZabrze": 8257,
      "Ekstraklasa": 8258,
      "Ġnasz": 8259,
      "ĠAir": 8260,
      "Ġniespo": 8261,
      "Ġstruk": 8262,
      "ĠSha": 8263,
      "her": 8264,
      "ĠBart": 8265,
      "Ġmoderni": 8266,
      "ĠuprawnieÅĦ": 8267,
      "Zbigniew": 8268,
      "owskich": 8269,
      "Ġbudynek": 8270,
      "ĠpowtÃ³": 8271,
      "Ġwyz": 8272,
      "Ġkoszty": 8273,
      "ĠwÄħtpliwoÅĽci": 8274,
      "ĠSek": 8275,
      "Ġreprezenta": 8276,
      "ĠjadÄħ": 8277,
      "ĠTor": 8278,
      "ĠnagrÃ³d": 8279,
      "ĠWYBOR": 8280,
      "Ciekawostki": 8281,
      "Ġkartka": 8282,
      "ãĤ": 8283,
      "onach": 8284,
      "ĠsÄħsie": 8285,
      "Ġinternecie": 8286,
      "Ġkomuni": 8287,
      "ĠwystÄħpienia": 8288,
      "Ġwolontariu": 8289,
      "ĠwyjÄħtk": 8290,
      "ĠspoÅĤeczne": 8291,
      "Bu": 8292,
      "Ġuprowa": 8293,
      "ĠsÅĤÃ³w": 8294,
      "ĠAustralii": 8295,
      "NA": 8296,
      "ĠTechn": 8297,
      "ĠokrÄĻgu": 8298,
      "ĠumiejÄĻ": 8299,
      "Ġjaka": 8300,
      "cal": 8301,
      "2011": 8302,
      "Ġsierpniu": 8303,
      "ue": 8304,
      "Ġautobusowym": 8305,
      "Ġkrwi": 8306,
      "Ġograniczenia": 8307,
      "ĠustawÄĻ": 8308,
      "letniÄħ": 8309,
      "dzka": 8310,
      "Ġmalar": 8311,
      "Ġinni": 8312,
      "stycznym": 8313,
      "ĠzamkniÄĻte": 8314,
      "wum": 8315,
      "Ġopublikowane": 8316,
      "ĠprzystÄħpi": 8317,
      "ĠdostÄĻpna": 8318,
      "ĠÃ³wczes": 8319,
      "ĠzakoÅĦczenia": 8320,
      "ĠwystÄħpiÅĤ": 8321,
      "Ġkryzys": 8322,
      "kowym": 8323,
      "Ġboha": 8324,
      "Ġpopro": 8325,
      "ĠludnoÅĽci": 8326,
      "udi": 8327,
      "Ġprzyczyn": 8328,
      "Ġsukces": 8329,
      "ĠĠĊĊ": 8330,
      "Ġarchitek": 8331,
      "Ġgaz": 8332,
      "stnik": 8333,
      "ise": 8334,
      "Ġostatnio": 8335,
      "ĠnajwaÅ¼niejszych": 8336,
      "ĠPAP": 8337,
      "ĠArchi": 8338,
      "domi": 8339,
      "anim": 8340,
      "Å¼yÅĤy": 8341,
      "Ġwery": 8342,
      "Ġlokalnej": 8343,
      "Ġsprawach": 8344,
      "Grzegorz": 8345,
      "ĠPlacu": 8346,
      "nieniem": 8347,
      "sak": 8348,
      "Ġpodmio": 8349,
      "Ã³s": 8350,
      "ĠStany": 8351,
      "Ġchemi": 8352,
      "Ġoczy": 8353,
      "Ġ53": 8354,
      "ĠsÄħsia": 8355,
      "tnym": 8356,
      "ĠbudynkÃ³w": 8357,
      "ĠzwiÄħza": 8358,
      "nior": 8359,
      "ĠNowo": 8360,
      "Ġkonsul": 8361,
      "ĠokrÄĻg": 8362,
      "ĠbÅĤÄħd": 8363,
      "ĠGospodar": 8364,
      "ĠPia": 8365,
      "Ġzanot": 8366,
      "cku": 8367,
      "czar": 8368,
      "Ġtelekomunika": 8369,
      "Ġrosyjskiego": 8370,
      "stego": 8371,
      "Ġ2017": 8372,
      "Ġpoci": 8373,
      "vis": 8374,
      "ĠKomitetu": 8375,
      "Ġplany": 8376,
      "ĠhasÅĤem": 8377,
      "Ġznie": 8378,
      "obra": 8379,
      "ata": 8380,
      "ĠEner": 8381,
      "Ġwstrzym": 8382,
      "Ġutrzy": 8383,
      "spond": 8384,
      "Ġwizer": 8385,
      "ĠpoÅ¼aru": 8386,
      "ĠodpowiedÅº": 8387,
      "larz": 8388,
      "ĠpowiÄĻk": 8389,
      "Ġtrudno": 8390,
      "Ġnumerem": 8391,
      "dzane": 8392,
      "Ġsingla": 8393,
      "ĠJanusza": 8394,
      "Ġzadania": 8395,
      "ĠNoc": 8396,
      "Samoob": 8397,
      "Ġaplikacji": 8398,
      "owol": 8399,
      "ĠdÅĤuÅ¼": 8400,
      "ĠszczegÃ³lnoÅĽci": 8401,
      "Ġorganizowane": 8402,
      "Ġ1940": 8403,
      "men": 8404,
      "znaw": 8405,
      "Ġbile": 8406,
      "ĠspoÅĤecznoÅĽÄĩ": 8407,
      "ĠfirmÄĻ": 8408,
      "Ġzaak": 8409,
      "Ġ1989": 8410,
      "Ġzabrak": 8411,
      "Ġlipcu": 8412,
      "ĠmiÄĻdzynarodowych": 8413,
      "unek": 8414,
      "ĠMaj": 8415,
      "ĠtoÅ¼samo": 8416,
      "ĠTurcji": 8417,
      "Ġsojusz": 8418,
      "ĠPrusz": 8419,
      "ĠBartosz": 8420,
      "ciÅĤa": 8421,
      "Ġgabine": 8422,
      "Ġotwarte": 8423,
      "Szcze": 8424,
      "dÅ¼": 8425,
      "Ġniezwykle": 8426,
      "Ġbiskup": 8427,
      "ĠdÅĤugoÅĽci": 8428,
      "66": 8429,
      "SÅĤuÅ¼": 8430,
      "ĠartystÃ³w": 8431,
      "ĠnazwÄĻ": 8432,
      "Ġtow": 8433,
      "Ġrynek": 8434,
      "ĠRydzy": 8435,
      "Janusz": 8436,
      "ĠZd": 8437,
      "Ġprzewagi": 8438,
      "Ġszczycie": 8439,
      "JuÅ¼": 8440,
      "Ġsezon": 8441,
      "ĠzakaÅ¼eÅĦ": 8442,
      "ĠzasiÄĻ": 8443,
      "Ġsposob": 8444,
      "miar": 8445,
      "Ġ54": 8446,
      "alnym": 8447,
      "ĠpracowaÅĤ": 8448,
      "ĠProkuratura": 8449,
      "ĠLGBT": 8450,
      "Hu": 8451,
      "ĠmajÄħce": 8452,
      "Ġex": 8453,
      "ĠMin": 8454,
      "straklasy": 8455,
      "ĠmiesiÄĻ": 8456,
      "ĠcywilÃ³w": 8457,
      "Ġwchodzi": 8458,
      "Ġwolnego": 8459,
      "ĠKW": 8460,
      "Ġpewne": 8461,
      "ÅĦczyk": 8462,
      "spa": 8463,
      "bris": 8464,
      "ĠOset": 8465,
      "ĠRosy": 8466,
      "Ġfinansowe": 8467,
      "ĠwzrosÅĤa": 8468,
      "Ġdoniesie": 8469,
      "Ġrosyjski": 8470,
      "Ġwskazy": 8471,
      "Ġkonsulta": 8472,
      "lania": 8473,
      "Solidar": 8474,
      "czuk": 8475,
      "Ġmobil": 8476,
      "Ġreprezentu": 8477,
      "Ġtrwania": 8478,
      "Ġataki": 8479,
      "Ġnadzor": 8480,
      "noÅĽlÄħskie": 8481,
      "Ġwyborczego": 8482,
      "ĠEr": 8483,
      "Ġpojazdu": 8484,
      "MA": 8485,
      "boga": 8486,
      "ĠdotÄħd": 8487,
      "anowski": 8488,
      "ĠwÅĤasnej": 8489,
      "tkowski": 8490,
      "ĠWolnoÅĽci": 8491,
      "ĠWÅĤochy": 8492,
      "ĠKAR": 8493,
      "Dzisiaj": 8494,
      "Samoobrona": 8495,
      "Ġinternetu": 8496,
      "Wolne": 8497,
      "Ġzapowiedzia": 8498,
      "Ġpodano": 8499,
      "mus": 8500,
      "czÄħcych": 8501,
      "alna": 8502,
      "zyden": 8503,
      "Ġszczytu": 8504,
      "Ġceny": 8505,
      "ĠwÅĤasne": 8506,
      "Ġprzyspie": 8507,
      "biÄĩ": 8508,
      "Ġkonferencja": 8509,
      "tkowej": 8510,
      "Äį": 8511,
      "ĠDrugi": 8512,
      "ĠprÃ³bowaÅĤ": 8513,
      "Å¼eni": 8514,
      "niona": 8515,
      "Ġhote": 8516,
      "lonej": 8517,
      "ĠpewnoÅĽciÄħ": 8518,
      "Ġdoros": 8519,
      "ĠznalazÅĤa": 8520,
      "ĠWoj": 8521,
      "roda": 8522,
      "ĠnazwÄħ": 8523,
      "Literatura": 8524,
      "Sko": 8525,
      "yer": 8526,
      "Ġfina": 8527,
      "wierÄĩ": 8528,
      "ĠdruÅ¼yna": 8529,
      "ĠnaturÄĻ": 8530,
      "ĠCimosze": 8531,
      "Ġdes": 8532,
      "dafie": 8533,
      "Ġregula": 8534,
      "PaweÅĤ": 8535,
      "ĠBaÅĤ": 8536,
      "Ġsprawo": 8537,
      "ĠnapiÄĻ": 8538,
      "ĠTrum": 8539,
      "tto": 8540,
      "ĠBarbara": 8541,
      "ĠRzÄħd": 8542,
      "ag": 8543,
      "SiÅĤy": 8544,
      "ĠprzywrÃ³": 8545,
      "Ġdodatkowe": 8546,
      "ĠGdaÅĦska": 8547,
      "gon": 8548,
      "Ġdodatkowo": 8549,
      "âĢ¦": 8550,
      "Ġopublikowany": 8551,
      "cjom": 8552,
      "ĠwÄĻgla": 8553,
      "zÄħ": 8554,
      "szoÅĽci": 8555,
      "wani": 8556,
      "cyb": 8557,
      "ĠwrÃ³ci": 8558,
      "Ġante": 8559,
      "Ġdziennik": 8560,
      "lepiej": 8561,
      "Ġwraca": 8562,
      "Ġj": 8563,
      "ĠBuÅĤgar": 8564,
      "ĠDam": 8565,
      "Ġsystemie": 8566,
      "ĠskrÃ³": 8567,
      "Ġgmin": 8568,
      "ĠpacjentÃ³w": 8569,
      "ĠDani": 8570,
      "Ġzwro": 8571,
      "ĠniepodlegÅĤoÅĽci": 8572,
      "Ġostrzega": 8573,
      "ĠPark": 8574,
      "Ġ57": 8575,
      "kla": 8576,
      "Ġfotografi": 8577,
      "worzeniu": 8578,
      "bera": 8579,
      "szeniem": 8580,
      "ĠBet": 8581,
      "ĠPatri": 8582,
      "dawcÃ³w": 8583,
      "ĠPremiera": 8584,
      "ÅĦczycy": 8585,
      "Ġbezro": 8586,
      "ĠLiD": 8587,
      "ujÄħcy": 8588,
      "Wikinews": 8589,
      "Ġwydanie": 8590,
      "Ġwdro": 8591,
      "Ġ1944": 8592,
      "peten": 8593,
      "Ġprzypadek": 8594,
      "ĠAtlan": 8595,
      "Ġprzygotowania": 8596,
      "Ġzakresu": 8597,
      "dzieÅ¼": 8598,
      "ĠPalesty": 8599,
      "onym": 8600,
      "Ġekspery": 8601,
      "ĠJerze": 8602,
      "ĠWÄħ": 8603,
      "niÄĻciu": 8604,
      "ĠsprzÄĻtu": 8605,
      "iÃ³w": 8606,
      "ĠAdama": 8607,
      "Ġpopo": 8608,
      "Ġfabry": 8609,
      "ĠwalkÄĻ": 8610,
      "Pat": 8611,
      "ĠPierwsza": 8612,
      "Ġorganizowana": 8613,
      "ĪĴ": 8614,
      "Ġrzeczni": 8615,
      "ĠmogÄĻ": 8616,
      "ĠUSD": 8617,
      "typ": 8618,
      "Ġzasko": 8619,
      "nowiec": 8620,
      "szyng": 8621,
      "Ġinteli": 8622,
      "ĠNowe": 8623,
      "Ġbieg": 8624,
      "ĠMat": 8625,
      "Ġwycofa": 8626,
      "Ġkoncerty": 8627,
      "ĠKomitet": 8628,
      "zesa": 8629,
      "Ġposiedzenie": 8630,
      "jawsko": 8631,
      "Ġgazety": 8632,
      "ĠrzÄĻ": 8633,
      "hra": 8634,
      "ĠUkraina": 8635,
      "Ġpob": 8636,
      "Ġdos": 8637,
      "nowie": 8638,
      "Ġzrozu": 8639,
      "Ġogni": 8640,
      "Ġdotk": 8641,
      "Ġwydania": 8642,
      "Ġobjazdowe": 8643,
      "EC": 8644,
      "Ġulica": 8645,
      "Lub": 8646,
      "dÅĤuÅ¼": 8647,
      "ĠZespo": 8648,
      "ĠzwyciÄĻstwa": 8649,
      "Ġkan": 8650,
      "Ġkad": 8651,
      "ĠzupeÅĤnie": 8652,
      "pple": 8653,
      "68": 8654,
      "ĠmiÄĻ": 8655,
      "ĠkoÅĦc": 8656,
      "Ġprokurator": 8657,
      "Ġpost": 8658,
      "lizacja": 8659,
      "Ġnazwy": 8660,
      "Ġprawnych": 8661,
      "Ġprzerwie": 8662,
      "szki": 8663,
      "Ġodebra": 8664,
      "rost": 8665,
      "ĠukÅĤad": 8666,
      "ĠEm": 8667,
      "press": 8668,
      "Ġkanale": 8669,
      "goro": 8670,
      "ĠJas": 8671,
      "zajem": 8672,
      "ffice": 8673,
      "ÅĤuma": 8674,
      "ÅºrÃ³d": 8675,
      "Ġtle": 8676,
      "Ġscenari": 8677,
      "Ġstowarzyszenia": 8678,
      "sja": 8679,
      "Ġtrium": 8680,
      "ĠÄĩwierÄĩ": 8681,
      "Ġrundy": 8682,
      "plan": 8683,
      "aniÄĻ": 8684,
      "Gazeta": 8685,
      "Ġ600": 8686,
      "Ġpodka": 8687,
      "Ġ64": 8688,
      "ĠobowiÄħzek": 8689,
      "ÅĤej": 8690,
      "Medy": 8691,
      "Ġstwierdzono": 8692,
      "Ġodbior": 8693,
      "onariusze": 8694,
      "ierania": 8695,
      "Ġdwudzie": 8696,
      "ĠÅĽla": 8697,
      "Ġpta": 8698,
      "Ġnazwie": 8699,
      "ĠNagrody": 8700,
      "Ġ1937": 8701,
      "Ġwojsko": 8702,
      "Ġkopalni": 8703,
      "ĠoskarÅ¼enia": 8704,
      "Ġpostula": 8705,
      "ĠpoÅĤudniowo": 8706,
      "Ġfrancuski": 8707,
      "ĠCzÅĤowieka": 8708,
      "dion": 8709,
      "maÅĦski": 8710,
      "ĠKir": 8711,
      "Dziennik": 8712,
      "dea": 8713,
      "ĠSud": 8714,
      "ĠpaÅĦstwowych": 8715,
      "ĠkontekÅĽcie": 8716,
      "atle": 8717,
      "Ġ1945": 8718,
      "Ġprzemo": 8719,
      "munite": 8720,
      "ĠmiliardÃ³w": 8721,
      "tnÄħ": 8722,
      "ĠMikoÅĤa": 8723,
      "ĠnaukowcÃ³w": 8724,
      "Ġpri": 8725,
      "bela": 8726,
      "Ġobiek": 8727,
      "ĠzginÄĻÅĤy": 8728,
      "ĠWydziaÅĤu": 8729,
      "ĠzgÅĤosi": 8730,
      "Ġory": 8731,
      "gio": 8732,
      "Ġkomer": 8733,
      "Ġpary": 8734,
      "Ġzachowania": 8735,
      "Ġpodkarpa": 8736,
      "Ġnieda": 8737,
      "Anna": 8738,
      "oks": 8739,
      "ĠprzegraÅĤa": 8740,
      "Ġwystawi": 8741,
      "ĠĊĠĊĊĠĊ": 8742,
      "ĠAustr": 8743,
      "ĠrzÄħdzie": 8744,
      "Google": 8745,
      "ĠSzmyd": 8746,
      "Ġstacj": 8747,
      "libris": 8748,
      "Ġprzekazy": 8749,
      "wanego": 8750,
      "turach": 8751,
      "Ġkoordyna": 8752,
      "ÅĦcu": 8753,
      "ĠpowyÅ¼ej": 8754,
      "ĠÅĽrednio": 8755,
      "ĠuniemoÅ¼li": 8756,
      "Ġotrzym": 8757,
      "ĠPamiÄĻci": 8758,
      "lnia": 8759,
      "kadem": 8760,
      "ĠWiadomo": 8761,
      "Ġsej": 8762,
      "znacza": 8763,
      "ĠobiektÃ³w": 8764,
      "kadi": 8765,
      "ĠwÄĻ": 8766,
      "ĠHi": 8767,
      "naugu": 8768,
      "siÄĻbior": 8769,
      "ĠelementÃ³w": 8770,
      "Ġtekst": 8771,
      "ĠBronisÅĤaw": 8772,
      "Ġnomina": 8773,
      "wiki": 8774,
      "dog": 8775,
      "Ġtabeli": 8776,
      "Ġrzutu": 8777,
      "Ðº": 8778,
      "zuÅĤ": 8779,
      "Ġwideo": 8780,
      "Ġdokumentu": 8781,
      "Ġoczekuje": 8782,
      "Ġinstrum": 8783,
      "lskiego": 8784,
      "ĠPrzedstawi": 8785,
      "Ġpozostanie": 8786,
      "Ġznaczenie": 8787,
      "ĠinÅ¼y": 8788,
      "Ġlokalne": 8789,
      "kil": 8790,
      "Ġpakie": 8791,
      "Jacek": 8792,
      "ĠrzÄħdÃ³w": 8793,
      "Ġkancelar": 8794,
      "ĠpiÅĤki": 8795,
      "ĠDziennika": 8796,
      "ĠÅĽre": 8797,
      "Ġobchody": 8798,
      "Ġdozna": 8799,
      "ĠporÃ³wnaniu": 8800,
      "ĠÅĽledztwo": 8801,
      "ĠPrzeciw": 8802,
      "dzieÅ¼y": 8803,
      "Ġastronau": 8804,
      "cena": 8805,
      "Ġnarciarskie": 8806,
      "Ġsuper": 8807,
      "Ġpodium": 8808,
      "ĠktÃ³remu": 8809,
      "ĠAustria": 8810,
      "iano": 8811,
      "dis": 8812,
      "ĠwiÄĻksze": 8813,
      "ĠLas": 8814,
      "ĠsÅĤone": 8815,
      "kozy": 8816,
      "bri": 8817,
      "Ġ1936": 8818,
      "Ġrundzie": 8819,
      "Ġzakazu": 8820,
      "Ġtymi": 8821,
      "Ġmiejskiej": 8822,
      "ĠAra": 8823,
      "jciec": 8824,
      "lis": 8825,
      "Ġurat": 8826,
      "czonej": 8827,
      "ujÄħce": 8828,
      "bile": 8829,
      "leniem": 8830,
      "Ġserw": 8831,
      "ĠpropozycjÄĻ": 8832,
      "ĠKonkur": 8833,
      "ĠwÅĤasnych": 8834,
      "ye": 8835,
      "ĠklientÃ³w": 8836,
      "ĠposÅĤowie": 8837,
      "ĠTomasza": 8838,
      "Ġtwa": 8839,
      "ĠSÅĤawomir": 8840,
      "ĠMistrzÃ³w": 8841,
      "Ġuplas": 8842,
      "Ġpana": 8843,
      "Ġwybrze": 8844,
      "ĠministrÃ³w": 8845,
      "ĠLip": 8846,
      "Ġfilmy": 8847,
      "ĠMah": 8848,
      "ĠwyÅĤo": 8849,
      "Powiat": 8850,
      "ĠVe": 8851,
      "ĠÃ³s": 8852,
      "Ġzaga": 8853,
      "Ġgmina": 8854,
      "ĠSuper": 8855,
      "ĠWarszawskiego": 8856,
      "ĠwÅĤoski": 8857,
      "Ġkolejnym": 8858,
      "brzy": 8859,
      "Ġkwestie": 8860,
      "Ġewakua": 8861,
      "Tar": 8862,
      "korzy": 8863,
      "Ġspecjalnie": 8864,
      "ĠOli": 8865,
      "ĠAut": 8866,
      "Austria": 8867,
      "ĠLubel": 8868,
      "Stro": 8869,
      "ĠByÅĤy": 8870,
      "ĠKupaÅĤy": 8871,
      "ĠForum": 8872,
      "Ġobawia": 8873,
      "dafiego": 8874,
      "pular": 8875,
      "ĠobowiÄħzkÃ³w": 8876,
      "ĠÅ¼aden": 8877,
      "cjanci": 8878,
      "ĠtwÃ³rcÃ³w": 8879,
      "Ġpodobne": 8880,
      "rzystÃ³w": 8881,
      "Ġtraged": 8882,
      "ĠJorku": 8883,
      "ĠJem": 8884,
      "ĠOrderu": 8885,
      "nili": 8886,
      "ĠszczegÃ³": 8887,
      "ĠstaÄĩ": 8888,
      "Dariusz": 8889,
      "Ġnazwiska": 8890,
      "ĠEstonii": 8891,
      "ĠAfganistanu": 8892,
      "ĠzaczÄĻÅĤa": 8893,
      "Ġpojedyn": 8894,
      "ĠWolnoÅĽÄĩ": 8895,
      "niego": 8896,
      "Ġinwest": 8897,
      "72": 8898,
      "ĠWiktor": 8899,
      "Ġfo": 8900,
      "ID": 8901,
      "Ġkwarantan": 8902,
      "Medycyna": 8903,
      "ĠdÅĤug": 8904,
      "Ġocen": 8905,
      "Nowe": 8906,
      "dzajÄħ": 8907,
      "unkcjonariusze": 8908,
      "ÅĤopo": 8909,
      "ĠCu": 8910,
      "ĠSztuki": 8911,
      "ĠzasobÃ³w": 8912,
      "biegÅĤ": 8913,
      "tkowych": 8914,
      "Ġgminie": 8915,
      "ĠNarodÃ³w": 8916,
      "Ġobecnego": 8917,
      "Ġkoli": 8918,
      "Ġdziecko": 8919,
      "ĠJerzego": 8920,
      "ĠpolskÄħ": 8921,
      "ĠWrocÅĤawia": 8922,
      "ĠzaleÅ¼y": 8923,
      "rzyja": 8924,
      "Ġprzetransport": 8925,
      "ĠwszedÅĤ": 8926,
      "Ġulic": 8927,
      "uta": 8928,
      "Ġwyborcze": 8929,
      "jewo": 8930,
      "rzym": 8931,
      "ByÅĤy": 8932,
      "ĠWisÅĤy": 8933,
      "ĠPÃ³Åºniej": 8934,
      "Ġdzieje": 8935,
      "ÅĦcy": 8936,
      "ĠNar": 8937,
      "ĠrÄĻce": 8938,
      "jechaÄĩ": 8939,
      "'s": 8940,
      "ĠSA": 8941,
      "ĠPB": 8942,
      "Ġustalenia": 8943,
      "Ġoficer": 8944,
      "ĠNad": 8945,
      "Ġpocz": 8946,
      "Ġstrzela": 8947,
      "czer": 8948,
      "ĠWÄĻgier": 8949,
      "ZA": 8950,
      "ĠmaÅĤÅ¼e": 8951,
      "Ġhandlu": 8952,
      "ĠPiÅĤsud": 8953,
      "liga": 8954,
      "Ġznana": 8955,
      "ĠAntoni": 8956,
      "ĠwahadÅĤ": 8957,
      "ĠzajÄĻcia": 8958,
      "Ġministerstwa": 8959,
      "Ġrozu": 8960,
      "ĠâĪĴ": 8961,
      "Ġrankingu": 8962,
      "ĠmÃ³wiÄħc": 8963,
      "ĠMoÅ¼e": 8964,
      "ĠÅļwiÄĻto": 8965,
      "Ġfron": 8966,
      "onali": 8967,
      "ĠRelacja": 8968,
      "Ġtorze": 8969,
      "ĠOficjal": 8970,
      "ĠTransp": 8971,
      "Ġwiary": 8972,
      "ĠopublikowaÅĤ": 8973,
      "ĠSim": 8974,
      "Ġjakiej": 8975,
      "ĠSzef": 8976,
      "Ġegzamin": 8977,
      "ĠwyrÃ³wna": 8978,
      "Ġwymiany": 8979,
      "bert": 8980,
      "KA": 8981,
      "ĠstaÅĤa": 8982,
      "ĠPierwsze": 8983,
      "ĠwypÅĤa": 8984,
      "ĠnajbliÅ¼szym": 8985,
      "Ġszereg": 8986,
      "ĠKoalicja": 8987,
      "ture": 8988,
      "Ġsprzeciw": 8989,
      "ĠÅĽwiadkÃ³w": 8990,
      "gÃ³r": 8991,
      "Ġtworzy": 8992,
      "Ġwielkopol": 8993,
      "Ġakade": 8994,
      "Ġdwukrotnie": 8995,
      "Ġpolscy": 8996,
      "tymi": 8997,
      "ĠnajwiÄĻkszÄħ": 8998,
      "Misja": 8999,
      "ĠJean": 9000,
      "Kar": 9001,
      "ĠFilip": 9002,
      "ĠBush": 9003,
      "Gra": 9004,
      "snÄħ": 9005,
      "ĠzbliÅ¼a": 9006,
      "ĠOn": 9007,
      "Ġkompeten": 9008,
      "Ġsank": 9009,
      "ĠÅĽledztwa": 9010,
      "stancji": 9011,
      "ĠwywoÅĤa": 9012,
      "ĠWaldemar": 9013,
      "ves": 9014,
      "Mimo": 9015,
      "dztwo": 9016,
      "Ġtragi": 9017,
      "UT": 9018,
      "NASA": 9019,
      "ĠMac": 9020,
      "wiaty": 9021,
      "owanymi": 9022,
      "Pom": 9023,
      "ĠliczÄħ": 9024,
      "sÅĤy": 9025,
      "ÅĤowiec": 9026,
      "ĠdoprowadziÄĩ": 9027,
      "ĠpÄĻtli": 9028,
      "Ġrolnictwa": 9029,
      "ĠSil": 9030,
      "ĠOstatni": 9031,
      "ĠWorld": 9032,
      "ĠkilkadziesiÄħt": 9033,
      "ĠTrwa": 9034,
      "onen": 9035,
      "Ġkategoria": 9036,
      "ĠzachÄĻca": 9037,
      "ĠstosunkÃ³w": 9038,
      "ĠISS": 9039,
      "ĠMaryja": 9040,
      "83": 9041,
      "torami": 9042,
      "undation": 9043,
      "Ġminionym": 9044,
      "ĠsiÄĻga": 9045,
      "ĠuchwaÅĤy": 9046,
      "ĠEuropejski": 9047,
      "Ġpropa": 9048,
      "IG": 9049,
      "Ruch": 9050,
      "RafaÅĤ": 9051,
      "ĠMedy": 9052,
      "ĠSÅĤuÅ¼by": 9053,
      "rody": 9054,
      "towania": 9055,
      "ĠkoÅĦcem": 9056,
      "Ġszczyt": 9057,
      "Ġsyn": 9058,
      "ĠUniwersytet": 9059,
      "Ġkolek": 9060,
      "jami": 9061,
      "Ġkolejna": 9062,
      "Ki": 9063,
      "ĠAdministracji": 9064,
      "Ġpropozycja": 9065,
      "Ġrewolu": 9066,
      "ĠkontrolÄĻ": 9067,
      "ĠRegional": 9068,
      "versity": 9069,
      "Ġporan": 9070,
      "Ġfilmie": 9071,
      "enter": 9072,
      "tykan": 9073,
      "Ġszwe": 9074,
      "Ġorganizuje": 9075,
      "ĠGer": 9076,
      "owszech": 9077,
      "trzeb": 9078,
      "Italia": 9079,
      "uklear": 9080,
      "skiemu": 9081,
      "Ġidenty": 9082,
      "Å¼onej": 9083,
      "ĠÅ¼ywnoÅĽci": 9084,
      "ĠpostanowiÅĤ": 9085,
      "alnÄħ": 9086,
      "ĠutwÃ³r": 9087,
      "Ġobejmuje": 9088,
      "niÄĻte": 9089,
      "III": 9090,
      "ĠpotÄĻ": 9091,
      "waÅĦ": 9092,
      "Ġport": 9093,
      "ĠOrganizacji": 9094,
      "ĠobraÅ¼eÅĦ": 9095,
      "szczu": 9096,
      "dziny": 9097,
      "Ġdobra": 9098,
      "ĠMichaÅĤa": 9099,
      "Ġniedaleko": 9100,
      "ĠÅºle": 9101,
      "ĠÅ¼Äħ": 9102,
      "BiaÅĤoru": 9103,
      "ĠdÅĤugi": 9104,
      "ĠKilka": 9105,
      "sam": 9106,
      "ĠKuba": 9107,
      "orozu": 9108,
      "Å»y": 9109,
      "ari": 9110,
      "Ġprotesty": 9111,
      "ĠKsiÄħÅ¼": 9112,
      "nisi": 9113,
      "ĠMam": 9114,
      "dÅĤo": 9115,
      "ĠLublin": 9116,
      "ĠciÄħgle": 9117,
      "Ġantyrakietowej": 9118,
      "Ġzwal": 9119,
      "ĠwstrzÄħ": 9120,
      "Aleksander": 9121,
      "ĠokazjÄĻ": 9122,
      "Ġstworzenie": 9123,
      "ĠElÅ¼bieta": 9124,
      "szyn": 9125,
      "Ġzga": 9126,
      "ĠwÅĤadza": 9127,
      "ĠcelÃ³w": 9128,
      "ĠwartoÅĽÄĩ": 9129,
      "ĠSzymon": 9130,
      "ĠNowej": 9131,
      "koju": 9132,
      "ĠrzÄĻdu": 9133,
      "Ġdrz": 9134,
      "ĠArtyku": 9135,
      "Ġnarko": 9136,
      "czÄħtkowo": 9137,
      "Ġmedycznego": 9138,
      "Ġwspomnia": 9139,
      "ester": 9140,
      "ĠkolejnÄħ": 9141,
      "ĠtrwaÅĤy": 9142,
      "ppe": 9143,
      "Wszyst": 9144,
      "Ġpotrzebne": 9145,
      "Ġlotniska": 9146,
      "PS": 9147,
      "Ġkompro": 9148,
      "ĠTymo": 9149,
      "ĠprÃ³bu": 9150,
      "Akty": 9151,
      "ĠCyfr": 9152,
      "ĠwiÄĻkszÄħ": 9153,
      "ĠubiegÅĤego": 9154,
      "ĠZagranicznych": 9155,
      "Ġczo": 9156,
      "Ġboga": 9157,
      "69": 9158,
      "Zmiany": 9159,
      "ÅĤugi": 9160,
      "Ġrosyjskiej": 9161,
      "Ku": 9162,
      "Ġwydoby": 9163,
      "ĠspeÅĤnia": 9164,
      "ĠWyÅ¼": 9165,
      "Ġdojdzie": 9166,
      "Ġplane": 9167,
      "stronomia": 9168,
      "mÃ³wiÅĤ": 9169,
      "ĠAdr": 9170,
      "ĠKoÅĽciÃ³ÅĤ": 9171,
      "goda": 9172,
      "ĠPRL": 9173,
      "Ġarmia": 9174,
      "ĠCzas": 9175,
      "miÅĦsko": 9176,
      "Ġpodejrze": 9177,
      "Ġkolarz": 9178,
      "Ġdodatkowych": 9179,
      "han": 9180,
      "dziaÅĤem": 9181,
      "Ġpola": 9182,
      "Ġpogrzeb": 9183,
      "Ġrazu": 9184,
      "Ġstuden": 9185,
      "ĠKubica": 9186,
      "Å»Ã³ÅĤta": 9187,
      "Ġ1946": 9188,
      "WczeÅĽniej": 9189,
      "trza": 9190,
      "Ġsklep": 9191,
      "Ġprzebieg": 9192,
      "ĠobraÅ¼enia": 9193,
      "tacjÄĻ": 9194,
      "Ġdostos": 9195,
      "ĠAby": 9196,
      "Ġcharaktery": 9197,
      "ĠCzÄĻÅĽÄĩ": 9198,
      "Ġmilitar": 9199,
      "ĠrozpoczÄħÄĩ": 9200,
      "ĠMoskwie": 9201,
      "Ġministrem": 9202,
      "Ġwarszawskim": 9203,
      "Ġkomputerowe": 9204,
      "woma": 9205,
      "ĠpowaÅ¼ne": 9206,
      "Ġostro": 9207,
      "ĠzwiÄħzana": 9208,
      "np": 9209,
      "ĠnajwiÄĻkszym": 9210,
      "ĠKanady": 9211,
      "ĠpÅĤat": 9212,
      "ĠzwrÃ³ciÅĤ": 9213,
      "ĠznajdowaÅĤo": 9214,
      "ĠktÃ³rymi": 9215,
      "Ġobroni": 9216,
      "73": 9217,
      "ĠLeppera": 9218,
      "Ġwywiadu": 9219,
      "ĠAustrii": 9220,
      "ÅĦscy": 9221,
      "ĠchwilÄĻ": 9222,
      "Ġmulti": 9223,
      "ĠLitwy": 9224,
      "Ġkosmos": 9225,
      "ĠTury": 9226,
      "Ġjutro": 9227,
      "Ġstrajk": 9228,
      "ĠlotÃ³w": 9229,
      "ĠuÅ¼ytkownicy": 9230,
[...]
