{
  "version": "1.0",
  "truncation": null,
  "padding": null,
  "added_tokens": [],
  "normalizer": null,
  "pre_tokenizer": {
    "type": "ByteLevel",
    "add_prefix_space": false,
    "trim_offsets": true,
    "use_regex": false
  },
  "post_processor": {
    "type": "ByteLevel",
    "add_prefix_space": true,
    "trim_offsets": true,
    "use_regex": true
  },
  "decoder": {
    "type": "ByteLevel",
    "add_prefix_space": true,
    "trim_offsets": true,
    "use_regex": true
  },
  "model": {
    "type": "BPE",
    "dropout": null,
    "unk_token": null,
    "continuing_subword_prefix": null,
    "end_of_word_suffix": null,
    "fuse_unk": false,
    "byte_fallback": false,
    "ignore_merges": false,
    "vocab": {
      "Ā": 0,
      "ā": 1,
      "Ă": 2,
      "ă": 3,
      "Ą": 4,
      "ą": 5,
      "Ć": 6,
      "ć": 7,
      "Ĉ": 8,
      "ĉ": 9,
      "Ċ": 10,
      "ċ": 11,
      "Č": 12,
      "č": 13,
      "Ď": 14,
      "ď": 15,
      "Đ": 16,
      "đ": 17,
      "Ē": 18,
      "ē": 19,
      "Ĕ": 20,
      "ĕ": 21,
      "Ė": 22,
      "ė": 23,
      "Ę": 24,
      "ę": 25,
      "Ě": 26,
      "ě": 27,
      "Ĝ": 28,
      "ĝ": 29,
      "Ğ": 30,
      "ğ": 31,
      "Ġ": 32,
      "!": 33,
      "\"": 34,
      "#": 35,
      "$": 36,
      "%": 37,
      "&": 38,
      "'": 39,
      "(": 40,
      ")": 41,
      "*": 42,
      "+": 43,
      ",": 44,
      "-": 45,
      ".": 46,
      "/": 47,
      "0": 48,
      "1": 49,
      "2": 50,
      "3": 51,
      "4": 52,
      "5": 53,
      "6": 54,
      "7": 55,
      "8": 56,
      "9": 57,
      ":": 58,
      ";": 59,
      "<": 60,
      "=": 61,
      ">": 62,
      "?": 63,
      "@": 64,
      "A": 65,
      "B": 66,
      "C": 67,
      "D": 68,
      "E": 69,
      "F": 70,
      "G": 71,
      "H": 72,
      "I": 73,
      "J": 74,
      "K": 75,
      "L": 76,
      "M": 77,
      "N": 78,
      "O": 79,
      "P": 80,
      "Q": 81,
      "R": 82,
      "S": 83,
      "T": 84,
      "U": 85,
      "V": 86,
      "W": 87,
      "X": 88,
      "Y": 89,
      "Z": 90,
      "[": 91,
      "\\": 92,
      "]": 93,
      "^": 94,
      "_": 95,
      "`": 96,
      "a": 97,
      "b": 98,
      "c": 99,
      "d": 100,
      "e": 101,
      "f": 102,
      "g": 103,
      "h": 104,
      "i": 105,
      "j": 106,
      "k": 107,
      "l": 108,
      "m": 109,
      "n": 110,
      "o": 111,
      "p": 112,
      "q": 113,
      "r": 114,
      "s": 115,
      "t": 116,
      "u": 117,
      "v": 118,
      "w": 119,
      "x": 120,
      "y": 121,
      "z": 122,
      "{": 123,
      "|": 124,
      "}": 125,
      "~": 126,
      "ġ": 127,
      "Ģ": 128,
      "ģ": 129,
      "Ĥ": 130,
      "ĥ": 131,
      "Ħ": 132,
      "ħ": 133,
      "Ĩ": 134,
      "ĩ": 135,
      "Ī": 136,
      "ī": 137,
      "Ĭ": 138,
      "ĭ": 139,
      "Į": 140,
      "į": 141,
      "İ": 142,
      "ı": 143,
      "Ĳ": 144,
      "ĳ": 145,
      "Ĵ": 146,
      "ĵ": 147,
      "Ķ": 148,
      "ķ": 149,
      "ĸ": 150,
      "Ĺ": 151,
      "ĺ": 152,
      "Ļ": 153,
      "ļ": 154,
      "Ľ": 155,
      "ľ": 156,
      "Ŀ": 157,
      "ŀ": 158,
      "Ł": 159,
      "ł": 160,
      "¡": 161,
      "¢": 162,
      "£": 163,
      "¤": 164,
      "¥": 165,
      "¦": 166,
      "§": 167,
      "¨": 168,
      "©": 169,
      "ª": 170,
      "«": 171,
      "¬": 172,
      "Ń": 173,
      "®": 174,
      "¯": 175,
      "°": 176,
      "±": 177,
      "²": 178,
      "³": 179,
      "´": 180,
      "µ": 181,
      "¶": 182,
      "·": 183,
      "¸": 184,
      "¹": 185,
      "º": 186,
      "»": 187,
      "¼": 188,
      "½": 189,
      "¾": 190,
      "¿": 191,
      "À": 192,
      "Á": 193,
      "Â": 194,
      "Ã": 195,
      "Ä": 196,
      "Å": 197,
      "Æ": 198,
      "Ç": 199,
      "È": 200,
      "É": 201,
      "Ê": 202,
      "Ë": 203,
      "Ì": 204,
      "Í": 205,
      "Î": 206,
      "Ï": 207,
      "Ð": 208,
      "Ñ": 209,
      "Ò": 210,
      "Ó": 211,
      "Ô": 212,
      "Õ": 213,
      "Ö": 214,
      "×": 215,
      "Ø": 216,
      "Ù": 217,
      "Ú": 218,
      "Û": 219,
      "Ü": 220,
      "Ý": 221,
      "Þ": 222,
      "ß": 223,
      "à": 224,
      "á": 225,
      "â": 226,
      "ã": 227,
      "ä": 228,
      "å": 229,
      "æ": 230,
      "ç": 231,
      "è": 232,
      "é": 233,
      "ê": 234,
      "ë": 235,
      "ì": 236,
      "í": 237,
      "î": 238,
      "ï": 239,
      "ð": 240,
      "ñ": 241,
      "ò": 242,
      "ó": 243,
      "ô": 244,
      "õ": 245,
      "ö": 246,
      "÷": 247,
      "ø": 248,
      "ù": 249,
      "ú": 250,
      "û": 251,
      "ü": 252,
      "ý": 253,
      "þ": 254,
      "ÿ": 255,
      "ie": 256,
      "aĠ": 257,
      "ÅĤ": 258,
      "Ġp": 259,
      "ow": 260,
      "Ġw": 261,
      "or": 262,
      "st": 263,
      "ni": 264,
      "oĠ": 265,
      "ze": 266,
      "at": 267,
      "iĠ": 268,
      "Ã³": 269,
      "ÄĻ": 270,
      ",Ġ": 271,
      "ch": 272,
      "ia": 273,
      "Äħ": 274,
      "yĠ": 275,
      "eg": 276,
      "cz": 277,
      "an": 278,
      ".Ġ": 279,
      "ar": 280,
      "Å¼": 281,
      "od": 282,
      "nie": 283,
      "sk": 284,
      "eĠ": 285,
      "ra": 286,
      "ro": 287,
      "ĊĊ": 288,
      "Ġz": 289,
      "Kat": 290,
      "li": 291,
      "egor": 292,
      "ia:": 293,
      "egoria:": 294,
      "Kategoria:": 295,
      "on": 296,
      "ÅĽ": 297,
      "dz": 298,
      "sz": 299,
      "rze": 300,
      "uĠ": 301,
      "er": 302,
      "Ã³w": 303,
      "ĠwĠ": 304,
      "naĠ": 305,
      "aÅĤ": 306,
      "ĊKategoria:": 307,
      "mĠ": 308,
      "iÄĻ": 309,
      "na": 310,
      "cj": 311,
      "ol": 312,
      "zy": 313,
      "ej": 314,
      "chĠ": 315,
      "en": 316,
      "al": 317,
      "in": 318,
      "ieĠ": 319,
      ".ĊĊ": 320,
      "ak": 321,
      "ty": 322,
      "ĊĠ": 323,
      "Äĩ": 324,
      "re": 325,
      "Ġpo": 326,
      "je": 327,
      "ÄħĠ": 328,
      "ka": 329,
      "niaĠ": 330,
      "ob": 331,
      "Ġwy": 332,
      "aw": 333,
      "sp": 334,
      "siÄĻ": 335,
      "zĠ": 336,
      "ad": 337,
      "ÅĦ": 338,
      "Ġprze": 339,
      "kt": 340,
      "am": 341,
      "nieĠ": 342,
      "om": 343,
      "ci": 344,
      "ny": 345,
      "os": 346,
      "20": 347,
      "Ġd": 348,
      "oÅĽ": 349,
      "le": 350,
      "ier": 351,
      "âĢ": 352,
      "ÅĤaĠ": 353,
      "cze": 354,
      "Ġm": 355,
      "te": 356,
      "aj": 357,
      "wi": 358,
      "rÃ³": 359,
      "Äħc": 360,
      "ki": 361,
      "rzy": 362,
      "ost": 363,
      "czy": 364,
      "ur": 365,
      "ot": 366,
      "egoĠ": 367,
      "as": 368,
      "ÄĩĠ": 369,
      "ÅĤĠ": 370,
      "iej": 371,
      "by": 372,
      "Ã³r": 373,
      "ejĠ": 374,
      "Ã³wĠ": 375,
      "olsk": 376,
      "Å¼eĠ": 377,
      "ru": 378,
      "ok": 379,
      "owan": 380,
      "owa": 381,
      "op": 382,
      "ne": 383,
      "za": 384,
      "mi": 385,
      "ku": 386,
      "ed": 387,
      "aĠp": 388,
      "ktÃ³r": 389,
      "cy": 390,
      "ent": 391,
      "siÄĻĠ": 392,
      "rÃ³d": 393,
      "ce": 394,
      "kĠ": 395,
      "og": 396,
      "raw": 397,
      "ĠzĠ": 398,
      "owy": 399,
      "odz": 400,
      "sze": 401,
      "ut": 402,
      "ĠÅ": 403,
      "doĠ": 404,
      "iaÅĤ": 405,
      "oÅĤ": 406,
      "kaĠ": 407,
      "ÄĻĠ": 408,
      "rz": 409,
      "uj": 410,
      "Polsk": 411,
      "Ġpod": 412,
      "¹rÃ³d": 413,
      "ieg": 414,
      "ani": 415,
      "ski": 416,
      "acj": 417,
      "um": 418,
      "ry": 419,
      "owie": 420,
      "kuĠ": 421,
      "ĊĊKategoria:": 422,
      "el": 423,
      ",ĠÅ¼eĠ": 424,
      "jest": 425,
      "kiĠ": 426,
      "aÅĤĠ": 427,
      "dzie": 428,
      "szy": 429,
      ".ĠW": 430,
      "Ġro": 431,
      "aĠw": 432,
      "Å¼e": 433,
      "is": 434,
      "ĠĠ": 435,
      "ĠÅ¹rÃ³d": 436,
      "dy": 437,
      "aĊKategoria:": 438,
      "kon": 439,
      "âĢĵ": 440,
      "czn": 441,
      "az": 442,
      "Ġpro": 443,
      "ub": 444,
      "ciĠ": 445,
      "oli": 446,
      "cie": 447,
      "stw": 448,
      "em": 449,
      ",ĠktÃ³r": 450,
      "202": 451,
      "oj": 452,
      "ĠÅ¹rÃ³dÅĤaĠ": 453,
      "ap": 454,
      "dĠ": 455,
      "Å¼y": 456,
      "un": 457,
      "owi": 458,
      "et": 459,
      "ego": 460,
      "fi": 461,
      "ter": 462,
      "Ġprzy": 463,
      ".ĠP": 464,
      "ek": 465,
      "ud": 466,
      "ĠÅ¹rÃ³dÅĤaĠĊĠ": 467,
      "for": 468,
      "jak": 469,
      "Ġt": 470,
      "00": 471,
      "dzi": 472,
      "wa": 473,
      "ran": 474,
      ":Ġ": 475,
      "cjiĠ": 476,
      "19": 477,
      "sÅĤ": 478,
      "bÄĻ": 479,
      "Ġk": 480,
      "bi": 481,
      "cyĠ": 482,
      "form": 483,
      "roz": 484,
      "jed": 485,
      "Ġ(": 486,
      "-Ġ": 487,
      "art": 488,
      "naj": 489,
      "ÅĤoĠ": 490,
      "sty": 491,
      "neĠ": 492,
      "emĠ": 493,
      "tak": 494,
      "caĠ": 495,
      "liĠ": 496,
      "Äħd": 497,
      "kow": 498,
      "niej": 499,
      "tu": 500,
      "ychĠ": 501,
      "mie": 502,
      "nyĠ": 503,
      "dziaÅĤ": 504,
      "czas": 505,
      "St": 506,
      "sy": 507,
      "Åº": 508,
      "ali": 509,
      "nychĠ": 510,
      "ul": 511,
      "a,Ġ": 512,
      "200": 513,
      "ÅĦsk": 514,
      "ag": 515,
      "Wi": 516,
      "nik": 517,
      "staw": 518,
      "ĠP": 519,
      "ach": 520,
      "dzieĠ": 521,
      "do": 522,
      "ceĠ": 523,
      "Å¼Ġ": 524,
      "iel": 525,
      "si": 526,
      "ych": 527,
      "no": 528,
      "wal": 529,
      "ĠiĠ": 530,
      "mo": 531,
      "cieĠ": 532,
      "ÅĤo": 533,
      "ÄĻp": 534,
      "achĠ": 535,
      "ostaÅĤ": 536,
      "ĠK": 537,
      "ĠdoĠ": 538,
      "toĠ": 539,
      "noÅĽ": 540,
      "laĠ": 541,
      "stan": 542,
      "tw": 543,
      ".ĊĊĠÅ¹rÃ³dÅĤaĠĊĠ": 544,
      "ab": 545,
      "Ar": 546,
      "ora": 547,
      "ko": 548,
      "ĠS": 549,
      "nych": 550,
      "owaÅĤ": 551,
      "ĠprzezĠ": 552,
      "uro": 553,
      "gÅĤ": 554,
      "wie": 555,
      "cji": 556,
      "gra": 557,
      "Ġpre": 558,
      "kaĊKategoria:": 559,
      "naĠp": 560,
      "Mi": 561,
      "wy": 562,
      "âĢĵĠ": 563,
      "rod": 564,
      "ÅĤyĠ": 565,
      "ajÄħc": 566,
      "de": 567,
      "kie": 568,
      "aty": 569,
      "âĢĿ": 570,
      "sĠ": 571,
      "orazĠ": 572,
      "ez": 573,
      "chi": 574,
      "oz": 575,
      "âĢŀ": 576,
      "Åļ": 577,
      "jestĠ": 578,
      "usz": 579,
      ".ĠN": 580,
      "iegoĠ": 581,
      "aniaĠ": 582,
      "mia": 583,
      "Ġs": 584,
      "lat": 585,
      "iejs": 586,
      "iad": 587,
      "aĠz": 588,
      "ÅĤa": 589,
      "bor": 590,
      "ug": 591,
      "inform": 592,
      "Ã³ÅĤ": 593,
      "anieĠ": 594,
      "im": 595,
      "ujÄħc": 596,
      "ÅĤad": 597,
      "ort": 598,
      ".ĠZ": 599,
      ".ĊĊW": 600,
      "zyd": 601,
      "anie": 602,
      "Ġpow": 603,
      "Sp": 604,
      "arsz": 605,
      "yĠz": 606,
      "PolskaĊKategoria:": 607,
      "iejĠ": 608,
      "est": 609,
      "us": 610,
      "10": 611,
      "stÄĻp": 612,
      "ew": 613,
      "to": 614,
      "kol": 615,
      "spraw": 616,
      ".ĠĊĊ": 617,
      "Ġroku": 618,
      "kom": 619,
      "In": 620,
      "ÅĦstw": 621,
      "iego": 622,
      "arz": 623,
      "urop": 624,
      "zj": 625,
      "ierw": 626,
      "ri": 627,
      "Ġpra": 628,
      "wiat": 629,
      "and": 630,
      "pi": 631,
      "row": 632,
      "tra": 633,
      "niuĠ": 634,
      "miĠ": 635,
      "cyj": 636,
      "Archi": 637,
      ",ĠaĠ": 638,
      "ĠM": 639,
      "wiÄħ": 640,
      "po": 641,
      "uÅ¼": 642,
      "il": 643,
      "ÅĽci": 644,
      "nieĠz": 645,
      "th": 646,
      "godz": 647,
      "Archiwal": 648,
      "oÅĽci": 649,
      "rowa": 650,
      "Ã³b": 651,
      "ÅĤy": 652,
      "rw": 653,
      "gani": 654,
      "raj": 655,
      "czÄĻ": 656,
      "stro": 657,
      "rzym": 658,
      ".ĠJ": 659,
      ")Ġ": 660,
      "Wiki": 661,
      "ubli": 662,
      "tymĠ": 663,
      "nist": 664,
      "rÃ³w": 665,
      "ĠrokuĠ": 666,
      "odĠ": 667,
      "osÃ³b": 668,
      "iiĠ": 669,
      "miejs": 670,
      "Europ": 671,
      ",ĠwĠ": 672,
      ".ĠD": 673,
      "sam": 674,
      "ac": 675,
      "Ch": 676,
      "bÄĻdzieĠ": 677,
      "ujeĠ": 678,
      "ĠpoĠ": 679,
      "negoĠ": 680,
      "oÅĽciĠ": 681,
      "skiĠ": 682,
      "Archiwalne": 683,
      "mier": 684,
      "cjaĠ": 685,
      "iaĠ": 686,
      "ec": 687,
      "sie": 688,
      "ion": 689,
      "wĠ": 690,
      "12": 691,
      "wiÄĻ": 692,
      "olity": 693,
      "gru": 694,
      "15": 695,
      "An": 696,
      "Wy": 697,
      "umb": 698,
      "sw": 699,
      "mu": 700,
      "nia": 701,
      ".ĠO": 702,
      ".ĊĊP": 703,
      ".ĠT": 704,
      "Le": 705,
      "rak": 706,
      "Mar": 707,
      "now": 708,
      "czon": 709,
      "ĊĠĊĊKategoria:": 710,
      "up": 711,
      "zydent": 712,
      "jÄĻ": 713,
      "Ġwi": 714,
      "thumb": 715,
      "nejĠ": 716,
      "Li": 717,
      "lan": 718,
      "goĠ": 719,
      "arze": 720,
      "thumb|": 721,
      "ymĠ": 722,
      ",ĠÅ¼e": 723,
      "ĠB": 724,
      "byĠ": 725,
      "czyĠ": 726,
      "ĠnaĠ": 727,
      "dlaĠ": 728,
      "dni": 729,
      "dzia": 730,
      "amiĠ": 731,
      "liw": 732,
      "Pol": 733,
      "es": 734,
      ".ĊĊĠÅ¹rÃ³dÅĤaĠĊĠĊĊKategoria:": 735,
      "ekĠ": 736,
      "da": 737,
      "arszaw": 738,
      "ÅĦski": 739,
      "tor": 740,
      "lu": 741,
      "myĠ": 742,
      "uch": 743,
      "Ġprzed": 744,
      "Ġpoli": 745,
      "dyĠ": 746,
      "nt": 747,
      "ery": 748,
      "iÅĤ": 749,
      "my": 750,
      "szcze": 751,
      "oby": 752,
      "Ġzap": 753,
      "Ġpop": 754,
      "owych": 755,
      "uk": 756,
      "Ġli": 757,
      "zw": 758,
      "Ġpraw": 759,
      "pad": 760,
      "Ġwsp": 761,
      "nymĠ": 762,
      "acjiĠ": 763,
      "Ġpa": 764,
      "ele": 765,
      "coĠ": 766,
      "aliĠ": 767,
      "owe": 768,
      "ĊKategoria:P": 769,
      "tur": 770,
      "px": 771,
      "owaniaĠ": 772,
      "owyĠ": 773,
      "pie": 774,
      "nej": 775,
      "Ġdo": 776,
      "bar": 777,
      "ist": 778,
      "era": 779,
      "\"Ġ": 780,
      "bez": 781,
      "kor": 782,
      "Ġpierw": 783,
      "odni": 784,
      "nar": 785,
      "2024": 786,
      "ator": 787,
      "ĠR": 788,
      "pre": 789,
      "wÃ³": 790,
      "organi": 791,
      "leĠ": 792,
      "13": 793,
      "koĠ": 794,
      "Ġpolsk": 795,
      "0Ġ": 796,
      "of": 797,
      "owychĠ": 798,
      "zna": 799,
      "aĠwĠ": 800,
      "aÅĤaĠ": 801,
      "25": 802,
      "ajÄħĠ": 803,
      "Äħt": 804,
      "nic": 805,
      "ami": 806,
      "ÅĤaw": 807,
      "aut": 808,
      "ichĠ": 809,
      "Warszaw": 810,
      "11": 811,
      "ArchiwalneĊ": 812,
      "powie": 813,
      ".ĠWĠ": 814,
      "eÅĤ": 815,
      "ÅĤug": 816,
      "owejĠ": 817,
      "acz": 818,
      "gÅĤos": 819,
      "zyĠ": 820,
      "med": 821,
      "kar": 822,
      "Åģ": 823,
      "wiÄħz": 824,
      "Ġpowie": 825,
      "aĠiĠ": 826,
      "ĠG": 827,
      "kur": 828,
      "Ġwybor": 829,
      "rzyĠ": 830,
      "oÅĽÄĩ": 831,
      "szyst": 832,
      "dan": 833,
      "bÄĻd": 834,
      "Ġwz": 835,
      "iÄĻdz": 836,
      "mar": 837,
      "14": 838,
      "oni": 839,
      "2025": 840,
      "oÅĤe": 841,
      "ale": 842,
      "pis": 843,
      "ck": 844,
      "erĠ": 845,
      "Åļwiat": 846,
      "owaneĠ": 847,
      "ii": 848,
      "kil": 849,
      "Ã³w,Ġ": 850,
      "taĠ": 851,
      "aÅĤy": 852,
      "olitykaĊKategoria:": 853,
      "rÃ³wnie": 854,
      "iem": 855,
      "owaĠ": 856,
      "go": 857,
      "czÄħc": 858,
      "tem": 859,
      "owej": 860,
      "tĠ": 861,
      "la": 862,
      "owaÅĤĠ": 863,
      "ĊĊĠ": 864,
      "lub": 865,
      "),Ġ": 866,
      "nym": 867,
      "skaĠ": 868,
      "Ġza": 869,
      "ser": 870,
      "ym": 871,
      "jedna": 872,
      "iast": 873,
      "u,Ġ": 874,
      "gen": 875,
      ",Ġw": 876,
      "Äħg": 877,
      ".Ġ19": 878,
      "rowadz": 879,
      "bra": 880,
      ",Ġjak": 881,
      "oweĠ": 882,
      "inter": 883,
      "stycz": 884,
      "rÄĻ": 885,
      "nÄħĠ": 886,
      "ust": 887,
      "zd": 888,
      "18": 889,
      "maĠ": 890,
      "nÄħ": 891,
      "cia": 892,
      "jĠ": 893,
      "16": 894,
      "aÄĩĠ": 895,
      "D)": 896,
      "px|": 897,
      "och": 898,
      "ur.Ġ19": 899,
      ":00": 900,
      "aleĠ": 901,
      "zeĠ": 902,
      "jekt": 903,
      "waĠ": 904,
      "aÅ¼": 905,
      "rug": 906,
      "17": 907,
      "WD)": 908,
      "kan": 909,
      "Kon": 910,
      "nikaĠ": 911,
      "spot": 912,
      "orz": 913,
      "ory": 914,
      "ing": 915,
      "Ċthumb|": 916,
      "niĠ": 917,
      "arty": 918,
      ",ĠktÃ³reĠ": 919,
      "aczy": 920,
      "Ġwyd": 921,
      "kaz": 922,
      "trze": 923,
      "takÅ¼eĠ": 924,
      "aĠprze": 925,
      "ĠzostaÅĤ": 926,
      ".ĠM": 927,
      "raz": 928,
      "osob": 929,
      "obec": 930,
      "Ġpoz": 931,
      "wat": 932,
      "niÄĻ": 933,
      "wiet": 934,
      "chodz": 935,
      "moÅ¼": 936,
      "ans": 937,
      "skiej": 938,
      "nego": 939,
      "cki": 940,
      "oÅ¼": 941,
      "ĊKategoria:ArchiwalneĊ": 942,
      "odby": 943,
      "edy": 944,
      "wiad": 945,
      "arzy": 946,
      "uÅ¼y": 947,
      "aÅĤoĠ": 948,
      "tyĠ": 949,
      "zent": 950,
      "niu": 951,
      "ta": 952,
      ".ĠS": 953,
      "ÅĦĠ": 954,
      "jiĠ": 955,
      "Ã³l": 956,
      "nĠ": 957,
      "onad": 958,
      "skiego": 959,
      "bardz": 960,
      "ĠwiÄĻ": 961,
      "ciaĠ": 962,
      "sÄħĠ": 963,
      "czeÅĦstw": 964,
      "wan": 965,
      ",ĠktÃ³ryĠ": 966,
      "nÄĻ": 967,
      "bli": 968,
      "unk": 969,
      ",Ġz": 970,
      "gl": 971,
      "min": 972,
      "Pi": 973,
      "obie": 974,
      "niejĠ": 975,
      "siÄĻĠwĠ": 976,
      "owegoĠ": 977,
      "rac": 978,
      "bud": 979,
      "Ġwie": 980,
      "enĠ": 981,
      "nika": 982,
      "skiegoĠ": 983,
      "cjal": 984,
      "kraj": 985,
      "oraz": 986,
      "ĠĠĠĠ": 987,
      ".ĊĊĠ": 988,
      "oÅĤoĠ": 989,
      "ostat": 990,
      "awi": 991,
      "rat": 992,
      "rĠ": 993,
      ".ĠK": 994,
      "aÄĩ": 995,
      "lam": 996,
      "ĠzaĠ": 997,
      "fer": 998,
      "cĠ": 999,
      "kier": 1000,
      "owymĠ": 1001,
      "Ġzd": 1002,
      "kolej": 1003,
      "dniaĠ": 1004,
      "minist": 1005,
      ".ĠR": 1006,
      "1Ġ": 1007,
      "SA": 1008,
      "stop": 1009,
      "oĠz": 1010,
      "eli": 1011,
      "god": 1012,
      "czasĠ": 1013,
      "Ġwiel": 1014,
      "Ġpolity": 1015,
      "au": 1016,
      "owanieĠ": 1017,
      "ÄĻd": 1018,
      "aĠwy": 1019,
      "und": 1020,
      "rol": 1021,
      "tejĠ": 1022,
      "ecz": 1023,
      "caÅĤ": 1024,
      "oÅĦ": 1025,
      "noÅĽci": 1026,
      "noÅĽciĠ": 1027,
      "czeÅĽ": 1028,
      "jegoĠ": 1029,
      "ciÄĻ": 1030,
      "Ġzak": 1031,
      "gi": 1032,
      "muĠ": 1033,
      "omi": 1034,
      "2007": 1035,
      "zeniaĠ": 1036,
      "pl": 1037,
      "Ġwoj": 1038,
      "aĠK": 1039,
      "ĊĠĊĠ": 1040,
      "reÅĽ": 1041,
      "res": 1042,
      "ÅĤÄħ": 1043,
      "Rad": 1044,
      "oÅĽÄĩĠ": 1045,
      "mog": 1046,
      "ari": 1047,
      ".ĠB": 1048,
      "Ġwszyst": 1049,
      "der": 1050,
      "skie": 1051,
      "ĊĊĠÅ¹rÃ³dÅĤaĠĊĠ": 1052,
      "cent": 1053,
      "godzin": 1054,
      "zap": 1055,
      "Pols": 1056,
      "edÅĤug": 1057,
      "zn": 1058,
      "kÃ³w": 1059,
      "Fran": 1060,
      "30": 1061,
      "czerw": 1062,
      "tym": 1063,
      "dziaÅĤĠ": 1064,
      "ht": 1065,
      ",Ġg": 1066,
      "jaĠ": 1067,
      "tegoĠ": 1068,
      "szyĠ": 1069,
      "Ġprezydent": 1070,
      "Ġprac": 1071,
      "ajÄħ": 1072,
      "ĊW": 1073,
      "ĠW": 1074,
      "Ġpubli": 1075,
      "ied": 1076,
      "acjaĠ": 1077,
      "zie": 1078,
      "24": 1079,
      "yt": 1080,
      "maÅĤy": 1081,
      ".in": 1082,
      ".ĊĊN": 1083,
      "tyl": 1084,
      "lok": 1085,
      "rzÄħd": 1086,
      "ÅĽrod": 1087,
      "anyĠ": 1088,
      "waÅ¼": 1089,
      "aneĠ": 1090,
      "stÄħ": 1091,
      "nicz": 1092,
      "organiz": 1093,
      "grup": 1094,
      "oneĠ": 1095,
      "ostÄĻp": 1096,
      "rÃ³Å¼": 1097,
      "olog": 1098,
      "ĊKategoria:K": 1099,
      "2Ġ": 1100,
      "tych": 1101,
      "yĠwĠ": 1102,
      "cer": 1103,
      "ers": 1104,
      "umĠ": 1105,
      "nieĠwy": 1106,
      "Ġmar": 1107,
      "5Ġ": 1108,
      "acji": 1109,
      "nad": 1110,
      "Ros": 1111,
      "2023": 1112,
      "ierdzi": 1113,
      "teÅ¼Ġ": 1114,
      "raĠ": 1115,
      "owaÄĩĠ": 1116,
      "las": 1117,
      "swoj": 1118,
      "omĠ": 1119,
      "sÅĤaw": 1120,
      "ĠT": 1121,
      "Ġpoinform": 1122,
      "sÄħ": 1123,
      "And": 1124,
      "decy": 1125,
      "noĠ": 1126,
      "owisk": 1127,
      ".ĊĠ": 1128,
      "Ġprojekt": 1129,
      "fin": 1130,
      "ped": 1131,
      "kÃ³wĠ": 1132,
      "nikĠ": 1133,
      "Sz": 1134,
      "ĊKategoria:PolskaĊKategoria:": 1135,
      "dzier": 1136,
      "imĠ": 1137,
      ".ĊĊWĠ": 1138,
      "asz": 1139,
      "bo": 1140,
      "iĠz": 1141,
      "cznej": 1142,
      "nat": 1143,
      "Ġpor": 1144,
      "spod": 1145,
      "uka": 1146,
      "miejsc": 1147,
      "war": 1148,
      "Ġpar": 1149,
      "obacz": 1150,
      "aÅĤyĠ": 1151,
      "Ġwp": 1152,
      "bÄĻdÄħĠ": 1153,
      "Ġ-Ġ": 1154,
      "Europej": 1155,
      "Ġzost": 1156,
      "Ġpi": 1157,
      "ciÄħg": 1158,
      "ram": 1159,
      "czÅĤ": 1160,
      "dop": 1161,
      "Åºdzier": 1162,
      "cjÄĻ": 1163,
      "Al": 1164,
      "Ġmaj": 1165,
      "ich": 1166,
      "maÅĤy|": 1167,
      "osi": 1168,
      "ĠD": 1169,
      "jedno": 1170,
      "net": 1171,
      "ĠC": 1172,
      "ozna": 1173,
      "siÄĻĠnaĠ": 1174,
      "Uni": 1175,
      "jaz": 1176,
      "II": 1177,
      "cel": 1178,
      "Wikiped": 1179,
      "cznejĠ": 1180,
      "ĠpaÅºdzier": 1181,
      "fil": 1182,
      "ĠwÅĤa": 1183,
      "onoĠ": 1184,
      "lep": 1185,
      "spoÅĤe": 1186,
      "uzy": 1187,
      "okoÅĤoĠ": 1188,
      "oc": 1189,
      "watel": 1190,
      ",Ġpo": 1191,
      "korzy": 1192,
      "ĠprzyĠ": 1193,
      "onyĠ": 1194,
      "3Ġ": 1195,
      "szt": 1196,
      "aĠP": 1197,
      "ktor": 1198,
      "odpowie": 1199,
      "byÅĤ": 1200,
      "8Ġ": 1201,
      "narod": 1202,
      "kra": 1203,
      "byÅĤĠ": 1204,
      "rog": 1205,
      "szÅĤoĠ": 1206,
      "Jan": 1207,
      ".ĊĊZ": 1208,
      "oje": 1209,
      "rezydent": 1210,
      "ks": 1211,
      "iesz": 1212,
      "ogra": 1213,
      "czÄĻÅĽ": 1214,
      "miast": 1215,
      "Ġprzez": 1216,
      "juÅ¼": 1217,
      "ujÄħĠ": 1218,
      "nale": 1219,
      "ÅĦskiĠ": 1220,
      "bro": 1221,
      "y,Ġ": 1222,
      "czneĠ": 1223,
      "rodz": 1224,
      "anoĠ": 1225,
      "ĠtoĠ": 1226,
      "miÄĻdz": 1227,
      "onadĠ": 1228,
      "ucze": 1229,
      "Ġprzedstaw": 1230,
      "rÃ³wnieÅ¼": 1231,
      "Ġzaw": 1232,
      "ryw": 1233,
      "Ġkwiet": 1234,
      "owaÄĩ": 1235,
      "ĠâĢĵĠ": 1236,
      "ĠwĠPols": 1237,
      "feren": 1238,
      "spe": 1239,
      "yĠiĠ": 1240,
      "Å»": 1241,
      "rzeÅĽ": 1242,
      "ocz": 1243,
      "mÃ³w": 1244,
      "byÅĤaĠ": 1245,
      "onaĠ": 1246,
      "uÅ¼Ġ": 1247,
      "ierp": 1248,
      "o-": 1249,
      "obro": 1250,
      "lÄħ": 1251,
      "bie": 1252,
      "cin": 1253,
      "wiÄĻk": 1254,
      "tele": 1255,
      "ciw": 1256,
      "ĊKategoria:T": 1257,
      "tar": 1258,
      "zaĠ": 1259,
      "cjÄĻĠ": 1260,
      "bu": 1261,
      "owanie": 1262,
      "prze": 1263,
      "ÄħdĠ": 1264,
      "ĠN": 1265,
      "Inter": 1266,
      "nau": 1267,
      "reg": 1268,
      "tyw": 1269,
      "onal": 1270,
      "tek": 1271,
      "Ã³d": 1272,
      "trz": 1273,
      "byÅĤoĠ": 1274,
      "spodar": 1275,
      "one": 1276,
      "waj": 1277,
      "oka": 1278,
      "Re": 1279,
      "strze": 1280,
      "got": 1281,
      ".ĊĊD": 1282,
      "uĠz": 1283,
      "ĠwrzeÅĽ": 1284,
      ",ĠaleĠ": 1285,
      "let": 1286,
      "spotka": 1287,
      "uli": 1288,
      "najd": 1289,
      "6Ġ": 1290,
      "teÅ¼": 1291,
      "zesp": 1292,
      "kÄĻ": 1293,
      "ÅĽmier": 1294,
      "doty": 1295,
      "szychĠ": 1296,
      "ultur": 1297,
      "owego": 1298,
      "amĠ": 1299,
      "ĠwspÃ³ÅĤ": 1300,
      "aĊ": 1301,
      "tuĠ": 1302,
      "bad": 1303,
      "sport": 1304,
      "ic": 1305,
      "uĠwĠ": 1306,
      ".ĊĊO": 1307,
      "nastÄĻp": 1308,
      "ÅĦc": 1309,
      "kry": 1310,
      "Minist": 1311,
      "Ġpowod": 1312,
      "Am": 1313,
      "teĠ": 1314,
      "ir": 1315,
      "27": 1316,
      "osk": 1317,
      "strz": 1318,
      "ĊKategoria:N": 1319,
      "Ġprogra": 1320,
      "atrzym": 1321,
      ":ĊĠ": 1322,
      "uje": 1323,
      "nicyĠ": 1324,
      "onĠ": 1325,
      "ustaw": 1326,
      "daĠ": 1327,
      "styczniaĠ": 1328,
      "rowadzi": 1329,
      "leg": 1330,
      "Ġpart": 1331,
      "PolitykaĊKategoria:": 1332,
      "Cz": 1333,
      ".0": 1334,
      "jakoĠ": 1335,
      "lot": 1336,
      "ĠpaÅĦstw": 1337,
      "szk": 1338,
      "ght": 1339,
      ".ĠNaĠ": 1340,
      "juÅ¼Ġ": 1341,
      "bezpie": 1342,
      "skaz": 1343,
      "owiĠ": 1344,
      "it": 1345,
      "Kom": 1346,
      "Ġplan": 1347,
      "Ġzam": 1348,
      "jeszcze": 1349,
      "skichĠ": 1350,
      "dok": 1351,
      "ang": 1352,
      "stopad": 1353,
      "licz": 1354,
      "godzi": 1355,
      "ral": 1356,
      "udziaÅĤ": 1357,
      "szeĠ": 1358,
      ")Ċ": 1359,
      "wicz": 1360,
      "ÅĽwiat": 1361,
      "ĠkwietniaĠ": 1362,
      "Ġlip": 1363,
      "ktÃ³": 1364,
      "osÅĤaw": 1365,
      "rozpo": 1366,
      "stra": 1367,
      "drug": 1368,
      "otrzym": 1369,
      "ety": 1370,
      "owaÅĤaĠ": 1371,
      "cen": 1372,
      "test": 1373,
      "ja": 1374,
      "Ġroz": 1375,
      "grudniaĠ": 1376,
      "jednakĠ": 1377,
      "miaÅĤ": 1378,
      "prezent": 1379,
      "Praw": 1380,
      ".ĠA": 1381,
      "23": 1382,
      ",ĠWD)": 1383,
      "star": 1384,
      "Ġmi": 1385,
      "ian": 1386,
      "usk": 1387,
      "jÄħc": 1388,
      "kat": 1389,
      "Jak": 1390,
      "owiÄħ": 1391,
      "gÅĤÃ³w": 1392,
      "bÄĻdzie": 1393,
      "miejsceĠ": 1394,
      "Go": 1395,
      "ole": 1396,
      "0px|": 1397,
      "eryka": 1398,
      "atycz": 1399,
      "lament": 1400,
      "ĠdlaĠ": 1401,
      "Spraw": 1402,
      "ĠprzedĠ": 1403,
      "naĠw": 1404,
      ",ĠwĠktÃ³r": 1405,
      "su": 1406,
      "tylkoĠ": 1407,
      "ĠmarcaĠ": 1408,
      "ĠpiÅĤ": 1409,
      "dat": 1410,
      "zenieĠ": 1411,
      "kÅĤad": 1412,
      "fir": 1413,
      "rzecz": 1414,
      "tal": 1415,
      "ĠzwiÄħz": 1416,
      "ÄĻÅ¼": 1417,
      "ÅĽcieĠ": 1418,
      "ov": 1419,
      "9Ġ": 1420,
      "syst": 1421,
      "se": 1422,
      "nikÃ³w": 1423,
      "artyku": 1424,
      "right": 1425,
      "owym": 1426,
      "esti": 1427,
      "gro": 1428,
      "jednak": 1429,
      "Ã³ÅĤĠ": 1430,
      "skiejĠ": 1431,
      "4Ġ": 1432,
      "funk": 1433,
      "uczest": 1434,
      "tychĠ": 1435,
      "atak": 1436,
      "Å¹rÃ³d": 1437,
      "czor": 1438,
      "m.in": 1439,
      "iaĊKategoria:": 1440,
      "Ġwyni": 1441,
      "Ġlistopad": 1442,
      ".ĊĊĠÅ¹rÃ³dÅĤaĠĊĠĊĠĊĊKategoria:": 1443,
      "sytu": 1444,
      "i,Ġ": 1445,
      "owarzy": 1446,
      "ĠpaÅºdziernikaĠ": 1447,
      "ĠA": 1448,
      ".pl": 1449,
      "chod": 1450,
      "ĠmajaĠ": 1451,
      "Ġsierp": 1452,
      "lut": 1453,
      "uĠnaĠ": 1454,
      "ĠponadĠ": 1455,
      "nikÃ³wĠ": 1456,
      "praw": 1457,
      "ruch": 1458,
      "organiza": 1459,
      "wyciÄĻ": 1460,
      "Ġprzypad": 1461,
      "o,Ġ": 1462,
      "rad": 1463,
      "urz": 1464,
      "ten": 1465,
      "cjeĠ": 1466,
      "ble": 1467,
      "czeniaĠ": 1468,
      "szef": 1469,
      "Sej": 1470,
      "czerwcaĠ": 1471,
      ".Ċ": 1472,
      "22": 1473,
      "mis": 1474,
      "dyn": 1475,
      "szymĠ": 1476,
      "kw": 1477,
      "Nie": 1478,
      "ĠwĠK": 1479,
      "jÄħ": 1480,
      "etap": 1481,
      "Ã³Åº": 1482,
      "nichĠ": 1483,
      "cznieĠ": 1484,
      "Andrze": 1485,
      "temĠ": 1486,
      "Ġprzep": 1487,
      "baĠ": 1488,
      "Wikimed": 1489,
      "dw": 1490,
      "af": 1491,
      "czÅĤon": 1492,
      "ĠJ": 1493,
      "stat": 1494,
      "Ġwszystki": 1495,
      "arod": 1496,
      "bieg": 1497,
      ",ĠktÃ³raĠ": 1498,
      "Rze": 1499,
      "tram": 1500,
      "ierz": 1501,
      ",Ġp": 1502,
      "stru": 1503,
      "erg": 1504,
      "roc": 1505,
      "dzien": 1506,
      "ma": 1507,
      "siÄĻĠz": 1508,
      "nadĠ": 1509,
      "uz": 1510,
      "Cent": 1511,
      "Zjedno": 1512,
      "zyden": 1513,
      "szaĠ": 1514,
      "noc": 1515,
      "noÅ¼": 1516,
      "owanoĠ": 1517,
      "100": 1518,
      "26": 1519,
      "asad": 1520,
      "Å¼yĠ": 1521,
      "ofi": 1522,
      "godzinyĠ": 1523,
      "dow": 1524,
      "ant": 1525,
      "moÅ¼eĠ": 1526,
      "jÄħĠ": 1527,
      "kl": 1528,
      "Mich": 1529,
      "Zjednoczon": 1530,
      "tramwaj": 1531,
      "ca": 1532,
      "âĢĿĠ": 1533,
      "Pro": 1534,
      "nag": 1535,
      "owanyĠ": 1536,
      "s.Ġ": 1537,
      "nictw": 1538,
      "zostaÅĤ": 1539,
      "ÅĤat": 1540,
      "owieĠ": 1541,
      "owane": 1542,
      "skieĠ": 1543,
      "ĊKategoria:M": 1544,
      "Ġwyb": 1545,
      "ĠF": 1546,
      "\"Ġ-": 1547,
      "rowad": 1548,
      "ÄĻÅ¼czy": 1549,
      "cznych": 1550,
      "ment": 1551,
      "av": 1552,
      "stytu": 1553,
      "ft": 1554,
      "omiast": 1555,
      "byÅĤyĠ": 1556,
      "rÃ³wnieÅ¼Ġ": 1557,
      "gin": 1558,
      "ska": 1559,
      "zjiĠ": 1560,
      "EuropaĊKategoria:": 1561,
      "otw": 1562,
      "Ġtak": 1563,
      "iĠw": 1564,
      "anaĠ": 1565,
      "aÅĦ": 1566,
      "dom": 1567,
      "Ġpremier": 1568,
      "dziĠ": 1569,
      "Op": 1570,
      "ĊĊĠÅ¹rÃ³dÅĤaĠĊĠĊĊKategoria:": 1571,
      "den": 1572,
      "wag": 1573,
      "ĠwrzeÅĽniaĠ": 1574,
      "odzie": 1575,
      "finans": 1576,
      "ÅĽcig": 1577,
      "ument": 1578,
      "Ã³wĠiĠ": 1579,
      "rumĠ": 1580,
      "Äħ,Ġ": 1581,
      "rokuĠ": 1582,
      ")ĊĠ": 1583,
      "stÄħpi": 1584,
      "sob": 1585,
      ".ĠG": 1586,
      "byÄĩĠ": 1587,
      "dem": 1588,
      "21": 1589,
      "abyĠ": 1590,
      "miesz": 1591,
      "czne": 1592,
      "Sport": 1593,
      "dziel": 1594,
      "konkur": 1595,
      "iedliw": 1596,
      "obowiÄħ": 1597,
      "rakÃ³w": 1598,
      "Ġwal": 1599,
      "unkt": 1600,
      "rzed": 1601,
      "tech": 1602,
      "ĊKategoria:Åļwiat": 1603,
      "skich": 1604,
      "jeĠ": 1605,
      ".ĠU": 1606,
      "Or": 1607,
      "zew": 1608,
      "ameryka": 1609,
      "ony": 1610,
      "Wiel": 1611,
      "temat": 1612,
      "stos": 1613,
      "anych": 1614,
      "ĊmaÅĤy|": 1615,
      "ĊĠT": 1616,
      "Ġprzeciw": 1617,
      "nieĠw": 1618,
      "edÅĤugĠ": 1619,
      "Ġpierwsze": 1620,
      "AR": 1621,
      "atur": 1622,
      "estiwal": 1623,
      "skimĠ": 1624,
      "%Ġ": 1625,
      "ah": 1626,
      "tej": 1627,
      "naw": 1628,
      "Lin": 1629,
      "Fund": 1630,
      "ig": 1631,
      "kÄĻĠ": 1632,
      "aliz": 1633,
      "oÅĽwiad": 1634,
      "Narod": 1635,
      "woj": 1636,
      "nÄĻtrz": 1637,
      "mieni": 1638,
      "syj": 1639,
      "ĠpowiedziaÅĤ": 1640,
      "ynarod": 1641,
      "Ġml": 1642,
      "ĠsierpniaĠ": 1643,
      "system": 1644,
      "ĠlipcaĠ": 1645,
      "fika": 1646,
      "erstw": 1647,
      "kont": 1648,
      "ÅĤĠsiÄĻĠ": 1649,
      "informacj": 1650,
      "jakĠ": 1651,
      "moÅ¼liw": 1652,
      "oĠw": 1653,
      "Jar": 1654,
      "cznegoĠ": 1655,
      "swo": 1656,
      "rakowie": 1657,
      "wÃ³dz": 1658,
      "Wybor": 1659,
      "Ã©": 1660,
      "Ġpoj": 1661,
      "Woj": 1662,
      "obaczĠ": 1663,
      "PiS": 1664,
      "czeÅĽniej": 1665,
      "osz": 1666,
      "dydat": 1667,
      "komu": 1668,
      "sÅĤuÅ¼": 1669,
      "28": 1670,
      "Ukra": 1671,
      "2024ĠrokuĠ": 1672,
      "aze": 1673,
      "hist": 1674,
      "..": 1675,
      "we": 1676,
      "kiemĠ": 1677,
      "siÄĻĠdoĠ": 1678,
      "ojewÃ³dz": 1679,
      "aniemĠ": 1680,
      "czyliĠ": 1681,
      "waniaĠ": 1682,
      "pra": 1683,
      "bior": 1684,
      "iĠprze": 1685,
      "à®": 1686,
      "niez": 1687,
      "aĠnaĠ": 1688,
      "niemĠ": 1689,
      "ĠH": 1690,
      "oĠd": 1691,
      "aĠ(": 1692,
      "niem": 1693,
      "cjon": 1694,
      "ĠZ": 1695,
      "kaÅ¼": 1696,
      ",ĠcoĠ": 1697,
      "Oby": 1698,
      "onie": 1699,
      "umie": 1700,
      "Ġwykon": 1701,
      "stawie": 1702,
      "cÃ³w": 1703,
      "Ġde": 1704,
      "kin": 1705,
      "sieĠ": 1706,
      "ciuĠ": 1707,
      "kul": 1708,
      ".ĠC": 1709,
      "SpoÅĤe": 1710,
      "roku": 1711,
      "Obywatel": 1712,
      "right|": 1713,
      "byÄĩ": 1714,
      "tel": 1715,
      "iar": 1716,
      "29": 1717,
      "nia,Ġ": 1718,
      "yĠnaĠ": 1719,
      "ĠlistopadaĠ": 1720,
      "ĠzÅĤ": 1721,
      "Ġzab": 1722,
      "ĠpodĠ": 1723,
      "kreÅĽ": 1724,
      "aĠpod": 1725,
      ".ĠWy": 1726,
      "owiad": 1727,
      "ÅĽrÃ³d": 1728,
      "olej": 1729,
      "siÄħc": 1730,
      "ini": 1731,
      "WĠ": 1732,
      "Ã³j": 1733,
      "oĠwĠ": 1734,
      "arÃ³w": 1735,
      "Ġprzedstawi": 1736,
      "alĠ": 1737,
      "iemĠ": 1738,
      "nymiĠ": 1739,
      "mat": 1740,
      "szÅĤoĠdoĠ": 1741,
      "ÅĽcie": 1742,
      "takÅ¼e": 1743,
      "nieĠzostaÅĤ": 1744,
      "ĠpodczasĠ": 1745,
      "wodni": 1746,
      "Ġzag": 1747,
      "szczeg": 1748,
      "ane": 1749,
      "ÅĤÃ³w": 1750,
      "Ġmiejs": 1751,
      "aniuĠ": 1752,
      "50": 1753,
      "ierdz": 1754,
      "autor": 1755,
      "tere": 1756,
      "10Ġ": 1757,
      "owÄħĠ": 1758,
      "ina": 1759,
      "iĠwĠ": 1760,
      "iĠp": 1761,
      "Ġzmar": 1762,
      "skÅĤad": 1763,
      "lutegoĠ": 1764,
      "ĊĠĊĠĊĊKategoria:": 1765,
      "zost": 1766,
      "noÅĽÄĩĠ": 1767,
      "eksp": 1768,
      "ÅĤos": 1769,
      "moÅ¼naĠ": 1770,
      "ĠpoÅĤ": 1771,
      "Ġwydarze": 1772,
      "ÅĽwiÄĻ": 1773,
      ".ĊĊT": 1774,
      "wid": 1775,
      "trw": 1776,
      "drog": 1777,
      "Ã³ÅĤnoc": 1778,
      "Af": 1779,
      "ransport": 1780,
      "dotyczÄħc": 1781,
      "eral": 1782,
      "cznychĠ": 1783,
      ",Ġwy": 1784,
      "ĠwiÄĻk": 1785,
      "Ġwol": 1786,
      "left": 1787,
      "man": 1788,
      "7Ġ": 1789,
      "zespoÅĤ": 1790,
      "Å¼eniaĠ": 1791,
      "jazd": 1792,
      "chodziĠ": 1793,
      "kro": 1794,
      "bliÅ¼": 1795,
      "list": 1796,
      "aktor": 1797,
      "boĠ": 1798,
      "spoli": 1799,
      "nieniaĠ": 1800,
      "kÄħĠ": 1801,
      "owski": 1802,
      "ktÃ³re": 1803,
      "odob": 1804,
      "son": 1805,
      "noÅĽÄĩ": 1806,
      "Ġwskaz": 1807,
      "ÄħÅ¼": 1808,
      "nal": 1809,
      "pospoli": 1810,
      "Tusk": 1811,
      "sÅĤug": 1812,
      "ast": 1813,
      "BiaÅĤ": 1814,
      "ert": 1815,
      "zak": 1816,
      "Ġparlament": 1817,
      "ÅĽĠ": 1818,
      "a,ĠÅ¼eĠ": 1819,
      "ÅĽmyĠ": 1820,
      ".ĠJed": 1821,
      "korzyst": 1822,
      "niegoĠ": 1823,
      "razĠ": 1824,
      "komp": 1825,
      "ĠpowiedziaÅĤĠ": 1826,
      "ajeĠ": 1827,
      "uzysk": 1828,
      "miÄĻdzyĠ": 1829,
      "ozy": 1830,
      "ĠL": 1831,
      "serwi": 1832,
      "onychĠ": 1833,
      "mag": 1834,
      "ogiĠ": 1835,
      "rozm": 1836,
      ".ĊĊ\"": 1837,
      "siÄĻĠzĠ": 1838,
      "TV": 1839,
      "ĊP": 1840,
      "ary": 1841,
      "Ġwe": 1842,
      "dostÄĻp": 1843,
      "ces": 1844,
      "niÅ¼": 1845,
      "ore": 1846,
      "uĠiĠ": 1847,
      "start": 1848,
      "red": 1849,
      "aczyÅĦski": 1850,
      "be": 1851,
      "eÅĤni": 1852,
      "Ġproc": 1853,
      "niew": 1854,
      "Ġpos": 1855,
      "aÅĤo": 1856,
      "rocÅĤaw": 1857,
      "czÄħ": 1858,
      ",ĠktÃ³ry": 1859,
      "Ġprezyden": 1860,
      "latform": 1861,
      "orzÄħd": 1862,
      "nicze": 1863,
      "cje": 1864,
      "czeÅĦstwo": 1865,
      "aĠS": 1866,
      "mon": 1867,
      "Ġproble": 1868,
      "30Ġ": 1869,
      "oÅĤnie": 1870,
      "czaĠ": 1871,
      "rzysz": 1872,
      ".ĊĊKategoria:": 1873,
      "Ġprowadz": 1874,
      "Ġprzygot": 1875,
      "Ġpunkt": 1876,
      "nieĠwĠ": 1877,
      "USA": 1878,
      "jejĠ": 1879,
      "astro": 1880,
      "wer": 1881,
      "wÃ³chĠ": 1882,
      "tkow": 1883,
      "kieĠ": 1884,
      "woÅĤ": 1885,
      "ĠPol": 1886,
      "Ale": 1887,
      "ros": 1888,
      ",ĠnaĠ": 1889,
      ",Ġur.Ġ19": 1890,
      "tr": 1891,
      "Ġpozy": 1892,
      "zam": 1893,
      "odzi": 1894,
      "ÅĤaĠsiÄĻĠ": 1895,
      "szÄħĠ": 1896,
      "czyÅĤĠ": 1897,
      "zach": 1898,
      "osÃ³bĠ": 1899,
      "stwierdzi": 1900,
      "jech": 1901,
      "rzeĠ": 1902,
      "iz": 1903,
      "rÃ³b": 1904,
      "atyw": 1905,
      "ÅĽliĠ": 1906,
      "sok": 1907,
      "PolskaĠp": 1908,
      "r.Ġ": 1909,
      "SP": 1910,
      "mp": 1911,
      "wor": 1912,
      "elekt": 1913,
      "ĊKategoria:S": 1914,
      "Å¼ad": 1915,
      "udni": 1916,
      "cznyĠ": 1917,
      "iadom": 1918,
      "sku": 1919,
      "awia": 1920,
      "sprze": 1921,
      "rozryw": 1922,
      "rej": 1923,
      "dar": 1924,
      "ÄħĠwĠ": 1925,
      "mieszka": 1926,
      "Polski": 1927,
      "roni": 1928,
      "ng": 1929,
      "odat": 1930,
      "oĠwy": 1931,
      "saĠ": 1932,
      "ĠÅ¹rÃ³dÅĤoĠ": 1933,
      "pital": 1934,
      "ĊĠP": 1935,
      "ÅļlÄħ": 1936,
      "met": 1937,
      "our": 1938,
      "ok.Ġ": 1939,
      "199": 1940,
      "ÄĻdzi": 1941,
      "ruÅ¼y": 1942,
      "Ã³wĠwĠ": 1943,
      "Bar": 1944,
      "gor": 1945,
      "ial": 1946,
      "ryĠ": 1947,
      "ji": 1948,
      "wol": 1949,
      "ĠpoinformowaÅĤ": 1950,
      "autom": 1951,
      "konferen": 1952,
      "rud": 1953,
      "sprawieĠ": 1954,
      "ginÄĻ": 1955,
      "S-": 1956,
      "jedy": 1957,
      "Inform": 1958,
      "nieĠprze": 1959,
      "JarosÅĤaw": 1960,
      "internet": 1961,
      "ÅĤ,ĠÅ¼eĠ": 1962,
      "owany": 1963,
      "mieĠ": 1964,
      "tekĠ": 1965,
      "mecz": 1966,
      "tego": 1967,
      "org": 1968,
      "czyst": 1969,
      "Cze": 1970,
      "wia": 1971,
      "spotk": 1972,
      "tysiÄĻ": 1973,
      "ber": 1974,
      "omasz": 1975,
      "2025Ġroku": 1976,
      "pp": 1977,
      "decyd": 1978,
      "dziennik": 1979,
      "Dzie": 1980,
      "ocze": 1981,
      "kiewicz": 1982,
      "m,Ġ": 1983,
      "nios": 1984,
      "samoch": 1985,
      "dal": 1986,
      "reprezent": 1987,
      ",5": 1988,
      "Ġmin": 1989,
      "PolskiĠ": 1990,
      "danych": 1991,
      "niczy": 1992,
      "odbÄĻdzieĠ": 1993,
      "kandydat": 1994,
      "PO": 1995,
      "nie,Ġ": 1996,
      ".Ġ\"": 1997,
      "oru": 1998,
      "ciel": 1999,
      "Te": 2000,
      ",Ġ,Ġ": 2001,
      "ĠwĠp": 2002,
      ".ĠI": 2003,
      "ura": 2004,
      "osoby": 2005,
      "cznego": 2006,
      "opolsk": 2007,
      "godzinieĠ": 2008,
      "ĠO": 2009,
      "lac": 2010,
      "godz.Ġ": 2011,
      ",ĠktÃ³rzyĠ": 2012,
      "Ġmo": 2013,
      ".ĊĊS": 2014,
      "spÃ³ÅĤ": 2015,
      "ktur": 2016,
      "ÅĦskiego": 2017,
      "koÅĦ": 2018,
      "nawet": 2019,
      ".ĠJak": 2020,
      "owod": 2021,
      "port": 2022,
      "owaliĠ": 2023,
      "left|": 2024,
      "cu": 2025,
      "gener": 2026,
      "oficjal": 2027,
      "rup": 2028,
      "ace": 2029,
      "ĠmoÅ¼": 2030,
      "sek": 2031,
      "ÅĦskiegoĠ": 2032,
      "ulturaĠiĠ": 2033,
      "250px|": 2034,
      "stanowi": 2035,
      "Å¼oÅĤnie": 2036,
      "kinew": 2037,
      "Bi": 2038,
      "2022": 2039,
      "2026": 2040,
      "any": 2041,
      "Gospodar": 2042,
      "sta": 2043,
      "mniej": 2044,
      "ekrol": 2045,
      "ulturaĠiĠrozryw": 2046,
      "czenieĠ": 2047,
      "SpoÅĤeczeÅĦstwo": 2048,
      "dob": 2049,
      "koncer": 2050,
      "ekrologiĠ": 2051,
      "ÅĽmierci": 2052,
      "aĠM": 2053,
      "ĠwĠPolsceĠ": 2054,
      "owanych": 2055,
      "szegoĠ": 2056,
      "dzis": 2057,
      "ron": 2058,
      "ÅĤas": 2059,
      "00Ġ": 2060,
      "onych": 2061,
      "pozy": 2062,
      "2008": 2063,
      "miejsce": 2064,
      "Ry": 2065,
      "-let": 2066,
      "zi": 2067,
      "najwiÄĻk": 2068,
      "rogra": 2069,
      "chc": 2070,
      "bezpieczeÅĦstw": 2071,
      "ÅĤod": 2072,
      "qu": 2073,
      "ytanieĠ": 2074,
      "uni": 2075,
      "zaw": 2076,
      "waÅĤ": 2077,
      "cÃ³wĠ": 2078,
      "oĠiĠ": 2079,
      "rael": 2080,
      "waÄĩĠ": 2081,
      "daw": 2082,
      "Jo": 2083,
      "ÅĤĠwĠ": 2084,
      "me": 2085,
      "Ġpodczas": 2086,
      "lokal": 2087,
      "ZobaczĠ": 2088,
      "niep": 2089,
      "Ġdy": 2090,
      "lasy": 2091,
      "ĠnieĠ": 2092,
      "2025ĠrokuĠ": 2093,
      "PolskaĠ": 2094,
      "szcz": 2095,
      "Ġpodpis": 2096,
      "rektor": 2097,
      "ryty": 2098,
      "obowiÄħz": 2099,
      "hi": 2100,
      "bram": 2101,
      "mal": 2102,
      "ĠwyÅĽcig": 2103,
      "ÄĻg": 2104,
      "wyÅ¼": 2105,
      "ujÄħceĠ": 2106,
      "ĠzÅĤo": 2107,
      "20Ġ": 2108,
      "Sprawiedliw": 2109,
      "owarzysze": 2110,
      "kilkaĠ": 2111,
      "aÅĦstw": 2112,
      "kaĠnoÅ¼": 2113,
      "jÄĻzy": 2114,
      ".ĊĊK": 2115,
      "czoraj": 2116,
      "automatycz": 2117,
      ".ĠSt": 2118,
      "40": 2119,
      "owanychĠ": 2120,
      "Wikinew": 2121,
      "ĠwĠPolsce": 2122,
      "ulturaĠiĠrozrywkaĊKategoria:": 2123,
      "orzy": 2124,
      ".ĠPod": 2125,
      "Ġpomo": 2126,
      "Ed": 2127,
      "eb": 2128,
      "komis": 2129,
      "ref": 2130,
      "Prezydent": 2131,
      "Å¹rÃ³dÅĤaĠ": 2132,
      "prac": 2133,
      "sch": 2134,
      "Ġpotw": 2135,
      "aĠprzezĠ": 2136,
      "robi": 2137,
      "Donal": 2138,
      "ĊKategoria:U": 2139,
      "glÄĻd": 2140,
      ":ĊĊ": 2141,
      "Ġpoprze": 2142,
      "oĠp": 2143,
      "oty": 2144,
      "rek": 2145,
      "ĠwiÄĻc": 2146,
      "Ġ(WD)": 2147,
      "stanieĠ": 2148,
      "mus": 2149,
      "bardzoĠ": 2150,
      "CentrumĠ": 2151,
      "Ġpracow": 2152,
      "owÄħ": 2153,
      "yĠzĠ": 2154,
      "tof": 2155,
      "anychĠ": 2156,
      "Ministerstw": 2157,
      "rory": 2158,
      "ki,Ġ": 2159,
      "Niem": 2160,
      "szyb": 2161,
      "rop": 2162,
      "redni": 2163,
      "szczy": 2164,
      "rozpoczÄĻ": 2165,
      "opubli": 2166,
      "gnie": 2167,
      ".5": 2168,
      "are": 2169,
      "ĠpowoduĠ": 2170,
      "Ġ(ur.Ġ19": 2171,
      "wali": 2172,
      "ĠpodkreÅĽ": 2173,
      "ariusz": 2174,
      "Ġwojsk": 2175,
      "uÅ¼ytkow": 2176,
      "rodu": 2177,
      ".ĠNie": 2178,
      "czyn": 2179,
      "Ġpowst": 2180,
      "zestawie": 2181,
      "wo": 2182,
      "rzysztof": 2183,
      "aĠzostaÅĤ": 2184,
      "2009": 2185,
      "ĠmÃ³w": 2186,
      "kole": 2187,
      "lar": 2188,
      "ĠwĠtymĠ": 2189,
      "unkuĠ": 2190,
      "Pod": 2191,
      "apie": 2192,
      "ÄĻ,Ġ": 2193,
      ":0": 2194,
      "ĠzostaÅĤĠ": 2195,
      "specjal": 2196,
      "aĠB": 2197,
      "31": 2198,
      "ajÄħcĠ": 2199,
      "ostaÅĤĠ": 2200,
      "cjaĊKategoria:": 2201,
      "natomiast": 2202,
      "-2": 2203,
      "Co": 2204,
      "skim": 2205,
      "zacjiĠ": 2206,
      "lek": 2207,
      "muzy": 2208,
      "2005": 2209,
      "ucie": 2210,
      "szpital": 2211,
      "Ã³wĠnaĠ": 2212,
      "stanowisk": 2213,
      "ÅĽl": 2214,
      "ÅĤuÅ¼": 2215,
      "Ã³dz": 2216,
      "ejm": 2217,
      "Äħdz": 2218,
      "decyzj": 2219,
      "lubĠ": 2220,
      "VI": 2221,
      "szczegÃ³l": 2222,
      "ramachĠ": 2223,
      "ruchuĠ": 2224,
      "ÅĽwiad": 2225,
      "LechĠ": 2226,
      "nimĠ": 2227,
      "nieĠzostaÅĤoĠ": 2228,
      "ĠwĠWarszaw": 2229,
      "rÄĻg": 2230,
      "dl": 2231,
      "sÄħd": 2232,
      "ont": 2233,
      "ÅĽle": 2234,
      "iÅĤĠ": 2235,
      "mod": 2236,
      "rÃ³ci": 2237,
      "uÅĤ": 2238,
      "ryt": 2239,
      "wen": 2240,
      "Polska": 2241,
      "ĠwĠP": 2242,
      "byÅĤy": 2243,
      "Wol": 2244,
      "eÅĤĠ": 2245,
      "Kar": 2246,
      "Rob": 2247,
      "okr": 2248,
      "kach": 2249,
      ".ĠĊĊĠÅ¹rÃ³dÅĤaĠĊĠ": 2250,
      "Ob": 2251,
      "Ġprzej": 2252,
      "uwaÅ¼": 2253,
      "ade": 2254,
      "czny": 2255,
      "Amery": 2256,
      "wodniczÄħc": 2257,
      "latĠ": 2258,
      "2021": 2259,
      "Je": 2260,
      "uĠw": 2261,
      "czej": 2262,
      "not": 2263,
      "NA": 2264,
      "histor": 2265,
      "Ad": 2266,
      "Ġwygra": 2267,
      "ZobaczĠteÅ¼Ġ": 2268,
      "najlep": 2269,
      "jedn": 2270,
      "ual": 2271,
      "lo": 2272,
      "oÅĦczy": 2273,
      "telewi": 2274,
      "Wypad": 2275,
      "ania": 2276,
      ".ĠPrze": 2277,
      "ĠÅģ": 2278,
      "opie": 2279,
      "ologi": 2280,
      "kobie": 2281,
      "tys.Ġ": 2282,
      "Ġznajd": 2283,
      "owaÅĤoĠ": 2284,
      "szych": 2285,
      "por": 2286,
      "35": 2287,
      "rÃ³t": 2288,
      "cznÄħĠ": 2289,
      "Iz": 2290,
      "Ġzmia": 2291,
      "festiwal": 2292,
      "automatycznieĠwy": 2293,
      "aĠprzy": 2294,
      "uc": 2295,
      "szÅĤ": 2296,
      "ÅĽciĠ": 2297,
      "iÄĻkiĠ": 2298,
      "cja": 2299,
      "zatrzym": 2300,
      "interes": 2301,
      "dopodob": 2302,
      "ton": 2303,
      "Ok": 2304,
      "automatycznieĠwygener": 2305,
      "nrĠ": 2306,
      "serw": 2307,
      "innychĠ": 2308,
      "gospodar": 2309,
      "oĠzestawie": 2310,
      "czypospoli": 2311,
      "ÄĻt": 2312,
      "siÄĻĠw": 2313,
      "oĠzestawienieĠzostaÅĤoĠ": 2314,
      "oĠzestawienieĠzostaÅĤoĠautomatycznieĠwygener": 2315,
      "dost": 2316,
      "aĠG": 2317,
      "fli": 2318,
      "PolitykaĊKategoria:PolskaĊKategoria:": 2319,
      "ĊKategoria:St": 2320,
      "ĊKategoria:NekrologiĠ": 2321,
      "bieĠ": 2322,
      ",ĠjakoĠ": 2323,
      "Cy": 2324,
      "chy": 2325,
      "ĠwÅĤadz": 2326,
      "owiec": 2327,
      "land": 2328,
      "m.in.Ġ": 2329,
      "funkcjon": 2330,
      "ciÄħguĠ": 2331,
      "ĠorazĠ": 2332,
      "Sam": 2333,
      "anyĠZjednoczon": 2334,
      "WÅĤo": 2335,
      "pro": 2336,
      "Th": 2337,
      "2010": 2338,
      "cznaĠ": 2339,
      "Ġpopar": 2340,
      "zm": 2341,
      "rakie": 2342,
      "iĠwy": 2343,
      "nagrod": 2344,
      "glÄħd": 2345,
      "Rosj": 2346,
      "acjeĠ": 2347,
      "typ": 2348,
      "godni": 2349,
      "wersy": 2350,
      "ÅĽwie": 2351,
      "id": 2352,
      "Ã³Åºniej": 2353,
      "ĊKategoria:PolitykaĊKategoria:": 2354,
      "acyj": 2355,
      "ĠÅļ": 2356,
      "ĊĊĠÅ¹rÃ³dÅĤoĠ": 2357,
      "PolskaĠpolitykaĊKategoria:": 2358,
      "arg": 2359,
      "ĠE": 2360,
      "sied": 2361,
      "Od": 2362,
      "ult": 2363,
      "WrocÅĤaw": 2364,
      "lÄħd": 2365,
      "Ġwypad": 2366,
      "wersyte": 2367,
      "sen": 2368,
      "osiÄħg": 2369,
      "okoÅĤoĠgodzinyĠ": 2370,
      "nadz": 2371,
      "yĠdoĠ": 2372,
      "omet": 2373,
      "ÅĤow": 2374,
      "roĠ": 2375,
      "kniÄĻ": 2376,
      "zewnÄĻtrz": 2377,
      "zapowie": 2378,
      "kierow": 2379,
      "cji,Ġ": 2380,
      "ajm": 2381,
      ".ĠToĠ": 2382,
      "Stan": 2383,
      "usze": 2384,
      "rosyj": 2385,
      "aleÅ¼": 2386,
      "k,Ġ": 2387,
      "aby": 2388,
      "spoÅĤeczn": 2389,
      "nieĠp": 2390,
      "bel": 2391,
      "tenĠ": 2392,
      "owicz": 2393,
      "kuratur": 2394,
      "sprawie": 2395,
      "45": 2396,
      "300": 2397,
      "Prze": 2398,
      "Ġmet": 2399,
      "stÄĻpcz": 2400,
      ".ĠDoĠ": 2401,
      "Ġpodob": 2402,
      "Ġmili": 2403,
      "owaneĠzĠ": 2404,
      "nikiĠ": 2405,
      "15Ġ": 2406,
      "ĠmaĠ": 2407,
      "ÄħĠz": 2408,
      "Ġpojawi": 2409,
      "ĠwspÃ³l": 2410,
      "end": 2411,
      "tam": 2412,
      "Ġpracy": 2413,
      "iÄĻdzynarod": 2414,
      "jej": 2415,
      "nazw": 2416,
      "r.": 2417,
      "ĠwczeÅĽniej": 2418,
      "okreÅĽ": 2419,
      "majÄħĠ": 2420,
      ".ĊĊM": 2421,
      "owaniuĠ": 2422,
      "czasieĠ": 2423,
      "gÃ³r": 2424,
      "mniejĠ": 2425,
      "obywatel": 2426,
      ",ĠwĠtymĠ": 2427,
      "Aust": 2428,
      "fra": 2429,
      "Katowi": 2430,
      "stanie": 2431,
      "remier": 2432,
      ".ĠLi": 2433,
      "ka,Ġ": 2434,
      "wil": 2435,
      "ĠwzglÄĻd": 2436,
      "stronyĠ": 2437,
      "osmi": 2438,
      "strzost": 2439,
      ".ĠJest": 2440,
      "PK": 2441,
      "Ġpowin": 2442,
      "iÅĤkaĠnoÅ¼": 2443,
      "ĠzwiÄħzku": 2444,
      "ĠwpÅĤy": 2445,
      "QL": 2446,
      "aĠdoĠ": 2447,
      "komunika": 2448,
      "cjÄħĠ": 2449,
      "2006": 2450,
      "UE": 2451,
      "szp": 2452,
      "stron": 2453,
      "36": 2454,
      "amiÄĻ": 2455,
      "samochod": 2456,
      "nicy": 2457,
      "iÄĻk": 2458,
      "oĠgodzinieĠ": 2459,
      "aĠzĠ": 2460,
      "Wikinews": 2461,
      "Ġpocz": 2462,
      "GospodarkaĊKategoria:": 2463,
      "moĠ": 2464,
      "Komis": 2465,
      "szar": 2466,
      "tut": 2467,
      ")ĊĊ": 2468,
      "nieĠzĠ": 2469,
      "Ġmie": 2470,
      "yst": 2471,
      "kachĠ": 2472,
      "ksand": 2473,
      "Ġpol": 2474,
      "jeden": 2475,
      "napis": 2476,
      "ĠSz": 2477,
      "Ġzarz": 2478,
      "co": 2479,
      "ucz": 2480,
      "ĠwÅĤaÅĽ": 2481,
      "ular": 2482,
      "dwÃ³chĠ": 2483,
      "czypospolitejĠ": 2484,
      "dziaÅĤaniaĠ": 2485,
      "Par": 2486,
      "Polak": 2487,
      "2012": 2488,
      "Internet": 2489,
      "SPAR": 2490,
      "owiat": 2491,
      "ktÃ³rychĠ": 2492,
      "daÅĦsk": 2493,
      "stuĠ": 2494,
      "Wikidanych": 2495,
      "uchĠ": 2496,
      "ojewÃ³dztw": 2497,
      "ĠdoszÅĤoĠdoĠ": 2498,
      "tysiÄĻcyĠ": 2499,
      ".ĠZobacz": 2500,
      "kip": 2501,
      "ĊĊĠÅ¹rÃ³dÅĤoĠĊĠT": 2502,
      "licaĠ": 2503,
      "ĠzapytanieĠ": 2504,
      ".ĠPoĠ": 2505,
      "SPARQL": 2506,
      "kÄħ": 2507,
      "Wikipedii": 2508,
      "jego": 2509,
      "bezp": 2510,
      "trafi": 2511,
      "Ġzmarli": 2512,
      "TO": 2513,
      "ĊĊĠÅ¹rÃ³dÅĤoĠĊĠToĠzestawienieĠzostaÅĤoĠautomatycznieĠwygener": 2514,
      "ĊĊĠÅ¹rÃ³dÅĤoĠĊĠToĠzestawienieĠzostaÅĤoĠautomatycznieĠwygenerowaneĠzĠ": 2515,
      "ĊĊĠÅ¹rÃ³dÅĤoĠĊĠToĠzestawienieĠzostaÅĤoĠautomatycznieĠwygenerowaneĠzĠWikidanych": 2516,
      "ĊĊĠÅ¹rÃ³dÅĤoĠĊĠToĠzestawienieĠzostaÅĤoĠautomatycznieĠwygenerowaneĠzĠWikidanych.ĠZobacz": 2517,
      "ĊĊĠÅ¹rÃ³dÅĤoĠĊĠToĠzestawienieĠzostaÅĤoĠautomatycznieĠwygenerowaneĠzĠWikidanych.ĠZobaczĠzapytanieĠ": 2518,
      "ĊĊĠÅ¹rÃ³dÅĤoĠĊĠToĠzestawienieĠzostaÅĤoĠautomatycznieĠwygenerowaneĠzĠWikidanych.ĠZobaczĠzapytanieĠSPARQL": 2519,
      "ĊĊĠÅ¹rÃ³dÅĤoĠĊĠToĠzestawienieĠzostaÅĤoĠautomatycznieĠwygenerowaneĠzĠWikidanych.ĠZobaczĠzapytanieĠSPARQL.ĊĊKategoria:": 2520,
      "ArchiwalneĊKategoria:NekrologiĠ": 2521,
      "ÅĽÄĩĠ": 2522,
      "Ġpreze": 2523,
      "uwag": 2524,
      ")Ġ-Ġ": 2525,
      "ĊĊĠÅ¹rÃ³dÅĤoĠĊĠToĠzestawienieĠzostaÅĤoĠautomatycznieĠwygenerowaneĠzĠWikidanych.ĠZobaczĠzapytanieĠSPARQL.ĊĊKategoria:ArchiwalneĊKategoria:NekrologiĠ": 2526,
      "suĠ": 2527,
      "ĠdeĠ": 2528,
      "rot": 2529,
      "awie": 2530,
      "iumĠ": 2531,
      "aÅĤĠsiÄĻĠ": 2532,
      "AndrzejĠ": 2533,
      "Ġmln": 2534,
      ".ĊĊĠÅ¹rÃ³dÅĤaĠ": 2535,
      "okoli": 2536,
      "artykuÅĤ": 2537,
      "Ġpotrze": 2538,
      "Ġdrug": 2539,
      "anyĠZjednoczone": 2540,
      "scyĠ": 2541,
      "rowi": 2542,
      "oÅĤudni": 2543,
      "anĠ": 2544,
      "skaĊKategoria:": 2545,
      "naĠz": 2546,
      "ÅĤyĠsiÄĻĠ": 2547,
      ",Ġi": 2548,
      "Dem": 2549,
      "nos": 2550,
      "ÅĽÄĩ": 2551,
      "ĠwĠpo": 2552,
      "arszaÅĤ": 2553,
      "astrof": 2554,
      "spotkaniaĠ": 2555,
      "(ur.Ġ19": 2556,
      "ĠwskazanoĠ": 2557,
      "niesie": 2558,
      "Piot": 2559,
      "europ": 2560,
      "ras": 2561,
      "ay": 2562,
      "ner": 2563,
      "so": 2564,
      "bur": 2565,
      ",Ġprze": 2566,
      "szej": 2567,
      "Ġwar": 2568,
      "ajÄĻ": 2569,
      "dziaÅĤal": 2570,
      "198": 2571,
      "Ġprof": 2572,
      "czypospolitejĠPolsk": 2573,
      "broj": 2574,
      "mÃ³": 2575,
      "owaÅĤyĠ": 2576,
      "Ġwice": 2577,
      "opera": 2578,
      "stronieĠ": 2579,
      "czywi": 2580,
      "ĠwĠKrakowie": 2581,
      "ujÄħ": 2582,
      "ĊWĠ": 2583,
      "cyzj": 2584,
      "33": 2585,
      "ÄĻĠnaĠ": 2586,
      "ĠoĠ": 2587,
      "Wal": 2588,
      ",ĠjakoĠmiejsceĠ": 2589,
      "ÅĽmierciĠwskazanoĠ": 2590,
      ",ĠaĠtakÅ¼eĠ": 2591,
      "daÅ¼": 2592,
      ",ĠjakoĠmiejsceĠÅĽmierciĠwskazanoĠ": 2593,
      "flikt": 2594,
      "Ġkom": 2595,
      "cho": 2596,
      "tran": 2597,
      "ajÄħceĠ": 2598,
      "ban": 2599,
      "bezĠ": 2600,
      "informacjiĠ": 2601,
      "ÄĻĠwĠ": 2602,
      "aĠR": 2603,
      "Ġprotest": 2604,
      "eriaÅĤ": 2605,
      "zef": 2606,
      ",ĠtoĠ": 2607,
      "ÄħtkuĠ": 2608,
      "naĊKategoria:": 2609,
      "ÅĤum": 2610,
      "fak": 2611,
      ":Ġ\"": 2612,
      "ujÄħcychĠ": 2613,
      "lider": 2614,
      "uroczyst": 2615,
      "ww": 2616,
      "Naj": 2617,
      "gran": 2618,
      "niemie": 2619,
      "andat": 2620,
      "uĠP": 2621,
      "ba": 2622,
      "Ġpras": 2623,
      "ĠzostaÅĤoĠ": 2624,
      "ÅĤaĠp": 2625,
      "ÅĽrÃ³dĠ": 2626,
      ",ĠzĠ": 2627,
      "kaden": 2628,
      "Ġparlamentar": 2629,
      "twÃ³r": 2630,
      "MarekĠ": 2631,
      "Ã³dÅº": 2632,
      "autob": 2633,
      "impre": 2634,
      "dĠTusk": 2635,
      "34": 2636,
      "szu": 2637,
      "aktyw": 2638,
      "ler": 2639,
      "iĠpo": 2640,
      "czegoĠ": 2641,
      "\",Ġ": 2642,
      "CO": 2643,
      "ote": 2644,
      "Ġod": 2645,
      "rodzin": 2646,
      "UniiĠ": 2647,
      "Ġwyp": 2648,
      "tyn": 2649,
      "owskiĠ": 2650,
      "e,Ġ": 2651,
      "ckiĠ": 2652,
      ",ĠWD):Ġ": 2653,
      "ajÄħcychĠ": 2654,
      "RadyĠ": 2655,
      "sÅĤuch": 2656,
      "Uniwersyte": 2657,
      "anty": 2658,
      ".ĠF": 2659,
      "ewni": 2660,
      "ai": 2661,
      "Å¼on": 2662,
      "kaĠP": 2663,
      "uter": 2664,
      "2024Ġroku": 2665,
      "naĠwy": 2666,
      "olar": 2667,
      "Nau": 2668,
      "SL": 2669,
      "Tomasz": 2670,
      "ep": 2671,
      "Ġm.in": 2672,
      "ministra": 2673,
      ".ĠNieĠ": 2674,
      "WikimediaĠ": 2675,
      "jaÅĽ": 2676,
      "char": 2677,
      "kiejĠ": 2678,
      ".ĊĊNaĠ": 2679,
      "omor": 2680,
      ")ĠiĠ": 2681,
      "Ġzna": 2682,
      "udi": 2683,
      "oobro": 2684,
      "Kan": 2685,
      "Bryt": 2686,
      "kiem": 2687,
      "iĠiĠ": 2688,
      "kultur": 2689,
      "CoV": 2690,
      "legÅĤ": 2691,
      "rel": 2692,
      "bran": 2693,
      "Ġzawod": 2694,
      "2011": 2695,
      "nymi": 2696,
      "Marcin": 2697,
      "ÅĦskiej": 2698,
      "ret": 2699,
      "klu": 2700,
      "nek": 2701,
      "ĠwspÃ³ÅĤpra": 2702,
      "ÄĻÅ¼czyz": 2703,
      "stÄĻpczoÅĽÄĩ": 2704,
      "obra": 2705,
      "jeszczeĠ": 2706,
      "owanaĠ": 2707,
      "naĠwĠ": 2708,
      "aniaĠwĠ": 2709,
      "num": 2710,
      "ÅĤĠnaĠ": 2711,
      "S-CoV": 2712,
      "zjaĊKategoria:": 2713,
      "oĠiĠprze": 2714,
      "Ol": 2715,
      "film": 2716,
      "aÅĤ,ĠÅ¼eĠ": 2717,
      "iom": 2718,
      ",ĠktÃ³re": 2719,
      ".ĊĊJ": 2720,
      "obyĠ": 2721,
      "000": 2722,
      "iĠnaĠ": 2723,
      "rytyj": 2724,
      "sce": 2725,
      "Tele": 2726,
      "Part": 2727,
      "Ġposiad": 2728,
      "omoc": 2729,
      "ÅĤam": 2730,
      "orze": 2731,
      "cjiĠwĠ": 2732,
      "tygodni": 2733,
      "ON": 2734,
      "kowi": 2735,
      "grupyĠ": 2736,
      "ajÄħce": 2737,
      "PĠ": 2738,
      "Ni": 2739,
      "ÄĩĠwĠ": 2740,
      "oĠiĠprzestÄĻpczoÅĽÄĩ": 2741,
      "ga": 2742,
      "gn": 2743,
      "nich": 2744,
      "zion": 2745,
      ".ĊĊĠZobaczĠteÅ¼Ġ": 2746,
      "Mat": 2747,
      "okaz": 2748,
      "Lewi": 2749,
      "Ġwers": 2750,
      "Äħtkow": 2751,
      "trakt": 2752,
      "siÄħÅ¼": 2753,
      "Ġpozost": 2754,
      "-19": 2755,
      "ĠpowoÅĤ": 2756,
      "akcjiĠ": 2757,
      "kty": 2758,
      "energ": 2759,
      "ÄħcychĠ": 2760,
      "ĠposÅĤ": 2761,
      "szym": 2762,
      "Ġkm": 2763,
      "eliĠ": 2764,
      "demi": 2765,
      "ski,Ġ": 2766,
      "LinkiĠ": 2767,
      "has": 2768,
      "ĠĠĠ": 2769,
      "uze": 2770,
      "autobus": 2771,
      "ation": 2772,
      "esĠ": 2773,
      "inĠ": 2774,
      "odcin": 2775,
      "czyÄĩĠ": 2776,
      "uĠzĠ": 2777,
      "ieszka": 2778,
      "fot": 2779,
      ",ĠÅ¼eĠwĠ": 2780,
      "Aleksand": 2781,
      "ografi": 2782,
      "onieĠ": 2783,
      "ÅĤoĠsiÄĻĠ": 2784,
      "Ġpas": 2785,
      "dokument": 2786,
      "kilomet": 2787,
      "opis": 2788,
      "Ġprzedstawicie": 2789,
      "ryn": 2790,
      "miaÅĤaĠ": 2791,
      "LinkiĠzewnÄĻtrz": 2792,
      ",ĠgdzieĠ": 2793,
      "37": 2794,
      "Ġprzeprowadz": 2795,
      "takĠ": 2796,
      "nor": 2797,
      "wiÄħza": 2798,
      "cof": 2799,
      ";ĊĠ": 2800,
      "acjÄĻĠ": 2801,
      ".ĠOb": 2802,
      "Stowarzysze": 2803,
      ",ĠczyĠ": 2804,
      "szejĠ": 2805,
      "Lu": 2806,
      "kiedyĠ": 2807,
      "wyciÄĻstw": 2808,
      "siÄĻĠd": 2809,
      "byÅĤo": 2810,
      "rogram": 2811,
      "kart": 2812,
      "ryb": 2813,
      "oskar": 2814,
      "osÃ³bĠz": 2815,
      "emi": 2816,
      ",ĊĠ": 2817,
      "odatkow": 2818,
      "iÄħ": 2819,
      "dÅº": 2820,
      "rus": 2821,
      "S-CoV-2": 2822,
      "oce": 2823,
      "bardziej": 2824,
      "rozp": 2825,
      "latachĠ": 2826,
      "spad": 2827,
      "wieĠ": 2828,
      "gry": 2829,
      "nowi": 2830,
      "car": 2831,
      "kilkuĠ": 2832,
      "60": 2833,
      "Ġpie": 2834,
      "ĠpiÄĻ": 2835,
      "strat": 2836,
      "olot": 2837,
      "lin": 2838,
      "ckiego": 2839,
      "br": 2840,
      "fe": 2841,
      "rzÄħdĠ": 2842,
      "raze": 2843,
      "ÅĤosz": 2844,
      "lasyfika": 2845,
      ".ĊĊĠÅ¹rÃ³dÅĤaĠĊĠĊĠĊĠĊĊKategoria:": 2846,
      "Ġprzekaz": 2847,
      "ÅĽwiet": 2848,
      "ciÄĻÅ¼": 2849,
      "ujÄħcĠ": 2850,
      "38": 2851,
      "swojeĠ": 2852,
      "spor": 2853,
      ",ĠpoĠ": 2854,
      "siÅĤ": 2855,
      ",Ġponie": 2856,
      "ÅļwiÄĻ": 2857,
      "Ġrozpo": 2858,
      "odlegÅĤ": 2859,
      "dysk": 2860,
      "nieĠjest": 2861,
      "1,": 2862,
      "odwoÅĤ": 2863,
      "klub": 2864,
      ";Ġ": 2865,
      "czasuĠ": 2866,
      "dwaĠ": 2867,
      "ĊKategoria:UlicaĠ": 2868,
      "budyn": 2869,
      "owali": 2870,
      "sat": 2871,
      ".ĠBy": 2872,
      "WypadkiĠ": 2873,
      "SAR": 2874,
      "LinkiĠzewnÄĻtrzneĠ": 2875,
      "inicj": 2876,
      "Ġwobec": 2877,
      "yj": 2878,
      "dzial": 2879,
      ".ĠCh": 2880,
      "sil": 2881,
      "Com": 2882,
      "Ġport": 2883,
      "32": 2884,
      "nikiemĠ": 2885,
      "ĠwiÄĻksz": 2886,
      "46": 2887,
      "ou": 2888,
      "opublik": 2889,
      "kons": 2890,
      "spowod": 2891,
      "kierunkuĠ": 2892,
      "ili": 2893,
      "Âł": 2894,
      "Hi": 2895,
      "lik": 2896,
      "kraju": 2897,
      "ezpie": 2898,
      "nalaz": 2899,
      "ochro": 2900,
      "ĠwieluĠ": 2901,
      "naĠprze": 2902,
      "12Ġ": 2903,
      "eni": 2904,
      "ozumie": 2905,
      "Ã¡": 2906,
      "krÃ³t": 2907,
      "najmniejĠ": 2908,
      "skoĠ": 2909,
      "sez": 2910,
      "aĠpro": 2911,
      "LechĠK": 2912,
      "utrzym": 2913,
      "ard": 2914,
      "PR": 2915,
      ".ĠJedna": 2916,
      "Ste": 2917,
      "Ġdni": 2918,
      "czÄĻÅĽciĠ": 2919,
      "czÅĤowie": 2920,
      "ĠwĠB": 2921,
      "cÄħĠ": 2922,
      "s,Ġ": 2923,
      "niÄħĠ": 2924,
      "opozy": 2925,
      "na,Ġ": 2926,
      "âĢĻ": 2927,
      "konie": 2928,
      ")ĊKategoria:": 2929,
      "a,ĠÅ¼e": 2930,
      "Lepp": 2931,
      "roduk": 2932,
      "ĠprÃ³b": 2933,
      ".ĠNaj": 2934,
      "39": 2935,
      "mogÄħĠ": 2936,
      "ÄĩĠdoĠ": 2937,
      "Ġwod": 2938,
      "ĠwÅĤas": 2939,
      "ucieĠ": 2940,
      "Ġpew": 2941,
      ".Ġmin": 2942,
      ".00": 2943,
      "aliza": 2944,
      "europej": 2945,
      "odp": 2946,
      "kichĠ": 2947,
      "sko": 2948,
      "koali": 2949,
      "GÃ³r": 2950,
      "owaÅ¼": 2951,
      "NaĠ": 2952,
      "Ġzapowie": 2953,
      "iĠP": 2954,
      "sztu": 2955,
      "Si": 2956,
      "Zd": 2957,
      "ÄĻzy": 2958,
      "ogÅĤ": 2959,
      "\"Ġ-Ġ": 2960,
      "ne,Ġ": 2961,
      "mysÅĤ": 2962,
      "JarosÅĤawĠK": 2963,
      "Ġzdoby": 2964,
      "Ã³wĠzĠ": 2965,
      "Å¼enieĠ": 2966,
      "o,ĠÅ¼eĠ": 2967,
      "ujÄħcyĠ": 2968,
      "Rzecz": 2969,
      "nieĠpo": 2970,
      "ien": 2971,
      "kop": 2972,
      "tÄħĠ": 2973,
      "skÄħĠ": 2974,
      "GdaÅĦsk": 2975,
      "Ġwysok": 2976,
      "tygod": 2977,
      "Zbi": 2978,
      "trud": 2979,
      "Ġwybuch": 2980,
      "For": 2981,
      "iny": 2982,
      "Krzysztof": 2983,
      "skiego,Ġ": 2984,
      "Lub": 2985,
      "region": 2986,
      "cuĠ": 2987,
      "naĠpod": 2988,
      "ĠpiÄħ": 2989,
      "pt": 2990,
      "Afgani": 2991,
      "set": 2992,
      "200px|": 2993,
      "tamĠ": 2994,
      "ide": 2995,
      "ĠMar": 2996,
      "rob": 2997,
      ",Ġgdy": 2998,
      "raÅ¼": 2999,
      "Ã³wĠz": 3000,
      "lew": 3001,
      "90": 3002,
      "44": 3003,
      "MinisterstwoĠ": 3004,
      "moÅ¼e": 3005,
      "arzeniaĠ": 3006,
      "Med": 3007,
      "ver": 3008,
      "amyĠ": 3009,
      "ĠâĢĵ": 3010,
      "PolskaĊ": 3011,
      "gu": 3012,
      "fund": 3013,
      "nap": 3014,
      "tytu": 3015,
      "informacji": 3016,
      "ĠwszystkichĠ": 3017,
      "oÅĽwiadcze": 3018,
      "kiegoĠ": 3019,
      "struktur": 3020,
      "oper": 3021,
      "ctw": 3022,
      "finaÅĤ": 3023,
      "sh": 3024,
      "onow": 3025,
      "otwart": 3026,
      "maÅĤ": 3027,
      "Ġdod": 3028,
      "gaĠ": 3029,
      "eduka": 3030,
      "cyĠzĠ": 3031,
      "uzn": 3032,
      "ĠwynikuĠ": 3033,
      "Ġprezent": 3034,
      "nych,Ġ": 3035,
      "ĊĊW": 3036,
      "Miast": 3037,
      "ujeĠsiÄĻĠ": 3038,
      "lini": 3039,
      "ckiegoĠ": 3040,
      ".ĠĠ": 3041,
      "ÅĦskaĠ": 3042,
      "telef": 3043,
      "ĠpierwszyĠ": 3044,
      ".ĊĊĠÅ¹rÃ³dÅĤaĠĊĠĊĊKategoria:PolskaĊKategoria:": 3045,
      "siÄĻ,ĠÅ¼eĠ": 3046,
      "szkod": 3047,
      "Ġpodej": 3048,
      "Fil": 3049,
      "Europejskiej": 3050,
      "sÅĤuÅ¼b": 3051,
      "WarszawaĊKategoria:": 3052,
      "ĠmoÅ¼eĠ": 3053,
      "Izrael": 3054,
      "general": 3055,
      "Poli": 3056,
      "ĠwĠWarszawie": 3057,
      "sztaÅĤ": 3058,
      "dziÄĻkiĠ": 3059,
      "nienieĠ": 3060,
      "iaÅĤĠ": 3061,
      "szed": 3062,
      "owania": 3063,
      "czes": 3064,
      "Maz": 3065,
      "Ser": 3066,
      "utwor": 3067,
      "miesiÄħc": 3068,
      "jednegoĠ": 3069,
      "ÅºrÃ³d": 3070,
      "odziĠ": 3071,
      "dzieÅĦ": 3072,
      "ĠĠĠĠĠĠĠĠ": 3073,
      "ĠwspÃ³ÅĤprac": 3074,
      ":00ĠâĢĵĠ": 3075,
      "np": 3076,
      "ĠI": 3077,
      "gar": 3078,
      "ludzi": 3079,
      ".ĠĊĊĠÅ¹rÃ³dÅĤaĠĊĠĊĊKategoria:": 3080,
      "zatrzymaniaĠwĠ": 3081,
      "reze": 3082,
      "chni": 3083,
      "naleÅ¼": 3084,
      "fran": 3085,
      "ĠwieleĠ": 3086,
      ".ĊĊB": 3087,
      "arszt": 3088,
      "zatrzymaniaĠwĠruchuĠ": 3089,
      "kamiĠ": 3090,
      "tery": 3091,
      "Ġkolej": 3092,
      "âĢĿ,Ġ": 3093,
      "imi": 3094,
      "run": 3095,
      "tychczas": 3096,
      "RzeczypospolitejĠPolsk": 3097,
      "eklar": 3098,
      "aktu": 3099,
      "osÅĤ": 3100,
      "ny,Ġ": 3101,
      "deĠ": 3102,
      "Kultur": 3103,
      "14Ġ": 3104,
      "bÄĻdÄħ": 3105,
      "log": 3106,
      "terenieĠ": 3107,
      "ginÄĻÅĤoĠ": 3108,
      "kamp": 3109,
      "chor": 3110,
      "niaĠp": 3111,
      ".ĊĊR": 3112,
      "kiĠiĠ": 3113,
      "Jap": 3114,
      "ĠprezydentaĠ": 3115,
      "radi": 3116,
      "takieĠ": 3117,
      "SARS-CoV-2": 3118,
      "ÄħceĠ": 3119,
      "tylko": 3120,
      "udostÄĻp": 3121,
      "niedziel": 3122,
      ",ĠjakĠ": 3123,
      "najbliÅ¼": 3124,
      "kontrol": 3125,
      "nim": 3126,
      "sobot": 3127,
      "Wie": 3128,
      ".ĊĊG": 3129,
      "ĠmiÄĻdz": 3130,
      "rakow": 3131,
      "niosk": 3132,
      "ĊKategoria:KulturaĠiĠrozrywkaĊKategoria:": 3133,
      "jednym": 3134,
      "jeÅĽliĠ": 3135,
      "aweÅĤĠ": 3136,
      "ogÅĤos": 3137,
      "ĠwystÄĻp": 3138,
      "rezent": 3139,
      "yĠ(": 3140,
      "karz": 3141,
      "ÄĻ,ĠÅ¼eĠ": 3142,
      "Lud": 3143,
      "xĠ": 3144,
      "arzÄħd": 3145,
      "Ġzw": 3146,
      "charak": 3147,
      "ĠprzyszÅĤ": 3148,
      "Wil": 3149,
      "nach": 3150,
      "spon": 3151,
      "naukow": 3152,
      "kwest": 3153,
      "oĠprze": 3154,
      "cjaĠp": 3155,
      "Ġpan": 3156,
      "1.": 3157,
      "niedziaÅĤ": 3158,
      "ostatnichĠ": 3159,
      "ÅĦskichĠ": 3160,
      "rost": 3161,
      "Brytani": 3162,
      "owani": 3163,
      "kaĠp": 3164,
      "yĠzostaÅĤ": 3165,
      "organizator": 3166,
      "Qu": 3167,
      "25Ġ": 3168,
      "yd": 3169,
      "Ġwystaw": 3170,
      "naz": 3171,
      "Platform": 3172,
      "Janusz": 3173,
      "13Ġ": 3174,
      "oĠiĠSprawiedliw": 3175,
      "byt": 3176,
      "wiÄħze": 3177,
      "stwaĠ": 3178,
      "aler": 3179,
      ".ĊĊA": 3180,
      "wz": 3181,
      "uf": 3182,
      "anisÅĤaw": 3183,
      "zyj": 3184,
      "druÅ¼y": 3185,
      "ianĠ": 3186,
      "Äĩ,Ġ": 3187,
      "astÄĻp": 3188,
      "tali": 3189,
      "yw": 3190,
      "trzyĠ": 3191,
      "odbÄĻdzieĠsiÄĻĠ": 3192,
      "cznie": 3193,
      "budÅ¼e": 3194,
      "rÃ³cz": 3195,
      "imier": 3196,
      "ustawyĠ": 3197,
      "omen": 3198,
      "ÅĤot": 3199,
      "realiz": 3200,
      "drogowe": 3201,
      "lemĠ": 3202,
      "Ġprzyzn": 3203,
      "Sch": 3204,
      "ieraĠ": 3205,
      "owymĠnaĠ": 3206,
      "agen": 3207,
      "ĠpoinformowaÅĤĠ": 3208,
      "budow": 3209,
      "uĠdoĠ": 3210,
      "apel": 3211,
      "aje": 3212,
      "odpowiedzial": 3213,
      "ĠprzyjÄĻ": 3214,
      "terrory": 3215,
      "ÅĽmy": 3216,
      "FundacjaĠ": 3217,
      "ubieg": 3218,
      "Ġpotrzeb": 3219,
      "ĊĠK": 3220,
      "Ġminut": 3221,
      "AzjaĊKategoria:": 3222,
      "fik": 3223,
      "ÅĤemĠ": 3224,
      "liwi": 3225,
      "jeÅ¼": 3226,
      "ĠdoszÅĤoĠdoĠzatrzymaniaĠwĠruchuĠ": 3227,
      "aÅĤoĠsiÄĻĠ": 3228,
      "czyk": 3229,
      "ach,Ġ": 3230,
      "instytu": 3231,
      "damĠ": 3232,
      "usÅĤug": 3233,
      "ren": 3234,
      "aÅ¼e": 3235,
      "nolog": 3236,
      "hol": 3237,
      "blok": 3238,
      "len": 3239,
      "Fin": 3240,
      "razy": 3241,
      "Hol": 3242,
      "dot": 3243,
      "Ġzagra": 3244,
      "atu": 3245,
      ",ĠwĠktÃ³rymĠ": 3246,
      "ĊD": 3247,
      "ĠSt": 3248,
      "ckaĠ": 3249,
      "iÄĩĠ": 3250,
      "orw": 3251,
      "oment": 3252,
      "wiedz": 3253,
      "Ġzach": 3254,
      ",ĠWD):": 3255,
      "//": 3256,
      "mieszkaÅĦc": 3257,
      ".ĊĊJak": 3258,
      "rom": 3259,
      "Ġwznowi": 3260,
      "à¯": 3261,
      "reĠ": 3262,
      "sposÃ³b": 3263,
      "Mac": 3264,
      "Ira": 3265,
      "MichaÅĤĠ": 3266,
      "ĠpoÅ¼": 3267,
      "rower": 3268,
      ",ĠabyĠ": 3269,
      "syĠ": 3270,
      "publi": 3271,
      "tp": 3272,
      "Ġdoty": 3273,
      "urzÄħd": 3274,
      "CzÄĻ": 3275,
      "Ġwiadom": 3276,
      "men": 3277,
      "naĠK": 3278,
      "tÃ³w": 3279,
      "ostrze": 3280,
      "ÅĦskiejĠ": 3281,
      "Dan": 3282,
      "ciÄħ": 3283,
      "otwar": 3284,
      "Samoobro": 3285,
      "uĠ(": 3286,
      "zwiÄħz": 3287,
      "ÅĤymĠ": 3288,
      "rejest": 3289,
      "materiaÅĤ": 3290,
      ")ĠĊ": 3291,
      "dyrektor": 3292,
      "Ġpolicj": 3293,
      "naĠtemat": 3294,
      "czÄĻst": 3295,
      "westy": 3296,
      "80": 3297,
      "nowychĠ": 3298,
      "aÅĦĠ": 3299,
      "dzieci": 3300,
      ".ĊĊU": 3301,
      "lon": 3302,
      "czw": 3303,
      "Ind": 3304,
      ".ĠSp": 3305,
      "ulicyĠ": 3306,
      "Ã³s": 3307,
      "niÅ¼Ġ": 3308,
      "Ġmilion": 3309,
      "dziÅĽ": 3310,
      "Lubli": 3311,
      "WypadkiĠdrogowe": 3312,
      "archi": 3313,
      "ĠpÃ³Åºniej": 3314,
      "ĠzwiÄħzkuĠzĠ": 3315,
      "tro": 3316,
      ".ĠJe": 3317,
      "http": 3318,
      "miÄĻdzynarod": 3319,
      "://": 3320,
      "ujaw": 3321,
      "kontak": 3322,
      "Eduka": 3323,
      "atomiast": 3324,
      "ĊĊĠLinkiĠzewnÄĻtrzneĠ": 3325,
      "dziaÅĤaĠ": 3326,
      "2020": 3327,
      "kilku": 3328,
      ".ĠWedÅĤugĠ": 3329,
      "Ang": 3330,
      "ĠzĠpowoduĠ": 3331,
      "ĠwiekuĠ": 3332,
      "ch,Ġ": 3333,
      "owoÅĽciĠ": 3334,
      "Szw": 3335,
      "sa": 3336,
      "nachĠ": 3337,
      "dent": 3338,
      "ĠweĠ": 3339,
      "mad": 3340,
      ".ĠOd": 3341,
      "he": 3342,
      "los": 3343,
      "Ġdok": 3344,
      "bat": 3345,
      "Ġsob": 3346,
      "ĠwÅĤad": 3347,
      "nion": 3348,
      "ĠpodjÄĻ": 3349,
      "zdoby": 3350,
      "odzin": 3351,
      "Ġzad": 3352,
      "ĠKrakowie": 3353,
      "szuki": 3354,
      "har": 3355,
      "owoĠ": 3356,
      "ĊKategoria:Sport": 3357,
      "ÅĤoÅ¼y": 3358,
      "Ġzablok": 3359,
      "Ġwtor": 3360,
      "Ġpis": 3361,
      "sytuacj": 3362,
      "ojÄĻzy": 3363,
      "ĠpeÅĤ": 3364,
      "Tour": 3365,
      "ÅĤĠsiÄĻ": 3366,
      "bÅĤ": 3367,
      "Ġmiast": 3368,
      "ÄĻÅ¼czyzn": 3369,
      "PrawoĠiĠprzestÄĻpczoÅĽÄĩ": 3370,
      "âĢĶ": 3371,
      "nieĠmaĠ": 3372,
      "uel": 3373,
      "urzÄĻd": 3374,
      "celuĠ": 3375,
      "west": 3376,
      "ÄħcyĠ": 3377,
      "kaw": 3378,
      ",ĠP": 3379,
      "czÄĻÅĽci": 3380,
      "dze": 3381,
      "ĠpracyĠ": 3382,
      "ogÅĤosi": 3383,
      "per": 3384,
      "ÅĽli": 3385,
      "boj": 3386,
      "czyÅĤ": 3387,
      "stÄħpie": 3388,
      "ĠprzeciwkoĠ": 3389,
      "temu": 3390,
      "Ġ(19": 3391,
      "rowadzeniaĠ": 3392,
      "obserw": 3393,
      "bliote": 3394,
      "skier": 3395,
      "rowadze": 3396,
      "Ġsam": 3397,
      "ĠwÅĤaÅĽnieĠ": 3398,
      "47": 3399,
      "ymiĠ": 3400,
      "tÅĤum": 3401,
      ",ĠbyĠ": 3402,
      "Ã³dĠ": 3403,
      "awod": 3404,
      "DonaldĠTusk": 3405,
      "rzu": 3406,
      "oĠpo": 3407,
      "jednost": 3408,
      "ministerĠ": 3409,
      "En": 3410,
      "gĠ": 3411,
      "ariiĠ": 3412,
      "chwi": 3413,
      "aczyÅĦskiĠ": 3414,
      "Hiszp": 3415,
      "Ġproblem": 3416,
      "samolot": 3417,
      "tok": 3418,
      "cznÄħ": 3419,
      "cjali": 3420,
      "cznym": 3421,
      ".ĠPrzy": 3422,
      ".ĠPro": 3423,
      "anÄħĠ": 3424,
      "azy": 3425,
      "Ġprzyczy": 3426,
      "KrakÃ³w": 3427,
      "cykl": 3428,
      "edycjiĠ": 3429,
      "El": 3430,
      "ĠÅ»": 3431,
      "edera": 3432,
      "kaÅ¼d": 3433,
      ")ĠorazĠ": 3434,
      "com": 3435,
      "-K": 3436,
      "Sy": 3437,
      "bardziejĠ": 3438,
      "VID": 3439,
      "ev": 3440,
      "Mari": 3441,
      "czter": 3442,
      "nieĠm": 3443,
      "ÅļwiatĊKategoria:": 3444,
      "all": 3445,
      "ktÃ³rzy": 3446,
      "scy": 3447,
      "olityka": 3448,
      "WikipediiĠ": 3449,
      "ÅĤodzie": 3450,
      "ĠpiÅĤceĠ": 3451,
      "Ġpodstaw": 3452,
      "cachĠ": 3453,
      "czoneĠ": 3454,
      "ĠpodkreÅĽli": 3455,
      ".ĊĊPod": 3456,
      "arzyĠ": 3457,
      "ÅĤadzie": 3458,
      "ÄĩĠnaĠ": 3459,
      "oÅĽredni": 3460,
      "ĊKategoria:R": 3461,
      "ĊKategoria:StanyĠZjednoczone": 3462,
      "bom": 3463,
      "takichĠ": 3464,
      "Tur": 3465,
      "swoichĠ": 3466,
      "stwo": 3467,
      "Ġwybran": 3468,
      "ster": 3469,
      "stytut": 3470,
      "gdyĠ": 3471,
      "mina": 3472,
      "wyciÄĻz": 3473,
      "Informaty": 3474,
      "iv": 3475,
      "Ġprzepis": 3476,
      "organizacjiĠ": 3477,
      "70": 3478,
      "wod": 3479,
      "aniem": 3480,
      "2023ĠrokuĠ": 3481,
      "lec": 3482,
      "lak": 3483,
      "ĠpolskiĠ": 3484,
      "Lepper": 3485,
      "rebel": 3486,
      "cyf": 3487,
      "yĠw": 3488,
      "nosiĠ": 3489,
      "str": 3490,
      "lecz": 3491,
      "Ġ-": 3492,
      "liÅĽmyĠ": 3493,
      "dniuĠ": 3494,
      "okres": 3495,
      "ĠmoÅ¼liw": 3496,
      "omni": 3497,
      "remĠ": 3498,
      "ĠPi": 3499,
      "kontyn": 3500,
      "czasu": 3501,
      "COVID": 3502,
      "niaĠEuropej": 3503,
      "Ek": 3504,
      "arzĠ": 3505,
      "stoli": 3506,
      "odbyw": 3507,
      "Goog": 3508,
      ":30Ġ": 3509,
      "dÅĤug": 3510,
      "szans": 3511,
      "naĠprzy": 3512,
      "Ġwspar": 3513,
      "tÄĻĠ": 3514,
      "wier": 3515,
      "ĠwyjaÅĽ": 3516,
      "rozwiÄħza": 3517,
      "skup": 3518,
      "celu": 3519,
      "czeÅĽniejĠ": 3520,
      "ofer": 3521,
      "48": 3522,
      "nas": 3523,
      "dÅ¼": 3524,
      "Ġwykorzy": 3525,
      "osobyĠ": 3526,
      "amb": 3527,
      "nekĠ": 3528,
      "mor": 3529,
      "ĠmiaÅĤ": 3530,
      "jem": 3531,
      "kosz": 3532,
      "pel": 3533,
      "Fot": 3534,
      "em,Ġ": 3535,
      "czasie": 3536,
      "Mic": 3537,
      "Wojcie": 3538,
      "COVID-19": 3539,
      "ekip": 3540,
      "ĠdoszÅĤoĠdoĠzatrzymaniaĠwĠruchuĠtramwaj": 3541,
      "aĠpo": 3542,
      "czÄħĠ": 3543,
      "ĠwĠsprawieĠ": 3544,
      "chceĠ": 3545,
      "16Ġ": 3546,
      "oh": 3547,
      "a-": 3548,
      ",ĊĊ": 3549,
      "ciemĠ": 3550,
      "ÅĽrodowisk": 3551,
      "Ġwypowie": 3552,
      "Mistrzost": 3553,
      "siÄĻbior": 3554,
      "udziaÅĤĠwĠ": 3555,
      "ĊĠĊĠĊĠĊĊKategoria:": 3556,
      "Star": 3557,
      "Å¹rÃ³dÅĤaĠĊĠĊĊKategoria:": 3558,
      "aÅ¼er": 3559,
      "umoÅ¼": 3560,
      "Zbignie": 3561,
      "Ġminist": 3562,
      "lim": 3563,
      "...": 3564,
      "informacjeĠ": 3565,
      "owaneĠprzezĠ": 3566,
      "nast": 3567,
      "rywat": 3568,
      "rÃ³wĠ": 3569,
      "ia,Ġ": 3570,
      "kun": 3571,
      "moc": 3572,
      "ĊKategoria:PiÅĤkaĠnoÅ¼": 3573,
      "m.in.": 3574,
      "Å¼yw": 3575,
      "Ġprzyp": 3576,
      "Ġmandat": 3577,
      ".ĠRuchĠ": 3578,
      "Afry": 3579,
      "razĠzĠ": 3580,
      "ĠpolskichĠ": 3581,
      "kĠ(": 3582,
      "waÅ¼Ġ": 3583,
      "wyk": 3584,
      "firmyĠ": 3585,
      "ĠprojektuĠ": 3586,
      "ĠzĠd": 3587,
      "ograf": 3588,
      "stal": 3589,
      "czymĠ": 3590,
      ".ĠTak": 3591,
      "objÄĻ": 3592,
      "ĠkmĠ": 3593,
      "dod": 3594,
      "2007ĊĠ": 3595,
      "czÄĻÅĽÄĩĠ": 3596,
      ",Ġza": 3597,
      "rezy": 3598,
      "czwar": 3599,
      "rali": 3600,
      "duÅ¼": 3601,
      "samymĠ": 3602,
      ".ĠPierw": 3603,
      "sobieĠ": 3604,
      "49": 3605,
      "ss": 3606,
      ":Ċ": 3607,
      "SĠ": 3608,
      "nychĠiĠ": 3609,
      "55": 3610,
      "SÅĤ": 3611,
      "nieĠnaĠ": 3612,
      "mÃ³wi": 3613,
      "Ġproces": 3614,
      "ĠwiÄĻcejĠ": 3615,
      "rzeb": 3616,
      "cznymĠ": 3617,
      "kimĠ": 3618,
      "Åģuka": 3619,
      "Ge": 3620,
      "nawetĠ": 3621,
      "upraw": 3622,
      ".ĊĊDoĠ": 3623,
      "wiÄĻc": 3624,
      "Niemie": 3625,
      "mas": 3626,
      "czyt": 3627,
      "oĠiĠSprawiedliwoÅĽÄĩ": 3628,
      "Ġzas": 3629,
      "Ze": 3630,
      "dzisia": 3631,
      "Ham": 3632,
      "loka": 3633,
      "syw": 3634,
      "int": 3635,
      "ajÄħcyĠ": 3636,
      "trak": 3637,
      "Wybory": 3638,
      "zyw": 3639,
      "gaz": 3640,
      "11Ġ": 3641,
      "Agen": 3642,
      "komputer": 3643,
      "udzie": 3644,
      "kiĠwĠ": 3645,
      "zmia": 3646,
      "ÄħĠdoĠ": 3647,
      "doszÅĤoĠ": 3648,
      "ska,Ġ": 3649,
      "MiÄĻdzynarod": 3650,
      "kami": 3651,
      "ÅĤaĠw": 3652,
      ".ĊĊWy": 3653,
      "uroĠ": 3654,
      "Grze": 3655,
      "ewnÄĻtrz": 3656,
      "17Ġ": 3657,
      "Roz": 3658,
      "ael": 3659,
      "Ġprawdopodob": 3660,
      ",ĠK": 3661,
      "ĊĊP": 3662,
      "wÃ³d": 3663,
      "ÄħĠnaĠ": 3664,
      "du": 3665,
      "konferencji": 3666,
      "Ġzn": 3667,
      "book": 3668,
      "iajÄħc": 3669,
      "noweĠ": 3670,
      "agrod": 3671,
      "ano": 3672,
      "ckiej": 3673,
      "WÅĤad": 3674,
      "skar": 3675,
      "lud": 3676,
      ":1": 3677,
      "ĠmiÄĻdzyĠ": 3678,
      "rzÄĻ": 3679,
      "miot": 3680,
      "Rom": 3681,
      "kobiet": 3682,
      "Ġzatrzym": 3683,
      "Ukrain": 3684,
      "ĊKategoria:KrakÃ³w": 3685,
      "0,": 3686,
      "otk": 3687,
      "ÅģÃ³dÅº": 3688,
      "Ġpartii": 3689,
      "ĠdoszÅĤoĠdoĠzatrzymaniaĠwĠruchuĠtramwajowymĠnaĠ": 3690,
      "dotyczÄħceĠ": 3691,
      "iĠ(": 3692,
      "Ġprodu": 3693,
      "42": 3694,
      "kampani": 3695,
      "rzyÅ¼": 3696,
      "UniiĠEuropejskiej": 3697,
      "firm": 3698,
      "rok": 3699,
      "Bel": 3700,
      "Ġwizy": 3701,
      "kryty": 3702,
      "Ġpapie": 3703,
      "ĠwÅĤaÅĽci": 3704,
      "Joh": 3705,
      "Kraj": 3706,
      ":ĠâĢŀ": 3707,
      "stud": 3708,
      "JarosÅĤawĠKaczyÅĦski": 3709,
      ",ĠÅ¼ebyĠ": 3710,
      "koment": 3711,
      "rawi": 3712,
      "ĠpartiiĠ": 3713,
      "sÅĤow": 3714,
      "Ġmed": 3715,
      "uzyskaÅĤĠ": 3716,
      "iera": 3717,
      ":30": 3718,
      "acze": 3719,
      "koÅĤ": 3720,
      "stÃ³w": 3721,
      "ern": 3722,
      "ktÃ³rej": 3723,
      ".ĠDz": 3724,
      "AmerykaĠP": 3725,
      "uruch": 3726,
      "brytyj": 3727,
      "gmin": 3728,
      "niego": 3729,
      "nastÄĻpujÄħceĠ": 3730,
      "eĠwĠ": 3731,
      ".ĠâĢŀ": 3732,
      "akoÅĦ": 3733,
      "ĊKategoria:SpoÅĤeczeÅĦstwo": 3734,
      "uÅĽci": 3735,
      "ĊKategoria:Transport": 3736,
      "Ġwprowadz": 3737,
      "cjiĠiĠ": 3738,
      "Ġporozumie": 3739,
      "szkol": 3740,
      "Instytut": 3741,
      "Ġwyj": 3742,
      "ĠwojewÃ³dztw": 3743,
      "ktÃ³reĠ": 3744,
      "ĠwznowionoĠ": 3745,
      "ktÃ³regoĠ": 3746,
      "Ġprogram": 3747,
      "torowisk": 3748,
      "border": 3749,
      "Äħcych": 3750,
      "udziaÅĤĠ": 3751,
      "ium": 3752,
      "Ġpat": 3753,
      "awans": 3754,
      "Ben": 3755,
      "Zie": 3756,
      "Ġpierwszej": 3757,
      "licen": 3758,
      "ÄħcĠ": 3759,
      "Ã³wĠ(": 3760,
      "atuĠ": 3761,
      "jako": 3762,
      "dokon": 3763,
      "trzy": 3764,
      "owych,Ġ": 3765,
      "ĠpiÅĤceĠnoÅ¼": 3766,
      "TA": 3767,
      "rakiet": 3768,
      "jestĠt": 3769,
      "anÄħ": 3770,
      "cjÄħ": 3771,
      "ejest": 3772,
      "Radi": 3773,
      "niak": 3774,
      "Bli": 3775,
      "dzisiej": 3776,
      "KoÅĽci": 3777,
      "ojusz": 3778,
      "biaÅĤ": 3779,
      "miaÅĤĠ": 3780,
      "trzechĠ": 3781,
      "naĠrzecz": 3782,
      "oĠgodz.Ġ": 3783,
      "cyjneĠ": 3784,
      "Ġpopraw": 3785,
      "inwesty": 3786,
      "ĊĠM": 3787,
      "ure": 3788,
      "ofiar": 3789,
      "sateli": 3790,
      "mili": 3791,
      "ĠpociÄħg": 3792,
      "konstytu": 3793,
      "dzieciĠ": 3794,
      "ira": 3795,
      "Czy": 3796,
      "rowadzenieĠ": 3797,
      "kod": 3798,
      "olet": 3799,
      "ÄĩĠsiÄĻĠ": 3800,
      "ujÄħcych": 3801,
      "ell": 3802,
      "18Ġ": 3803,
      "napraw": 3804,
      "sum": 3805,
      "Ty": 3806,
      "chce": 3807,
      "ÅĤĠdoĠ": 3808,
      "zeĠwzglÄĻd": 3809,
      "erzy": 3810,
      "tzw": 3811,
      "Ġmieszka": 3812,
      ".ĊĊWĠtymĠ": 3813,
      "Ġprowadzi": 3814,
      "owyĠwznowionoĠ": 3815,
      "nosi": 3816,
      "gdy": 3817,
      "OkrÄĻg": 3818,
      "plom": 3819,
      ".ĠOdĠ": 3820,
      "mos": 3821,
      "swojÄħĠ": 3822,
      "dor": 3823,
      "300px|": 3824,
      "byliĠ": 3825,
      "aĠzost": 3826,
      "ĠzakoÅĦ": 3827,
      "Ġzmarli:ĊĠ": 3828,
      "ĠwydarzeniaĠ": 3829,
      "ĊKategoria:Z": 3830,
      "sÄĻdzi": 3831,
      "inneĠ": 3832,
      "Ġprzeby": 3833,
      "Sh": 3834,
      "AnnaĠ": 3835,
      "Ġpotwierdzi": 3836,
      "ĠSp": 3837,
      "ek,Ġ": 3838,
      "ank": 3839,
      "doszÅĤoĠdoĠ": 3840,
      "skÄħ": 3841,
      "rzÄĻd": 3842,
      "areszt": 3843,
      "Ġwart": 3844,
      ".ĠMi": 3845,
      "kierowaneĠ": 3846,
      "Ġwczoraj": 3847,
      "mÅĤod": 3848,
      "ÅĤoÅ¼": 3849,
      "Lot": 3850,
      "iant": 3851,
      "24Ġ": 3852,
      "oĠtym": 3853,
      "19Ġ": 3854,
      "samorzÄħd": 3855,
      "okoj": 3856,
      "ĠwziÄĻ": 3857,
      "ĊĊĠĊĊKategoria:": 3858,
      "Ġmecz": 3859,
      "okra": 3860,
      "ÄĻb": 3861,
      "Ġwyborach": 3862,
      "ĠwyborÃ³w": 3863,
      "skiĠ(": 3864,
      "ĠzdjÄĻ": 3865,
      "media": 3866,
      "aneĠzĠ": 3867,
      "ĠwaÅ¼": 3868,
      "BiaÅĤoru": 3869,
      "szkoÅĤ": 3870,
      "rzÄħduĠ": 3871,
      "czyÅĤaĠ": 3872,
      "naĠzĠ": 3873,
      ",ĠktÃ³ryĠz": 3874,
      "alneĠ": 3875,
      "dziesi": 3876,
      "ÄĻĠiĠ": 3877,
      "giĠ": 3878,
      "ĠpowiedziaÅĤ,ĠÅ¼eĠ": 3879,
      "atyĠ": 3880,
      "koÅĦc": 3881,
      "liz": 3882,
      "Ġpotwierdz": 3883,
      "arzeĠ": 3884,
      "nicznychĠ": 3885,
      ".ĠZap": 3886,
      "rybun": 3887,
      "osÃ³bĠzĠwoj": 3888,
      "transport": 3889,
      "IS": 3890,
      "organizowan": 3891,
      "rowin": 3892,
      "Ġdecyzj": 3893,
      "43": 3894,
      "kiej": 3895,
      "Gru": 3896,
      "AdamĠ": 3897,
      "Ġwarun": 3898,
      "Ġwydaw": 3899,
      "ĠpostÄĻp": 3900,
      "Ġwynika": 3901,
      "aĠzostaÅĤaĠ": 3902,
      "deĠwszystki": 3903,
      "ÅĦskieĠ": 3904,
      "Ġdob": 3905,
      "Ġwieczor": 3906,
      "center": 3907,
      "uty": 3908,
      "Ma": 3909,
      "osen": 3910,
      "Ġkonie": 3911,
      "Ġpropozy": 3912,
      "Gaze": 3913,
      "PaÅĦstw": 3914,
      "nowegoĠ": 3915,
      "Ċright|": 3916,
      "IP": 3917,
      "acekĠ": 3918,
      "fan": 3919,
      "Ġtra": 3920,
      "nastÄħpi": 3921,
      "meczuĠ": 3922,
      "tab": 3923,
      "Ġmiejsc": 3924,
      "waÅ¼niej": 3925,
      "innymiĠ": 3926,
      "Grup": 3927,
      "koszt": 3928,
      "trans": 3929,
      "III": 3930,
      "nieĠod": 3931,
      "olidar": 3932,
      "Bog": 3933,
      "dzieÅĦĠ": 3934,
      "broni": 3935,
      "angaÅ¼": 3936,
      ",Ċ": 3937,
      "czwart": 3938,
      "wiÄħzekĠ": 3939,
      "\"Ġ-ĠpowiedziaÅĤĠ": 3940,
      "Ra": 3941,
      "dwieĠ": 3942,
      "liza": 3943,
      "ĠtegoĠ": 3944,
      "iÄĻĠ": 3945,
      "koÅĽci": 3946,
      "ksiÄħÅ¼": 3947,
      "obsÅĤug": 3948,
      "trady": 3949,
      "ĠrokuĠwĠ": 3950,
      "nyĠwĠ": 3951,
      "gÅĤosÃ³w": 3952,
      "Andrzej": 3953,
      "annaĠ": 3954,
      "InformatykaĊKategoria:": 3955,
      "Organi": 3956,
      "Ã³zef": 3957,
      "gorz": 3958,
      "Lech": 3959,
      "ÅĽwiecie": 3960,
      "nieĠjestĠ": 3961,
      "temuĠ": 3962,
      "Äĩ,ĠÅ¼eĠ": 3963,
      "oÅĤÄħ": 3964,
      "ciu": 3965,
      "biegajÄħce": 3966,
      "dyj": 3967,
      "dol": 3968,
      "szkole": 3969,
      "koron": 3970,
      "maj": 3971,
      "ĠjestĠ": 3972,
      "caÅĤkowi": 3973,
      "SejmuĠ": 3974,
      "ciar": 3975,
      "ĠprzezĠzablok": 3976,
      "niosekĠ": 3977,
      "ĠprzypadkuĠ": 3978,
      "wÃ³j": 3979,
      "armi": 3980,
      "Og": 3981,
      "Ġwiedz": 3982,
      "teren": 3983,
      "gryw": 3984,
      ".ĠĊĊW": 3985,
      "baz": 3986,
      ".ĠWedÅĤug": 3987,
      "rozwoj": 3988,
      "aku": 3989,
      "zapowiedzi": 3990,
      "WikimediaĊKategoria:": 3991,
      ".ĠPo": 3992,
      "administra": 3993,
      "aĠsiÄĻĠ": 3994,
      "''": 3995,
      "TVP": 3996,
      "arÃ³wnoĠ": 3997,
      "schod": 3998,
      "inaĠ": 3999,
      "oali": 4000,
      "zespoÅĤuĠ": 4001,
      "Szcze": 4002,
      "okraty": 4003,
      "Piotr": 4004,
      "majÄħ": 4005,
      "onor": 4006,
      "rocz": 4007,
      "spoÅĤecznoÅĽci": 4008,
      "Ġkraj": 4009,
      "2,": 4010,
      "obiekt": 4011,
      "ĠtejĠ": 4012,
      "biegajÄħceĠprzezĠzablok": 4013,
      "medi": 4014,
      "Aut": 4015,
      "szÅĤo": 4016,
      "ÄħcegoĠ": 4017,
      "trzym": 4018,
      "usĠ": 4019,
      "czeniuĠ": 4020,
      "ksztaÅĤ": 4021,
      "euro": 4022,
      "staÅĤ": 4023,
      "miejscu": 4024,
      "cywil": 4025,
      "gol": 4026,
      "rÃ³Å¼nychĠ": 4027,
      "jÄħd": 4028,
      "TheĠ": 4029,
      "omite": 4030,
      "kosmi": 4031,
      "Ġmog": 4032,
      "100Ġ": 4033,
      "Ġpokon": 4034,
      "sÅĤy": 4035,
      "oznacz": 4036,
      "ĠpoÅ¼ar": 4037,
      ".ĠRuchĠtramwaj": 4038,
      "ER": 4039,
      "owinie": 4040,
      "adeusz": 4041,
      "najp": 4042,
      "artykuÅĤÃ³w": 4043,
      "niezaleÅ¼": 4044,
      "Tra": 4045,
      "kal": 4046,
      "Ġpozw": 4047,
      "-0": 4048,
      "Niemcy": 4049,
      ".ĊĊÅ¹rÃ³d": 4050,
      "tera": 4051,
      "aĠW": 4052,
      "kurator": 4053,
      "gorzĠ": 4054,
      "ministraĠ": 4055,
      "ient": 4056,
      "Pozna": 4057,
      "tedyĠ": 4058,
      "ArchiwalneĠ": 4059,
      "pij": 4060,
      "stacjiĠ": 4061,
      "Ġposied": 4062,
      "czak": 4063,
      "aĊĠ": 4064,
      "odziel": 4065,
      "Festiwal": 4066,
      "ĠzÅĤoÅ¼y": 4067,
      "hand": 4068,
      "ogÃ³l": 4069,
      "MaÅĤ": 4070,
      "ĊKategoria:Kon": 4071,
      "chciaÅĤ": 4072,
      ",Ġgdzie": 4073,
      ",ĠÅ¼eĠw": 4074,
      "ArchiwalneĠzapowiedzi": 4075,
      "ĠprogramuĠ": 4076,
      "ÅĽredni": 4077,
      "nauczy": 4078,
      "systemuĠ": 4079,
      "Ġpodat": 4080,
      "Reprezent": 4081,
      "75": 4082,
      "ĊKategoria:ArchiwalneĊmaÅĤy|": 4083,
      "aĠpow": 4084,
      "cach": 4085,
      "ĠpozostaÅĤ": 4086,
      "ho": 4087,
      "termin": 4088,
      ".ĊĊĠP": 4089,
      "ct": 4090,
      "misjiĠ": 4091,
      "aĠzd": 4092,
      ".ĊĊĠZobaczĠteÅ¼ĠĊĠ": 4093,
      "akÅĤad": 4094,
      ".ĠminucieĠ": 4095,
      "czÄĻÅĽc": 4096,
      "history": 4097,
      "rokĠ": 4098,
      "ĠKrakÃ³w": 4099,
      "obecnieĠ": 4100,
      "dztw": 4101,
      ",ĠgdyĠ": 4102,
      "Ġwycof": 4103,
      "aĠD": 4104,
      "atĠ": 4105,
      "gaze": 4106,
      "kiĊKategoria:": 4107,
      "stwoĠ": 4108,
      "ĊĊĠLinkiĠzewnÄĻtrzneĠĊĠ": 4109,
      "unkow": 4110,
      "Lon": 4111,
      "ĠwĠS": 4112,
      "amy": 4113,
      "ile": 4114,
      "zÅĤ": 4115,
      "stref": 4116,
      "strzym": 4117,
      "historiiĠ": 4118,
      "kujeĠ": 4119,
      "ĠwĠÅģ": 4120,
      "sko-": 4121,
      "ĊKategoria:Praw": 4122,
      "Ġprocent": 4123,
      "US": 4124,
      "usu": 4125,
      "heĠ": 4126,
      ",ĠiÅ¼Ġ": 4127,
      "jedenĠzĠ": 4128,
      "badaniaĠ": 4129,
      ",ĠboĠ": 4130,
      "medy": 4131,
      "Ġpt": 4132,
      "azna": 4133,
      "centrumĠ": 4134,
      "caÅĤyĠ": 4135,
      "ckich": 4136,
      "adres": 4137,
      "tegor": 4138,
      "tysiÄħc": 4139,
      "aniu": 4140,
      "gna": 4141,
      "awÅĤaĠ": 4142,
      "narz": 4143,
      "SejmĠ": 4144,
      "sprawiedliw": 4145,
      "ĠpÃ³ÅĤ": 4146,
      "kiĠzĠ": 4147,
      "ckie": 4148,
      "waÄĩ": 4149,
      "rzut": 4150,
      "aĠKaczy": 4151,
      "ĠdotyczÄħc": 4152,
      "Gra": 4153,
      "sing": 4154,
      ".ĠRuchĠtramwajowyĠwznowionoĠ": 4155,
      "Ġprzestrze": 4156,
      "sposÃ³bĠ": 4157,
      "innych": 4158,
      "kadencji": 4159,
      "iÄĻc": 4160,
      "uzna": 4161,
      "aniĠ": 4162,
      "minut": 4163,
      "erzyĠ": 4164,
      "ÅļlÄħsk": 4165,
      "Ġwymag": 4166,
      ",ĠktÃ³regoĠ": 4167,
      "technolog": 4168,
      "uzeumĠ": 4169,
      "Ġprokuratur": 4170,
      "Miej": 4171,
      "grzy": 4172,
      "aÅĤÄĻ": 4173,
      "typuĠ": 4174,
      "NieĠ": 4175,
      "owaniu": 4176,
      "cyjnych": 4177,
      "odaw": 4178,
      "dlaĠp": 4179,
      "aki": 4180,
      "ortu": 4181,
      "Ġwykorzyst": 4182,
      "dziesiÄĻ": 4183,
      "Open": 4184,
      "ÅĽw": 4185,
      "ÄĻĠoĠ": 4186,
      "oĠ(": 4187,
      "nes": 4188,
      "Ġpoprzedni": 4189,
      "Ġpyt": 4190,
      "ĠpoÅĤÄħ": 4191,
      "KulturaĠiĠrozrywkaĊKategoria:": 4192,
      "ĠwszystkieĠ": 4193,
      "kontynu": 4194,
      "imierzĠ": 4195,
      "ĠwyÅĤÄħ": 4196,
      "Bo": 4197,
      "zdjÄĻ": 4198,
      "Åļrod": 4199,
      "ferend": 4200,
      "WielkaĠ": 4201,
      "Czar": 4202,
      "errory": 4203,
      "ĠĊ": 4204,
      "dziaÅĤaÅĦ": 4205,
      "lotni": 4206,
      ".ĠObec": 4207,
      "kiego": 4208,
      "dziedzi": 4209,
      "MS": 4210,
      "oczÄħtkuĠ": 4211,
      "eĠ(": 4212,
      "ĠprawieĠ": 4213,
      "Ġpkt": 4214,
      "eusz": 4215,
      "Ġpok": 4216,
      "aĠN": 4217,
      "jaw": 4218,
      "50Ġ": 4219,
      "aÅĤĠwĠ": 4220,
      "con": 4221,
      "Zi": 4222,
      ",ĠS": 4223,
      "katoli": 4224,
      "roÅ¼": 4225,
      "Ġwej": 4226,
      "terazĠ": 4227,
      "Dy": 4228,
      "zji": 4229,
      "francu": 4230,
      "swojejĠ": 4231,
      "ÅĤom": 4232,
      "chodzi": 4233,
      "ĠpÅĤy": 4234,
      "ĠpolskiegoĠ": 4235,
      "iĠza": 4236,
      "acje": 4237,
      "uchar": 4238,
      "ÅĤaĠsiÄĻ": 4239,
      "acjÄĻ": 4240,
      "Ġpoziom": 4241,
      "jedynieĠ": 4242,
      "straci": 4243,
      "marszaÅĤ": 4244,
      "Ġ\"": 4245,
      ".ĠLinieĠprze": 4246,
      "AmerykaĠPÃ³ÅĤnoc": 4247,
      "stawi": 4248,
      "Ġkat": 4249,
      ".ĊĊĠÅ¹rÃ³dÅĤaĠĊĠĊĊKategoria:EuropaĊKategoria:": 4250,
      "Bor": 4251,
      "naleÅ¼yĠ": 4252,
      "jestĠtoĠ": 4253,
      "towarzy": 4254,
      "czego": 4255,
      "miaÅĤoĠ": 4256,
      "raport": 4257,
      "ÅĽniew": 4258,
      "Å»y": 4259,
      "granic": 4260,
      "uczni": 4261,
      "najwyÅ¼": 4262,
      "tekst": 4263,
      "aÅĤog": 4264,
      "lasyfikacjiĠ": 4265,
      "ĠĊĠ": 4266,
      "owanyĠprzezĠ": 4267,
      "uczestniczy": 4268,
      "tren": 4269,
      "stabi": 4270,
      "s.": 4271,
      "gÅĤosowaniaĠ": 4272,
      "Har": 4273,
      "ong": 4274,
      "miej": 4275,
      "ord": 4276,
      "21Ġ": 4277,
      "wodniczÄħcyĠ": 4278,
      "Ġpierwszy": 4279,
      "amp": 4280,
      "Michael": 4281,
      "krajuĠ": 4282,
      "nieĠbÄĻdzieĠ": 4283,
      "jeÅº": 4284,
      "ĠprezydentĠ": 4285,
      "Ġwniosk": 4286,
      "Ġplac": 4287,
      "kategor": 4288,
      "ÅĤÃ³dz": 4289,
      "regul": 4290,
      "Ġponow": 4291,
      "frastruktur": 4292,
      "wit": 4293,
      "ÅĽlÄħ": 4294,
      "Sejmu": 4295,
      ".ĠLinieĠprzebiegajÄħceĠprzezĠzablok": 4296,
      "kolejneĠ": 4297,
      "ÃŃ": 4298,
      "odpowiad": 4299,
      "Iran": 4300,
      "OdĠ": 4301,
      "Dz": 4302,
      "gal": 4303,
      "PA": 4304,
      "Gre": 4305,
      "urze": 4306,
      "udostÄĻpni": 4307,
      "andĠ": 4308,
      "Rober": 4309,
      "omina": 4310,
      "razieĠ": 4311,
      "oniaĠ": 4312,
      ".ĠJegoĠ": 4313,
      "skute": 4314,
      "siedzi": 4315,
      "Ġzaprezent": 4316,
      "zator": 4317,
      "owanegoĠ": 4318,
      "ij": 4319,
      "Dzien": 4320,
      ").ĊĊ": 4321,
      "Leg": 4322,
      "ÅĦcyĠ": 4323,
      "lip": 4324,
      "aul": 4325,
      "her": 4326,
      ",ĠczyliĠ": 4327,
      "szego": 4328,
      "Aka": 4329,
      "alb": 4330,
      "nictwaĠ": 4331,
      "godnieĠzĠ": 4332,
      "czym": 4333,
      "oĠza": 4334,
      "TVN": 4335,
      "nauk": 4336,
      "Ab": 4337,
      "PKĠKrakÃ³w": 4338,
      "ĊĊĠÅ¹rÃ³dÅĤaĠĊĠĊĠĊĊKategoria:": 4339,
      "StanisÅĤaw": 4340,
      "mÄĻÅ¼czyz": 4341,
      "Hen": 4342,
      "elĠ": 4343,
      "Katastrof": 4344,
      "aĠObywatel": 4345,
      "Ã³wĠw": 4346,
      "swoimĠ": 4347,
      "e-": 4348,
      "anegoĠ": 4349,
      "Ġdal": 4350,
      "ĊKategoria:B": 4351,
      "arejest": 4352,
      "Tu": 4353,
      ".ĊĊĠÅ¹rÃ³dÅĤaĠĊĊKategoria:": 4354,
      "szÄħ": 4355,
      "Ġprzewag": 4356,
      "Telewi": 4357,
      "turniej": 4358,
      "ĊĠJ": 4359,
      "Mil": 4360,
      "naĠP": 4361,
      "istniej": 4362,
      "ĠwiÄĻzie": 4363,
      "XĠ": 4364,
      ".pl/": 4365,
      "ĠÐ": 4366,
      "Ġprakty": 4367,
      "czu": 4368,
      "nami": 4369,
      "Ġproduk": 4370,
      "szech": 4371,
      "Ġwyzna": 4372,
      "staĠ": 4373,
      "ĠpasaÅ¼er": 4374,
      "rannych": 4375,
      "roze": 4376,
      "jestĠwĠ": 4377,
      "owaneĠtorowisk": 4378,
      "koronawi": 4379,
      "ÅĤodz": 4380,
      "kad": 4381,
      "Ġswoj": 4382,
      "nisz": 4383,
      "nadziej": 4384,
      ",ĠkiedyĠ": 4385,
      "9.": 4386,
      "Sen": 4387,
      "mer": 4388,
      "cznoÅĽciĠ": 4389,
      "ĠponiedziaÅĤ": 4390,
      "spotkanie": 4391,
      "lika": 4392,
      "nieĠtylkoĠ": 4393,
      "sytuacjiĠ": 4394,
      "dziesiÄħt": 4395,
      "ÅģÃ³dz": 4396,
      "ludziĠ": 4397,
      "ĠzaĠp": 4398,
      "Ġprzejrz": 4399,
      "czych": 4400,
      "Ã¼": 4401,
      "Japoni": 4402,
      "Zmia": 4403,
      "bij": 4404,
      ",ĠponiewaÅ¼Ġ": 4405,
      "ÄĻdzieĠ": 4406,
      "akty": 4407,
      "Katarzy": 4408,
      "ktĠ": 4409,
      "siÄĻg": 4410,
      "liczb": 4411,
      "miaÅĤyĠ": 4412,
      "ĊKategoria:MPKĠKrakÃ³w": 4413,
      "Republi": 4414,
      "erroryzm": 4415,
      "Raf": 4416,
      "uszcz": 4417,
      "ukaz": 4418,
      "iaÅĤaĠ": 4419,
      "instal": 4420,
      "Stro": 4421,
      "jednoczeÅĽ": 4422,
      "cztere": 4423,
      "godnieĠz": 4424,
      "rÃ³j": 4425,
      "ĠzakÅĤad": 4426,
      "waneĠ": 4427,
      "musz": 4428,
      "ckichĠ": 4429,
      "Åģukasz": 4430,
      "Å¼ywi": 4431,
      "opini": 4432,
      ",ĠwĠkierunkuĠ": 4433,
      "owymiĠ": 4434,
      "nÄĻĠ": 4435,
      ".ĠĊĊP": 4436,
      "caÅĤejĠ": 4437,
      "resĠ": 4438,
      "sieciĠ": 4439,
      "22Ġ": 4440,
      "gromad": 4441,
      "ajÄħcych": 4442,
      "ii,Ġ": 4443,
      "ĠmoÅ¼naĠ": 4444,
      "mak": 4445,
      "atr": 4446,
      "zostaÅĤyĠ": 4447,
      "OR": 4448,
      "Ċthumb|250px|": 4449,
      "Car": 4450,
      "skÅĤadzie": 4451,
      "budowyĠ": 4452,
      "rozpoczÄħ": 4453,
      "rosof": 4454,
      "Ġmuzy": 4455,
      "ZwiÄħzekĠ": 4456,
      "marÅĤyĠ": 4457,
      "okrÄĻg": 4458,
      "65": 4459,
      ":00Ġ": 4460,
      "Ã³ÅºniejĠ": 4461,
      "najwaÅ¼niej": 4462,
      "Å¼ycie": 4463,
      "suk": 4464,
      "wierdzi": 4465,
      "ÅĤon": 4466,
      "iew": 4467,
      "Microsof": 4468,
      "lategoĠ": 4469,
      "azi": 4470,
      "Ã³wĠZjednoczon": 4471,
      "ÄħĠiĠ": 4472,
      "sobie": 4473,
      "szenieĠ": 4474,
      "koÅĦcaĠ": 4475,
      "miesiÄĻ": 4476,
      "CC": 4477,
      "aÅĤaĠsiÄĻĠ": 4478,
      "PolskiegoĠ": 4479,
      "PolskieĠ": 4480,
      ".ĠĠĠ": 4481,
      "asĠ": 4482,
      "ph": 4483,
      "ktÃ³rych": 4484,
      "ĠwĠramachĠ": 4485,
      "ĠwersjiĠ": 4486,
      "RosjiĠ": 4487,
      ",ĠB": 4488,
      "ĠprzywÃ³d": 4489,
      "3.": 4490,
      "oÅĽcia": 4491,
      "kopolsk": 4492,
      "ÄĻdz": 4493,
      "Ġpremie": 4494,
      "ĠwpÅĤyw": 4495,
      "+Ġ": 4496,
      "ĠBar": 4497,
      "GÅĤÃ³w": 4498,
      "KomisjiĠ": 4499,
      "to,ĠÅ¼eĠ": 4500,
      "jÄĻĠ": 4501,
      "bowie": 4502,
      "3,": 4503,
      "ux": 4504,
      "eleton": 4505,
      "liÅĤĠ": 4506,
      "ĊKategoria:D": 4507,
      "ostatecz": 4508,
      "stawion": 4509,
      "Jakub": 4510,
      "rem": 4511,
      "niachĠ": 4512,
      "jednymĠzĠ": 4513,
      ".ĊĊC": 4514,
      "czonoĠ": 4515,
      "owaÅĦ": 4516,
      "Ġzdecyd": 4517,
      "cenieĠ": 4518,
      "New": 4519,
      "ĠwĠM": 4520,
      "LechĠKaczyÅĦski": 4521,
      "rebeliant": 4522,
      "ÅĦskich": 4523,
      "41": 4524,
      "coĠnajmniejĠ": 4525,
      "wÃ³r": 4526,
      "ÅĤĠw": 4527,
      ".ĠWĠtymĠ": 4528,
      "brojne": 4529,
      "stanuĠ": 4530,
      "Mc": 4531,
      "Ro": 4532,
      "ostatni": 4533,
      "ZbigniewĠ": 4534,
      "bit": 4535,
      "rÃ³wn": 4536,
      "ST": 4537,
      "2019": 4538,
      "Interne": 4539,
      "Ã¶": 4540,
      "osze": 4541,
      "__": 4542,
      "moni": 4543,
      "element": 4544,
      "kiejĠBrytani": 4545,
      "strak": 4546,
      "WojciechĠ": 4547,
      ".ĠNatomiast": 4548,
      "zacjaĠ": 4549,
      "Zam": 4550,
      "Wis": 4551,
      ".ĊĊPrze": 4552,
      "ĠwystÄħpi": 4553,
      "czejĠ": 4554,
      "lia": 4555,
      "ÅĤaĠdoĠ": 4556,
      "van": 4557,
      "aĠzaĠ": 4558,
      "nowyĠ": 4559,
      "ik": 4560,
      "uryĠ": 4561,
      "ĠpierwszymĠ": 4562,
      "elektry": 4563,
      "Ð°": 4564,
      "ĠwĠtejĠ": 4565,
      ",ĠM": 4566,
      "terytor": 4567,
      "berg": 4568,
      "Gi": 4569,
      "sym": 4570,
      "bol": 4571,
      "Is": 4572,
      "numer": 4573,
      "ONZ": 4574,
      "reÅ¼y": 4575,
      "najnow": 4576,
      "Film": 4577,
      "Komen": 4578,
      "otrzymaÅĤĠ": 4579,
      "komÃ³r": 4580,
      "197": 4581,
      "ĠdostÄĻp": 4582,
      "yĠprzezĠ": 4583,
      "owa,Ġ": 4584,
      "Ġpomoc": 4585,
      "28Ġ": 4586,
      "rgani": 4587,
      "straÅ¼": 4588,
      "NI": 4589,
      "sytuacji": 4590,
      "cyjnyĠ": 4591,
      "Ġm.in.Ġ": 4592,
      "chÄĻ": 4593,
      "scen": 4594,
      "siĠ": 4595,
      ".ĠNastÄĻp": 4596,
      "zespÃ³ÅĤĠ": 4597,
      "szkaĠ": 4598,
      "taj": 4599,
      "ienieĠ": 4600,
      "Ġwymia": 4601,
      "konflikt": 4602,
      "alesty": 4603,
      "czÅĤonkow": 4604,
      "4.": 4605,
      "onuĠ": 4606,
      "(p": 4607,
      "kaza": 4608,
      "wycz": 4609,
      "strzel": 4610,
      "omin": 4611,
      "Ġprzezna": 4612,
      "aĠ-Ġ": 4613,
      "WÅĤochy": 4614,
      "Daniel": 4615,
      "ca,Ġ": 4616,
      "nieĠprzy": 4617,
      "ustale": 4618,
      "ugrup": 4619,
      "ria": 4620,
      "owal": 4621,
      ",ĠJ": 4622,
      "odnot": 4623,
      "ĠmlnĠzÅĤ": 4624,
      "2.": 4625,
      "rekor": 4626,
      "Trybun": 4627,
      "rai": 4628,
      "erze": 4629,
      "szyscyĠ": 4630,
      "unik": 4631,
      "danychĠ": 4632,
      "aÅĤuĠ": 4633,
      "ÄħĠsiÄĻĠ": 4634,
      "oddziaÅĤ": 4635,
      "ÅĦskie": 4636,
      "angiel": 4637,
      "ĠpiÅĤkar": 4638,
      "skut": 4639,
      "nowych": 4640,
      "CzÄĻst": 4641,
      "Ġpost": 4642,
      "ament": 4643,
      "yĠzbrojne": 4644,
      "mit": 4645,
      "ÅĤadzieĠ": 4646,
      "Och": 4647,
      ",Ġd": 4648,
      "owo": 4649,
      "De": 4650,
      ".ĠĊ": 4651,
      "ToĠ": 4652,
      "Ġ(WD):Ġ": 4653,
      "Ġpojazd": 4654,
      "opi": 4655,
      "Ġpokaz": 4656,
      "tworz": 4657,
      "koronawirus": 4658,
      "oprac": 4659,
      "Å¼Äħd": 4660,
      "dniuĠz": 4661,
      "Ġtrze": 4662,
      "rzÄħdu": 4663,
      "liniiĠ": 4664,
      ",ĠwĠktÃ³rym": 4665,
      "konkurs": 4666,
      ".ĠLinieĠprzebiegajÄħceĠprzezĠzablokowaneĠtorowisk": 4667,
      "atysty": 4668,
      "Ġpozwal": 4669,
      "StowarzyszenieĠ": 4670,
      "fliktyĠzbrojne": 4671,
      "ĠiĠCOVID-19": 4672,
      "RosjaĊKategoria:": 4673,
      "nastÄĻpujÄħceĠosoby": 4674,
      "57": 4675,
      "aktual": 4676,
      "ckimĠ": 4677,
      "komi": 4678,
      "Akademi": 4679,
      "kowychĠ": 4680,
      "ĠâĢŀ": 4681,
      "2015": 4682,
      "klÄĻ": 4683,
      "Ber": 4684,
      "twor": 4685,
      "nowejĠ": 4686,
      "ĠpowaÅ¼": 4687,
      "abi": 4688,
      "Å¼ywioÅĤ": 4689,
      "cznoÅĽci": 4690,
      "ÅĦskimĠ": 4691,
      ",Ġ,Ġ,Ġ,Ġ": 4692,
      "ury": 4693,
      "twa": 4694,
      "zeniuĠ": 4695,
      "ktÃ³rymĠ": 4696,
      "Hist": 4697,
      "IV": 4698,
      "PolskichĠ": 4699,
      "en:": 4700,
      "000Ġ": 4701,
      "nastÄĻpujÄħceĠosoby:ĊĠ": 4702,
      "ĠprawaĠ": 4703,
      "legal": 4704,
      "kontro": 4705,
      "groma": 4706,
      "ĊKategoria:Nau": 4707,
      "IT": 4708,
      "lag": 4709,
      "zeĠwzglÄĻduĠnaĠ": 4710,
      "ĠpremieraĠ": 4711,
      ".ĠE": 4712,
      "Ġzmarli:Ġ": 4713,
      "Ġzasad": 4714,
      "biskup": 4715,
      "ĊKategoria:PolitykaĊKategoria:PolskaĊKategoria:": 4716,
      "wanieĠ": 4717,
      "obejm": 4718,
      "Anto": 4719,
      "Pan": 4720,
      "znale": 4721,
      "ĠprogramĠ": 4722,
      "isjaĠ": 4723,
      "ĠwĠk": 4724,
      "WÄĻg": 4725,
      "obchod": 4726,
      "Muzy": 4727,
      "ĠPolsce": 4728,
      "Ġswo": 4729,
      "iot": 4730,
      "ĠpodrÃ³Å¼": 4731,
      "NATO": 4732,
      ".ĠPoz": 4733,
      "Zab": 4734,
      "eleg": 4735,
      "ĊĠS": 4736,
      "ĠzamkniÄĻ": 4737,
      "OĠ": 4738,
      "ofia": 4739,
      "hom": 4740,
      "Niep": 4741,
      "negocj": 4742,
      "opar": 4743,
      "ÅĤu": 4744,
      "2013": 4745,
      "owej,Ġ": 4746,
      "rab": 4747,
      "dniachĠ": 4748,
      "ramach": 4749,
      "swojegoĠ": 4750,
      "cy,Ġ": 4751,
      ".ĠJednakĠ": 4752,
      ".ĊĊWĠtymĠdniuĠz": 4753,
      ".ĊĊWĠtymĠdniuĠzmarÅĤyĠ": 4754,
      ".ĊĊWĠtymĠdniuĠzmarÅĤyĠnastÄĻpujÄħceĠosoby:ĊĠ": 4755,
      "mimoĠ": 4756,
      "Fi": 4757,
      "oceni": 4758,
      "Ukrai": 4759,
      "aĠwĠKrakowie": 4760,
      "tÃ³wĠ": 4761,
      "Ġmiejsce": 4762,
      "straj": 4763,
      "cyjnegoĠ": 4764,
      "oleg": 4765,
      "czar": 4766,
      "spoÅĤeczeÅĦstw": 4767,
      "Be": 4768,
      "np.Ġ": 4769,
      "serwis": 4770,
      "99": 4771,
      "aĠpolsk": 4772,
      "iĠd": 4773,
      "ÅĽmierciĠ": 4774,
      "Dav": 4775,
      "Å¼oÅĤnierzy": 4776,
      "razem": 4777,
      "naĠterenieĠ": 4778,
      "naleÅº": 4779,
      "znajd": 4780,
      "arzaĠ": 4781,
      "cyjnychĠ": 4782,
      "isc": 4783,
      "czoÅĤ": 4784,
      "odpowiedni": 4785,
      "acjon": 4786,
      "iĠK": 4787,
      "Ġwydan": 4788,
      "Ġto": 4789,
      "omo": 4790,
      "ass": 4791,
      "acebook": 4792,
      "tejĠpor": 4793,
      "Cie": 4794,
      "Ġpopular": 4795,
      "(w": 4796,
      "Ġproc.Ġ": 4797,
      "miejscowoÅĽciĠ": 4798,
      "oÅĤoĠgodzinyĠ": 4799,
      "Ġwicepre": 4800,
      "ÅĤyĠsiÄĻ": 4801,
      "atry": 4802,
      ".ĠZd": 4803,
      "stanu": 4804,
      ".ĠOstat": 4805,
      "Ban": 4806,
      "agd": 4807,
      "Est": 4808,
      "owanymĠ": 4809,
      "PrawoĠiĠSprawiedliwoÅĽÄĩ": 4810,
      "tow": 4811,
      "warant": 4812,
      "gÅĤasz": 4813,
      "owaniemĠ": 4814,
      "a,ĠaĠ": 4815,
      "waliĠ": 4816,
      "rist": 4817,
      "natomiastĠ": 4818,
      ".ĊĊPro": 4819,
      "Przy": 4820,
      "ĠpoÅĤud": 4821,
      "ĊKategoria:Terroryzm": 4822,
      "katastrof": 4823,
      "-M": 4824,
      "osiÄħgniÄĻ": 4825,
      "noÅĽlÄħ": 4826,
      ",ĠjednakĠ": 4827,
      "At": 4828,
      "ogÅĤosz": 4829,
      "ÅĤaĠwĠ": 4830,
      "FA": 4831,
      "reklam": 4832,
      "ajcar": 4833,
      "ĊKategoria:KrakÃ³wĊKategoria:MPKĠKrakÃ³w": 4834,
      "obszar": 4835,
      "energety": 4836,
      "czteryĠ": 4837,
      "ieraj": 4838,
      "rÄĻcz": 4839,
      "namĠ": 4840,
      "referend": 4841,
      "26Ġ": 4842,
      "odd": 4843,
      "leb": 4844,
      "aniaĠp": 4845,
      "skon": 4846,
      "2021ĠrokuĠ": 4847,
      "specjali": 4848,
      "ÄħÅ¼e": 4849,
      "komisjiĠ": 4850,
      ",Ġpod": 4851,
      "zad": 4852,
      "cyjne": 4853,
      "abor": 4854,
      "ierow": 4855,
      "Ġpak": 4856,
      "Pra": 4857,
      "ZwiÄħz": 4858,
      "nadzor": 4859,
      "ĊĊKategoria:PolskaĊKategoria:": 4860,
      "kowski": 4861,
      "groz": 4862,
      "Ġznalaz": 4863,
      "inten": 4864,
      "ĠprawoĠ": 4865,
      "izrael": 4866,
      "Ġpowiat": 4867,
      "mieliĠ": 4868,
      "dzy": 4869,
      "Ġpublika": 4870,
      "Ã³wĠd": 4871,
      "cyjnego": 4872,
      "konstru": 4873,
      "adyĠ": 4874,
      "tan": 4875,
      "obÃ³j": 4876,
      "a\"": 4877,
      "ileĠ": 4878,
      "ĊKategoria:Archiwalne": 4879,
      "zapewni": 4880,
      "oÅĽrod": 4881,
      "Win": 4882,
      "king": 4883,
      "Ã³jĠ": 4884,
      "aĠpoĠ": 4885,
      "Obam": 4886,
      "jestĠz": 4887,
      "UniwersytetuĠ": 4888,
      "ech": 4889,
      "targ": 4890,
      "Tak": 4891,
      "ling": 4892,
      "waÅĽniew": 4893,
      "Parlament": 4894,
      "GB": 4895,
      "mieniaĠ": 4896,
      "honor": 4897,
      "Ġponad": 4898,
      "yÅĽl": 4899,
      "ef": 4900,
      "mistrzost": 4901,
      "inicjatyw": 4902,
      "ÄĻĠzĠ": 4903,
      "konk": 4904,
      "celemĠ": 4905,
      "kujÄħc": 4906,
      "Äħb": 4907,
      "demon": 4908,
      "mogliĠ": 4909,
      "6.": 4910,
      "ieÅĤ": 4911,
      "ceniaĠ": 4912,
      "ataĠ": 4913,
      "czeÅĦ": 4914,
      "zagra": 4915,
      "PiÅĤkaĠnoÅ¼": 4916,
      "adi": 4917,
      "Arty": 4918,
      "bezpÅĤat": 4919,
      "gdzieĠ": 4920,
      "aÅĤemĠ": 4921,
      "yĠzost": 4922,
      "Ġpx": 4923,
      "-letni": 4924,
      "egoĠprzezĠ": 4925,
      "ropon": 4926,
      "Ġzakres": 4927,
      "iĠS": 4928,
      "miejscuĠ": 4929,
      "Ġpublicznej": 4930,
      "ĠwÅĤo": 4931,
      "Sk": 4932,
      "nictwoĠ": 4933,
      "okazjiĠ": 4934,
      "ajĠ": 4935,
      "TourĠdeĠ": 4936,
      "ukrai": 4937,
      "eks": 4938,
      "WypadkiĠdrogoweĊKategoria:KrakÃ³wĊKategoria:MPKĠKrakÃ³w": 4939,
      "zarz": 4940,
      "ĠKon": 4941,
      "40Ġ": 4942,
      "bot": 4943,
      "zdarzeniaĠ": 4944,
      "Ukraina": 4945,
      "Ġprop": 4946,
      "iÄĻksz": 4947,
      "rodzi": 4948,
      "Ġwyniku": 4949,
      "telewizyj": 4950,
      "Ð¾": 4951,
      "ratow": 4952,
      "czyÄĩ": 4953,
      "ami,Ġ": 4954,
      "58": 4955,
      "GrzegorzĠ": 4956,
      "ĊĠĊĠĊĠĊĠ": 4957,
      "narciar": 4958,
      "prowadz": 4959,
      "redaktor": 4960,
      "doszÅĤo": 4961,
      "obraz": 4962,
      "Ġprofes": 4963,
      "rew": 4964,
      "KS": 4965,
      "Ðµ": 4966,
      "23Ġ": 4967,
      "zeÅĦ": 4968,
      "27Ġ": 4969,
      "ve": 4970,
      ".ĠZĠ": 4971,
      "CS": 4972,
      "Ð¸": 4973,
      "a.ĊĊ": 4974,
      "Wikipedia": 4975,
      ".ĠWszyst": 4976,
      "ktÃ³rejĠ": 4977,
      "nazwi": 4978,
      "tyĠiĠ": 4979,
      "Ġprzekon": 4980,
      "ĠprzedsiÄĻbior": 4981,
      "mil": 4982,
      "CB": 4983,
      "Ġkole": 4984,
      "EĠ": 4985,
      "czykĠ": 4986,
      "udaÅĤoĠ": 4987,
      "ĠwysÅĤ": 4988,
      "jÄħÅĤĠ": 4989,
      "ĠpÅĤa": 4990,
      "siÄĻĠdo": 4991,
      "mani": 4992,
      "odkry": 4993,
      "spekt": 4994,
      ",ĠiÅ¼": 4995,
      ",8": 4996,
      "ekon": 4997,
      "ush": 4998,
      "coÅĽ": 4999
    },
    "merges": [
      [
        "i",
        "e"
      ],
      [
        "a",
        "Ġ"
      ],
      [
        "Å",
        "Ĥ"
      ],
      [
        "Ġ",
        "p"
      ],
      [
        "o",
        "w"
      ],
      [
        "Ġ",
        "w"
      ],
      [
        "o",
        "r"
      ],
      [
        "s",
        "t"
      ],
      [
        "n",
        "i"
      ],
      [
        "o",
        "Ġ"
      ],
      [
        "z",
        "e"
      ],
      [
        "a",
        "t"
      ],
      [
        "i",
        "Ġ"
      ],
      [
        "Ã",
        "³"
      ],
      [
        "Ä",
        "Ļ"
      ],
      [
        ",",
        "Ġ"
      ],
      [
        "c",
        "h"
      ],
      [
        "i",
        "a"
      ],
      [
        "Ä",
        "ħ"
      ],
      [
        "y",
        "Ġ"
      ],
      [
        "e",
        "g"
      ],
      [
        "c",
        "z"
      ],
      [
        "a",
        "n"
      ],
      [
        ".",
        "Ġ"
      ],
      [
        "a",
        "r"
      ],
      [
        "Å",
        "¼"
      ],
      [
        "o",
        "d"
      ],
      [
        "n",
        "ie"
      ],
      [
        "s",
        "k"
      ],
      [
        "e",
        "Ġ"
      ],
      [
        "r",
        "a"
      ],
      [
        "r",
        "o"
      ],
      [
        "Ċ",
        "Ċ"
      ],
      [
        "Ġ",
        "z"
      ],
      [
        "K",
        "at"
      ],
      [
        "l",
        "i"
      ],
      [
        "eg",
        "or"
      ],
      [
        "ia",
        ":"
      ],
      [
        "egor",
        "ia:"
      ],
      [
        "Kat",
        "egoria:"
      ],
      [
        "o",
        "n"
      ],
      [
        "Å",
        "Ľ"
      ],
      [
        "d",
        "z"
      ],
      [
        "s",
        "z"
      ],
      [
        "r",
        "ze"
      ],
      [
        "u",
        "Ġ"
      ],
      [
        "e",
        "r"
      ],
      [
        "Ã³",
        "w"
      ],
      [
        "Ġw",
        "Ġ"
      ],
      [
        "n",
        "aĠ"
      ],
      [
        "a",
        "ÅĤ"
      ],
      [
        "Ċ",
        "Kategoria:"
      ],
      [
        "m",
        "Ġ"
      ],
      [
        "i",
        "ÄĻ"
      ],
      [
        "n",
        "a"
      ],
      [
        "c",
        "j"
      ],
      [
        "o",
        "l"
      ],
      [
        "z",
        "y"
      ],
      [
        "e",
        "j"
      ],
      [
        "ch",
        "Ġ"
      ],
      [
        "e",
        "n"
      ],
      [
        "a",
        "l"
      ],
      [
        "i",
        "n"
      ],
      [
        "ie",
        "Ġ"
      ],
      [
        ".",
        "ĊĊ"
      ],
      [
        "a",
        "k"
      ],
      [
        "t",
        "y"
      ],
      [
        "Ċ",
        "Ġ"
      ],
      [
        "Ä",
        "ĩ"
      ],
      [
        "r",
        "e"
      ],
      [
        "Ġp",
        "o"
      ],
      [
        "j",
        "e"
      ],
      [
        "Äħ",
        "Ġ"
      ],
      [
        "k",
        "a"
      ],
      [
        "ni",
        "aĠ"
      ],
      [
        "o",
        "b"
      ],
      [
        "Ġw",
        "y"
      ],
      [
        "a",
        "w"
      ],
      [
        "s",
        "p"
      ],
      [
        "s",
        "iÄĻ"
      ],
      [
        "z",
        "Ġ"
      ],
      [
        "a",
        "d"
      ],
      [
        "Å",
        "Ħ"
      ],
      [
        "Ġp",
        "rze"
      ],
      [
        "k",
        "t"
      ],
      [
        "a",
        "m"
      ],
      [
        "nie",
        "Ġ"
      ],
      [
        "o",
        "m"
      ],
      [
        "c",
        "i"
      ],
      [
        "n",
        "y"
      ],
      [
        "o",
        "s"
      ],
      [
        "2",
        "0"
      ],
      [
        "Ġ",
        "d"
      ],
      [
        "o",
        "ÅĽ"
      ],
      [
        "l",
        "e"
      ],
      [
        "ie",
        "r"
      ],
      [
        "â",
        "Ģ"
      ],
      [
        "ÅĤ",
        "aĠ"
      ],
      [
        "c",
        "ze"
      ],
      [
        "Ġ",
        "m"
      ],
      [
        "t",
        "e"
      ],
      [
        "a",
        "j"
      ],
      [
        "w",
        "i"
      ],
      [
        "r",
        "Ã³"
      ],
      [
        "Äħ",
        "c"
      ],
      [
        "k",
        "i"
      ],
      [
        "r",
        "zy"
      ],
      [
        "o",
        "st"
      ],
      [
        "cz",
        "y"
      ],
      [
        "u",
        "r"
      ],
      [
        "o",
        "t"
      ],
      [
        "eg",
        "oĠ"
      ],
      [
        "a",
        "s"
      ],
      [
        "Äĩ",
        "Ġ"
      ],
      [
        "ÅĤ",
        "Ġ"
      ],
      [
        "ie",
        "j"
      ],
      [
        "b",
        "y"
      ],
      [
        "Ã³",
        "r"
      ],
      [
        "ej",
        "Ġ"
      ],
      [
        "Ã³w",
        "Ġ"
      ],
      [
        "ol",
        "sk"
      ],
      [
        "Å¼",
        "eĠ"
      ],
      [
        "r",
        "u"
      ],
      [
        "o",
        "k"
      ],
      [
        "ow",
        "an"
      ],
      [
        "ow",
        "a"
      ],
      [
        "o",
        "p"
      ],
      [
        "n",
        "e"
      ],
      [
        "z",
        "a"
      ],
      [
        "m",
        "i"
      ],
      [
        "k",
        "u"
      ],
      [
        "e",
        "d"
      ],
      [
        "aĠ",
        "p"
      ],
      [
        "kt",
        "Ã³r"
      ],
      [
        "c",
        "y"
      ],
      [
        "en",
        "t"
      ],
      [
        "siÄĻ",
        "Ġ"
      ],
      [
        "rÃ³",
        "d"
      ],
      [
        "c",
        "e"
      ],
      [
        "k",
        "Ġ"
      ],
      [
        "o",
        "g"
      ],
      [
        "ra",
        "w"
      ],
      [
        "Ġz",
        "Ġ"
      ],
      [
        "ow",
        "y"
      ],
      [
        "od",
        "z"
      ],
      [
        "s",
        "ze"
      ],
      [
        "u",
        "t"
      ],
      [
        "Ġ",
        "Å"
      ],
      [
        "d",
        "oĠ"
      ],
      [
        "ia",
        "ÅĤ"
      ],
      [
        "o",
        "ÅĤ"
      ],
      [
        "k",
        "aĠ"
      ],
      [
        "ÄĻ",
        "Ġ"
      ],
      [
        "r",
        "z"
      ],
      [
        "u",
        "j"
      ],
      [
        "P",
        "olsk"
      ],
      [
        "Ġp",
        "od"
      ],
      [
        "¹",
        "rÃ³d"
      ],
      [
        "ie",
        "g"
      ],
      [
        "a",
        "ni"
      ],
      [
        "sk",
        "i"
      ],
      [
        "a",
        "cj"
      ],
      [
        "u",
        "m"
      ],
      [
        "r",
        "y"
      ],
      [
        "ow",
        "ie"
      ],
      [
        "k",
        "uĠ"
      ],
      [
        "ĊĊ",
        "Kategoria:"
      ],
      [
        "e",
        "l"
      ],
      [
        ",Ġ",
        "Å¼eĠ"
      ],
      [
        "je",
        "st"
      ],
      [
        "k",
        "iĠ"
      ],
      [
        "aÅĤ",
        "Ġ"
      ],
      [
        "dz",
        "ie"
      ],
      [
        "sz",
        "y"
      ],
      [
        ".Ġ",
        "W"
      ],
      [
        "Ġ",
        "ro"
      ],
      [
        "aĠ",
        "w"
      ],
      [
        "Å¼",
        "e"
      ],
      [
        "i",
        "s"
      ],
      [
        "Ġ",
        "Ġ"
      ],
      [
        "ĠÅ",
        "¹rÃ³d"
      ],
      [
        "d",
        "y"
      ],
      [
        "a",
        "ĊKategoria:"
      ],
      [
        "k",
        "on"
      ],
      [
        "âĢ",
        "ĵ"
      ],
      [
        "cz",
        "n"
      ],
      [
        "a",
        "z"
      ],
      [
        "Ġp",
        "ro"
      ],
      [
        "u",
        "b"
      ],
      [
        "c",
        "iĠ"
      ],
      [
        "o",
        "li"
      ],
      [
        "c",
        "ie"
      ],
      [
        "st",
        "w"
      ],
      [
        "e",
        "m"
      ],
      [
        ",Ġ",
        "ktÃ³r"
      ],
      [
        "20",
        "2"
      ],
      [
        "o",
        "j"
      ],
      [
        "ĠÅ¹rÃ³d",
        "ÅĤaĠ"
      ],
      [
        "a",
        "p"
      ],
      [
        "d",
        "Ġ"
      ],
      [
        "Å¼",
        "y"
      ],
      [
        "u",
        "n"
      ],
      [
        "ow",
        "i"
      ],
      [
        "e",
        "t"
      ],
      [
        "eg",
        "o"
      ],
      [
        "f",
        "i"
      ],
      [
        "t",
        "er"
      ],
      [
        "Ġp",
        "rzy"
      ],
      [
        ".Ġ",
        "P"
      ],
      [
        "e",
        "k"
      ],
      [
        "u",
        "d"
      ],
      [
        "ĠÅ¹rÃ³dÅĤaĠ",
        "ĊĠ"
      ],
      [
        "f",
        "or"
      ],
      [
        "j",
        "ak"
      ],
      [
        "Ġ",
        "t"
      ],
      [
        "0",
        "0"
      ],
      [
        "dz",
        "i"
      ],
      [
        "w",
        "a"
      ],
      [
        "r",
        "an"
      ],
      [
        ":",
        "Ġ"
      ],
      [
        "cj",
        "iĠ"
      ],
      [
        "1",
        "9"
      ],
      [
        "s",
        "ÅĤ"
      ],
      [
        "b",
        "ÄĻ"
      ],
      [
        "Ġ",
        "k"
      ],
      [
        "b",
        "i"
      ],
      [
        "c",
        "yĠ"
      ],
      [
        "for",
        "m"
      ],
      [
        "ro",
        "z"
      ],
      [
        "je",
        "d"
      ],
      [
        "Ġ",
        "("
      ],
      [
        "-",
        "Ġ"
      ],
      [
        "ar",
        "t"
      ],
      [
        "na",
        "j"
      ],
      [
        "ÅĤ",
        "oĠ"
      ],
      [
        "st",
        "y"
      ],
      [
        "n",
        "eĠ"
      ],
      [
        "e",
        "mĠ"
      ],
      [
        "t",
        "ak"
      ],
      [
        "c",
        "aĠ"
      ],
      [
        "l",
        "iĠ"
      ],
      [
        "Äħ",
        "d"
      ],
      [
        "k",
        "ow"
      ],
      [
        "nie",
        "j"
      ],
      [
        "t",
        "u"
      ],
      [
        "y",
        "chĠ"
      ],
      [
        "m",
        "ie"
      ],
      [
        "n",
        "yĠ"
      ],
      [
        "dz",
        "iaÅĤ"
      ],
      [
        "cz",
        "as"
      ],
      [
        "S",
        "t"
      ],
      [
        "s",
        "y"
      ],
      [
        "Å",
        "º"
      ],
      [
        "a",
        "li"
      ],
      [
        "ny",
        "chĠ"
      ],
      [
        "u",
        "l"
      ],
      [
        "a",
        ",Ġ"
      ],
      [
        "20",
        "0"
      ],
      [
        "ÅĦ",
        "sk"
      ],
      [
        "a",
        "g"
      ],
      [
        "W",
        "i"
      ],
      [
        "ni",
        "k"
      ],
      [
        "st",
        "aw"
      ],
      [
        "Ġ",
        "P"
      ],
      [
        "a",
        "ch"
      ],
      [
        "dz",
        "ieĠ"
      ],
      [
        "d",
        "o"
      ],
      [
        "c",
        "eĠ"
      ],
      [
        "Å¼",
        "Ġ"
      ],
      [
        "ie",
        "l"
      ],
      [
        "s",
        "i"
      ],
      [
        "y",
        "ch"
      ],
      [
        "n",
        "o"
      ],
      [
        "w",
        "al"
      ],
      [
        "Ġ",
        "iĠ"
      ],
      [
        "m",
        "o"
      ],
      [
        "c",
        "ieĠ"
      ],
      [
        "ÅĤ",
        "o"
      ],
      [
        "ÄĻ",
        "p"
      ],
      [
        "a",
        "chĠ"
      ],
      [
        "ost",
        "aÅĤ"
      ],
      [
        "Ġ",
        "K"
      ],
      [
        "Ġd",
        "oĠ"
      ],
      [
        "t",
        "oĠ"
      ],
      [
        "n",
        "oÅĽ"
      ],
      [
        "l",
        "aĠ"
      ],
      [
        "st",
        "an"
      ],
      [
        "t",
        "w"
      ],
      [
        ".ĊĊ",
        "ĠÅ¹rÃ³dÅĤaĠĊĠ"
      ],
      [
        "a",
        "b"
      ],
      [
        "A",
        "r"
      ],
      [
        "or",
        "a"
      ],
      [
        "k",
        "o"
      ],
      [
        "Ġ",
        "S"
      ],
      [
        "ny",
        "ch"
      ],
      [
        "ow",
        "aÅĤ"
      ],
      [
        "Ġprze",
        "zĠ"
      ],
      [
        "u",
        "ro"
      ],
      [
        "g",
        "ÅĤ"
      ],
      [
        "w",
        "ie"
      ],
      [
        "cj",
        "i"
      ],
      [
        "g",
        "ra"
      ],
      [
        "Ġp",
        "re"
      ],
      [
        "ka",
        "ĊKategoria:"
      ],
      [
        "naĠ",
        "p"
      ],
      [
        "M",
        "i"
      ],
      [
        "w",
        "y"
      ],
      [
        "âĢĵ",
        "Ġ"
      ],
      [
        "r",
        "od"
      ],
      [
        "ÅĤ",
        "yĠ"
      ],
      [
        "aj",
        "Äħc"
      ],
      [
        "d",
        "e"
      ],
      [
        "k",
        "ie"
      ],
      [
        "at",
        "y"
      ],
      [
        "âĢ",
        "Ŀ"
      ],
      [
        "s",
        "Ġ"
      ],
      [
        "ora",
        "zĠ"
      ],
      [
        "e",
        "z"
      ],
      [
        "ch",
        "i"
      ],
      [
        "o",
        "z"
      ],
      [
        "âĢ",
        "ŀ"
      ],
      [
        "Å",
        "ļ"
      ],
      [
        "jest",
        "Ġ"
      ],
      [
        "u",
        "sz"
      ],
      [
        ".Ġ",
        "N"
      ],
      [
        "ieg",
        "oĠ"
      ],
      [
        "a",
        "niaĠ"
      ],
      [
        "m",
        "ia"
      ],
      [
        "Ġ",
        "s"
      ],
      [
        "l",
        "at"
      ],
      [
        "iej",
        "s"
      ],
      [
        "ia",
        "d"
      ],
      [
        "aĠ",
        "z"
      ],
      [
        "ÅĤ",
        "a"
      ],
      [
        "b",
        "or"
      ],
      [
        "u",
        "g"
      ],
      [
        "in",
        "form"
      ],
      [
        "Ã³",
        "ÅĤ"
      ],
      [
        "an",
        "ieĠ"
      ],
      [
        "i",
        "m"
      ],
      [
        "uj",
        "Äħc"
      ],
      [
        "ÅĤ",
        "ad"
      ],
      [
        "or",
        "t"
      ],
      [
        ".Ġ",
        "Z"
      ],
      [
        ".ĊĊ",
        "W"
      ],
      [
        "zy",
        "d"
      ],
      [
        "an",
        "ie"
      ],
      [
        "Ġp",
        "ow"
      ],
      [
        "S",
        "p"
      ],
      [
        "ar",
        "sz"
      ],
      [
        "yĠ",
        "z"
      ],
      [
        "Polsk",
        "aĊKategoria:"
      ],
      [
        "iej",
        "Ġ"
      ],
      [
        "e",
        "st"
      ],
      [
        "u",
        "s"
      ],
      [
        "1",
        "0"
      ],
      [
        "st",
        "ÄĻp"
      ],
      [
        "e",
        "w"
      ],
      [
        "t",
        "o"
      ],
      [
        "k",
        "ol"
      ],
      [
        "sp",
        "raw"
      ],
      [
        ".Ġ",
        "ĊĊ"
      ],
      [
        "Ġro",
        "ku"
      ],
      [
        "k",
        "om"
      ],
      [
        "I",
        "n"
      ],
      [
        "ÅĦ",
        "stw"
      ],
      [
        "ieg",
        "o"
      ],
      [
        "ar",
        "z"
      ],
      [
        "uro",
        "p"
      ],
      [
        "z",
        "j"
      ],
      [
        "ier",
        "w"
      ],
      [
        "r",
        "i"
      ],
      [
        "Ġp",
        "ra"
      ],
      [
        "wi",
        "at"
      ],
      [
        "an",
        "d"
      ],
      [
        "p",
        "i"
      ],
      [
        "r",
        "ow"
      ],
      [
        "t",
        "ra"
      ],
      [
        "ni",
        "uĠ"
      ],
      [
        "m",
        "iĠ"
      ],
      [
        "cy",
        "j"
      ],
      [
        "Ar",
        "chi"
      ],
      [
        ",Ġ",
        "aĠ"
      ],
      [
        "Ġ",
        "M"
      ],
      [
        "wi",
        "Äħ"
      ],
      [
        "p",
        "o"
      ],
      [
        "u",
        "Å¼"
      ],
      [
        "i",
        "l"
      ],
      [
        "ÅĽ",
        "ci"
      ],
      [
        "nie",
        "Ġz"
      ],
      [
        "t",
        "h"
      ],
      [
        "g",
        "odz"
      ],
      [
        "Archi",
        "wal"
      ],
      [
        "oÅĽ",
        "ci"
      ],
      [
        "r",
        "owa"
      ],
      [
        "Ã³",
        "b"
      ],
      [
        "ÅĤ",
        "y"
      ],
      [
        "r",
        "w"
      ],
      [
        "g",
        "ani"
      ],
      [
        "ra",
        "j"
      ],
      [
        "cz",
        "ÄĻ"
      ],
      [
        "st",
        "ro"
      ],
      [
        "rzy",
        "m"
      ],
      [
        ".Ġ",
        "J"
      ],
      [
        ")",
        "Ġ"
      ],
      [
        "Wi",
        "ki"
      ],
      [
        "ub",
        "li"
      ],
      [
        "ty",
        "mĠ"
      ],
      [
        "ni",
        "st"
      ],
      [
        "r",
        "Ã³w"
      ],
      [
        "Ġro",
        "kuĠ"
      ],
      [
        "od",
        "Ġ"
      ],
      [
        "os",
        "Ã³b"
      ],
      [
        "i",
        "iĠ"
      ],
      [
        "m",
        "iejs"
      ],
      [
        "E",
        "urop"
      ],
      [
        ",",
        "ĠwĠ"
      ],
      [
        ".Ġ",
        "D"
      ],
      [
        "s",
        "am"
      ],
      [
        "a",
        "c"
      ],
      [
        "C",
        "h"
      ],
      [
        "bÄĻ",
        "dzieĠ"
      ],
      [
        "uj",
        "eĠ"
      ],
      [
        "Ġp",
        "oĠ"
      ],
      [
        "n",
        "egoĠ"
      ],
      [
        "oÅĽ",
        "ciĠ"
      ],
      [
        "sk",
        "iĠ"
      ],
      [
        "Archiwal",
        "ne"
      ],
      [
        "m",
        "ier"
      ],
      [
        "cj",
        "aĠ"
      ],
      [
        "i",
        "aĠ"
      ],
      [
        "e",
        "c"
      ],
      [
        "s",
        "ie"
      ],
      [
        "i",
        "on"
      ],
      [
        "w",
        "Ġ"
      ],
      [
        "1",
        "2"
      ],
      [
        "w",
        "iÄĻ"
      ],
      [
        "oli",
        "ty"
      ],
      [
        "g",
        "ru"
      ],
      [
        "1",
        "5"
      ],
      [
        "A",
        "n"
      ],
      [
        "W",
        "y"
      ],
      [
        "um",
        "b"
      ],
      [
        "s",
        "w"
      ],
      [
        "m",
        "u"
      ],
      [
        "ni",
        "a"
      ],
      [
        ".Ġ",
        "O"
      ],
      [
        ".ĊĊ",
        "P"
      ],
      [
        ".Ġ",
        "T"
      ],
      [
        "L",
        "e"
      ],
      [
        "ra",
        "k"
      ],
      [
        "M",
        "ar"
      ],
      [
        "n",
        "ow"
      ],
      [
        "cz",
        "on"
      ],
      [
        "ĊĠ",
        "ĊĊKategoria:"
      ],
      [
        "u",
        "p"
      ],
      [
        "zyd",
        "ent"
      ],
      [
        "j",
        "ÄĻ"
      ],
      [
        "Ġw",
        "i"
      ],
      [
        "th",
        "umb"
      ],
      [
        "n",
        "ejĠ"
      ],
      [
        "L",
        "i"
      ],
      [
        "l",
        "an"
      ],
      [
        "g",
        "oĠ"
      ],
      [
        "ar",
        "ze"
      ],
      [
        "thumb",
        "|"
      ],
      [
        "y",
        "mĠ"
      ],
      [
        ",Ġ",
        "Å¼e"
      ],
      [
        "Ġ",
        "B"
      ],
      [
        "b",
        "yĠ"
      ],
      [
        "cz",
        "yĠ"
      ],
      [
        "Ġ",
        "naĠ"
      ],
      [
        "d",
        "laĠ"
      ],
      [
        "d",
        "ni"
      ],
      [
        "dz",
        "ia"
      ],
      [
        "am",
        "iĠ"
      ],
      [
        "li",
        "w"
      ],
      [
        "P",
        "ol"
      ],
      [
        "e",
        "s"
      ],
      [
        ".ĊĊĠÅ¹rÃ³dÅĤaĠĊĠ",
        "ĊĊKategoria:"
      ],
      [
        "e",
        "kĠ"
      ],
      [
        "d",
        "a"
      ],
      [
        "arsz",
        "aw"
      ],
      [
        "ÅĦ",
        "ski"
      ],
      [
        "t",
        "or"
      ],
      [
        "l",
        "u"
      ],
      [
        "m",
        "yĠ"
      ],
      [
        "u",
        "ch"
      ],
      [
        "Ġprze",
        "d"
      ],
      [
        "Ġpo",
        "li"
      ],
      [
        "d",
        "yĠ"
      ],
      [
        "n",
        "t"
      ],
      [
        "er",
        "y"
      ],
      [
        "i",
        "ÅĤ"
      ],
      [
        "m",
        "y"
      ],
      [
        "sz",
        "cze"
      ],
      [
        "ob",
        "y"
      ],
      [
        "Ġz",
        "ap"
      ],
      [
        "Ġpo",
        "p"
      ],
      [
        "owy",
        "ch"
      ],
      [
        "u",
        "k"
      ],
      [
        "Ġ",
        "li"
      ],
      [
        "z",
        "w"
      ],
      [
        "Ġp",
        "raw"
      ],
      [
        "p",
        "ad"
      ],
      [
        "Ġw",
        "sp"
      ],
      [
        "ny",
        "mĠ"
      ],
      [
        "acj",
        "iĠ"
      ],
      [
        "Ġp",
        "a"
      ],
      [
        "e",
        "le"
      ],
      [
        "c",
        "oĠ"
      ],
      [
        "al",
        "iĠ"
      ],
      [
        "ow",
        "e"
      ],
      [
        "ĊKategoria:",
        "P"
      ],
      [
        "t",
        "ur"
      ],
      [
        "p",
        "x"
      ],
      [
        "owa",
        "niaĠ"
      ],
      [
        "ow",
        "yĠ"
      ],
      [
        "p",
        "ie"
      ],
      [
        "n",
        "ej"
      ],
      [
        "Ġd",
        "o"
      ],
      [
        "b",
        "ar"
      ],
      [
        "i",
        "st"
      ],
      [
        "e",
        "ra"
      ],
      [
        "\"",
        "Ġ"
      ],
      [
        "b",
        "ez"
      ],
      [
        "k",
        "or"
      ],
      [
        "Ġp",
        "ierw"
      ],
      [
        "od",
        "ni"
      ],
      [
        "n",
        "ar"
      ],
      [
        "202",
        "4"
      ],
      [
        "at",
        "or"
      ],
      [
        "Ġ",
        "R"
      ],
      [
        "p",
        "re"
      ],
      [
        "w",
        "Ã³"
      ],
      [
        "or",
        "gani"
      ],
      [
        "l",
        "eĠ"
      ],
      [
        "1",
        "3"
      ],
      [
        "k",
        "oĠ"
      ],
      [
        "Ġp",
        "olsk"
      ],
      [
        "0",
        "Ġ"
      ],
      [
        "o",
        "f"
      ],
      [
        "owy",
        "chĠ"
      ],
      [
        "z",
        "na"
      ],
      [
        "aĠw",
        "Ġ"
      ],
      [
        "aÅĤ",
        "aĠ"
      ],
      [
        "2",
        "5"
      ],
      [
        "aj",
        "ÄħĠ"
      ],
      [
        "Äħ",
        "t"
      ],
      [
        "ni",
        "c"
      ],
      [
        "am",
        "i"
      ],
      [
        "ÅĤ",
        "aw"
      ],
      [
        "a",
        "ut"
      ],
      [
        "i",
        "chĠ"
      ],
      [
        "W",
        "arszaw"
      ],
      [
        "1",
        "1"
      ],
      [
        "Archiwalne",
        "Ċ"
      ],
      [
        "p",
        "owie"
      ],
      [
        ".ĠW",
        "Ġ"
      ],
      [
        "e",
        "ÅĤ"
      ],
      [
        "ÅĤ",
        "ug"
      ],
      [
        "ow",
        "ejĠ"
      ],
      [
        "a",
        "cz"
      ],
      [
        "gÅĤ",
        "os"
      ],
      [
        "z",
        "yĠ"
      ],
      [
        "m",
        "ed"
      ],
      [
        "k",
        "ar"
      ],
      [
        "Å",
        "ģ"
      ],
      [
        "wiÄħ",
        "z"
      ],
      [
        "Ġp",
        "owie"
      ],
      [
        "aĠ",
        "iĠ"
      ],
      [
        "Ġ",
        "G"
      ],
      [
        "k",
        "ur"
      ],
      [
        "Ġwy",
        "bor"
      ],
      [
        "rz",
        "yĠ"
      ],
      [
        "oÅĽ",
        "Äĩ"
      ],
      [
        "szy",
        "st"
      ],
      [
        "d",
        "an"
      ],
      [
        "bÄĻ",
        "d"
      ],
      [
        "Ġw",
        "z"
      ],
      [
        "iÄĻ",
        "dz"
      ],
      [
        "m",
        "ar"
      ],
      [
        "1",
        "4"
      ],
      [
        "o",
        "ni"
      ],
      [
        "202",
        "5"
      ],
      [
        "oÅĤ",
        "e"
      ],
      [
        "al",
        "e"
      ],
      [
        "p",
        "is"
      ],
      [
        "c",
        "k"
      ],
      [
        "er",
        "Ġ"
      ],
      [
        "Åļ",
        "wiat"
      ],
      [
        "owan",
        "eĠ"
      ],
      [
        "i",
        "i"
      ],
      [
        "ki",
        "l"
      ],
      [
        "Ã³w",
        ",Ġ"
      ],
      [
        "t",
        "aĠ"
      ],
      [
        "aÅĤ",
        "y"
      ],
      [
        "olity",
        "kaĊKategoria:"
      ],
      [
        "rÃ³w",
        "nie"
      ],
      [
        "ie",
        "m"
      ],
      [
        "ow",
        "aĠ"
      ],
      [
        "g",
        "o"
      ],
      [
        "cz",
        "Äħc"
      ],
      [
        "te",
        "m"
      ],
      [
        "ow",
        "ej"
      ],
      [
        "t",
        "Ġ"
      ],
      [
        "l",
        "a"
      ],
      [
        "ow",
        "aÅĤĠ"
      ],
      [
        "ĊĊ",
        "Ġ"
      ],
      [
        "l",
        "ub"
      ],
      [
        ")",
        ",Ġ"
      ],
      [
        "ny",
        "m"
      ],
      [
        "sk",
        "aĠ"
      ],
      [
        "Ġz",
        "a"
      ],
      [
        "s",
        "er"
      ],
      [
        "y",
        "m"
      ],
      [
        "jed",
        "na"
      ],
      [
        "ia",
        "st"
      ],
      [
        "u",
        ",Ġ"
      ],
      [
        "g",
        "en"
      ],
      [
        ",",
        "Ġw"
      ],
      [
        "Äħ",
        "g"
      ],
      [
        ".Ġ",
        "19"
      ],
      [
        "rowa",
        "dz"
      ],
      [
        "b",
        "ra"
      ],
      [
        ",Ġ",
        "jak"
      ],
      [
        "ow",
        "eĠ"
      ],
      [
        "in",
        "ter"
      ],
      [
        "sty",
        "cz"
      ],
      [
        "r",
        "ÄĻ"
      ],
      [
        "n",
        "ÄħĠ"
      ],
      [
        "u",
        "st"
      ],
      [
        "z",
        "d"
      ],
      [
        "1",
        "8"
      ],
      [
        "m",
        "aĠ"
      ],
      [
        "n",
        "Äħ"
      ],
      [
        "c",
        "ia"
      ],
      [
        "j",
        "Ġ"
      ],
      [
        "1",
        "6"
      ],
      [
        "a",
        "ÄĩĠ"
      ],
      [
        "D",
        ")"
      ],
      [
        "px",
        "|"
      ],
      [
        "o",
        "ch"
      ],
      [
        "ur",
        ".Ġ19"
      ],
      [
        ":",
        "00"
      ],
      [
        "al",
        "eĠ"
      ],
      [
        "ze",
        "Ġ"
      ],
      [
        "je",
        "kt"
      ],
      [
        "w",
        "aĠ"
      ],
      [
        "a",
        "Å¼"
      ],
      [
        "ru",
        "g"
      ],
      [
        "1",
        "7"
      ],
      [
        "W",
        "D)"
      ],
      [
        "k",
        "an"
      ],
      [
        "K",
        "on"
      ],
      [
        "ni",
        "kaĠ"
      ],
      [
        "sp",
        "ot"
      ],
      [
        "or",
        "z"
      ],
      [
        "or",
        "y"
      ],
      [
        "in",
        "g"
      ],
      [
        "Ċ",
        "thumb|"
      ],
      [
        "ni",
        "Ġ"
      ],
      [
        "ar",
        "ty"
      ],
      [
        ",ĠktÃ³r",
        "eĠ"
      ],
      [
        "a",
        "czy"
      ],
      [
        "Ġwy",
        "d"
      ],
      [
        "ka",
        "z"
      ],
      [
        "t",
        "rze"
      ],
      [
        "tak",
        "Å¼eĠ"
      ],
      [
        "aĠp",
        "rze"
      ],
      [
        "Ġz",
        "ostaÅĤ"
      ],
      [
        ".Ġ",
        "M"
      ],
      [
        "ra",
        "z"
      ],
      [
        "os",
        "ob"
      ],
      [
        "ob",
        "ec"
      ],
      [
        "Ġpo",
        "z"
      ],
      [
        "w",
        "at"
      ],
      [
        "ni",
        "ÄĻ"
      ],
      [
        "wie",
        "t"
      ],
      [
        "ch",
        "odz"
      ],
      [
        "mo",
        "Å¼"
      ],
      [
        "an",
        "s"
      ],
      [
        "sk",
        "iej"
      ],
      [
        "n",
        "ego"
      ],
      [
        "c",
        "ki"
      ],
      [
        "o",
        "Å¼"
      ],
      [
        "ĊKategoria:",
        "ArchiwalneĊ"
      ],
      [
        "od",
        "by"
      ],
      [
        "ed",
        "y"
      ],
      [
        "w",
        "iad"
      ],
      [
        "ar",
        "zy"
      ],
      [
        "u",
        "Å¼y"
      ],
      [
        "aÅĤ",
        "oĠ"
      ],
      [
        "t",
        "yĠ"
      ],
      [
        "ze",
        "nt"
      ],
      [
        "ni",
        "u"
      ],
      [
        "t",
        "a"
      ],
      [
        ".Ġ",
        "S"
      ],
      [
        "ÅĦ",
        "Ġ"
      ],
      [
        "j",
        "iĠ"
      ],
      [
        "Ã³",
        "l"
      ],
      [
        "n",
        "Ġ"
      ],
      [
        "on",
        "ad"
      ],
      [
        "sk",
        "iego"
      ],
      [
        "bar",
        "dz"
      ],
      [
        "Ġw",
        "iÄĻ"
      ],
      [
        "ci",
        "aĠ"
      ],
      [
        "s",
        "ÄħĠ"
      ],
      [
        "cze",
        "ÅĦstw"
      ],
      [
        "w",
        "an"
      ],
      [
        ",ĠktÃ³r",
        "yĠ"
      ],
      [
        "n",
        "ÄĻ"
      ],
      [
        "b",
        "li"
      ],
      [
        "un",
        "k"
      ],
      [
        ",Ġ",
        "z"
      ],
      [
        "g",
        "l"
      ],
      [
        "m",
        "in"
      ],
      [
        "P",
        "i"
      ],
      [
        "ob",
        "ie"
      ],
      [
        "niej",
        "Ġ"
      ],
      [
        "siÄĻ",
        "ĠwĠ"
      ],
      [
        "ow",
        "egoĠ"
      ],
      [
        "ra",
        "c"
      ],
      [
        "b",
        "ud"
      ],
      [
        "Ġw",
        "ie"
      ],
      [
        "en",
        "Ġ"
      ],
      [
        "ni",
        "ka"
      ],
      [
        "sk",
        "iegoĠ"
      ],
      [
        "cj",
        "al"
      ],
      [
        "k",
        "raj"
      ],
      [
        "or",
        "az"
      ],
      [
        "ĠĠ",
        "ĠĠ"
      ],
      [
        ".ĊĊ",
        "Ġ"
      ],
      [
        "oÅĤ",
        "oĠ"
      ],
      [
        "ost",
        "at"
      ],
      [
        "aw",
        "i"
      ],
      [
        "r",
        "at"
      ],
      [
        "r",
        "Ġ"
      ],
      [
        ".Ġ",
        "K"
      ],
      [
        "a",
        "Äĩ"
      ],
      [
        "l",
        "am"
      ],
      [
        "Ġz",
        "aĠ"
      ],
      [
        "f",
        "er"
      ],
      [
        "c",
        "Ġ"
      ],
      [
        "k",
        "ier"
      ],
      [
        "owy",
        "mĠ"
      ],
      [
        "Ġz",
        "d"
      ],
      [
        "kol",
        "ej"
      ],
      [
        "d",
        "niaĠ"
      ],
      [
        "mi",
        "nist"
      ],
      [
        ".Ġ",
        "R"
      ],
      [
        "1",
        "Ġ"
      ],
      [
        "S",
        "A"
      ],
      [
        "st",
        "op"
      ],
      [
        "oĠ",
        "z"
      ],
      [
        "e",
        "li"
      ],
      [
        "g",
        "od"
      ],
      [
        "czas",
        "Ġ"
      ],
      [
        "Ġw",
        "iel"
      ],
      [
        "Ġpoli",
        "ty"
      ],
      [
        "a",
        "u"
      ],
      [
        "owan",
        "ieĠ"
      ],
      [
        "ÄĻ",
        "d"
      ],
      [
        "aĠw",
        "y"
      ],
      [
        "un",
        "d"
      ],
      [
        "ro",
        "l"
      ],
      [
        "t",
        "ejĠ"
      ],
      [
        "e",
        "cz"
      ],
      [
        "c",
        "aÅĤ"
      ],
      [
        "o",
        "ÅĦ"
      ],
      [
        "noÅĽ",
        "ci"
      ],
      [
        "noÅĽ",
        "ciĠ"
      ],
      [
        "cze",
        "ÅĽ"
      ],
      [
        "j",
        "egoĠ"
      ],
      [
        "c",
        "iÄĻ"
      ],
      [
        "Ġz",
        "ak"
      ],
      [
        "g",
        "i"
      ],
      [
        "m",
        "uĠ"
      ],
      [
        "om",
        "i"
      ],
      [
        "200",
        "7"
      ],
      [
        "ze",
        "niaĠ"
      ],
      [
        "p",
        "l"
      ],
      [
        "Ġw",
        "oj"
      ],
      [
        "aĠ",
        "K"
      ],
      [
        "ĊĠ",
        "ĊĠ"
      ],
      [
        "re",
        "ÅĽ"
      ],
      [
        "re",
        "s"
      ],
      [
        "ÅĤ",
        "Äħ"
      ],
      [
        "R",
        "ad"
      ],
      [
        "oÅĽ",
        "ÄĩĠ"
      ],
      [
        "m",
        "og"
      ],
      [
        "ar",
        "i"
      ],
      [
        ".Ġ",
        "B"
      ],
      [
        "Ġw",
        "szyst"
      ],
      [
        "d",
        "er"
      ],
      [
        "sk",
        "ie"
      ],
      [
        "ĊĊ",
        "ĠÅ¹rÃ³dÅĤaĠĊĠ"
      ],
      [
        "c",
        "ent"
      ],
      [
        "godz",
        "in"
      ],
      [
        "za",
        "p"
      ],
      [
        "Pol",
        "s"
      ],
      [
        "ed",
        "ÅĤug"
      ],
      [
        "z",
        "n"
      ],
      [
        "k",
        "Ã³w"
      ],
      [
        "F",
        "ran"
      ],
      [
        "3",
        "0"
      ],
      [
        "cze",
        "rw"
      ],
      [
        "ty",
        "m"
      ],
      [
        "dzia",
        "ÅĤĠ"
      ],
      [
        "h",
        "t"
      ],
      [
        ",Ġ",
        "g"
      ],
      [
        "j",
        "aĠ"
      ],
      [
        "t",
        "egoĠ"
      ],
      [
        "sz",
        "yĠ"
      ],
      [
        "Ġpre",
        "zydent"
      ],
      [
        "Ġpra",
        "c"
      ],
      [
        "aj",
        "Äħ"
      ],
      [
        "Ċ",
        "W"
      ],
      [
        "Ġ",
        "W"
      ],
      [
        "Ġp",
        "ubli"
      ],
      [
        "ie",
        "d"
      ],
      [
        "acj",
        "aĠ"
      ],
      [
        "z",
        "ie"
      ],
      [
        "2",
        "4"
      ],
      [
        "y",
        "t"
      ],
      [
        "m",
        "aÅĤy"
      ],
      [
        ".",
        "in"
      ],
      [
        ".ĊĊ",
        "N"
      ],
      [
        "ty",
        "l"
      ],
      [
        "l",
        "ok"
      ],
      [
        "rz",
        "Äħd"
      ],
      [
        "ÅĽ",
        "rod"
      ],
      [
        "an",
        "yĠ"
      ],
      [
        "wa",
        "Å¼"
      ],
      [
        "an",
        "eĠ"
      ],
      [
        "st",
        "Äħ"
      ],
      [
        "ni",
        "cz"
      ],
      [
        "organi",
        "z"
      ],
      [
        "gru",
        "p"
      ],
      [
        "on",
        "eĠ"
      ],
      [
        "ost",
        "ÄĻp"
      ],
      [
        "rÃ³",
        "Å¼"
      ],
      [
        "ol",
        "og"
      ],
      [
        "ĊKategoria:",
        "K"
      ],
      [
        "2",
        "Ġ"
      ],
      [
        "ty",
        "ch"
      ],
      [
        "y",
        "ĠwĠ"
      ],
      [
        "c",
        "er"
      ],
      [
        "er",
        "s"
      ],
      [
        "u",
        "mĠ"
      ],
      [
        "nie",
        "Ġwy"
      ],
      [
        "Ġm",
        "ar"
      ],
      [
        "5",
        "Ġ"
      ],
      [
        "acj",
        "i"
      ],
      [
        "na",
        "d"
      ],
      [
        "R",
        "os"
      ],
      [
        "202",
        "3"
      ],
      [
        "ier",
        "dzi"
      ],
      [
        "te",
        "Å¼Ġ"
      ],
      [
        "r",
        "aĠ"
      ],
      [
        "owa",
        "ÄĩĠ"
      ],
      [
        "l",
        "as"
      ],
      [
        "sw",
        "oj"
      ],
      [
        "o",
        "mĠ"
      ],
      [
        "sÅĤ",
        "aw"
      ],
      [
        "Ġ",
        "T"
      ],
      [
        "Ġpo",
        "inform"
      ],
      [
        "s",
        "Äħ"
      ],
      [
        "An",
        "d"
      ],
      [
        "de",
        "cy"
      ],
      [
        "n",
        "oĠ"
      ],
      [
        "owi",
        "sk"
      ],
      [
        ".",
        "ĊĠ"
      ],
      [
        "Ġpro",
        "jekt"
      ],
      [
        "f",
        "in"
      ],
      [
        "p",
        "ed"
      ],
      [
        "k",
        "Ã³wĠ"
      ],
      [
        "ni",
        "kĠ"
      ],
      [
        "S",
        "z"
      ],
      [
        "ĊKategoria:",
        "PolskaĊKategoria:"
      ],
      [
        "dz",
        "ier"
      ],
      [
        "i",
        "mĠ"
      ],
      [
        ".ĊĊW",
        "Ġ"
      ],
      [
        "a",
        "sz"
      ],
      [
        "b",
        "o"
      ],
      [
        "iĠ",
        "z"
      ],
      [
        "czn",
        "ej"
      ],
      [
        "n",
        "at"
      ],
      [
        "Ġp",
        "or"
      ],
      [
        "sp",
        "od"
      ],
      [
        "u",
        "ka"
      ],
      [
        "miejs",
        "c"
      ],
      [
        "w",
        "ar"
      ],
      [
        "Ġp",
        "ar"
      ],
      [
        "ob",
        "acz"
      ],
      [
        "aÅĤ",
        "yĠ"
      ],
      [
        "Ġw",
        "p"
      ],
      [
        "bÄĻd",
        "ÄħĠ"
      ],
      [
        "Ġ",
        "-Ġ"
      ],
      [
        "Europ",
        "ej"
      ],
      [
        "Ġz",
        "ost"
      ],
      [
        "Ġp",
        "i"
      ],
      [
        "ci",
        "Äħg"
      ],
      [
        "ra",
        "m"
      ],
      [
        "cz",
        "ÅĤ"
      ],
      [
        "d",
        "op"
      ],
      [
        "Åº",
        "dzier"
      ],
      [
        "cj",
        "ÄĻ"
      ],
      [
        "A",
        "l"
      ],
      [
        "Ġm",
        "aj"
      ],
      [
        "i",
        "ch"
      ],
      [
        "maÅĤy",
        "|"
      ],
      [
        "os",
        "i"
      ],
      [
        "Ġ",
        "D"
      ],
      [
        "jed",
        "no"
      ],
      [
        "ne",
        "t"
      ],
      [
        "Ġ",
        "C"
      ],
      [
        "oz",
        "na"
      ],
      [
        "siÄĻĠ",
        "naĠ"
      ],
      [
        "U",
        "ni"
      ],
      [
        "j",
        "az"
      ],
      [
        "I",
        "I"
      ],
      [
        "ce",
        "l"
      ],
      [
        "Wiki",
        "ped"
      ],
      [
        "czn",
        "ejĠ"
      ],
      [
        "Ġpa",
        "Åºdzier"
      ],
      [
        "fi",
        "l"
      ],
      [
        "Ġw",
        "ÅĤa"
      ],
      [
        "on",
        "oĠ"
      ],
      [
        "le",
        "p"
      ],
      [
        "sp",
        "oÅĤe"
      ],
      [
        "u",
        "zy"
      ],
      [
        "ok",
        "oÅĤoĠ"
      ],
      [
        "o",
        "c"
      ],
      [
        "wat",
        "el"
      ],
      [
        ",",
        "Ġpo"
      ],
      [
        "kor",
        "zy"
      ],
      [
        "Ġp",
        "rzyĠ"
      ],
      [
        "on",
        "yĠ"
      ],
      [
        "3",
        "Ġ"
      ],
      [
        "sz",
        "t"
      ],
      [
        "aĠ",
        "P"
      ],
      [
        "kt",
        "or"
      ],
      [
        "od",
        "powie"
      ],
      [
        "by",
        "ÅĤ"
      ],
      [
        "8",
        "Ġ"
      ],
      [
        "nar",
        "od"
      ],
      [
        "k",
        "ra"
      ],
      [
        "by",
        "ÅĤĠ"
      ],
      [
        "ro",
        "g"
      ],
      [
        "sz",
        "ÅĤoĠ"
      ],
      [
        "J",
        "an"
      ],
      [
        ".ĊĊ",
        "Z"
      ],
      [
        "o",
        "je"
      ],
      [
        "re",
        "zydent"
      ],
      [
        "k",
        "s"
      ],
      [
        "ie",
        "sz"
      ],
      [
        "og",
        "ra"
      ],
      [
        "czÄĻ",
        "ÅĽ"
      ],
      [
        "mia",
        "st"
      ],
      [
        "Ġprze",
        "z"
      ],
      [
        "j",
        "uÅ¼"
      ],
      [
        "uj",
        "ÄħĠ"
      ],
      [
        "na",
        "le"
      ],
      [
        "ÅĦsk",
        "iĠ"
      ],
      [
        "b",
        "ro"
      ],
      [
        "y",
        ",Ġ"
      ],
      [
        "czn",
        "eĠ"
      ],
      [
        "r",
        "odz"
      ],
      [
        "an",
        "oĠ"
      ],
      [
        "Ġt",
        "oĠ"
      ],
      [
        "m",
        "iÄĻdz"
      ],
      [
        "onad",
        "Ġ"
      ],
      [
        "u",
        "cze"
      ],
      [
        "Ġprzed",
        "staw"
      ],
      [
        "rÃ³wnie",
        "Å¼"
      ],
      [
        "Ġz",
        "aw"
      ],
      [
        "ry",
        "w"
      ],
      [
        "Ġk",
        "wiet"
      ],
      [
        "owa",
        "Äĩ"
      ],
      [
        "Ġ",
        "âĢĵĠ"
      ],
      [
        "ĠwĠ",
        "Pols"
      ],
      [
        "fer",
        "en"
      ],
      [
        "sp",
        "e"
      ],
      [
        "yĠ",
        "iĠ"
      ],
      [
        "Å",
        "»"
      ],
      [
        "rze",
        "ÅĽ"
      ],
      [
        "o",
        "cz"
      ],
      [
        "m",
        "Ã³w"
      ],
      [
        "by",
        "ÅĤaĠ"
      ],
      [
        "on",
        "aĠ"
      ],
      [
        "u",
        "Å¼Ġ"
      ],
      [
        "ier",
        "p"
      ],
      [
        "o",
        "-"
      ],
      [
        "ob",
        "ro"
      ],
      [
        "l",
        "Äħ"
      ],
      [
        "b",
        "ie"
      ],
      [
        "c",
        "in"
      ],
      [
        "wiÄĻ",
        "k"
      ],
      [
        "te",
        "le"
      ],
      [
        "ci",
        "w"
      ],
      [
        "ĊKategoria:",
        "T"
      ],
      [
        "t",
        "ar"
      ],
      [
        "z",
        "aĠ"
      ],
      [
        "cj",
        "ÄĻĠ"
      ],
      [
        "b",
        "u"
      ],
      [
        "owan",
        "ie"
      ],
      [
        "p",
        "rze"
      ],
      [
        "Äħ",
        "dĠ"
      ],
      [
        "Ġ",
        "N"
      ],
      [
        "In",
        "ter"
      ],
      [
        "na",
        "u"
      ],
      [
        "r",
        "eg"
      ],
      [
        "ty",
        "w"
      ],
      [
        "on",
        "al"
      ],
      [
        "te",
        "k"
      ],
      [
        "Ã³",
        "d"
      ],
      [
        "t",
        "rz"
      ],
      [
        "by",
        "ÅĤoĠ"
      ],
      [
        "spod",
        "ar"
      ],
      [
        "on",
        "e"
      ],
      [
        "w",
        "aj"
      ],
      [
        "o",
        "ka"
      ],
      [
        "R",
        "e"
      ],
      [
        "st",
        "rze"
      ],
      [
        "g",
        "ot"
      ],
      [
        ".ĊĊ",
        "D"
      ],
      [
        "u",
        "Ġz"
      ],
      [
        "Ġw",
        "rzeÅĽ"
      ],
      [
        ",Ġ",
        "aleĠ"
      ],
      [
        "le",
        "t"
      ],
      [
        "spot",
        "ka"
      ],
      [
        "u",
        "li"
      ],
      [
        "naj",
        "d"
      ],
      [
        "6",
        "Ġ"
      ],
      [
        "te",
        "Å¼"
      ],
      [
        "ze",
        "sp"
      ],
      [
        "k",
        "ÄĻ"
      ],
      [
        "ÅĽ",
        "mier"
      ],
      [
        "do",
        "ty"
      ],
      [
        "szy",
        "chĠ"
      ],
      [
        "ul",
        "tur"
      ],
      [
        "ow",
        "ego"
      ],
      [
        "a",
        "mĠ"
      ],
      [
        "Ġwsp",
        "Ã³ÅĤ"
      ],
      [
        "a",
        "Ċ"
      ],
      [
        "t",
        "uĠ"
      ],
      [
        "b",
        "ad"
      ],
      [
        "sp",
        "ort"
      ],
      [
        "i",
        "c"
      ],
      [
        "u",
        "ĠwĠ"
      ],
      [
        ".ĊĊ",
        "O"
      ],
      [
        "na",
        "stÄĻp"
      ],
      [
        "ÅĦ",
        "c"
      ],
      [
        "k",
        "ry"
      ],
      [
        "Mi",
        "nist"
      ],
      [
        "Ġpow",
        "od"
      ],
      [
        "A",
        "m"
      ],
      [
        "t",
        "eĠ"
      ],
      [
        "i",
        "r"
      ],
      [
        "2",
        "7"
      ],
      [
        "o",
        "sk"
      ],
      [
        "st",
        "rz"
      ],
      [
        "ĊKategoria:",
        "N"
      ],
      [
        "Ġpro",
        "gra"
      ],
      [
        "at",
        "rzym"
      ],
      [
        ":",
        "ĊĠ"
      ],
      [
        "u",
        "je"
      ],
      [
        "ni",
        "cyĠ"
      ],
      [
        "on",
        "Ġ"
      ],
      [
        "u",
        "staw"
      ],
      [
        "d",
        "aĠ"
      ],
      [
        "stycz",
        "niaĠ"
      ],
      [
        "rowa",
        "dzi"
      ],
      [
        "l",
        "eg"
      ],
      [
        "Ġp",
        "art"
      ],
      [
        "P",
        "olitykaĊKategoria:"
      ],
      [
        "C",
        "z"
      ],
      [
        ".",
        "0"
      ],
      [
        "jak",
        "oĠ"
      ],
      [
        "l",
        "ot"
      ],
      [
        "Ġpa",
        "ÅĦstw"
      ],
      [
        "sz",
        "k"
      ],
      [
        "g",
        "ht"
      ],
      [
        ".ĠN",
        "aĠ"
      ],
      [
        "j",
        "uÅ¼Ġ"
      ],
      [
        "bez",
        "pie"
      ],
      [
        "sk",
        "az"
      ],
      [
        "ow",
        "iĠ"
      ],
      [
        "i",
        "t"
      ],
      [
        "K",
        "om"
      ],
      [
        "Ġp",
        "lan"
      ],
      [
        "Ġz",
        "am"
      ],
      [
        "je",
        "szcze"
      ],
      [
        "ski",
        "chĠ"
      ],
      [
        "d",
        "ok"
      ],
      [
        "an",
        "g"
      ],
      [
        "stop",
        "ad"
      ],
      [
        "li",
        "cz"
      ],
      [
        "godz",
        "i"
      ],
      [
        "ra",
        "l"
      ],
      [
        "u",
        "dziaÅĤ"
      ],
      [
        "sze",
        "Ġ"
      ],
      [
        ")",
        "Ċ"
      ],
      [
        "wi",
        "cz"
      ],
      [
        "ÅĽ",
        "wiat"
      ],
      [
        "Ġkwiet",
        "niaĠ"
      ],
      [
        "Ġli",
        "p"
      ],
      [
        "kt",
        "Ã³"
      ],
      [
        "os",
        "ÅĤaw"
      ],
      [
        "roz",
        "po"
      ],
      [
        "st",
        "ra"
      ],
      [
        "d",
        "rug"
      ],
      [
        "ot",
        "rzym"
      ],
      [
        "e",
        "ty"
      ],
      [
        "owaÅĤ",
        "aĠ"
      ],
      [
        "c",
        "en"
      ],
      [
        "te",
        "st"
      ],
      [
        "j",
        "a"
      ],
      [
        "Ġro",
        "z"
      ],
      [
        "gru",
        "dniaĠ"
      ],
      [
        "jedna",
        "kĠ"
      ],
      [
        "m",
        "iaÅĤ"
      ],
      [
        "pre",
        "zent"
      ],
      [
        "P",
        "raw"
      ],
      [
        ".Ġ",
        "A"
      ],
      [
        "2",
        "3"
      ],
      [
        ",Ġ",
        "WD)"
      ],
      [
        "st",
        "ar"
      ],
      [
        "Ġm",
        "i"
      ],
      [
        "ia",
        "n"
      ],
      [
        "u",
        "sk"
      ],
      [
        "j",
        "Äħc"
      ],
      [
        "k",
        "at"
      ],
      [
        "J",
        "ak"
      ],
      [
        "owi",
        "Äħ"
      ],
      [
        "gÅĤ",
        "Ã³w"
      ],
      [
        "bÄĻ",
        "dzie"
      ],
      [
        "miejs",
        "ceĠ"
      ],
      [
        "G",
        "o"
      ],
      [
        "ol",
        "e"
      ],
      [
        "0",
        "px|"
      ],
      [
        "ery",
        "ka"
      ],
      [
        "aty",
        "cz"
      ],
      [
        "lam",
        "ent"
      ],
      [
        "Ġd",
        "laĠ"
      ],
      [
        "Sp",
        "raw"
      ],
      [
        "Ġprze",
        "dĠ"
      ],
      [
        "naĠ",
        "w"
      ],
      [
        ",ĠwĠ",
        "ktÃ³r"
      ],
      [
        "s",
        "u"
      ],
      [
        "tyl",
        "koĠ"
      ],
      [
        "Ġmar",
        "caĠ"
      ],
      [
        "Ġp",
        "iÅĤ"
      ],
      [
        "d",
        "at"
      ],
      [
        "ze",
        "nieĠ"
      ],
      [
        "k",
        "ÅĤad"
      ],
      [
        "fi",
        "r"
      ],
      [
        "rze",
        "cz"
      ],
      [
        "t",
        "al"
      ],
      [
        "Ġz",
        "wiÄħz"
      ],
      [
        "ÄĻ",
        "Å¼"
      ],
      [
        "ÅĽ",
        "cieĠ"
      ],
      [
        "o",
        "v"
      ],
      [
        "9",
        "Ġ"
      ],
      [
        "sy",
        "st"
      ],
      [
        "s",
        "e"
      ],
      [
        "nik",
        "Ã³w"
      ],
      [
        "arty",
        "ku"
      ],
      [
        "ri",
        "ght"
      ],
      [
        "owy",
        "m"
      ],
      [
        "est",
        "i"
      ],
      [
        "g",
        "ro"
      ],
      [
        "jedna",
        "k"
      ],
      [
        "Ã³",
        "ÅĤĠ"
      ],
      [
        "sk",
        "iejĠ"
      ],
      [
        "4",
        "Ġ"
      ],
      [
        "f",
        "unk"
      ],
      [
        "ucze",
        "st"
      ],
      [
        "ty",
        "chĠ"
      ],
      [
        "at",
        "ak"
      ],
      [
        "Å",
        "¹rÃ³d"
      ],
      [
        "cz",
        "or"
      ],
      [
        "m",
        ".in"
      ],
      [
        "ia",
        "ĊKategoria:"
      ],
      [
        "Ġwy",
        "ni"
      ],
      [
        "Ġli",
        "stopad"
      ],
      [
        ".ĊĊĠÅ¹rÃ³dÅĤaĠĊĠ",
        "ĊĠĊĊKategoria:"
      ],
      [
        "sy",
        "tu"
      ],
      [
        "i",
        ",Ġ"
      ],
      [
        "ow",
        "arzy"
      ],
      [
        "ĠpaÅºdzier",
        "nikaĠ"
      ],
      [
        "Ġ",
        "A"
      ],
      [
        ".",
        "pl"
      ],
      [
        "ch",
        "od"
      ],
      [
        "Ġmaj",
        "aĠ"
      ],
      [
        "Ġs",
        "ierp"
      ],
      [
        "l",
        "ut"
      ],
      [
        "uĠ",
        "naĠ"
      ],
      [
        "Ġp",
        "onadĠ"
      ],
      [
        "nik",
        "Ã³wĠ"
      ],
      [
        "p",
        "raw"
      ],
      [
        "ru",
        "ch"
      ],
      [
        "organi",
        "za"
      ],
      [
        "wy",
        "ciÄĻ"
      ],
      [
        "Ġprzy",
        "pad"
      ],
      [
        "o",
        ",Ġ"
      ],
      [
        "ra",
        "d"
      ],
      [
        "ur",
        "z"
      ],
      [
        "t",
        "en"
      ],
      [
        "cj",
        "eĠ"
      ],
      [
        "b",
        "le"
      ],
      [
        "cze",
        "niaĠ"
      ],
      [
        "sze",
        "f"
      ],
      [
        "S",
        "ej"
      ],
      [
        "czerw",
        "caĠ"
      ],
      [
        ".",
        "Ċ"
      ],
      [
        "2",
        "2"
      ],
      [
        "mi",
        "s"
      ],
      [
        "dy",
        "n"
      ],
      [
        "szy",
        "mĠ"
      ],
      [
        "k",
        "w"
      ],
      [
        "N",
        "ie"
      ],
      [
        "ĠwĠ",
        "K"
      ],
      [
        "j",
        "Äħ"
      ],
      [
        "et",
        "ap"
      ],
      [
        "Ã³",
        "Åº"
      ],
      [
        "ni",
        "chĠ"
      ],
      [
        "cz",
        "nieĠ"
      ],
      [
        "And",
        "rze"
      ],
      [
        "te",
        "mĠ"
      ],
      [
        "Ġprze",
        "p"
      ],
      [
        "b",
        "aĠ"
      ],
      [
        "Wiki",
        "med"
      ],
      [
        "d",
        "w"
      ],
      [
        "a",
        "f"
      ],
      [
        "czÅĤ",
        "on"
      ],
      [
        "Ġ",
        "J"
      ],
      [
        "st",
        "at"
      ],
      [
        "Ġwszyst",
        "ki"
      ],
      [
        "ar",
        "od"
      ],
      [
        "b",
        "ieg"
      ],
      [
        ",ĠktÃ³r",
        "aĠ"
      ],
      [
        "R",
        "ze"
      ],
      [
        "tra",
        "m"
      ],
      [
        "ier",
        "z"
      ],
      [
        ",",
        "Ġp"
      ],
      [
        "st",
        "ru"
      ],
      [
        "er",
        "g"
      ],
      [
        "ro",
        "c"
      ],
      [
        "dzie",
        "n"
      ],
      [
        "m",
        "a"
      ],
      [
        "siÄĻ",
        "Ġz"
      ],
      [
        "na",
        "dĠ"
      ],
      [
        "u",
        "z"
      ],
      [
        "C",
        "ent"
      ],
      [
        "Z",
        "jedno"
      ],
      [
        "zyd",
        "en"
      ],
      [
        "sz",
        "aĠ"
      ],
      [
        "no",
        "c"
      ],
      [
        "no",
        "Å¼"
      ],
      [
        "owan",
        "oĠ"
      ],
      [
        "1",
        "00"
      ],
      [
        "2",
        "6"
      ],
      [
        "as",
        "ad"
      ],
      [
        "Å¼",
        "yĠ"
      ],
      [
        "o",
        "fi"
      ],
      [
        "godzin",
        "yĠ"
      ],
      [
        "d",
        "ow"
      ],
      [
        "an",
        "t"
      ],
      [
        "mo",
        "Å¼eĠ"
      ],
      [
        "j",
        "ÄħĠ"
      ],
      [
        "k",
        "l"
      ],
      [
        "Mi",
        "ch"
      ],
      [
        "Zjedno",
        "czon"
      ],
      [
        "tram",
        "waj"
      ],
      [
        "c",
        "a"
      ],
      [
        "âĢĿ",
        "Ġ"
      ],
      [
        "P",
        "ro"
      ],
      [
        "na",
        "g"
      ],
      [
        "owan",
        "yĠ"
      ],
      [
        "s",
        ".Ġ"
      ],
      [
        "nic",
        "tw"
      ],
      [
        "z",
        "ostaÅĤ"
      ],
      [
        "ÅĤ",
        "at"
      ],
      [
        "ow",
        "ieĠ"
      ],
      [
        "owan",
        "e"
      ],
      [
        "sk",
        "ieĠ"
      ],
      [
        "ĊKategoria:",
        "M"
      ],
      [
        "Ġwy",
        "b"
      ],
      [
        "Ġ",
        "F"
      ],
      [
        "\"Ġ",
        "-"
      ],
      [
        "row",
        "ad"
      ],
      [
        "ÄĻÅ¼",
        "czy"
      ],
      [
        "cz",
        "nych"
      ],
      [
        "m",
        "ent"
      ],
      [
        "a",
        "v"
      ],
      [
        "sty",
        "tu"
      ],
      [
        "f",
        "t"
      ],
      [
        "om",
        "iast"
      ],
      [
        "by",
        "ÅĤyĠ"
      ],
      [
        "rÃ³wnie",
        "Å¼Ġ"
      ],
      [
        "g",
        "in"
      ],
      [
        "sk",
        "a"
      ],
      [
        "zj",
        "iĠ"
      ],
      [
        "Europ",
        "aĊKategoria:"
      ],
      [
        "ot",
        "w"
      ],
      [
        "Ġt",
        "ak"
      ],
      [
        "i",
        "Ġw"
      ],
      [
        "an",
        "aĠ"
      ],
      [
        "a",
        "ÅĦ"
      ],
      [
        "d",
        "om"
      ],
      [
        "Ġpre",
        "mier"
      ],
      [
        "dz",
        "iĠ"
      ],
      [
        "O",
        "p"
      ],
      [
        "ĊĊĠÅ¹rÃ³dÅĤaĠĊĠ",
        "ĊĊKategoria:"
      ],
      [
        "d",
        "en"
      ],
      [
        "wa",
        "g"
      ],
      [
        "ĠwrzeÅĽ",
        "niaĠ"
      ],
      [
        "odz",
        "ie"
      ],
      [
        "fin",
        "ans"
      ],
      [
        "ÅĽci",
        "g"
      ],
      [
        "um",
        "ent"
      ],
      [
        "Ã³wĠ",
        "iĠ"
      ],
      [
        "ru",
        "mĠ"
      ],
      [
        "Äħ",
        ",Ġ"
      ],
      [
        "ro",
        "kuĠ"
      ],
      [
        ")",
        "ĊĠ"
      ],
      [
        "stÄħ",
        "pi"
      ],
      [
        "s",
        "ob"
      ],
      [
        ".Ġ",
        "G"
      ],
      [
        "by",
        "ÄĩĠ"
      ],
      [
        "d",
        "em"
      ],
      [
        "2",
        "1"
      ],
      [
        "ab",
        "yĠ"
      ],
      [
        "mie",
        "sz"
      ],
      [
        "cz",
        "ne"
      ],
      [
        "Sp",
        "ort"
      ],
      [
        "dzie",
        "l"
      ],
      [
        "kon",
        "kur"
      ],
      [
        "ied",
        "liw"
      ],
      [
        "ob",
        "owiÄħ"
      ],
      [
        "rak",
        "Ã³w"
      ],
      [
        "Ġw",
        "al"
      ],
      [
        "un",
        "kt"
      ],
      [
        "rze",
        "d"
      ],
      [
        "te",
        "ch"
      ],
      [
        "ĊKategoria:",
        "Åļwiat"
      ],
      [
        "ski",
        "ch"
      ],
      [
        "j",
        "eĠ"
      ],
      [
        ".Ġ",
        "U"
      ],
      [
        "O",
        "r"
      ],
      [
        "ze",
        "w"
      ],
      [
        "am",
        "eryka"
      ],
      [
        "on",
        "y"
      ],
      [
        "W",
        "iel"
      ],
      [
        "tem",
        "at"
      ],
      [
        "st",
        "os"
      ],
      [
        "an",
        "ych"
      ],
      [
        "Ċ",
        "maÅĤy|"
      ],
      [
        "ĊĠ",
        "T"
      ],
      [
        "Ġprze",
        "ciw"
      ],
      [
        "nie",
        "Ġw"
      ],
      [
        "edÅĤug",
        "Ġ"
      ],
      [
        "Ġpierw",
        "sze"
      ],
      [
        "A",
        "R"
      ],
      [
        "at",
        "ur"
      ],
      [
        "esti",
        "wal"
      ],
      [
        "ski",
        "mĠ"
      ],
      [
        "%",
        "Ġ"
      ],
      [
        "a",
        "h"
      ],
      [
        "t",
        "ej"
      ],
      [
        "na",
        "w"
      ],
      [
        "L",
        "in"
      ],
      [
        "F",
        "und"
      ],
      [
        "i",
        "g"
      ],
      [
        "k",
        "ÄĻĠ"
      ],
      [
        "ali",
        "z"
      ],
      [
        "oÅĽ",
        "wiad"
      ],
      [
        "N",
        "arod"
      ],
      [
        "w",
        "oj"
      ],
      [
        "nÄĻ",
        "trz"
      ],
      [
        "mie",
        "ni"
      ],
      [
        "sy",
        "j"
      ],
      [
        "Ġpowie",
        "dziaÅĤ"
      ],
      [
        "y",
        "narod"
      ],
      [
        "Ġm",
        "l"
      ],
      [
        "Ġsierp",
        "niaĠ"
      ],
      [
        "syst",
        "em"
      ],
      [
        "Ġlip",
        "caĠ"
      ],
      [
        "fi",
        "ka"
      ],
      [
        "er",
        "stw"
      ],
      [
        "kon",
        "t"
      ],
      [
        "ÅĤĠ",
        "siÄĻĠ"
      ],
      [
        "inform",
        "acj"
      ],
      [
        "jak",
        "Ġ"
      ],
      [
        "moÅ¼",
        "liw"
      ],
      [
        "o",
        "Ġw"
      ],
      [
        "J",
        "ar"
      ],
      [
        "czn",
        "egoĠ"
      ],
      [
        "sw",
        "o"
      ],
      [
        "rak",
        "owie"
      ],
      [
        "wÃ³",
        "dz"
      ],
      [
        "Wy",
        "bor"
      ],
      [
        "Ã",
        "©"
      ],
      [
        "Ġpo",
        "j"
      ],
      [
        "W",
        "oj"
      ],
      [
        "obacz",
        "Ġ"
      ],
      [
        "Pi",
        "S"
      ],
      [
        "czeÅĽ",
        "niej"
      ],
      [
        "o",
        "sz"
      ],
      [
        "dy",
        "dat"
      ],
      [
        "kom",
        "u"
      ],
      [
        "sÅĤ",
        "uÅ¼"
      ],
      [
        "2",
        "8"
      ],
      [
        "U",
        "kra"
      ],
      [
        "2024",
        "ĠrokuĠ"
      ],
      [
        "a",
        "ze"
      ],
      [
        "h",
        "ist"
      ],
      [
        ".",
        "."
      ],
      [
        "w",
        "e"
      ],
      [
        "kie",
        "mĠ"
      ],
      [
        "siÄĻ",
        "ĠdoĠ"
      ],
      [
        "oje",
        "wÃ³dz"
      ],
      [
        "anie",
        "mĠ"
      ],
      [
        "czy",
        "liĠ"
      ],
      [
        "wa",
        "niaĠ"
      ],
      [
        "p",
        "ra"
      ],
      [
        "bi",
        "or"
      ],
      [
        "i",
        "Ġprze"
      ],
      [
        "à",
        "®"
      ],
      [
        "nie",
        "z"
      ],
      [
        "aĠ",
        "naĠ"
      ],
      [
        "nie",
        "mĠ"
      ],
      [
        "Ġ",
        "H"
      ],
      [
        "oĠ",
        "d"
      ],
      [
        "aĠ",
        "("
      ],
      [
        "nie",
        "m"
      ],
      [
        "cj",
        "on"
      ],
      [
        "Ġ",
        "Z"
      ],
      [
        "ka",
        "Å¼"
      ],
      [
        ",Ġ",
        "coĠ"
      ],
      [
        "O",
        "by"
      ],
      [
        "o",
        "nie"
      ],
      [
        "um",
        "ie"
      ],
      [
        "Ġwy",
        "kon"
      ],
      [
        "staw",
        "ie"
      ],
      [
        "c",
        "Ã³w"
      ],
      [
        "Ġd",
        "e"
      ],
      [
        "k",
        "in"
      ],
      [
        "s",
        "ieĠ"
      ],
      [
        "ci",
        "uĠ"
      ],
      [
        "ku",
        "l"
      ],
      [
        ".Ġ",
        "C"
      ],
      [
        "Sp",
        "oÅĤe"
      ],
      [
        "ro",
        "ku"
      ],
      [
        "Oby",
        "watel"
      ],
      [
        "right",
        "|"
      ],
      [
        "by",
        "Äĩ"
      ],
      [
        "te",
        "l"
      ],
      [
        "ia",
        "r"
      ],
      [
        "2",
        "9"
      ],
      [
        "ni",
        "a,Ġ"
      ],
      [
        "yĠ",
        "naĠ"
      ],
      [
        "Ġlistopad",
        "aĠ"
      ],
      [
        "Ġz",
        "ÅĤ"
      ],
      [
        "Ġz",
        "ab"
      ],
      [
        "Ġpod",
        "Ġ"
      ],
      [
        "k",
        "reÅĽ"
      ],
      [
        "aĠp",
        "od"
      ],
      [
        ".ĠW",
        "y"
      ],
      [
        "ow",
        "iad"
      ],
      [
        "ÅĽ",
        "rÃ³d"
      ],
      [
        "ol",
        "ej"
      ],
      [
        "si",
        "Äħc"
      ],
      [
        "i",
        "ni"
      ],
      [
        "W",
        "Ġ"
      ],
      [
        "Ã³",
        "j"
      ],
      [
        "o",
        "ĠwĠ"
      ],
      [
        "ar",
        "Ã³w"
      ],
      [
        "Ġprzedstaw",
        "i"
      ],
      [
        "al",
        "Ġ"
      ],
      [
        "ie",
        "mĠ"
      ],
      [
        "ny",
        "miĠ"
      ],
      [
        "m",
        "at"
      ],
      [
        "szÅĤoĠ",
        "doĠ"
      ],
      [
        "ÅĽ",
        "cie"
      ],
      [
        "tak",
        "Å¼e"
      ],
      [
        "nieĠz",
        "ostaÅĤ"
      ],
      [
        "Ġpod",
        "czasĠ"
      ],
      [
        "w",
        "odni"
      ],
      [
        "Ġz",
        "ag"
      ],
      [
        "szcze",
        "g"
      ],
      [
        "an",
        "e"
      ],
      [
        "ÅĤ",
        "Ã³w"
      ],
      [
        "Ġm",
        "iejs"
      ],
      [
        "ani",
        "uĠ"
      ],
      [
        "5",
        "0"
      ],
      [
        "ier",
        "dz"
      ],
      [
        "aut",
        "or"
      ],
      [
        "ter",
        "e"
      ],
      [
        "10",
        "Ġ"
      ],
      [
        "ow",
        "ÄħĠ"
      ],
      [
        "i",
        "na"
      ],
      [
        "i",
        "ĠwĠ"
      ],
      [
        "i",
        "Ġp"
      ],
      [
        "Ġz",
        "mar"
      ],
      [
        "sk",
        "ÅĤad"
      ],
      [
        "lut",
        "egoĠ"
      ],
      [
        "ĊĠ",
        "ĊĠĊĊKategoria:"
      ],
      [
        "z",
        "ost"
      ],
      [
        "noÅĽ",
        "ÄĩĠ"
      ],
      [
        "ek",
        "sp"
      ],
      [
        "ÅĤ",
        "os"
      ],
      [
        "moÅ¼",
        "naĠ"
      ],
      [
        "Ġpo",
        "ÅĤ"
      ],
      [
        "Ġwyd",
        "arze"
      ],
      [
        "ÅĽ",
        "wiÄĻ"
      ],
      [
        ".ĊĊ",
        "T"
      ],
      [
        "wi",
        "d"
      ],
      [
        "t",
        "rw"
      ],
      [
        "d",
        "rog"
      ],
      [
        "Ã³ÅĤ",
        "noc"
      ],
      [
        "A",
        "f"
      ],
      [
        "ran",
        "sport"
      ],
      [
        "doty",
        "czÄħc"
      ],
      [
        "era",
        "l"
      ],
      [
        "cz",
        "nychĠ"
      ],
      [
        ",",
        "Ġwy"
      ],
      [
        "ĠwiÄĻ",
        "k"
      ],
      [
        "Ġw",
        "ol"
      ],
      [
        "le",
        "ft"
      ],
      [
        "m",
        "an"
      ],
      [
        "7",
        "Ġ"
      ],
      [
        "zesp",
        "oÅĤ"
      ],
      [
        "Å¼e",
        "niaĠ"
      ],
      [
        "jaz",
        "d"
      ],
      [
        "chodz",
        "iĠ"
      ],
      [
        "k",
        "ro"
      ],
      [
        "bli",
        "Å¼"
      ],
      [
        "li",
        "st"
      ],
      [
        "ak",
        "tor"
      ],
      [
        "b",
        "oĠ"
      ],
      [
        "sp",
        "oli"
      ],
      [
        "nie",
        "niaĠ"
      ],
      [
        "k",
        "ÄħĠ"
      ],
      [
        "ow",
        "ski"
      ],
      [
        "ktÃ³",
        "re"
      ],
      [
        "od",
        "ob"
      ],
      [
        "s",
        "on"
      ],
      [
        "noÅĽ",
        "Äĩ"
      ],
      [
        "Ġw",
        "skaz"
      ],
      [
        "Äħ",
        "Å¼"
      ],
      [
        "na",
        "l"
      ],
      [
        "po",
        "spoli"
      ],
      [
        "T",
        "usk"
      ],
      [
        "sÅĤ",
        "ug"
      ],
      [
        "a",
        "st"
      ],
      [
        "B",
        "iaÅĤ"
      ],
      [
        "er",
        "t"
      ],
      [
        "z",
        "ak"
      ],
      [
        "Ġpar",
        "lament"
      ],
      [
        "ÅĽ",
        "Ġ"
      ],
      [
        "a",
        ",ĠÅ¼eĠ"
      ],
      [
        "ÅĽ",
        "myĠ"
      ],
      [
        ".ĠJ",
        "ed"
      ],
      [
        "korzy",
        "st"
      ],
      [
        "nie",
        "goĠ"
      ],
      [
        "ra",
        "zĠ"
      ],
      [
        "kom",
        "p"
      ],
      [
        "Ġpowie",
        "dziaÅĤĠ"
      ],
      [
        "aj",
        "eĠ"
      ],
      [
        "uzy",
        "sk"
      ],
      [
        "miÄĻdz",
        "yĠ"
      ],
      [
        "o",
        "zy"
      ],
      [
        "Ġ",
        "L"
      ],
      [
        "ser",
        "wi"
      ],
      [
        "on",
        "ychĠ"
      ],
      [
        "m",
        "ag"
      ],
      [
        "og",
        "iĠ"
      ],
      [
        "roz",
        "m"
      ],
      [
        ".ĊĊ",
        "\""
      ],
      [
        "siÄĻ",
        "ĠzĠ"
      ],
      [
        "T",
        "V"
      ],
      [
        "Ċ",
        "P"
      ],
      [
        "ar",
        "y"
      ],
      [
        "Ġw",
        "e"
      ],
      [
        "d",
        "ostÄĻp"
      ],
      [
        "ce",
        "s"
      ],
      [
        "ni",
        "Å¼"
      ],
      [
        "or",
        "e"
      ],
      [
        "uĠ",
        "iĠ"
      ],
      [
        "st",
        "art"
      ],
      [
        "re",
        "d"
      ],
      [
        "aczy",
        "ÅĦski"
      ],
      [
        "b",
        "e"
      ],
      [
        "eÅĤ",
        "ni"
      ],
      [
        "Ġpro",
        "c"
      ],
      [
        "nie",
        "w"
      ],
      [
        "Ġpo",
        "s"
      ],
      [
        "aÅĤ",
        "o"
      ],
      [
        "roc",
        "ÅĤaw"
      ],
      [
        "cz",
        "Äħ"
      ],
      [
        ",ĠktÃ³r",
        "y"
      ],
      [
        "Ġpre",
        "zyden"
      ],
      [
        "lat",
        "form"
      ],
      [
        "orz",
        "Äħd"
      ],
      [
        "ni",
        "cze"
      ],
      [
        "cj",
        "e"
      ],
      [
        "czeÅĦstw",
        "o"
      ],
      [
        "aĠ",
        "S"
      ],
      [
        "m",
        "on"
      ],
      [
        "Ġpro",
        "ble"
      ],
      [
        "3",
        "0Ġ"
      ],
      [
        "oÅĤ",
        "nie"
      ],
      [
        "cz",
        "aĠ"
      ],
      [
        "rzy",
        "sz"
      ],
      [
        ".ĊĊ",
        "Kategoria:"
      ],
      [
        "Ġp",
        "rowadz"
      ],
      [
        "Ġprzy",
        "got"
      ],
      [
        "Ġp",
        "unkt"
      ],
      [
        "nie",
        "ĠwĠ"
      ],
      [
        "U",
        "SA"
      ],
      [
        "j",
        "ejĠ"
      ],
      [
        "a",
        "stro"
      ],
      [
        "w",
        "er"
      ],
      [
        "wÃ³",
        "chĠ"
      ],
      [
        "t",
        "kow"
      ],
      [
        "k",
        "ieĠ"
      ],
      [
        "w",
        "oÅĤ"
      ],
      [
        "ĠP",
        "ol"
      ],
      [
        "A",
        "le"
      ],
      [
        "ro",
        "s"
      ],
      [
        ",Ġ",
        "naĠ"
      ],
      [
        ",Ġ",
        "ur.Ġ19"
      ],
      [
        "t",
        "r"
      ],
      [
        "Ġpo",
        "zy"
      ],
      [
        "z",
        "am"
      ],
      [
        "odz",
        "i"
      ],
      [
        "ÅĤaĠ",
        "siÄĻĠ"
      ],
      [
        "sz",
        "ÄħĠ"
      ],
      [
        "czy",
        "ÅĤĠ"
      ],
      [
        "za",
        "ch"
      ],
      [
        "osÃ³b",
        "Ġ"
      ],
      [
        "stw",
        "ierdzi"
      ],
      [
        "je",
        "ch"
      ],
      [
        "rze",
        "Ġ"
      ],
      [
        "i",
        "z"
      ],
      [
        "rÃ³",
        "b"
      ],
      [
        "aty",
        "w"
      ],
      [
        "ÅĽ",
        "liĠ"
      ],
      [
        "s",
        "ok"
      ],
      [
        "Polsk",
        "aĠp"
      ],
      [
        "r",
        ".Ġ"
      ],
      [
        "S",
        "P"
      ],
      [
        "m",
        "p"
      ],
      [
        "w",
        "or"
      ],
      [
        "ele",
        "kt"
      ],
      [
        "ĊKategoria:",
        "S"
      ],
      [
        "Å¼",
        "ad"
      ],
      [
        "ud",
        "ni"
      ],
      [
        "czn",
        "yĠ"
      ],
      [
        "iad",
        "om"
      ],
      [
        "sk",
        "u"
      ],
      [
        "aw",
        "ia"
      ],
      [
        "sp",
        "rze"
      ],
      [
        "roz",
        "ryw"
      ],
      [
        "r",
        "ej"
      ],
      [
        "d",
        "ar"
      ],
      [
        "Äħ",
        "ĠwĠ"
      ],
      [
        "miesz",
        "ka"
      ],
      [
        "Polsk",
        "i"
      ],
      [
        "ro",
        "ni"
      ],
      [
        "n",
        "g"
      ],
      [
        "od",
        "at"
      ],
      [
        "o",
        "Ġwy"
      ],
      [
        "s",
        "aĠ"
      ],
      [
        "ĠÅ¹rÃ³d",
        "ÅĤoĠ"
      ],
      [
        "pi",
        "tal"
      ],
      [
        "ĊĠ",
        "P"
      ],
      [
        "Åļ",
        "lÄħ"
      ],
      [
        "m",
        "et"
      ],
      [
        "o",
        "ur"
      ],
      [
        "ok",
        ".Ġ"
      ],
      [
        "19",
        "9"
      ],
      [
        "ÄĻ",
        "dzi"
      ],
      [
        "ru",
        "Å¼y"
      ],
      [
        "Ã³w",
        "ĠwĠ"
      ],
      [
        "B",
        "ar"
      ],
      [
        "g",
        "or"
      ],
      [
        "ia",
        "l"
      ],
      [
        "r",
        "yĠ"
      ],
      [
        "j",
        "i"
      ],
      [
        "w",
        "ol"
      ],
      [
        "Ġpoinform",
        "owaÅĤ"
      ],
      [
        "aut",
        "om"
      ],
      [
        "kon",
        "feren"
      ],
      [
        "ru",
        "d"
      ],
      [
        "spraw",
        "ieĠ"
      ],
      [
        "gin",
        "ÄĻ"
      ],
      [
        "S",
        "-"
      ],
      [
        "je",
        "dy"
      ],
      [
        "In",
        "form"
      ],
      [
        "nie",
        "Ġprze"
      ],
      [
        "Jar",
        "osÅĤaw"
      ],
      [
        "inter",
        "net"
      ],
      [
        "ÅĤ",
        ",ĠÅ¼eĠ"
      ],
      [
        "owan",
        "y"
      ],
      [
        "m",
        "ieĠ"
      ],
      [
        "te",
        "kĠ"
      ],
      [
        "m",
        "ecz"
      ],
      [
        "t",
        "ego"
      ],
      [
        "or",
        "g"
      ],
      [
        "czy",
        "st"
      ],
      [
        "C",
        "ze"
      ],
      [
        "w",
        "ia"
      ],
      [
        "spot",
        "k"
      ],
      [
        "ty",
        "siÄĻ"
      ],
      [
        "b",
        "er"
      ],
      [
        "om",
        "asz"
      ],
      [
        "2025",
        "Ġroku"
      ],
      [
        "p",
        "p"
      ],
      [
        "decy",
        "d"
      ],
      [
        "dzien",
        "nik"
      ],
      [
        "D",
        "zie"
      ],
      [
        "o",
        "cze"
      ],
      [
        "kie",
        "wicz"
      ],
      [
        "m",
        ",Ġ"
      ],
      [
        "ni",
        "os"
      ],
      [
        "sam",
        "och"
      ],
      [
        "d",
        "al"
      ],
      [
        "re",
        "prezent"
      ],
      [
        ",",
        "5"
      ],
      [
        "Ġm",
        "in"
      ],
      [
        "Polsk",
        "iĠ"
      ],
      [
        "dan",
        "ych"
      ],
      [
        "ni",
        "czy"
      ],
      [
        "od",
        "bÄĻdzieĠ"
      ],
      [
        "kan",
        "dydat"
      ],
      [
        "P",
        "O"
      ],
      [
        "nie",
        ",Ġ"
      ],
      [
        ".Ġ",
        "\""
      ],
      [
        "or",
        "u"
      ],
      [
        "cie",
        "l"
      ],
      [
        "T",
        "e"
      ],
      [
        ",Ġ",
        ",Ġ"
      ],
      [
        "Ġw",
        "Ġp"
      ],
      [
        ".Ġ",
        "I"
      ],
      [
        "u",
        "ra"
      ],
      [
        "os",
        "oby"
      ],
      [
        "czn",
        "ego"
      ],
      [
        "op",
        "olsk"
      ],
      [
        "godzi",
        "nieĠ"
      ],
      [
        "Ġ",
        "O"
      ],
      [
        "l",
        "ac"
      ],
      [
        "godz",
        ".Ġ"
      ],
      [
        ",ĠktÃ³r",
        "zyĠ"
      ],
      [
        "Ġm",
        "o"
      ],
      [
        ".ĊĊ",
        "S"
      ],
      [
        "sp",
        "Ã³ÅĤ"
      ],
      [
        "kt",
        "ur"
      ],
      [
        "ÅĦsk",
        "iego"
      ],
      [
        "ko",
        "ÅĦ"
      ],
      [
        "naw",
        "et"
      ],
      [
        ".ĠJ",
        "ak"
      ],
      [
        "ow",
        "od"
      ],
      [
        "p",
        "ort"
      ],
      [
        "ow",
        "aliĠ"
      ],
      [
        "left",
        "|"
      ],
      [
        "c",
        "u"
      ],
      [
        "gen",
        "er"
      ],
      [
        "ofi",
        "cjal"
      ],
      [
        "ru",
        "p"
      ],
      [
        "a",
        "ce"
      ],
      [
        "Ġm",
        "oÅ¼"
      ],
      [
        "s",
        "ek"
      ],
      [
        "ÅĦsk",
        "iegoĠ"
      ],
      [
        "ultur",
        "aĠiĠ"
      ],
      [
        "25",
        "0px|"
      ],
      [
        "stan",
        "owi"
      ],
      [
        "Å¼",
        "oÅĤnie"
      ],
      [
        "kin",
        "ew"
      ],
      [
        "B",
        "i"
      ],
      [
        "202",
        "2"
      ],
      [
        "202",
        "6"
      ],
      [
        "an",
        "y"
      ],
      [
        "Go",
        "spodar"
      ],
      [
        "st",
        "a"
      ],
      [
        "m",
        "niej"
      ],
      [
        "ek",
        "rol"
      ],
      [
        "ulturaĠiĠ",
        "rozryw"
      ],
      [
        "cze",
        "nieĠ"
      ],
      [
        "SpoÅĤe",
        "czeÅĦstwo"
      ],
      [
        "d",
        "ob"
      ],
      [
        "kon",
        "cer"
      ],
      [
        "ekrol",
        "ogiĠ"
      ],
      [
        "ÅĽmier",
        "ci"
      ],
      [
        "aĠ",
        "M"
      ],
      [
        "ĠwĠPols",
        "ceĠ"
      ],
      [
        "owan",
        "ych"
      ],
      [
        "sze",
        "goĠ"
      ],
      [
        "dz",
        "is"
      ],
      [
        "ro",
        "n"
      ],
      [
        "ÅĤ",
        "as"
      ],
      [
        "00",
        "Ġ"
      ],
      [
        "on",
        "ych"
      ],
      [
        "po",
        "zy"
      ],
      [
        "200",
        "8"
      ],
      [
        "miejs",
        "ce"
      ],
      [
        "R",
        "y"
      ],
      [
        "-",
        "let"
      ],
      [
        "z",
        "i"
      ],
      [
        "naj",
        "wiÄĻk"
      ],
      [
        "ro",
        "gra"
      ],
      [
        "ch",
        "c"
      ],
      [
        "bezpie",
        "czeÅĦstw"
      ],
      [
        "ÅĤ",
        "od"
      ],
      [
        "q",
        "u"
      ],
      [
        "yt",
        "anieĠ"
      ],
      [
        "u",
        "ni"
      ],
      [
        "z",
        "aw"
      ],
      [
        "w",
        "aÅĤ"
      ],
      [
        "c",
        "Ã³wĠ"
      ],
      [
        "oĠ",
        "iĠ"
      ],
      [
        "ra",
        "el"
      ],
      [
        "wa",
        "ÄĩĠ"
      ],
      [
        "d",
        "aw"
      ],
      [
        "J",
        "o"
      ],
      [
        "ÅĤ",
        "ĠwĠ"
      ],
      [
        "m",
        "e"
      ],
      [
        "Ġpod",
        "czas"
      ],
      [
        "lok",
        "al"
      ],
      [
        "Z",
        "obaczĠ"
      ],
      [
        "nie",
        "p"
      ],
      [
        "Ġd",
        "y"
      ],
      [
        "las",
        "y"
      ],
      [
        "Ġ",
        "nieĠ"
      ],
      [
        "2025",
        "ĠrokuĠ"
      ],
      [
        "Polsk",
        "aĠ"
      ],
      [
        "sz",
        "cz"
      ],
      [
        "Ġpod",
        "pis"
      ],
      [
        "re",
        "ktor"
      ],
      [
        "ry",
        "ty"
      ],
      [
        "obowiÄħ",
        "z"
      ],
      [
        "h",
        "i"
      ],
      [
        "bra",
        "m"
      ],
      [
        "m",
        "al"
      ],
      [
        "Ġwy",
        "ÅĽcig"
      ],
      [
        "ÄĻ",
        "g"
      ],
      [
        "wy",
        "Å¼"
      ],
      [
        "ujÄħc",
        "eĠ"
      ],
      [
        "Ġz",
        "ÅĤo"
      ],
      [
        "20",
        "Ġ"
      ],
      [
        "Spraw",
        "iedliw"
      ],
      [
        "owarzy",
        "sze"
      ],
      [
        "kil",
        "kaĠ"
      ],
      [
        "a",
        "ÅĦstw"
      ],
      [
        "kaĠ",
        "noÅ¼"
      ],
      [
        "jÄĻ",
        "zy"
      ],
      [
        ".ĊĊ",
        "K"
      ],
      [
        "czor",
        "aj"
      ],
      [
        "autom",
        "atycz"
      ],
      [
        ".Ġ",
        "St"
      ],
      [
        "4",
        "0"
      ],
      [
        "owan",
        "ychĠ"
      ],
      [
        "Wi",
        "kinew"
      ],
      [
        "ĠwĠPols",
        "ce"
      ],
      [
        "ulturaĠiĠrozryw",
        "kaĊKategoria:"
      ],
      [
        "or",
        "zy"
      ],
      [
        ".ĠP",
        "od"
      ],
      [
        "Ġpo",
        "mo"
      ],
      [
        "E",
        "d"
      ],
      [
        "e",
        "b"
      ],
      [
        "kom",
        "is"
      ],
      [
        "re",
        "f"
      ],
      [
        "P",
        "rezydent"
      ],
      [
        "Å¹rÃ³d",
        "ÅĤaĠ"
      ],
      [
        "p",
        "rac"
      ],
      [
        "s",
        "ch"
      ],
      [
        "Ġpo",
        "tw"
      ],
      [
        "aĠprze",
        "zĠ"
      ],
      [
        "ro",
        "bi"
      ],
      [
        "D",
        "onal"
      ],
      [
        "ĊKategoria:",
        "U"
      ],
      [
        "gl",
        "ÄĻd"
      ],
      [
        ":",
        "ĊĊ"
      ],
      [
        "Ġpop",
        "rze"
      ],
      [
        "o",
        "Ġp"
      ],
      [
        "o",
        "ty"
      ],
      [
        "re",
        "k"
      ],
      [
        "ĠwiÄĻ",
        "c"
      ],
      [
        "Ġ(",
        "WD)"
      ],
      [
        "stan",
        "ieĠ"
      ],
      [
        "m",
        "us"
      ],
      [
        "bardz",
        "oĠ"
      ],
      [
        "Cent",
        "rumĠ"
      ],
      [
        "Ġprac",
        "ow"
      ],
      [
        "ow",
        "Äħ"
      ],
      [
        "yĠ",
        "zĠ"
      ],
      [
        "to",
        "f"
      ],
      [
        "an",
        "ychĠ"
      ],
      [
        "Minist",
        "erstw"
      ],
      [
        "r",
        "ory"
      ],
      [
        "ki",
        ",Ġ"
      ],
      [
        "N",
        "iem"
      ],
      [
        "szy",
        "b"
      ],
      [
        "ro",
        "p"
      ],
      [
        "re",
        "dni"
      ],
      [
        "sz",
        "czy"
      ],
      [
        "rozpo",
        "czÄĻ"
      ],
      [
        "op",
        "ubli"
      ],
      [
        "g",
        "nie"
      ],
      [
        ".",
        "5"
      ],
      [
        "ar",
        "e"
      ],
      [
        "Ġpowod",
        "uĠ"
      ],
      [
        "Ġ(",
        "ur.Ġ19"
      ],
      [
        "wa",
        "li"
      ],
      [
        "Ġpod",
        "kreÅĽ"
      ],
      [
        "ari",
        "usz"
      ],
      [
        "Ġwoj",
        "sk"
      ],
      [
        "uÅ¼y",
        "tkow"
      ],
      [
        "rod",
        "u"
      ],
      [
        ".ĠN",
        "ie"
      ],
      [
        "czy",
        "n"
      ],
      [
        "Ġpow",
        "st"
      ],
      [
        "ze",
        "stawie"
      ],
      [
        "w",
        "o"
      ],
      [
        "rzysz",
        "tof"
      ],
      [
        "aĠz",
        "ostaÅĤ"
      ],
      [
        "200",
        "9"
      ],
      [
        "Ġm",
        "Ã³w"
      ],
      [
        "kol",
        "e"
      ],
      [
        "l",
        "ar"
      ],
      [
        "ĠwĠ",
        "tymĠ"
      ],
      [
        "un",
        "kuĠ"
      ],
      [
        "P",
        "od"
      ],
      [
        "ap",
        "ie"
      ],
      [
        "ÄĻ",
        ",Ġ"
      ],
      [
        ":",
        "0"
      ],
      [
        "Ġzost",
        "aÅĤĠ"
      ],
      [
        "spe",
        "cjal"
      ],
      [
        "aĠ",
        "B"
      ],
      [
        "3",
        "1"
      ],
      [
        "ajÄħc",
        "Ġ"
      ],
      [
        "ost",
        "aÅĤĠ"
      ],
      [
        "cj",
        "aĊKategoria:"
      ],
      [
        "nat",
        "omiast"
      ],
      [
        "-",
        "2"
      ],
      [
        "C",
        "o"
      ],
      [
        "ski",
        "m"
      ],
      [
        "za",
        "cjiĠ"
      ],
      [
        "le",
        "k"
      ],
      [
        "mu",
        "zy"
      ],
      [
        "200",
        "5"
      ],
      [
        "u",
        "cie"
      ],
      [
        "sz",
        "pital"
      ],
      [
        "Ã³wĠ",
        "naĠ"
      ],
      [
        "stan",
        "owisk"
      ],
      [
        "ÅĽ",
        "l"
      ],
      [
        "ÅĤ",
        "uÅ¼"
      ],
      [
        "Ã³",
        "dz"
      ],
      [
        "ej",
        "m"
      ],
      [
        "Äħ",
        "dz"
      ],
      [
        "decy",
        "zj"
      ],
      [
        "lub",
        "Ġ"
      ],
      [
        "V",
        "I"
      ],
      [
        "szczeg",
        "Ã³l"
      ],
      [
        "ram",
        "achĠ"
      ],
      [
        "ruch",
        "uĠ"
      ],
      [
        "ÅĽ",
        "wiad"
      ],
      [
        "Le",
        "chĠ"
      ],
      [
        "ni",
        "mĠ"
      ],
      [
        "nieĠzostaÅĤ",
        "oĠ"
      ],
      [
        "ĠwĠ",
        "Warszaw"
      ],
      [
        "rÄĻ",
        "g"
      ],
      [
        "d",
        "l"
      ],
      [
        "s",
        "Äħd"
      ],
      [
        "on",
        "t"
      ],
      [
        "ÅĽ",
        "le"
      ],
      [
        "i",
        "ÅĤĠ"
      ],
      [
        "m",
        "od"
      ],
      [
        "rÃ³",
        "ci"
      ],
      [
        "u",
        "ÅĤ"
      ],
      [
        "ry",
        "t"
      ],
      [
        "w",
        "en"
      ],
      [
        "Polsk",
        "a"
      ],
      [
        "ĠwĠ",
        "P"
      ],
      [
        "by",
        "ÅĤy"
      ],
      [
        "W",
        "ol"
      ],
      [
        "e",
        "ÅĤĠ"
      ],
      [
        "K",
        "ar"
      ],
      [
        "R",
        "ob"
      ],
      [
        "ok",
        "r"
      ],
      [
        "ka",
        "ch"
      ],
      [
        ".ĠĊĊ",
        "ĠÅ¹rÃ³dÅĤaĠĊĠ"
      ],
      [
        "O",
        "b"
      ],
      [
        "Ġprze",
        "j"
      ],
      [
        "u",
        "waÅ¼"
      ],
      [
        "ad",
        "e"
      ],
      [
        "cz",
        "ny"
      ],
      [
        "Am",
        "ery"
      ],
      [
        "wodni",
        "czÄħc"
      ],
      [
        "lat",
        "Ġ"
      ],
      [
        "202",
        "1"
      ],
      [
        "J",
        "e"
      ],
      [
        "u",
        "Ġw"
      ],
      [
        "cze",
        "j"
      ],
      [
        "n",
        "ot"
      ],
      [
        "N",
        "A"
      ],
      [
        "hist",
        "or"
      ],
      [
        "A",
        "d"
      ],
      [
        "Ġwy",
        "gra"
      ],
      [
        "ZobaczĠ",
        "teÅ¼Ġ"
      ],
      [
        "naj",
        "lep"
      ],
      [
        "jed",
        "n"
      ],
      [
        "u",
        "al"
      ],
      [
        "l",
        "o"
      ],
      [
        "oÅĦ",
        "czy"
      ],
      [
        "tele",
        "wi"
      ],
      [
        "Wy",
        "pad"
      ],
      [
        "ani",
        "a"
      ],
      [
        ".ĠP",
        "rze"
      ],
      [
        "ĠÅ",
        "ģ"
      ],
      [
        "op",
        "ie"
      ],
      [
        "olog",
        "i"
      ],
      [
        "k",
        "obie"
      ],
      [
        "ty",
        "s.Ġ"
      ],
      [
        "Ġz",
        "najd"
      ],
      [
        "owaÅĤ",
        "oĠ"
      ],
      [
        "szy",
        "ch"
      ],
      [
        "p",
        "or"
      ],
      [
        "3",
        "5"
      ],
      [
        "rÃ³",
        "t"
      ],
      [
        "czn",
        "ÄħĠ"
      ],
      [
        "I",
        "z"
      ],
      [
        "Ġz",
        "mia"
      ],
      [
        "f",
        "estiwal"
      ],
      [
        "automatycz",
        "nieĠwy"
      ],
      [
        "aĠp",
        "rzy"
      ],
      [
        "u",
        "c"
      ],
      [
        "sz",
        "ÅĤ"
      ],
      [
        "ÅĽ",
        "ciĠ"
      ],
      [
        "iÄĻ",
        "kiĠ"
      ],
      [
        "cj",
        "a"
      ],
      [
        "z",
        "atrzym"
      ],
      [
        "inter",
        "es"
      ],
      [
        "dop",
        "odob"
      ],
      [
        "t",
        "on"
      ],
      [
        "O",
        "k"
      ],
      [
        "automatycznieĠwy",
        "gener"
      ],
      [
        "n",
        "rĠ"
      ],
      [
        "ser",
        "w"
      ],
      [
        "in",
        "nychĠ"
      ],
      [
        "go",
        "spodar"
      ],
      [
        "oĠ",
        "zestawie"
      ],
      [
        "czy",
        "pospoli"
      ],
      [
        "ÄĻ",
        "t"
      ],
      [
        "siÄĻ",
        "Ġw"
      ],
      [
        "oĠzestawie",
        "nieĠzostaÅĤoĠ"
      ],
      [
        "oĠzestawienieĠzostaÅĤoĠ",
        "automatycznieĠwygener"
      ],
      [
        "d",
        "ost"
      ],
      [
        "aĠ",
        "G"
      ],
      [
        "f",
        "li"
      ],
      [
        "PolitykaĊKategoria:",
        "PolskaĊKategoria:"
      ],
      [
        "ĊKategoria:",
        "St"
      ],
      [
        "ĊKategoria:N",
        "ekrologiĠ"
      ],
      [
        "b",
        "ieĠ"
      ],
      [
        ",Ġjak",
        "oĠ"
      ],
      [
        "C",
        "y"
      ],
      [
        "ch",
        "y"
      ],
      [
        "ĠwÅĤa",
        "dz"
      ],
      [
        "owie",
        "c"
      ],
      [
        "l",
        "and"
      ],
      [
        "m.in",
        ".Ġ"
      ],
      [
        "funk",
        "cjon"
      ],
      [
        "ciÄħg",
        "uĠ"
      ],
      [
        "Ġ",
        "orazĠ"
      ],
      [
        "S",
        "am"
      ],
      [
        "anyĠ",
        "Zjednoczon"
      ],
      [
        "W",
        "ÅĤo"
      ],
      [
        "p",
        "ro"
      ],
      [
        "T",
        "h"
      ],
      [
        "20",
        "10"
      ],
      [
        "cz",
        "naĠ"
      ],
      [
        "Ġpop",
        "ar"
      ],
      [
        "z",
        "m"
      ],
      [
        "ra",
        "kie"
      ],
      [
        "i",
        "Ġwy"
      ],
      [
        "nag",
        "rod"
      ],
      [
        "gl",
        "Äħd"
      ],
      [
        "Ros",
        "j"
      ],
      [
        "acj",
        "eĠ"
      ],
      [
        "ty",
        "p"
      ],
      [
        "g",
        "odni"
      ],
      [
        "wer",
        "sy"
      ],
      [
        "ÅĽ",
        "wie"
      ],
      [
        "i",
        "d"
      ],
      [
        "Ã³Åº",
        "niej"
      ],
      [
        "ĊKategoria:P",
        "olitykaĊKategoria:"
      ],
      [
        "a",
        "cyj"
      ],
      [
        "ĠÅ",
        "ļ"
      ],
      [
        "ĊĊ",
        "ĠÅ¹rÃ³dÅĤoĠ"
      ],
      [
        "PolskaĠp",
        "olitykaĊKategoria:"
      ],
      [
        "ar",
        "g"
      ],
      [
        "Ġ",
        "E"
      ],
      [
        "sie",
        "d"
      ],
      [
        "O",
        "d"
      ],
      [
        "ul",
        "t"
      ],
      [
        "W",
        "rocÅĤaw"
      ],
      [
        "l",
        "Äħd"
      ],
      [
        "Ġwy",
        "pad"
      ],
      [
        "wersy",
        "te"
      ],
      [
        "s",
        "en"
      ],
      [
        "osi",
        "Äħg"
      ],
      [
        "okoÅĤoĠ",
        "godzinyĠ"
      ],
      [
        "na",
        "dz"
      ],
      [
        "yĠ",
        "doĠ"
      ],
      [
        "om",
        "et"
      ],
      [
        "ÅĤ",
        "ow"
      ],
      [
        "r",
        "oĠ"
      ],
      [
        "k",
        "niÄĻ"
      ],
      [
        "zew",
[...]
