{
  "version": "1.0",
  "truncation": null,
  "padding": null,
  "added_tokens": [],
  "normalizer": null,
  "pre_tokenizer": {
    "type": "ByteLevel",
    "add_prefix_space": false,
    "trim_offsets": true,
    "use_regex": false
  },
  "post_processor": {
    "type": "ByteLevel",
    "add_prefix_space": true,
    "trim_offsets": true,
    "use_regex": true
  },
  "decoder": {
    "type": "ByteLevel",
    "add_prefix_space": true,
    "trim_offsets": true,
    "use_regex": true
  },
  "model": {
    "type": "BPE",
    "dropout": null,
    "unk_token": null,
    "continuing_subword_prefix": null,
    "end_of_word_suffix": null,
    "fuse_unk": false,
    "byte_fallback": false,
    "ignore_merges": false,
    "vocab": {
      "Ā": 0,
      "ā": 1,
      "Ă": 2,
      "ă": 3,
      "Ą": 4,
      "ą": 5,
      "Ć": 6,
      "ć": 7,
      "Ĉ": 8,
      "ĉ": 9,
      "Ċ": 10,
      "ċ": 11,
      "Č": 12,
      "č": 13,
      "Ď": 14,
      "ď": 15,
      "Đ": 16,
      "đ": 17,
      "Ē": 18,
      "ē": 19,
      "Ĕ": 20,
      "ĕ": 21,
      "Ė": 22,
      "ė": 23,
      "Ę": 24,
      "ę": 25,
      "Ě": 26,
      "ě": 27,
      "Ĝ": 28,
      "ĝ": 29,
      "Ğ": 30,
      "ğ": 31,
      "Ġ": 32,
      "!": 33,
      "\"": 34,
      "#": 35,
      "$": 36,
      "%": 37,
      "&": 38,
      "'": 39,
      "(": 40,
      ")": 41,
      "*": 42,
      "+": 43,
      ",": 44,
      "-": 45,
      ".": 46,
      "/": 47,
      "0": 48,
      "1": 49,
      "2": 50,
      "3": 51,
      "4": 52,
      "5": 53,
      "6": 54,
      "7": 55,
      "8": 56,
      "9": 57,
      ":": 58,
      ";": 59,
      "<": 60,
      "=": 61,
      ">": 62,
      "?": 63,
      "@": 64,
      "A": 65,
      "B": 66,
      "C": 67,
      "D": 68,
      "E": 69,
      "F": 70,
      "G": 71,
      "H": 72,
      "I": 73,
      "J": 74,
      "K": 75,
      "L": 76,
      "M": 77,
      "N": 78,
      "O": 79,
      "P": 80,
      "Q": 81,
      "R": 82,
      "S": 83,
      "T": 84,
      "U": 85,
      "V": 86,
      "W": 87,
      "X": 88,
      "Y": 89,
      "Z": 90,
      "[": 91,
      "\\": 92,
      "]": 93,
      "^": 94,
      "_": 95,
      "`": 96,
      "a": 97,
      "b": 98,
      "c": 99,
      "d": 100,
      "e": 101,
      "f": 102,
      "g": 103,
      "h": 104,
      "i": 105,
      "j": 106,
      "k": 107,
      "l": 108,
      "m": 109,
      "n": 110,
      "o": 111,
      "p": 112,
      "q": 113,
      "r": 114,
      "s": 115,
      "t": 116,
      "u": 117,
      "v": 118,
      "w": 119,
      "x": 120,
      "y": 121,
      "z": 122,
      "{": 123,
      "|": 124,
      "}": 125,
      "~": 126,
      "ġ": 127,
      "Ģ": 128,
      "ģ": 129,
      "Ĥ": 130,
      "ĥ": 131,
      "Ħ": 132,
      "ħ": 133,
      "Ĩ": 134,
      "ĩ": 135,
      "Ī": 136,
      "ī": 137,
      "Ĭ": 138,
      "ĭ": 139,
      "Į": 140,
      "į": 141,
      "İ": 142,
      "ı": 143,
      "Ĳ": 144,
      "ĳ": 145,
      "Ĵ": 146,
      "ĵ": 147,
      "Ķ": 148,
      "ķ": 149,
      "ĸ": 150,
      "Ĺ": 151,
      "ĺ": 152,
      "Ļ": 153,
      "ļ": 154,
      "Ľ": 155,
      "ľ": 156,
      "Ŀ": 157,
      "ŀ": 158,
      "Ł": 159,
      "ł": 160,
      "¡": 161,
      "¢": 162,
      "£": 163,
      "¤": 164,
      "¥": 165,
      "¦": 166,
      "§": 167,
      "¨": 168,
      "©": 169,
      "ª": 170,
      "«": 171,
      "¬": 172,
      "Ń": 173,
      "®": 174,
      "¯": 175,
      "°": 176,
      "±": 177,
      "²": 178,
      "³": 179,
      "´": 180,
      "µ": 181,
      "¶": 182,
      "·": 183,
      "¸": 184,
      "¹": 185,
      "º": 186,
      "»": 187,
      "¼": 188,
      "½": 189,
      "¾": 190,
      "¿": 191,
      "À": 192,
      "Á": 193,
      "Â": 194,
      "Ã": 195,
      "Ä": 196,
      "Å": 197,
      "Æ": 198,
      "Ç": 199,
      "È": 200,
      "É": 201,
      "Ê": 202,
      "Ë": 203,
      "Ì": 204,
      "Í": 205,
      "Î": 206,
      "Ï": 207,
      "Ð": 208,
      "Ñ": 209,
      "Ò": 210,
      "Ó": 211,
      "Ô": 212,
      "Õ": 213,
      "Ö": 214,
      "×": 215,
      "Ø": 216,
      "Ù": 217,
      "Ú": 218,
      "Û": 219,
      "Ü": 220,
      "Ý": 221,
      "Þ": 222,
      "ß": 223,
      "à": 224,
      "á": 225,
      "â": 226,
      "ã": 227,
      "ä": 228,
      "å": 229,
      "æ": 230,
      "ç": 231,
      "è": 232,
      "é": 233,
      "ê": 234,
      "ë": 235,
      "ì": 236,
      "í": 237,
      "î": 238,
      "ï": 239,
      "ð": 240,
      "ñ": 241,
      "ò": 242,
      "ó": 243,
      "ô": 244,
      "õ": 245,
      "ö": 246,
      "÷": 247,
      "ø": 248,
      "ù": 249,
      "ú": 250,
      "û": 251,
      "ü": 252,
      "ý": 253,
      "þ": 254,
      "ÿ": 255,
      "ie": 256,
      "aĠ": 257,
      "ÅĤ": 258,
      "Ġp": 259,
      "ow": 260,
      "Ġw": 261,
      "or": 262,
      "st": 263,
      "ni": 264,
      "oĠ": 265,
      "ze": 266,
      "at": 267,
      "iĠ": 268,
      "Ã³": 269,
      "ÄĻ": 270,
      ",Ġ": 271,
      "ch": 272,
      "ia": 273,
      "Äħ": 274,
      "yĠ": 275,
      "eg": 276,
      "cz": 277,
      "an": 278,
      ".Ġ": 279,
      "ar": 280,
      "Å¼": 281,
      "od": 282,
      "nie": 283,
      "sk": 284,
      "eĠ": 285,
      "ra": 286,
      "ro": 287,
      "ĊĊ": 288,
      "Ġz": 289,
      "Kat": 290,
      "li": 291,
      "egor": 292,
      "ia:": 293,
      "egoria:": 294,
      "Kategoria:": 295,
      "on": 296,
      "ÅĽ": 297,
      "dz": 298,
      "sz": 299,
      "rze": 300,
      "uĠ": 301,
      "er": 302,
      "Ã³w": 303,
      "ĠwĠ": 304,
      "naĠ": 305,
      "aÅĤ": 306,
      "ĊKategoria:": 307,
      "mĠ": 308,
      "iÄĻ": 309,
      "na": 310,
      "cj": 311,
      "ol": 312,
      "zy": 313,
      "ej": 314,
      "chĠ": 315,
      "en": 316,
      "al": 317,
      "in": 318,
      "ieĠ": 319,
      ".ĊĊ": 320,
      "ak": 321,
      "ty": 322,
      "ĊĠ": 323,
      "Äĩ": 324,
      "re": 325,
      "Ġpo": 326,
      "je": 327,
      "ÄħĠ": 328,
      "ka": 329,
      "niaĠ": 330,
      "ob": 331,
      "Ġwy": 332,
      "aw": 333,
      "sp": 334,
      "siÄĻ": 335,
      "zĠ": 336,
      "ad": 337,
      "ÅĦ": 338,
      "Ġprze": 339,
      "kt": 340,
      "am": 341,
      "nieĠ": 342,
      "om": 343,
      "ci": 344,
      "ny": 345,
      "os": 346,
      "20": 347,
      "Ġd": 348,
      "oÅĽ": 349,
      "le": 350,
      "ier": 351,
      "âĢ": 352,
      "ÅĤaĠ": 353,
      "cze": 354,
      "Ġm": 355,
      "te": 356,
      "aj": 357,
      "wi": 358,
      "rÃ³": 359,
      "Äħc": 360,
      "ki": 361,
      "rzy": 362,
      "ost": 363,
      "czy": 364,
      "ur": 365,
      "ot": 366,
      "egoĠ": 367,
      "as": 368,
      "ÄĩĠ": 369,
      "ÅĤĠ": 370,
      "iej": 371,
      "by": 372,
      "Ã³r": 373,
      "ejĠ": 374,
      "Ã³wĠ": 375,
      "olsk": 376,
      "Å¼eĠ": 377,
      "ru": 378,
      "ok": 379,
      "owan": 380,
      "owa": 381,
      "op": 382,
      "ne": 383,
      "za": 384,
      "mi": 385,
      "ku": 386,
      "ed": 387,
      "aĠp": 388,
      "ktÃ³r": 389,
      "cy": 390,
      "ent": 391,
      "siÄĻĠ": 392,
      "rÃ³d": 393,
      "ce": 394,
      "kĠ": 395,
      "og": 396,
      "raw": 397,
      "ĠzĠ": 398,
      "owy": 399,
      "odz": 400,
      "sze": 401,
      "ut": 402,
      "ĠÅ": 403,
      "doĠ": 404,
      "iaÅĤ": 405,
      "oÅĤ": 406,
      "kaĠ": 407,
      "ÄĻĠ": 408,
      "rz": 409,
      "uj": 410,
      "Polsk": 411,
      "Ġpod": 412,
      "¹rÃ³d": 413,
      "ieg": 414,
      "ani": 415,
      "ski": 416,
      "acj": 417,
      "um": 418,
      "ry": 419,
      "owie": 420,
      "kuĠ": 421,
      "ĊĊKategoria:": 422,
      "el": 423,
      ",ĠÅ¼eĠ": 424,
      "jest": 425,
      "kiĠ": 426,
      "aÅĤĠ": 427,
      "dzie": 428,
      "szy": 429,
      ".ĠW": 430,
      "Ġro": 431,
      "aĠw": 432,
      "Å¼e": 433,
      "is": 434,
      "ĠĠ": 435,
      "ĠÅ¹rÃ³d": 436,
      "dy": 437,
      "aĊKategoria:": 438,
      "kon": 439,
      "âĢĵ": 440,
      "czn": 441,
      "az": 442,
      "Ġpro": 443,
      "ub": 444,
      "ciĠ": 445,
      "oli": 446,
      "cie": 447,
      "stw": 448,
      "em": 449,
      ",ĠktÃ³r": 450,
      "202": 451,
      "oj": 452,
      "ĠÅ¹rÃ³dÅĤaĠ": 453,
      "ap": 454,
      "dĠ": 455,
      "Å¼y": 456,
      "un": 457,
      "owi": 458,
      "et": 459,
      "ego": 460,
      "fi": 461,
      "ter": 462,
      "Ġprzy": 463,
      ".ĠP": 464,
      "ek": 465,
      "ud": 466,
      "ĠÅ¹rÃ³dÅĤaĠĊĠ": 467,
      "for": 468,
      "jak": 469,
      "Ġt": 470,
      "00": 471,
      "dzi": 472,
      "wa": 473,
      "ran": 474,
      ":Ġ": 475,
      "cjiĠ": 476,
      "19": 477,
      "sÅĤ": 478,
      "bÄĻ": 479,
      "Ġk": 480,
      "bi": 481,
      "cyĠ": 482,
      "form": 483,
      "roz": 484,
      "jed": 485,
      "Ġ(": 486,
      "-Ġ": 487,
      "art": 488,
      "naj": 489,
      "ÅĤoĠ": 490,
      "sty": 491,
      "neĠ": 492,
      "emĠ": 493,
      "tak": 494,
      "caĠ": 495,
      "liĠ": 496,
      "Äħd": 497,
      "kow": 498,
      "niej": 499,
      "tu": 500,
      "ychĠ": 501,
      "mie": 502,
      "nyĠ": 503,
      "dziaÅĤ": 504,
      "czas": 505,
      "St": 506,
      "sy": 507,
      "Åº": 508,
      "ali": 509,
      "nychĠ": 510,
      "ul": 511,
      "a,Ġ": 512,
      "200": 513,
      "ÅĦsk": 514,
      "ag": 515,
      "Wi": 516,
      "nik": 517,
      "staw": 518,
      "ĠP": 519,
      "ach": 520,
      "dzieĠ": 521,
      "do": 522,
      "ceĠ": 523,
      "Å¼Ġ": 524,
      "iel": 525,
      "si": 526,
      "ych": 527,
      "no": 528,
      "wal": 529,
      "ĠiĠ": 530,
      "mo": 531,
      "cieĠ": 532,
      "ÅĤo": 533,
      "ÄĻp": 534,
      "achĠ": 535,
      "ostaÅĤ": 536,
      "ĠK": 537,
      "ĠdoĠ": 538,
      "toĠ": 539,
      "noÅĽ": 540,
      "laĠ": 541,
      "stan": 542,
      "tw": 543,
      ".ĊĊĠÅ¹rÃ³dÅĤaĠĊĠ": 544,
      "ab": 545,
      "Ar": 546,
      "ora": 547,
      "ko": 548,
      "ĠS": 549,
      "nych": 550,
      "owaÅĤ": 551,
      "ĠprzezĠ": 552,
      "uro": 553,
      "gÅĤ": 554,
      "wie": 555,
      "cji": 556,
      "gra": 557,
      "Ġpre": 558,
      "kaĊKategoria:": 559,
      "naĠp": 560,
      "Mi": 561,
      "wy": 562,
      "âĢĵĠ": 563,
      "rod": 564,
      "ÅĤyĠ": 565,
      "ajÄħc": 566,
      "de": 567,
      "kie": 568,
      "aty": 569,
      "âĢĿ": 570,
      "sĠ": 571,
      "orazĠ": 572,
      "ez": 573,
      "chi": 574,
      "oz": 575,
      "âĢŀ": 576,
      "Åļ": 577,
      "jestĠ": 578,
      "usz": 579,
      ".ĠN": 580,
      "iegoĠ": 581,
      "aniaĠ": 582,
      "mia": 583,
      "Ġs": 584,
      "lat": 585,
      "iejs": 586,
      "iad": 587,
      "aĠz": 588,
      "ÅĤa": 589,
      "bor": 590,
      "ug": 591,
      "inform": 592,
      "Ã³ÅĤ": 593,
      "anieĠ": 594,
      "im": 595,
      "ujÄħc": 596,
      "ÅĤad": 597,
      "ort": 598,
      ".ĠZ": 599,
      ".ĊĊW": 600,
      "zyd": 601,
      "anie": 602,
      "Ġpow": 603,
      "Sp": 604,
      "arsz": 605,
      "yĠz": 606,
      "PolskaĊKategoria:": 607,
      "iejĠ": 608,
      "est": 609,
      "us": 610,
      "10": 611,
      "stÄĻp": 612,
      "ew": 613,
      "to": 614,
      "kol": 615,
      "spraw": 616,
      ".ĠĊĊ": 617,
      "Ġroku": 618,
      "kom": 619,
      "In": 620,
      "ÅĦstw": 621,
      "iego": 622,
      "arz": 623,
      "urop": 624,
      "zj": 625,
      "ierw": 626,
      "ri": 627,
      "Ġpra": 628,
      "wiat": 629,
      "and": 630,
      "pi": 631,
      "row": 632,
      "tra": 633,
      "niuĠ": 634,
      "miĠ": 635,
      "cyj": 636,
      "Archi": 637,
      ",ĠaĠ": 638,
      "ĠM": 639,
      "wiÄħ": 640,
      "po": 641,
      "uÅ¼": 642,
      "il": 643,
      "ÅĽci": 644,
      "nieĠz": 645,
      "th": 646,
      "godz": 647,
      "Archiwal": 648,
      "oÅĽci": 649,
      "rowa": 650,
      "Ã³b": 651,
      "ÅĤy": 652,
      "rw": 653,
      "gani": 654,
      "raj": 655,
      "czÄĻ": 656,
      "stro": 657,
      "rzym": 658,
      ".ĠJ": 659,
      ")Ġ": 660,
      "Wiki": 661,
      "ubli": 662,
      "tymĠ": 663,
      "nist": 664,
      "rÃ³w": 665,
      "ĠrokuĠ": 666,
      "odĠ": 667,
      "osÃ³b": 668,
      "iiĠ": 669,
      "miejs": 670,
      "Europ": 671,
      ",ĠwĠ": 672,
      ".ĠD": 673,
      "sam": 674,
      "ac": 675,
      "Ch": 676,
      "bÄĻdzieĠ": 677,
      "ujeĠ": 678,
      "ĠpoĠ": 679,
      "negoĠ": 680,
      "oÅĽciĠ": 681,
      "skiĠ": 682,
      "Archiwalne": 683,
      "mier": 684,
      "cjaĠ": 685,
      "iaĠ": 686,
      "ec": 687,
      "sie": 688,
      "ion": 689,
      "wĠ": 690,
      "12": 691,
      "wiÄĻ": 692,
      "olity": 693,
      "gru": 694,
      "15": 695,
      "An": 696,
      "Wy": 697,
      "umb": 698,
      "sw": 699,
      "mu": 700,
      "nia": 701,
      ".ĠO": 702,
      ".ĊĊP": 703,
      ".ĠT": 704,
      "Le": 705,
      "rak": 706,
      "Mar": 707,
      "now": 708,
      "czon": 709,
      "ĊĠĊĊKategoria:": 710,
      "up": 711,
      "zydent": 712,
      "jÄĻ": 713,
      "Ġwi": 714,
      "thumb": 715,
      "nejĠ": 716,
      "Li": 717,
      "lan": 718,
      "goĠ": 719,
      "arze": 720,
      "thumb|": 721,
      "ymĠ": 722,
      ",ĠÅ¼e": 723,
      "ĠB": 724,
      "byĠ": 725,
      "czyĠ": 726,
      "ĠnaĠ": 727,
      "dlaĠ": 728,
      "dni": 729,
      "dzia": 730,
      "amiĠ": 731,
      "liw": 732,
      "Pol": 733,
      "es": 734,
      ".ĊĊĠÅ¹rÃ³dÅĤaĠĊĠĊĊKategoria:": 735,
      "ekĠ": 736,
      "da": 737,
      "arszaw": 738,
      "ÅĦski": 739,
      "tor": 740,
      "lu": 741,
      "myĠ": 742,
      "uch": 743,
      "Ġprzed": 744,
      "Ġpoli": 745,
      "dyĠ": 746,
      "nt": 747,
      "ery": 748,
      "iÅĤ": 749,
      "my": 750,
      "szcze": 751,
      "oby": 752,
      "Ġzap": 753,
      "Ġpop": 754,
      "owych": 755,
      "uk": 756,
      "Ġli": 757,
      "zw": 758,
      "Ġpraw": 759,
      "pad": 760,
      "Ġwsp": 761,
      "nymĠ": 762,
      "acjiĠ": 763,
      "Ġpa": 764,
      "ele": 765,
      "coĠ": 766,
      "aliĠ": 767,
      "owe": 768,
      "ĊKategoria:P": 769,
      "tur": 770,
      "px": 771,
      "owaniaĠ": 772,
      "owyĠ": 773,
      "pie": 774,
      "nej": 775,
      "Ġdo": 776,
      "bar": 777,
      "ist": 778,
      "era": 779,
      "\"Ġ": 780,
      "bez": 781,
      "kor": 782,
      "Ġpierw": 783,
      "odni": 784,
      "nar": 785,
      "2024": 786,
      "ator": 787,
      "ĠR": 788,
      "pre": 789,
      "wÃ³": 790,
      "organi": 791,
      "leĠ": 792,
      "13": 793,
      "koĠ": 794,
      "Ġpolsk": 795,
      "0Ġ": 796,
      "of": 797,
      "owychĠ": 798,
      "zna": 799,
      "aĠwĠ": 800,
      "aÅĤaĠ": 801,
      "25": 802,
      "ajÄħĠ": 803,
      "Äħt": 804,
      "nic": 805,
      "ami": 806,
      "ÅĤaw": 807,
      "aut": 808,
      "ichĠ": 809,
      "Warszaw": 810,
      "11": 811,
      "ArchiwalneĊ": 812,
      "powie": 813,
      ".ĠWĠ": 814,
      "eÅĤ": 815,
      "ÅĤug": 816,
      "owejĠ": 817,
      "acz": 818,
      "gÅĤos": 819,
      "zyĠ": 820,
      "med": 821,
      "kar": 822,
      "Åģ": 823,
      "wiÄħz": 824,
      "Ġpowie": 825,
      "aĠiĠ": 826,
      "ĠG": 827,
      "kur": 828,
      "Ġwybor": 829,
      "rzyĠ": 830,
      "oÅĽÄĩ": 831,
      "szyst": 832,
      "dan": 833,
      "bÄĻd": 834,
      "Ġwz": 835,
      "iÄĻdz": 836,
      "mar": 837,
      "14": 838,
      "oni": 839,
      "2025": 840,
      "oÅĤe": 841,
      "ale": 842,
      "pis": 843,
      "ck": 844,
      "erĠ": 845,
      "Åļwiat": 846,
      "owaneĠ": 847,
      "ii": 848,
      "kil": 849,
      "Ã³w,Ġ": 850,
      "taĠ": 851,
      "aÅĤy": 852,
      "olitykaĊKategoria:": 853,
      "rÃ³wnie": 854,
      "iem": 855,
      "owaĠ": 856,
      "go": 857,
      "czÄħc": 858,
      "tem": 859,
      "owej": 860,
      "tĠ": 861,
      "la": 862,
      "owaÅĤĠ": 863,
      "ĊĊĠ": 864,
      "lub": 865,
      "),Ġ": 866,
      "nym": 867,
      "skaĠ": 868,
      "Ġza": 869,
      "ser": 870,
      "ym": 871,
      "jedna": 872,
      "iast": 873,
      "u,Ġ": 874,
      "gen": 875,
      ",Ġw": 876,
      "Äħg": 877,
      ".Ġ19": 878,
      "rowadz": 879,
      "bra": 880,
      ",Ġjak": 881,
      "oweĠ": 882,
      "inter": 883,
      "stycz": 884,
      "rÄĻ": 885,
      "nÄħĠ": 886,
      "ust": 887,
      "zd": 888,
      "18": 889,
      "maĠ": 890,
      "nÄħ": 891,
      "cia": 892,
      "jĠ": 893,
      "16": 894,
      "aÄĩĠ": 895,
      "D)": 896,
      "px|": 897,
      "och": 898,
      "ur.Ġ19": 899,
      ":00": 900,
      "aleĠ": 901,
      "zeĠ": 902,
      "jekt": 903,
      "waĠ": 904,
      "aÅ¼": 905,
      "rug": 906,
      "17": 907,
      "WD)": 908,
      "kan": 909,
      "Kon": 910,
      "nikaĠ": 911,
      "spot": 912,
      "orz": 913,
      "ory": 914,
      "ing": 915,
      "Ċthumb|": 916,
      "niĠ": 917,
      "arty": 918,
      ",ĠktÃ³reĠ": 919,
      "aczy": 920,
      "Ġwyd": 921,
      "kaz": 922,
      "trze": 923,
      "takÅ¼eĠ": 924,
      "aĠprze": 925,
      "ĠzostaÅĤ": 926,
      ".ĠM": 927,
      "raz": 928,
      "osob": 929,
      "obec": 930,
      "Ġpoz": 931,
      "wat": 932,
      "niÄĻ": 933,
      "wiet": 934,
      "chodz": 935,
      "moÅ¼": 936,
      "ans": 937,
      "skiej": 938,
      "nego": 939,
      "cki": 940,
      "oÅ¼": 941,
      "ĊKategoria:ArchiwalneĊ": 942,
      "odby": 943,
      "edy": 944,
      "wiad": 945,
      "arzy": 946,
      "uÅ¼y": 947,
      "aÅĤoĠ": 948,
      "tyĠ": 949,
      "zent": 950,
      "niu": 951,
      "ta": 952,
      ".ĠS": 953,
      "ÅĦĠ": 954,
      "jiĠ": 955,
      "Ã³l": 956,
      "nĠ": 957,
      "onad": 958,
      "skiego": 959,
      "bardz": 960,
      "ĠwiÄĻ": 961,
      "ciaĠ": 962,
      "sÄħĠ": 963,
      "czeÅĦstw": 964,
      "wan": 965,
      ",ĠktÃ³ryĠ": 966,
      "nÄĻ": 967,
      "bli": 968,
      "unk": 969,
      ",Ġz": 970,
      "gl": 971,
      "min": 972,
      "Pi": 973,
      "obie": 974,
      "niejĠ": 975,
      "siÄĻĠwĠ": 976,
      "owegoĠ": 977,
      "rac": 978,
      "bud": 979,
      "Ġwie": 980,
      "enĠ": 981,
      "nika": 982,
      "skiegoĠ": 983,
      "cjal": 984,
      "kraj": 985,
      "oraz": 986,
      "ĠĠĠĠ": 987,
      ".ĊĊĠ": 988,
      "oÅĤoĠ": 989,
      "ostat": 990,
      "awi": 991,
      "rat": 992,
      "rĠ": 993,
      ".ĠK": 994,
      "aÄĩ": 995,
      "lam": 996,
      "ĠzaĠ": 997,
      "fer": 998,
      "cĠ": 999,
      "kier": 1000,
      "owymĠ": 1001,
      "Ġzd": 1002,
      "kolej": 1003,
      "dniaĠ": 1004,
      "minist": 1005,
      ".ĠR": 1006,
      "1Ġ": 1007,
      "SA": 1008,
      "stop": 1009,
      "oĠz": 1010,
      "eli": 1011,
      "god": 1012,
      "czasĠ": 1013,
      "Ġwiel": 1014,
      "Ġpolity": 1015,
      "au": 1016,
      "owanieĠ": 1017,
      "ÄĻd": 1018,
      "aĠwy": 1019,
      "und": 1020,
      "rol": 1021,
      "tejĠ": 1022,
      "ecz": 1023,
      "caÅĤ": 1024,
      "oÅĦ": 1025,
      "noÅĽci": 1026,
      "noÅĽciĠ": 1027,
      "czeÅĽ": 1028,
      "jegoĠ": 1029,
      "ciÄĻ": 1030,
      "Ġzak": 1031,
      "gi": 1032,
      "muĠ": 1033,
      "omi": 1034,
      "2007": 1035,
      "zeniaĠ": 1036,
      "pl": 1037,
      "Ġwoj": 1038,
      "aĠK": 1039,
      "ĊĠĊĠ": 1040,
      "reÅĽ": 1041,
      "res": 1042,
      "ÅĤÄħ": 1043,
      "Rad": 1044,
      "oÅĽÄĩĠ": 1045,
      "mog": 1046,
      "ari": 1047,
      ".ĠB": 1048,
      "Ġwszyst": 1049,
      "der": 1050,
      "skie": 1051,
      "ĊĊĠÅ¹rÃ³dÅĤaĠĊĠ": 1052,
      "cent": 1053,
      "godzin": 1054,
      "zap": 1055,
      "Pols": 1056,
      "edÅĤug": 1057,
      "zn": 1058,
      "kÃ³w": 1059,
      "Fran": 1060,
      "30": 1061,
      "czerw": 1062,
      "tym": 1063,
      "dziaÅĤĠ": 1064,
      "ht": 1065,
      ",Ġg": 1066,
      "jaĠ": 1067,
      "tegoĠ": 1068,
      "szyĠ": 1069,
      "Ġprezydent": 1070,
      "Ġprac": 1071,
      "ajÄħ": 1072,
      "ĊW": 1073,
      "ĠW": 1074,
      "Ġpubli": 1075,
      "ied": 1076,
      "acjaĠ": 1077,
      "zie": 1078,
      "24": 1079,
      "yt": 1080,
      "maÅĤy": 1081,
      ".in": 1082,
      ".ĊĊN": 1083,
      "tyl": 1084,
      "lok": 1085,
      "rzÄħd": 1086,
      "ÅĽrod": 1087,
      "anyĠ": 1088,
      "waÅ¼": 1089,
      "aneĠ": 1090,
      "stÄħ": 1091,
      "nicz": 1092,
      "organiz": 1093,
      "grup": 1094,
      "oneĠ": 1095,
      "ostÄĻp": 1096,
      "rÃ³Å¼": 1097,
      "olog": 1098,
      "ĊKategoria:K": 1099,
      "2Ġ": 1100,
      "tych": 1101,
      "yĠwĠ": 1102,
      "cer": 1103,
      "ers": 1104,
      "umĠ": 1105,
      "nieĠwy": 1106,
      "Ġmar": 1107,
      "5Ġ": 1108,
      "acji": 1109,
      "nad": 1110,
      "Ros": 1111,
      "2023": 1112,
      "ierdzi": 1113,
      "teÅ¼Ġ": 1114,
      "raĠ": 1115,
      "owaÄĩĠ": 1116,
      "las": 1117,
      "swoj": 1118,
      "omĠ": 1119,
      "sÅĤaw": 1120,
      "ĠT": 1121,
      "Ġpoinform": 1122,
      "sÄħ": 1123,
      "And": 1124,
      "decy": 1125,
      "noĠ": 1126,
      "owisk": 1127,
      ".ĊĠ": 1128,
      "Ġprojekt": 1129,
      "fin": 1130,
      "ped": 1131,
      "kÃ³wĠ": 1132,
      "nikĠ": 1133,
      "Sz": 1134,
      "ĊKategoria:PolskaĊKategoria:": 1135,
      "dzier": 1136,
      "imĠ": 1137,
      ".ĊĊWĠ": 1138,
      "asz": 1139,
      "bo": 1140,
      "iĠz": 1141,
      "cznej": 1142,
      "nat": 1143,
      "Ġpor": 1144,
      "spod": 1145,
      "uka": 1146,
      "miejsc": 1147,
      "war": 1148,
      "Ġpar": 1149,
      "obacz": 1150,
      "aÅĤyĠ": 1151,
      "Ġwp": 1152,
      "bÄĻdÄħĠ": 1153,
      "Ġ-Ġ": 1154,
      "Europej": 1155,
      "Ġzost": 1156,
      "Ġpi": 1157,
      "ciÄħg": 1158,
      "ram": 1159,
      "czÅĤ": 1160,
      "dop": 1161,
      "Åºdzier": 1162,
      "cjÄĻ": 1163,
      "Al": 1164,
      "Ġmaj": 1165,
      "ich": 1166,
      "maÅĤy|": 1167,
      "osi": 1168,
      "ĠD": 1169,
      "jedno": 1170,
      "net": 1171,
      "ĠC": 1172,
      "ozna": 1173,
      "siÄĻĠnaĠ": 1174,
      "Uni": 1175,
      "jaz": 1176,
      "II": 1177,
      "cel": 1178,
      "Wikiped": 1179,
      "cznejĠ": 1180,
      "ĠpaÅºdzier": 1181,
      "fil": 1182,
      "ĠwÅĤa": 1183,
      "onoĠ": 1184,
      "lep": 1185,
      "spoÅĤe": 1186,
      "uzy": 1187,
      "okoÅĤoĠ": 1188,
      "oc": 1189,
      "watel": 1190,
      ",Ġpo": 1191,
      "korzy": 1192,
      "ĠprzyĠ": 1193,
      "onyĠ": 1194,
      "3Ġ": 1195,
      "szt": 1196,
      "aĠP": 1197,
      "ktor": 1198,
      "odpowie": 1199,
      "byÅĤ": 1200,
      "8Ġ": 1201,
      "narod": 1202,
      "kra": 1203,
      "byÅĤĠ": 1204,
      "rog": 1205,
      "szÅĤoĠ": 1206,
      "Jan": 1207,
      ".ĊĊZ": 1208,
      "oje": 1209,
      "rezydent": 1210,
      "ks": 1211,
      "iesz": 1212,
      "ogra": 1213,
      "czÄĻÅĽ": 1214,
      "miast": 1215,
      "Ġprzez": 1216,
      "juÅ¼": 1217,
      "ujÄħĠ": 1218,
      "nale": 1219,
      "ÅĦskiĠ": 1220,
      "bro": 1221,
      "y,Ġ": 1222,
      "czneĠ": 1223,
      "rodz": 1224,
      "anoĠ": 1225,
      "ĠtoĠ": 1226,
      "miÄĻdz": 1227,
      "onadĠ": 1228,
      "ucze": 1229,
      "Ġprzedstaw": 1230,
      "rÃ³wnieÅ¼": 1231,
      "Ġzaw": 1232,
      "ryw": 1233,
      "Ġkwiet": 1234,
      "owaÄĩ": 1235,
      "ĠâĢĵĠ": 1236,
      "ĠwĠPols": 1237,
      "feren": 1238,
      "spe": 1239,
      "yĠiĠ": 1240,
      "Å»": 1241,
      "rzeÅĽ": 1242,
      "ocz": 1243,
      "mÃ³w": 1244,
      "byÅĤaĠ": 1245,
      "onaĠ": 1246,
      "uÅ¼Ġ": 1247,
      "ierp": 1248,
      "o-": 1249,
      "obro": 1250,
      "lÄħ": 1251,
      "bie": 1252,
      "cin": 1253,
      "wiÄĻk": 1254,
      "tele": 1255,
      "ciw": 1256,
      "ĊKategoria:T": 1257,
      "tar": 1258,
      "zaĠ": 1259,
      "cjÄĻĠ": 1260,
      "bu": 1261,
      "owanie": 1262,
      "prze": 1263,
      "ÄħdĠ": 1264,
      "ĠN": 1265,
      "Inter": 1266,
      "nau": 1267,
      "reg": 1268,
      "tyw": 1269,
      "onal": 1270,
      "tek": 1271,
      "Ã³d": 1272,
      "trz": 1273,
      "byÅĤoĠ": 1274,
      "spodar": 1275,
      "one": 1276,
      "waj": 1277,
      "oka": 1278,
      "Re": 1279,
      "strze": 1280,
      "got": 1281,
      ".ĊĊD": 1282,
      "uĠz": 1283,
      "ĠwrzeÅĽ": 1284,
      ",ĠaleĠ": 1285,
      "let": 1286,
      "spotka": 1287,
      "uli": 1288,
      "najd": 1289,
      "6Ġ": 1290,
      "teÅ¼": 1291,
      "zesp": 1292,
      "kÄĻ": 1293,
      "ÅĽmier": 1294,
      "doty": 1295,
      "szychĠ": 1296,
      "ultur": 1297,
      "owego": 1298,
      "amĠ": 1299,
      "ĠwspÃ³ÅĤ": 1300,
      "aĊ": 1301,
      "tuĠ": 1302,
      "bad": 1303,
      "sport": 1304,
      "ic": 1305,
      "uĠwĠ": 1306,
      ".ĊĊO": 1307,
      "nastÄĻp": 1308,
      "ÅĦc": 1309,
      "kry": 1310,
      "Minist": 1311,
      "Ġpowod": 1312,
      "Am": 1313,
      "teĠ": 1314,
      "ir": 1315,
      "27": 1316,
      "osk": 1317,
      "strz": 1318,
      "ĊKategoria:N": 1319,
      "Ġprogra": 1320,
      "atrzym": 1321,
      ":ĊĠ": 1322,
      "uje": 1323,
      "nicyĠ": 1324,
      "onĠ": 1325,
      "ustaw": 1326,
      "daĠ": 1327,
      "styczniaĠ": 1328,
      "rowadzi": 1329,
      "leg": 1330,
      "Ġpart": 1331,
      "PolitykaĊKategoria:": 1332,
      "Cz": 1333,
      ".0": 1334,
      "jakoĠ": 1335,
      "lot": 1336,
      "ĠpaÅĦstw": 1337,
      "szk": 1338,
      "ght": 1339,
      ".ĠNaĠ": 1340,
      "juÅ¼Ġ": 1341,
      "bezpie": 1342,
      "skaz": 1343,
      "owiĠ": 1344,
      "it": 1345,
      "Kom": 1346,
      "Ġplan": 1347,
      "Ġzam": 1348,
      "jeszcze": 1349,
      "skichĠ": 1350,
      "dok": 1351,
      "ang": 1352,
      "stopad": 1353,
      "licz": 1354,
      "godzi": 1355,
      "ral": 1356,
      "udziaÅĤ": 1357,
      "szeĠ": 1358,
      ")Ċ": 1359,
      "wicz": 1360,
      "ÅĽwiat": 1361,
      "ĠkwietniaĠ": 1362,
      "Ġlip": 1363,
      "ktÃ³": 1364,
      "osÅĤaw": 1365,
      "rozpo": 1366,
      "stra": 1367,
      "drug": 1368,
      "otrzym": 1369,
      "ety": 1370,
      "owaÅĤaĠ": 1371,
      "cen": 1372,
      "test": 1373,
      "ja": 1374,
      "Ġroz": 1375,
      "grudniaĠ": 1376,
      "jednakĠ": 1377,
      "miaÅĤ": 1378,
      "prezent": 1379,
      "Praw": 1380,
      ".ĠA": 1381,
      "23": 1382,
      ",ĠWD)": 1383,
      "star": 1384,
      "Ġmi": 1385,
      "ian": 1386,
      "usk": 1387,
      "jÄħc": 1388,
      "kat": 1389,
      "Jak": 1390,
      "owiÄħ": 1391,
      "gÅĤÃ³w": 1392,
      "bÄĻdzie": 1393,
      "miejsceĠ": 1394,
      "Go": 1395,
      "ole": 1396,
      "0px|": 1397,
      "eryka": 1398,
      "atycz": 1399,
      "lament": 1400,
      "ĠdlaĠ": 1401,
      "Spraw": 1402,
      "ĠprzedĠ": 1403,
      "naĠw": 1404,
      ",ĠwĠktÃ³r": 1405,
      "su": 1406,
      "tylkoĠ": 1407,
      "ĠmarcaĠ": 1408,
      "ĠpiÅĤ": 1409,
      "dat": 1410,
      "zenieĠ": 1411,
      "kÅĤad": 1412,
      "fir": 1413,
      "rzecz": 1414,
      "tal": 1415,
      "ĠzwiÄħz": 1416,
      "ÄĻÅ¼": 1417,
      "ÅĽcieĠ": 1418,
      "ov": 1419,
      "9Ġ": 1420,
      "syst": 1421,
      "se": 1422,
      "nikÃ³w": 1423,
      "artyku": 1424,
      "right": 1425,
      "owym": 1426,
      "esti": 1427,
      "gro": 1428,
      "jednak": 1429,
      "Ã³ÅĤĠ": 1430,
      "skiejĠ": 1431,
      "4Ġ": 1432,
      "funk": 1433,
      "uczest": 1434,
      "tychĠ": 1435,
      "atak": 1436,
      "Å¹rÃ³d": 1437,
      "czor": 1438,
      "m.in": 1439,
      "iaĊKategoria:": 1440,
      "Ġwyni": 1441,
      "Ġlistopad": 1442,
      ".ĊĊĠÅ¹rÃ³dÅĤaĠĊĠĊĠĊĊKategoria:": 1443,
      "sytu": 1444,
      "i,Ġ": 1445,
      "owarzy": 1446,
      "ĠpaÅºdziernikaĠ": 1447,
      "ĠA": 1448,
      ".pl": 1449,
      "chod": 1450,
      "ĠmajaĠ": 1451,
      "Ġsierp": 1452,
      "lut": 1453,
      "uĠnaĠ": 1454,
      "ĠponadĠ": 1455,
      "nikÃ³wĠ": 1456,
      "praw": 1457,
      "ruch": 1458,
      "organiza": 1459,
      "wyciÄĻ": 1460,
      "Ġprzypad": 1461,
      "o,Ġ": 1462,
      "rad": 1463,
      "urz": 1464,
      "ten": 1465,
      "cjeĠ": 1466,
      "ble": 1467,
      "czeniaĠ": 1468,
      "szef": 1469,
      "Sej": 1470,
      "czerwcaĠ": 1471,
      ".Ċ": 1472,
      "22": 1473,
      "mis": 1474,
      "dyn": 1475,
      "szymĠ": 1476,
      "kw": 1477,
      "Nie": 1478,
      "ĠwĠK": 1479,
      "jÄħ": 1480,
      "etap": 1481,
      "Ã³Åº": 1482,
      "nichĠ": 1483,
      "cznieĠ": 1484,
      "Andrze": 1485,
      "temĠ": 1486,
      "Ġprzep": 1487,
      "baĠ": 1488,
      "Wikimed": 1489,
      "dw": 1490,
      "af": 1491,
      "czÅĤon": 1492,
      "ĠJ": 1493,
      "stat": 1494,
      "Ġwszystki": 1495,
      "arod": 1496,
      "bieg": 1497,
      ",ĠktÃ³raĠ": 1498,
      "Rze": 1499,
      "tram": 1500,
      "ierz": 1501,
      ",Ġp": 1502,
      "stru": 1503,
      "erg": 1504,
      "roc": 1505,
      "dzien": 1506,
      "ma": 1507,
      "siÄĻĠz": 1508,
      "nadĠ": 1509,
      "uz": 1510,
      "Cent": 1511,
      "Zjedno": 1512,
      "zyden": 1513,
      "szaĠ": 1514,
      "noc": 1515,
      "noÅ¼": 1516,
      "owanoĠ": 1517,
      "100": 1518,
      "26": 1519,
      "asad": 1520,
      "Å¼yĠ": 1521,
      "ofi": 1522,
      "godzinyĠ": 1523,
      "dow": 1524,
      "ant": 1525,
      "moÅ¼eĠ": 1526,
      "jÄħĠ": 1527,
      "kl": 1528,
      "Mich": 1529,
      "Zjednoczon": 1530,
      "tramwaj": 1531,
      "ca": 1532,
      "âĢĿĠ": 1533,
      "Pro": 1534,
      "nag": 1535,
      "owanyĠ": 1536,
      "s.Ġ": 1537,
      "nictw": 1538,
      "zostaÅĤ": 1539,
      "ÅĤat": 1540,
      "owieĠ": 1541,
      "owane": 1542,
      "skieĠ": 1543,
      "ĊKategoria:M": 1544,
      "Ġwyb": 1545,
      "ĠF": 1546,
      "\"Ġ-": 1547,
      "rowad": 1548,
      "ÄĻÅ¼czy": 1549,
      "cznych": 1550,
      "ment": 1551,
      "av": 1552,
      "stytu": 1553,
      "ft": 1554,
      "omiast": 1555,
      "byÅĤyĠ": 1556,
      "rÃ³wnieÅ¼Ġ": 1557,
      "gin": 1558,
      "ska": 1559,
      "zjiĠ": 1560,
      "EuropaĊKategoria:": 1561,
      "otw": 1562,
      "Ġtak": 1563,
      "iĠw": 1564,
      "anaĠ": 1565,
      "aÅĦ": 1566,
      "dom": 1567,
      "Ġpremier": 1568,
      "dziĠ": 1569,
      "Op": 1570,
      "ĊĊĠÅ¹rÃ³dÅĤaĠĊĠĊĊKategoria:": 1571,
      "den": 1572,
      "wag": 1573,
      "ĠwrzeÅĽniaĠ": 1574,
      "odzie": 1575,
      "finans": 1576,
      "ÅĽcig": 1577,
      "ument": 1578,
      "Ã³wĠiĠ": 1579,
      "rumĠ": 1580,
      "Äħ,Ġ": 1581,
      "rokuĠ": 1582,
      ")ĊĠ": 1583,
      "stÄħpi": 1584,
      "sob": 1585,
      ".ĠG": 1586,
      "byÄĩĠ": 1587,
      "dem": 1588,
      "21": 1589,
      "abyĠ": 1590,
      "miesz": 1591,
      "czne": 1592,
      "Sport": 1593,
      "dziel": 1594,
      "konkur": 1595,
      "iedliw": 1596,
      "obowiÄħ": 1597,
      "rakÃ³w": 1598,
      "Ġwal": 1599,
      "unkt": 1600,
      "rzed": 1601,
      "tech": 1602,
      "ĊKategoria:Åļwiat": 1603,
      "skich": 1604,
      "jeĠ": 1605,
      ".ĠU": 1606,
      "Or": 1607,
      "zew": 1608,
      "ameryka": 1609,
      "ony": 1610,
      "Wiel": 1611,
      "temat": 1612,
      "stos": 1613,
      "anych": 1614,
      "ĊmaÅĤy|": 1615,
      "ĊĠT": 1616,
      "Ġprzeciw": 1617,
      "nieĠw": 1618,
      "edÅĤugĠ": 1619,
      "Ġpierwsze": 1620,
      "AR": 1621,
      "atur": 1622,
      "estiwal": 1623,
      "skimĠ": 1624,
      "%Ġ": 1625,
      "ah": 1626,
      "tej": 1627,
      "naw": 1628,
      "Lin": 1629,
      "Fund": 1630,
      "ig": 1631,
      "kÄĻĠ": 1632,
      "aliz": 1633,
      "oÅĽwiad": 1634,
      "Narod": 1635,
      "woj": 1636,
      "nÄĻtrz": 1637,
      "mieni": 1638,
      "syj": 1639,
      "ĠpowiedziaÅĤ": 1640,
      "ynarod": 1641,
      "Ġml": 1642,
      "ĠsierpniaĠ": 1643,
      "system": 1644,
      "ĠlipcaĠ": 1645,
      "fika": 1646,
      "erstw": 1647,
      "kont": 1648,
      "ÅĤĠsiÄĻĠ": 1649,
      "informacj": 1650,
      "jakĠ": 1651,
      "moÅ¼liw": 1652,
      "oĠw": 1653,
      "Jar": 1654,
      "cznegoĠ": 1655,
      "swo": 1656,
      "rakowie": 1657,
      "wÃ³dz": 1658,
      "Wybor": 1659,
      "Ã©": 1660,
      "Ġpoj": 1661,
      "Woj": 1662,
      "obaczĠ": 1663,
      "PiS": 1664,
      "czeÅĽniej": 1665,
      "osz": 1666,
      "dydat": 1667,
      "komu": 1668,
      "sÅĤuÅ¼": 1669,
      "28": 1670,
      "Ukra": 1671,
      "2024ĠrokuĠ": 1672,
      "aze": 1673,
      "hist": 1674,
      "..": 1675,
      "we": 1676,
      "kiemĠ": 1677,
      "siÄĻĠdoĠ": 1678,
      "ojewÃ³dz": 1679,
      "aniemĠ": 1680,
      "czyliĠ": 1681,
      "waniaĠ": 1682,
      "pra": 1683,
      "bior": 1684,
      "iĠprze": 1685,
      "à®": 1686,
      "niez": 1687,
      "aĠnaĠ": 1688,
      "niemĠ": 1689,
      "ĠH": 1690,
      "oĠd": 1691,
      "aĠ(": 1692,
      "niem": 1693,
      "cjon": 1694,
      "ĠZ": 1695,
      "kaÅ¼": 1696,
      ",ĠcoĠ": 1697,
      "Oby": 1698,
      "onie": 1699,
      "umie": 1700,
      "Ġwykon": 1701,
      "stawie": 1702,
      "cÃ³w": 1703,
      "Ġde": 1704,
      "kin": 1705,
      "sieĠ": 1706,
      "ciuĠ": 1707,
      "kul": 1708,
      ".ĠC": 1709,
      "SpoÅĤe": 1710,
      "roku": 1711,
      "Obywatel": 1712,
      "right|": 1713,
      "byÄĩ": 1714,
      "tel": 1715,
      "iar": 1716,
      "29": 1717,
      "nia,Ġ": 1718,
      "yĠnaĠ": 1719,
      "ĠlistopadaĠ": 1720,
      "ĠzÅĤ": 1721,
      "Ġzab": 1722,
      "ĠpodĠ": 1723,
      "kreÅĽ": 1724,
      "aĠpod": 1725,
      ".ĠWy": 1726,
      "owiad": 1727,
      "ÅĽrÃ³d": 1728,
      "olej": 1729,
      "siÄħc": 1730,
      "ini": 1731,
      "WĠ": 1732,
      "Ã³j": 1733,
      "oĠwĠ": 1734,
      "arÃ³w": 1735,
      "Ġprzedstawi": 1736,
      "alĠ": 1737,
      "iemĠ": 1738,
      "nymiĠ": 1739,
      "mat": 1740,
      "szÅĤoĠdoĠ": 1741,
      "ÅĽcie": 1742,
      "takÅ¼e": 1743,
      "nieĠzostaÅĤ": 1744,
      "ĠpodczasĠ": 1745,
      "wodni": 1746,
      "Ġzag": 1747,
      "szczeg": 1748,
      "ane": 1749,
      "ÅĤÃ³w": 1750,
      "Ġmiejs": 1751,
      "aniuĠ": 1752,
      "50": 1753,
      "ierdz": 1754,
      "autor": 1755,
      "tere": 1756,
      "10Ġ": 1757,
      "owÄħĠ": 1758,
      "ina": 1759,
      "iĠwĠ": 1760,
      "iĠp": 1761,
      "Ġzmar": 1762,
      "skÅĤad": 1763,
      "lutegoĠ": 1764,
      "ĊĠĊĠĊĊKategoria:": 1765,
      "zost": 1766,
      "noÅĽÄĩĠ": 1767,
      "eksp": 1768,
      "ÅĤos": 1769,
      "moÅ¼naĠ": 1770,
      "ĠpoÅĤ": 1771,
      "Ġwydarze": 1772,
      "ÅĽwiÄĻ": 1773,
      ".ĊĊT": 1774,
      "wid": 1775,
      "trw": 1776,
      "drog": 1777,
      "Ã³ÅĤnoc": 1778,
      "Af": 1779,
      "ransport": 1780,
      "dotyczÄħc": 1781,
      "eral": 1782,
      "cznychĠ": 1783,
      ",Ġwy": 1784,
      "ĠwiÄĻk": 1785,
      "Ġwol": 1786,
      "left": 1787,
      "man": 1788,
      "7Ġ": 1789,
      "zespoÅĤ": 1790,
      "Å¼eniaĠ": 1791,
      "jazd": 1792,
      "chodziĠ": 1793,
      "kro": 1794,
      "bliÅ¼": 1795,
      "list": 1796,
      "aktor": 1797,
      "boĠ": 1798,
      "spoli": 1799,
      "nieniaĠ": 1800,
      "kÄħĠ": 1801,
      "owski": 1802,
      "ktÃ³re": 1803,
      "odob": 1804,
      "son": 1805,
      "noÅĽÄĩ": 1806,
      "Ġwskaz": 1807,
      "ÄħÅ¼": 1808,
      "nal": 1809,
      "pospoli": 1810,
      "Tusk": 1811,
      "sÅĤug": 1812,
      "ast": 1813,
      "BiaÅĤ": 1814,
      "ert": 1815,
      "zak": 1816,
      "Ġparlament": 1817,
      "ÅĽĠ": 1818,
      "a,ĠÅ¼eĠ": 1819,
      "ÅĽmyĠ": 1820,
      ".ĠJed": 1821,
      "korzyst": 1822,
      "niegoĠ": 1823,
      "razĠ": 1824,
      "komp": 1825,
      "ĠpowiedziaÅĤĠ": 1826,
      "ajeĠ": 1827,
      "uzysk": 1828,
      "miÄĻdzyĠ": 1829,
      "ozy": 1830,
      "ĠL": 1831,
      "serwi": 1832,
      "onychĠ": 1833,
      "mag": 1834,
      "ogiĠ": 1835,
      "rozm": 1836,
      ".ĊĊ\"": 1837,
      "siÄĻĠzĠ": 1838,
      "TV": 1839,
      "ĊP": 1840,
      "ary": 1841,
      "Ġwe": 1842,
      "dostÄĻp": 1843,
      "ces": 1844,
      "niÅ¼": 1845,
      "ore": 1846,
      "uĠiĠ": 1847,
      "start": 1848,
      "red": 1849,
      "aczyÅĦski": 1850,
      "be": 1851,
      "eÅĤni": 1852,
      "Ġproc": 1853,
      "niew": 1854,
      "Ġpos": 1855,
      "aÅĤo": 1856,
      "rocÅĤaw": 1857,
      "czÄħ": 1858,
      ",ĠktÃ³ry": 1859,
      "Ġprezyden": 1860,
      "latform": 1861,
      "orzÄħd": 1862,
      "nicze": 1863,
      "cje": 1864,
      "czeÅĦstwo": 1865,
      "aĠS": 1866,
      "mon": 1867,
      "Ġproble": 1868,
      "30Ġ": 1869,
      "oÅĤnie": 1870,
      "czaĠ": 1871,
      "rzysz": 1872,
      ".ĊĊKategoria:": 1873,
      "Ġprowadz": 1874,
      "Ġprzygot": 1875,
      "Ġpunkt": 1876,
      "nieĠwĠ": 1877,
      "USA": 1878,
      "jejĠ": 1879,
      "astro": 1880,
      "wer": 1881,
      "wÃ³chĠ": 1882,
      "tkow": 1883,
      "kieĠ": 1884,
      "woÅĤ": 1885,
      "ĠPol": 1886,
      "Ale": 1887,
      "ros": 1888,
      ",ĠnaĠ": 1889,
      ",Ġur.Ġ19": 1890,
      "tr": 1891,
      "Ġpozy": 1892,
      "zam": 1893,
      "odzi": 1894,
      "ÅĤaĠsiÄĻĠ": 1895,
      "szÄħĠ": 1896,
      "czyÅĤĠ": 1897,
      "zach": 1898,
      "osÃ³bĠ": 1899,
      "stwierdzi": 1900,
      "jech": 1901,
      "rzeĠ": 1902,
      "iz": 1903,
      "rÃ³b": 1904,
      "atyw": 1905,
      "ÅĽliĠ": 1906,
      "sok": 1907,
      "PolskaĠp": 1908,
      "r.Ġ": 1909,
      "SP": 1910,
      "mp": 1911,
      "wor": 1912,
      "elekt": 1913,
      "ĊKategoria:S": 1914,
      "Å¼ad": 1915,
      "udni": 1916,
      "cznyĠ": 1917,
      "iadom": 1918,
      "sku": 1919,
      "awia": 1920,
      "sprze": 1921,
      "rozryw": 1922,
      "rej": 1923,
      "dar": 1924,
      "ÄħĠwĠ": 1925,
      "mieszka": 1926,
      "Polski": 1927,
      "roni": 1928,
      "ng": 1929,
      "odat": 1930,
      "oĠwy": 1931,
      "saĠ": 1932,
      "ĠÅ¹rÃ³dÅĤoĠ": 1933,
      "pital": 1934,
      "ĊĠP": 1935,
      "ÅļlÄħ": 1936,
      "met": 1937,
      "our": 1938,
      "ok.Ġ": 1939,
      "199": 1940,
      "ÄĻdzi": 1941,
      "ruÅ¼y": 1942,
      "Ã³wĠwĠ": 1943,
      "Bar": 1944,
      "gor": 1945,
      "ial": 1946,
      "ryĠ": 1947,
      "ji": 1948,
      "wol": 1949,
      "ĠpoinformowaÅĤ": 1950,
      "autom": 1951,
      "konferen": 1952,
      "rud": 1953,
      "sprawieĠ": 1954,
      "ginÄĻ": 1955,
      "S-": 1956,
      "jedy": 1957,
      "Inform": 1958,
      "nieĠprze": 1959,
      "JarosÅĤaw": 1960,
      "internet": 1961,
      "ÅĤ,ĠÅ¼eĠ": 1962,
      "owany": 1963,
      "mieĠ": 1964,
      "tekĠ": 1965,
      "mecz": 1966,
      "tego": 1967,
      "org": 1968,
      "czyst": 1969,
      "Cze": 1970,
      "wia": 1971,
      "spotk": 1972,
      "tysiÄĻ": 1973,
      "ber": 1974,
      "omasz": 1975,
      "2025Ġroku": 1976,
      "pp": 1977,
      "decyd": 1978,
      "dziennik": 1979,
      "Dzie": 1980,
      "ocze": 1981,
      "kiewicz": 1982,
      "m,Ġ": 1983,
      "nios": 1984,
      "samoch": 1985,
      "dal": 1986,
      "reprezent": 1987,
      ",5": 1988,
      "Ġmin": 1989,
      "PolskiĠ": 1990,
      "danych": 1991,
      "niczy": 1992,
      "odbÄĻdzieĠ": 1993,
      "kandydat": 1994,
      "PO": 1995,
      "nie,Ġ": 1996,
      ".Ġ\"": 1997,
      "oru": 1998,
      "ciel": 1999,
      "Te": 2000,
      ",Ġ,Ġ": 2001,
      "ĠwĠp": 2002,
      ".ĠI": 2003,
      "ura": 2004,
      "osoby": 2005,
      "cznego": 2006,
      "opolsk": 2007,
      "godzinieĠ": 2008,
      "ĠO": 2009,
      "lac": 2010,
      "godz.Ġ": 2011,
      ",ĠktÃ³rzyĠ": 2012,
      "Ġmo": 2013,
      ".ĊĊS": 2014,
      "spÃ³ÅĤ": 2015,
      "ktur": 2016,
      "ÅĦskiego": 2017,
      "koÅĦ": 2018,
      "nawet": 2019,
      ".ĠJak": 2020,
      "owod": 2021,
      "port": 2022,
      "owaliĠ": 2023,
      "left|": 2024,
      "cu": 2025,
      "gener": 2026,
      "oficjal": 2027,
      "rup": 2028,
      "ace": 2029,
      "ĠmoÅ¼": 2030,
      "sek": 2031,
      "ÅĦskiegoĠ": 2032,
      "ulturaĠiĠ": 2033,
      "250px|": 2034,
      "stanowi": 2035,
      "Å¼oÅĤnie": 2036,
      "kinew": 2037,
      "Bi": 2038,
      "2022": 2039,
      "2026": 2040,
      "any": 2041,
      "Gospodar": 2042,
      "sta": 2043,
      "mniej": 2044,
      "ekrol": 2045,
      "ulturaĠiĠrozryw": 2046,
      "czenieĠ": 2047,
      "SpoÅĤeczeÅĦstwo": 2048,
      "dob": 2049,
      "koncer": 2050,
      "ekrologiĠ": 2051,
      "ÅĽmierci": 2052,
      "aĠM": 2053,
      "ĠwĠPolsceĠ": 2054,
      "owanych": 2055,
      "szegoĠ": 2056,
      "dzis": 2057,
      "ron": 2058,
      "ÅĤas": 2059,
      "00Ġ": 2060,
      "onych": 2061,
      "pozy": 2062,
      "2008": 2063,
      "miejsce": 2064,
      "Ry": 2065,
      "-let": 2066,
      "zi": 2067,
      "najwiÄĻk": 2068,
      "rogra": 2069,
      "chc": 2070,
      "bezpieczeÅĦstw": 2071,
      "ÅĤod": 2072,
      "qu": 2073,
      "ytanieĠ": 2074,
      "uni": 2075,
      "zaw": 2076,
      "waÅĤ": 2077,
      "cÃ³wĠ": 2078,
      "oĠiĠ": 2079,
      "rael": 2080,
      "waÄĩĠ": 2081,
      "daw": 2082,
      "Jo": 2083,
      "ÅĤĠwĠ": 2084,
      "me": 2085,
      "Ġpodczas": 2086,
      "lokal": 2087,
      "ZobaczĠ": 2088,
      "niep": 2089,
      "Ġdy": 2090,
      "lasy": 2091,
      "ĠnieĠ": 2092,
      "2025ĠrokuĠ": 2093,
      "PolskaĠ": 2094,
      "szcz": 2095,
      "Ġpodpis": 2096,
      "rektor": 2097,
      "ryty": 2098,
      "obowiÄħz": 2099,
      "hi": 2100,
      "bram": 2101,
      "mal": 2102,
      "ĠwyÅĽcig": 2103,
      "ÄĻg": 2104,
      "wyÅ¼": 2105,
      "ujÄħceĠ": 2106,
      "ĠzÅĤo": 2107,
      "20Ġ": 2108,
      "Sprawiedliw": 2109,
      "owarzysze": 2110,
      "kilkaĠ": 2111,
      "aÅĦstw": 2112,
      "kaĠnoÅ¼": 2113,
      "jÄĻzy": 2114,
      ".ĊĊK": 2115,
      "czoraj": 2116,
      "automatycz": 2117,
      ".ĠSt": 2118,
      "40": 2119,
      "owanychĠ": 2120,
      "Wikinew": 2121,
      "ĠwĠPolsce": 2122,
      "ulturaĠiĠrozrywkaĊKategoria:": 2123,
      "orzy": 2124,
      ".ĠPod": 2125,
      "Ġpomo": 2126,
      "Ed": 2127,
      "eb": 2128,
      "komis": 2129,
      "ref": 2130,
      "Prezydent": 2131,
      "Å¹rÃ³dÅĤaĠ": 2132,
      "prac": 2133,
      "sch": 2134,
      "Ġpotw": 2135,
      "aĠprzezĠ": 2136,
      "robi": 2137,
      "Donal": 2138,
      "ĊKategoria:U": 2139,
      "glÄĻd": 2140,
      ":ĊĊ": 2141,
      "Ġpoprze": 2142,
      "oĠp": 2143,
      "oty": 2144,
      "rek": 2145,
      "ĠwiÄĻc": 2146,
      "Ġ(WD)": 2147,
      "stanieĠ": 2148,
      "mus": 2149,
      "bardzoĠ": 2150,
      "CentrumĠ": 2151,
      "Ġpracow": 2152,
      "owÄħ": 2153,
      "yĠzĠ": 2154,
      "tof": 2155,
      "anychĠ": 2156,
      "Ministerstw": 2157,
      "rory": 2158,
      "ki,Ġ": 2159,
      "Niem": 2160,
      "szyb": 2161,
      "rop": 2162,
      "redni": 2163,
      "szczy": 2164,
      "rozpoczÄĻ": 2165,
      "opubli": 2166,
      "gnie": 2167,
      ".5": 2168,
      "are": 2169,
      "ĠpowoduĠ": 2170,
      "Ġ(ur.Ġ19": 2171,
      "wali": 2172,
      "ĠpodkreÅĽ": 2173,
      "ariusz": 2174,
      "Ġwojsk": 2175,
      "uÅ¼ytkow": 2176,
      "rodu": 2177,
      ".ĠNie": 2178,
      "czyn": 2179,
      "Ġpowst": 2180,
      "zestawie": 2181,
      "wo": 2182,
      "rzysztof": 2183,
      "aĠzostaÅĤ": 2184,
      "2009": 2185,
      "ĠmÃ³w": 2186,
      "kole": 2187,
      "lar": 2188,
      "ĠwĠtymĠ": 2189,
      "unkuĠ": 2190,
      "Pod": 2191,
      "apie": 2192,
      "ÄĻ,Ġ": 2193,
      ":0": 2194,
      "ĠzostaÅĤĠ": 2195,
      "specjal": 2196,
      "aĠB": 2197,
      "31": 2198,
      "ajÄħcĠ": 2199,
      "ostaÅĤĠ": 2200,
      "cjaĊKategoria:": 2201,
      "natomiast": 2202,
      "-2": 2203,
      "Co": 2204,
      "skim": 2205,
      "zacjiĠ": 2206,
      "lek": 2207,
      "muzy": 2208,
      "2005": 2209,
      "ucie": 2210,
      "szpital": 2211,
      "Ã³wĠnaĠ": 2212,
      "stanowisk": 2213,
      "ÅĽl": 2214,
      "ÅĤuÅ¼": 2215,
      "Ã³dz": 2216,
      "ejm": 2217,
      "Äħdz": 2218,
      "decyzj": 2219,
      "lubĠ": 2220,
      "VI": 2221,
      "szczegÃ³l": 2222,
      "ramachĠ": 2223,
      "ruchuĠ": 2224,
      "ÅĽwiad": 2225,
      "LechĠ": 2226,
      "nimĠ": 2227,
      "nieĠzostaÅĤoĠ": 2228,
      "ĠwĠWarszaw": 2229,
      "rÄĻg": 2230,
      "dl": 2231,
      "sÄħd": 2232,
      "ont": 2233,
      "ÅĽle": 2234,
      "iÅĤĠ": 2235,
      "mod": 2236,
      "rÃ³ci": 2237,
      "uÅĤ": 2238,
      "ryt": 2239,
      "wen": 2240,
      "Polska": 2241,
      "ĠwĠP": 2242,
      "byÅĤy": 2243,
      "Wol": 2244,
      "eÅĤĠ": 2245,
      "Kar": 2246,
      "Rob": 2247,
      "okr": 2248,
      "kach": 2249,
      ".ĠĊĊĠÅ¹rÃ³dÅĤaĠĊĠ": 2250,
      "Ob": 2251,
      "Ġprzej": 2252,
      "uwaÅ¼": 2253,
      "ade": 2254,
      "czny": 2255,
      "Amery": 2256,
      "wodniczÄħc": 2257,
      "latĠ": 2258,
      "2021": 2259,
      "Je": 2260,
      "uĠw": 2261,
      "czej": 2262,
      "not": 2263,
      "NA": 2264,
      "histor": 2265,
      "Ad": 2266,
      "Ġwygra": 2267,
      "ZobaczĠteÅ¼Ġ": 2268,
      "najlep": 2269,
      "jedn": 2270,
      "ual": 2271,
      "lo": 2272,
      "oÅĦczy": 2273,
      "telewi": 2274,
      "Wypad": 2275,
      "ania": 2276,
      ".ĠPrze": 2277,
      "ĠÅģ": 2278,
      "opie": 2279,
      "ologi": 2280,
      "kobie": 2281,
      "tys.Ġ": 2282,
      "Ġznajd": 2283,
      "owaÅĤoĠ": 2284,
      "szych": 2285,
      "por": 2286,
      "35": 2287,
      "rÃ³t": 2288,
      "cznÄħĠ": 2289,
      "Iz": 2290,
      "Ġzmia": 2291,
      "festiwal": 2292,
      "automatycznieĠwy": 2293,
      "aĠprzy": 2294,
      "uc": 2295,
      "szÅĤ": 2296,
      "ÅĽciĠ": 2297,
      "iÄĻkiĠ": 2298,
      "cja": 2299,
      "zatrzym": 2300,
      "interes": 2301,
      "dopodob": 2302,
      "ton": 2303,
      "Ok": 2304,
      "automatycznieĠwygener": 2305,
      "nrĠ": 2306,
      "serw": 2307,
      "innychĠ": 2308,
      "gospodar": 2309,
      "oĠzestawie": 2310,
      "czypospoli": 2311,
      "ÄĻt": 2312,
      "siÄĻĠw": 2313,
      "oĠzestawienieĠzostaÅĤoĠ": 2314,
      "oĠzestawienieĠzostaÅĤoĠautomatycznieĠwygener": 2315,
      "dost": 2316,
      "aĠG": 2317,
      "fli": 2318,
      "PolitykaĊKategoria:PolskaĊKategoria:": 2319,
      "ĊKategoria:St": 2320,
      "ĊKategoria:NekrologiĠ": 2321,
      "bieĠ": 2322,
      ",ĠjakoĠ": 2323,
      "Cy": 2324,
      "chy": 2325,
      "ĠwÅĤadz": 2326,
      "owiec": 2327,
      "land": 2328,
      "m.in.Ġ": 2329,
      "funkcjon": 2330,
      "ciÄħguĠ": 2331,
      "ĠorazĠ": 2332,
      "Sam": 2333,
      "anyĠZjednoczon": 2334,
      "WÅĤo": 2335,
      "pro": 2336,
      "Th": 2337,
      "2010": 2338,
      "cznaĠ": 2339,
      "Ġpopar": 2340,
      "zm": 2341,
      "rakie": 2342,
      "iĠwy": 2343,
      "nagrod": 2344,
      "glÄħd": 2345,
      "Rosj": 2346,
      "acjeĠ": 2347,
      "typ": 2348,
      "godni": 2349,
      "wersy": 2350,
      "ÅĽwie": 2351,
      "id": 2352,
      "Ã³Åºniej": 2353,
      "ĊKategoria:PolitykaĊKategoria:": 2354,
      "acyj": 2355,
      "ĠÅļ": 2356,
      "ĊĊĠÅ¹rÃ³dÅĤoĠ": 2357,
      "PolskaĠpolitykaĊKategoria:": 2358,
      "arg": 2359,
      "ĠE": 2360,
      "sied": 2361,
      "Od": 2362,
      "ult": 2363,
      "WrocÅĤaw": 2364,
      "lÄħd": 2365,
      "Ġwypad": 2366,
      "wersyte": 2367,
      "sen": 2368,
      "osiÄħg": 2369,
      "okoÅĤoĠgodzinyĠ": 2370,
      "nadz": 2371,
      "yĠdoĠ": 2372,
      "omet": 2373,
      "ÅĤow": 2374,
      "roĠ": 2375,
      "kniÄĻ": 2376,
      "zewnÄĻtrz": 2377,
      "zapowie": 2378,
      "kierow": 2379,
      "cji,Ġ": 2380,
      "ajm": 2381,
      ".ĠToĠ": 2382,
      "Stan": 2383,
      "usze": 2384,
      "rosyj": 2385,
      "aleÅ¼": 2386,
      "k,Ġ": 2387,
      "aby": 2388,
      "spoÅĤeczn": 2389,
      "nieĠp": 2390,
      "bel": 2391,
      "tenĠ": 2392,
      "owicz": 2393,
      "kuratur": 2394,
      "sprawie": 2395,
      "45": 2396,
      "300": 2397,
      "Prze": 2398,
      "Ġmet": 2399,
      "stÄĻpcz": 2400,
      ".ĠDoĠ": 2401,
      "Ġpodob": 2402,
      "Ġmili": 2403,
      "owaneĠzĠ": 2404,
      "nikiĠ": 2405,
      "15Ġ": 2406,
      "ĠmaĠ": 2407,
      "ÄħĠz": 2408,
      "Ġpojawi": 2409,
      "ĠwspÃ³l": 2410,
      "end": 2411,
      "tam": 2412,
      "Ġpracy": 2413,
      "iÄĻdzynarod": 2414,
      "jej": 2415,
      "nazw": 2416,
      "r.": 2417,
      "ĠwczeÅĽniej": 2418,
      "okreÅĽ": 2419,
      "majÄħĠ": 2420,
      ".ĊĊM": 2421,
      "owaniuĠ": 2422,
      "czasieĠ": 2423,
      "gÃ³r": 2424,
      "mniejĠ": 2425,
      "obywatel": 2426,
      ",ĠwĠtymĠ": 2427,
      "Aust": 2428,
      "fra": 2429,
      "Katowi": 2430,
      "stanie": 2431,
      "remier": 2432,
      ".ĠLi": 2433,
      "ka,Ġ": 2434,
      "wil": 2435,
      "ĠwzglÄĻd": 2436,
      "stronyĠ": 2437,
      "osmi": 2438,
      "strzost": 2439,
      ".ĠJest": 2440,
      "PK": 2441,
      "Ġpowin": 2442,
      "iÅĤkaĠnoÅ¼": 2443,
      "ĠzwiÄħzku": 2444,
      "ĠwpÅĤy": 2445,
      "QL": 2446,
      "aĠdoĠ": 2447,
      "komunika": 2448,
      "cjÄħĠ": 2449,
      "2006": 2450,
      "UE": 2451,
      "szp": 2452,
      "stron": 2453,
      "36": 2454,
      "amiÄĻ": 2455,
      "samochod": 2456,
      "nicy": 2457,
      "iÄĻk": 2458,
      "oĠgodzinieĠ": 2459,
      "aĠzĠ": 2460,
      "Wikinews": 2461,
      "Ġpocz": 2462,
      "GospodarkaĊKategoria:": 2463,
      "moĠ": 2464,
      "Komis": 2465,
      "szar": 2466,
      "tut": 2467,
      ")ĊĊ": 2468,
      "nieĠzĠ": 2469,
      "Ġmie": 2470,
      "yst": 2471,
      "kachĠ": 2472,
      "ksand": 2473,
      "Ġpol": 2474,
      "jeden": 2475,
      "napis": 2476,
      "ĠSz": 2477,
      "Ġzarz": 2478,
      "co": 2479,
      "ucz": 2480,
      "ĠwÅĤaÅĽ": 2481,
      "ular": 2482,
      "dwÃ³chĠ": 2483,
      "czypospolitejĠ": 2484,
      "dziaÅĤaniaĠ": 2485,
      "Par": 2486,
      "Polak": 2487,
      "2012": 2488,
      "Internet": 2489,
      "SPAR": 2490,
      "owiat": 2491,
      "ktÃ³rychĠ": 2492,
      "daÅĦsk": 2493,
      "stuĠ": 2494,
      "Wikidanych": 2495,
      "uchĠ": 2496,
      "ojewÃ³dztw": 2497,
      "ĠdoszÅĤoĠdoĠ": 2498,
      "tysiÄĻcyĠ": 2499,
      ".ĠZobacz": 2500,
      "kip": 2501,
      "ĊĊĠÅ¹rÃ³dÅĤoĠĊĠT": 2502,
      "licaĠ": 2503,
      "ĠzapytanieĠ": 2504,
      ".ĠPoĠ": 2505,
      "SPARQL": 2506,
      "kÄħ": 2507,
      "Wikipedii": 2508,
      "jego": 2509,
      "bezp": 2510,
      "trafi": 2511,
      "Ġzmarli": 2512,
      "TO": 2513,
      "ĊĊĠÅ¹rÃ³dÅĤoĠĊĠToĠzestawienieĠzostaÅĤoĠautomatycznieĠwygener": 2514,
      "ĊĊĠÅ¹rÃ³dÅĤoĠĊĠToĠzestawienieĠzostaÅĤoĠautomatycznieĠwygenerowaneĠzĠ": 2515,
      "ĊĊĠÅ¹rÃ³dÅĤoĠĊĠToĠzestawienieĠzostaÅĤoĠautomatycznieĠwygenerowaneĠzĠWikidanych": 2516,
      "ĊĊĠÅ¹rÃ³dÅĤoĠĊĠToĠzestawienieĠzostaÅĤoĠautomatycznieĠwygenerowaneĠzĠWikidanych.ĠZobacz": 2517,
      "ĊĊĠÅ¹rÃ³dÅĤoĠĊĠToĠzestawienieĠzostaÅĤoĠautomatycznieĠwygenerowaneĠzĠWikidanych.ĠZobaczĠzapytanieĠ": 2518,
      "ĊĊĠÅ¹rÃ³dÅĤoĠĊĠToĠzestawienieĠzostaÅĤoĠautomatycznieĠwygenerowaneĠzĠWikidanych.ĠZobaczĠzapytanieĠSPARQL": 2519,
      "ĊĊĠÅ¹rÃ³dÅĤoĠĊĠToĠzestawienieĠzostaÅĤoĠautomatycznieĠwygenerowaneĠzĠWikidanych.ĠZobaczĠzapytanieĠSPARQL.ĊĊKategoria:": 2520,
      "ArchiwalneĊKategoria:NekrologiĠ": 2521,
      "ÅĽÄĩĠ": 2522,
      "Ġpreze": 2523,
      "uwag": 2524,
      ")Ġ-Ġ": 2525,
      "ĊĊĠÅ¹rÃ³dÅĤoĠĊĠToĠzestawienieĠzostaÅĤoĠautomatycznieĠwygenerowaneĠzĠWikidanych.ĠZobaczĠzapytanieĠSPARQL.ĊĊKategoria:ArchiwalneĊKategoria:NekrologiĠ": 2526,
      "suĠ": 2527,
      "ĠdeĠ": 2528,
      "rot": 2529,
      "awie": 2530,
      "iumĠ": 2531,
      "aÅĤĠsiÄĻĠ": 2532,
      "AndrzejĠ": 2533,
      "Ġmln": 2534,
      ".ĊĊĠÅ¹rÃ³dÅĤaĠ": 2535,
      "okoli": 2536,
      "artykuÅĤ": 2537,
      "Ġpotrze": 2538,
      "Ġdrug": 2539,
      "anyĠZjednoczone": 2540,
      "scyĠ": 2541,
      "rowi": 2542,
      "oÅĤudni": 2543,
      "anĠ": 2544,
      "skaĊKategoria:": 2545,
      "naĠz": 2546,
      "ÅĤyĠsiÄĻĠ": 2547,
      ",Ġi": 2548,
      "Dem": 2549,
      "nos": 2550,
      "ÅĽÄĩ": 2551,
      "ĠwĠpo": 2552,
      "arszaÅĤ": 2553,
      "astrof": 2554,
      "spotkaniaĠ": 2555,
      "(ur.Ġ19": 2556,
      "ĠwskazanoĠ": 2557,
      "niesie": 2558,
      "Piot": 2559,
      "europ": 2560,
      "ras": 2561,
      "ay": 2562,
      "ner": 2563,
      "so": 2564,
      "bur": 2565,
      ",Ġprze": 2566,
      "szej": 2567,
      "Ġwar": 2568,
      "ajÄĻ": 2569,
      "dziaÅĤal": 2570,
      "198": 2571,
      "Ġprof": 2572,
      "czypospolitejĠPolsk": 2573,
      "broj": 2574,
      "mÃ³": 2575,
      "owaÅĤyĠ": 2576,
      "Ġwice": 2577,
      "opera": 2578,
      "stronieĠ": 2579,
      "czywi": 2580,
      "ĠwĠKrakowie": 2581,
      "ujÄħ": 2582,
      "ĊWĠ": 2583,
      "cyzj": 2584,
      "33": 2585,
      "ÄĻĠnaĠ": 2586,
      "ĠoĠ": 2587,
      "Wal": 2588,
      ",ĠjakoĠmiejsceĠ": 2589,
      "ÅĽmierciĠwskazanoĠ": 2590,
      ",ĠaĠtakÅ¼eĠ": 2591,
      "daÅ¼": 2592,
      ",ĠjakoĠmiejsceĠÅĽmierciĠwskazanoĠ": 2593,
      "flikt": 2594,
      "Ġkom": 2595,
      "cho": 2596,
      "tran": 2597,
      "ajÄħceĠ": 2598,
      "ban": 2599,
      "bezĠ": 2600,
      "informacjiĠ": 2601,
      "ÄĻĠwĠ": 2602,
      "aĠR": 2603,
      "Ġprotest": 2604,
      "eriaÅĤ": 2605,
      "zef": 2606,
      ",ĠtoĠ": 2607,
      "ÄħtkuĠ": 2608,
      "naĊKategoria:": 2609,
      "ÅĤum": 2610,
      "fak": 2611,
      ":Ġ\"": 2612,
      "ujÄħcychĠ": 2613,
      "lider": 2614,
      "uroczyst": 2615,
      "ww": 2616,
      "Naj": 2617,
      "gran": 2618,
      "niemie": 2619,
      "andat": 2620,
      "uĠP": 2621,
      "ba": 2622,
      "Ġpras": 2623,
      "ĠzostaÅĤoĠ": 2624,
      "ÅĤaĠp": 2625,
      "ÅĽrÃ³dĠ": 2626,
      ",ĠzĠ": 2627,
      "kaden": 2628,
      "Ġparlamentar": 2629,
      "twÃ³r": 2630,
      "MarekĠ": 2631,
      "Ã³dÅº": 2632,
      "autob": 2633,
      "impre": 2634,
      "dĠTusk": 2635,
      "34": 2636,
      "szu": 2637,
      "aktyw": 2638,
      "ler": 2639,
      "iĠpo": 2640,
      "czegoĠ": 2641,
      "\",Ġ": 2642,
      "CO": 2643,
      "ote": 2644,
      "Ġod": 2645,
      "rodzin": 2646,
      "UniiĠ": 2647,
      "Ġwyp": 2648,
      "tyn": 2649,
      "owskiĠ": 2650,
      "e,Ġ": 2651,
      "ckiĠ": 2652,
      ",ĠWD):Ġ": 2653,
      "ajÄħcychĠ": 2654,
      "RadyĠ": 2655,
      "sÅĤuch": 2656,
      "Uniwersyte": 2657,
      "anty": 2658,
      ".ĠF": 2659,
      "ewni": 2660,
      "ai": 2661,
      "Å¼on": 2662,
      "kaĠP": 2663,
      "uter": 2664,
      "2024Ġroku": 2665,
      "naĠwy": 2666,
      "olar": 2667,
      "Nau": 2668,
      "SL": 2669,
      "Tomasz": 2670,
      "ep": 2671,
      "Ġm.in": 2672,
      "ministra": 2673,
      ".ĠNieĠ": 2674,
      "WikimediaĠ": 2675,
      "jaÅĽ": 2676,
      "char": 2677,
      "kiejĠ": 2678,
      ".ĊĊNaĠ": 2679,
      "omor": 2680,
      ")ĠiĠ": 2681,
      "Ġzna": 2682,
      "udi": 2683,
      "oobro": 2684,
      "Kan": 2685,
      "Bryt": 2686,
      "kiem": 2687,
      "iĠiĠ": 2688,
      "kultur": 2689,
      "CoV": 2690,
      "legÅĤ": 2691,
      "rel": 2692,
      "bran": 2693,
      "Ġzawod": 2694,
      "2011": 2695,
      "nymi": 2696,
      "Marcin": 2697,
      "ÅĦskiej": 2698,
      "ret": 2699,
      "klu": 2700,
      "nek": 2701,
      "ĠwspÃ³ÅĤpra": 2702,
      "ÄĻÅ¼czyz": 2703,
      "stÄĻpczoÅĽÄĩ": 2704,
      "obra": 2705,
      "jeszczeĠ": 2706,
      "owanaĠ": 2707,
      "naĠwĠ": 2708,
      "aniaĠwĠ": 2709,
      "num": 2710,
      "ÅĤĠnaĠ": 2711,
      "S-CoV": 2712,
      "zjaĊKategoria:": 2713,
      "oĠiĠprze": 2714,
      "Ol": 2715,
      "film": 2716,
      "aÅĤ,ĠÅ¼eĠ": 2717,
      "iom": 2718,
      ",ĠktÃ³re": 2719,
      ".ĊĊJ": 2720,
      "obyĠ": 2721,
      "000": 2722,
      "iĠnaĠ": 2723,
      "rytyj": 2724,
      "sce": 2725,
      "Tele": 2726,
      "Part": 2727,
      "Ġposiad": 2728,
      "omoc": 2729,
      "ÅĤam": 2730,
      "orze": 2731,
      "cjiĠwĠ": 2732,
      "tygodni": 2733,
      "ON": 2734,
      "kowi": 2735,
      "grupyĠ": 2736,
      "ajÄħce": 2737,
      "PĠ": 2738,
      "Ni": 2739,
      "ÄĩĠwĠ": 2740,
      "oĠiĠprzestÄĻpczoÅĽÄĩ": 2741,
      "ga": 2742,
      "gn": 2743,
      "nich": 2744,
      "zion": 2745,
      ".ĊĊĠZobaczĠteÅ¼Ġ": 2746,
      "Mat": 2747,
      "okaz": 2748,
      "Lewi": 2749,
      "Ġwers": 2750,
      "Äħtkow": 2751,
      "trakt": 2752,
      "siÄħÅ¼": 2753,
      "Ġpozost": 2754,
      "-19": 2755,
      "ĠpowoÅĤ": 2756,
      "akcjiĠ": 2757,
      "kty": 2758,
      "energ": 2759,
      "ÄħcychĠ": 2760,
      "ĠposÅĤ": 2761,
      "szym": 2762,
      "Ġkm": 2763,
      "eliĠ": 2764,
      "demi": 2765,
      "ski,Ġ": 2766,
      "LinkiĠ": 2767,
      "has": 2768,
      "ĠĠĠ": 2769,
      "uze": 2770,
      "autobus": 2771,
      "ation": 2772,
      "esĠ": 2773,
      "inĠ": 2774,
      "odcin": 2775,
      "czyÄĩĠ": 2776,
      "uĠzĠ": 2777,
      "ieszka": 2778,
      "fot": 2779,
      ",ĠÅ¼eĠwĠ": 2780,
      "Aleksand": 2781,
      "ografi": 2782,
      "onieĠ": 2783,
      "ÅĤoĠsiÄĻĠ": 2784,
      "Ġpas": 2785,
      "dokument": 2786,
      "kilomet": 2787,
      "opis": 2788,
      "Ġprzedstawicie": 2789,
      "ryn": 2790,
      "miaÅĤaĠ": 2791,
      "LinkiĠzewnÄĻtrz": 2792,
      ",ĠgdzieĠ": 2793,
      "37": 2794,
      "Ġprzeprowadz": 2795,
      "takĠ": 2796,
      "nor": 2797,
      "wiÄħza": 2798,
      "cof": 2799,
      ";ĊĠ": 2800,
      "acjÄĻĠ": 2801,
      ".ĠOb": 2802,
      "Stowarzysze": 2803,
      ",ĠczyĠ": 2804,
      "szejĠ": 2805,
      "Lu": 2806,
      "kiedyĠ": 2807,
      "wyciÄĻstw": 2808,
      "siÄĻĠd": 2809,
      "byÅĤo": 2810,
      "rogram": 2811,
      "kart": 2812,
      "ryb": 2813,
      "oskar": 2814,
      "osÃ³bĠz": 2815,
      "emi": 2816,
      ",ĊĠ": 2817,
      "odatkow": 2818,
      "iÄħ": 2819,
      "dÅº": 2820,
      "rus": 2821,
      "S-CoV-2": 2822,
      "oce": 2823,
      "bardziej": 2824,
      "rozp": 2825,
      "latachĠ": 2826,
      "spad": 2827,
      "wieĠ": 2828,
      "gry": 2829,
      "nowi": 2830,
      "car": 2831,
      "kilkuĠ": 2832,
      "60": 2833,
      "Ġpie": 2834,
      "ĠpiÄĻ": 2835,
      "strat": 2836,
      "olot": 2837,
      "lin": 2838,
      "ckiego": 2839,
      "br": 2840,
      "fe": 2841,
      "rzÄħdĠ": 2842,
      "raze": 2843,
      "ÅĤosz": 2844,
      "lasyfika": 2845,
      ".ĊĊĠÅ¹rÃ³dÅĤaĠĊĠĊĠĊĠĊĊKategoria:": 2846,
      "Ġprzekaz": 2847,
      "ÅĽwiet": 2848,
      "ciÄĻÅ¼": 2849,
      "ujÄħcĠ": 2850,
      "38": 2851,
      "swojeĠ": 2852,
      "spor": 2853,
      ",ĠpoĠ": 2854,
      "siÅĤ": 2855,
      ",Ġponie": 2856,
      "ÅļwiÄĻ": 2857,
      "Ġrozpo": 2858,
      "odlegÅĤ": 2859,
      "dysk": 2860,
      "nieĠjest": 2861,
      "1,": 2862,
      "odwoÅĤ": 2863,
      "klub": 2864,
      ";Ġ": 2865,
      "czasuĠ": 2866,
      "dwaĠ": 2867,
      "ĊKategoria:UlicaĠ": 2868,
      "budyn": 2869,
      "owali": 2870,
      "sat": 2871,
      ".ĠBy": 2872,
      "WypadkiĠ": 2873,
      "SAR": 2874,
      "LinkiĠzewnÄĻtrzneĠ": 2875,
      "inicj": 2876,
      "Ġwobec": 2877,
      "yj": 2878,
      "dzial": 2879,
      ".ĠCh": 2880,
      "sil": 2881,
      "Com": 2882,
      "Ġport": 2883,
      "32": 2884,
      "nikiemĠ": 2885,
      "ĠwiÄĻksz": 2886,
      "46": 2887,
      "ou": 2888,
      "opublik": 2889,
      "kons": 2890,
      "spowod": 2891,
      "kierunkuĠ": 2892,
      "ili": 2893,
      "Âł": 2894,
      "Hi": 2895,
      "lik": 2896,
      "kraju": 2897,
      "ezpie": 2898,
      "nalaz": 2899,
      "ochro": 2900,
      "ĠwieluĠ": 2901,
      "naĠprze": 2902,
      "12Ġ": 2903,
      "eni": 2904,
      "ozumie": 2905,
      "Ã¡": 2906,
      "krÃ³t": 2907,
      "najmniejĠ": 2908,
      "skoĠ": 2909,
      "sez": 2910,
      "aĠpro": 2911,
      "LechĠK": 2912,
      "utrzym": 2913,
      "ard": 2914,
      "PR": 2915,
      ".ĠJedna": 2916,
      "Ste": 2917,
      "Ġdni": 2918,
      "czÄĻÅĽciĠ": 2919,
      "czÅĤowie": 2920,
      "ĠwĠB": 2921,
      "cÄħĠ": 2922,
      "s,Ġ": 2923,
      "niÄħĠ": 2924,
      "opozy": 2925,
      "na,Ġ": 2926,
      "âĢĻ": 2927,
      "konie": 2928,
      ")ĊKategoria:": 2929,
      "a,ĠÅ¼e": 2930,
      "Lepp": 2931,
      "roduk": 2932,
      "ĠprÃ³b": 2933,
      ".ĠNaj": 2934,
      "39": 2935,
      "mogÄħĠ": 2936,
      "ÄĩĠdoĠ": 2937,
      "Ġwod": 2938,
      "ĠwÅĤas": 2939,
      "ucieĠ": 2940,
      "Ġpew": 2941,
      ".Ġmin": 2942,
      ".00": 2943,
      "aliza": 2944,
      "europej": 2945,
      "odp": 2946,
      "kichĠ": 2947,
      "sko": 2948,
      "koali": 2949,
      "GÃ³r": 2950,
      "owaÅ¼": 2951,
      "NaĠ": 2952,
      "Ġzapowie": 2953,
      "iĠP": 2954,
      "sztu": 2955,
      "Si": 2956,
      "Zd": 2957,
      "ÄĻzy": 2958,
      "ogÅĤ": 2959,
      "\"Ġ-Ġ": 2960,
      "ne,Ġ": 2961,
      "mysÅĤ": 2962,
      "JarosÅĤawĠK": 2963,
      "Ġzdoby": 2964,
      "Ã³wĠzĠ": 2965,
      "Å¼enieĠ": 2966,
      "o,ĠÅ¼eĠ": 2967,
      "ujÄħcyĠ": 2968,
      "Rzecz": 2969,
      "nieĠpo": 2970,
      "ien": 2971,
      "kop": 2972,
      "tÄħĠ": 2973,
      "skÄħĠ": 2974,
      "GdaÅĦsk": 2975,
      "Ġwysok": 2976,
      "tygod": 2977,
      "Zbi": 2978,
      "trud": 2979,
      "Ġwybuch": 2980,
      "For": 2981,
      "iny": 2982,
      "Krzysztof": 2983,
      "skiego,Ġ": 2984,
      "Lub": 2985,
      "region": 2986,
      "cuĠ": 2987,
      "naĠpod": 2988,
      "ĠpiÄħ": 2989,
      "pt": 2990,
      "Afgani": 2991,
      "set": 2992,
      "200px|": 2993,
      "tamĠ": 2994,
      "ide": 2995,
      "ĠMar": 2996,
      "rob": 2997,
      ",Ġgdy": 2998,
      "raÅ¼": 2999,
      "Ã³wĠz": 3000,
      "lew": 3001,
      "90": 3002,
      "44": 3003,
      "MinisterstwoĠ": 3004,
      "moÅ¼e": 3005,
      "arzeniaĠ": 3006,
      "Med": 3007,
      "ver": 3008,
      "amyĠ": 3009,
      "ĠâĢĵ": 3010,
      "PolskaĊ": 3011,
      "gu": 3012,
      "fund": 3013,
      "nap": 3014,
      "tytu": 3015,
      "informacji": 3016,
      "ĠwszystkichĠ": 3017,
      "oÅĽwiadcze": 3018,
      "kiegoĠ": 3019,
      "struktur": 3020,
      "oper": 3021,
      "ctw": 3022,
      "finaÅĤ": 3023,
      "sh": 3024,
      "onow": 3025,
      "otwart": 3026,
      "maÅĤ": 3027,
      "Ġdod": 3028,
      "gaĠ": 3029,
      "eduka": 3030,
      "cyĠzĠ": 3031,
      "uzn": 3032,
      "ĠwynikuĠ": 3033,
      "Ġprezent": 3034,
      "nych,Ġ": 3035,
      "ĊĊW": 3036,
      "Miast": 3037,
      "ujeĠsiÄĻĠ": 3038,
      "lini": 3039,
      "ckiegoĠ": 3040,
      ".ĠĠ": 3041,
      "ÅĦskaĠ": 3042,
      "telef": 3043,
      "ĠpierwszyĠ": 3044,
      ".ĊĊĠÅ¹rÃ³dÅĤaĠĊĠĊĊKategoria:PolskaĊKategoria:": 3045,
      "siÄĻ,ĠÅ¼eĠ": 3046,
      "szkod": 3047,
      "Ġpodej": 3048,
      "Fil": 3049,
      "Europejskiej": 3050,
      "sÅĤuÅ¼b": 3051,
      "WarszawaĊKategoria:": 3052,
      "ĠmoÅ¼eĠ": 3053,
      "Izrael": 3054,
      "general": 3055,
      "Poli": 3056,
      "ĠwĠWarszawie": 3057,
      "sztaÅĤ": 3058,
      "dziÄĻkiĠ": 3059,
      "nienieĠ": 3060,
      "iaÅĤĠ": 3061,
      "szed": 3062,
      "owania": 3063,
      "czes": 3064,
      "Maz": 3065,
      "Ser": 3066,
      "utwor": 3067,
      "miesiÄħc": 3068,
      "jednegoĠ": 3069,
      "ÅºrÃ³d": 3070,
      "odziĠ": 3071,
      "dzieÅĦ": 3072,
      "ĠĠĠĠĠĠĠĠ": 3073,
      "ĠwspÃ³ÅĤprac": 3074,
      ":00ĠâĢĵĠ": 3075,
      "np": 3076,
      "ĠI": 3077,
      "gar": 3078,
      "ludzi": 3079,
      ".ĠĊĊĠÅ¹rÃ³dÅĤaĠĊĠĊĊKategoria:": 3080,
      "zatrzymaniaĠwĠ": 3081,
      "reze": 3082,
      "chni": 3083,
      "naleÅ¼": 3084,
      "fran": 3085,
      "ĠwieleĠ": 3086,
      ".ĊĊB": 3087,
      "arszt": 3088,
      "zatrzymaniaĠwĠruchuĠ": 3089,
      "kamiĠ": 3090,
      "tery": 3091,
      "Ġkolej": 3092,
      "âĢĿ,Ġ": 3093,
      "imi": 3094,
      "run": 3095,
      "tychczas": 3096,
      "RzeczypospolitejĠPolsk": 3097,
      "eklar": 3098,
      "aktu": 3099,
      "osÅĤ": 3100,
      "ny,Ġ": 3101,
      "deĠ": 3102,
      "Kultur": 3103,
      "14Ġ": 3104,
      "bÄĻdÄħ": 3105,
      "log": 3106,
      "terenieĠ": 3107,
      "ginÄĻÅĤoĠ": 3108,
      "kamp": 3109,
      "chor": 3110,
      "niaĠp": 3111,
      ".ĊĊR": 3112,
      "kiĠiĠ": 3113,
      "Jap": 3114,
      "ĠprezydentaĠ": 3115,
      "radi": 3116,
      "takieĠ": 3117,
      "SARS-CoV-2": 3118,
      "ÄħceĠ": 3119,
      "tylko": 3120,
      "udostÄĻp": 3121,
      "niedziel": 3122,
      ",ĠjakĠ": 3123,
      "najbliÅ¼": 3124,
      "kontrol": 3125,
      "nim": 3126,
      "sobot": 3127,
      "Wie": 3128,
      ".ĊĊG": 3129,
      "ĠmiÄĻdz": 3130,
      "rakow": 3131,
      "niosk": 3132,
      "ĊKategoria:KulturaĠiĠrozrywkaĊKategoria:": 3133,
      "jednym": 3134,
      "jeÅĽliĠ": 3135,
      "aweÅĤĠ": 3136,
      "ogÅĤos": 3137,
      "ĠwystÄĻp": 3138,
      "rezent": 3139,
      "yĠ(": 3140,
      "karz": 3141,
      "ÄĻ,ĠÅ¼eĠ": 3142,
      "Lud": 3143,
      "xĠ": 3144,
      "arzÄħd": 3145,
      "Ġzw": 3146,
      "charak": 3147,
      "ĠprzyszÅĤ": 3148,
      "Wil": 3149,
      "nach": 3150,
      "spon": 3151,
      "naukow": 3152,
      "kwest": 3153,
      "oĠprze": 3154,
      "cjaĠp": 3155,
      "Ġpan": 3156,
      "1.": 3157,
      "niedziaÅĤ": 3158,
      "ostatnichĠ": 3159,
      "ÅĦskichĠ": 3160,
      "rost": 3161,
      "Brytani": 3162,
      "owani": 3163,
      "kaĠp": 3164,
      "yĠzostaÅĤ": 3165,
      "organizator": 3166,
      "Qu": 3167,
      "25Ġ": 3168,
      "yd": 3169,
      "Ġwystaw": 3170,
      "naz": 3171,
      "Platform": 3172,
      "Janusz": 3173,
      "13Ġ": 3174,
      "oĠiĠSprawiedliw": 3175,
      "byt": 3176,
      "wiÄħze": 3177,
      "stwaĠ": 3178,
      "aler": 3179,
      ".ĊĊA": 3180,
      "wz": 3181,
      "uf": 3182,
      "anisÅĤaw": 3183,
      "zyj": 3184,
      "druÅ¼y": 3185,
      "ianĠ": 3186,
      "Äĩ,Ġ": 3187,
      "astÄĻp": 3188,
      "tali": 3189,
      "yw": 3190,
      "trzyĠ": 3191,
      "odbÄĻdzieĠsiÄĻĠ": 3192,
      "cznie": 3193,
      "budÅ¼e": 3194,
      "rÃ³cz": 3195,
      "imier": 3196,
      "ustawyĠ": 3197,
      "omen": 3198,
      "ÅĤot": 3199,
      "realiz": 3200,
      "drogowe": 3201,
      "lemĠ": 3202,
      "Ġprzyzn": 3203,
      "Sch": 3204,
      "ieraĠ": 3205,
      "owymĠnaĠ": 3206,
      "agen": 3207,
      "ĠpoinformowaÅĤĠ": 3208,
      "budow": 3209,
      "uĠdoĠ": 3210,
      "apel": 3211,
      "aje": 3212,
      "odpowiedzial": 3213,
      "ĠprzyjÄĻ": 3214,
      "terrory": 3215,
      "ÅĽmy": 3216,
      "FundacjaĠ": 3217,
      "ubieg": 3218,
      "Ġpotrzeb": 3219,
      "ĊĠK": 3220,
      "Ġminut": 3221,
      "AzjaĊKategoria:": 3222,
      "fik": 3223,
      "ÅĤemĠ": 3224,
      "liwi": 3225,
      "jeÅ¼": 3226,
      "ĠdoszÅĤoĠdoĠzatrzymaniaĠwĠruchuĠ": 3227,
      "aÅĤoĠsiÄĻĠ": 3228,
      "czyk": 3229,
      "ach,Ġ": 3230,
      "instytu": 3231,
      "damĠ": 3232,
      "usÅĤug": 3233,
      "ren": 3234,
      "aÅ¼e": 3235,
      "nolog": 3236,
      "hol": 3237,
      "blok": 3238,
      "len": 3239,
      "Fin": 3240,
      "razy": 3241,
      "Hol": 3242,
      "dot": 3243,
      "Ġzagra": 3244,
      "atu": 3245,
      ",ĠwĠktÃ³rymĠ": 3246,
      "ĊD": 3247,
      "ĠSt": 3248,
      "ckaĠ": 3249,
      "iÄĩĠ": 3250,
      "orw": 3251,
      "oment": 3252,
      "wiedz": 3253,
      "Ġzach": 3254,
      ",ĠWD):": 3255,
      "//": 3256,
      "mieszkaÅĦc": 3257,
      ".ĊĊJak": 3258,
      "rom": 3259,
      "Ġwznowi": 3260,
      "à¯": 3261,
      "reĠ": 3262,
      "sposÃ³b": 3263,
      "Mac": 3264,
      "Ira": 3265,
      "MichaÅĤĠ": 3266,
      "ĠpoÅ¼": 3267,
      "rower": 3268,
      ",ĠabyĠ": 3269,
      "syĠ": 3270,
      "publi": 3271,
      "tp": 3272,
      "Ġdoty": 3273,
      "urzÄħd": 3274,
      "CzÄĻ": 3275,
      "Ġwiadom": 3276,
      "men": 3277,
      "naĠK": 3278,
      "tÃ³w": 3279,
      "ostrze": 3280,
      "ÅĦskiejĠ": 3281,
      "Dan": 3282,
      "ciÄħ": 3283,
      "otwar": 3284,
      "Samoobro": 3285,
      "uĠ(": 3286,
      "zwiÄħz": 3287,
      "ÅĤymĠ": 3288,
      "rejest": 3289,
      "materiaÅĤ": 3290,
      ")ĠĊ": 3291,
      "dyrektor": 3292,
      "Ġpolicj": 3293,
      "naĠtemat": 3294,
      "czÄĻst": 3295,
      "westy": 3296,
      "80": 3297,
      "nowychĠ": 3298,
      "aÅĦĠ": 3299,
      "dzieci": 3300,
      ".ĊĊU": 3301,
      "lon": 3302,
      "czw": 3303,
      "Ind": 3304,
      ".ĠSp": 3305,
      "ulicyĠ": 3306,
      "Ã³s": 3307,
      "niÅ¼Ġ": 3308,
      "Ġmilion": 3309,
      "dziÅĽ": 3310,
      "Lubli": 3311,
      "WypadkiĠdrogowe": 3312,
      "archi": 3313,
      "ĠpÃ³Åºniej": 3314,
      "ĠzwiÄħzkuĠzĠ": 3315,
      "tro": 3316,
      ".ĠJe": 3317,
      "http": 3318,
      "miÄĻdzynarod": 3319,
      "://": 3320,
      "ujaw": 3321,
      "kontak": 3322,
      "Eduka": 3323,
      "atomiast": 3324,
      "ĊĊĠLinkiĠzewnÄĻtrzneĠ": 3325,
      "dziaÅĤaĠ": 3326,
      "2020": 3327,
      "kilku": 3328,
      ".ĠWedÅĤugĠ": 3329,
      "Ang": 3330,
      "ĠzĠpowoduĠ": 3331,
      "ĠwiekuĠ": 3332,
      "ch,Ġ": 3333,
      "owoÅĽciĠ": 3334,
      "Szw": 3335,
      "sa": 3336,
      "nachĠ": 3337,
      "dent": 3338,
      "ĠweĠ": 3339,
      "mad": 3340,
      ".ĠOd": 3341,
      "he": 3342,
      "los": 3343,
      "Ġdok": 3344,
      "bat": 3345,
      "Ġsob": 3346,
      "ĠwÅĤad": 3347,
      "nion": 3348,
      "ĠpodjÄĻ": 3349,
      "zdoby": 3350,
      "odzin": 3351,
      "Ġzad": 3352,
      "ĠKrakowie": 3353,
      "szuki": 3354,
      "har": 3355,
      "owoĠ": 3356,
      "ĊKategoria:Sport": 3357,
      "ÅĤoÅ¼y": 3358,
      "Ġzablok": 3359,
      "Ġwtor": 3360,
      "Ġpis": 3361,
      "sytuacj": 3362,
      "ojÄĻzy": 3363,
      "ĠpeÅĤ": 3364,
      "Tour": 3365,
      "ÅĤĠsiÄĻ": 3366,
      "bÅĤ": 3367,
      "Ġmiast": 3368,
      "ÄĻÅ¼czyzn": 3369,
      "PrawoĠiĠprzestÄĻpczoÅĽÄĩ": 3370,
      "âĢĶ": 3371,
      "nieĠmaĠ": 3372,
      "uel": 3373,
      "urzÄĻd": 3374,
      "celuĠ": 3375,
      "west": 3376,
      "ÄħcyĠ": 3377,
      "kaw": 3378,
      ",ĠP": 3379,
      "czÄĻÅĽci": 3380,
      "dze": 3381,
      "ĠpracyĠ": 3382,
      "ogÅĤosi": 3383,
      "per": 3384,
      "ÅĽli": 3385,
      "boj": 3386,
      "czyÅĤ": 3387,
      "stÄħpie": 3388,
      "ĠprzeciwkoĠ": 3389,
      "temu": 3390,
      "Ġ(19": 3391,
      "rowadzeniaĠ": 3392,
      "obserw": 3393,
      "bliote": 3394,
      "skier": 3395,
      "rowadze": 3396,
      "Ġsam": 3397,
      "ĠwÅĤaÅĽnieĠ": 3398,
      "47": 3399,
      "ymiĠ": 3400,
      "tÅĤum": 3401,
      ",ĠbyĠ": 3402,
      "Ã³dĠ": 3403,
      "awod": 3404,
      "DonaldĠTusk": 3405,
      "rzu": 3406,
      "oĠpo": 3407,
      "jednost": 3408,
      "ministerĠ": 3409,
      "En": 3410,
      "gĠ": 3411,
      "ariiĠ": 3412,
      "chwi": 3413,
      "aczyÅĦskiĠ": 3414,
      "Hiszp": 3415,
      "Ġproblem": 3416,
      "samolot": 3417,
      "tok": 3418,
      "cznÄħ": 3419,
      "cjali": 3420,
      "cznym": 3421,
      ".ĠPrzy": 3422,
      ".ĠPro": 3423,
      "anÄħĠ": 3424,
      "azy": 3425,
      "Ġprzyczy": 3426,
      "KrakÃ³w": 3427,
      "cykl": 3428,
      "edycjiĠ": 3429,
      "El": 3430,
      "ĠÅ»": 3431,
      "edera": 3432,
      "kaÅ¼d": 3433,
      ")ĠorazĠ": 3434,
      "com": 3435,
      "-K": 3436,
      "Sy": 3437,
      "bardziejĠ": 3438,
      "VID": 3439,
      "ev": 3440,
      "Mari": 3441,
      "czter": 3442,
      "nieĠm": 3443,
      "ÅļwiatĊKategoria:": 3444,
      "all": 3445,
      "ktÃ³rzy": 3446,
      "scy": 3447,
      "olityka": 3448,
      "WikipediiĠ": 3449,
      "ÅĤodzie": 3450,
      "ĠpiÅĤceĠ": 3451,
      "Ġpodstaw": 3452,
      "cachĠ": 3453,
      "czoneĠ": 3454,
      "ĠpodkreÅĽli": 3455,
      ".ĊĊPod": 3456,
      "arzyĠ": 3457,
      "ÅĤadzie": 3458,
      "ÄĩĠnaĠ": 3459,
      "oÅĽredni": 3460,
      "ĊKategoria:R": 3461,
      "ĊKategoria:StanyĠZjednoczone": 3462,
      "bom": 3463,
      "takichĠ": 3464,
      "Tur": 3465,
      "swoichĠ": 3466,
      "stwo": 3467,
      "Ġwybran": 3468,
      "ster": 3469,
      "stytut": 3470,
      "gdyĠ": 3471,
      "mina": 3472,
      "wyciÄĻz": 3473,
      "Informaty": 3474,
      "iv": 3475,
      "Ġprzepis": 3476,
      "organizacjiĠ": 3477,
      "70": 3478,
      "wod": 3479,
      "aniem": 3480,
      "2023ĠrokuĠ": 3481,
      "lec": 3482,
      "lak": 3483,
      "ĠpolskiĠ": 3484,
      "Lepper": 3485,
      "rebel": 3486,
      "cyf": 3487,
      "yĠw": 3488,
      "nosiĠ": 3489,
      "str": 3490,
      "lecz": 3491,
      "Ġ-": 3492,
      "liÅĽmyĠ": 3493,
      "dniuĠ": 3494,
      "okres": 3495,
      "ĠmoÅ¼liw": 3496,
      "omni": 3497,
      "remĠ": 3498,
      "ĠPi": 3499,
      "kontyn": 3500,
      "czasu": 3501,
      "COVID": 3502,
      "niaĠEuropej": 3503,
      "Ek": 3504,
      "arzĠ": 3505,
      "stoli": 3506,
      "odbyw": 3507,
      "Goog": 3508,
      ":30Ġ": 3509,
      "dÅĤug": 3510,
      "szans": 3511,
      "naĠprzy": 3512,
      "Ġwspar": 3513,
      "tÄĻĠ": 3514,
      "wier": 3515,
      "ĠwyjaÅĽ": 3516,
      "rozwiÄħza": 3517,
      "skup": 3518,
      "celu": 3519,
      "czeÅĽniejĠ": 3520,
      "ofer": 3521,
      "48": 3522,
      "nas": 3523,
      "dÅ¼": 3524,
      "Ġwykorzy": 3525,
      "osobyĠ": 3526,
      "amb": 3527,
      "nekĠ": 3528,
      "mor": 3529,
      "ĠmiaÅĤ": 3530,
      "jem": 3531,
      "kosz": 3532,
      "pel": 3533,
      "Fot": 3534,
      "em,Ġ": 3535,
      "czasie": 3536,
      "Mic": 3537,
      "Wojcie": 3538,
      "COVID-19": 3539,
      "ekip": 3540,
      "ĠdoszÅĤoĠdoĠzatrzymaniaĠwĠruchuĠtramwaj": 3541,
      "aĠpo": 3542,
      "czÄħĠ": 3543,
      "ĠwĠsprawieĠ": 3544,
      "chceĠ": 3545,
      "16Ġ": 3546,
      "oh": 3547,
      "a-": 3548,
      ",ĊĊ": 3549,
      "ciemĠ": 3550,
      "ÅĽrodowisk": 3551,
      "Ġwypowie": 3552,
      "Mistrzost": 3553,
      "siÄĻbior": 3554,
      "udziaÅĤĠwĠ": 3555,
      "ĊĠĊĠĊĠĊĊKategoria:": 3556,
      "Star": 3557,
      "Å¹rÃ³dÅĤaĠĊĠĊĊKategoria:": 3558,
      "aÅ¼er": 3559,
      "umoÅ¼": 3560,
      "Zbignie": 3561,
      "Ġminist": 3562,
      "lim": 3563,
      "...": 3564,
      "informacjeĠ": 3565,
      "owaneĠprzezĠ": 3566,
      "nast": 3567,
      "rywat": 3568,
      "rÃ³wĠ": 3569,
      "ia,Ġ": 3570,
      "kun": 3571,
      "moc": 3572,
      "ĊKategoria:PiÅĤkaĠnoÅ¼": 3573,
      "m.in.": 3574,
      "Å¼yw": 3575,
      "Ġprzyp": 3576,
      "Ġmandat": 3577,
      ".ĠRuchĠ": 3578,
      "Afry": 3579,
      "razĠzĠ": 3580,
      "ĠpolskichĠ": 3581,
      "kĠ(": 3582,
      "waÅ¼Ġ": 3583,
      "wyk": 3584,
      "firmyĠ": 3585,
      "ĠprojektuĠ": 3586,
      "ĠzĠd": 3587,
      "ograf": 3588,
      "stal": 3589,
      "czymĠ": 3590,
      ".ĠTak": 3591,
      "objÄĻ": 3592,
      "ĠkmĠ": 3593,
      "dod": 3594,
      "2007ĊĠ": 3595,
      "czÄĻÅĽÄĩĠ": 3596,
      ",Ġza": 3597,
      "rezy": 3598,
      "czwar": 3599,
      "rali": 3600,
      "duÅ¼": 3601,
      "samymĠ": 3602,
      ".ĠPierw": 3603,
      "sobieĠ": 3604,
      "49": 3605,
      "ss": 3606,
      ":Ċ": 3607,
      "SĠ": 3608,
      "nychĠiĠ": 3609,
      "55": 3610,
      "SÅĤ": 3611,
      "nieĠnaĠ": 3612,
      "mÃ³wi": 3613,
      "Ġproces": 3614,
      "ĠwiÄĻcejĠ": 3615,
      "rzeb": 3616,
      "cznymĠ": 3617,
      "kimĠ": 3618,
      "Åģuka": 3619,
      "Ge": 3620,
      "nawetĠ": 3621,
      "upraw": 3622,
      ".ĊĊDoĠ": 3623,
      "wiÄĻc": 3624,
      "Niemie": 3625,
      "mas": 3626,
      "czyt": 3627,
      "oĠiĠSprawiedliwoÅĽÄĩ": 3628,
      "Ġzas": 3629,
      "Ze": 3630,
      "dzisia": 3631,
      "Ham": 3632,
      "loka": 3633,
      "syw": 3634,
      "int": 3635,
      "ajÄħcyĠ": 3636,
      "trak": 3637,
      "Wybory": 3638,
      "zyw": 3639,
      "gaz": 3640,
      "11Ġ": 3641,
      "Agen": 3642,
      "komputer": 3643,
      "udzie": 3644,
      "kiĠwĠ": 3645,
      "zmia": 3646,
      "ÄħĠdoĠ": 3647,
      "doszÅĤoĠ": 3648,
      "ska,Ġ": 3649,
      "MiÄĻdzynarod": 3650,
      "kami": 3651,
      "ÅĤaĠw": 3652,
      ".ĊĊWy": 3653,
      "uroĠ": 3654,
      "Grze": 3655,
      "ewnÄĻtrz": 3656,
      "17Ġ": 3657,
      "Roz": 3658,
      "ael": 3659,
      "Ġprawdopodob": 3660,
      ",ĠK": 3661,
      "ĊĊP": 3662,
      "wÃ³d": 3663,
      "ÄħĠnaĠ": 3664,
      "du": 3665,
      "konferencji": 3666,
      "Ġzn": 3667,
      "book": 3668,
      "iajÄħc": 3669,
      "noweĠ": 3670,
      "agrod": 3671,
      "ano": 3672,
      "ckiej": 3673,
      "WÅĤad": 3674,
      "skar": 3675,
      "lud": 3676,
      ":1": 3677,
      "ĠmiÄĻdzyĠ": 3678,
      "rzÄĻ": 3679,
      "miot": 3680,
      "Rom": 3681,
      "kobiet": 3682,
      "Ġzatrzym": 3683,
      "Ukrain": 3684,
      "ĊKategoria:KrakÃ³w": 3685,
      "0,": 3686,
      "otk": 3687,
      "ÅģÃ³dÅº": 3688,
      "Ġpartii": 3689,
      "ĠdoszÅĤoĠdoĠzatrzymaniaĠwĠruchuĠtramwajowymĠnaĠ": 3690,
      "dotyczÄħceĠ": 3691,
      "iĠ(": 3692,
      "Ġprodu": 3693,
      "42": 3694,
      "kampani": 3695,
      "rzyÅ¼": 3696,
      "UniiĠEuropejskiej": 3697,
      "firm": 3698,
      "rok": 3699,
      "Bel": 3700,
      "Ġwizy": 3701,
      "kryty": 3702,
      "Ġpapie": 3703,
      "ĠwÅĤaÅĽci": 3704,
      "Joh": 3705,
      "Kraj": 3706,
      ":ĠâĢŀ": 3707,
      "stud": 3708,
      "JarosÅĤawĠKaczyÅĦski": 3709,
      ",ĠÅ¼ebyĠ": 3710,
      "koment": 3711,
      "rawi": 3712,
      "ĠpartiiĠ": 3713,
      "sÅĤow": 3714,
      "Ġmed": 3715,
      "uzyskaÅĤĠ": 3716,
      "iera": 3717,
      ":30": 3718,
      "acze": 3719,
      "koÅĤ": 3720,
      "stÃ³w": 3721,
      "ern": 3722,
      "ktÃ³rej": 3723,
      ".ĠDz": 3724,
      "AmerykaĠP": 3725,
      "uruch": 3726,
      "brytyj": 3727,
      "gmin": 3728,
      "niego": 3729,
      "nastÄĻpujÄħceĠ": 3730,
      "eĠwĠ": 3731,
      ".ĠâĢŀ": 3732,
      "akoÅĦ": 3733,
      "ĊKategoria:SpoÅĤeczeÅĦstwo": 3734,
      "uÅĽci": 3735,
      "ĊKategoria:Transport": 3736,
      "Ġwprowadz": 3737,
      "cjiĠiĠ": 3738,
      "Ġporozumie": 3739,
      "szkol": 3740,
      "Instytut": 3741,
      "Ġwyj": 3742,
      "ĠwojewÃ³dztw": 3743,
      "ktÃ³reĠ": 3744,
      "ĠwznowionoĠ": 3745,
      "ktÃ³regoĠ": 3746,
      "Ġprogram": 3747,
      "torowisk": 3748,
      "border": 3749,
      "Äħcych": 3750,
      "udziaÅĤĠ": 3751,
      "ium": 3752,
      "Ġpat": 3753,
      "awans": 3754,
      "Ben": 3755,
      "Zie": 3756,
      "Ġpierwszej": 3757,
      "licen": 3758,
      "ÄħcĠ": 3759,
      "Ã³wĠ(": 3760,
      "atuĠ": 3761,
      "jako": 3762,
      "dokon": 3763,
      "trzy": 3764,
      "owych,Ġ": 3765,
      "ĠpiÅĤceĠnoÅ¼": 3766,
      "TA": 3767,
      "rakiet": 3768,
      "jestĠt": 3769,
      "anÄħ": 3770,
      "cjÄħ": 3771,
      "ejest": 3772,
      "Radi": 3773,
      "niak": 3774,
      "Bli": 3775,
      "dzisiej": 3776,
      "KoÅĽci": 3777,
      "ojusz": 3778,
      "biaÅĤ": 3779,
      "miaÅĤĠ": 3780,
      "trzechĠ": 3781,
      "naĠrzecz": 3782,
      "oĠgodz.Ġ": 3783,
      "cyjneĠ": 3784,
      "Ġpopraw": 3785,
      "inwesty": 3786,
      "ĊĠM": 3787,
      "ure": 3788,
      "ofiar": 3789,
      "sateli": 3790,
      "mili": 3791,
      "ĠpociÄħg": 3792,
      "konstytu": 3793,
      "dzieciĠ": 3794,
      "ira": 3795,
      "Czy": 3796,
      "rowadzenieĠ": 3797,
      "kod": 3798,
      "olet": 3799,
      "ÄĩĠsiÄĻĠ": 3800,
      "ujÄħcych": 3801,
      "ell": 3802,
      "18Ġ": 3803,
      "napraw": 3804,
      "sum": 3805,
      "Ty": 3806,
      "chce": 3807,
      "ÅĤĠdoĠ": 3808,
      "zeĠwzglÄĻd": 3809,
      "erzy": 3810,
      "tzw": 3811,
      "Ġmieszka": 3812,
      ".ĊĊWĠtymĠ": 3813,
      "Ġprowadzi": 3814,
      "owyĠwznowionoĠ": 3815,
      "nosi": 3816,
      "gdy": 3817,
      "OkrÄĻg": 3818,
      "plom": 3819,
      ".ĠOdĠ": 3820,
      "mos": 3821,
      "swojÄħĠ": 3822,
      "dor": 3823,
      "300px|": 3824,
      "byliĠ": 3825,
      "aĠzost": 3826,
      "ĠzakoÅĦ": 3827,
      "Ġzmarli:ĊĠ": 3828,
      "ĠwydarzeniaĠ": 3829,
      "ĊKategoria:Z": 3830,
      "sÄĻdzi": 3831,
      "inneĠ": 3832,
      "Ġprzeby": 3833,
      "Sh": 3834,
      "AnnaĠ": 3835,
      "Ġpotwierdzi": 3836,
      "ĠSp": 3837,
      "ek,Ġ": 3838,
      "ank": 3839,
      "doszÅĤoĠdoĠ": 3840,
      "skÄħ": 3841,
      "rzÄĻd": 3842,
      "areszt": 3843,
      "Ġwart": 3844,
      ".ĠMi": 3845,
      "kierowaneĠ": 3846,
      "Ġwczoraj": 3847,
      "mÅĤod": 3848,
      "ÅĤoÅ¼": 3849,
      "Lot": 3850,
      "iant": 3851,
      "24Ġ": 3852,
      "oĠtym": 3853,
      "19Ġ": 3854,
      "samorzÄħd": 3855,
      "okoj": 3856,
      "ĠwziÄĻ": 3857,
      "ĊĊĠĊĊKategoria:": 3858,
      "Ġmecz": 3859,
      "okra": 3860,
      "ÄĻb": 3861,
      "Ġwyborach": 3862,
      "ĠwyborÃ³w": 3863,
      "skiĠ(": 3864,
      "ĠzdjÄĻ": 3865,
      "media": 3866,
      "aneĠzĠ": 3867,
      "ĠwaÅ¼": 3868,
      "BiaÅĤoru": 3869,
      "szkoÅĤ": 3870,
      "rzÄħduĠ": 3871,
      "czyÅĤaĠ": 3872,
      "naĠzĠ": 3873,
      ",ĠktÃ³ryĠz": 3874,
      "alneĠ": 3875,
      "dziesi": 3876,
      "ÄĻĠiĠ": 3877,
      "giĠ": 3878,
      "ĠpowiedziaÅĤ,ĠÅ¼eĠ": 3879,
      "atyĠ": 3880,
      "koÅĦc": 3881,
      "liz": 3882,
      "Ġpotwierdz": 3883,
      "arzeĠ": 3884,
      "nicznychĠ": 3885,
      ".ĠZap": 3886,
      "rybun": 3887,
      "osÃ³bĠzĠwoj": 3888,
      "transport": 3889,
      "IS": 3890,
      "organizowan": 3891,
      "rowin": 3892,
      "Ġdecyzj": 3893,
      "43": 3894,
      "kiej": 3895,
      "Gru": 3896,
      "AdamĠ": 3897,
      "Ġwarun": 3898,
      "Ġwydaw": 3899,
      "ĠpostÄĻp": 3900,
      "Ġwynika": 3901,
      "aĠzostaÅĤaĠ": 3902,
      "deĠwszystki": 3903,
      "ÅĦskieĠ": 3904,
      "Ġdob": 3905,
      "Ġwieczor": 3906,
      "center": 3907,
      "uty": 3908,
      "Ma": 3909,
      "osen": 3910,
      "Ġkonie": 3911,
      "Ġpropozy": 3912,
      "Gaze": 3913,
      "PaÅĦstw": 3914,
      "nowegoĠ": 3915,
      "Ċright|": 3916,
      "IP": 3917,
      "acekĠ": 3918,
      "fan": 3919,
      "Ġtra": 3920,
      "nastÄħpi": 3921,
      "meczuĠ": 3922,
      "tab": 3923,
      "Ġmiejsc": 3924,
      "waÅ¼niej": 3925,
      "innymiĠ": 3926,
      "Grup": 3927,
      "koszt": 3928,
      "trans": 3929,
      "III": 3930,
      "nieĠod": 3931,
      "olidar": 3932,
      "Bog": 3933,
      "dzieÅĦĠ": 3934,
      "broni": 3935,
      "angaÅ¼": 3936,
      ",Ċ": 3937,
      "czwart": 3938,
      "wiÄħzekĠ": 3939,
      "\"Ġ-ĠpowiedziaÅĤĠ": 3940,
      "Ra": 3941,
      "dwieĠ": 3942,
      "liza": 3943,
      "ĠtegoĠ": 3944,
      "iÄĻĠ": 3945,
      "koÅĽci": 3946,
      "ksiÄħÅ¼": 3947,
      "obsÅĤug": 3948,
      "trady": 3949,
      "ĠrokuĠwĠ": 3950,
      "nyĠwĠ": 3951,
      "gÅĤosÃ³w": 3952,
      "Andrzej": 3953,
      "annaĠ": 3954,
      "InformatykaĊKategoria:": 3955,
      "Organi": 3956,
      "Ã³zef": 3957,
      "gorz": 3958,
      "Lech": 3959,
      "ÅĽwiecie": 3960,
      "nieĠjestĠ": 3961,
      "temuĠ": 3962,
      "Äĩ,ĠÅ¼eĠ": 3963,
      "oÅĤÄħ": 3964,
      "ciu": 3965,
      "biegajÄħce": 3966,
      "dyj": 3967,
      "dol": 3968,
      "szkole": 3969,
      "koron": 3970,
      "maj": 3971,
      "ĠjestĠ": 3972,
      "caÅĤkowi": 3973,
      "SejmuĠ": 3974,
      "ciar": 3975,
      "ĠprzezĠzablok": 3976,
      "niosekĠ": 3977,
      "ĠprzypadkuĠ": 3978,
      "wÃ³j": 3979,
      "armi": 3980,
      "Og": 3981,
      "Ġwiedz": 3982,
      "teren": 3983,
      "gryw": 3984,
      ".ĠĊĊW": 3985,
      "baz": 3986,
      ".ĠWedÅĤug": 3987,
      "rozwoj": 3988,
      "aku": 3989,
      "zapowiedzi": 3990,
      "WikimediaĊKategoria:": 3991,
      ".ĠPo": 3992,
      "administra": 3993,
      "aĠsiÄĻĠ": 3994,
      "''": 3995,
      "TVP": 3996,
      "arÃ³wnoĠ": 3997,
      "schod": 3998,
      "inaĠ": 3999,
      "oali": 4000,
      "zespoÅĤuĠ": 4001,
      "Szcze": 4002,
      "okraty": 4003,
      "Piotr": 4004,
      "majÄħ": 4005,
      "onor": 4006,
      "rocz": 4007,
      "spoÅĤecznoÅĽci": 4008,
      "Ġkraj": 4009,
      "2,": 4010,
      "obiekt": 4011,
      "ĠtejĠ": 4012,
      "biegajÄħceĠprzezĠzablok": 4013,
      "medi": 4014,
      "Aut": 4015,
      "szÅĤo": 4016,
      "ÄħcegoĠ": 4017,
      "trzym": 4018,
      "usĠ": 4019,
      "czeniuĠ": 4020,
      "ksztaÅĤ": 4021,
      "euro": 4022,
      "staÅĤ": 4023,
      "miejscu": 4024,
      "cywil": 4025,
      "gol": 4026,
      "rÃ³Å¼nychĠ": 4027,
      "jÄħd": 4028,
      "TheĠ": 4029,
      "omite": 4030,
      "kosmi": 4031,
      "Ġmog": 4032,
      "100Ġ": 4033,
      "Ġpokon": 4034,
      "sÅĤy": 4035,
      "oznacz": 4036,
      "ĠpoÅ¼ar": 4037,
      ".ĠRuchĠtramwaj": 4038,
      "ER": 4039,
      "owinie": 4040,
      "adeusz": 4041,
      "najp": 4042,
      "artykuÅĤÃ³w": 4043,
      "niezaleÅ¼": 4044,
      "Tra": 4045,
      "kal": 4046,
      "Ġpozw": 4047,
      "-0": 4048,
      "Niemcy": 4049,
      ".ĊĊÅ¹rÃ³d": 4050,
      "tera": 4051,
      "aĠW": 4052,
      "kurator": 4053,
      "gorzĠ": 4054,
      "ministraĠ": 4055,
      "ient": 4056,
      "Pozna": 4057,
      "tedyĠ": 4058,
      "ArchiwalneĠ": 4059,
      "pij": 4060,
      "stacjiĠ": 4061,
      "Ġposied": 4062,
      "czak": 4063,
      "aĊĠ": 4064,
      "odziel": 4065,
      "Festiwal": 4066,
      "ĠzÅĤoÅ¼y": 4067,
      "hand": 4068,
      "ogÃ³l": 4069,
      "MaÅĤ": 4070,
      "ĊKategoria:Kon": 4071,
      "chciaÅĤ": 4072,
      ",Ġgdzie": 4073,
      ",ĠÅ¼eĠw": 4074,
      "ArchiwalneĠzapowiedzi": 4075,
      "ĠprogramuĠ": 4076,
      "ÅĽredni": 4077,
      "nauczy": 4078,
      "systemuĠ": 4079,
      "Ġpodat": 4080,
      "Reprezent": 4081,
      "75": 4082,
      "ĊKategoria:ArchiwalneĊmaÅĤy|": 4083,
      "aĠpow": 4084,
      "cach": 4085,
      "ĠpozostaÅĤ": 4086,
      "ho": 4087,
      "termin": 4088,
      ".ĊĊĠP": 4089,
      "ct": 4090,
      "misjiĠ": 4091,
      "aĠzd": 4092,
      ".ĊĊĠZobaczĠteÅ¼ĠĊĠ": 4093,
      "akÅĤad": 4094,
      ".ĠminucieĠ": 4095,
      "czÄĻÅĽc": 4096,
      "history": 4097,
      "rokĠ": 4098,
      "ĠKrakÃ³w": 4099,
      "obecnieĠ": 4100,
      "dztw": 4101,
      ",ĠgdyĠ": 4102,
      "Ġwycof": 4103,
      "aĠD": 4104,
      "atĠ": 4105,
      "gaze": 4106,
      "kiĊKategoria:": 4107,
      "stwoĠ": 4108,
      "ĊĊĠLinkiĠzewnÄĻtrzneĠĊĠ": 4109,
      "unkow": 4110,
      "Lon": 4111,
      "ĠwĠS": 4112,
      "amy": 4113,
      "ile": 4114,
      "zÅĤ": 4115,
      "stref": 4116,
      "strzym": 4117,
      "historiiĠ": 4118,
      "kujeĠ": 4119,
      "ĠwĠÅģ": 4120,
      "sko-": 4121,
      "ĊKategoria:Praw": 4122,
      "Ġprocent": 4123,
      "US": 4124,
      "usu": 4125,
      "heĠ": 4126,
      ",ĠiÅ¼Ġ": 4127,
      "jedenĠzĠ": 4128,
      "badaniaĠ": 4129,
      ",ĠboĠ": 4130,
      "medy": 4131,
      "Ġpt": 4132,
      "azna": 4133,
      "centrumĠ": 4134,
      "caÅĤyĠ": 4135,
      "ckich": 4136,
      "adres": 4137,
      "tegor": 4138,
      "tysiÄħc": 4139,
      "aniu": 4140,
      "gna": 4141,
      "awÅĤaĠ": 4142,
      "narz": 4143,
      "SejmĠ": 4144,
      "sprawiedliw": 4145,
      "ĠpÃ³ÅĤ": 4146,
      "kiĠzĠ": 4147,
      "ckie": 4148,
      "waÄĩ": 4149,
      "rzut": 4150,
      "aĠKaczy": 4151,
      "ĠdotyczÄħc": 4152,
      "Gra": 4153,
      "sing": 4154,
      ".ĠRuchĠtramwajowyĠwznowionoĠ": 4155,
      "Ġprzestrze": 4156,
      "sposÃ³bĠ": 4157,
      "innych": 4158,
      "kadencji": 4159,
      "iÄĻc": 4160,
      "uzna": 4161,
      "aniĠ": 4162,
      "minut": 4163,
      "erzyĠ": 4164,
      "ÅļlÄħsk": 4165,
      "Ġwymag": 4166,
      ",ĠktÃ³regoĠ": 4167,
      "technolog": 4168,
      "uzeumĠ": 4169,
      "Ġprokuratur": 4170,
      "Miej": 4171,
      "grzy": 4172,
      "aÅĤÄĻ": 4173,
      "typuĠ": 4174,
      "NieĠ": 4175,
      "owaniu": 4176,
      "cyjnych": 4177,
      "odaw": 4178,
      "dlaĠp": 4179,
      "aki": 4180,
      "ortu": 4181,
      "Ġwykorzyst": 4182,
      "dziesiÄĻ": 4183,
      "Open": 4184,
      "ÅĽw": 4185,
      "ÄĻĠoĠ": 4186,
      "oĠ(": 4187,
      "nes": 4188,
      "Ġpoprzedni": 4189,
      "Ġpyt": 4190,
      "ĠpoÅĤÄħ": 4191,
      "KulturaĠiĠrozrywkaĊKategoria:": 4192,
      "ĠwszystkieĠ": 4193,
      "kontynu": 4194,
      "imierzĠ": 4195,
      "ĠwyÅĤÄħ": 4196,
      "Bo": 4197,
      "zdjÄĻ": 4198,
      "Åļrod": 4199,
      "ferend": 4200,
      "WielkaĠ": 4201,
      "Czar": 4202,
      "errory": 4203,
      "ĠĊ": 4204,
      "dziaÅĤaÅĦ": 4205,
      "lotni": 4206,
      ".ĠObec": 4207,
      "kiego": 4208,
      "dziedzi": 4209,
      "MS": 4210,
      "oczÄħtkuĠ": 4211,
      "eĠ(": 4212,
      "ĠprawieĠ": 4213,
      "Ġpkt": 4214,
      "eusz": 4215,
      "Ġpok": 4216,
      "aĠN": 4217,
      "jaw": 4218,
      "50Ġ": 4219,
      "aÅĤĠwĠ": 4220,
      "con": 4221,
      "Zi": 4222,
      ",ĠS": 4223,
      "katoli": 4224,
      "roÅ¼": 4225,
      "Ġwej": 4226,
      "terazĠ": 4227,
      "Dy": 4228,
      "zji": 4229,
      "francu": 4230,
      "swojejĠ": 4231,
      "ÅĤom": 4232,
      "chodzi": 4233,
      "ĠpÅĤy": 4234,
      "ĠpolskiegoĠ": 4235,
      "iĠza": 4236,
      "acje": 4237,
      "uchar": 4238,
      "ÅĤaĠsiÄĻ": 4239,
      "acjÄĻ": 4240,
      "Ġpoziom": 4241,
      "jedynieĠ": 4242,
      "straci": 4243,
      "marszaÅĤ": 4244,
      "Ġ\"": 4245,
      ".ĠLinieĠprze": 4246,
      "AmerykaĠPÃ³ÅĤnoc": 4247,
      "stawi": 4248,
      "Ġkat": 4249,
      ".ĊĊĠÅ¹rÃ³dÅĤaĠĊĠĊĊKategoria:EuropaĊKategoria:": 4250,
      "Bor": 4251,
      "naleÅ¼yĠ": 4252,
      "jestĠtoĠ": 4253,
      "towarzy": 4254,
      "czego": 4255,
      "miaÅĤoĠ": 4256,
      "raport": 4257,
      "ÅĽniew": 4258,
      "Å»y": 4259,
      "granic": 4260,
      "uczni": 4261,
      "najwyÅ¼": 4262,
      "tekst": 4263,
      "aÅĤog": 4264,
      "lasyfikacjiĠ": 4265,
      "ĠĊĠ": 4266,
      "owanyĠprzezĠ": 4267,
      "uczestniczy": 4268,
      "tren": 4269,
      "stabi": 4270,
      "s.": 4271,
      "gÅĤosowaniaĠ": 4272,
      "Har": 4273,
      "ong": 4274,
      "miej": 4275,
      "ord": 4276,
      "21Ġ": 4277,
      "wodniczÄħcyĠ": 4278,
      "Ġpierwszy": 4279,
      "amp": 4280,
      "Michael": 4281,
      "krajuĠ": 4282,
      "nieĠbÄĻdzieĠ": 4283,
      "jeÅº": 4284,
      "ĠprezydentĠ": 4285,
      "Ġwniosk": 4286,
      "Ġplac": 4287,
      "kategor": 4288,
      "ÅĤÃ³dz": 4289,
      "regul": 4290,
      "Ġponow": 4291,
      "frastruktur": 4292,
      "wit": 4293,
      "ÅĽlÄħ": 4294,
      "Sejmu": 4295,
      ".ĠLinieĠprzebiegajÄħceĠprzezĠzablok": 4296,
      "kolejneĠ": 4297,
      "ÃŃ": 4298,
      "odpowiad": 4299,
      "Iran": 4300,
      "OdĠ": 4301,
      "Dz": 4302,
      "gal": 4303,
      "PA": 4304,
      "Gre": 4305,
      "urze": 4306,
      "udostÄĻpni": 4307,
      "andĠ": 4308,
      "Rober": 4309,
      "omina": 4310,
      "razieĠ": 4311,
      "oniaĠ": 4312,
      ".ĠJegoĠ": 4313,
      "skute": 4314,
      "siedzi": 4315,
      "Ġzaprezent": 4316,
      "zator": 4317,
      "owanegoĠ": 4318,
      "ij": 4319,
      "Dzien": 4320,
      ").ĊĊ": 4321,
      "Leg": 4322,
      "ÅĦcyĠ": 4323,
      "lip": 4324,
      "aul": 4325,
      "her": 4326,
      ",ĠczyliĠ": 4327,
      "szego": 4328,
      "Aka": 4329,
      "alb": 4330,
      "nictwaĠ": 4331,
      "godnieĠzĠ": 4332,
      "czym": 4333,
      "oĠza": 4334,
      "TVN": 4335,
      "nauk": 4336,
      "Ab": 4337,
      "PKĠKrakÃ³w": 4338,
      "ĊĊĠÅ¹rÃ³dÅĤaĠĊĠĊĠĊĊKategoria:": 4339,
      "StanisÅĤaw": 4340,
      "mÄĻÅ¼czyz": 4341,
      "Hen": 4342,
      "elĠ": 4343,
      "Katastrof": 4344,
      "aĠObywatel": 4345,
      "Ã³wĠw": 4346,
      "swoimĠ": 4347,
      "e-": 4348,
      "anegoĠ": 4349,
      "Ġdal": 4350,
      "ĊKategoria:B": 4351,
      "arejest": 4352,
      "Tu": 4353,
      ".ĊĊĠÅ¹rÃ³dÅĤaĠĊĊKategoria:": 4354,
      "szÄħ": 4355,
      "Ġprzewag": 4356,
      "Telewi": 4357,
      "turniej": 4358,
      "ĊĠJ": 4359,
      "Mil": 4360,
      "naĠP": 4361,
      "istniej": 4362,
      "ĠwiÄĻzie": 4363,
      "XĠ": 4364,
      ".pl/": 4365,
      "ĠÐ": 4366,
      "Ġprakty": 4367,
      "czu": 4368,
      "nami": 4369,
      "Ġproduk": 4370,
      "szech": 4371,
      "Ġwyzna": 4372,
      "staĠ": 4373,
      "ĠpasaÅ¼er": 4374,
      "rannych": 4375,
      "roze": 4376,
      "jestĠwĠ": 4377,
      "owaneĠtorowisk": 4378,
      "koronawi": 4379,
      "ÅĤodz": 4380,
      "kad": 4381,
      "Ġswoj": 4382,
      "nisz": 4383,
      "nadziej": 4384,
      ",ĠkiedyĠ": 4385,
      "9.": 4386,
      "Sen": 4387,
      "mer": 4388,
      "cznoÅĽciĠ": 4389,
      "ĠponiedziaÅĤ": 4390,
      "spotkanie": 4391,
      "lika": 4392,
      "nieĠtylkoĠ": 4393,
      "sytuacjiĠ": 4394,
      "dziesiÄħt": 4395,
      "ÅģÃ³dz": 4396,
      "ludziĠ": 4397,
      "ĠzaĠp": 4398,
      "Ġprzejrz": 4399,
      "czych": 4400,
      "Ã¼": 4401,
      "Japoni": 4402,
      "Zmia": 4403,
      "bij": 4404,
      ",ĠponiewaÅ¼Ġ": 4405,
      "ÄĻdzieĠ": 4406,
      "akty": 4407,
      "Katarzy": 4408,
      "ktĠ": 4409,
      "siÄĻg": 4410,
      "liczb": 4411,
      "miaÅĤyĠ": 4412,
      "ĊKategoria:MPKĠKrakÃ³w": 4413,
      "Republi": 4414,
      "erroryzm": 4415,
      "Raf": 4416,
      "uszcz": 4417,
      "ukaz": 4418,
      "iaÅĤaĠ": 4419,
      "instal": 4420,
      "Stro": 4421,
      "jednoczeÅĽ": 4422,
      "cztere": 4423,
      "godnieĠz": 4424,
      "rÃ³j": 4425,
      "ĠzakÅĤad": 4426,
      "waneĠ": 4427,
      "musz": 4428,
      "ckichĠ": 4429,
      "Åģukasz": 4430,
      "Å¼ywi": 4431,
      "opini": 4432,
      ",ĠwĠkierunkuĠ": 4433,
      "owymiĠ": 4434,
      "nÄĻĠ": 4435,
      ".ĠĊĊP": 4436,
      "caÅĤejĠ": 4437,
      "resĠ": 4438,
      "sieciĠ": 4439,
      "22Ġ": 4440,
      "gromad": 4441,
      "ajÄħcych": 4442,
      "ii,Ġ": 4443,
      "ĠmoÅ¼naĠ": 4444,
      "mak": 4445,
      "atr": 4446,
      "zostaÅĤyĠ": 4447,
      "OR": 4448,
      "Ċthumb|250px|": 4449,
      "Car": 4450,
      "skÅĤadzie": 4451,
      "budowyĠ": 4452,
      "rozpoczÄħ": 4453,
      "rosof": 4454,
      "Ġmuzy": 4455,
      "ZwiÄħzekĠ": 4456,
      "marÅĤyĠ": 4457,
      "okrÄĻg": 4458,
      "65": 4459,
      ":00Ġ": 4460,
      "Ã³ÅºniejĠ": 4461,
      "najwaÅ¼niej": 4462,
      "Å¼ycie": 4463,
      "suk": 4464,
      "wierdzi": 4465,
      "ÅĤon": 4466,
      "iew": 4467,
      "Microsof": 4468,
      "lategoĠ": 4469,
      "azi": 4470,
      "Ã³wĠZjednoczon": 4471,
      "ÄħĠiĠ": 4472,
      "sobie": 4473,
      "szenieĠ": 4474,
      "koÅĦcaĠ": 4475,
      "miesiÄĻ": 4476,
      "CC": 4477,
      "aÅĤaĠsiÄĻĠ": 4478,
      "PolskiegoĠ": 4479,
      "PolskieĠ": 4480,
      ".ĠĠĠ": 4481,
      "asĠ": 4482,
      "ph": 4483,
      "ktÃ³rych": 4484,
      "ĠwĠramachĠ": 4485,
      "ĠwersjiĠ": 4486,
      "RosjiĠ": 4487,
      ",ĠB": 4488,
      "ĠprzywÃ³d": 4489,
      "3.": 4490,
      "oÅĽcia": 4491,
      "kopolsk": 4492,
      "ÄĻdz": 4493,
      "Ġpremie": 4494,
      "ĠwpÅĤyw": 4495,
      "+Ġ": 4496,
      "ĠBar": 4497,
      "GÅĤÃ³w": 4498,
      "KomisjiĠ": 4499,
      "to,ĠÅ¼eĠ": 4500,
      "jÄĻĠ": 4501,
      "bowie": 4502,
      "3,": 4503,
      "ux": 4504,
      "eleton": 4505,
      "liÅĤĠ": 4506,
      "ĊKategoria:D": 4507,
      "ostatecz": 4508,
      "stawion": 4509,
      "Jakub": 4510,
      "rem": 4511,
      "niachĠ": 4512,
      "jednymĠzĠ": 4513,
      ".ĊĊC": 4514,
      "czonoĠ": 4515,
      "owaÅĦ": 4516,
      "Ġzdecyd": 4517,
      "cenieĠ": 4518,
      "New": 4519,
      "ĠwĠM": 4520,
      "LechĠKaczyÅĦski": 4521,
      "rebeliant": 4522,
      "ÅĦskich": 4523,
      "41": 4524,
      "coĠnajmniejĠ": 4525,
      "wÃ³r": 4526,
      "ÅĤĠw": 4527,
      ".ĠWĠtymĠ": 4528,
      "brojne": 4529,
      "stanuĠ": 4530,
      "Mc": 4531,
      "Ro": 4532,
      "ostatni": 4533,
      "ZbigniewĠ": 4534,
      "bit": 4535,
      "rÃ³wn": 4536,
      "ST": 4537,
      "2019": 4538,
      "Interne": 4539,
      "Ã¶": 4540,
      "osze": 4541,
      "__": 4542,
      "moni": 4543,
      "element": 4544,
      "kiejĠBrytani": 4545,
      "strak": 4546,
      "WojciechĠ": 4547,
      ".ĠNatomiast": 4548,
      "zacjaĠ": 4549,
      "Zam": 4550,
      "Wis": 4551,
      ".ĊĊPrze": 4552,
      "ĠwystÄħpi": 4553,
      "czejĠ": 4554,
      "lia": 4555,
      "ÅĤaĠdoĠ": 4556,
      "van": 4557,
      "aĠzaĠ": 4558,
      "nowyĠ": 4559,
      "ik": 4560,
      "uryĠ": 4561,
      "ĠpierwszymĠ": 4562,
      "elektry": 4563,
      "Ð°": 4564,
      "ĠwĠtejĠ": 4565,
      ",ĠM": 4566,
      "terytor": 4567,
      "berg": 4568,
      "Gi": 4569,
      "sym": 4570,
      "bol": 4571,
      "Is": 4572,
      "numer": 4573,
      "ONZ": 4574,
      "reÅ¼y": 4575,
      "najnow": 4576,
      "Film": 4577,
      "Komen": 4578,
      "otrzymaÅĤĠ": 4579,
      "komÃ³r": 4580,
      "197": 4581,
      "ĠdostÄĻp": 4582,
      "yĠprzezĠ": 4583,
      "owa,Ġ": 4584,
      "Ġpomoc": 4585,
      "28Ġ": 4586,
      "rgani": 4587,
      "straÅ¼": 4588,
      "NI": 4589,
      "sytuacji": 4590,
      "cyjnyĠ": 4591,
      "Ġm.in.Ġ": 4592,
      "chÄĻ": 4593,
      "scen": 4594,
      "siĠ": 4595,
      ".ĠNastÄĻp": 4596,
      "zespÃ³ÅĤĠ": 4597,
      "szkaĠ": 4598,
      "taj": 4599,
      "ienieĠ": 4600,
      "Ġwymia": 4601,
      "konflikt": 4602,
      "alesty": 4603,
      "czÅĤonkow": 4604,
      "4.": 4605,
      "onuĠ": 4606,
      "(p": 4607,
      "kaza": 4608,
      "wycz": 4609,
      "strzel": 4610,
      "omin": 4611,
      "Ġprzezna": 4612,
      "aĠ-Ġ": 4613,
      "WÅĤochy": 4614,
      "Daniel": 4615,
      "ca,Ġ": 4616,
      "nieĠprzy": 4617,
      "ustale": 4618,
      "ugrup": 4619,
      "ria": 4620,
      "owal": 4621,
      ",ĠJ": 4622,
      "odnot": 4623,
      "ĠmlnĠzÅĤ": 4624,
      "2.": 4625,
      "rekor": 4626,
      "Trybun": 4627,
      "rai": 4628,
      "erze": 4629,
      "szyscyĠ": 4630,
      "unik": 4631,
      "danychĠ": 4632,
      "aÅĤuĠ": 4633,
      "ÄħĠsiÄĻĠ": 4634,
      "oddziaÅĤ": 4635,
      "ÅĦskie": 4636,
      "angiel": 4637,
      "ĠpiÅĤkar": 4638,
      "skut": 4639,
      "nowych": 4640,
      "CzÄĻst": 4641,
      "Ġpost": 4642,
      "ament": 4643,
      "yĠzbrojne": 4644,
      "mit": 4645,
      "ÅĤadzieĠ": 4646,
      "Och": 4647,
      ",Ġd": 4648,
      "owo": 4649,
      "De": 4650,
      ".ĠĊ": 4651,
      "ToĠ": 4652,
      "Ġ(WD):Ġ": 4653,
      "Ġpojazd": 4654,
      "opi": 4655,
      "Ġpokaz": 4656,
      "tworz": 4657,
      "koronawirus": 4658,
      "oprac": 4659,
      "Å¼Äħd": 4660,
      "dniuĠz": 4661,
      "Ġtrze": 4662,
      "rzÄħdu": 4663,
      "liniiĠ": 4664,
      ",ĠwĠktÃ³rym": 4665,
      "konkurs": 4666,
      ".ĠLinieĠprzebiegajÄħceĠprzezĠzablokowaneĠtorowisk": 4667,
      "atysty": 4668,
      "Ġpozwal": 4669,
      "StowarzyszenieĠ": 4670,
      "fliktyĠzbrojne": 4671,
      "ĠiĠCOVID-19": 4672,
      "RosjaĊKategoria:": 4673,
      "nastÄĻpujÄħceĠosoby": 4674,
      "57": 4675,
      "aktual": 4676,
      "ckimĠ": 4677,
      "komi": 4678,
      "Akademi": 4679,
      "kowychĠ": 4680,
      "ĠâĢŀ": 4681,
      "2015": 4682,
      "klÄĻ": 4683,
      "Ber": 4684,
      "twor": 4685,
      "nowejĠ": 4686,
      "ĠpowaÅ¼": 4687,
      "abi": 4688,
      "Å¼ywioÅĤ": 4689,
      "cznoÅĽci": 4690,
      "ÅĦskimĠ": 4691,
      ",Ġ,Ġ,Ġ,Ġ": 4692,
      "ury": 4693,
      "twa": 4694,
      "zeniuĠ": 4695,
      "ktÃ³rymĠ": 4696,
      "Hist": 4697,
      "IV": 4698,
      "PolskichĠ": 4699,
      "en:": 4700,
      "000Ġ": 4701,
      "nastÄĻpujÄħceĠosoby:ĊĠ": 4702,
      "ĠprawaĠ": 4703,
      "legal": 4704,
      "kontro": 4705,
      "groma": 4706,
      "ĊKategoria:Nau": 4707,
      "IT": 4708,
      "lag": 4709,
      "zeĠwzglÄĻduĠnaĠ": 4710,
      "ĠpremieraĠ": 4711,
      ".ĠE": 4712,
      "Ġzmarli:Ġ": 4713,
      "Ġzasad": 4714,
      "biskup": 4715,
      "ĊKategoria:PolitykaĊKategoria:PolskaĊKategoria:": 4716,
      "wanieĠ": 4717,
      "obejm": 4718,
      "Anto": 4719,
      "Pan": 4720,
      "znale": 4721,
      "ĠprogramĠ": 4722,
      "isjaĠ": 4723,
      "ĠwĠk": 4724,
      "WÄĻg": 4725,
      "obchod": 4726,
      "Muzy": 4727,
      "ĠPolsce": 4728,
      "Ġswo": 4729,
      "iot": 4730,
      "ĠpodrÃ³Å¼": 4731,
      "NATO": 4732,
      ".ĠPoz": 4733,
      "Zab": 4734,
      "eleg": 4735,
      "ĊĠS": 4736,
      "ĠzamkniÄĻ": 4737,
      "OĠ": 4738,
      "ofia": 4739,
      "hom": 4740,
      "Niep": 4741,
      "negocj": 4742,
      "opar": 4743,
      "ÅĤu": 4744,
      "2013": 4745,
      "owej,Ġ": 4746,
      "rab": 4747,
      "dniachĠ": 4748,
      "ramach": 4749,
      "swojegoĠ": 4750,
      "cy,Ġ": 4751,
      ".ĠJednakĠ": 4752,
      ".ĊĊWĠtymĠdniuĠz": 4753,
      ".ĊĊWĠtymĠdniuĠzmarÅĤyĠ": 4754,
      ".ĊĊWĠtymĠdniuĠzmarÅĤyĠnastÄĻpujÄħceĠosoby:ĊĠ": 4755,
      "mimoĠ": 4756,
      "Fi": 4757,
      "oceni": 4758,
      "Ukrai": 4759,
      "aĠwĠKrakowie": 4760,
      "tÃ³wĠ": 4761,
      "Ġmiejsce": 4762,
      "straj": 4763,
      "cyjnegoĠ": 4764,
      "oleg": 4765,
      "czar": 4766,
      "spoÅĤeczeÅĦstw": 4767,
      "Be": 4768,
      "np.Ġ": 4769,
      "serwis": 4770,
      "99": 4771,
      "aĠpolsk": 4772,
      "iĠd": 4773,
      "ÅĽmierciĠ": 4774,
      "Dav": 4775,
      "Å¼oÅĤnierzy": 4776,
      "razem": 4777,
      "naĠterenieĠ": 4778,
      "naleÅº": 4779,
      "znajd": 4780,
      "arzaĠ": 4781,
      "cyjnychĠ": 4782,
      "isc": 4783,
      "czoÅĤ": 4784,
      "odpowiedni": 4785,
      "acjon": 4786,
      "iĠK": 4787,
      "Ġwydan": 4788,
      "Ġto": 4789,
      "omo": 4790,
      "ass": 4791,
      "acebook": 4792,
      "tejĠpor": 4793,
      "Cie": 4794,
      "Ġpopular": 4795,
      "(w": 4796,
      "Ġproc.Ġ": 4797,
      "miejscowoÅĽciĠ": 4798,
      "oÅĤoĠgodzinyĠ": 4799,
      "Ġwicepre": 4800,
      "ÅĤyĠsiÄĻ": 4801,
      "atry": 4802,
      ".ĠZd": 4803,
      "stanu": 4804,
      ".ĠOstat": 4805,
      "Ban": 4806,
      "agd": 4807,
      "Est": 4808,
      "owanymĠ": 4809,
      "PrawoĠiĠSprawiedliwoÅĽÄĩ": 4810,
      "tow": 4811,
      "warant": 4812,
      "gÅĤasz": 4813,
      "owaniemĠ": 4814,
      "a,ĠaĠ": 4815,
      "waliĠ": 4816,
      "rist": 4817,
      "natomiastĠ": 4818,
      ".ĊĊPro": 4819,
      "Przy": 4820,
      "ĠpoÅĤud": 4821,
      "ĊKategoria:Terroryzm": 4822,
      "katastrof": 4823,
      "-M": 4824,
      "osiÄħgniÄĻ": 4825,
      "noÅĽlÄħ": 4826,
      ",ĠjednakĠ": 4827,
      "At": 4828,
      "ogÅĤosz": 4829,
      "ÅĤaĠwĠ": 4830,
      "FA": 4831,
      "reklam": 4832,
      "ajcar": 4833,
      "ĊKategoria:KrakÃ³wĊKategoria:MPKĠKrakÃ³w": 4834,
      "obszar": 4835,
      "energety": 4836,
      "czteryĠ": 4837,
      "ieraj": 4838,
      "rÄĻcz": 4839,
      "namĠ": 4840,
      "referend": 4841,
      "26Ġ": 4842,
      "odd": 4843,
      "leb": 4844,
      "aniaĠp": 4845,
      "skon": 4846,
      "2021ĠrokuĠ": 4847,
      "specjali": 4848,
      "ÄħÅ¼e": 4849,
      "komisjiĠ": 4850,
      ",Ġpod": 4851,
      "zad": 4852,
      "cyjne": 4853,
      "abor": 4854,
      "ierow": 4855,
      "Ġpak": 4856,
      "Pra": 4857,
      "ZwiÄħz": 4858,
      "nadzor": 4859,
      "ĊĊKategoria:PolskaĊKategoria:": 4860,
      "kowski": 4861,
      "groz": 4862,
      "Ġznalaz": 4863,
      "inten": 4864,
      "ĠprawoĠ": 4865,
      "izrael": 4866,
      "Ġpowiat": 4867,
      "mieliĠ": 4868,
      "dzy": 4869,
      "Ġpublika": 4870,
      "Ã³wĠd": 4871,
      "cyjnego": 4872,
      "konstru": 4873,
      "adyĠ": 4874,
      "tan": 4875,
      "obÃ³j": 4876,
      "a\"": 4877,
      "ileĠ": 4878,
      "ĊKategoria:Archiwalne": 4879,
      "zapewni": 4880,
      "oÅĽrod": 4881,
      "Win": 4882,
      "king": 4883,
      "Ã³jĠ": 4884,
      "aĠpoĠ": 4885,
      "Obam": 4886,
      "jestĠz": 4887,
      "UniwersytetuĠ": 4888,
      "ech": 4889,
      "targ": 4890,
      "Tak": 4891,
      "ling": 4892,
      "waÅĽniew": 4893,
      "Parlament": 4894,
      "GB": 4895,
      "mieniaĠ": 4896,
      "honor": 4897,
      "Ġponad": 4898,
      "yÅĽl": 4899,
      "ef": 4900,
      "mistrzost": 4901,
      "inicjatyw": 4902,
      "ÄĻĠzĠ": 4903,
      "konk": 4904,
      "celemĠ": 4905,
      "kujÄħc": 4906,
      "Äħb": 4907,
      "demon": 4908,
      "mogliĠ": 4909,
      "6.": 4910,
      "ieÅĤ": 4911,
      "ceniaĠ": 4912,
      "ataĠ": 4913,
      "czeÅĦ": 4914,
      "zagra": 4915,
      "PiÅĤkaĠnoÅ¼": 4916,
      "adi": 4917,
      "Arty": 4918,
      "bezpÅĤat": 4919,
      "gdzieĠ": 4920,
      "aÅĤemĠ": 4921,
      "yĠzost": 4922,
      "Ġpx": 4923,
      "-letni": 4924,
      "egoĠprzezĠ": 4925,
      "ropon": 4926,
      "Ġzakres": 4927,
      "iĠS": 4928,
      "miejscuĠ": 4929,
      "Ġpublicznej": 4930,
      "ĠwÅĤo": 4931,
      "Sk": 4932,
      "nictwoĠ": 4933,
      "okazjiĠ": 4934,
      "ajĠ": 4935,
      "TourĠdeĠ": 4936,
      "ukrai": 4937,
      "eks": 4938,
      "WypadkiĠdrogoweĊKategoria:KrakÃ³wĊKategoria:MPKĠKrakÃ³w": 4939,
      "zarz": 4940,
      "ĠKon": 4941,
      "40Ġ": 4942,
      "bot": 4943,
      "zdarzeniaĠ": 4944,
      "Ukraina": 4945,
      "Ġprop": 4946,
      "iÄĻksz": 4947,
      "rodzi": 4948,
      "Ġwyniku": 4949,
      "telewizyj": 4950,
      "Ð¾": 4951,
      "ratow": 4952,
      "czyÄĩ": 4953,
      "ami,Ġ": 4954,
      "58": 4955,
      "GrzegorzĠ": 4956,
      "ĊĠĊĠĊĠĊĠ": 4957,
      "narciar": 4958,
      "prowadz": 4959,
      "redaktor": 4960,
      "doszÅĤo": 4961,
      "obraz": 4962,
      "Ġprofes": 4963,
      "rew": 4964,
      "KS": 4965,
      "Ðµ": 4966,
      "23Ġ": 4967,
      "zeÅĦ": 4968,
      "27Ġ": 4969,
      "ve": 4970,
      ".ĠZĠ": 4971,
      "CS": 4972,
      "Ð¸": 4973,
      "a.ĊĊ": 4974,
      "Wikipedia": 4975,
      ".ĠWszyst": 4976,
      "ktÃ³rejĠ": 4977,
      "nazwi": 4978,
      "tyĠiĠ": 4979,
      "Ġprzekon": 4980,
      "ĠprzedsiÄĻbior": 4981,
      "mil": 4982,
      "CB": 4983,
      "Ġkole": 4984,
      "EĠ": 4985,
      "czykĠ": 4986,
      "udaÅĤoĠ": 4987,
      "ĠwysÅĤ": 4988,
      "jÄħÅĤĠ": 4989,
      "ĠpÅĤa": 4990,
      "siÄĻĠdo": 4991,
      "mani": 4992,
      "odkry": 4993,
      "spekt": 4994,
      ",ĠiÅ¼": 4995,
      ",8": 4996,
      "ekon": 4997,
      "ush": 4998,
      "coÅĽ": 4999,
      "unij": 5000,
      "sprzeda": 5001,
      "federa": 5002,
      "Now": 5003,
      "ĠwĠWarszawieĠ": 5004,
      "Ju": 5005,
      "ater": 5006,
      "ÄħÅĤĠ": 5007,
      "ĠpoprzezĠ": 5008,
      "aszy": 5009,
      ",ĠaĠw": 5010,
      "naut": 5011,
      "ĠrozpoczÄĻ": 5012,
      "obej": 5013,
      "odbyÅĤaĠsiÄĻĠ": 5014,
      "wanyĠ": 5015,
      "nieĠd": 5016,
      "owo-": 5017,
      "Reg": 5018,
      "Jest": 5019,
      "SARS-CoV-2ĠiĠCOVID-19": 5020,
      "edycji": 5021,
      "konkret": 5022,
      "Mariusz": 5023,
      "ÅĤÄĻ": 5024,
      "Ã³sÅĤĠ": 5025,
      "oglÄħd": 5026,
      "ill": 5027,
      "skÅĤadzie:Ġ": 5028,
      "ajÄħĠsiÄĻĠ": 5029,
      "cyjnej": 5030,
      "ĠwypadkuĠ": 5031,
      "ĠpomocyĠ": 5032,
      "NASA": 5033,
      "wÃ³ch": 5034,
      "rza": 5035,
      "nasĠ": 5036,
      "ĊĊWĠ": 5037,
      "zakoÅĦ": 5038,
      "istot": 5039,
      "arejestr": 5040,
      "Ġwarszaw": 5041,
      "Robert": 5042,
      "ris": 5043,
      "kich": 5044,
      "Katowice": 5045,
      "stawieĠ": 5046,
      "-B": 5047,
      "Ġwpis": 5048,
      "caÅĤymĠ": 5049,
      "emery": 5050,
      "ysÅĤaw": 5051,
      "nalezion": 5052,
      "Ur": 5053,
      "spotkanieĠ": 5054,
      "vi": 5055,
      "nagra": 5056,
      "najbardziej": 5057,
      "ciaÅĤ": 5058,
      "onda": 5059,
      "Ġparlamentarne": 5060,
      "olibor": 5061,
      "LPR": 5062,
      "ryzy": 5063,
      "XX": 5064,
      "aĠza": 5065,
      "ĠpoĠrazĠ": 5066,
      "dĠP": 5067,
      "dzisiaj": 5068,
      "nikuĠ": 5069,
      "Ġmil": 5070,
      "ody": 5071,
      "cieleĠ": 5072,
      "darze": 5073,
      "Zag": 5074,
      "ĠCh": 5075,
      "obuĠ": 5076,
      "ĠwygraÅĤĠ": 5077,
      "Man": 5078,
      "w.": 5079,
      "nieĠpod": 5080,
      "owychĠiĠ": 5081,
      "kohol": 5082,
      "emĠwĠ": 5083,
      "alar": 5084,
      "a.ĠW": 5085,
      "Ġ(WD):": 5086,
      "aÅĤac": 5087,
      "Ġproced": 5088,
      "bezpoÅĽredni": 5089,
      "uszy": 5090,
      ".ĊĊâĢŀ": 5091,
      ",ĠpodczasĠ": 5092,
      "rzeczywi": 5093,
      "ge": 5094,
      "szÅĤymĠ": 5095,
      "jestĠtak": 5096,
      "Ċthumb|left|": 5097,
      "uzasad": 5098,
      "rez": 5099,
      "liĠwĠ": 5100,
      "kaĠw": 5101,
      "ajÄħcegoĠ": 5102,
      "ÅĤop": 5103,
      "WielkiejĠBrytani": 5104,
      "ti": 5105,
      "rzew": 5106,
      "Ġwez": 5107,
      "ĠpoÅĽwiÄĻ": 5108,
      "jew": 5109,
      "ĠwyÅĽciguĠ": 5110,
      "a:Ġ": 5111,
      "strzy": 5112,
      ".ĠDod": 5113,
      "Kore": 5114,
      "AC": 5115,
      "ogrom": 5116,
      "So": 5117,
      "à¯į": 5118,
      "ejĠprzezĠ": 5119,
      "Tub": 5120,
      "ste": 5121,
      "kaÅ¼dyĠ": 5122,
      "ĠprÃ³": 5123,
      "owskiego": 5124,
      "okrot": 5125,
      "owymi": 5126,
      "a)": 5127,
      "Szy": 5128,
      "osÃ³bĠzĠwoj.Ġ": 5129,
      "cyt": 5130,
      "Gen": 5131,
      "nieĠdoĠ": 5132,
      "Kancel": 5133,
      "You": 5134,
      "aĠpoz": 5135,
      "rezyden": 5136,
      "rum": 5137,
      "grupaĠ": 5138,
      "kryzy": 5139,
      "reaktor": 5140,
      "AndrzejĠLepper": 5141,
      "âĢľ": 5142,
      "oczeki": 5143,
      "frag": 5144,
      "JacekĠ": 5145,
      "kowych": 5146,
      "2004": 5147,
      "dyskus": 5148,
      "aĠjestĠ": 5149,
      "Ġwidz": 5150,
      "Ġse": 5151,
      "ĠmÄĻÅ¼czyzn": 5152,
      "2014": 5153,
      "54": 5154,
      "ciem": 5155,
      "mogÄħ": 5156,
      "artiaĠ": 5157,
      "ĠzakoÅĦczy": 5158,
      "stolicyĠ": 5159,
      "Iraku": 5160,
      "SLD": 5161,
      "liczbaĠ": 5162,
      "ĠĠ(": 5163,
      "entual": 5164,
      "ĠpolskojÄĻzy": 5165,
      "Central": 5166,
      "aÅĤĠnaĠ": 5167,
      "emon": 5168,
      "Niemiec": 5169,
      "razemĠ": 5170,
      "niar": 5171,
      "niesi": 5172,
      "olu": 5173,
      "kolejnyĠ": 5174,
      "kurs": 5175,
      ".ĠL": 5176,
      "retar": 5177,
      "RzeczypospolitejĠPolskiejĠ": 5178,
      "ÄĩĠz": 5179,
      "Ri": 5180,
      "ĠwiÄĻcej": 5181,
      "dro": 5182,
      "konsult": 5183,
      "szac": 5184,
      "ĠwĠsprawie": 5185,
      "Å¼ycieĠ": 5186,
      ",Ġprzy": 5187,
      "gwia": 5188,
      "Gu": 5189,
      "ambasad": 5190,
      "serwisieĠ": 5191,
      "roducent": 5192,
      "Litw": 5193,
      "Ġwolny": 5194,
      "atru": 5195,
      "Wsch": 5196,
      "StanÃ³wĠZjednoczon": 5197,
      "eksu": 5198,
      "onegoĠ": 5199,
      "tÄĻ": 5200,
      "Ġprzedstawiciel": 5201,
      "tokrzy": 5202,
      "konferencjiĠpras": 5203,
      "ĠwyborachĠ": 5204,
      "Dor": 5205,
      "rowincjiĠ": 5206,
      "oprogram": 5207,
      "ReprezentacjaĠ": 5208,
      "niewiel": 5209,
      ".ĊĊWedÅĤugĠ": 5210,
      "handl": 5211,
      "ional": 5212,
      "ens": 5213,
      "uruchom": 5214,
      "56": 5215,
      "Ġser": 5216,
      "CzÄĻstoch": 5217,
      "Ġpowinie": 5218,
      "yĠzaĠ": 5219,
      "niach": 5220,
      "Nagrod": 5221,
      "ĠwÅĤadze": 5222,
      "Ã³w.ĠW": 5223,
      "dziaÅĤalnoÅĽciĠ": 5224,
      "momen": 5225,
      "olicj": 5226,
      "nieÅĦ": 5227,
      "nosz": 5228,
      ".ĠKon": 5229,
      "Ġpozb": 5230,
      "czÅĤonkÃ³wĠ": 5231,
      "zawod": 5232,
      "2022ĠrokuĠ": 5233,
      "czek": 5234,
      "kot": 5235,
      "Ġzapewni": 5236,
      "ĠprzyĠul": 5237,
      "yĠzostaÅĤĠ": 5238,
      "minister": 5239,
      "2007Ġ": 5240,
      "oreport": 5241,
      "ardĠ": 5242,
      "FundacjiĠ": 5243,
      "anychĠzĠ": 5244,
      "siÅĤĠ": 5245,
      "drugiej": 5246,
      "Dom": 5247,
      "lataĠ": 5248,
      "gdzie": 5249,
      "Fundusz": 5250,
      "Media": 5251,
      "ĊKategoria:ArchiwalneĊthumb|": 5252,
      "1:": 5253,
      "XVI": 5254,
      "stwierdziÅĤ,ĠÅ¼eĠ": 5255,
      "dzeniaĠ": 5256,
      "rÃ³Å¼ni": 5257,
      "Common": 5258,
      "siad": 5259,
      "abin": 5260,
      "âĢĿĠâĢĵ": 5261,
      "zjaĠ": 5262,
      "amil": 5263,
      "www.": 5264,
      "ĊĊĠÅ¹rÃ³dÅĤaĠ": 5265,
      "bieÅ¼": 5266,
      "Ġroku,Ġ": 5267,
      "rÄĻd": 5268,
      "jeÅ¼dÅ¼": 5269,
      "Os": 5270,
      "ÅĽpie": 5271,
      ".ĠJednak": 5272,
      "ograni": 5273,
      "ple": 5274,
      "dotychczas": 5275,
      "opublikow": 5276,
      "Ġpochodz": 5277,
      "ariusze": 5278,
      "zysk": 5279,
      "rzeniaĠ": 5280,
      "informacyj": 5281,
      "rzÄħ": 5282,
      "no-": 5283,
      "ekspl": 5284,
      "ĠpomysÅĤ": 5285,
      ",ĠjakĠiĠ": 5286,
      "ukÅĤad": 5287,
      "acyĠ": 5288,
      "San": 5289,
      "aĠPawÅĤaĠ": 5290,
      "treÅĽ": 5291,
      "52": 5292,
      "szeÅĽci": 5293,
      "ĠRze": 5294,
      "sklep": 5295,
      "WojewÃ³dz": 5296,
      "stÃ³wĠ": 5297,
      "AndrzejaĠ": 5298,
      "Ameryka": 5299,
      "czasemĠ": 5300,
      "aczmar": 5301,
      "Ġzmieni": 5302,
      "doprowadzi": 5303,
      "biera": 5304,
      "aÅ¼Ġ": 5305,
      "Ġzamach": 5306,
      "camiĠ": 5307,
      "skieĊKategoria:": 5308,
      "szel": 5309,
      "Ġwzrost": 5310,
      "ero": 5311,
      "eryĠ": 5312,
      "styĠ": 5313,
      "Ġtrak": 5314,
      "spÃ³l": 5315,
      "ania,Ġ": 5316,
      "elektrow": 5317,
      "%)": 5318,
      "oczywi": 5319,
      "klucz": 5320,
      "aĠprzed": 5321,
      "egoĠwĠ": 5322,
      "owano": 5323,
      "Warszawie": 5324,
      "nocyĠ": 5325,
      "usi": 5326,
      "skiĠÅ¼ywioÅĤ": 5327,
      "idĠ": 5328,
      "uraĠ": 5329,
      "ĠpeÅĤni": 5330,
      "infrastruktur": 5331,
      "RzeczypospolitejĠPolskiej": 5332,
      "DonaldaĠ": 5333,
      "ĠsÄħĠ": 5334,
      "odzna": 5335,
      "Ġpodz": 5336,
      "Europy": 5337,
      "karp": 5338,
      "dziÅĽĠ": 5339,
      "Ġpolityk": 5340,
      "Bart": 5341,
      "reli": 5342,
      "Ġprzeprowadzi": 5343,
      "iĠdoĠ": 5344,
      "rowia": 5345,
      "ÅĽledztw": 5346,
      "utor": 5347,
      "trzebaĠ": 5348,
      "adz": 5349,
      "IĠ": 5350,
      "ustal": 5351,
      "ĠpolskiejĠ": 5352,
      "ĠpiÄħtek": 5353,
      "Val": 5354,
      "Holand": 5355,
      "Å¼oÅĤnierzyĠ": 5356,
      "Rzeczpospoli": 5357,
      "oleĠ": 5358,
      "wybor": 5359,
      "2024ĠrokuĠokoÅĤoĠgodzinyĠ": 5360,
      "strateg": 5361,
      "iÄĻcĠ": 5362,
      "ckieĠ": 5363,
      "kim": 5364,
      "miejscaĠ": 5365,
      "Ag": 5366,
      "Otw": 5367,
      "Demokraty": 5368,
      "ezpieczeÅĦstw": 5369,
      "kontakt": 5370,
      ".ĠOp": 5371,
      "obaczy": 5372,
      "cemĠ": 5373,
      "ieÅĦ": 5374,
      "caÅĤegoĠ": 5375,
      "jakie": 5376,
      "67": 5377,
      "Ter": 5378,
      "talib": 5379,
      "deĠwszystkimĠ": 5380,
      "spar": 5381,
      "?ĊĊ": 5382,
      "awodni": 5383,
      "ĠwysokoÅĽciĠ": 5384,
      "ĠpodkreÅĽl": 5385,
      "ĠprzedstawicieleĠ": 5386,
      "ĠwobecĠ": 5387,
      "ĠpapieÅ¼": 5388,
      "ĠpozaĠ": 5389,
      "fizy": 5390,
      "organizacji": 5391,
      "MariaĠ": 5392,
      "ĠwynikiĠ": 5393,
      "ÅĦski,Ġ": 5394,
      "acjent": 5395,
      "standar": 5396,
      "ĠpomiÄĻdzyĠ": 5397,
      "myÅĽl": 5398,
      "dziaÅĤ,ĠÅ¼eĠ": 5399,
      "fekt": 5400,
      "stwierdziÅĤĠ": 5401,
      "ewentual": 5402,
      "syÅĤ": 5403,
      "ĠpiÅĤkarz": 5404,
      ".ĠNaĠp": 5405,
      "retarzĠ": 5406,
      "Ġproc.": 5407,
      "Histor": 5408,
      "Ġzmian": 5409,
      "gr": 5410,
      "OkoÅĤoĠgodzinyĠ": 5411,
      "ĊKategoria:NaukaĊKategoria:": 5412,
      "daneĠ": 5413,
      "noczeÅĽ": 5414,
      "ĊĠD": 5415,
      "Ġprzewi": 5416,
      "czterechĠ": 5417,
      "czna": 5418,
      "ymĠprzezĠ": 5419,
      "kultu": 5420,
      "zwol": 5421,
      "Facebook": 5422,
      "edycjaĠ": 5423,
      "aluĠ": 5424,
      "YouTub": 5425,
      "bezpieczeÅĦstwaĠ": 5426,
      "niÄħd": 5427,
      "tre": 5428,
      ",ĠktÃ³rychĠ": 5429,
      ",ĠdoĠ": 5430,
      "29Ġ": 5431,
      "Ġzainteres": 5432,
      "ĠzÅĤĠ": 5433,
      "ÅĤÃ³": 5434,
      "Mart": 5435,
      "ĠzginÄĻÅĤoĠ": 5436,
      "://www.": 5437,
      "tejĠporyĠ": 5438,
      "siÅĤyĠ": 5439,
      "gij": 5440,
      "fr": 5441,
      "ajÄħcejĠ": 5442,
      "charakter": 5443,
      "WrocÅĤawi": 5444,
      "Col": 5445,
      "kli": 5446,
      "dziennikarz": 5447,
      "aĠpraw": 5448,
      "kaÅ¼dy": 5449,
      "klÄĻskiĠÅ¼ywioÅĤ": 5450,
      "ZmianaĠwĠ": 5451,
      "schodziĠ": 5452,
      "okazj": 5453,
      "ÄħduĠ": 5454,
      "Ġproce": 5455,
      "bog": 5456,
      "aĠwszyst": 5457,
      "alkohol": 5458,
      "nog": 5459,
      "nyĠiĠ": 5460,
      "OS": 5461,
      "XĠkadencji": 5462,
      "Åºni": 5463,
      "zer": 5464,
      "opuÅĽci": 5465,
      "fre": 5466,
      "trzeci": 5467,
      "elemĠ": 5468,
      "ÅĤem": 5469,
      "Mon": 5470,
      "noÅĽciÄħĠ": 5471,
      "Egi": 5472,
      "PartiaĠ": 5473,
      "ZmianaĠwĠskÅĤadzie:Ġ": 5474,
      "ZmianaĠwĠskÅĤadzie:ĠschodziĠ": 5475,
      "wchodziĠ": 5476,
      "aplika": 5477,
      "RP": 5478,
      "Barbar": 5479,
      "ke": 5480,
      ",ĠponiewaÅ¼": 5481,
      "ĠpamiÄĻ": 5482,
      "Ġwarszt": 5483,
      "ckiejĠ": 5484,
      "siÄĻÅ¼y": 5485,
      "ind": 5486,
      "ric": 5487,
      ",7": 5488,
      "odbÄĻdÄħĠ": 5489,
      "ejĠwĠ": 5490,
      "szczegÃ³ÅĤ": 5491,
      "ostra": 5492,
      "Obro": 5493,
      "orweg": 5494,
      "cjachĠ": 5495,
      "Ġprywat": 5496,
      "AT": 5497,
      "interwen": 5498,
      "oÅĤud": 5499,
      "strony": 5500,
      "aĠT": 5501,
      ",ĠaĠnastÄĻp": 5502,
      "unika": 5503,
      "okratycz": 5504,
      "systemĠ": 5505,
      "ĠpoinformowaÅĤ,ĠÅ¼eĠ": 5506,
      "waÅ¼y": 5507,
      ",ĠnieĠ": 5508,
      "sondaÅ¼": 5509,
      "owieckie": 5510,
      ".Ġetap": 5511,
      "zeĠstronyĠ": 5512,
      "rodze": 5513,
      "odpowiedziĠ": 5514,
      "ĠwystÄħpie": 5515,
      "GoogleĠ": 5516,
      "aĠPawÅĤaĠII": 5517,
      "aÅĤoÅ¼y": 5518,
      "Ġprzebieg": 5519,
      "stronaĠ": 5520,
      ",ĠD": 5521,
      "ista": 5522,
      "ogÅĤosiÅĤ": 5523,
      "ecyzj": 5524,
      "ĠzostaÅĤaĠ": 5525,
      "Konstytu": 5526,
      "ÅĽled": 5527,
      "ĠmiejsceĠ": 5528,
      "uderzy": 5529,
      "nicznych": 5530,
      "nadal": 5531,
      "Ġwyraz": 5532,
      "ĠprojektĠ": 5533,
      "straklas": 5534,
      "bet": 5535,
      "jek": 5536,
      "okÃ³ÅĤĠ": 5537,
      "kaĠiĠ": 5538,
      "Franci": 5539,
      "ana": 5540,
      "val": 5541,
      "Gran": 5542,
      "toĠz": 5543,
      "czychĠ": 5544,
      "ÄĻĠz": 5545,
      "UniaĠEuropej": 5546,
      "porter": 5547,
      "techni": 5548,
      "ielÄĻg": 5549,
      ".ĠJestĠtoĠ": 5550,
      "Zach": 5551,
      "iĠzĠ": 5552,
      "ĠpiÄħt": 5553,
      "ĠmlnĠ": 5554,
      ".p": 5555,
      "klÄĻskiĠÅ¼ywioÅĤowe": 5556,
      "spodzie": 5557,
      "interne": 5558,
      "fest": 5559,
      "Ġprzerw": 5560,
      "Ġwypadku": 5561,
      "ĠprawĠ": 5562,
      "2008Ġ": 5563,
      "kolwie": 5564,
      "oczes": 5565,
      "obiet": 5566,
      "ono": 5567,
      "ĠpoczÄħtkuĠ": 5568,
      "likwid": 5569,
      "-P": 5570,
      "dziÅĤĠ": 5571,
      ".ĊĊPoĠ": 5572,
      "KatastrofyĠiĠ": 5573,
      "KatastrofyĠiĠklÄĻskiĠÅ¼ywioÅĤowe": 5574,
      "64": 5575,
      "Jac": 5576,
      "Å¼yciaĠ": 5577,
      "sto": 5578,
      "Komite": 5579,
      "dokÅĤad": 5580,
      "rusz": 5581,
      "koncert": 5582,
      "ĠpoĠpro": 5583,
      "ruszy": 5584,
      "%,Ġ": 5585,
      ".ĊĊĠÅ¹rÃ³dÅĤaĠĊĠĊĊKategoria:PolitykaĊKategoria:PolskaĊKategoria:": 5586,
      "usuniÄĻ": 5587,
      "68": 5588,
      "rzÄĻduĠ": 5589,
      "ÅĤa,ĠÅ¼eĠ": 5590,
      "rÃ³wnieÅ¼,ĠÅ¼eĠ": 5591,
      "cisk": 5592,
      "aĠC": 5593,
      "ĠmetrÃ³w": 5594,
      "ĠpiÄħtekĠ": 5595,
      "ebast": 5596,
      "ziÅĽ": 5597,
      "ĠmiesiÄĻ": 5598,
      "Transport": 5599,
      "szeniaĠ": 5600,
      "Ġzaplan": 5601,
      "ural": 5602,
      "ĠplacÃ³w": 5603,
      "nadalĠ": 5604,
      "Ġdom": 5605,
      "oÅĤaĠ": 5606,
      "nel": 5607,
      "EdukacjaĊKategoria:": 5608,
      "Zesp": 5609,
      "Å»olibor": 5610,
      "naĠiĠ": 5611,
      "akce": 5612,
      "ĠwstÄĻp": 5613,
      "7.": 5614,
      "\"ĊĊ": 5615,
      "ĊKategoria:ÅļwiatĊKategoria:": 5616,
      "dog": 5617,
      "tygodniuĠ": 5618,
      "zostaÅĤĠ": 5619,
      "sol": 5620,
      "Ġzostanie": 5621,
      "ĠwyjaÅĽni": 5622,
      "esz": 5623,
      "ĠpiÅĤceĠnoÅ¼nej": 5624,
      "oczni": 5625,
      ",9": 5626,
      "oskarÅ¼": 5627,
      "trakcieĠ": 5628,
      ".ĊĊOb": 5629,
      "ewaku": 5630,
      "akcji": 5631,
      "ajÄħcymĠ": 5632,
      "Ġpowodu": 5633,
      "rybu": 5634,
      "piÅĤ": 5635,
      "ĠwziÄħ": 5636,
      "Stref": 5637,
      "ses": 5638,
      "operator": 5639,
      "wyczaj": 5640,
      "Trze": 5641,
      "biÃ³r": 5642,
      "Ġpolskiej": 5643,
      "chwiliĠ": 5644,
      "\"P": 5645,
      "ĠwĠciÄħguĠ": 5646,
      "orzyst": 5647,
      "ÅĽrodkÃ³wĠ": 5648,
      "owiskaĠ": 5649,
      "Ġwieku": 5650,
      "ĠpierwszegoĠ": 5651,
      "niedaw": 5652,
      "Ġjest": 5653,
      ".ĠDrug": 5654,
      "fotografi": 5655,
      "lubel": 5656,
      "jakĠiĠ": 5657,
      "Zawod": 5658,
      "center|": 5659,
      "Ġpozytyw": 5660,
      "rozwiÄħz": 5661,
      "iscov": 5662,
      "konferencjiĠ": 5663,
      "grafi": 5664,
      "anciĠ": 5665,
      "aÅ¼eniaĠ": 5666,
      "Ġprezes": 5667,
      "Ġdw": 5668,
      ".ĠRoz": 5669,
      "gier": 5670,
      "-1": 5671,
      "\"Ġ(": 5672,
      "orÃ³w": 5673,
      "ujawni": 5674,
      "drĠ": 5675,
      "53": 5676,
      "stwierdz": 5677,
      "Dol": 5678,
      "kwot": 5679,
      "owe,Ġ": 5680,
      "iÄħĠ": 5681,
      "nieĠzap": 5682,
      "ĊĠR": 5683,
      "ieniaĠ": 5684,
      "zÅĤo": 5685,
      "naĠtra": 5686,
      "ĠKar": 5687,
      "WynikiĠ": 5688,
      "szero": 5689,
      "zenia": 5690,
      "ciÄħÅ¼": 5691,
      "naĠpolsk": 5692,
      "AM": 5693,
      "testy": 5694,
      "burg": 5695,
      "rzuc": 5696,
      "ĠpunktÃ³w": 5697,
      "jednegoĠzĠ": 5698,
      ".ĊĊWedÅĤug": 5699,
      "51": 5700,
      "Ex": 5701,
      "StanyĠZjednoczone": 5702,
      "okĠ": 5703,
      "ychmiast": 5704,
      "owanejĠ": 5705,
      "Ryszar": 5706,
      "Czech": 5707,
      "stÄħp": 5708,
      ",Ġaby": 5709,
      ".org": 5710,
      "https": 5711,
      "PoÅĤudni": 5712,
      "ĠpieniÄĻ": 5713,
      "Ġzazna": 5714,
      "Jos": 5715,
      "Ċthumb|right|": 5716,
      "cyjnejĠ": 5717,
      "erni": 5718,
      "ludz": 5719,
      "dodatkow": 5720,
      "Karol": 5721,
      "wrÃ³ci": 5722,
      "racow": 5723,
      "omocÄħĠ": 5724,
      "Australi": 5725,
      "ĠwspÃ³ÅĤpracyĠ": 5726,
      "Andre": 5727,
      "Drog": 5728,
      "KrÃ³": 5729,
      "alboĠ": 5730,
      "ĠpraceĠ": 5731,
      "onejĠ": 5732,
      "unku": 5733,
      "juÅ¼ĠwĠ": 5734,
      "brz": 5735,
      "yl": 5736,
      "Fotoreport": 5737,
      "\"ĠâĢĵ": 5738,
      "border|": 5739,
      "kiedy": 5740,
      "umiesz": 5741,
      "Ġkan": 5742,
      "pod": 5743,
      "integ": 5744,
      "rzuci": 5745,
      "Dani": 5746,
      "Ġwier": 5747,
      "ĠporÃ³w": 5748,
      "olitykaĊ": 5749,
      "Oprogram": 5750,
      "gÅĤÃ³wnieĠ": 5751,
      "(...": 5752,
      "miastaĠ": 5753,
      "KomisjaĠ": 5754,
      ".ĠZaĠ": 5755,
      "bibliote": 5756,
      "rzecznikĠ": 5757,
      ".ĊĊÅ¹rÃ³dÅĤo": 5758,
      "Ġwykorzysty": 5759,
      "NO": 5760,
      "czonyĠ": 5761,
      "aĠzam": 5762,
      "eĠiĠ": 5763,
      "indy": 5764,
      "omas": 5765,
      "ujÄħĠsiÄĻĠ": 5766,
      "obronyĠ": 5767,
      "przezĠ": 5768,
      ".ĠOĠ": 5769,
      "rywali": 5770,
      "ÅĤĠzĠ": 5771,
      "wij": 5772,
      "Ġpowiedzie": 5773,
      "adion": 5774,
      "epi": 5775,
      "Her": 5776,
      "Ġkop": 5777,
      "siat": 5778,
      "samegoĠ": 5779,
      "ÄħcymĠ": 5780,
      "Jag": 5781,
      "20:00": 5782,
      "ÅĽwiÄĻt": 5783,
      "Sie": 5784,
      "nikiem": 5785,
      "firmaĠ": 5786,
      "rans": 5787,
      "stowarzysze": 5788,
      "Ġpeleton": 5789,
      "szew": 5790,
      "Krakow": 5791,
      "ierzÄħt": 5792,
      "gÅĤosz": 5793,
      "czÄĻÅĽÄĩ": 5794,
      "ĠtenĠ": 5795,
      "Kor": 5796,
      "ĠpoĠraz": 5797,
      "sprawĠzagra": 5798,
      "prawdopodob": 5799,
      "kolejnychĠ": 5800,
      "SejmĠRzeczypospolitejĠPolskiejĠ": 5801,
      "sprzedaÅ¼": 5802,
      "uper": 5803,
      "iertych": 5804,
      "okreÅĽl": 5805,
      "Ġwywiad": 5806,
      "skop": 5807,
      "telefon": 5808,
      "jednej": 5809,
      ".ĠIn": 5810,
      "przy": 5811,
      "jad": 5812,
      "Pet": 5813,
      "adzieĠ": 5814,
      "JÃ³zef": 5815,
      "liĠsiÄĻĠ": 5816,
      "domag": 5817,
      "cydent": 5818,
      "reÅ¼yser": 5819,
      "ÅĤawomi": 5820,
      "graÅĤaĠ": 5821,
      "moj": 5822,
      "komunik": 5823,
      "tern": 5824,
      "katolicki": 5825,
      "utyĠ": 5826,
      "miejsceĠwĠ": 5827,
      "Fl": 5828,
      "ĠpoÅĤudni": 5829,
      "Gdy": 5830,
      "ĠmoÅ¼e": 5831,
      "MistrzostwaĠ": 5832,
      "Wikimedia": 5833,
      "Ġten": 5834,
      "formal": 5835,
      "Ġpose": 5836,
      "Ġporusz": 5837,
      "TK": 5838,
      "ain": 5839,
      "achĠwĠ": 5840,
      ".ĠPrzed": 5841,
      "maz": 5842,
      "owskiegoĠ": 5843,
      "2023Ġroku": 5844,
      "ond": 5845,
      "bliÅ¼uĠ": 5846,
      "AĠ": 5847,
      "69": 5848,
      "SÄħdĠ": 5849,
      "ĠwojnyĠ": 5850,
      "yĠzd": 5851,
      "SejmĠRzeczypospolitejĠPolskiejĠXĠkadencji": 5852,
      "31Ġ": 5853,
      "naprawd": 5854,
      "narusze": 5855,
      "ĠwrazĠzĠ": 5856,
      "ie,Ġ": 5857,
      "bardzoĠd": 5858,
      "oÅĽrÃ³d": 5859,
      "ojcie": 5860,
      "ingĠ": 5861,
      "kÃ³w,Ġ": 5862,
      "rowiaĠ": 5863,
      "ĠmieszkaÅĦc": 5864,
      "150": 5865,
      "zapro": 5866,
      "osÅĤaĠ": 5867,
      "ĊZ": 5868,
      "Å¼Ã³ÅĤ": 5869,
      "mĠiĠ": 5870,
      "Ġsobot": 5871,
      ":ĊĊĠ": 5872,
      "ĠprzewodniczÄħc": 5873,
      "Rej": 5874,
      "gÅĤow": 5875,
      "ĠpracownikÃ³wĠ": 5876,
      "znaj": 5877,
      "gmi": 5878,
      "Ã³wĠdoĠ": 5879,
      "ciwĠ": 5880,
      "Tar": 5881,
      "cieli": 5882,
      "Dud": 5883,
      "ÅĦczy": 5884,
      "Poloni": 5885,
      "nychĠwĠ": 5886,
      "elig": 5887,
      "ex": 5888,
      "Å¼yci": 5889,
      "swoje": 5890,
      "Ġsekun": 5891,
      "ÄħĠw": 5892,
      ".ĠTymĠ": 5893,
      "ĠpaÅºdziernika": 5894,
      "takiĠ": 5895,
      "naĠB": 5896,
      "teraz": 5897,
      "neĠz": 5898,
      "robo": 5899,
      "cyjny": 5900,
      "Artur": 5901,
      "uroczystoÅĽciĠ": 5902,
      "najmniej": 5903,
      "bier": 5904,
      "mieÅĽcieĠ": 5905,
      "59": 5906,
      "odwiedz": 5907,
      "ce,Ġ": 5908,
      ",ĠWD)ĊĠ": 5909,
      "ktoÅĽ": 5910,
      "uchow": 5911,
      "500": 5912,
      "neg": 5913,
      "Äħz": 5914,
      "tzw.Ġ": 5915,
      "rach": 5916,
      "niektÃ³rychĠ": 5917,
      ".ĊĊZobaczĠ": 5918,
      "realiza": 5919,
      "trener": 5920,
      "78": 5921,
      ".ĠSz": 5922,
      "ÅĤodzieÅ¼": 5923,
      "moÅ¼liwoÅĽÄĩ": 5924,
      "Ã³wĠA": 5925,
      "konstruk": 5926,
      "owejĠwĠ": 5927,
      "stanowiskoĠ": 5928,
      "mistrz": 5929,
      "Ġpolicji": 5930,
      "szedÅĤĠ": 5931,
      "rodzaj": 5932,
      "widual": 5933,
      "wiÄĻcejĠ": 5934,
      "ĊmaÅĤy|Ċ": 5935,
      "Linux": 5936,
      "miÄĻdzy": 5937,
      "2026ĠrokuĠ": 5938,
      "Cyf": 5939,
      "bliskoĠ": 5940,
      "ÅĽnie": 5941,
      "cjonal": 5942,
      "boi": 5943,
      "ĊĊĠP": 5944,
      "ĠwczeÅĽniejĠ": 5945,
      "ction": 5946,
      "kr": 5947,
      ".ĠH": 5948,
      "âĢĵĠP": 5949,
      "nicaĠ": 5950,
      "ikor": 5951,
      "apo": 5952,
      "isjiĠ": 5953,
      "rezygn": 5954,
      "ielÄĻgniar": 5955,
      "jÄħÅĤ": 5956,
      "biz": 5957,
      "konsek": 5958,
      "fina": 5959,
      "natychmiast": 5960,
      "Ġwszystkich": 5961,
      "Ġpodejm": 5962,
      "Ã³wĠm": 5963,
      "orĠ": 5964,
      "Ġzajm": 5965,
      "dziÄĻ": 5966,
      "ÅĤatw": 5967,
      "Roman": 5968,
      "wic": 5969,
      "widÅĤow": 5970,
      "lekar": 5971,
      "organ": 5972,
      "ojaz": 5973,
      "Ġpolicjant": 5974,
      ",ĠwĠkierunkuĠĠzĠpowoduĠ": 5975,
      "LechĠKaczyÅĦskiĠ": 5976,
      "Ġprom": 5977,
      "mini": 5978,
      "kwen": 5979,
      "GBT": 5980,
      "twierdzi": 5981,
      "nam": 5982,
      "musi": 5983,
      "amerykaÅĦskiĠ": 5984,
      "Ġm.in.": 5985,
      "sÅĤuÅ¼byĠ": 5986,
      "Ġpiosen": 5987,
      "aĠzak": 5988,
      "arza": 5989,
      "Ġtego": 5990,
      "ÅĽwiata": 5991,
      "ruks": 5992,
      "traf": 5993,
      "Å¼ycia": 5994,
      "ĊKategoria:W": 5995,
      "ukoÅĦ": 5996,
      ".ĠPonad": 5997,
      "Jor": 5998,
      "sub": 5999,
      "derĠ": 6000,
      "dziec": 6001,
      "Ġpali": 6002,
      "konkursuĠ": 6003,
      ":ĠP": 6004,
      "numerĠ": 6005,
      "ĠdodaÅĤ": 6006,
      "sprzed": 6007,
      "Ġprzekro": 6008,
      "wiec": 6009,
      "ÅĤaÅĽci": 6010,
      "atmos": 6011,
      "ÄĻdni": 6012,
      "Ġmiliar": 6013,
      "ymi": 6014,
      "Ãĵ": 6015,
      "ĠpoinformowaÅĤaĠ": 6016,
      "-lat": 6017,
      "dostar": 6018,
      "czyli": 6019,
      "Agnie": 6020,
      "66": 6021,
      "Hiszpani": 6022,
      "Szwajcar": 6023,
      "mierz": 6024,
      "kiĠnaĠ": 6025,
      "owy,Ġ": 6026,
      "pli": 6027,
      "Ġprzyzna": 6028,
      "naĠpoczÄħtkuĠ": 6029,
      ".ĠWstÄĻp": 6030,
      "emuĠ": 6031,
      ":30ĠâĢĵĠ": 6032,
      ".ĠĊĊWĠ": 6033,
      "Kong": 6034,
      "szefaĠ": 6035,
      "trwaĠ": 6036,
      "ÄĩĠw": 6037,
      "RadosÅĤaw": 6038,
      "wachĠ": 6039,
      "ZwiÄħzkuĠ": 6040,
      "old": 6041,
      "student": 6042,
      "ostatnimĠ": 6043,
      "ficjal": 6044,
      "Chin": 6045,
      "dostaw": 6046,
      "sper": 6047,
      "ajÄħÅĤĠ": 6048,
      "Konferen": 6049,
      "oalicjaĠ": 6050,
      "ÅĤyw": 6051,
      "ÄĩĠd": 6052,
      "Administra": 6053,
      "Red": 6054,
      "Ir": 6055,
      "ĠLi": 6056,
      "oĠB": 6057,
      "PlatformaĠObywatel": 6058,
      ".ĊĊZobaczĠteÅ¼": 6059,
      "twierdz": 6060,
      "ujÄħcejĠ": 6061,
      "instru": 6062,
      "Ġkar": 6063,
      "ĠwĠwiekuĠ": 6064,
      "CZ": 6065,
      "ode": 6066,
      "Kur": 6067,
      "ĠV": 6068,
      "Ġpolskiego": 6069,
      "Ġzabi": 6070,
      "analiz": 6071,
      "Ã³wĠorazĠ": 6072,
      "zagro": 6073,
      "akcjaĠ": 6074,
      "teor": 6075,
      "odzien": 6076,
      "Å¼adnychĠ": 6077,
      "kowejĠ": 6078,
      "Ġpog": 6079,
      ".ĊĊJed": 6080,
      "imiĠ": 6081,
      "2024)Ċ": 6082,
      "2025)Ċ": 6083,
      "Alb": 6084,
      ".ĊĠĊĠ": 6085,
      "tegoro": 6086,
      "ochronyĠ": 6087,
      "ÄħcejĠ": 6088,
      "resie": 6089,
      "ĊĠW": 6090,
      "Äħcz": 6091,
      "czest": 6092,
      "ÄĩĠm": 6093,
      "ronisÅĤaw": 6094,
      ",Ġale": 6095,
      ".ĊĊĠÅ¹rÃ³dÅĤaĠĊĠĊĠĊĠĊĠĊĊKategoria:": 6096,
      "MinisterĠ": 6097,
      "ĠzÅĤotych": 6098,
      "sÄħĠwĠ": 6099,
      "naĠpodstawieĠ": 6100,
      "dniĠ": 6101,
      "Ġrozm": 6102,
      "zdarze": 6103,
      "ÅĽcia": 6104,
      "gryĠ": 6105,
      "tury": 6106,
      "Can": 6107,
      "naĠprzykÅĤad": 6108,
      "ĊĊĠÅ¹rÃ³dÅĤoĠĊĠToĠzestawienieĠzostaÅĤoĠautomatycznieĠwygenerowaneĠzĠWikidanych.ĠZobaczĠzapytanieĠSPARQL.ĊĊKategoria:ArchiwalneĊKategoria:NekrologiĠ2024": 6109,
      "âĢĿĠ-": 6110,
      "onyĠprzezĠ": 6111,
      "ĊĠB": 6112,
      "Ġposzuki": 6113,
      "niamiĠ": 6114,
      "ham": 6115,
      "ministerstw": 6116,
      "daÄĩĠ": 6117,
      "mysÅĤaw": 6118,
      "ĠwykÅĤad": 6119,
      "Lok": 6120,
      "wyciÄĻÅ¼y": 6121,
      "karpac": 6122,
      "oĠP": 6123,
      "taĊKategoria:": 6124,
      "o.": 6125,
      "Ġprzyj": 6126,
      "77": 6127,
      ",ĠaĠtakÅ¼e": 6128,
      "ĠwyÅ¼": 6129,
      "uĠEuropej": 6130,
      "ĠwynikiemĠ": 6131,
      "Koncer": 6132,
      "mÃ³gÅĤ": 6133,
      "fakt": 6134,
      "Ġtrw": 6135,
      "ujÄħcegoĠ": 6136,
      "indywidual": 6137,
      "jeÅ¼eliĠ": 6138,
      "8.": 6139,
      "ieleĠ": 6140,
      "ĊĊĠÅ¹rÃ³dÅĤoĠĊĠToĠzestawienieĠzostaÅĤoĠautomatycznieĠwygenerowaneĠzĠWikidanych.ĠZobaczĠzapytanieĠSPARQL.ĊĊKategoria:ArchiwalneĊKategoria:NekrologiĠ2025": 6141,
      "awieniaĠ": 6142,
      "MuzeumĠ": 6143,
      "ĠwewnÄĻtrz": 6144,
      "eÅĤno": 6145,
      "fotograf": 6146,
      "stronÄĻĠ": 6147,
      "gan": 6148,
      "dyplom": 6149,
      "mien": 6150,
      "kowskiĠ": 6151,
      "lem": 6152,
      "leniaĠ": 6153,
      "sem": 6154,
      "arab": 6155,
      "JanaĠPawÅĤaĠII": 6156,
      "2025Ġzmarli:Ġ": 6157,
      "63": 6158,
      "agra": 6159,
      ".ĠDo": 6160,
      "uje,ĠÅ¼eĠ": 6161,
      "ackĠ": 6162,
      "ĠwtorekĠ": 6163,
      "Du": 6164,
      "PiÅĤ": 6165,
      "ustali": 6166,
      "Tadeusz": 6167,
      "ĠbÄĻdzieĠ": 6168,
      "lutego": 6169,
      "razyli": 6170,
      "Ġwstrzym": 6171,
      "odsÅĤ": 6172,
      "iÅ¼": 6173,
      "takie": 6174,
      "sukces": 6175,
      "u.ĊĊ": 6176,
      "Ġnie": 6177,
      "NE": 6178,
      "kre": 6179,
      "ajÄħ,ĠÅ¼eĠ": 6180,
      "dziÄĩĠ": 6181,
      "owaÅĤĠsiÄĻĠ": 6182,
      "ath": 6183,
      "\".ĊĊ": 6184,
      "WyboryĠparlamentarne": 6185,
      "2007ĊĊĠÅ¹rÃ³dÅĤaĠĊĠĊĊKategoria:": 6186,
      "niaĠw": 6187,
      "rzÄħdz": 6188,
      "2000": 6189,
      "tytuÅĤ": 6190,
      "mian": 6191,
      "ung": 6192,
      "ÑĢ": 6193,
      "ĠĠĠĠĠ": 6194,
      "ywan": 6195,
      "awiaĠ": 6196,
      "awro": 6197,
      "demar": 6198,
      "ĠprzyĠulicyĠ": 6199,
      "eÅĤnospraw": 6200,
      "rganizator": 6201,
      "Ã³wczas": 6202,
      "onÄħĠ": 6203,
      ".ĠDzie": 6204,
      "Ġzapro": 6205,
      "iak": 6206,
      "aĠH": 6207,
      "gÅĤĠ": 6208,
      "olim": 6209,
      "uÅ¼ytkownikÃ³w": 6210,
      "abry": 6211,
      "Ġdop": 6212,
      "gÅĤÄĻb": 6213,
      "unie": 6214,
      "rosÅĤaw": 6215,
      ".ĠKolej": 6216,
      "cÄĻĠ": 6217,
      "nieĠiĠ": 6218,
      "aÅĤĠsiÄĻ": 6219,
      "WÅĤadysÅĤaw": 6220,
      "uleg": 6221,
      "Ġprzystan": 6222,
      "aĠâĢĵĠ": 6223,
      "dziw": 6224,
      ".ĊĊPierw": 6225,
      "korup": 6226,
      "okiĠ": 6227,
      "fragment": 6228,
      "denty": 6229,
      "caĠp": 6230,
      "oĠnaĠ": 6231,
      "alizacjiĠ": 6232,
      "Henry": 6233,
      "ĊKategoria:EuropaĊKategoria:": 6234,
      "Kub": 6235,
      "ÂŃ": 6236,
      "kazy": 6237,
      "ÄĻĠw": 6238,
      ",ĠktÃ³rzy": 6239,
      "symal": 6240,
      "ĠzwiÄħzkuĠz": 6241,
      "ÅĤegoĠ": 6242,
      "18:00": 6243,
      "ÅĤĠsiÄĻĠwĠ": 6244,
      "Ġpowierz": 6245,
      ".ĠWi": 6246,
      "mistr": 6247,
      "kibi": 6248,
      ",ĠoĠ": 6249,
      "Ġposel": 6250,
      "200Ġ": 6251,
      "5.": 6252,
      "awariiĠ": 6253,
      "ĠRos": 6254,
      "regi": 6255,
      "oÅĽciÄħĠ": 6256,
      "ocen": 6257,
      "samĠ": 6258,
      "oneĠwĠ": 6259,
      "acjÄħĠ": 6260,
      "ZÅĤot": 6261,
      "ds.Ġ": 6262,
      "yĠP": 6263,
      "byĠz": 6264,
      "rozmowyĠ": 6265,
      "ĠprzestÄĻp": 6266,
      "szekĠ": 6267,
      "Ġzamiesz": 6268,
      ",Ġm": 6269,
      "Ġpozna": 6270,
      "yĠoĠ": 6271,
      "owanychĠprzezĠ": 6272,
      "BC": 6273,
      "gÅĤoÅĽ": 6274,
      "Norweg": 6275,
      "chroni": 6276,
      "45Ġ": 6277,
      "stwierdziÅĤ": 6278,
      "Ġi": 6279,
      "2:": 6280,
      "eksy": 6281,
      "Ð½": 6282,
      "blog": 6283,
      "jednÄħĠ": 6284,
      "dostÄĻpneĠ": 6285,
      "By": 6286,
      "rozwojuĠ": 6287,
      "remon": 6288,
      "rynkuĠ": 6289,
      "li,ĠÅ¼eĠ": 6290,
      "aĠKaczyÅĦskiego": 6291,
      "nÄĻÅĤaĠ": 6292,
      "ĠmÃ³wiĠ": 6293,
      "upeÅĤ": 6294,
      "zebra": 6295,
      "akcept": 6296,
      "ĠpierwszejĠ": 6297,
      "informacje": 6298,
      "ÄĻĠdoĠ": 6299,
      "faz": 6300,
      "niepodlegÅĤ": 6301,
      "ctwaĠ": 6302,
      "azimierzĠ": 6303,
      "jedenĠ": 6304,
      "2023)Ċ": 6305,
      "muzyczne": 6306,
      "ãĥ": 6307,
      "aled": 6308,
      "ropoli": 6309,
      "Progra": 6310,
      "ĠwynikĠ": 6311,
      "ĠzĠm": 6312,
      "aâĢĿ": 6313,
      "Fer": 6314,
      "genty": 6315,
      "ĊĊD": 6316,
      "rtu": 6317,
      "stu": 6318,
      "obrze": 6319,
      "limpij": 6320,
      "Ġwojen": 6321,
      "Ġwykonaw": 6322,
      "nio": 6323,
      "onymĠ": 6324,
      "acy": 6325,
      "ĊKategoria:G": 6326,
      "wiezion": 6327,
      "aÅĤĠdoĠ": 6328,
      "Najlep": 6329,
      "Afganistan": 6330,
      "WolneĠ": 6331,
      "kana": 6332,
      "niÄħdze": 6333,
      "les": 6334,
      "tymczas": 6335,
      "nÄħĠzĠ": 6336,
      "uczel": 6337,
      "bÅĤÄĻd": 6338,
      "ĠprezesĠ": 6339,
      "Äħ,ĠÅ¼eĠ": 6340,
      "Finland": 6341,
      "Kosmi": 6342,
      "(19": 6343,
      "ÄĩĠzĠ": 6344,
      "dziaÅĤuĠ": 6345,
      "nowego": 6346,
      "aĠsiÄĻ": 6347,
      "musiĠ": 6348,
      "sal": 6349,
      "emĠiĠ": 6350,
      "opowiad": 6351,
      "PoznaÅĦ": 6352,
      "dziew": 6353,
      ".ĠAleĠ": 6354,
      "cieliĠ": 6355,
      ")ĠâĢĵĠ": 6356,
      "cÄħ": 6357,
      "sprawyĠ": 6358,
      "Ġprzebyw": 6359,
      "Kol": 6360,
      "120": 6361,
      "Spotk": 6362,
      "zaĠp": 6363,
      "Ġwybory": 6364,
      "ÅĤaci": 6365,
      "-10": 6366,
      "AmerykaĠPÃ³ÅĤnocnaĊKategoria:": 6367,
      "czÄĻstoĠ": 6368,
      "veĠ": 6369,
      "argument": 6370,
      "sieci": 6371,
      ".ĠÅļ": 6372,
      "naĠpoz": 6373,
      ".ĊĊNaj": 6374,
      "cep": 6375,
      "badaÅĦ": 6376,
      ",Ġjednak": 6377,
      "Lublin": 6378,
      "Ka": 6379,
      "aĠpÅĤy": 6380,
      "LewicyĠ": 6381,
      ".ĠRuchĠtramwajowyĠwznowionoĠokoÅĤoĠgodzinyĠ": 6382,
      "sposob": 6383,
      "atura": 6384,
      "sygn": 6385,
      "anali": 6386,
      "umen": 6387,
      "godzinach": 6388,
      "JerzyĠ": 6389,
      "naĠtematĠ": 6390,
      "konkuren": 6391,
      "He": 6392,
      "Jed": 6393,
      "ministr": 6394,
      "Rejon": 6395,
      "Mor": 6396,
      "ineĠ": 6397,
      "Ġwystart": 6398,
      "ĠdruÅ¼y": 6399,
      "Äħtku": 6400,
      "Ġpowietrz": 6401,
      ".ĠPodczasĠ": 6402,
      "Sztu": 6403,
      "czytel": 6404,
      "funkcjonariusz": 6405,
      ".ĠPrezydent": 6406,
      "kowej": 6407,
      "omp": 6408,
      "Antoni": 6409,
      "fo": 6410,
      "Ġpublicznych": 6411,
      "oÅĤow": 6412,
      "Ġpsy": 6413,
      "ÅĽwiecieĠ": 6414,
      "Ġprokurator": 6415,
      "Polskiej": 6416,
      "mieÄĩĠ": 6417,
      "RafaÅĤĠ": 6418,
      "Ġzagro": 6419,
      "Dariusz": 6420,
      "Oprogramowanie": 6421,
      "Ġdot": 6422,
      "\"S": 6423,
      "FotoreportaÅ¼e": 6424,
      "ĠduÅ¼": 6425,
      ",ĠwĠtym": 6426,
      "udaÅĤoĠsiÄĻĠ": 6427,
      "osÃ³b,ĠktÃ³reĠ": 6428,
      "laz": 6429,
      "naĠd": 6430,
      "Ġpoleg": 6431,
      "owaneĠwĠ": 6432,
      "2022Ġroku": 6433,
      "ĠprowadziĠ": 6434,
      "genera": 6435,
      "elektroni": 6436,
      ",ĠĊ": 6437,
      "WypadkiĠdrogoweĊKategoria:KrakÃ³wĊKategoria:MPKĠKrakÃ³wĊKategoria:UlicaĠ": 6438,
      "naĠstronieĠ": 6439,
      "atÃ³wĠ": 6440,
      "aĠpoinform": 6441,
      "Ġsie": 6442,
      "laure": 6443,
      "jednak,ĠÅ¼eĠ": 6444,
      "EuropyĠ": 6445,
      "Fre": 6446,
      "ckim": 6447,
      "Ġzapis": 6448,
      "rut": 6449,
      "nikÃ³w,Ġ": 6450,
      "czyÅĤyĠ": 6451,
      "ĠSch": 6452,
      "ÅĽwiadom": 6453,
      "ulary": 6454,
      "Stra": 6455,
      "oĠzĠ": 6456,
      "filmĠ": 6457,
      "WÅĤoch": 6458,
      "otor": 6459,
      "2024Ġzmarli:ĊĠ": 6460,
      "Vide": 6461,
      "nauty": 6462,
      "corazĠ": 6463,
      "kipedy": 6464,
      "alog": 6465,
      "Georg": 6466,
      ".ĊĊOdĠ": 6467,
      "strzyg": 6468,
      "olicjaĠ": 6469,
      "obsz": 6470,
      "umow": 6471,
      "ektyw": 6472,
      "aÅĤyĠsiÄĻĠ": 6473,
      "samobÃ³j": 6474,
      ",ĠzaĠ": 6475,
      "swÃ³jĠ": 6476,
      "goÅĽ": 6477,
      "Ġprezydenckie": 6478,
      "Lektur": 6479,
      "WyboryĠparlamentarneĠwĠPolsceĠ": 6480,
      "ty,Ġ": 6481,
      "owyÅ¼": 6482,
      "kardyn": 6483,
      "neĠwĠ": 6484,
      "NaukaĊKategoria:": 6485,
      "Obywatelskiej": 6486,
      "nie,ĠÅ¼eĠ": 6487,
      "uczestni": 6488,
      "skrzyÅ¼": 6489,
      "spotkaniu": 6490,
      "Lubel": 6491,
      "kĠiĠ": 6492,
      "nastuĠ": 6493,
      "loĠ": 6494,
      "atÃ³w": 6495,
      "czeni": 6496,
      "WschÃ³d": 6497,
      "cyd": 6498,
      "KoÅĽciÃ³ÅĤĠ": 6499,
      "Ġpodejrz": 6500,
      "siebieĠ": 6501,
      "Adam": 6502,
      "ujeĠsiÄĻ": 6503,
      "Ġwywia": 6504,
      "isia": 6505,
      "owiedzie": 6506,
      "2009Ġ": 6507,
      "2018": 6508,
      "RobertĠ": 6509,
      "ĠzwyciÄĻstw": 6510,
      "znaleÅº": 6511,
      "asi": 6512,
      "skok": 6513,
      "raÅº": 6514,
      "nopolsk": 6515,
      "onyĠwĠ": 6516,
      "MirosÅĤaw": 6517,
      "miuĠ": 6518,
      "aĠoĠ": 6519,
      "drugiĠ": 6520,
      ".ĠKaÅ¼": 6521,
      "aczyĠ": 6522,
      "Bibliote": 6523,
      "NĠ": 6524,
      "kapi": 6525,
      "czeka": 6526,
      "ip": 6527,
      "Mer": 6528,
      "nowymĠ": 6529,
      "orbi": 6530,
      "Ġpr": 6531,
      "ÅļwiÄħ": 6532,
      "FC": 6533,
      "Wystaw": 6534,
      "Interpel": 6535,
      "PaweÅĤĠ": 6536,
      "ĊKategoria:WarszawaĊKategoria:": 6537,
      "koleg": 6538,
      "ÅĤÄħcznieĠ": 6539,
      "reform": 6540,
      "ParlamentuĠEuropej": 6541,
      "awar": 6542,
      "ĠzostanieĠ": 6543,
      "Nob": 6544,
      "eksploz": 6545,
      "moÅ¼liwoÅĽciĠ": 6546,
      "nÄħÅĤĠ": 6547,
      "\"p": 6548,
      "1%": 6549,
      "Ġpad": 6550,
      "ĠdniachĠ": 6551,
      "Nic": 6552,
      "LigaĠ": 6553,
      "umoÅ¼liwi": 6554,
      "innymi": 6555,
      "Ġmus": 6556,
      "atrak": 6557,
      "jÄħdrow": 6558,
      "niki": 6559,
      "ona": 6560,
      "-p": 6561,
      "try": 6562,
      "umoÅ¼liw": 6563,
      "Ġpostanowi": 6564,
      "niszcze": 6565,
      "Ochro": 6566,
      "ÄĩĠsiÄĻ": 6567,
      "skoment": 6568,
      "ciÄħÅ¼Ġ": 6569,
      "Ġprojek": 6570,
      "ĠÅģÃ³dÅº": 6571,
      "ogoĠ": 6572,
      "ÄĻĠ(": 6573,
      "(WD)": 6574,
      "komite": 6575,
      "miasta": 6576,
      "zab": 6577,
      "Ġprzedstawion": 6578,
      "LGBT": 6579,
      "olarÃ³w": 6580,
      "amiĠiĠ": 6581,
      "codzien": 6582,
      "Chorz": 6583,
      ".ĠPodczas": 6584,
      "SprawiedliwoÅĽci": 6585,
      "cie,Ġ": 6586,
      "ĠpodajeĠ": 6587,
      "app": 6588,
      "ĠpowiedziaÅĤaĠ": 6589,
      "Ġpx|": 6590,
      "owol": 6591,
      "oneĠprzezĠ": 6592,
      "ÅĦskÄħĠ": 6593,
      "Ġpom": 6594,
      "ytu": 6595,
      "Krzy": 6596,
      "choÄĩĠ": 6597,
      "Szwe": 6598,
      "stworzy": 6599,
      "neĠiĠ": 6600,
      "ÅļwiatĊ": 6601,
      "2023Ġzmarli:ĊĠ": 6602,
      "monitor": 6603,
      "negatyw": 6604,
      "Waty": 6605,
      "owyĠwĠ": 6606,
      "uczestnikÃ³wĠ": 6607,
      "worz": 6608,
      "owiecĠ": 6609,
      "tymĠsamymĠ": 6610,
      "Ġwprowadzi": 6611,
      "u.ĠW": 6612,
      ",ĠktÃ³rÄħĠ": 6613,
      "Ġmld": 6614,
      "TeamĠ": 6615,
      "2010Ġ": 6616,
      "âĢĵ2025)Ċ": 6617,
      "rynku": 6618,
      "ĊĠA": 6619,
      "EL": 6620,
      "czeĠ": 6621,
      "onaldĠTusk": 6622,
      "naszegoĠ": 6623,
      "efekt": 6624,
      "ĠmiaÅĤĠ": 6625,
      "kup": 6626,
      "ĊĊĠÅ¹rÃ³dÅĤoĠĊĠToĠzestawienieĠzostaÅĤoĠautomatycznieĠwygenerowaneĠzĠWikidanych.ĠZobaczĠzapytanieĠSPARQL.ĊĊKategoria:ArchiwalneĊKategoria:NekrologiĠ2023": 6627,
      "lotnisk": 6628,
      "owaÅĤy": 6629,
      "Ġzapowiad": 6630,
      "Ġper": 6631,
      "atakuĠ": 6632,
      "Ġprodukt": 6633,
      "doĠz": 6634,
      "skal": 6635,
      "faÅĤ": 6636,
      "chemi": 6637,
      "Afganistanie": 6638,
      "ÅĤÄħcz": 6639,
      "NarodowegoĠ": 6640,
      "Ekstraklas": 6641,
      "krÃ³": 6642,
      ",0": 6643,
      "Ġpokoj": 6644,
      "Ċthumb|200px|": 6645,
      "czÄĻÅĽciejĠ": 6646,
      "BezpieczeÅĦstw": 6647,
      "moÅ¼liwoÅĽÄĩĠ": 6648,
      "Ġwybra": 6649,
      "mieszkaÅĦcÃ³wĠ": 6650,
      "artykuÅĤÃ³wĠ": 6651,
      "rzecznik": 6652,
      "naĠpro": 6653,
      "anitar": 6654,
      "walifika": 6655,
      "Ġdost": 6656,
      "sytuacjaĠ": 6657,
      "odpowied": 6658,
      "oy": 6659,
      "2003": 6660,
      "StowarzyszeniaĠ": 6661,
      "Ã³Å¼": 6662,
      "krajachĠ": 6663,
      "byÅĤyĠprzezĠ": 6664,
      "Fili": 6665,
      "2026Ġroku": 6666,
      "aÅĤoÅ¼": 6667,
      "Ġwska": 6668,
      "Tech": 6669,
      "inte": 6670,
      "oprze": 6671,
      "czwartekĠ": 6672,
      "doj": 6673,
      "spotkaniuĠ": 6674,
      "atom": 6675,
      ",Ġod": 6676,
      "âĢĵ2024)Ċ": 6677,
      "spr": 6678,
      "Google": 6679,
      "dowÃ³d": 6680,
      "Igrzy": 6681,
      "pxĊĊ": 6682,
      "KonfliktyĠzbrojne": 6683,
      "kiĠ(": 6684,
      "Ġprzewodni": 6685,
      ".ĠSpraw": 6686,
      "EuropejskiejĠ": 6687,
      "skaĊ": 6688,
      "ĠprÄĻd": 6689,
      "inne": 6690,
      "amin": 6691,
      ".ĠDziÄĻkiĠ": 6692,
      "Äħtp": 6693,
      "bas": 6694,
      "omaĠ": 6695,
      "nieĠbyÅĤoĠ": 6696,
      "olan": 6697,
      "rest": 6698,
      "szybkoĠ": 6699,
      "czyni": 6700,
      "ĠwywoÅĤ": 6701,
      "kontrakt": 6702,
      "MarkaĠ": 6703,
      "Jagiel": 6704,
      "Europie": 6705,
      "agdale": 6706,
      "mÄĻÅ¼czyzn": 6707,
      "6:": 6708,
      "0.": 6709,
      "ĠpoÅĤowieĠ": 6710,
      "ÅĤoĠsiÄĻ": 6711,
      "ĠpodwyÅ¼": 6712,
      "niebezpie": 6713,
      "edi": 6714,
      "sur": 6715,
      "iĠsiÄĻĠ": 6716,
      "ĠwspÃ³ÅĤpracyĠzĠ": 6717,
      "ÅĽmie": 6718,
      "brze": 6719,
      "czonychĠ": 6720,
      "unkÃ³wĠ": 6721,
      "Energ": 6722,
      "nej,Ġ": 6723,
      "Char": 6724,
      "oĊKategoria:": 6725,
      "Mateusz": 6726,
      ".ĠCz": 6727,
      "odbÄĻdzieĠsiÄĻĠwĠ": 6728,
      ".Ġ-Ġ": 6729,
      ".ĠâĢĵĠ": 6730,
      "Rodzin": 6731,
      "Ã³rĠ": 6732,
      "ciaĠw": 6733,
      "70Ġ": 6734,
      "obraÅ¼e": 6735,
      "-S": 6736,
      "2021Ġroku": 6737,
      "eĠnaĠ": 6738,
      "wÃ³jĠ": 6739,
      "stwieĠ": 6740,
      "historii": 6741,
      "eĠd": 6742,
      "jeste": 6743,
      "ket": 6744,
      "\"ĠiĠ": 6745,
      ",ĠwĠktÃ³rejĠ": 6746,
      "medal": 6747,
      "niejszychĠ": 6748,
      ",ĠktÃ³rejĠ": 6749,
      ")ĠwĠ": 6750,
      "sprawdz": 6751,
      "iiĠiĠ": 6752,
      ",ĠwĠktÃ³rychĠ": 6753,
      "lacuĠ": 6754,
      "wrÃ³": 6755,
      ",ĠzostaÅĤ": 6756,
      "ET": 6757,
      "krzy": 6758,
      "ĠpierwszychĠ": 6759,
      "dodat": 6760,
      "ott": 6761,
      "Ġzawodni": 6762,
      "Ã¤": 6763,
      "Otwart": 6764,
      "Formu": 6765,
      "Hamas": 6766,
      ".ĊĊNie": 6767,
      "ciekaw": 6768,
      "150px|": 6769,
      "ĠmilionÃ³wĠ": 6770,
      "ĠwÅĤadzeĠ": 6771,
      "zar": 6772,
      "Il": 6773,
      "album": 6774,
      "mistrzĠ": 6775,
      ",ĠprzezĠ": 6776,
      "Warszawy": 6777,
      "opraw": 6778,
      "ĠwszystkoĠ": 6779,
      "cjaĠw": 6780,
      "UrzÄĻduĠ": 6781,
      "ĠRe": 6782,
      "OgÃ³l": 6783,
      "anieĠz": 6784,
      "lad": 6785,
      "17:00": 6786,
      "iachĠ": 6787,
      "Kolej": 6788,
      "FrancjaĊKategoria:": 6789,
      "ĊĠG": 6790,
      "ĠprezydentemĠ": 6791,
      "aĠnieĠ": 6792,
      "owaniem": 6793,
      "Kos": 6794,
      "wiÄĻksz": 6795,
      "jÄĻzykuĠ": 6796,
      "bomb": 6797,
      "StronaĠ": 6798,
      "ÅĦsko-": 6799,
      "relacjiĠ": 6800,
      "Ġdokument": 6801,
      "niesp": 6802,
      "2016": 6803,
      "ĠpolskojÄĻzycznejĠ": 6804,
      "liczbyĠ": 6805,
      "Ġpot": 6806,
      "jazdyĠ": 6807,
      "Zak": 6808,
      "Prokuratur": 6809,
      "JoannaĠ": 6810,
      "zdrow": 6811,
      ",Ġby": 6812,
      "Bad": 6813,
      "japo": 6814,
      "IA": 6815,
      "62": 6816,
      "win": 6817,
      "tew": 6818,
      "Åģodzi": 6819,
      "demokra": 6820,
      "kos": 6821,
      "ogÃ³": 6822,
      "ĠpowinnyĠ": 6823,
      "oro": 6824,
      "RA": 6825,
      "tz": 6826,
      "oto": 6827,
      "ĠprojektÃ³wĠ": 6828,
      "Äħtpliw": 6829,
      "samym": 6830,
      "ÄħĠzĠ": 6831,
      "cÃ³w,Ġ": 6832,
      "oprÃ³cz": 6833,
      "ning": 6834,
      "ahad": 6835,
      "ksi": 6836,
      "zespÃ³ÅĤ": 6837,
      "ĠmÃ³wi": 6838,
      "studi": 6839,
      ".ĠDlaĠ": 6840,
      "imprez": 6841,
      "LigiĠ": 6842,
      "Rosji": 6843,
      "naĠS": 6844,
      "ĠdÅĤug": 6845,
      "cznoÅĽÄĩ": 6846,
      "pres": 6847,
      "szefĠ": 6848,
      "âĢĿĠ(": 6849,
      "owskaĠ": 6850,
      "uciecz": 6851,
      "jazdĠ": 6852,
      "ĠprzesÅĤ": 6853,
      "hum": 6854,
      "nielegal": 6855,
      "ĠpÃ³ÅºniejĠ": 6856,
      "aryÅ¼": 6857,
      "kaĊ": 6858,
      "otrzeb": 6859,
      "Niemcze": 6860,
      ".ĠJeÅĽliĠ": 6861,
      "ĠpiÅĤceĠnoÅ¼nejĠmÄĻÅ¼czyzn": 6862,
      "Kolar": 6863,
      "Discov": 6864,
      "BliskiĠ": 6865,
      "osied": 6866,
      "skiemĠ": 6867,
      "a,": 6868,
      "Ġdl": 6869,
      "unkÃ³w": 6870,
      "rÃ³Å¼neĠ": 6871,
      "nÄħÄĩĠ": 6872,
      "owanym": 6873,
      "Miejs": 6874,
      "doĠp": 6875,
      "telefoni": 6876,
      "lamen": 6877,
      "Maciej": 6878,
      ".Ġrocz": 6879,
      "Minister": 6880,
      "La": 6881,
      "kierowaneĠbyÅĤyĠprzezĠ": 6882,
      "obywat": 6883,
      "ÅĽni": 6884,
      "kilkana": 6885,
      "tol": 6886,
      "aneĠprzezĠ": 6887,
      "ustawyĠoĠ": 6888,
      "iĠpod": 6889,
      "reporter": 6890,
      "jawi": 6891,
      "15:": 6892,
      "Met": 6893,
      "lotnicze": 6894,
      "teat": 6895,
      "owski,Ġ": 6896,
      "dziennikar": 6897,
      "abinet": 6898,
      "MuzykaĊKategoria:": 6899,
      "Wielkopolsk": 6900,
      "jestĠnaĠ": 6901,
      "upad": 6902,
      "ĊKategoria:PolskaĊKategoria:Sport": 6903,
      "chani": 6904,
      ".ĠPiot": 6905,
      "nastÄĻpujÄħc": 6906,
      "zacji": 6907,
      "Bra": 6908,
      "stanĠ": 6909,
      "Ziel": 6910,
      "czynaĠ": 6911,
      "Ġkoniec": 6912,
      "niesieniaĠ": 6913,
      "wysok": 6914,
      "enez": 6915,
      "szereg": 6916,
      "uczestnicyĠ": 6917,
      "ĊKategoria:ReprezentacjaĠ": 6918,
      "out": 6919,
      ".ĠLinieĠprzebiegajÄħceĠprzezĠzablokowaneĠtorowiskoĠ": 6920,
      "WaÅĤÄĻ": 6921,
      "WolneĠLektur": 6922,
      "Chiny": 6923,
      "ordyn": 6924,
      "nieĠjak": 6925,
      "koweĠ": 6926,
      "deklar": 6927,
      "sceĠ": 6928,
      "budowÄĻĠ": 6929,
      "/h": 6930,
      "stran": 6931,
      "owoÅĽci": 6932,
      "atemĠ": 6933,
      "czwartek": 6934,
      "niezwyk": 6935,
      "1/": 6936,
      "akÃ³wĠ": 6937,
      "ĠwyÅĽcigu": 6938,
      "uwaÅ¼a,ĠÅ¼eĠ": 6939,
      "TourĠdeĠFran": 6940,
      "serwisĠ": 6941,
      "niepra": 6942,
      "konsekwen": 6943,
      "lĠ": 6944,
      "rozsze": 6945,
      "aniaĠw": 6946,
      "nieĠzd": 6947,
      "jechaÅĤĠ": 6948,
      "czyÅĤoĠ": 6949,
      "10.": 6950,
      "ĠMat": 6951,
      "nigdyĠ": 6952,
      "nadaw": 6953,
      "achĠiĠ": 6954,
      "cieĠwĠ": 6955,
      "oped": 6956,
      "oku": 6957,
      "âĢĿĠâĢĵĠ": 6958,
      "250": 6959,
      "najbardziejĠ": 6960,
      "\"W": 6961,
      "ĊKategoria:ÅļwiatĊ": 6962,
      "er,Ġ": 6963,
      "StanÃ³wĠZjednoczonych": 6964,
      "uger": 6965,
      "ÅĽmiertel": 6966,
      "uÅ¼ytkownikÃ³wĠ": 6967,
      "Willia": 6968,
      "Lesz": 6969,
      "iach": 6970,
      "ĠdwÃ³chĠ": 6971,
      "imie": 6972,
      "ĠSzcze": 6973,
      "ÄĻdzie": 6974,
      "Ci": 6975,
      "Franc": 6976,
      "kilka": 6977,
      "chcia": 6978,
      "bÄĻdziemyĠ": 6979,
      "cyfrow": 6980,
      "aci": 6981,
      "Ġpers": 6982,
      ".ĊĊĠÅ¹rÃ³dÅĤaĠĊĠĊĠĊĠ": 6983,
      "Ġzarzut": 6984,
      "Å¼bie": 6985,
      "Ġpartner": 6986,
      "terytoriumĠ": 6987,
      "nicj": 6988,
      "lah": 6989,
      "Rosyj": 6990,
      "skaĠp": 6991,
      "Ġprzypadku": 6992,
      "sprzÄĻ": 6993,
      "alne": 6994,
      "owskiej": 6995,
      "etyĠ": 6996,
      "ktoĠ": 6997,
      "Aleksander": 6998,
      "odbyÅĤĠsiÄĻĠ": 6999,
      ".ĊĊĠÅ¹rÃ³dÅĤoĠ": 7000,
      "teÅ¼,ĠÅ¼eĠ": 7001,
      "BliskiĠWschÃ³d": 7002,
      "dowod": 7003,
      "ĠpolitykiĠ": 7004,
      "ÅĦ,Ġ": 7005,
      "rozmawia": 7006,
      "kaĠzĠ": 7007,
      "ĠTe": 7008,
      ".ĠZa": 7009,
      "oki": 7010,
      "informujeĠ": 7011,
      "Ġzorganiz": 7012,
      "Mag": 7013,
      "sĠ(": 7014,
      "Kaczy": 7015,
      "sierp": 7016,
      "Astro": 7017,
      "Egip": 7018,
      "ruchom": 7019,
      "alnegoĠ": 7020,
      "czyÅĤ,ĠÅ¼eĠ": 7021,
      "ryg": 7022,
      "dam": 7023,
      "azĠ": 7024,
      "telewizjiĠ": 7025,
      "ĠwyÅĽwiet": 7026,
      "otrzymaÅĤ": 7027,
      "Ġpowro": 7028,
      "Bud": 7029,
      "misj": 7030,
      "grani": 7031,
      "aĠjest": 7032,
      "festiwaleĠ": 7033,
      "BiaÅĤoruÅĽ": 7034,
      "kaĠ(": 7035,
      "PÃ³ÅĤnoc": 7036,
      "iego,Ġ": 7037,
      "Libi": 7038,
      "ĠmÃ³wiÅĤĠ": 7039,
      "sportu": 7040,
      "rasz": 7041,
      ",ĠprzyĠ": 7042,
      "BiaÅĤorusi": 7043,
      "brod": 7044,
      "swoich": 7045,
      "ielce": 7046,
      "kampanii": 7047,
      "niewy": 7048,
      ".ĠJestĠ": 7049,
      "rejestra": 7050,
      "jas": 7051,
      "Warszawa": 7052,
      "ront": 7053,
      "swÃ³j": 7054,
      "âĢĵĠS": 7055,
      "mnieĠ": 7056,
      "ekipyĠ": 7057,
      "Ġpory": 7058,
      "referendum": 7059,
      "cÄĻ": 7060,
      "ĠprzeglÄħd": 7061,
      "incydent": 7062,
      "ĠwĠlatachĠ": 7063,
      "Tim": 7064,
      ".ĠZĠkole": 7065,
      ".ĠÅģ": 7066,
      "szty": 7067,
      "ĠdoszÅĤoĠ": 7068,
      "Mal": 7069,
      "Hel": 7070,
      "ondaÅ¼": 7071,
      "Benedy": 7072,
      "Irland": 7073,
      "Mary": 7074,
      "Gar": 7075,
      "ĠsiÄĻĠ": 7076,
      "ĠwyglÄħd": 7077,
      "czone": 7078,
      "uwz": 7079,
      "ĠprzesÅĤuch": 7080,
      "PL": 7081,
      "ĠdwaĠ": 7082,
      "ÅĤoÅ¼on": 7083,
      "ÅĽwiÄħ": 7084,
      "2001": 7085,
      "ogranicze": 7086,
      "60Ġ": 7087,
      "ĊKategoria:UniaĠEuropej": 7088,
      "Krak": 7089,
      "ds": 7090,
      "zaplan": 7091,
      "ÄħcaĠ": 7092,
      "owiedziaÅĤ": 7093,
      "Ġpromo": 7094,
      "Kanad": 7095,
      "Ġpil": 7096,
      "oseksu": 7097,
      "ĠzdobyÅĤĠ": 7098,
      "iger": 7099,
      "Dar": 7100,
      "PolakÃ³w": 7101,
      "ludzieĠ": 7102,
      "Argenty": 7103,
      ".com": 7104,
      "niedzielÄĻĠ": 7105,
      "ĠpolicjiĠ": 7106,
      "Ġkategor": 7107,
      "zaczÄĻ": 7108,
      "naĠprezydent": 7109,
      "budynkuĠ": 7110,
      "ĠzostaÅĤoĠrannych": 7111,
      "EwaĠ": 7112,
      "AgnieszkaĠ": 7113,
      "dwÃ³ch": 7114,
      "ĠpÅĤ": 7115,
      ",ĠwĠktÃ³rej": 7116,
      "iĠprzy": 7117,
      "kierowaneĠbyÅĤyĠ": 7118,
      "liÅĽmy": 7119,
      "swojej": 7120,
      "listyĠ": 7121,
      "granicyĠ": 7122,
      "Ġzapew": 7123,
      "ff": 7124,
      "NajwyÅ¼": 7125,
      "niaĠwĠ": 7126,
      "awieniaĠwol": 7127,
      "emo": 7128,
      "zas": 7129,
      "anyĠprzezĠ": 7130,
      "Ã³wkiĠ": 7131,
      "ĠtrakcieĠ": 7132,
      "Maj": 7133,
      "Bogdan": 7134,
      "ÅĦskim": 7135,
      "ĠpaÅĦstwĠ": 7136,
      "Ġpolskich": 7137,
      "ett": 7138,
      "ekonomi": 7139,
      "ĠzajÄĻ": 7140,
      "tyĠiĠfestiwaleĠ": 7141,
      "tyĠiĠfestiwaleĠmuzyczne": 7142,
      "ewand": 7143,
      "Å»oliborz": 7144,
      "Wojsko": 7145,
      "rogramĠ": 7146,
      "caĠw": 7147,
      "Londy": 7148,
      "nomina": 7149,
      "ĠKom": 7150,
      "standard": 7151,
      "ĠÅļwiat": 7152,
      "rozumie": 7153,
      "ofen": 7154,
      "aĠprzez": 7155,
      ",6": 7156,
      "ieĠiĠ": 7157,
      ".ĊĊI": 7158,
      "syn": 7159,
      "najprawdopodob": 7160,
      "Äħce": 7161,
      "budÅ¼et": 7162,
      "ianaĠ": 7163,
      "Rum": 7164,
      "3:": 7165,
      "graĠ": 7166,
      "ZwiÄħzekĠP": 7167,
      "Ġpropon": 7168,
      ",4": 7169,
      "Ġprezydenckich": 7170,
      "czerwca": 7171,
      "Cyber": 7172,
      "opart": 7173,
      "Ġwikipedy": 7174,
      "kupi": 7175,
      "dziaÅĤacz": 7176,
      "niaĠiĠ": 7177,
      "anymĠ": 7178,
      "owaniaĠp": 7179,
      "zyĠz": 7180,
      "odpowiedzi": 7181,
      "kultural": 7182,
      "Äħcej": 7183,
      "skrzy": 7184,
      "tis": 7185,
      "KulturyĠ": 7186,
      "ĊS": 7187,
      "\"ĠwĠ": 7188,
      "ÑĤ": 7189,
      "mechani": 7190,
      "oÅ¼y": 7191,
      "suniÄĻ": 7192,
      "umowyĠ": 7193,
      "gat": 7194,
      "akt": 7195,
      "wierdz": 7196,
      "ialog": 7197,
      "lasyfikacjiĠgeneral": 7198,
      "owania,Ġ": 7199,
      "iss": 7200,
      "000Ġkop": 7201,
      "naĠpew": 7202,
      "Euro": 7203,
      "Fo": 7204,
      "spoÅĽrÃ³d": 7205,
      "ÅĤasz": 7206,
      "ei": 7207,
      "Äħcy": 7208,
      "Ġpowinien": 7209,
      ",Ġnatomiast": 7210,
      "dziaÅĤalnoÅĽÄĩĠ": 7211,
      "cja,Ġ": 7212,
      "ĠwyborÃ³wĠ": 7213,
      "naĠpok": 7214,
      "Polski,Ġ": 7215,
      "arosÅĤaw": 7216,
      ".ĊĊPodczasĠ": 7217,
      "ratunkow": 7218,
      "aĠZ": 7219,
      "Wojsk": 7220,
      "roducentÃ³wĠA": 7221,
      "roducentÃ³wĠAudi": 7222,
      "awiaÅĤ": 7223,
      "cjach": 7224,
      "ObronyĠ": 7225,
      "Mosk": 7226,
      "NowaĠ": 7227,
      "ĠwspÃ³ÅĤczes": 7228,
      "Ã³wczasĠ": 7229,
      "ash": 7230,
      "stÄħpiĠ": 7231,
      "SÅĤowa": 7232,
      "aĠJ": 7233,
      "stacjon": 7234,
      "kiĠz": 7235,
      "ĠwÅĽrÃ³dĠ": 7236,
      "Lib": 7237,
      "sÅĤab": 7238,
      "iÅ¼Ġ": 7239,
      "ĠzaczÄĻ": 7240,
      "OM": 7241,
      ".Ġminucie": 7242,
      "festiwaluĠ": 7243,
      "okresieĠ": 7244,
      "EN": 7245,
      "usÅĤy": 7246,
      "zeĠz": 7247,
      "szer": 7248,
      "czÄĻÅĽciej": 7249,
      "stwor": 7250,
      "tematy": 7251,
      "okolicachĠ": 7252,
      "ywaniaĠ": 7253,
      "dnia": 7254,
      "miÅĤ": 7255,
      "Ġwszystko": 7256,
      "ankie": 7257,
      "jan": 7258,
      "ÅĽmi": 7259,
      "AgencjaĠ": 7260,
      "jednaĠ": 7261,
      "-A": 7262,
      "Wiktor": 7263,
      "dĠPri": 7264,
      "ruĠ": 7265,
      "MiastaĠ": 7266,
      "kowegoĠ": 7267,
      "uczestnikÃ³w": 7268,
      "Ġpacjent": 7269,
      "uĠoĠ": 7270,
      "aĠRP": 7271,
      "ieroĠ": 7272,
      "Quiz": 7273,
      "Ġpowt": 7274,
      "owanÄħĠ": 7275,
      ".ĠDodatkow": 7276,
      "aĠpolity": 7277,
      "dalek": 7278,
      "ydgo": 7279,
      "szan": 7280,
      "ujemyĠ": 7281,
      "o-Vide": 7282,
      "orl": 7283,
      "KaczyÅĦski": 7284,
      "Ċthumb|300px|": 7285,
      "Window": 7286,
      "Marcinkiewicz": 7287,
      "dziaÅĤaÅĦĠ": 7288,
      "nowoczes": 7289,
      "Ġwynika,ĠÅ¼eĠ": 7290,
      "odbywaÄĩĠ": 7291,
      "gon": 7292,
      "GrupaĠ": 7293,
      "DonaldaĠTusk": 7294,
      "strzeli": 7295,
      "ĠwynosiĠ": 7296,
      "Radom": 7297,
      "jednejĠ": 7298,
      "Lan": 7299,
      "comĠ": 7300,
      "tri": 7301,
      "ZwiÄħzekĠProducentÃ³wĠAudi": 7302,
      "ÅĦskiĠ(": 7303,
      "owaniaĠw": 7304,
      "MarszaÅĤ": 7305,
      "aledwieĠ": 7306,
      "nieniuĠ": 7307,
      "zebran": 7308,
      "debat": 7309,
      "waÅĤĠ": 7310,
      "awiajÄħĠ": 7311,
      "miÄĻdzyĠinnymiĠ": 7312,
      ",ĠjakieĠ": 7313,
      "pozytor": 7314,
      "leks": 7315,
      "firmy": 7316,
      "ys": 7317,
      "urat": 7318,
      "IPN": 7319,
      "egze": 7320,
      "ÅĤac": 7321,
      "odcinkuĠ": 7322,
      "Pie": 7323,
      "ktÃ³rym": 7324,
      "owanyĠwĠ": 7325,
      "odbywaĠ": 7326,
      "aÄĩĠsiÄĻĠ": 7327,
      "Nor": 7328,
      "Ġpli": 7329,
      "bymĠ": 7330,
      "atystykiĠ": 7331,
      "ujÄħcaĠ": 7332,
      "anejĠ": 7333,
      "chnikaĊKategoria:": 7334,
      "zasad": 7335,
      "aĠwybor": 7336,
      "stanowiĠ": 7337,
      ",ĠaĠp": 7338,
      ".ĊĊObec": 7339,
      "amiÄĻt": 7340,
      "chcÄħĠ": 7341,
      "Ġpoprzed": 7342,
      "Wyborcz": 7343,
      "ĠpowiatuĠ": 7344,
      "Ġzat": 7345,
      "Ã³w:Ġ": 7346,
      "udziaÅĤuĠwĠ": 7347,
      "szÅĤaĠ": 7348,
      "unkty": 7349,
      "iemcy": 7350,
      "PiÅĤkaĠnoÅ¼na": 7351,
      "antyrakiet": 7352,
      "rozwij": 7353,
      "âĢĵ2023)Ċ": 7354,
      "Ġmod": 7355,
      "YouTube": 7356,
      "oÅĽwiadczeniaĠ": 7357,
      "identy": 7358,
      "aÅĽ": 7359,
      "di": 7360,
      "ĠU": 7361,
      "aÅĤa,ĠÅ¼eĠ": 7362,
      "Ġzgod": 7363,
      "czenie": 7364,
      "fel": 7365,
      "Sojusz": 7366,
      "sekretarzĠ": 7367,
      "Mik": 7368,
      "remis": 7369,
      "sprzedaÅ¼ĠponadĠ": 7370,
      "ZwiÄħzekĠProducentÃ³wĠAudio-Vide": 7371,
      "jakieĠ": 7372,
      "dotyczÄħce": 7373,
      "ĠpaÅĦstwaĠ": 7374,
      "Å¼eliĠ": 7375,
      "lav": 7376,
      "skiĊKategoria:": 7377,
      "nowe": 7378,
      "namiĠ": 7379,
      "rady": 7380,
      "WielkaĠBrytani": 7381,
      "Con": 7382,
      "Å»Ã³ÅĤ": 7383,
      "ĠprzedstawicieliĠ": 7384,
      "niu,Ġ": 7385,
      "normal": 7386,
      "elimina": 7387,
      "ujÄħcymĠ": 7388,
      "rozgryw": 7389,
      "orus": 7390,
      "hiszp": 7391,
      "Ziob": 7392,
      "NiepodlegÅĤ": 7393,
      "hab": 7394,
      "chwil": 7395,
      "latego": 7396,
      "ctwemĠ": 7397,
      "swoim": 7398,
      "kaĠwĠ": 7399,
      "PolskiejĠ": 7400,
      "Ġkm/h": 7401,
      ",ĠktÃ³ryĠwĠ": 7402,
      "szuka": 7403,
      "gÅĤosi": 7404,
      "takÄħĠ": 7405,
      "Ġprzew": 7406,
      ".ĠTrze": 7407,
      "mann": 7408,
      "zabi": 7409,
      ".ĠĊĠ": 7410,
      "FunduszuĠ": 7411,
      "jedyn": 7412,
      "tedy": 7413,
      "krajÃ³wĠ": 7414,
      "tutaj": 7415,
      "es:": 7416,
      "fr:": 7417,
      "Ġpety": 7418,
      "RadiaĠ": 7419,
      "ElÅ¼bie": 7420,
      "arol": 7421,
      ".ĠOprÃ³cz": 7422,
      "ÄħÅ¼y": 7423,
      "model": 7424,
      "AL": 7425,
      "WÅĤadimi": 7426,
      "erazĠ": 7427,
      "oÅ¼ar": 7428,
      "uszeĠ": 7429,
      "inwest": 7430,
      "owanaĠprzezĠ": 7431,
      "kandy": 7432,
      "ĠWrocÅĤaw": 7433,
      "Ġdysk": 7434,
      "reszt": 7435,
      ".ĠMoÅ¼": 7436,
      "à¯įà®": 7437,
      "Ġmat": 7438,
      "owaÅĤĠwĠ": 7439,
      "jÄĻcieĠ": 7440,
      "groÅº": 7441,
      "termi": 7442,
      "jesie": 7443,
      "nikamiĠ": 7444,
      "szĠ": 7445,
      "sud": 7446,
      "zezna": 7447,
      "aĠtoĠ": 7448,
      "uwol": 7449,
      "biut": 7450,
      "zajÄĻ": 7451,
      "onli": 7452,
      "oĠS": 7453,
      "Ġwynik": 7454,
      "ĠzaĠsprzedaÅ¼ĠponadĠ": 7455,
      "drugimĠ": 7456,
      "jczy": 7457,
      "ĠwrzeÅĽnia": 7458,
      "2007Ġroku": 7459,
      "Astronauty": 7460,
      "obieg": 7461,
      "RadyĠMinist": 7462,
      "mandat": 7463,
      "Waldemar": 7464,
      "okuĠ": 7465,
      "tras": 7466,
      "ĠwynikaĠ": 7467,
      "Belg": 7468,
      "Å¼ydow": 7469,
      "razie": 7470,
      "szczÄĻÅĽ": 7471,
      "Rzy": 7472,
      "Ġwymieni": 7473,
      "gospod": 7474,
      "niosek": 7475,
      "ĠzĠnichĠ": 7476,
      "bÄĻdzieĠmoÅ¼naĠ": 7477,
      "nieĠsÄħĠ": 7478,
      "Ġzwol": 7479,
      "ezĠ": 7480,
      "ĊĊen:": 7481,
      "brakĠ": 7482,
      "ersjaĠ": 7483,
      "stabil": 7484,
      "Ġwspom": 7485,
      "ĠpierwszeĠ": 7486,
      "moÅ¼eĠbyÄĩĠ": 7487,
      "dziewiÄĻ": 7488,
      "nemĠ": 7489,
      "kontroliĠ": 7490,
      "Ak": 7491,
      "oĠdoĠ": 7492,
      "ĊĊĠÅ¹rÃ³dÅĤaĠĊĠĊĠĊĠĊĊKategoria:": 7493,
      "ZĠ": 7494,
      "bl": 7495,
      "Al-K": 7496,
      "seksu": 7497,
      "500Ġ": 7498,
      "gÃ³": 7499,
      "nowa": 7500,
      "homoseksu": 7501,
      "aĠpÅĤytaĊKategoria:": 7502,
      "lob": 7503,
      "naĠwĠPolsce": 7504,
      "Noc": 7505,
      "robot": 7506,
      "Internat": 7507,
      "altern": 7508,
      "decyzjiĠ": 7509,
      "terze": 7510,
      "ĠzakresieĠ": 7511,
      "rezygna": 7512,
      "uÅ¼yt": 7513,
      "roczyst": 7514,
      "ÅĽwiataĠ": 7515,
      "74": 7516,
      "ĠprzedeĠwszystkimĠ": 7517,
      "Wyborczej": 7518,
      ",ĠG": 7519,
      "NoÅ¼": 7520,
      "naĠ(": 7521,
      "rapor": 7522,
      "aĠpÅĤytaĊKategoria:ZwiÄħzekĠProducentÃ³wĠAudio-Vide": 7523,
      "%Ġ(": 7524,
      ":00Ġ-Ġ": 7525,
      "Ele": 7526,
      "jaki": 7527,
      "Ñģ": 7528,
      "omali": 7529,
      "Ġrosyj": 7530,
      "czeniu": 7531,
      "drugiejĠ": 7532,
      "nieprawidÅĤow": 7533,
      "maĠp": 7534,
      "central": 7535,
      "bilet": 7536,
      "ukar": 7537,
      "musiaÅĤ": 7538,
      "Ġdrog": 7539,
      "ÅĤadze": 7540,
      "remi": 7541,
      "Rz": 7542,
      "emĠnaĠ": 7543,
      "tysiÄĻcy": 7544,
      "odbyÅĤoĠsiÄĻĠ": 7545,
      "par": 7546,
      "ciej": 7547,
      "ĠzdarzeniaĠ": 7548,
      "anim": 7549,
      "epidemi": 7550,
      "odbÄĻdzieĠsiÄĻ": 7551,
      "79": 7552,
      "oman": 7553,
      "kiest": 7554,
      "bojow": 7555,
      "orazĠwĠ": 7556,
      "krakow": 7557,
      "ĠzostaÅĤyĠ": 7558,
      ",ĠgdyÅ¼Ġ": 7559,
      "ciaĠp": 7560,
      "ostatniegoĠ": 7561,
      "ÅĤychĠ": 7562,
      "owychĠwĠ": 7563,
      "ĠPolsceĠ": 7564,
      "odej": 7565,
      "udziaÅĤemĠ": 7566,
      "OÅĽrod": 7567,
      "CĠ": 7568,
      "Francji": 7569,
      "mniejsz": 7570,
      "2008Ġroku": 7571,
      "ukrot": 7572,
      "koÅĤoĠ": 7573,
      "reprezentacjiĠ": 7574,
      "odniop": 7575,
      "arÃ³wno": 7576,
      "tworzy": 7577,
      "jut": 7578,
      "OL": 7579,
      "ziÅĽĠ": 7580,
      "noÅĽci,Ġ": 7581,
      "elektro": 7582,
      "osĠ": 7583,
      "krot": 7584,
      "internaut": 7585,
      "liÅĽcieĠ": 7586,
      "ĠrozpoczÄħ": 7587,
      "kowy": 7588,
      "opÅĤat": 7589,
      "mob": 7590,
      "ÅĤyĠwĠ": 7591,
      "awiajÄħc": 7592,
      "ierzy": 7593,
      "hiszpa": 7594,
      "2025ĠrokuĠwĠ": 7595,
      "ffi": 7596,
      "odniopomor": 7597,
      "oĠzmia": 7598,
      "ĊKategoria:PiÅĤkaĠnoÅ¼na": 7599,
      "\"D": 7600,
      "14:": 7601,
      "1:0": 7602,
      "Ġpla": 7603,
      "uÅĤgar": 7604,
      "ZmianaĠwĠskÅĤadzie:ĠschodziĠ,ĠĊ": 7605,
      "ZmianaĠwĠskÅĤadzie:ĠschodziĠ,ĠĊwchodziĠ": 7606,
      "Finans": 7607,
      "ÄĩĠpo": 7608,
      "ludzie": 7609,
      ".ĠWÅĽrÃ³dĠ": 7610,
      "Rynek": 7611,
      "badaÅĦĠ": 7612,
      ".ĠPodob": 7613,
      "Mak": 7614,
      "opÃ³Åº": 7615,
      "zapowiad": 7616,
      "najpierw": 7617,
      "oniĠ": 7618,
      "sor": 7619,
      "caĠiĠ": 7620,
      "Ġp.p": 7621,
      "naszychĠ": 7622,
      "83": 7623,
      "Narodowej": 7624,
      "sejm": 7625,
      "cerem": 7626,
      "eĠB": 7627,
      "eraĠ": 7628,
      "miÄĻ": 7629,
      "gm": 7630,
      "sprawiedliwoÅĽciĠ": 7631,
      "rozstrzyg": 7632,
      "flag": 7633,
      "resort": 7634,
      "Lar": 7635,
      ".ĠPow": 7636,
      "owanej": 7637,
      "iemi": 7638,
      "kaÅ¼degoĠ": 7639,
      "gromadz": 7640,
      "czni": 7641,
      "akĠ": 7642,
      "Mad": 7643,
      "Estoni": 7644,
      "nocyĠzĠ": 7645,
      "ear": 7646,
      "moÅ¼liwoÅĽci": 7647,
      "Ġdaw": 7648,
      "ey": 7649,
      "atch": 7650,
      "aÅĤoĠsiÄĻ,ĠÅ¼eĠ": 7651,
      "wig": 7652,
      "ĠprogramieĠ": 7653,
      ".ĊĊĠT": 7654,
      "ĊKategoria:Pro": 7655,
      ".ĊĊĠÅ¹rÃ³dÅĤaĠĊĠĊĠĊĊKategoria:PolskaĊKategoria:": 7656,
      "Jam": 7657,
      "osobi": 7658,
      "jazdy": 7659,
      "czen": 7660,
      "nego,Ġ": 7661,
      "owiedziaÅĤĠ": 7662,
      "odÅº": 7663,
      "ĠprawdopodobnieĠ": 7664,
      "emit": 7665,
      "boli": 7666,
      "iero": 7667,
      "klient": 7668,
      "Alej": 7669,
      "Art": 7670,
      "Klub": 7671,
      "DruÅ¼y": 7672,
      "Fir": 7673,
      "kilkanaÅĽcieĠ": 7674,
      "zenie": 7675,
      "cjaĠz": 7676,
      "anychĠprzezĠ": 7677,
      "abyt": 7678,
      "isĠ": 7679,
      "Å¼ynie": 7680,
      "operacjiĠ": 7681,
      "ĠwÅĽrÃ³d": 7682,
      "Äħbrow": 7683,
      "ĠRad": 7684,
      "MinisterstwaĠ": 7685,
      "Gil": 7686,
      "misjaĠ": 7687,
      "uwaÅ¼y": 7688,
      "NowyĠ": 7689,
      ".ĊĊPrzy": 7690,
      ",2": 7691,
      "aleriaĠ": 7692,
      "tyleĠ": 7693,
      "lig": 7694,
      "AfrykaĊKategoria:": 7695,
      "sun": 7696,
      "zamach": 7697,
      "koszul": 7698,
      "Targ": 7699,
      "ĊKategoria:ÅļwiatĊKategoria:Terroryzm": 7700,
      "koalicjiĠ": 7701,
      "2017": 7702,
      "Å¼emĠ": 7703,
      "czel": 7704,
      "ĠwrÄĻ": 7705,
      "rozmÃ³w": 7706,
      "asÅĤug": 7707,
      "Ha": 7708,
      "aust": 7709,
      "temper": 7710,
      "ĠpiÅĤceĠnoÅ¼nejĠ": 7711,
      ",3": 7712,
      "ĠdoszÅĤoĠdoĠzatrzymaniaĠwĠruchuĠtramwajowymĠnaĠ,ĠwĠkierunkuĠĠzĠpowoduĠ": 7713,
      "Gaz": 7714,
      "ced": 7715,
      "koÅĤaĠ": 7716,
      "inf": 7717,
      "WikimediaĊKategoria:Wikipedia": 7718,
      "glob": 7719,
      "noweli": 7720,
      ".ĠPol": 7721,
      "ÅĽrodowiskaĠ": 7722,
      "brak": 7723,
      "Ġdotychczas": 7724,
      "Gro": 7725,
      "byw": 7726,
      "taÅĦ": 7727,
      "noÅĽciĠiĠ": 7728,
      "Ã³w.ĊĊ": 7729,
      "ostrz": 7730,
      "PrawaĠiĠ": 7731,
      "dostÄĻpĠdoĠ": 7732,
      "ED": 7733,
      "ÄħtkowoĠ": 7734,
      "nikom": 7735,
      "Em": 7736,
      "ĠSikor": 7737,
      "ha": 7738,
      "Alex": 7739,
      "gali": 7740,
      "chodziĠoĠ": 7741,
      "treÅĽciĠ": 7742,
      "new": 7743,
      "stawia": 7744,
      "ender": 7745,
      "Ġpowszech": 7746,
      "Na": 7747,
      "zdecyd": 7748,
      "ĠweĠWrocÅĤawi": 7749,
      "ule": 7750,
      "Trakt": 7751,
      "NowymĠ": 7752,
      "Ziemi": 7753,
      "czÅĤonkowieĠ": 7754,
      "post": 7755,
      "mam": 7756,
      "PiotrĠ": 7757,
      "ĠwĠponiedziaÅĤ": 7758,
      "Premier": 7759,
      "Ġweek": 7760,
      "000ĠkopiiĠ": 7761,
      "ĠpierwszaĠ": 7762,
      "oĠtymĠ": 7763,
      "AstronautykaĊKategoria:": 7764,
      "ĠmiesiÄħc": 7765,
      "wziÄĻ": 7766,
      "Konfedera": 7767,
      "nawiÄħz": 7768,
      "tyĠwĠ": 7769,
      "Ne": 7770,
      "aborator": 7771,
      "aryĠ": 7772,
      "ĠpoparcieĠ": 7773,
      "skiegoĠiĠ": 7774,
      "rĠP": 7775,
      "Federa": 7776,
      "artyst": 7777,
      "naĠpoziom": 7778,
      "umiej": 7779,
      "dajeĠ": 7780,
      "iet": 7781,
      "filmuĠ": 7782,
      "dep": 7783,
      ".ĠWstÄĻpĠwolny": 7784,
      "aziri": 7785,
      "raĠK": 7786,
      "My": 7787,
      "ĠportalĠ": 7788,
      "ĠwprowadzeniaĠ": 7789,
      "ĊKategoria:A": 7790,
      "cznoÅĽÄĩĠ": 7791,
      "dzenieĠ": 7792,
      "ĠwydarzeÅĦ": 7793,
      "dotar": 7794,
      "ÅĤaĠsiÄĻĠwĠ": 7795,
      "niepeÅĤnospraw": 7796,
      "cznej,Ġ": 7797,
      "mieÅĽcie": 7798,
      "-letniĠ": 7799,
      "myĠz": 7800,
      "KW": 7801,
      "koli": 7802,
      "naĠpierw": 7803,
      ",Ġnie": 7804,
      "BiaÅĤyst": 7805,
      "aleÅ¼yĠ": 7806,
      "1.Ġ": 7807,
      "bin": 7808,
      "archite": 7809,
      "ryp": 7810,
      "Pa": 7811,
      "razyĠ": 7812,
      "owieĠzĠ": 7813,
      "ackĠObam": 7814,
      "iveĠ": 7815,
      "doÅĤÄħ": 7816,
      "Ġpora": 7817,
      "dziÄĩ": 7818,
      "projekt": 7819,
      "nagrodyĠ": 7820,
      "AkademiiĠ": 7821,
      "demonstra": 7822,
      "uÅĤat": 7823,
      "Ġ(p": 7824,
      "woÅº": 7825,
      "udziel": 7826,
      "âĢŀP": 7827,
      "ĠprowincjiĠ": 7828,
      ",Ġlecz": 7829,
      "zwyciÄĻstw": 7830,
      "ĠSam": 7831,
      "stoj": 7832,
      "Dziennik": 7833,
      "ĠmÃ³": 7834,
      "Rozwoj": 7835,
      "Ġwzro": 7836,
      "AP": 7837,
      "zostanÄħĠ": 7838,
      "Ġzabyt": 7839,
      "ĠpoÅĽwiÄĻc": 7840,
      "ower": 7841,
      "Van": 7842,
      "PartiiĠ": 7843,
      "RadioĠ": 7844,
      "Mo": 7845,
      "tÄħ": 7846,
      "Juli": 7847,
      "DavidĠ": 7848,
      "ĠpolskimĠ": 7849,
      "rozpocznieĠ": 7850,
      "ĠwĠz": 7851,
      "sektor": 7852,
      "niku": 7853,
      ",ĠgdyÅ¼": 7854,
      "08": 7855,
      "Liter": 7856,
      "apieÅ¼": 7857,
      "ielg": 7858,
      "ogÅĤosiÅĤĠ": 7859,
      "aliĠsiÄĻĠ": 7860,
      "ĠtheĠ": 7861,
      "rywal": 7862,
      "'''": 7863,
      ")ĠĠ": 7864,
      "Microsoft": 7865,
      "PolitykaĊKategoria:PolskaĊ": 7866,
      "insp": 7867,
      "rezerw": 7868,
      "biznes": 7869,
      "im.Ġ": 7870,
      "Eri": 7871,
      "gwaÅĤ": 7872,
      "racaĠ": 7873,
      "metod": 7874,
      "ĠprzemÃ³w": 7875,
      "strzaÅĤ": 7876,
      "uroczystoÅĽci": 7877,
      "zajm": 7878,
      "ondaÅ¼e": 7879,
      "ĠwygraÅĤaĠ": 7880,
      "PlatformyĠ": 7881,
      "maszy": 7882,
      "Ġpostul": 7883,
      "ĠwĠPozna": 7884,
      "imna": 7885,
      "ginÄĻÅĤo": 7886,
      "olimpij": 7887,
      "nadziejÄĻ,ĠÅ¼eĠ": 7888,
      "sm": 7889,
      "arzÄħdz": 7890,
      "absol": 7891,
      "Ġwyborczej": 7892,
      "reÅ¼": 7893,
      "liczyÄĩĠ": 7894,
      "iusz": 7895,
      "okup": 7896,
      "rzej": 7897,
      "chÄĻt": 7898,
      "As": 7899,
      "Olimpij": 7900,
      "Ã¨": 7901,
      "ostrzeg": 7902,
      "nieÅĽÄĩĠ": 7903,
      "intensyw": 7904,
      "aktywi": 7905,
      "Ġdyrektor": 7906,
      "WikinewsĠ": 7907,
      "Biel": 7908,
      "KI": 7909,
      "zainteres": 7910,
      "ÄĻgl": 7911,
      "niÅĤĠ": 7912,
      "ĠzaangaÅ¼": 7913,
      "Zdrowi": 7914,
      "Ġlipca": 7915,
      "86": 7916,
      "sÅĤowa": 7917,
      ".ĠĊĊD": 7918,
      "don": 7919,
      "styczneĠ": 7920,
      "ĠzwiÄħzanychĠzĠ": 7921,
      "stanowie": 7922,
      "hor": 7923,
      "czynaj": 7924,
      "moment": 7925,
      "Ġwielu": 7926,
      "ojazd": 7927,
      "MF": 7928,
      "Narodowego": 7929,
      "yĠzam": 7930,
      ",ĠT": 7931,
      "zeni": 7932,
      "zaprezent": 7933,
      "ÄħdÅº": 7934,
      "nieĠzost": 7935,
      "Dziedzi": 7936,
      "misji": 7937,
      "eĠW": 7938,
      "ante": 7939,
      ",ĠÅ¼eby": 7940,
      "InternetĊKategoria:": 7941,
      "ĠpozarzÄħd": 7942,
      "treÅĽci": 7943,
      "dziej": 7944,
      "Ki": 7945,
      "ĠwedÅĤugĠ": 7946,
      "anym": 7947,
      "Ġprogramu": 7948,
      "ĠpowstaÅĤ": 7949,
      "ĠDonaldĠTusk": 7950,
      "Å¼ywie": 7951,
      "trzeciĠ": 7952,
      "BW": 7953,
      "ÅĤap": 7954,
      "ÅĽciaĠ": 7955,
      "karze": 7956,
      "takiegoĠ": 7957,
      "Bur": 7958,
      "grudniaĠ2023": 7959,
      "trzÄĻ": 7960,
      "Kosz": 7961,
      "onej": 7962,
      "zapew": 7963,
      "prezydent": 7964,
      "zastÄĻp": 7965,
      "noÅĽciĠwĠ": 7966,
      "went": 7967,
      "Medy": 7968,
      "anieĠwĠ": 7969,
      "MaÅĤgorz": 7970,
      "nowÄħĠ": 7971,
      "ĊĠZ": 7972,
      ".ĠGÅĤÃ³w": 7973,
      "oĠzakoÅĦ": 7974,
      "âĢĶĠ": 7975,
      "oznaczaĠ": 7976,
      "ĠpozbawieniaĠwol": 7977,
      "budynku": 7978,
      "rzeÅº": 7979,
      "Ġwykaz": 7980,
      "choÄĩ": 7981,
      "ekspert": 7982,
      "alnej": 7983,
      "Ġmist": 7984,
      "miastoĠ": 7985,
      "bowiemĠ": 7986,
      "ĊKategoria:PrawoĠiĠprzestÄĻpczoÅĽÄĩ": 7987,
      "ĠtÅĤum": 7988,
      ".ĠBÄĻdzieĠ": 7989,
      "ĠmajÄħĠ": 7990,
      "siÄĻwziÄĻ": 7991,
      "odnotowanoĠ": 7992,
      "Ġwydat": 7993,
      "ĠRzeczypospolitejĠPolsk": 7994,
      "ÅļlÄħskie": 7995,
      "AleksandraĠ": 7996,
      "stwa": 7997,
      "ĠposiadaĠ": 7998,
      "Ġpozwoli": 7999,
      "sezon": 8000,
      "uwagÄĻĠ": 8001,
      "ĠzapowiedziaÅĤ": 8002,
      "Ġdecy": 8003,
      "hĠ": 8004,
      "technicz": 8005,
      "ĠMor": 8006,
      "ÅĤaszcz": 8007,
      "Mod": 8008,
      "Å¡": 8009,
      "Wid": 8010,
      "Mas": 8011,
      "85": 8012,
      "Ġwystar": 8013,
      "John": 8014,
      "China": 8015,
      "http://www.": 8016,
      "mediaĠ": 8017,
      "AgencjiĠ": 8018,
      "mediachĠ": 8019,
      "ogranicz": 8020,
      "spoÅĤecznoÅĽciĠ": 8021,
      "ychĠwĠ": 8022,
      "karier": 8023,
      "sprzeciw": 8024,
      "ged": 8025,
      "Ġwiki": 8026,
      "Ġposzkod": 8027,
      "WI": 8028,
      "doszÅĤoĠdo": 8029,
      "Ġzdarze": 8030,
      "czer": 8031,
      "sezonieĠ": 8032,
      ".ĠMimoĠ": 8033,
      "noÅĽÄĩĠiĠ": 8034,
      "grupieĠ": 8035,
      "rÄħ": 8036,
      "ĠpÃ³ÅĤnoc": 8037,
      "nieĠza": 8038,
      "zeĠsob": 8039,
      "ranoĠ": 8040,
      "spotkania": 8041,
      "JanuszĠK": 8042,
      "Mistrz": 8043,
      "kaĠnoÅ¼na": 8044,
      "adu": 8045,
      "rachĠ": 8046,
      "Per": 8047,
      "niezbÄĻd": 8048,
      "natural": 8049,
      "oalicjaĠObywatel": 8050,
      "uchy": 8051,
      "byÅĤegoĠ": 8052,
      "Ġwyprze": 8053,
      "âĢĿĠnaĠ": 8054,
      "grupy": 8055,
      "wani": 8056,
      "lebis": 8057,
      "uszk": 8058,
      "eter": 8059,
      "KatarzynaĠ": 8060,
      "Zbroj": 8061,
      "skÅĤadĠ": 8062,
      "Ġkol": 8063,
      "PSL": 8064,
      "rzeÅĽci": 8065,
      "-G": 8066,
      "szÃ³": 8067,
      "gieÅĤ": 8068,
      "ISS": 8069,
      "Zawodnik": 8070,
      "Ġà®": 8071,
      "amerykaÅĦskichĠ": 8072,
      "aniaĠzĠ": 8073,
      "owiÄħz": 8074,
      "ĠwokÃ³ÅĤĠ": 8075,
      "arzÄħduĠ": 8076,
      ".ĠDecyzj": 8077,
      "zabezpie": 8078,
      "ĠpolskieĠ": 8079,
      "Jagiello": 8080,
      "reat": 8081,
      "Ho": 8082,
      "Ġmarca": 8083,
      "MA": 8084,
      "nÄħt": 8085,
      "nienie": 8086,
      "spokoj": 8087,
      "ĊKategoria:I": 8088,
      "sprawĠzagranicznychĠ": 8089,
      "yĠS": 8090,
      "imprezyĠ": 8091,
      "Han": 8092,
      "Ã³wĠ-Ġ": 8093,
      "piÅĤkaĠnoÅ¼na": 8094,
      "GrandĠPri": 8095,
      "uri": 8096,
      "amiĠwĠ": 8097,
      "lear": 8098,
      "ĠPar": 8099,
      "anej": 8100,
      "kolwiekĠ": 8101,
      "mocyĠ": 8102,
      "ĠpopeÅĤni": 8103,
      "oboz": 8104,
      "unt": 8105,
      "skupi": 8106,
      "Ã³wĠi": 8107,
      "Plan": 8108,
      "muze": 8109,
      "niosekĠoĠ": 8110,
      "osiad": 8111,
      ".ĠÅ»": 8112,
      "oczy": 8113,
      "dziesiÄĻciuĠ": 8114,
      "Ġprzedmiot": 8115,
      ".ĠObecnieĠ": 8116,
      "etapuĠ": 8117,
      "Stron": 8118,
      ".ĠZdaniemĠ": 8119,
      "byli": 8120,
      "jeÅºdzieĠ": 8121,
      "asze": 8122,
      "Serbi": 8123,
      "Austri": 8124,
      "ucharuĠ": 8125,
      "ĠwywiadzieĠ": 8126,
      "trzÄĻsie": 8127,
      "odwie": 8128,
      "kolar": 8129,
      ".ĠJednoczeÅĽ": 8130,
      "ÅĤadzeĠ": 8131,
      "awory": 8132,
      "frekwen": 8133,
      "serwisuĠ": 8134,
      "naĠcelu": 8135,
      "aĠpubli": 8136,
      "nyĠw": 8137,
      "ysk": 8138,
      "Ġpoten": 8139,
      "ĠpozycjiĠ": 8140,
      "tematĠ": 8141,
      "EuropyĠwĠ": 8142,
      "rekord": 8143,
      "kazĠ": 8144,
      "najwiÄĻkszychĠ": 8145,
      "szliĠ": 8146,
      "Toru": 8147,
      "olas": 8148,
      ".ĠSpotk": 8149,
      "\"K": 8150,
      "Ciekaw": 8151,
      "opular": 8152,
      "agencjiĠ": 8153,
      "fal": 8154,
      "Tru": 8155,
      "sÅĤuÅ¼y": 8156,
      "ajÄħcaĠ": 8157,
      "ojawi": 8158,
      "muni": 8159,
      "unkiĠ": 8160,
      "maksymal": 8161,
      "reak": 8162,
      "gad": 8163,
      "rakietyĠ": 8164,
      "koÅĤaj": 8165,
      "stacji": 8166,
      "OchronyĠ": 8167,
      "cjamiĠ": 8168,
      "ÄħÅĤ": 8169,
      "ĠpowinnoĠ": 8170,
      "onym": 8171,
      "ĠpracownikÃ³w": 8172,
      "ksiÄĻ": 8173,
      "konferencjiĠprasowej": 8174,
      "jechaÅĤ": 8175,
      "alew": 8176,
      "ĠRy": 8177,
      "ĠpoĠprostuĠ": 8178,
      "Ġme": 8179,
      "\"ĊĠ": 8180,
      "naszymĠ": 8181,
      "SS": 8182,
      "RzecznikĠ": 8183,
      "ÅĽrodkÃ³w": 8184,
      "nowy": 8185,
      "zg": 8186,
      "komuni": 8187,
      "gwiazd": 8188,
      "kowe": 8189,
      "telewizj": 8190,
      "wiÄĻkszy": 8191,
      "klas": 8192,
      "rÃ³g": 8193,
      "rzĠ": 8194,
      "Ġpremiera": 8195,
      "energiiĠ": 8196,
      "ĠwspÃ³ÅĤpracow": 8197,
      "kultury": 8198,
      "4.Ġ": 8199,
      "obchodz": 8200,
      "kowyĠ": 8201,
      "Przed": 8202,
      "art.Ġ": 8203,
      "1'": 8204,
      "ĊĊĠZobaczĠteÅ¼Ġ": 8205,
      "turniejuĠ": 8206,
      ".ĊĠĊ": 8207,
      "GazetaĠ": 8208,
      "bardzo": 8209,
      "skorzyst": 8210,
      "inicjaty": 8211,
      "encykl": 8212,
      "Sejm": 8213,
      "Net": 8214,
      "audyj": 8215,
      "ĠpracĠ": 8216,
      "ÅĤaĠnaĠ": 8217,
      "-le": 8218,
      "ĠwypowiedziĠ": 8219,
      "ies": 8220,
      "ĠkoniecĠ": 8221,
      "Ġkierow": 8222,
      "dyst": 8223,
      "ZA": 8224,
      "yĠzwiÄħz": 8225,
      "mogli": 8226,
      "ĠwyboryĠ": 8227,
      "ĠporÃ³wna": 8228,
      "alib": 8229,
      "ĠsÄħ": 8230,
      "lenieĠ": 8231,
      "finaleĠ": 8232,
      "chocia": 8233,
      "Ġpublik": 8234,
      "ĠwedÅĤug": 8235,
      "Brazyli": 8236,
      "iĠzostaÅĤ": 8237,
      "przed": 8238,
      "09": 8239,
      "konserw": 8240,
      "ĠposeÅĤĠ": 8241,
      "Å¼oÅĤnierz": 8242,
      "odpad": 8243,
      "Ġwykorzystan": 8244,
      "sojusz": 8245,
      "ÅĽlad": 8246,
      "sÅĤowaĠ": 8247,
      "16:": 8248,
      "Ġpatro": 8249,
      "tworzeniaĠ": 8250,
      "ĠdoszÅĤoĠdo": 8251,
      "nak": 8252,
      "PiSĠ": 8253,
      "Portu": 8254,
      "Armi": 8255,
      "EuropieĠ": 8256,
      "otwarty": 8257,
      "Leon": 8258,
      "2.Ġ": 8259,
      "aĠKaczyÅĦskiegoĠ": 8260,
      "ĠposzczegÃ³l": 8261,
      "ĠwtedyĠ": 8262,
      "licencjiĠ": 8263,
      "quig": 8264,
      "Bu": 8265,
      "nienia": 8266,
      "ajÄħcÄħĠ": 8267,
      "maÅĤyĊ": 8268,
      "artyj": 8269,
      "oĠzam": 8270,
      "Solidar": 8271,
      "niczychĠ": 8272,
      "ujÄĻ": 8273,
      "ujÄħcy": 8274,
      "RyszardĠ": 8275,
      "ĠtakÅ¼eĠ": 8276,
      "artament": 8277,
      "ĠprzykÅĤad": 8278,
      "naĠÅĽwiecie": 8279,
      "jemĠ": 8280,
      "niaĊKategoria:": 8281,
      "kilometrÃ³w": 8282,
      "Tor": 8283,
      "CBA": 8284,
      "LeszekĠ": 8285,
      ",ĠR": 8286,
      "2.0": 8287,
      "ĊKategoria:ArchiwalneĊW": 8288,
      "dzisiajĠ": 8289,
      "PoloniaĊKategoria:": 8290,
      "obywateli": 8291,
      "73": 8292,
      "Ġkomp": 8293,
      "koat": 8294,
      "ubi": 8295,
      "stanowiskaĠ": 8296,
      "Ġposta": 8297,
      "Rzesz": 8298,
      "Ġpodsum": 8299,
      "badaw": 8300,
      "WikiĠ": 8301,
      ".ĊĊOd": 8302,
      "speÅĤni": 8303,
      "godzinachĠ": 8304,
      "Ġwszystkie": 8305,
      "iomĠ": 8306,
      ".ĊĠÅ¹rÃ³dÅĤaĠĊĠĊĊKategoria:": 8307,
      "owaÄĩĠwĠ": 8308,
      ".ĊĊSt": 8309,
      "ĊKategoria:Niemcy": 8310,
      "TOC": 8311,
      ".ĊĊâĢĵĠ": 8312,
      "stabiliza": 8313,
      "internetowejĠ": 8314,
      "wyĠ": 8315,
      "dziaÅĤani": 8316,
      "alnych": 8317,
      "odbior": 8318,
      "etapu": 8319,
      "ozycjiĠ": 8320,
      "Ġprzewid": 8321,
      "Ġpolitycznych": 8322,
      ".ĠSÄħĠ": 8323,
      "waz": 8324,
      "robiÄĩĠ": 8325,
      "pxĊ": 8326,
      ",ĠktÃ³raĠp": 8327,
      "najwiÄĻcejĠ": 8328,
      "alĠM": 8329,
      "rzask": 8330,
      "Ġwzros": 8331,
      "2025Ġ": 8332,
      "ujÄħ,ĠÅ¼eĠ": 8333,
      "alternatyw": 8334,
      "kaĊĠ": 8335,
      "rozwiÄħzaniaĠ": 8336,
      "oseÅĤĠ": 8337,
      "znalaz": 8338,
      "aĠA": 8339,
      "niedzie": 8340,
      "Jaw": 8341,
      ".ĊĊPrezydent": 8342,
      "utin": 8343,
      "nikomĠ": 8344,
      "ÅĽrodÄĻĠ": 8345,
      "niÄĩĠ": 8346,
      "1,5": 8347,
      "ariuszeĠ": 8348,
      "odbyÅĤĠsiÄĻ": 8349,
      "odnios": 8350,
      "ÅĤĠz": 8351,
      "fa": 8352,
      "niÄħ": 8353,
      "niec": 8354,
      "aÅĤoĠsiÄĻ": 8355,
      "eh": 8356,
      "de:": 8357,
      ".ĊĠOkoÅĤoĠgodzinyĠ": 8358,
      "noÅĽciÄħ": 8359,
      "cyĠiĠ": 8360,
      "ĠwĠzwiÄħzkuĠzĠ": 8361,
      "-3": 8362,
      "Åļrodowisk": 8363,
      "kwiet": 8364,
      "dochod": 8365,
      "ariiĠPrezydent": 8366,
      "ubiegÅĤymĠ": 8367,
      ".ĠRze": 8368,
      "zamin": 8369,
      "Ġwynosi": 8370,
      "cykluĠ": 8371,
      "samodziel": 8372,
      "rzeczywist": 8373,
      "szpitala": 8374,
      "BOR": 8375,
      "cyĠwĠ": 8376,
      "tysiÄħceĠ": 8377,
      "lasyfikacjaĠ": 8378,
      "ogi": 8379,
      "aÄĩĠwĠ": 8380,
      "mÃ³gÅĤĠ": 8381,
      "Hal": 8382,
      "objazd": 8383,
      "umf": 8384,
      "raty": 8385,
      "RynekĠpracy": 8386,
      "Ġplatform": 8387,
      "dotyczyĠ": 8388,
      "kore": 8389,
      "obiec": 8390,
      "koÅĽciĠ": 8391,
      "uszkod": 8392,
      "ajÄħcy": 8393,
      "jez": 8394,
      "auli": 8395,
      "Ġpoprawi": 8396,
      "mieszkaÅĦcyĠ": 8397,
      "OP": 8398,
      "Fed": 8399,
      "ÅĤaÅĽ": 8400,
      "mogÅĤyĠ": 8401,
      "ranking": 8402,
      "grudniuĠ": 8403,
      "bÄħdÅº": 8404,
      "gÅĤÄĻbok": 8405,
      "czbaĠ": 8406,
      "ĠwĠserwisieĠ": 8407,
      "ĊKategoria:ArchiwalneĠzapowiedzi": 8408,
      "ĊKategoria:PiÅĤkaĠnoÅ¼naĠwĠPolsce": 8409,
      "ĠprzyszÅĤymĠ": 8410,
      "ogÃ³leĠ": 8411,
      "Ġprzyja": 8412,
      "Ġkier": 8413,
      "szeÅĽciuĠ": 8414,
      "aĠbyÅĤaĠ": 8415,
      "enĠzĠ": 8416,
      "ĠwsparcieĠ": 8417,
      ".ĊĊDz": 8418,
      "ĠwĠwynikuĠ": 8419,
      "najbliÅ¼szychĠ": 8420,
      "religij": 8421,
      "(wĠ": 8422,
      "Ġpostaw": 8423,
      "okrat": 8424,
      ".ĠSam": 8425,
      "siebie": 8426,
      "Ġprojektu": 8427,
      "ajÄħĠsiÄĻ": 8428,
      "otrzymaÅĤaĠ": 8429,
      "Relig": 8430,
      "orozumie": 8431,
      "owcÃ³w": 8432,
      "76": 8433,
      "tramwaju": 8434,
      "uber": 8435,
      "kong": 8436,
      "Ander": 8437,
      "0:": 8438,
      "rent": 8439,
      "terrorystycz": 8440,
      "Chan": 8441,
      "TOC__": 8442,
      ".ĊĊthumb|": 8443,
      "osn": 8444,
      "aneĠz": 8445,
      "ÅĦska,Ġ": 8446,
      "rodzic": 8447,
      "ÅĤodzimierzĠ": 8448,
      "UrzÄħdĠ": 8449,
      "Ġzabezpie": 8450,
      "mowyĠ": 8451,
      "owejĠiĠ": 8452,
      "prowadzi": 8453,
      "ujeĠnaĠ": 8454,
      "apier": 8455,
      "obserwator": 8456,
      "UT": 8457,
      "rebr": 8458,
      "oweĠiĠ": 8459,
      "racov": 8460,
      "Å¼eÅĦstw": 8461,
      "WarszawieĠ": 8462,
      "leÅ¼": 8463,
      "ÅģÃ³dzkie": 8464,
      "ĠprzypadkÃ³w": 8465,
      "Nad": 8466,
      "FrancjiĠ": 8467,
      "Angel": 8468,
      "zdaniemĠ": 8469,
      "Ð¾Ð": 8470,
      "zwiÄħzaneĠzĠ": 8471,
      "iemuĠ": 8472,
      "aĠorazĠ": 8473,
      "sÅĤuÅ¼by": 8474,
      "latach": 8475,
      "ieluĠ": 8476,
      "kowaÅĤĠ": 8477,
      "maĠbyÄĩĠ": 8478,
      "InstytutuĠ": 8479,
      ".ĠRe": 8480,
      "gno": 8481,
      "ĊKategoria:MinisterstwoĠ": 8482,
      "uchodÅº": 8483,
      "czeniemĠ": 8484,
      "stosunkuĠ": 8485,
      ",ĠktÃ³raĠz": 8486,
      "SprawiedliwoÅĽciĠ": 8487,
      "ostatnieĠ": 8488,
      "400": 8489,
      "etĠ": 8490,
      "to,Ġ": 8491,
      "Mazowieckie": 8492,
      "cieĠz": 8493,
      ".ĠĊĊZ": 8494,
      "aÅĦczy": 8495,
      "-ĠpowiedziaÅĤĠ": 8496,
      "ickĠ": 8497,
      "Wschod": 8498,
      "ujeĠsiÄĻĠnaĠ": 8499,
      "takÅ¼e,ĠÅ¼eĠ": 8500,
      "udziaÅĤĠw": 8501,
      "ĠmÄĻÅ¼czyz": 8502,
      "waÅĤaĠ": 8503,
      "Cor": 8504,
      ".ĠRy": 8505,
      "bard": 8506,
      "inni": 8507,
      "rejonieĠ": 8508,
      "ÅĽwiÄĻtokrzy": 8509,
      "Order": 8510,
      "oryte": 8511,
      "Mie": 8512,
      "imierzaĠ": 8513,
      "mio": 8514,
      "fakty": 8515,
      "owaĠw": 8516,
      "tym,ĠÅ¼eĠ": 8517,
      "trzecieĠ": 8518,
      "krÃ³tceĠ": 8519,
      "130": 8520,
      "StanachĠ": 8521,
      "spotkaÅĦ": 8522,
      "1ĠstyczniaĠ": 8523,
      "grudniaĠ2023ĠrokuĠ": 8524,
      "stworz": 8525,
      "nimiĠ": 8526,
      "Sa": 8527,
      "6/": 8528,
      "ĠpielÄĻgniar": 8529,
      "LewicyĠDemokraty": 8530,
      "Comple": 8531,
      "aÅĤty": 8532,
      "sÅĤuÅ¼bĠ": 8533,
      "jednoczeÅĽnieĠ": 8534,
      "tory": 8535,
      "USAĠ": 8536,
      "Ġtwierdzi": 8537,
      ".ĊĊPodczas": 8538,
      "BiaÅĤystok": 8539,
      "aÅĤaĠw": 8540,
      "cyjnymĠ": 8541,
      "ego,Ġ": 8542,
      "aÄĩĠdoĠ": 8543,
      "Szczeci": 8544,
      "SB": 8545,
      "np.": 8546,
      "natur": 8547,
      "ĠMi": 8548,
      "PolacyĠ": 8549,
      "PlatformaĠObywatelskaĊKategoria:": 8550,
      "najszyb": 8551,
      "CentrumĠLok": 8552,
      "AmerykaĠPÃ³ÅĤnocna": 8553,
      "ĠpolskaĠ": 8554,
      "Cyber-": 8555,
      "oi": 8556,
      "jakiĠ": 8557,
      "ĠpiÄĻciuĠ": 8558,
      "integra": 8559,
      "fundusz": 8560,
      "opan": 8561,
      "sko-p": 8562,
      "biur": 8563,
      "iĠm": 8564,
      "nieĠtylko": 8565,
      "ĠpoparciaĠ": 8566,
      ".ĠzĠ": 8567,
      "Ġpoch": 8568,
      "ruchĠ": 8569,
      "okon": 8570,
      "ostw": 8571,
      "ĠmandatÃ³w": 8572,
      "teni": 8573,
      "ĠÅģuka": 8574,
      "rtual": 8575,
      ",ĠwiÄĻc": 8576,
      "oszczÄĻ": 8577,
      "ÄħĠprzezĠ": 8578,
      "tychczasĠ": 8579,
      "ĠzastÄĻp": 8580,
      "ÅĤadz": 8581,
      "Zabyt": 8582,
      "âĢŀW": 8583,
      "Ġpierwsz": 8584,
      "premier": 8585,
      "Ġwido": 8586,
      "Artyku": 8587,
      "Ukrainy": 8588,
      "ogod": 8589,
      "Ġwspiera": 8590,
      "ĠPrze": 8591,
      "ĠwiÄĻkszoÅĽÄĩĠ": 8592,
      "nowej": 8593,
      "koncertĠ": 8594,
      "ĠSte": 8595,
      "sens": 8596,
      "25:": 8597,
      ".ĠĊĊĠÅ¹rÃ³dÅĤaĠ": 8598,
      ".ĠPraw": 8599,
      "Taj": 8600,
      "Ġsierpnia": 8601,
      "Kolarstwo": 8602,
      "Cyber-Comple": 8603,
      "cyjnaĠ": 8604,
      "edukacjiĠ": 8605,
      "osÃ³b,Ġ": 8606,
      "ĠpublicznychĠ": 8607,
      "zerw": 8608,
      "obu": 8609,
      "achĠzĠ": 8610,
      "tegoĠtypuĠ": 8611,
      ".ĠNastÄĻpnieĠ": 8612,
      "aÅĤoÅ¼e": 8613,
      "uci": 8614,
      "ĠRP": 8615,
      "kowiĠ": 8616,
      "cami": 8617,
      ".ĠPremier": 8618,
      "innyĠ": 8619,
      "caÅĤÄħĠ": 8620,
      "laczegoĠ": 8621,
      "Vi": 8622,
      "toĠwĠ": 8623,
      "Ġpl": 8624,
      "tegorocz": 8625,
      "Syl": 8626,
      "Czas": 8627,
      "UEFA": 8628,
      "Ġwiele": 8629,
      "tamyĠ": 8630,
      "Polog": 8631,
      "Ċfr:": 8632,
      "zakÅĤad": 8633,
      "niczej": 8634,
      "niczych": 8635,
      "onaĠprzezĠ": 8636,
      "ĠPro": 8637,
      ".ĠWczeÅĽniej": 8638,
      "Commons": 8639,
      "Ġprof.Ġ": 8640,
      "unek": 8641,
      "ĊKategoria:Te": 8642,
      "kowieĠ": 8643,
      "trzech": 8644,
      "ĠPiot": 8645,
      "owaneĠsÄħĠ": 8646,
      "ologiiĠ": 8647,
      "ĊKategoria:JarosÅĤawĠKaczyÅĦski": 8648,
      "twarz": 8649,
      "komĠ": 8650,
      "ujÄħce": 8651,
      ".ĊĊZd": 8652,
      "RosjaĠ": 8653,
      ",ĠiĠ": 8654,
      "aÄĩĠnaĠ": 8655,
      "Ġprzegra": 8656,
      "WyboryĠprezydenckie": 8657,
      "WarszawaĠ": 8658,
      "ĠkoÅĦ": 8659,
      "yn": 8660,
      "âĢĵĠwĠ": 8661,
      "hu": 8662,
      "Ġpoparcia": 8663,
      "awion": 8664,
      "unkcjon": 8665,
      "Ġmiliard": 8666,
      "ĠwĠpobliÅ¼uĠ": 8667,
      "ZagÅĤÄĻ": 8668,
      "tuÅ¼": 8669,
      "czÅĤonkÃ³w": 8670,
      "kap": 8671,
      "MaciejĠ": 8672,
      "1000": 8673,
      "szefemĠ": 8674,
      ",ĠC": 8675,
      "erem": 8676,
      "Ġpubliczny": 8677,
      "StanachĠZjednoczon": 8678,
      "NoÅ¼nejĠ": 8679,
      "oliĠ": 8680,
      "rozmow": 8681,
      "SÅĤowe": 8682,
      "arko": 8683,
      "awidĠ": 8684,
      "https://": 8685,
      ",ĠÅ¼eĠtoĠ": 8686,
      "-w": 8687,
      "lustra": 8688,
      "warantan": 8689,
      "ordy": 8690,
      "Ġzawie": 8691,
      "eĠprzezĠ": 8692,
      "nictwa": 8693,
      "WarszawaĊ": 8694,
      "amiÄĻciĠ": 8695,
      "dr": 8696,
      "czew": 8697,
      "osobist": 8698,
      "ilkaĠ": 8699,
      "rowadziĠ": 8700,
      "inaug": 8701,
      "aÅĤaĠp": 8702,
      "map": 8703,
      "dopiero": 8704,
      "JakĠ": 8705,
      "odbyÅĤyĠsiÄĻĠ": 8706,
      "Gir": 8707,
      "ĠNie": 8708,
      "liĠsiÄĻ": 8709,
      "aza": 8710,
      "BM": 8711,
      "afga": 8712,
      "Rich": 8713,
      "Ġprzewidzia": 8714,
      "stopni": 8715,
      "Ġwykry": 8716,
      "Rol": 8717,
      "oznacza,ĠÅ¼eĠ": 8718,
      "ĠpieniÄħdze": 8719,
      ".ĠZe": 8720,
      "Preze": 8721,
      "kanie": 8722,
      "ĠpracownicyĠ": 8723,
      "ktÃ³rego": 8724,
      "nomoc": 8725,
      "iloÅĽciĠ": 8726,
      "ĠdecyzjiĠ": 8727,
      "rodzeniaĠ": 8728,
      "eksper": 8729,
      "aneĠwĠ": 8730,
      "IrakuĠ": 8731,
      "odniÃ³sÅĤĠ": 8732,
      "kopal": 8733,
      "Ã³wĠoĠ": 8734,
      "spÃ³ÅĤkiĠ": 8735,
      "sekret": 8736,
      "Ġzacz": 8737,
      "Kry": 8738,
      "TrybunaÅĤuĠ": 8739,
      ":ĠĊĠ": 8740,
      "MSZ": 8741,
      "konkursu": 8742,
      "Ã§": 8743,
      "ciejĠ": 8744,
      "ĠpiÅĤkÄĻ": 8745,
      "ĊĠ12": 8746,
      "robiÄĩ": 8747,
      "Austral": 8748,
      "ĠprezesaĠ": 8749,
      "-letniegoĠ": 8750,
      "radyĠ": 8751,
      "ElÅ¼bietaĠ": 8752,
      "doÅĽwiadcze": 8753,
      "jednymĠz": 8754,
      "SZ": 8755,
      "boh": 8756,
      "Ġwolont": 8757,
      "kategoriiĠ": 8758,
      "lebiscy": 8759,
      "naĠceluĠ": 8760,
      ".ĠByÅĤĠ": 8761,
      "senator": 8762,
      "lib": 8763,
      "naĠpoziomieĠ": 8764,
      ".ĠInform": 8765,
      "ationĠ": 8766,
      "ahadÅĤow": 8767,
      "ĠwrÃ³ci": 8768,
      "87": 8769,
      "fini": 8770,
      ".)": 8771,
      "ĠzmarÅĤĠ": 8772,
      "aliÅĽmyĠ": 8773,
      "yĠprzez": 8774,
      "ĠzakaÅ¼eniaĠ": 8775,
      "amerykaÅĦski": 8776,
      "ĠPoli": 8777,
      "Ġmaja": 8778,
      "audy": 8779,
      "mieszkaÅĦcÃ³w": 8780,
      "iÄĩ": 8781,
      "okument": 8782,
      "haseÅĤ": 8783,
      "Projekt": 8784,
      ".ĠOrganizator": 8785,
      "oraĠ": 8786,
      "ktÃ³rzyĠ": 8787,
      ".ĠPodkreÅĽ": 8788,
      "Lek": 8789,
      "Astron": 8790,
      "ĠprzyszÅĤoÅĽciĠ": 8791,
      "cki,Ġ": 8792,
      "ogni": 8793,
      "bal": 8794,
      ".ĠJan": 8795,
      "BronisÅĤaw": 8796,
      "ostatniej": 8797,
      "nieĠzam": 8798,
      "czneĠiĠ": 8799,
      "anot": 8800,
      ".ĠRuchĠtramwajowyĠwznowionoĠoĠgodzinieĠ": 8801,
      ":ĠS": 8802,
      "akistan": 8803,
      "ĊĊKategoria:SARS-CoV-2ĠiĠCOVID-19": 8804,
      "Ġwynagrod": 8805,
      "Spe": 8806,
      "komunikacjiĠ": 8807,
      "ĠdolarÃ³w": 8808,
      "swojÄħ": 8809,
      "oÅĽci,Ġ": 8810,
      "Konkur": 8811,
      "Di": 8812,
      "89": 8813,
      "stein": 8814,
      "ceni": 8815,
      "wolu": 8816,
      "ĠwrzeÅĽniuĠ": 8817,
      "Ġmniej": 8818,
      ",ĠaĠnieĠ": 8819,
      "Pomo": 8820,
      "decyzjÄĻĠ": 8821,
      "Angli": 8822,
      "1.0": 8823,
      "siÃ³d": 8824,
      "Pat": 8825,
      "Trzask": 8826,
      "âĢĵĠK": 8827,
      "Amerykan": 8828,
      "ujÄĻĠ": 8829,
      "takaĠ": 8830,
      "Ciekawost": 8831,
      "__NO": 8832,
      "à®¿": 8833,
      "ÄħĠoĠ": 8834,
      "towarzyszy": 8835,
      "NekrologiĠ": 8836,
      "budowlan": 8837,
      "budy": 8838,
      "aĠod": 8839,
      "ĠY": 8840,
      "aÄĩĠzĠ": 8841,
      "utru": 8842,
      "zostaÅĤy": 8843,
      "blio": 8844,
      "afi": 8845,
      "czeÅĦĠ": 8846,
      "Ġwysp": 8847,
      "ull": 8848,
      "alu": 8849,
      "DĠ": 8850,
      "Pras": 8851,
      "zawodni": 8852,
      ".ĊĊOĠ": 8853,
      "ĠRob": 8854,
      "naprawdÄĻĠ": 8855,
      "ĠnrĠ": 8856,
      "Ċes:": 8857,
      "imnazj": 8858,
      "Map": 8859,
      "orazĠz": 8860,
      "uderze": 8861,
      "strzÄħ": 8862,
      ".ĠJakĠ": 8863,
      "ĠzarzÄħdz": 8864,
      "olat": 8865,
      "07": 8866,
      "Ġpy": 8867,
      "szczegÃ³lnieĠ": 8868,
      "ĠÅ»y": 8869,
      ",ĠktÃ³rymĠ": 8870,
      "ĠwÄĻg": 8871,
      "budowaĠ": 8872,
      "mail": 8873,
      "ĠwĠprze": 8874,
      ".ĊĊĠWynikiĠ": 8875,
      "owskiĠ(": 8876,
      "bramki": 8877,
      "ÅĤa,Ġ": 8878,
      "tÅĤumaczy": 8879,
      "Pla": 8880,
      "\"M": 8881,
      ".ĠĠĊĊ": 8882,
      "Francuz": 8883,
      "__NOTOC__": 8884,
      "BarackĠObam": 8885,
      "ystem": 8886,
      "ĠporzÄħd": 8887,
      "niaÄĩĠ": 8888,
      "liczbÄĻĠ": 8889,
      "sprz": 8890,
      "mĠwĠ": 8891,
      ".plĠ": 8892,
      "kracz": 8893,
      "ersje": 8894,
      "ÅĤoĠdoĠ": 8895,
      "Ġprzestrzeni": 8896,
      "naĠpow": 8897,
      "owsze": 8898,
      "zmar": 8899,
      "ĠznajdujeĠsiÄĻĠ": 8900,
      "han": 8901,
      "ÅĦska": 8902,
      "Czerw": 8903,
      "âĢĿ.ĊĊ": 8904,
      "nali": 8905,
      "ujeĠwĠ": 8906,
      "jedenĠz": 8907,
      "ĠznaleÅº": 8908,
      "95": 8909,
      "WarszawyĠ": 8910,
      "bramkÄĻ": 8911,
      "Chorw": 8912,
      "?Ġ": 8913,
      ",ĠwiÄĻcĠ": 8914,
      "PolskichĠRodzin": 8915,
      "%ĊĠ": 8916,
      "Ġpochod": 8917,
      "ministrator": 8918,
      "ĠponiÅ¼": 8919,
      "nologi": 8920,
      "owegoĠwĠ": 8921,
      "chow": 8922,
      "moÅ¼liweĠ": 8923,
      "sprzedaÅ¼yĠ": 8924,
      "onychĠwĠ": 8925,
      "doszÅĤoĠwĠ": 8926,
      "cesĠ": 8927,
      "ofiarĠ": 8928,
      "2002": 8929,
      "temperatur": 8930,
      "pierw": 8931,
      "Ġwchodz": 8932,
      "ĠzostaliĠ": 8933,
      "Kami": 8934,
      "Demokra": 8935,
      "EC": 8936,
      "czÅĤowieka": 8937,
      "ernan": 8938,
      "Bartosz": 8939,
      "Filip": 8940,
      "Liquig": 8941,
      "oszu": 8942,
      "International": 8943,
      "nowaĠ": 8944,
      "ĠpowyÅ¼": 8945,
      "kuje": 8946,
      "skand": 8947,
      "72": 8948,
      "nictwo": 8949,
      "nieĠmoÅ¼eĠ": 8950,
      "musie": 8951,
      "Ã³w,ĠktÃ³reĠ": 8952,
      "siÄĻĠoĠ": 8953,
      "ĠwĠprzypadkuĠ": 8954,
      "35Ġ": 8955,
      "Rat": 8956,
      "âĢ¦": 8957,
      "Ġzauf": 8958,
      "nieĠprzezĠ": 8959,
      "mÃ³wiÅĤ": 8960,
      "ĠKomor": 8961,
      "odpowiedÅº": 8962,
      "Ġwyklu": 8963,
      "umiejÄĻt": 8964,
      ".ĠTo": 8965,
      "2024ĊKategoria:": 8966,
      "Chi": 8967,
      "ĠKwaÅĽniew": 8968,
      ".ĊĊĠÅ¹rÃ³dÅĤaĠĊĠĊĠĊĊKategoria:WypadkiĠdrogoweĊKategoria:KrakÃ³wĊKategoria:MPKĠKrakÃ³wĊKategoria:UlicaĠ": 8969,
      "Ġwyszuki": 8970,
      "oszewicz": 8971,
      ".ĊĊÅ¹rÃ³dÅĤa": 8972,
      "fawory": 8973,
      "Ġkandydat": 8974,
      "cyjnym": 8975,
      "Katowicach": 8976,
      "groziĠ": 8977,
      "jednejĠzĠ": 8978,
      "emĠzĠ": 8979,
      "nagran": 8980,
      "moderni": 8981,
      "Ã³wczes": 8982,
      "sÄħduĠ": 8983,
      "napast": 8984,
      "eryment": 8985,
      "aĠpierw": 8986,
      "godziny": 8987,
      "Ġpierwszym": 8988,
      "sej": 8989,
      "versi": 8990,
      "ĠFM": 8991,
      "Orkiest": 8992,
      "ĠJarosÅĤaw": 8993,
      "ÅļwiatĊKategoria:StanyĠZjednoczone": 8994,
      "iajÄħĠ": 8995,
      "ÅģodziĠ": 8996,
      "Kad": 8997,
      "left|thumb|": 8998,
      "urodz": 8999,
      "pe": 9000,
      "anyĠzĠ": 9001,
      "Ġprezydenta": 9002,
      "ÅĤyĠdoĠ": 9003,
      "mogÅĤaĠ": 9004,
      "opusz": 9005,
      "ĠpublicznejĠ": 9006,
      "jednymĠ": 9007,
      "ĠzmianyĠ": 9008,
      "dwor": 9009,
      "maĠz": 9010,
      "urodzi": 9011,
      "che": 9012,
      "yĠorazĠ": 9013,
      "âĢĿĠiĠ": 9014,
      "oficer": 9015,
      "ÅĤĠsiÄĻĠnaĠ": 9016,
      "Ġsekund": 9017,
      "Francu": 9018,
      "maÅĤopolsk": 9019,
      "StraÅ¼yĠ": 9020,
      "fabry": 9021,
      "zeniu": 9022,
      "ÄħĠsiÄĻ": 9023,
      "SÅĤuÅ¼": 9024,
      "nagrÃ³d": 9025,
      "Towarzy": 9026,
      "Lewand": 9027,
      "ku,Ġ": 9028,
      "zeszÅĤymĠ": 9029,
      "Tym": 9030,
      "SpotkanieĠ": 9031,
      "YBOR": 9032,
      "WikipediaĠ": 9033,
      "elacjaĠ": 9034,
      "Oset": 9035,
      "Oficjal": 9036,
      "uchwal": 9037,
      "Se": 9038,
      "Ġ(WD)ĊĠ": 9039,
      "apar": 9040,
      "coĠdoĠ": 9041,
      "ankaĠ": 9042,
      "Powiat": 9043,
      "Ġzakaz": 9044,
      "Ġpodejrze": 9045,
      "obaw": 9046,
      "arzÄħdĠ": 9047,
      "iÄĻÄĩĠ": 9048,
      "Ġkwietnia": 9049,
      "300Ġ": 9050,
      "-letniaĠ": 9051,
      "die": 9052,
      "gabinet": 9053,
      "ĠpolitykÃ³wĠ": 9054,
      "ak,Ġ": 9055,
      ".ĠMo": 9056,
      "osiĠ": 9057,
      "Mazowie": 9058,
      "11.": 9059,
      "ĊKategoria:PolskaĊKategoria:ArchiwalneĊ": 9060,
      "Ġwywal": 9061,
      "ĉĉ": 9062,
      "uĠ-Ġ": 9063,
      "2007ĠrokuĠ": 9064,
      "drĠhab": 9065,
      "krajeĠ": 9066,
      "kolarze": 9067,
      "Ċ250px|": 9068,
      ".ĊĊĠÅ¹rÃ³dÅĤaĠĊĠĊĊKategoria:AzjaĊKategoria:": 9069,
      "skarg": 9070,
      "dotyczÄħcychĠ": 9071,
      "off": 9072,
      "scypli": 9073,
      "uczelni": 9074,
      "AI": 9075,
      "Ġpowinni": 9076,
      "ben": 9077,
      "ojewÃ³dztwoĠ": 9078,
      "zaangaÅ¼": 9079,
      "okÅĤad": 9080,
      "vel": 9081,
      "ĊKategoria:Tele": 9082,
      "ĠwyraÅº": 9083,
      "ematy": 9084,
      "Gol": 9085,
      "-15": 9086,
      ",ĠWD):ĠpolskiĠ": 9087,
      "GrandĠPrix": 9088,
      "ĠWYBOR": 9089,
      "\"Ġ-ĠpowiedziaÅĤ": 9090,
      "ãĤ": 9091,
      ".09.": 9092,
      "Ġproducent": 9093,
      "zacjÄĻĠ": 9094,
      "rabi": 9095,
      "Miejsce": 9096,
      "kraju,Ġ": 9097,
      ".ĠĊĊĠÅ¹rÃ³dÅĤaĠĊĠĊĠĊĊKategoria:": 9098,
      "ierzÄĻ": 9099,
      "manifest": 9100,
      "azem": 9101,
      "ĠbyÅĤĠ": 9102,
      "al-": 9103,
      "landz": 9104,
      "ĠposiedzeniaĠ": 9105,
      "General": 9106,
      "nikt": 9107,
      "chorob": 9108,
      "ĠmiÄĻdzynarod": 9109,
      "zespoÅĤu": 9110,
      "ĊKategoria:GospodarkaĊKategoria:": 9111,
      "zmu": 9112,
      "ojewod": 9113,
      "mÃ³c": 9114,
      "Ġwtorek": 9115,
      "Opera": 9116,
      "\",Ġ\"": 9117,
      "ÅĤamĠ": 9118,
      "sekun": 9119,
      "dostÄĻpuĠdoĠ": 9120,
      "ktura": 9121,
      "obowiÄħzy": 9122,
      "Bal": 9123,
      "inicjatywyĠ": 9124,
      "dzielnicyĠ": 9125,
      "androĠ": 9126,
      "CzÄĻstochowa": 9127,
      "ancel": 9128,
      "Ġwielokrot": 9129,
      "schodz": 9130,
      "medial": 9131,
      "onego": 9132,
      "nimi": 9133,
      "sztab": 9134,
      "zapis": 9135,
      ".,Ġ": 9136,
[...]
