{
  "version": "1.0",
  "truncation": null,
  "padding": null,
  "added_tokens": [
    {
      "id": 32568,
      "content": "<|endoftext|>",
      "single_word": false,
      "lstrip": false,
      "rstrip": false,
      "normalized": false,
      "special": true
    },
    {
      "id": 32569,
      "content": "<|begin_of_text|>",
      "single_word": false,
      "lstrip": false,
      "rstrip": false,
      "normalized": false,
      "special": true
    },
    {
      "id": 32570,
      "content": "<|im_start|>",
      "single_word": false,
      "lstrip": false,
      "rstrip": false,
      "normalized": false,
      "special": true
    },
    {
      "id": 32571,
      "content": "<|im_end|>",
      "single_word": false,
      "lstrip": false,
      "rstrip": false,
      "normalized": false,
      "special": true
    },
    {
      "id": 32572,
      "content": "<|system|>",
      "single_word": false,
      "lstrip": false,
      "rstrip": false,
      "normalized": false,
      "special": true
    },
    {
      "id": 32573,
      "content": "<|user|>",
      "single_word": false,
      "lstrip": false,
      "rstrip": false,
      "normalized": false,
      "special": true
    },
    {
      "id": 32574,
      "content": "<|assistant|>",
      "single_word": false,
      "lstrip": false,
      "rstrip": false,
      "normalized": false,
      "special": true
    },
    {
      "id": 32575,
      "content": "<|fim_prefix|>",
      "single_word": false,
      "lstrip": false,
      "rstrip": false,
      "normalized": false,
      "special": true
    },
    {
      "id": 32576,
      "content": "<|fim_middle|>",
      "single_word": false,
      "lstrip": false,
      "rstrip": false,
      "normalized": false,
      "special": true
    },
    {
      "id": 32577,
      "content": "<|fim_suffix|>",
      "single_word": false,
      "lstrip": false,
      "rstrip": false,
      "normalized": false,
      "special": true
    },
    {
      "id": 32578,
      "content": "<|tool_call|>",
      "single_word": false,
      "lstrip": false,
      "rstrip": false,
      "normalized": false,
      "special": true
    },
    {
      "id": 32579,
      "content": "<|tool_result|>",
      "single_word": false,
      "lstrip": false,
      "rstrip": false,
      "normalized": false,
      "special": true
    },
    {
      "id": 32580,
      "content": "<|pad|>",
      "single_word": false,
      "lstrip": false,
      "rstrip": false,
      "normalized": false,
      "special": true
    },
    {
      "id": 32581,
      "content": "<|unk|>",
      "single_word": false,
      "lstrip": false,
      "rstrip": false,
      "normalized": false,
      "special": true
    },
    {
      "id": 32582,
      "content": "<|reserved_0|>",
      "single_word": false,
      "lstrip": false,
      "rstrip": false,
      "normalized": false,
      "special": true
    },
    {
      "id": 32583,
      "content": "<|reserved_1|>",
      "single_word": false,
      "lstrip": false,
      "rstrip": false,
      "normalized": false,
      "special": true
    },
    {
      "id": 32584,
      "content": "<|reserved_2|>",
      "single_word": false,
      "lstrip": false,
      "rstrip": false,
      "normalized": false,
      "special": true
    },
    {
      "id": 32585,
      "content": "<|reserved_3|>",
      "single_word": false,
      "lstrip": false,
      "rstrip": false,
      "normalized": false,
      "special": true
    },
    {
      "id": 32586,
      "content": "<|reserved_4|>",
      "single_word": false,
      "lstrip": false,
      "rstrip": false,
      "normalized": false,
      "special": true
    },
    {
      "id": 32587,
      "content": "<|reserved_5|>",
      "single_word": false,
      "lstrip": false,
      "rstrip": false,
      "normalized": false,
      "special": true
    },
    {
      "id": 32588,
      "content": "<|reserved_6|>",
      "single_word": false,
      "lstrip": false,
      "rstrip": false,
      "normalized": false,
      "special": true
    },
    {
      "id": 32589,
      "content": "<|reserved_7|>",
      "single_word": false,
      "lstrip": false,
      "rstrip": false,
      "normalized": false,
      "special": true
    },
    {
      "id": 32590,
      "content": "<|reserved_8|>",
      "single_word": false,
      "lstrip": false,
      "rstrip": false,
      "normalized": false,
      "special": true
    },
    {
      "id": 32591,
      "content": "<|reserved_9|>",
      "single_word": false,
      "lstrip": false,
      "rstrip": false,
      "normalized": false,
      "special": true
    },
    {
      "id": 32592,
      "content": "<|reserved_10|>",
      "single_word": false,
      "lstrip": false,
      "rstrip": false,
      "normalized": false,
      "special": true
    },
    {
      "id": 32593,
      "content": "<|reserved_11|>",
      "single_word": false,
      "lstrip": false,
      "rstrip": false,
      "normalized": false,
      "special": true
    },
    {
      "id": 32594,
      "content": "<|reserved_12|>",
      "single_word": false,
      "lstrip": false,
      "rstrip": false,
      "normalized": false,
      "special": true
    },
    {
      "id": 32595,
      "content": "<|reserved_13|>",
      "single_word": false,
      "lstrip": false,
      "rstrip": false,
      "normalized": false,
      "special": true
    },
    {
      "id": 32596,
      "content": "<|reserved_14|>",
      "single_word": false,
      "lstrip": false,
      "rstrip": false,
      "normalized": false,
      "special": true
    },
    {
      "id": 32597,
      "content": "<|reserved_15|>",
      "single_word": false,
      "lstrip": false,
      "rstrip": false,
      "normalized": false,
      "special": true
    },
    {
      "id": 32598,
      "content": "<|reserved_16|>",
      "single_word": false,
      "lstrip": false,
      "rstrip": false,
      "normalized": false,
      "special": true
    },
    {
      "id": 32599,
      "content": "<|reserved_17|>",
      "single_word": false,
      "lstrip": false,
      "rstrip": false,
      "normalized": false,
      "special": true
    },
    {
      "id": 32600,
      "content": "<|reserved_18|>",
      "single_word": false,
      "lstrip": false,
      "rstrip": false,
      "normalized": false,
      "special": true
    },
    {
      "id": 32601,
      "content": "<|reserved_19|>",
      "single_word": false,
      "lstrip": false,
      "rstrip": false,
      "normalized": false,
      "special": true
    },
    {
      "id": 32602,
      "content": "<|reserved_20|>",
      "single_word": false,
      "lstrip": false,
      "rstrip": false,
      "normalized": false,
      "special": true
    },
    {
      "id": 32603,
      "content": "<|reserved_21|>",
      "single_word": false,
      "lstrip": false,
      "rstrip": false,
      "normalized": false,
      "special": true
    },
    {
      "id": 32604,
      "content": "<|reserved_22|>",
      "single_word": false,
      "lstrip": false,
      "rstrip": false,
      "normalized": false,
      "special": true
    },
    {
      "id": 32605,
      "content": "<|reserved_23|>",
      "single_word": false,
      "lstrip": false,
      "rstrip": false,
      "normalized": false,
      "special": true
    },
    {
      "id": 32606,
      "content": "<|reserved_24|>",
      "single_word": false,
      "lstrip": false,
      "rstrip": false,
      "normalized": false,
      "special": true
    },
    {
      "id": 32607,
      "content": "<|reserved_25|>",
      "single_word": false,
      "lstrip": false,
      "rstrip": false,
      "normalized": false,
      "special": true
    },
    {
      "id": 32608,
      "content": "<|reserved_26|>",
      "single_word": false,
      "lstrip": false,
      "rstrip": false,
      "normalized": false,
      "special": true
    },
    {
      "id": 32609,
      "content": "<|reserved_27|>",
      "single_word": false,
      "lstrip": false,
      "rstrip": false,
      "normalized": false,
      "special": true
    },
    {
      "id": 32610,
      "content": "<|reserved_28|>",
      "single_word": false,
      "lstrip": false,
      "rstrip": false,
      "normalized": false,
      "special": true
    },
    {
      "id": 32611,
      "content": "<|reserved_29|>",
      "single_word": false,
      "lstrip": false,
      "rstrip": false,
      "normalized": false,
      "special": true
    },
    {
      "id": 32612,
      "content": "<|reserved_30|>",
      "single_word": false,
      "lstrip": false,
      "rstrip": false,
      "normalized": false,
      "special": true
    },
    {
      "id": 32613,
      "content": "<|reserved_31|>",
      "single_word": false,
      "lstrip": false,
      "rstrip": false,
      "normalized": false,
      "special": true
    },
    {
      "id": 32614,
      "content": "<|reserved_32|>",
      "single_word": false,
      "lstrip": false,
      "rstrip": false,
      "normalized": false,
      "special": true
    },
    {
      "id": 32615,
      "content": "<|reserved_33|>",
      "single_word": false,
      "lstrip": false,
      "rstrip": false,
      "normalized": false,
      "special": true
    },
    {
      "id": 32616,
      "content": "<|reserved_34|>",
      "single_word": false,
      "lstrip": false,
      "rstrip": false,
      "normalized": false,
      "special": true
    },
    {
      "id": 32617,
      "content": "<|reserved_35|>",
      "single_word": false,
      "lstrip": false,
      "rstrip": false,
      "normalized": false,
      "special": true
    },
    {
      "id": 32618,
      "content": "<|reserved_36|>",
      "single_word": false,
      "lstrip": false,
      "rstrip": false,
      "normalized": false,
      "special": true
    },
    {
      "id": 32619,
      "content": "<|reserved_37|>",
      "single_word": false,
      "lstrip": false,
      "rstrip": false,
      "normalized": false,
      "special": true
    },
    {
      "id": 32620,
      "content": "<|reserved_38|>",
      "single_word": false,
      "lstrip": false,
      "rstrip": false,
      "normalized": false,
      "special": true
    },
    {
      "id": 32621,
      "content": "<|reserved_39|>",
      "single_word": false,
      "lstrip": false,
      "rstrip": false,
      "normalized": false,
      "special": true
    },
    {
      "id": 32622,
      "content": "<|reserved_40|>",
      "single_word": false,
      "lstrip": false,
      "rstrip": false,
      "normalized": false,
      "special": true
    },
    {
      "id": 32623,
      "content": "<|reserved_41|>",
      "single_word": false,
      "lstrip": false,
      "rstrip": false,
      "normalized": false,
      "special": true
    },
    {
      "id": 32624,
      "content": "<|reserved_42|>",
      "single_word": false,
      "lstrip": false,
      "rstrip": false,
      "normalized": false,
      "special": true
    },
    {
      "id": 32625,
      "content": "<|reserved_43|>",
      "single_word": false,
      "lstrip": false,
      "rstrip": false,
      "normalized": false,
      "special": true
    },
    {
      "id": 32626,
      "content": "<|reserved_44|>",
      "single_word": false,
      "lstrip": false,
      "rstrip": false,
      "normalized": false,
      "special": true
    },
    {
      "id": 32627,
      "content": "<|reserved_45|>",
      "single_word": false,
      "lstrip": false,
      "rstrip": false,
      "normalized": false,
      "special": true
    },
    {
      "id": 32628,
      "content": "<|reserved_46|>",
      "single_word": false,
      "lstrip": false,
      "rstrip": false,
      "normalized": false,
      "special": true
    },
    {
      "id": 32629,
      "content": "<|reserved_47|>",
      "single_word": false,
      "lstrip": false,
      "rstrip": false,
      "normalized": false,
      "special": true
    },
    {
      "id": 32630,
      "content": "<|reserved_48|>",
      "single_word": false,
      "lstrip": false,
      "rstrip": false,
      "normalized": false,
      "special": true
    },
    {
      "id": 32631,
      "content": "<|reserved_49|>",
      "single_word": false,
      "lstrip": false,
      "rstrip": false,
      "normalized": false,
      "special": true
    },
    {
      "id": 32632,
      "content": "<|reserved_50|>",
      "single_word": false,
      "lstrip": false,
      "rstrip": false,
      "normalized": false,
      "special": true
    },
    {
      "id": 32633,
      "content": "<|reserved_51|>",
      "single_word": false,
      "lstrip": false,
      "rstrip": false,
      "normalized": false,
      "special": true
    },
    {
      "id": 32634,
      "content": "<|reserved_52|>",
      "single_word": false,
      "lstrip": false,
      "rstrip": false,
      "normalized": false,
      "special": true
    },
    {
      "id": 32635,
      "content": "<|reserved_53|>",
      "single_word": false,
      "lstrip": false,
      "rstrip": false,
      "normalized": false,
      "special": true
    },
    {
      "id": 32636,
      "content": "<|reserved_54|>",
      "single_word": false,
      "lstrip": false,
      "rstrip": false,
      "normalized": false,
      "special": true
    },
    {
      "id": 32637,
      "content": "<|reserved_55|>",
      "single_word": false,
      "lstrip": false,
      "rstrip": false,
      "normalized": false,
      "special": true
    },
    {
      "id": 32638,
      "content": "<|reserved_56|>",
      "single_word": false,
      "lstrip": false,
      "rstrip": false,
      "normalized": false,
      "special": true
    },
    {
      "id": 32639,
      "content": "<|reserved_57|>",
      "single_word": false,
      "lstrip": false,
      "rstrip": false,
      "normalized": false,
      "special": true
    },
    {
      "id": 32640,
      "content": "<|reserved_58|>",
      "single_word": false,
      "lstrip": false,
      "rstrip": false,
      "normalized": false,
      "special": true
    },
    {
      "id": 32641,
      "content": "<|reserved_59|>",
      "single_word": false,
      "lstrip": false,
      "rstrip": false,
      "normalized": false,
      "special": true
    },
    {
      "id": 32642,
      "content": "<|reserved_60|>",
      "single_word": false,
      "lstrip": false,
      "rstrip": false,
      "normalized": false,
      "special": true
    },
    {
      "id": 32643,
      "content": "<|reserved_61|>",
      "single_word": false,
      "lstrip": false,
      "rstrip": false,
      "normalized": false,
      "special": true
    },
    {
      "id": 32644,
      "content": "<|reserved_62|>",
      "single_word": false,
      "lstrip": false,
      "rstrip": false,
      "normalized": false,
      "special": true
    },
    {
      "id": 32645,
      "content": "<|reserved_63|>",
      "single_word": false,
      "lstrip": false,
      "rstrip": false,
      "normalized": false,
      "special": true
    },
    {
      "id": 32646,
      "content": "<|reserved_64|>",
      "single_word": false,
      "lstrip": false,
      "rstrip": false,
      "normalized": false,
      "special": true
    },
    {
      "id": 32647,
      "content": "<|reserved_65|>",
      "single_word": false,
      "lstrip": false,
      "rstrip": false,
      "normalized": false,
      "special": true
    },
    {
      "id": 32648,
      "content": "<|reserved_66|>",
      "single_word": false,
      "lstrip": false,
      "rstrip": false,
      "normalized": false,
      "special": true
    },
    {
      "id": 32649,
      "content": "<|reserved_67|>",
      "single_word": false,
      "lstrip": false,
      "rstrip": false,
      "normalized": false,
      "special": true
    },
    {
      "id": 32650,
      "content": "<|reserved_68|>",
      "single_word": false,
      "lstrip": false,
      "rstrip": false,
      "normalized": false,
      "special": true
    },
    {
      "id": 32651,
      "content": "<|reserved_69|>",
      "single_word": false,
      "lstrip": false,
      "rstrip": false,
      "normalized": false,
      "special": true
    },
    {
      "id": 32652,
      "content": "<|reserved_70|>",
      "single_word": false,
      "lstrip": false,
      "rstrip": false,
      "normalized": false,
      "special": true
    },
    {
      "id": 32653,
      "content": "<|reserved_71|>",
      "single_word": false,
      "lstrip": false,
      "rstrip": false,
      "normalized": false,
      "special": true
    },
    {
      "id": 32654,
      "content": "<|reserved_72|>",
      "single_word": false,
      "lstrip": false,
      "rstrip": false,
      "normalized": false,
      "special": true
    },
    {
      "id": 32655,
      "content": "<|reserved_73|>",
      "single_word": false,
      "lstrip": false,
      "rstrip": false,
      "normalized": false,
      "special": true
    },
    {
      "id": 32656,
      "content": "<|reserved_74|>",
      "single_word": false,
      "lstrip": false,
      "rstrip": false,
      "normalized": false,
      "special": true
    },
    {
      "id": 32657,
      "content": "<|reserved_75|>",
      "single_word": false,
      "lstrip": false,
      "rstrip": false,
      "normalized": false,
      "special": true
    },
    {
      "id": 32658,
      "content": "<|reserved_76|>",
      "single_word": false,
      "lstrip": false,
      "rstrip": false,
      "normalized": false,
      "special": true
    },
    {
      "id": 32659,
      "content": "<|reserved_77|>",
      "single_word": false,
      "lstrip": false,
      "rstrip": false,
      "normalized": false,
      "special": true
    },
    {
      "id": 32660,
      "content": "<|reserved_78|>",
      "single_word": false,
      "lstrip": false,
      "rstrip": false,
      "normalized": false,
      "special": true
    },
    {
      "id": 32661,
      "content": "<|reserved_79|>",
      "single_word": false,
      "lstrip": false,
      "rstrip": false,
      "normalized": false,
      "special": true
    },
    {
      "id": 32662,
      "content": "<|reserved_80|>",
      "single_word": false,
      "lstrip": false,
      "rstrip": false,
      "normalized": false,
      "special": true
    },
    {
      "id": 32663,
      "content": "<|reserved_81|>",
      "single_word": false,
      "lstrip": false,
      "rstrip": false,
      "normalized": false,
      "special": true
    },
    {
      "id": 32664,
      "content": "<|reserved_82|>",
      "single_word": false,
      "lstrip": false,
      "rstrip": false,
      "normalized": false,
      "special": true
    },
    {
      "id": 32665,
      "content": "<|reserved_83|>",
      "single_word": false,
      "lstrip": false,
      "rstrip": false,
      "normalized": false,
      "special": true
    },
    {
      "id": 32666,
      "content": "<|reserved_84|>",
      "single_word": false,
      "lstrip": false,
      "rstrip": false,
      "normalized": false,
      "special": true
    },
    {
      "id": 32667,
      "content": "<|reserved_85|>",
      "single_word": false,
      "lstrip": false,
      "rstrip": false,
      "normalized": false,
      "special": true
    },
    {
      "id": 32668,
      "content": "<|reserved_86|>",
      "single_word": false,
      "lstrip": false,
      "rstrip": false,
      "normalized": false,
      "special": true
    },
    {
      "id": 32669,
      "content": "<|reserved_87|>",
      "single_word": false,
      "lstrip": false,
      "rstrip": false,
      "normalized": false,
      "special": true
    },
    {
      "id": 32670,
      "content": "<|reserved_88|>",
      "single_word": false,
      "lstrip": false,
      "rstrip": false,
      "normalized": false,
      "special": true
    },
    {
      "id": 32671,
      "content": "<|reserved_89|>",
      "single_word": false,
      "lstrip": false,
      "rstrip": false,
      "normalized": false,
      "special": true
    },
    {
      "id": 32672,
      "content": "<|reserved_90|>",
      "single_word": false,
      "lstrip": false,
      "rstrip": false,
      "normalized": false,
      "special": true
    },
    {
      "id": 32673,
      "content": "<|reserved_91|>",
      "single_word": false,
      "lstrip": false,
      "rstrip": false,
      "normalized": false,
      "special": true
    },
    {
      "id": 32674,
      "content": "<|reserved_92|>",
      "single_word": false,
      "lstrip": false,
      "rstrip": false,
      "normalized": false,
      "special": true
    },
    {
      "id": 32675,
      "content": "<|reserved_93|>",
      "single_word": false,
      "lstrip": false,
      "rstrip": false,
      "normalized": false,
      "special": true
    },
    {
      "id": 32676,
      "content": "<|reserved_94|>",
      "single_word": false,
      "lstrip": false,
      "rstrip": false,
      "normalized": false,
      "special": true
    },
    {
      "id": 32677,
      "content": "<|reserved_95|>",
      "single_word": false,
      "lstrip": false,
      "rstrip": false,
      "normalized": false,
      "special": true
    },
    {
      "id": 32678,
      "content": "<|reserved_96|>",
      "single_word": false,
      "lstrip": false,
      "rstrip": false,
      "normalized": false,
      "special": true
    },
    {
      "id": 32679,
      "content": "<|reserved_97|>",
      "single_word": false,
      "lstrip": false,
      "rstrip": false,
      "normalized": false,
      "special": true
    },
    {
      "id": 32680,
      "content": "<|reserved_98|>",
      "single_word": false,
      "lstrip": false,
      "rstrip": false,
      "normalized": false,
      "special": true
    },
    {
      "id": 32681,
      "content": "<|reserved_99|>",
      "single_word": false,
      "lstrip": false,
      "rstrip": false,
      "normalized": false,
      "special": true
    },
    {
      "id": 32682,
      "content": "<|reserved_100|>",
      "single_word": false,
      "lstrip": false,
      "rstrip": false,
      "normalized": false,
      "special": true
    },
    {
      "id": 32683,
      "content": "<|reserved_101|>",
      "single_word": false,
      "lstrip": false,
      "rstrip": false,
      "normalized": false,
      "special": true
    },
    {
      "id": 32684,
      "content": "<|reserved_102|>",
      "single_word": false,
      "lstrip": false,
      "rstrip": false,
      "normalized": false,
      "special": true
    },
    {
      "id": 32685,
      "content": "<|reserved_103|>",
      "single_word": false,
      "lstrip": false,
      "rstrip": false,
      "normalized": false,
      "special": true
    },
    {
      "id": 32686,
      "content": "<|reserved_104|>",
      "single_word": false,
      "lstrip": false,
      "rstrip": false,
      "normalized": false,
      "special": true
    },
    {
      "id": 32687,
      "content": "<|reserved_105|>",
      "single_word": false,
      "lstrip": false,
      "rstrip": false,
      "normalized": false,
      "special": true
    },
    {
      "id": 32688,
      "content": "<|reserved_106|>",
      "single_word": false,
      "lstrip": false,
      "rstrip": false,
      "normalized": false,
      "special": true
    },
    {
      "id": 32689,
      "content": "<|reserved_107|>",
      "single_word": false,
      "lstrip": false,
      "rstrip": false,
      "normalized": false,
      "special": true
    },
    {
      "id": 32690,
      "content": "<|reserved_108|>",
      "single_word": false,
      "lstrip": false,
      "rstrip": false,
      "normalized": false,
      "special": true
    },
    {
      "id": 32691,
      "content": "<|reserved_109|>",
      "single_word": false,
      "lstrip": false,
      "rstrip": false,
      "normalized": false,
      "special": true
    },
    {
      "id": 32692,
      "content": "<|reserved_110|>",
      "single_word": false,
      "lstrip": false,
      "rstrip": false,
      "normalized": false,
      "special": true
    },
    {
      "id": 32693,
      "content": "<|reserved_111|>",
      "single_word": false,
      "lstrip": false,
      "rstrip": false,
      "normalized": false,
      "special": true
    },
    {
      "id": 32694,
      "content": "<|reserved_112|>",
      "single_word": false,
      "lstrip": false,
      "rstrip": false,
      "normalized": false,
      "special": true
    },
    {
      "id": 32695,
      "content": "<|reserved_113|>",
      "single_word": false,
      "lstrip": false,
      "rstrip": false,
      "normalized": false,
      "special": true
    },
    {
      "id": 32696,
      "content": "<|reserved_114|>",
      "single_word": false,
      "lstrip": false,
      "rstrip": false,
      "normalized": false,
      "special": true
    },
    {
      "id": 32697,
      "content": "<|reserved_115|>",
      "single_word": false,
      "lstrip": false,
      "rstrip": false,
      "normalized": false,
      "special": true
    },
    {
      "id": 32698,
      "content": "<|reserved_116|>",
      "single_word": false,
      "lstrip": false,
      "rstrip": false,
      "normalized": false,
      "special": true
    },
    {
      "id": 32699,
      "content": "<|reserved_117|>",
      "single_word": false,
      "lstrip": false,
      "rstrip": false,
      "normalized": false,
      "special": true
    },
    {
      "id": 32700,
      "content": "<|reserved_118|>",
      "single_word": false,
      "lstrip": false,
      "rstrip": false,
      "normalized": false,
      "special": true
    },
    {
      "id": 32701,
      "content": "<|reserved_119|>",
      "single_word": false,
      "lstrip": false,
      "rstrip": false,
      "normalized": false,
      "special": true
    },
    {
      "id": 32702,
      "content": "<|reserved_120|>",
      "single_word": false,
      "lstrip": false,
      "rstrip": false,
      "normalized": false,
      "special": true
    },
    {
      "id": 32703,
      "content": "<|reserved_121|>",
      "single_word": false,
      "lstrip": false,
      "rstrip": false,
      "normalized": false,
      "special": true
    },
    {
      "id": 32704,
      "content": "<|reserved_122|>",
      "single_word": false,
      "lstrip": false,
      "rstrip": false,
      "normalized": false,
      "special": true
    },
    {
      "id": 32705,
      "content": "<|reserved_123|>",
      "single_word": false,
      "lstrip": false,
      "rstrip": false,
      "normalized": false,
      "special": true
    },
    {
      "id": 32706,
      "content": "<|reserved_124|>",
      "single_word": false,
      "lstrip": false,
      "rstrip": false,
      "normalized": false,
      "special": true
    },
    {
      "id": 32707,
      "content": "<|reserved_125|>",
      "single_word": false,
      "lstrip": false,
      "rstrip": false,
      "normalized": false,
      "special": true
    },
    {
      "id": 32708,
      "content": "<|reserved_126|>",
      "single_word": false,
      "lstrip": false,
      "rstrip": false,
      "normalized": false,
      "special": true
    },
    {
      "id": 32709,
      "content": "<|reserved_127|>",
      "single_word": false,
      "lstrip": false,
      "rstrip": false,
      "normalized": false,
      "special": true
    },
    {
      "id": 32710,
      "content": "<|reserved_128|>",
      "single_word": false,
      "lstrip": false,
      "rstrip": false,
      "normalized": false,
      "special": true
    },
    {
      "id": 32711,
      "content": "<|reserved_129|>",
      "single_word": false,
      "lstrip": false,
      "rstrip": false,
      "normalized": false,
      "special": true
    },
    {
      "id": 32712,
      "content": "<|reserved_130|>",
      "single_word": false,
      "lstrip": false,
      "rstrip": false,
      "normalized": false,
      "special": true
    },
    {
      "id": 32713,
      "content": "<|reserved_131|>",
      "single_word": false,
      "lstrip": false,
      "rstrip": false,
      "normalized": false,
      "special": true
    },
    {
      "id": 32714,
      "content": "<|reserved_132|>",
      "single_word": false,
      "lstrip": false,
      "rstrip": false,
      "normalized": false,
      "special": true
    },
    {
      "id": 32715,
      "content": "<|reserved_133|>",
      "single_word": false,
      "lstrip": false,
      "rstrip": false,
      "normalized": false,
      "special": true
    },
    {
      "id": 32716,
      "content": "<|reserved_134|>",
      "single_word": false,
      "lstrip": false,
      "rstrip": false,
      "normalized": false,
      "special": true
    },
    {
      "id": 32717,
      "content": "<|reserved_135|>",
      "single_word": false,
      "lstrip": false,
      "rstrip": false,
      "normalized": false,
      "special": true
    },
    {
      "id": 32718,
      "content": "<|reserved_136|>",
      "single_word": false,
      "lstrip": false,
      "rstrip": false,
      "normalized": false,
      "special": true
    },
    {
      "id": 32719,
      "content": "<|reserved_137|>",
      "single_word": false,
      "lstrip": false,
      "rstrip": false,
      "normalized": false,
      "special": true
    },
    {
      "id": 32720,
      "content": "<|reserved_138|>",
      "single_word": false,
      "lstrip": false,
      "rstrip": false,
      "normalized": false,
      "special": true
    },
    {
      "id": 32721,
      "content": "<|reserved_139|>",
      "single_word": false,
      "lstrip": false,
      "rstrip": false,
      "normalized": false,
      "special": true
    },
    {
      "id": 32722,
      "content": "<|reserved_140|>",
      "single_word": false,
      "lstrip": false,
      "rstrip": false,
      "normalized": false,
      "special": true
    },
    {
      "id": 32723,
      "content": "<|reserved_141|>",
      "single_word": false,
      "lstrip": false,
      "rstrip": false,
      "normalized": false,
      "special": true
    },
    {
      "id": 32724,
      "content": "<|reserved_142|>",
      "single_word": false,
      "lstrip": false,
      "rstrip": false,
      "normalized": false,
      "special": true
    },
    {
      "id": 32725,
      "content": "<|reserved_143|>",
      "single_word": false,
      "lstrip": false,
      "rstrip": false,
      "normalized": false,
      "special": true
    },
    {
      "id": 32726,
      "content": "<|reserved_144|>",
      "single_word": false,
      "lstrip": false,
      "rstrip": false,
      "normalized": false,
      "special": true
    },
    {
      "id": 32727,
      "content": "<|reserved_145|>",
      "single_word": false,
      "lstrip": false,
      "rstrip": false,
      "normalized": false,
      "special": true
    },
    {
      "id": 32728,
      "content": "<|reserved_146|>",
      "single_word": false,
      "lstrip": false,
      "rstrip": false,
      "normalized": false,
      "special": true
    },
    {
      "id": 32729,
      "content": "<|reserved_147|>",
      "single_word": false,
      "lstrip": false,
      "rstrip": false,
      "normalized": false,
      "special": true
    },
    {
      "id": 32730,
      "content": "<|reserved_148|>",
      "single_word": false,
      "lstrip": false,
      "rstrip": false,
      "normalized": false,
      "special": true
    },
    {
      "id": 32731,
      "content": "<|reserved_149|>",
      "single_word": false,
      "lstrip": false,
      "rstrip": false,
      "normalized": false,
      "special": true
    },
    {
      "id": 32732,
      "content": "<|reserved_150|>",
      "single_word": false,
      "lstrip": false,
      "rstrip": false,
      "normalized": false,
      "special": true
    },
    {
      "id": 32733,
      "content": "<|reserved_151|>",
      "single_word": false,
      "lstrip": false,
      "rstrip": false,
      "normalized": false,
      "special": true
    },
    {
      "id": 32734,
      "content": "<|reserved_152|>",
      "single_word": false,
      "lstrip": false,
      "rstrip": false,
      "normalized": false,
      "special": true
    },
    {
      "id": 32735,
      "content": "<|reserved_153|>",
      "single_word": false,
      "lstrip": false,
      "rstrip": false,
      "normalized": false,
      "special": true
    },
    {
      "id": 32736,
      "content": "<|reserved_154|>",
      "single_word": false,
      "lstrip": false,
      "rstrip": false,
      "normalized": false,
      "special": true
    },
    {
      "id": 32737,
      "content": "<|reserved_155|>",
      "single_word": false,
      "lstrip": false,
      "rstrip": false,
      "normalized": false,
      "special": true
    },
    {
      "id": 32738,
      "content": "<|reserved_156|>",
      "single_word": false,
      "lstrip": false,
      "rstrip": false,
      "normalized": false,
      "special": true
    },
    {
      "id": 32739,
      "content": "<|reserved_157|>",
      "single_word": false,
      "lstrip": false,
      "rstrip": false,
      "normalized": false,
      "special": true
    },
    {
      "id": 32740,
      "content": "<|reserved_158|>",
      "single_word": false,
      "lstrip": false,
      "rstrip": false,
      "normalized": false,
      "special": true
    },
    {
      "id": 32741,
      "content": "<|reserved_159|>",
      "single_word": false,
      "lstrip": false,
      "rstrip": false,
      "normalized": false,
      "special": true
    },
    {
      "id": 32742,
      "content": "<|reserved_160|>",
      "single_word": false,
      "lstrip": false,
      "rstrip": false,
      "normalized": false,
      "special": true
    },
    {
      "id": 32743,
      "content": "<|reserved_161|>",
      "single_word": false,
      "lstrip": false,
      "rstrip": false,
      "normalized": false,
      "special": true
    },
    {
      "id": 32744,
      "content": "<|reserved_162|>",
      "single_word": false,
      "lstrip": false,
      "rstrip": false,
      "normalized": false,
      "special": true
    },
    {
      "id": 32745,
      "content": "<|reserved_163|>",
      "single_word": false,
      "lstrip": false,
      "rstrip": false,
      "normalized": false,
      "special": true
    },
    {
      "id": 32746,
      "content": "<|reserved_164|>",
      "single_word": false,
      "lstrip": false,
      "rstrip": false,
      "normalized": false,
      "special": true
    },
    {
      "id": 32747,
      "content": "<|reserved_165|>",
      "single_word": false,
      "lstrip": false,
      "rstrip": false,
      "normalized": false,
      "special": true
    },
    {
      "id": 32748,
      "content": "<|reserved_166|>",
      "single_word": false,
      "lstrip": false,
      "rstrip": false,
      "normalized": false,
      "special": true
    },
    {
      "id": 32749,
      "content": "<|reserved_167|>",
      "single_word": false,
      "lstrip": false,
      "rstrip": false,
      "normalized": false,
      "special": true
    },
    {
      "id": 32750,
      "content": "<|reserved_168|>",
      "single_word": false,
      "lstrip": false,
      "rstrip": false,
      "normalized": false,
      "special": true
    },
    {
      "id": 32751,
      "content": "<|reserved_169|>",
      "single_word": false,
      "lstrip": false,
      "rstrip": false,
      "normalized": false,
      "special": true
    },
    {
      "id": 32752,
      "content": "<|reserved_170|>",
      "single_word": false,
      "lstrip": false,
      "rstrip": false,
      "normalized": false,
      "special": true
    },
    {
      "id": 32753,
      "content": "<|reserved_171|>",
      "single_word": false,
      "lstrip": false,
      "rstrip": false,
      "normalized": false,
      "special": true
    },
    {
      "id": 32754,
      "content": "<|reserved_172|>",
      "single_word": false,
      "lstrip": false,
      "rstrip": false,
      "normalized": false,
      "special": true
    },
    {
      "id": 32755,
      "content": "<|reserved_173|>",
      "single_word": false,
      "lstrip": false,
      "rstrip": false,
      "normalized": false,
      "special": true
    },
    {
      "id": 32756,
      "content": "<|reserved_174|>",
      "single_word": false,
      "lstrip": false,
      "rstrip": false,
      "normalized": false,
      "special": true
    },
    {
      "id": 32757,
      "content": "<|reserved_175|>",
      "single_word": false,
      "lstrip": false,
      "rstrip": false,
      "normalized": false,
      "special": true
    },
    {
      "id": 32758,
      "content": "<|reserved_176|>",
      "single_word": false,
      "lstrip": false,
      "rstrip": false,
      "normalized": false,
      "special": true
    },
    {
      "id": 32759,
      "content": "<|reserved_177|>",
      "single_word": false,
      "lstrip": false,
      "rstrip": false,
      "normalized": false,
      "special": true
    },
    {
      "id": 32760,
      "content": "<|reserved_178|>",
      "single_word": false,
      "lstrip": false,
      "rstrip": false,
      "normalized": false,
      "special": true
    },
    {
      "id": 32761,
      "content": "<|reserved_179|>",
      "single_word": false,
      "lstrip": false,
      "rstrip": false,
      "normalized": false,
      "special": true
    },
    {
      "id": 32762,
      "content": "<|reserved_180|>",
      "single_word": false,
      "lstrip": false,
      "rstrip": false,
      "normalized": false,
      "special": true
    },
    {
      "id": 32763,
      "content": "<|reserved_181|>",
      "single_word": false,
      "lstrip": false,
      "rstrip": false,
      "normalized": false,
      "special": true
    },
    {
      "id": 32764,
      "content": "<|reserved_182|>",
      "single_word": false,
      "lstrip": false,
      "rstrip": false,
      "normalized": false,
      "special": true
    },
    {
      "id": 32765,
      "content": "<|reserved_183|>",
      "single_word": false,
      "lstrip": false,
      "rstrip": false,
      "normalized": false,
      "special": true
    },
    {
      "id": 32766,
      "content": "<|reserved_184|>",
      "single_word": false,
      "lstrip": false,
      "rstrip": false,
      "normalized": false,
      "special": true
    },
    {
      "id": 32767,
      "content": "<|reserved_185|>",
      "single_word": false,
      "lstrip": false,
      "rstrip": false,
      "normalized": false,
      "special": true
    }
  ],
  "normalizer": null,
  "pre_tokenizer": {
    "type": "Sequence",
    "pretokenizers": [
      {
        "type": "Split",
        "pattern": {
          "Regex": "'(?i:[sdmt]|ll|ve|re)|[^\\r\\n\\p{L}\\p{N}]?+\\p{L}+|\\p{N}{1,3}| ?[^\\s\\p{L}\\p{N}]++[\\r\\n]*|\\s*[\\r\\n]|\\s+(?!\\S)|\\s+"
        },
        "behavior": "Isolated",
        "invert": false
      },
      {
        "type": "ByteLevel",
        "add_prefix_space": false,
        "trim_offsets": true,
        "use_regex": false
      }
    ]
  },
  "post_processor": null,
  "decoder": {
    "type": "ByteLevel",
    "add_prefix_space": true,
    "trim_offsets": true,
    "use_regex": true
  },
  "model": {
    "type": "BPE",
    "dropout": null,
    "unk_token": null,
    "continuing_subword_prefix": null,
    "end_of_word_suffix": null,
    "fuse_unk": false,
    "byte_fallback": false,
    "ignore_merges": false,
    "vocab": {
      "!": 0,
      "\"": 1,
      "#": 2,
      "$": 3,
      "%": 4,
      "&": 5,
      "'": 6,
      "(": 7,
      ")": 8,
      "*": 9,
      "+": 10,
      ",": 11,
      "-": 12,
      ".": 13,
      "/": 14,
      "0": 15,
      "1": 16,
      "2": 17,
      "3": 18,
      "4": 19,
      "5": 20,
      "6": 21,
      "7": 22,
      "8": 23,
      "9": 24,
      ":": 25,
      ";": 26,
      "<": 27,
      "=": 28,
      ">": 29,
      "?": 30,
      "@": 31,
      "A": 32,
      "B": 33,
      "C": 34,
      "D": 35,
      "E": 36,
      "F": 37,
      "G": 38,
      "H": 39,
      "I": 40,
      "J": 41,
      "K": 42,
      "L": 43,
      "M": 44,
      "N": 45,
      "O": 46,
      "P": 47,
      "Q": 48,
      "R": 49,
      "S": 50,
      "T": 51,
      "U": 52,
      "V": 53,
      "W": 54,
      "X": 55,
      "Y": 56,
      "Z": 57,
      "[": 58,
      "\\": 59,
      "]": 60,
      "^": 61,
      "_": 62,
      "`": 63,
      "a": 64,
      "b": 65,
      "c": 66,
      "d": 67,
      "e": 68,
      "f": 69,
      "g": 70,
      "h": 71,
      "i": 72,
      "j": 73,
      "k": 74,
      "l": 75,
      "m": 76,
      "n": 77,
      "o": 78,
      "p": 79,
      "q": 80,
      "r": 81,
      "s": 82,
      "t": 83,
      "u": 84,
      "v": 85,
      "w": 86,
      "x": 87,
      "y": 88,
      "z": 89,
      "{": 90,
      "|": 91,
      "}": 92,
      "~": 93,
      "¡": 94,
      "¢": 95,
      "£": 96,
      "¤": 97,
      "¥": 98,
      "¦": 99,
      "§": 100,
      "¨": 101,
      "©": 102,
      "ª": 103,
      "«": 104,
      "¬": 105,
      "®": 106,
      "¯": 107,
      "°": 108,
      "±": 109,
      "²": 110,
      "³": 111,
      "´": 112,
      "µ": 113,
      "¶": 114,
      "·": 115,
      "¸": 116,
      "¹": 117,
      "º": 118,
      "»": 119,
      "¼": 120,
      "½": 121,
      "¾": 122,
      "¿": 123,
      "À": 124,
      "Á": 125,
      "Â": 126,
      "Ã": 127,
      "Ä": 128,
      "Å": 129,
      "Æ": 130,
      "Ç": 131,
      "È": 132,
      "É": 133,
      "Ê": 134,
      "Ë": 135,
      "Ì": 136,
      "Í": 137,
      "Î": 138,
      "Ï": 139,
      "Ð": 140,
      "Ñ": 141,
      "Ò": 142,
      "Ó": 143,
      "Ô": 144,
      "Õ": 145,
      "Ö": 146,
      "×": 147,
      "Ø": 148,
      "Ù": 149,
      "Ú": 150,
      "Û": 151,
      "Ü": 152,
      "Ý": 153,
      "Þ": 154,
      "ß": 155,
      "à": 156,
      "á": 157,
      "â": 158,
      "ã": 159,
      "ä": 160,
      "å": 161,
      "æ": 162,
      "ç": 163,
      "è": 164,
      "é": 165,
      "ê": 166,
      "ë": 167,
      "ì": 168,
      "í": 169,
      "î": 170,
      "ï": 171,
      "ð": 172,
      "ñ": 173,
      "ò": 174,
      "ó": 175,
      "ô": 176,
      "õ": 177,
      "ö": 178,
      "÷": 179,
      "ø": 180,
      "ù": 181,
      "ú": 182,
      "û": 183,
      "ü": 184,
      "ý": 185,
      "þ": 186,
      "ÿ": 187,
      "Ā": 188,
      "ā": 189,
      "Ă": 190,
      "ă": 191,
      "Ą": 192,
      "ą": 193,
      "Ć": 194,
      "ć": 195,
      "Ĉ": 196,
      "ĉ": 197,
      "Ċ": 198,
      "ċ": 199,
      "Č": 200,
      "č": 201,
      "Ď": 202,
      "ď": 203,
      "Đ": 204,
      "đ": 205,
      "Ē": 206,
      "ē": 207,
      "Ĕ": 208,
      "ĕ": 209,
      "Ė": 210,
      "ė": 211,
      "Ę": 212,
      "ę": 213,
      "Ě": 214,
      "ě": 215,
      "Ĝ": 216,
      "ĝ": 217,
      "Ğ": 218,
      "ğ": 219,
      "Ġ": 220,
      "ġ": 221,
      "Ģ": 222,
      "ģ": 223,
      "Ĥ": 224,
      "ĥ": 225,
      "Ħ": 226,
      "ħ": 227,
      "Ĩ": 228,
      "ĩ": 229,
      "Ī": 230,
      "ī": 231,
      "Ĭ": 232,
      "ĭ": 233,
      "Į": 234,
      "į": 235,
      "İ": 236,
      "ı": 237,
      "Ĳ": 238,
      "ĳ": 239,
      "Ĵ": 240,
      "ĵ": 241,
      "Ķ": 242,
      "ķ": 243,
      "ĸ": 244,
      "Ĺ": 245,
      "ĺ": 246,
      "Ļ": 247,
      "ļ": 248,
      "Ľ": 249,
      "ľ": 250,
      "Ŀ": 251,
      "ŀ": 252,
      "Ł": 253,
      "ł": 254,
      "Ń": 255,
      "ie": 256,
      "Ġp": 257,
      "ÅĤ": 258,
      "Ġw": 259,
      "Ġs": 260,
      "Ġn": 261,
      "Ġz": 262,
      "ÄĻ": 263,
      "cz": 264,
      "Ġt": 265,
      "ow": 266,
      "ni": 267,
      "ch": 268,
      "rz": 269,
      "Äħ": 270,
      "st": 271,
      "Ġd": 272,
      "Å¼": 273,
      "ra": 274,
      "Ġm": 275,
      "Ġo": 276,
      "Ã³": 277,
      "nie": 278,
      "ÅĽ": 279,
      "ro": 280,
      "sz": 281,
      "Ġj": 282,
      "Ġk": 283,
      "Ġi": 284,
      "Ġna": 285,
      "Ġpo": 286,
      "dz": 287,
      ".Ċ": 288,
      "le": 289,
      "Ġb": 290,
      "ne": 291,
      "ia": 292,
      "ak": 293,
      "go": 294,
      "iÄĻ": 295,
      "Äĩ": 296,
      "na": 297,
      "ny": 298,
      "rze": 299,
      "li": 300,
      "am": 301,
      "Ġdo": 302,
      "ar": 303,
      "Ġnie": 304,
      "re": 305,
      "Ġje": 306,
      "ka": 307,
      "owa": 308,
      "nia": 309,
      "Ġza": 310,
      "Ã³w": 311,
      "ÅĤa": 312,
      "ci": 313,
      "la": 314,
      "Å¼e": 315,
      "Ġa": 316,
      "ĊĊ": 317,
      "em": 318,
      "Ġu": 319,
      "ko": 320,
      "Ġwy": 321,
      "wa": 322,
      "ta": 323,
      "ĠsiÄĻ": 324,
      "ki": 325,
      "rzy": 326,
      "da": 327,
      "ce": 328,
      "Ġto": 329,
      "cj": 330,
      "ty": 331,
      "no": 332,
      "czy": 333,
      "cze": 334,
      "ry": 335,
      "Ġprze": 336,
      "ÅĤo": 337,
      "ku": 338,
      "Ġc": 339,
      "je": 340,
      "po": 341,
      "sta": 342,
      "te": 343,
      "Ġte": 344,
      "to": 345,
      "ĠP": 346,
      "cy": 347,
      "jÄħ": 348,
      "Ġg": 349,
      "Ġko": 350,
      "Ġmo": 351,
      "Ġro": 352,
      "..": 353,
      "cie": 354,
      "wo": 355,
      "dzie": 356,
      "dy": 357,
      "Ġod": 358,
      "Ġty": 359,
      "Ġjest": 360,
      "Ġjak": 361,
      "mi": 362,
      "wi": 363,
      "ĠW": 364,
      "nych": 365,
      "ÅĽci": 366,
      "lu": 367,
      "ÅĦ": 368,
      "ĠÅ¼e": 369,
      "ru": 370,
      "tu": 371,
      "en": 372,
      "lo": 373,
      "er": 374,
      "Ġby": 375,
      "Ġma": 376,
      "by": 377,
      "kie": 378,
      "ma": 379,
      "Ġ(": 380,
      "wie": 381,
      "ÅĤy": 382,
      "dzi": 383,
      "owy": 384,
      "szy": 385,
      "ĠS": 386,
      "Ġprzy": 387,
      "raz": 388,
      "owe": 389,
      "or": 390,
      "za": 391,
      "Ġtak": 392,
      "ob": 393,
      "Ġf": 394,
      "sze": 395,
      "Ġch": 396,
      "ĠM": 397,
      "Å¼y": 398,
      "ga": 399,
      "âĢ": 400,
      "cza": 401,
      "zy": 402,
      "tÃ³": 403,
      "ĠC": 404,
      "pa": 405,
      "Ġdz": 406,
      "ĠN": 407,
      "Ġco": 408,
      "ĠT": 409,
      "Ġpro": 410,
      "cji": 411,
      "pi": 412,
      "Ġpod": 413,
      "my": 414,
      "ĠktÃ³": 415,
      "?Ċ": 416,
      "Ġin": 417,
      "mie": 418,
      "ca": 419,
      "ÅĽÄĩ": 420,
      "ÅĤu": 421,
      "bi": 422,
      "du": 423,
      "ja": 424,
      "si": 425,
      "ĠK": 426,
      "ĠA": 427,
      "Ġ-": 428,
      "20": 429,
      "Ġmi": 430,
      "owie": 431,
      "Ġwie": 432,
      "nego": 433,
      "sa": 434,
      "nÄħ": 435,
      "nej": 436,
      "ĠD": 437,
      "wia": 438,
      "pra": 439,
      "ĠB": 440,
      "Ġob": 441,
      "ĠJ": 442,
      "wy": 443,
      "owi": 444,
      "Ġpra": 445,
      "Ġni": 446,
      "rÃ³": 447,
      "pie": 448,
      "Ġroz": 449,
      "de": 450,
      "ĠÅĽ": 451,
      "Ġze": 452,
      "Ġe": 453,
      "Ġczy": 454,
      "cia": 455,
      "pe": 456,
      "ami": 457,
      "Ġpa": 458,
      "mu": 459,
      "Ġsz": 460,
      "Ġale": 461,
      "su": 462,
      "mo": 463,
      "ĠZ": 464,
      "Ġre": 465,
      "Ġlu": 466,
      ".ĊĊ": 467,
      "gi": 468,
      "niu": 469,
      "ĠR": 470,
      "ÅĤem": 471,
      "nym": 472,
      "niej": 473,
      "ĠPo": 474,
      "ba": 475,
      "owo": 476,
      "bie": 477,
      "ĠO": 478,
      "sy": 479,
      "Ġmie": 480,
      "do": 481,
      "we": 482,
      "Åº": 483,
      "ski": 484,
      "Ġst": 485,
      "jÄĻ": 486,
      "Ġle": 487,
      "Ġda": 488,
      "on": 489,
      "ÅĤam": 490,
      "ĠâĢ": 491,
      "Ġsta": 492,
      "Ġ\"": 493,
      "Ġcz": 494,
      "Ġjed": 495,
      "cja": 496,
      "Ġbo": 497,
      "ÅĤe": 498,
      "Ġsie": 499,
      "Ġprzez": 500,
      "dze": 501,
      "skie": 502,
      "ĠI": 503,
      "Ġka": 504,
      "cho": 505,
      "Ġgo": 506,
      "ĠG": 507,
      "ez": 508,
      "uÅ¼": 509,
      "Ġdla": 510,
      "in": 511,
      "Ġtym": 512,
      "Ġr": 513,
      "Ġspo": 514,
      "...": 515,
      "il": 516,
      "Ġdzie": 517,
      "kÃ³w": 518,
      "bo": 519,
      "pu": 520,
      "an": 521,
      "lko": 522,
      "Ġh": 523,
      "noÅĽci": 524,
      "dzia": 525,
      "sie": 526,
      "sza": 527,
      "19": 528,
      "ĠbÄĻ": 529,
      "!Ċ": 530,
      "Ġsam": 531,
      "ier": 532,
      "ska": 533,
      "Ġli": 534,
      "Ġra": 535,
      "owych": 536,
      "fi": 537,
      "osta": 538,
      "dzo": 539,
      "00": 540,
      "ĠL": 541,
      "Ġnaj": 542,
      "kt": 543,
      "un": 544,
      "ĠsÄħ": 545,
      "al": 546,
      "dni": 547,
      "nu": 548,
      "gu": 549,
      "Ġcza": 550,
      "Ġlub": 551,
      "ĠmoÅ¼e": 552,
      "rowa": 553,
      "nt": 554,
      "Ġtego": 555,
      "sto": 556,
      "Ġmnie": 557,
      "Ġja": 558,
      "gra": 559,
      "ĠktÃ³ry": 560,
      "Ġmam": 561,
      "Ġbar": 562,
      "sty": 563,
      "ĠwiÄĻ": 564,
      "szyst": 565,
      "stÄĻ": 566,
      "Ġwi": 567,
      "Ġoraz": 568,
      "Ġzna": 569,
      "szcze": 570,
      "ĠĠ": 571,
      "ter": 572,
      "tycz": 573,
      "ÅĽli": 574,
      "Ġwo": 575,
      "ek": 576,
      "mia": 577,
      "Ġla": 578,
      "Ġmu": 579,
      "Ġmia": 580,
      "Ġtylko": 581,
      "so": 582,
      "ĠU": 583,
      "ĠjuÅ¼": 584,
      "Ã³ÅĤ": 585,
      "bu": 586,
      "rzÄħ": 587,
      "Ġok": 588,
      "Nie": 589,
      "zna": 590,
      "ÅĤÄħ": 591,
      "czo": 592,
      "art": 593,
      "spo": 594,
      "Ġpi": 595,
      "ĠF": 596,
      "owej": 597,
      "kÅĤa": 598,
      "Ġwszyst": 599,
      "praw": 600,
      "ĠktÃ³re": 601,
      "ĠE": 602,
      "ĠNa": 603,
      "zu": 604,
      "jÄħcy": 605,
      "cha": 606,
      "owaÄĩ": 607,
      "ent": 608,
      "io": 609,
      "ze": 610,
      "ĠâĢĵ": 611,
      "niem": 612,
      "im": 613,
      "cyj": 614,
      "Ġprzed": 615,
      "owania": 616,
      "sia": 617,
      "ÅĽcie": 618,
      "Ġpoz": 619,
      "prze": 620,
      "Po": 621,
      "dza": 622,
      "Å¼a": 623,
      "Ġraz": 624,
      "ĠNie": 625,
      "Ġpe": 626,
      "Ġroku": 627,
      "Ġdob": 628,
      "nio": 629,
      "10": 630,
      "Ġce": 631,
      "rza": 632,
      "Ġsy": 633,
      "Ġ:": 634,
      "201": 635,
      "ĠbÄĻdzie": 636,
      "ĠH": 637,
      "Ġzosta": 638,
      "owego": 639,
      "kÄĻ": 640,
      "Ġkon": 641,
      "ej": 642,
      "Ġbez": 643,
      "ĠteÅ¼": 644,
      "gl": 645,
      "nÄĻ": 646,
      "Ġba": 647,
      "pad": 648,
      "lem": 649,
      "Ġsob": 650,
      "Ġcho": 651,
      "rÄĻ": 652,
      "Ġku": 653,
      "Ġwa": 654,
      "Ġsto": 655,
      "Ġzak": 656,
      "jÄħce": 657,
      "Ġpot": 658,
      "sk": 659,
      "cu": 660,
      "co": 661,
      "czÄħ": 662,
      "ĠwÅĤa": 663,
      "nd": 664,
      "Ġtu": 665,
      "Ġdzia": 666,
      "sp": 667,
      "dnie": 668,
      "ĠJe": 669,
      "stÄĻp": 670,
      "Âł": 671,
      "nik": 672,
      "dÄĻ": 673,
      "nika": 674,
      "Ġci": 675,
      "ri": 676,
      "jÄħc": 677,
      "ĠmoÅ¼": 678,
      "Ã³j": 679,
      "Ġme": 680,
      "kiem": 681,
      "owanie": 682,
      "Ġpier": 683,
      "Ġswo": 684,
      "Ġos": 685,
      "Ġno": 686,
      "Ġde": 687,
      "ĠÅ¼y": 688,
      "Ġmog": 689,
      "at": 690,
      "Ġwz": 691,
      "Ġfi": 692,
      "rod": 693,
      "),": 694,
      "tk": 695,
      "Ġtra": 696,
      "ĠbyÄĩ": 697,
      "nak": 698,
      "200": 699,
      "noÅĽÄĩ": 700,
      "wiÄħ": 701,
      "Ġgra": 702,
      "for": 703,
      "Ġca": 704,
      "lej": 705,
      "Ġbardzo": 706,
      ")Ċ": 707,
      "Ġ,": 708,
      "czÄĻ": 709,
      "Ġjeszcze": 710,
      "ste": 711,
      "Ġsobie": 712,
      "Ã³l": 713,
      "Ġjako": 714,
      "tor": 715,
      "js": 716,
      "Ġta": 717,
      "...Ċ": 718,
      "cje": 719,
      "powie": 720,
      "ng": 721,
      "Ġtem": 722,
      "Ġpowie": 723,
      "Ġsu": 724,
      "ns": 725,
      "Ġbu": 726,
      "cznie": 727,
      "Ġsp": 728,
      "cjÄĻ": 729,
      "Ġcze": 730,
      "ona": 731,
      "czne": 732,
      "Ġmy": 733,
      "siÄħ": 734,
      "wiÄĻ": 735,
      "âĢĿ": 736,
      "Je": 737,
      "me": 738,
      "ĠdziaÅĤa": 739,
      ").": 740,
      "Ġwe": 741,
      "Ġzam": 742,
      "res": 743,
      "dzy": 744,
      "niÄĻ": 745,
      "czenia": 746,
      "Ġpierw": 747,
      "ÅĽnie": 748,
      "he": 749,
      "Na": 750,
      "ĠbyÅĤo": 751,
      "bli": 752,
      "Ġwar": 753,
      "rzu": 754,
      "jem": 755,
      "skiego": 756,
      "Ã³r": 757,
      "Ġak": 758,
      "ĠZa": 759,
      "ÅĦst": 760,
      "Ġog": 761,
      "ji": 762,
      "war": 763,
      "Ġsamo": 764,
      "Ġcie": 765,
      "wet": 766,
      "kÄħ": 767,
      "Ġpow": 768,
      "se": 769,
      "ĠÅ": 770,
      "dzenia": 771,
      "Ġzro": 772,
      "siÄĻ": 773,
      "Ã³b": 774,
      "Ġmiejs": 775,
      "lam": 776,
      "Ġich": 777,
      "ĠczÄĻ": 778,
      "stem": 779,
      "Ġtakie": 780,
      "15": 781,
      "Ġkie": 782,
      "Ġczas": 783,
      "To": 784,
      "Ġkom": 785,
      "Ġten": 786,
      "sko": 787,
      "owym": 788,
      "Ġdzi": 789,
      "dziej": 790,
      "ÅĤÃ³w": 791,
      "ĠâĢŀ": 792,
      "rt": 793,
      "Ġjego": 794,
      "12": 795,
      "Ġusta": 796,
      "Ġal": 797,
      "ÅĽmy": 798,
      "trzy": 799,
      "dÄħ": 800,
      ":Ċ": 801,
      "Ġdy": 802,
      "rÃ³Å¼": 803,
      "ĠPol": 804,
      "lÄĻ": 805,
      "Ġbra": 806,
      "Ġwyko": 807,
      "Ġsk": 808,
      "pisa": 809,
      "Ġwyda": 810,
      "cej": 811,
      "tyw": 812,
      "ĠbyÅĤ": 813,
      "Ġpla": 814,
      "tÃ³w": 815,
      "py": 816,
      "ju": 817,
      "ĠKo": 818,
      "ich": 819,
      "cznych": 820,
      "ĠrÃ³w": 821,
      "Ġbie": 822,
      "!!": 823,
      "Ġop": 824,
      "czu": 825,
      "ĠCo": 826,
      "ho": 827,
      "fe": 828,
      "-Ċ": 829,
      "Za": 830,
      "Ġdru": 831,
      "szÄĻ": 832,
      "Ġry": 833,
      "ĠniÅ¼": 834,
      "rÃ³w": 835,
      "bra": 836,
      "Ġor": 837,
      "skiej": 838,
      "Ġjakie": 839,
      "Ġpew": 840,
      "Ġ.": 841,
      "Ġjej": 842,
      "ĠMa": 843,
      "Ġgru": 844,
      "stu": 845,
      "sÅĤu": 846,
      "18": 847,
      "Ġdu": 848,
      "Ġjednak": 849,
      "owÄħ": 850,
      "tek": 851,
      "ii": 852,
      "cÃ³w": 853,
      "prowa": 854,
      "ĠcoÅĽ": 855,
      "Ġzd": 856,
      "yba": 857,
      "nymi": 858,
      "owane": 859,
      "ĠÅĽwia": 860,
      "cÄĻ": 861,
      "ĠMo": 862,
      "it": 863,
      "ĠTo": 864,
      "czas": 865,
      "Ġgdy": 866,
      "Ġtej": 867,
      "ĠmoÅ¼na": 868,
      "ĠDo": 869,
      "Ġrze": 870,
      "30": 871,
      "Ġlat": 872,
      "owaÅĤ": 873,
      ",Ċ": 874,
      "glÄħ": 875,
      "Ġnawet": 876,
      "Ġpraw": 877,
      "Ġtam": 878,
      "tego": 879,
      "Ġokre": 880,
      ",ĊĊ": 881,
      "Ġpu": 882,
      "ali": 883,
      "Ġnad": 884,
      "Å¼o": 885,
      "sku": 886,
      "rzÄĻ": 887,
      "ĠWy": 888,
      "Ġlo": 889,
      "tni": 890,
      "rÄħ": 891,
      "ran": 892,
      "Ġkto": 893,
      "gie": 894,
      "tnie": 895,
      "Ġwiem": 896,
      "Dz": 897,
      "Ã³wi": 898,
      "um": 899,
      "dÅº": 900,
      "Ġfa": 901,
      "ciÄħ": 902,
      "Ġpowi": 903,
      "ct": 904,
      "jÄħcych": 905,
      "forma": 906,
      "lne": 907,
      "Ġau": 908,
      "Ġsko": 909,
      "ĠwiÄĻc": 910,
      "tem": 911,
      "Ġodpowie": 912,
      "pro": 913,
      "ur": 914,
      "oba": 915,
      "Ġpracy": 916,
      "Ġkil": 917,
      "ĠtakÅ¼e": 918,
      "Ġspra": 919,
      "dÃ³w": 920,
      "Ġzrobi": 921,
      "nowi": 922,
      "szÄħ": 923,
      "Ġtych": 924,
      "Ġprodu": 925,
      "czyÄĩ": 926,
      "ge": 927,
      "uro": 928,
      "czenie": 929,
      "dzÄħ": 930,
      "Ġrobi": 931,
      "gani": 932,
      "Ġprzypad": 933,
      "Ġdnia": 934,
      "szych": 935,
      "ĠkaÅ¼": 936,
      "Ġust": 937,
      "Ġprob": 938,
      "tach": 939,
      "Ġtrze": 940,
      "bym": 941,
      "Ġteraz": 942,
      "rem": 943,
      "Ġtro": 944,
      "lnie": 945,
      "leÅ¼y": 946,
      "kach": 947,
      "tki": 948,
      "Ġwsp": 949,
      "szym": 950,
      "Ġstro": 951,
      "Ġszy": 952,
      "Ġdoda": 953,
      "el": 954,
      "stra": 955,
      "ĠRo": 956,
      "16": 957,
      "dem": 958,
      "ĠuÅ¼y": 959,
      "Ġjestem": 960,
      "cznej": 961,
      "Ġfor": 962,
      "Ġser": 963,
      "tra": 964,
      "Ġof": 965,
      "czej": 966,
      "Ġjedno": 967,
      "Ġkar": 968,
      "men": 969,
      "ĠĠĠĠ": 970,
      "ciu": 971,
      "cÄħ": 972,
      "ĠJa": 973,
      "wier": 974,
      "unk": 975,
      "ec": 976,
      "ĠmiÄĻ": 977,
      "waÄĩ": 978,
      "Ġspraw": 979,
      "peÅĤ": 980,
      "kich": 981,
      "ĠÅĤa": 982,
      "skich": 983,
      "chu": 984,
      "nieÅ¼": 985,
      "liwo": 986,
      "Ġtre": 987,
      "14": 988,
      "Ġon": 989,
      "Ġpomo": 990,
      "Ġwszystko": 991,
      "Ġkiedy": 992,
      "Ġszko": 993,
      "Co": 994,
      "ĠMi": 995,
      "od": 996,
      "Ġosta": 997,
      "dziaÅĤ": 998,
      "owia": 999,
      "owany": 1000,
      "nku": 1001,
      "ĠÅ¼eby": 1002,
      "Ġbi": 1003,
      "Ġpoda": 1004,
      ":ĊĊ": 1005,
      "staw": 1006,
      "lar": 1007,
      "dziÄĩ": 1008,
      "owni": 1009,
      "ĠCh": 1010,
      "Ġpre": 1011,
      "ĠciÄĻ": 1012,
      "17": 1013,
      "ĠrÃ³Å¼": 1014,
      "Ġgdzie": 1015,
      "Mo": 1016,
      "taj": 1017,
      "Ġar": 1018,
      "Ġrodzi": 1019,
      "Ġmoje": 1020,
      "nek": 1021,
      "Ġnic": 1022,
      "ĠV": 1023,
      "Ġsi": 1024,
      "ĠPa": 1025,
      "wania": 1026,
      "szka": 1027,
      "tka": 1028,
      "ĠdÅĤu": 1029,
      "50": 1030,
      "Ġpowo": 1031,
      "amy": 1032,
      "Wy": 1033,
      "Ġim": 1034,
      "wsze": 1035,
      "wiÄħza": 1036,
      "Ġdro": 1037,
      "Ġju": 1038,
      "Ġaby": 1039,
      "ktu": 1040,
      "Ġswoje": 1041,
      "raj": 1042,
      "Ġchyba": 1043,
      "szo": 1044,
      "ĠrÃ³wnieÅ¼": 1045,
      "mniej": 1046,
      "Ġru": 1047,
      "Ġpie": 1048,
      "kÅĤad": 1049,
      "piej": 1050,
      "chÄĻ": 1051,
      ";ĊĊ": 1052,
      "ĠktÃ³rych": 1053,
      "13": 1054,
      "Ġalbo": 1055,
      "Ġbe": 1056,
      "....": 1057,
      "rzysta": 1058,
      "Ġchce": 1059,
      "Ġbardziej": 1060,
      "maga": 1061,
      "sÅĤa": 1062,
      "czego": 1063,
      "Ġkla": 1064,
      "tku": 1065,
      "szej": 1066,
      "ti": 1067,
      "Ġosob": 1068,
      "liÅĽmy": 1069,
      "Ġdobrze": 1070,
      "ĠmÃ³wi": 1071,
      "ĠbyÅĤa": 1072,
      "Ġznaj": 1073,
      "Ġuwa": 1074,
      "czywi": 1075,
      "Ġpol": 1076,
      "rek": 1077,
      "ÅĤeÅĽ": 1078,
      "wÃ³": 1079,
      "Ġzmie": 1080,
      "ĠDz": 1081,
      "Ġinforma": 1082,
      "Ġfo": 1083,
      "dzenie": 1084,
      "Ġart": 1085,
      "Ġczasu": 1086,
      "ers": 1087,
      "kim": 1088,
      "Ġszcze": 1089,
      "tÄĻ": 1090,
      "ĠJak": 1091,
      "pÅĤy": 1092,
      "IE": 1093,
      "ĠkoÅĦ": 1094,
      "Ġnas": 1095,
      "ĠciÄħ": 1096,
      "ĠwiÄĻcej": 1097,
      "ha": 1098,
      "ÅĽwia": 1099,
      "gÃ³l": 1100,
      "ĠRa": 1101,
      "den": 1102,
      "Ġszyb": 1103,
      "dar": 1104,
      "11": 1105,
      "Å¼ej": 1106,
      "ĠwiÄĻk": 1107,
      "zacji": 1108,
      "ly": 1109,
      "Ġkolej": 1110,
      "dowa": 1111,
      "dania": 1112,
      "Ã³Åº": 1113,
      "skim": 1114,
      "rak": 1115,
      "ary": 1116,
      "ĠBo": 1117,
      "Ġpotrze": 1118,
      "zo": 1119,
      "wiÄĻk": 1120,
      "Ġprzypadku": 1121,
      "trzyma": 1122,
      "di": 1123,
      "strze": 1124,
      "zd": 1125,
      "ĠPrze": 1126,
      "Ġprowa": 1127,
      "Ġnau": 1128,
      "Å¼Äħ": 1129,
      "Ja": 1130,
      "Ġstra": 1131,
      "ĠÅĽrod": 1132,
      "nÃ³w": 1133,
      "ĠjeÅĽli": 1134,
      "Ġjaki": 1135,
      "tro": 1136,
      "dnia": 1137,
      "cznego": 1138,
      "Ġspos": 1139,
      "lnych": 1140,
      "Ġkont": 1141,
      "glÄħda": 1142,
      "czny": 1143,
      "now": 1144,
      "Ġorgani": 1145,
      "Ġtwo": 1146,
      "tych": 1147,
      "chodzi": 1148,
      "mio": 1149,
      "Ġmar": 1150,
      "szego": 1151,
      "nem": 1152,
      "yta": 1153,
      "Jak": 1154,
      "ĠKa": 1155,
      "jemy": 1156,
      "ner": 1157,
      "nii": 1158,
      "Ġsystem": 1159,
      "trz": 1160,
      "Ġga": 1161,
      "100": 1162,
      "logi": 1163,
      "âĢĵ": 1164,
      "szu": 1165,
      "pis": 1166,
      "ke": 1167,
      "dzÄĻ": 1168,
      "two": 1169,
      "Ġ:)": 1170,
      "gro": 1171,
      "kaza": 1172,
      "Ġmasz": 1173,
      "pli": 1174,
      "wczy": 1175,
      "Ġspa": 1176,
      "lni": 1177,
      "lnego": 1178,
      "ĠCi": 1179,
      "per": 1180,
      "glÄĻ": 1181,
      "rÃ³d": 1182,
      "ĠduÅ¼": 1183,
      "owiÄħ": 1184,
      "gÄĻ": 1185,
      "kowa": 1186,
      "rwa": 1187,
      "Ġse": 1188,
      "Tak": 1189,
      "ĠktÃ³ra": 1190,
      "waÅ¼": 1191,
      "stÄħ": 1192,
      "Ġchcia": 1193,
      "Ġhi": 1194,
      "wu": 1195,
      "Ġzgo": 1196,
      "nij": 1197,
      "ĠktÃ³rym": 1198,
      "ĠmajÄħ": 1199,
      "Ġzda": 1200,
      "Ġpowin": 1201,
      "lny": 1202,
      "Ġproce": 1203,
      "stÄĻpu": 1204,
      "Ġcy": 1205,
      "szcza": 1206,
      "tora": 1207,
      "ÅĽla": 1208,
      "towa": 1209,
      "ĠRe": 1210,
      "kiego": 1211,
      "ÅĤowie": 1212,
      "szta": 1213,
      "fa": 1214,
      "stru": 1215,
      "Ġposta": 1216,
      "dÅĤu": 1217,
      "Do": 1218,
      "ĠIn": 1219,
      "ĠzÅĤ": 1220,
      "Ġrozpo": 1221,
      "lnoÅĽci": 1222,
      "Ġdni": 1223,
      "ment": 1224,
      "ve": 1225,
      "Ġkilka": 1226,
      "Ġpoja": 1227,
      "Ġzmia": 1228,
      "Ġnp": 1229,
      "Ġspe": 1230,
      "Ġczu": 1231,
      "Ġmniej": 1232,
      "Ġwyso": 1233,
      "Ġoko": 1234,
      "199": 1235,
      "Ġso": 1236,
      "Prze": 1237,
      "nowa": 1238,
      "wÃ³j": 1239,
      "ÅĤÄĻ": 1240,
      "ing": 1241,
      "Ġwarto": 1242,
      "jesz": 1243,
      "wiet": 1244,
      "Ġinnych": 1245,
      "ĠAle": 1246,
      "Ġstanowi": 1247,
      "Ġsa": 1248,
      "Ġmowa": 1249,
      "ĠnaleÅ¼y": 1250,
      "stwa": 1251,
      "stawie": 1252,
      "ul": 1253,
      "rzÄħd": 1254,
      "Å¼eli": 1255,
      "Ġtrzy": 1256,
      "bez": 1257,
      "Ġjeste": 1258,
      "pre": 1259,
      "star": 1260,
      "nÄħÄĩ": 1261,
      "ÅĦstwa": 1262,
      "ÅĽwiad": 1263,
      "be": 1264,
      "Ġfir": 1265,
      "ĠX": 1266,
      "ĠosÃ³b": 1267,
      "Ġtygo": 1268,
      "iem": 1269,
      "Ġpisze": 1270,
      "ĠbÄĻdÄħ": 1271,
      "Ġmusi": 1272,
      "iÄĻki": 1273,
      "ĠsÅĤu": 1274,
      "th": 1275,
      "ĠjÄħ": 1276,
      "nad": 1277,
      "Ġthe": 1278,
      "czni": 1279,
      "rzo": 1280,
      "ĠTe": 1281,
      "rum": 1282,
      "Ġproblem": 1283,
      "nki": 1284,
      "Ġsku": 1285,
      "Ġchodzi": 1286,
      "ck": 1287,
      "Å¼enia": 1288,
      "ĠÅļ": 1289,
      "lep": 1290,
      "tÄħ": 1291,
      "ĠÅ¼a": 1292,
      "pera": 1293,
      "Ã³d": 1294,
      "lÄħ": 1295,
      "Ġgodzi": 1296,
      "ĠTak": 1297,
      "\",": 1298,
      "kre": 1299,
      "cych": 1300,
      "kami": 1301,
      "Ch": 1302,
      "Ġprac": 1303,
      "spodar": 1304,
      "bÄĻ": 1305,
      "ciw": 1306,
      "Ġsza": 1307,
      "daw": 1308,
      "ĠWar": 1309,
      "Ġdie": 1310,
      "os": 1311,
      "Ġ;": 1312,
      "is": 1313,
      "??": 1314,
      "kg": 1315,
      "Ġne": 1316,
      "Ġzawo": 1317,
      "ĠmiÄĻdzy": 1318,
      "kro": 1319,
      "dek": 1320,
      "25": 1321,
      "amiÄĻ": 1322,
      "ĠpoczÄħ": 1323,
      "ĠtrochÄĻ": 1324,
      "trze": 1325,
      ").Ċ": 1326,
      "czna": 1327,
      "Ġpyta": 1328,
      "kona": 1329,
      "II": 1330,
      "Ġpoli": 1331,
      "Ġwoj": 1332,
      "rywa": 1333,
      "Ġinte": 1334,
      "Ġpole": 1335,
      "ĠPro": 1336,
      "pod": 1337,
      "leÅ¼": 1338,
      "ÅĽcia": 1339,
      "daÄĩ": 1340,
      "niÄĩ": 1341,
      "Ġdziec": 1342,
      "Ġtaki": 1343,
      "biera": 1344,
      "pew": 1345,
      "ĠpÃ³Åº": 1346,
      "Ġtreni": 1347,
      "Ġzawsze": 1348,
      "lnej": 1349,
      "cjÄħ": 1350,
      "ĠzÅĤo": 1351,
      "Ġnapisa": 1352,
      "Ġtrzeba": 1353,
      "soby": 1354,
      "zji": 1355,
      "ĠbyÅĤy": 1356,
      "ĠEuro": 1357,
      "dnio": 1358,
      "Ġnaz": 1359,
      "202": 1360,
      "ĠTy": 1361,
      "tedy": 1362,
      "chy": 1363,
      "Ġsprze": 1364,
      "ĠwÅĤas": 1365,
      "mina": 1366,
      "dno": 1367,
      "ktÃ³": 1368,
      "ĠsposÃ³b": 1369,
      "Ġek": 1370,
      "ĠmogÄħ": 1371,
      "40": 1372,
      "ĠzostaÅĤ": 1373,
      "nans": 1374,
      "Ġsil": 1375,
      "ÅĤoÅĽci": 1376,
      "Ġzasa": 1377,
      "Ġniez": 1378,
      "Ġnich": 1379,
      "dow": 1380,
      "Ġdanych": 1381,
      "Å¼enie": 1382,
      "ĠgÅĤÃ³w": 1383,
      "Ġzwy": 1384,
      "ĠpeÅĤ": 1385,
      "bior": 1386,
      "aka": 1387,
      "chni": 1388,
      "ĠOd": 1389,
      "fika": 1390,
      ".,": 1391,
      "ĠktÃ³rej": 1392,
      "gdy": 1393,
      "ĠLe": 1394,
      "Ġdzieci": 1395,
      "Ġwcze": 1396,
      "ĠwÅĤaÅĽci": 1397,
      "Ma": 1398,
      "bar": 1399,
      "Ġdaw": 1400,
      "Ġdomu": 1401,
      "ĠSz": 1402,
      "22": 1403,
      "czywiÅĽcie": 1404,
      "wali": 1405,
      "60": 1406,
      "gram": 1407,
      "Ġsiebie": 1408,
      "Ġzw": 1409,
      "Ġzdr": 1410,
      "dia": 1411,
      "pÅĤa": 1412,
      "ĠduÅ¼o": 1413,
      "niÄħ": 1414,
      "tua": 1415,
      "ren": 1416,
      "grani": 1417,
      "sÅĤ": 1418,
      "bezpie": 1419,
      "Ġstos": 1420,
      "Czy": 1421,
      "Ġdwa": 1422,
      "\".": 1423,
      "ktÃ³w": 1424,
      "chro": 1425,
      "Ġpodczas": 1426,
      "ciÄĩ": 1427,
      "Ale": 1428,
      "ene": 1429,
      "wiam": 1430,
      "Ġkonie": 1431,
      "ĠmiaÅĤ": 1432,
      "Ġit": 1433,
      "Ġstu": 1434,
      "dzieÄĩ": 1435,
      "Ġpar": 1436,
      "scy": 1437,
      "ĠmogÄĻ": 1438,
      "Ġtemu": 1439,
      "Ġpubli": 1440,
      "Ġwia": 1441,
      "ĠTwo": 1442,
      "Ġsze": 1443,
      "dÅĤ": 1444,
      "ĠÄĩ": 1445,
      "Ġpan": 1446,
      "ĠCzy": 1447,
      "Ġuda": 1448,
      "dne": 1449,
      "ĠWie": 1450,
      "lenia": 1451,
      "Ġproje": 1452,
      "Ġjuz": 1453,
      "Ġnim": 1454,
      "tura": 1455,
      "ĠwÅĤaÅĽnie": 1456,
      "liz": 1457,
      "Ġpom": 1458,
      "Ġlepiej": 1459,
      "Ġzach": 1460,
      "Ġpodob": 1461,
      "wanie": 1462,
      "ÅĤego": 1463,
      "szko": 1464,
      "czeÅĦ": 1465,
      "ser": 1466,
      "Ġtru": 1467,
      "Ġpozio": 1468,
      "Ġprzeciw": 1469,
      "Ġlek": 1470,
      "naj": 1471,
      "ĠwspÃ³ÅĤ": 1472,
      "Ġreali": 1473,
      "Ġcia": 1474,
      "ale": 1475,
      "waÅĤ": 1476,
      "Ġwska": 1477,
      "tak": 1478,
      "wiÄħz": 1479,
      "ĠkrÃ³": 1480,
      "stwo": 1481,
      "ĠspoÅĤe": 1482,
      "liwoÅĽci": 1483,
      "iÄĻk": 1484,
      "ĠkaÅ¼dy": 1485,
      "sem": 1486,
      "rw": 1487,
      "nk": 1488,
      "ÅĽniej": 1489,
      "Ġoce": 1490,
      "Ġfunk": 1491,
      "ĠktoÅĽ": 1492,
      "Ġter": 1493,
      "dam": 1494,
      "rÃ³b": 1495,
      "Ġwal": 1496,
      "Ġpozosta": 1497,
      "tyczÄħ": 1498,
      "Ġdosta": 1499,
      "kiej": 1500,
      "Ã³g": 1501,
      "ĠMar": 1502,
      "Ġinter": 1503,
      "iÄĻku": 1504,
      "Ġposia": 1505,
      "ÅĤych": 1506,
      "stro": 1507,
      "jÄħcego": 1508,
      "sce": 1509,
      "Pro": 1510,
      "Ġkosz": 1511,
      "Ġczym": 1512,
      "Ko": 1513,
      "ĠSta": 1514,
      "nka": 1515,
      "owiada": 1516,
      "24": 1517,
      "Ġczasie": 1518,
      "czyna": 1519,
      "ĠWa": 1520,
      "zie": 1521,
      "che": 1522,
      "ok": 1523,
      "Ġpoprze": 1524,
      "Ġwiele": 1525,
      "ÅĽlo": 1526,
      "niki": 1527,
      "twa": 1528,
      "Ġchwi": 1529,
      "tar": 1530,
      "Ġkobie": 1531,
      "ĠpÃ³ÅĤ": 1532,
      "Ġdrugie": 1533,
      "Ġwtedy": 1534,
      "ĠczÄĻÅĽci": 1535,
      "Ġad": 1536,
      "lek": 1537,
      "tru": 1538,
      "Ġum": 1539,
      "Ġczego": 1540,
      "Ġjedy": 1541,
      "rzenia": 1542,
      "lna": 1543,
      "ÅĤym": 1544,
      "Ġzakre": 1545,
      "sztaÅĤ": 1546,
      "âĢ¦": 1547,
      "Ġem": 1548,
      "ÅĤaÅĽ": 1549,
      "ster": 1550,
      "ĠwzglÄĻ": 1551,
      "Ġkra": 1552,
      "stawi": 1553,
      "stos": 1554,
      "Ġbada": 1555,
      "ĠobowiÄħ": 1556,
      "Ġpozy": 1557,
      "ĠdotyczÄħ": 1558,
      "enta": 1559,
      "jÄĻcia": 1560,
      "cznym": 1561,
      "domo": 1562,
      "lenie": 1563,
      "Ġzdo": 1564,
      "zuje": 1565,
      "ĠmieÄĩ": 1566,
      "Ġmieszka": 1567,
      "mier": 1568,
      "ol": 1569,
      "Ġsytua": 1570,
      "Ġile": 1571,
      "Ġtyle": 1572,
      "ĠPod": 1573,
      "No": 1574,
      "Ġnor": 1575,
      "Ġtele": 1576,
      "nosi": 1577,
      "ĠÅ¼": 1578,
      "Ġwszystkie": 1579,
      "Ġkupi": 1580,
      "ĠczÄĻsto": 1581,
      "tera": 1582,
      "Ġinne": 1583,
      "piero": 1584,
      "Ġrazem": 1585,
      "log": 1586,
      "ĠwpÅĤy": 1587,
      "Ġstosu": 1588,
      "stety": 1589,
      "Ġspecja": 1590,
      "duje": 1591,
      "min": 1592,
      "Ġpkt": 1593,
      "ĠpÃ³Åºniej": 1594,
      "lekt": 1595,
      "Ġwszystkich": 1596,
      "ĠpÅĤy": 1597,
      "Ġumie": 1598,
      "entu": 1599,
      "Ġtez": 1600,
      "Ġdecy": 1601,
      "Ġgry": 1602,
      "nikÃ³w": 1603,
      "entÃ³w": 1604,
      "czki": 1605,
      "pita": 1606,
      "Ġczyli": 1607,
      "ĠmyÅĽ": 1608,
      "sÃ³w": 1609,
      "Ġlatach": 1610,
      "nta": 1611,
      "Ġ[": 1612,
      "hi": 1613,
      "Ġludzi": 1614,
      "kty": 1615,
      "nienia": 1616,
      "ĠÄĩwi": 1617,
      "ĠgÅĤo": 1618,
      "cyjnych": 1619,
      "Ġwnio": 1620,
      "Ġmoc": 1621,
      "ĠmÄĻ": 1622,
      "Ġauto": 1623,
      "nach": 1624,
      "Ġosoby": 1625,
      "Ġ:)Ċ": 1626,
      "ĠNo": 1627,
      "stor": 1628,
      "byt": 1629,
      "Ġpotem": 1630,
      "pej": 1631,
      "Ġnam": 1632,
      "ĠmiesiÄħ": 1633,
      "ĠPrzy": 1634,
      "Ġstar": 1635,
      "leg": 1636,
      "Ġwykona": 1637,
      "ĠwyglÄħda": 1638,
      "kry": 1639,
      "mach": 1640,
      "tam": 1641,
      "ĠpÅĤa": 1642,
      "Ġponad": 1643,
      "Ġmiejsce": 1644,
      "Ġzamie": 1645,
      "ÅĤk": 1646,
      "Ġminu": 1647,
      "bia": 1648,
      "ÅĦczy": 1649,
      "ĠjakieÅĽ": 1650,
      "tycznie": 1651,
      "Ġpomy": 1652,
      "23": 1653,
      "Ġobec": 1654,
      "Ġprostu": 1655,
      "Ġgospodar": 1656,
      "Åļ": 1657,
      "cep": 1658,
      "Ġzawie": 1659,
      "Ġlicz": 1660,
      "Ġtemat": 1661,
      "Ġszybko": 1662,
      "ĠPra": 1663,
      "Ġkg": 1664,
      "skÄħ": 1665,
      "Ġfak": 1666,
      "cznÄħ": 1667,
      "chi": 1668,
      "sji": 1669,
      "Ġsprawie": 1670,
      "przy": 1671,
      "ĠdzieÅĦ": 1672,
      "Ġwieku": 1673,
      "Ġwymaga": 1674,
      "Å»": 1675,
      "ĠDa": 1676,
      "ĠciÄĻÅ¼": 1677,
      "Ã³Å¼": 1678,
      "prawdÄĻ": 1679,
      "cach": 1680,
      "lnym": 1681,
      "Ġfil": 1682,
      ":)": 1683,
      "tery": 1684,
      "roz": 1685,
      "ĠLi": 1686,
      "Ġam": 1687,
      "ĠskÅĤa": 1688,
      "ciÄĻ": 1689,
      "Åģ": 1690,
      "Ro": 1691,
      "Ġstop": 1692,
      "Ġnada": 1693,
      "lnoÅĽÄĩ": 1694,
      "tury": 1695,
      "Ġdalej": 1696,
      "nistra": 1697,
      "tr": 1698,
      "emu": 1699,
      "Ġmode": 1700,
      "mowa": 1701,
      "Ġinformacji": 1702,
      "Å¼yÄĩ": 1703,
      "Ġha": 1704,
      "Przy": 1705,
      "ĠÅĽwie": 1706,
      "muje": 1707,
      "Ġ+": 1708,
      "Ġdoku": 1709,
      "vi": 1710,
      "lie": 1711,
      ")ĊĊ": 1712,
      "Ġprzygo": 1713,
      "try": 1714,
      "Ġdobry": 1715,
      "powiada": 1716,
      "nty": 1717,
      "ĠnastÄĻp": 1718,
      "teria": 1719,
      "Ġwiel": 1720,
      "Ġpowsta": 1721,
      "ĠÅ¼ad": 1722,
      "ĠbÄĻdÄĻ": 1723,
      "Ġ?": 1724,
      "miast": 1725,
      "ĠmÅĤo": 1726,
      "gle": 1727,
      "Ġzoba": 1728,
      "Ġjeden": 1729,
      "AN": 1730,
      "Ġrazie": 1731,
      "ÂłÂł": 1732,
      "Ġki": 1733,
      "Ġpsy": 1734,
      "ĠzrobiÄĩ": 1735,
      "Ġuzy": 1736,
      "Ġopi": 1737,
      "Ġtutaj": 1738,
      "szenie": 1739,
      "Ġzde": 1740,
      "arÃ³w": 1741,
      "Ġwarun": 1742,
      "27": 1743,
      "ĠĠĠĠĠĠĠĠ": 1744,
      "80": 1745,
      "Od": 1746,
      "Ġniego": 1747,
      "lega": 1748,
      "Ġnr": 1749,
      "ĠCie": 1750,
      "ĠzwiÄħz": 1751,
      "Ġws": 1752,
      "Ġzapo": 1753,
      "Ġustawy": 1754,
      "Ġ/": 1755,
      "Ġdziewczy": 1756,
      "Ġmamy": 1757,
      "ĠwÄħ": 1758,
      "ĠchÅĤo": 1759,
      "ĠmÃ³j": 1760,
      "Ġcelu": 1761,
      "ĠpamiÄĻ": 1762,
      "dÅĤug": 1763,
      "dziÅĤ": 1764,
      "stÃ³w": 1765,
      "one": 1766,
      "Ġbiega": 1767,
      "siaj": 1768,
      "ĠzwiÄħza": 1769,
      "ĠrÄĻ": 1770,
      "gen": 1771,
      "ĠBa": 1772,
      "ĠÅº": 1773,
      "der": 1774,
      "cki": 1775,
      "ĠÅ¼ycie": 1776,
      "cyjne": 1777,
      "Â§": 1778,
      "ĠPolsce": 1779,
      "Ġsek": 1780,
      "Ġbud": 1781,
      "Ġdobre": 1782,
      "ĠwczeÅĽniej": 1783,
      "Ġwra": 1784,
      "21": 1785,
      "Ġwzro": 1786,
      "zm": 1787,
      "ĠÅ¼ycia": 1788,
      "kcji": 1789,
      "Ġlep": 1790,
      "ĠWarsza": 1791,
      "ard": 1792,
      "stÄħpi": 1793,
      "Ġzie": 1794,
      "Ġkomu": 1795,
      "ĠokreÅĽlo": 1796,
      "Ġbym": 1797,
      "Ġfinans": 1798,
      "wiek": 1799,
      "ss": 1800,
      "ĠszczegÃ³l": 1801,
      "Ġ...": 1802,
      "Ġwers": 1803,
      "nnie": 1804,
      "Ġleka": 1805,
      "Ġani": 1806,
      "Ġregu": 1807,
      "Ġlata": 1808,
      "danie": 1809,
      "ĠaÅ¼": 1810,
      "ĠktÃ³rzy": 1811,
      "Ġsamocho": 1812,
      "ĠWo": 1813,
      "lub": 1814,
      "Ġczyn": 1815,
      "wem": 1816,
      "Ġwprowa": 1817,
      "Ġjednost": 1818,
      "jÄħcej": 1819,
      "pÄĻ": 1820,
      "cem": 1821,
      "Ġstrony": 1822,
      "ten": 1823,
      "jnie": 1824,
      "Ġwszystkim": 1825,
      "tne": 1826,
      "Ġelekt": 1827,
      "ĠjakiÅĽ": 1828,
      "sek": 1829,
      "pada": 1830,
      "Ġsprzeda": 1831,
      "Ġrazy": 1832,
      "Te": 1833,
      "nami": 1834,
      "Ġnadzie": 1835,
      "ĠdÅĤugo": 1836,
      "Ġucze": 1837,
      "Ġspotka": 1838,
      "Ġbia": 1839,
      "Ġproble": 1840,
      "Ġponie": 1841,
      "ÅĤbym": 1842,
      "por": 1843,
      "liwe": 1844,
      "umie": 1845,
      "onu": 1846,
      "ĠtÅĤu": 1847,
      "ery": 1848,
      "Ġkier": 1849,
      "Ġpierwszy": 1850,
      "Ġand": 1851,
      "ÅĤej": 1852,
      "koÅĽci": 1853,
      "ler": 1854,
      "ÅĤek": 1855,
      "jcie": 1856,
      "ĠjesteÅĽ": 1857,
      "Ġraczej": 1858,
      "ic": 1859,
      "Ġona": 1860,
      "ĠLu": 1861,
      "mar": 1862,
      "Ġtakich": 1863,
      "pia": 1864,
      "Ġkontro": 1865,
      "dniej": 1866,
      "Ġnajlep": 1867,
      "ĠwaÅ¼": 1868,
      "Ġpoza": 1869,
      "tacji": 1870,
      "Ġzapew": 1871,
      "ĠdziÅĽ": 1872,
      "Ġoka": 1873,
      "Mam": 1874,
      "Ġilo": 1875,
      "ĠCz": 1876,
      "ĠJeÅĽli": 1877,
      "tej": 1878,
      "Ġpodstaw": 1879,
      "ber": 1880,
      "sc": 1881,
      "rom": 1882,
      "Ġkli": 1883,
      "ĠczÅĤowie": 1884,
      "owanych": 1885,
      "wiÄĩ": 1886,
      "Ġcha": 1887,
      "ĠÅĽwiat": 1888,
      "kol": 1889,
      "Ġprzysz": 1890,
      "26": 1891,
      "Ġcu": 1892,
      "Ġniej": 1893,
      "czone": 1894,
      "ĠjÄĻ": 1895,
      "gÅĤo": 1896,
      "ÅĽre": 1897,
      "wÄĻ": 1898,
      "are": 1899,
      "Ġdodatk": 1900,
      "70": 1901,
      "czeniu": 1902,
      "bardziej": 1903,
      "Ġostatni": 1904,
      "ĠÅ»": 1905,
      "fo": 1906,
      "Ġsen": 1907,
      "Ġdopiero": 1908,
      "stytu": 1909,
      "om": 1910,
      "pla": 1911,
      "ĠczÅĤo": 1912,
      "ym": 1913,
      "ĠoÅĽ": 1914,
      "ĠsÅĤo": 1915,
      "ĠpoczÄħtku": 1916,
      "Ġnigdy": 1917,
      "Ġkm": 1918,
      "ĠtÄĻ": 1919,
      "Ġzakresie": 1920,
      "ĠktÃ³rego": 1921,
      "ura": 1922,
      "roni": 1923,
      "ÅĦski": 1924,
      "ĠosiÄħ": 1925,
      "Ġkry": 1926,
      "Ġkre": 1927,
      "cjona": 1928,
      "29": 1929,
      "bywa": 1930,
      "Ġposiada": 1931,
      "ĠÅĽre": 1932,
      "Ġstanie": 1933,
      "moÅ¼": 1934,
      "gna": 1935,
      "Ġprzej": 1936,
      "ĠÅĽwiad": 1937,
      "Ġobie": 1938,
      "Ġpodstawie": 1939,
      "Ġzale": 1940,
      "Ġzu": 1941,
      "ĠBy": 1942,
      "gÄħ": 1943,
      "Ġwybra": 1944,
      "Ġuro": 1945,
      ".in": 1946,
      "szenia": 1947,
      "kar": 1948,
      "Ġkilku": 1949,
      "zi": 1950,
      "Ġy": 1951,
      "stnie": 1952,
      "Ġpisa": 1953,
      "liwoÅĽÄĩ": 1954,
      "wÃ³ch": 1955,
      "znacza": 1956,
      "Ġpodej": 1957,
      "cal": 1958,
      "Ġzako": 1959,
      "czka": 1960,
      "ĠokoÅĤo": 1961,
      "laz": 1962,
      "Ġpewno": 1963,
      "jÄħca": 1964,
      "dziaÅĤa": 1965,
      "Ġtaka": 1966,
      "Ġdlatego": 1967,
      "kra": 1968,
      "ntÃ³w": 1969,
      "MoÅ¼e": 1970,
      "fek": 1971,
      "Ġdom": 1972,
      "niami": 1973,
      "ĠcaÅĤy": 1974,
      "rach": 1975,
      "wane": 1976,
      "Äħd": 1977,
      "28": 1978,
      "ut": 1979,
      "kolwiek": 1980,
      "Ġpotra": 1981,
      "194": 1982,
      "ÅĤowa": 1983,
      "ble": 1984,
      "ĠjÄĻzy": 1985,
      "ĠkaÅ¼de": 1986,
      "ĠDla": 1987,
      "Ġml": 1988,
      "ĠWi": 1989,
      "Ġone": 1990,
      "jak": 1991,
      "chodzÄħ": 1992,
      "piÄĻ": 1993,
      "Ġrok": 1994,
      "ĠzaÅĤo": 1995,
      "kle": 1996,
      "Ġwspo": 1997,
      "et": 1998,
      "IA": 1999,
      "Ġofer": 2000,
      "wz": 2001,
      "Ġana": 2002,
      "lacji": 2003,
      "Ġpacj": 2004,
      "rzÄħdzenia": 2005,
      "mÄĻ": 2006,
      "owaniu": 2007,
      "ad": 2008,
      "ĠdwÃ³ch": 2009,
      "Ġzaj": 2010,
      "ĠII": 2011,
      "OW": 2012,
      "Ġopie": 2013,
      "wÄħ": 2014,
      "mienia": 2015,
      "Ġrozumie": 2016,
      "dach": 2017,
      "Wie": 2018,
      "ctwa": 2019,
      "net": 2020,
      "Ġbrzu": 2021,
      "Å¼u": 2022,
      "ÅĤoÅĽÄĩ": 2023,
      "usz": 2024,
      "Ġtytu": 2025,
      "kam": 2026,
      "czes": 2027,
      "ĠKon": 2028,
      "jÄħcym": 2029,
      "Ġpart": 2030,
      "cenia": 2031,
      "ĠnaprawdÄĻ": 2032,
      "Ġpun": 2033,
      "ĠdziÄĻki": 2034,
      "Ġrzeczy": 2035,
      "wit": 2036,
      "prac": 2037,
      "Ġl": 2038,
      "ĠzwiÄĻk": 2039,
      "Ġcieka": 2040,
      "ciem": 2041,
      "Ġmoja": 2042,
      "Ġochro": 2043,
      "ĠÅģ": 2044,
      "niku": 2045,
      "kaÄĩ": 2046,
      "ĠrozwiÄħza": 2047,
      "Ġforum": 2048,
      "rÃ³ci": 2049,
      "ĠNaj": 2050,
      "wÃ³r": 2051,
      "Ġtere": 2052,
      "Ġsty": 2053,
      "Ġprzeprowa": 2054,
      "Ġsame": 2055,
      "Ġbezpie": 2056,
      "Ġzaku": 2057,
      "ĠAl": 2058,
      "Ġwielu": 2059,
      "and": 2060,
      "mawia": 2061,
      "Ġklasy": 2062,
      "ĠwyÅĤÄħ": 2063,
      "ÅĤow": 2064,
      "Ġmusia": 2065,
      "Ġpotrzeb": 2066,
      "ĠmyÅĽli": 2067,
      "szam": 2068,
      "ĠdostÄĻp": 2069,
      "Ġnorma": 2070,
      "Ġsama": 2071,
      "tami": 2072,
      "ngu": 2073,
      "Ġot": 2074,
      "ĠchoÄĩ": 2075,
      "Ġzaczyna": 2076,
      "Ġtrening": 2077,
      "ou": 2078,
      "Pa": 2079,
      "ony": 2080,
      "cego": 2081,
      "Ġrozwo": 2082,
      "itam": 2083,
      "fnij": 2084,
      "cznoÅĽci": 2085,
      "wala": 2086,
      "ir": 2087,
      "ST": 2088,
      "198": 2089,
      "ple": 2090,
      "ĠgÃ³": 2091,
      "Ġpewnie": 2092,
      "Ġjednym": 2093,
      "Ġograni": 2094,
      "CZ": 2095,
      "Ġwyj": 2096,
      "ĠdoÅĽwiad": 2097,
      "dniu": 2098,
      "rii": 2099,
      "siÄĻcy": 2100,
      "Ġmoim": 2101,
      "Ġczasem": 2102,
      "nkÃ³w": 2103,
      "Ġwoje": 2104,
      "nÄĻtrz": 2105,
      "Art": 2106,
      "Dob": 2107,
      "ĠCofnij": 2108,
      "ministra": 2109,
      "Ġobro": 2110,
      "ĠmoÅ¼esz": 2111,
      "\".Ċ": 2112,
      "ĠmiaÅĤa": 2113,
      "Ġpora": 2114,
      "Ġtakiego": 2115,
      "Ġuzyska": 2116,
      "ndy": 2117,
      "Ġaktyw": 2118,
      "czoraj": 2119,
      "tomiast": 2120,
      "tym": 2121,
      "Ġproc": 2122,
      "âĢ¦âĢ¦": 2123,
      "nuje": 2124,
      "siÅĤ": 2125,
      "Ġdrugi": 2126,
      "Ty": 2127,
      "Ġrek": 2128,
      "Ġwiadomo": 2129,
      "Ġmini": 2130,
      "ĠjeÅ¼eli": 2131,
      "Ġzamia": 2132,
      "tyczne": 2133,
      "nicy": 2134,
      "ĠÅĤÄħ": 2135,
      "czyÅĤ": 2136,
      "iÄĻdzy": 2137,
      "ÅĦstwo": 2138,
      "nne": 2139,
      "ĠWe": 2140,
      "gii": 2141,
      "cer": 2142,
      "cieÅ¼": 2143,
      "west": 2144,
      "Ġrodza": 2145,
      "JeÅĽli": 2146,
      "Ġkonku": 2147,
      "Ġodpowiada": 2148,
      "Mi": 2149,
      "Ġbedzie": 2150,
      "Ġeg": 2151,
      "wnÄĻtrz": 2152,
      "ĠMoÅ¼e": 2153,
      "Ġprawie": 2154,
      "Wi": 2155,
      "90": 2156,
      "enera": 2157,
      "nic": 2158,
      "ĠAu": 2159,
      "ÅĤka": 2160,
      "ĠusÅĤu": 2161,
      ".p": 2162,
      "Ġprawa": 2163,
      "czony": 2164,
      "Pod": 2165,
      "Ġcharak": 2166,
      "\"Ċ": 2167,
      "kuje": 2168,
      "ĠDe": 2169,
      "--": 2170,
      "Da": 2171,
      "gry": 2172,
      "owana": 2173,
      "liza": 2174,
      "000": 2175,
      "ÅĽnia": 2176,
      "ĠMam": 2177,
      "Ġnajbardziej": 2178,
      "Ġkole": 2179,
      "man": 2180,
      "Ġwystar": 2181,
      "Ġzespo": 2182,
      "Ġuzna": 2183,
      "Ġkolo": 2184,
      "Ġska": 2185,
      "ĠPe": 2186,
      "ĠniektÃ³": 2187,
      "Ġzau": 2188,
      "tel": 2189,
      "Ġprawo": 2190,
      "ĠzostaÅĤa": 2191,
      "mula": 2192,
      "Ġpytanie": 2193,
      "Ġmoze": 2194,
      "ÅĽrÃ³d": 2195,
      "Ġkul": 2196,
      "tory": 2197,
      "cam": 2198,
      "Ġbieg": 2199,
      "ĠJest": 2200,
      "Ġdzisiaj": 2201,
      "ĠksiÄħ": 2202,
      "tyka": 2203,
      "kom": 2204,
      "bÄħ": 2205,
      "ĠogÃ³l": 2206,
      "dna": 2207,
      "Ġprzyj": 2208,
      "ĠszczÄĻ": 2209,
      "prez": 2210,
      "Ġhe": 2211,
      "ÅĽciÄħ": 2212,
      "Ġzawiera": 2213,
      "Ã³gÅĤ": 2214,
      "tion": 2215,
      "Ġmiejscu": 2216,
      "Ġloka": 2217,
      "wÃ³dz": 2218,
      "ĠGo": 2219,
      "Ġho": 2220,
      "!!!!": 2221,
      "es": 2222,
      "RA": 2223,
      "inte": 2224,
      "Ã³le": 2225,
      "ĠnapisaÅĤ": 2226,
      "spÃ³ÅĤ": 2227,
      "pisy": 2228,
      "sci": 2229,
      "ownikÃ³w": 2230,
      "ĠmaÅĤo": 2231,
      "ĠEuropej": 2232,
      "ĠzakÅĤa": 2233,
      "Dla": 2234,
      "ĠFran": 2235,
      "owymi": 2236,
      "Ġx": 2237,
      "ĠBar": 2238,
      "Ġzbyt": 2239,
      "ĠAr": 2240,
      "liÄĩ": 2241,
      "Ġzapa": 2242,
      "ĠOb": 2243,
      "Ġkart": 2244,
      "iÄħ": 2245,
      "Ġv": 2246,
      "dziaÅĤem": 2247,
      "zja": 2248,
      "jÄħcÄħ": 2249,
      "lnÄħ": 2250,
      "Ġstwier": 2251,
      "35": 2252,
      "Ġkro": 2253,
      "Ġpowinie": 2254,
      "wer": 2255,
      "ĠobowiÄħz": 2256,
      "szcz": 2257,
      "Ġszu": 2258,
      "aku": 2259,
      "Ġspoko": 2260,
      "Ġhistor": 2261,
      "miec": 2262,
      "ĠwÄĻ": 2263,
      "lami": 2264,
      "Ġostat": 2265,
      "ĠÅ¼o": 2266,
      "amie": 2267,
      "Ġpowodu": 2268,
      "ĠsÅĤa": 2269,
      "Ġtermi": 2270,
      "szyscy": 2271,
      "Ġzy": 2272,
      "Ġkieru": 2273,
      "ĠpostÄĻp": 2274,
      "Ġpomocy": 2275,
      "Ka": 2276,
      "rzÄħdza": 2277,
      "rzyÄĩ": 2278,
      "czych": 2279,
      "Ġobu": 2280,
      "Ġkoniec": 2281,
      "spe": 2282,
      "Ġtypu": 2283,
      "iel": 2284,
      "Ġciebie": 2285,
      "niesie": 2286,
      "ĠchcÄĻ": 2287,
      "Ġkompu": 2288,
      "zdy": 2289,
      "twarza": 2290,
      "Ġtakim": 2291,
      "lan": 2292,
      "Ġramach": 2293,
      "kow": 2294,
      "ĠuÅ¼ytk": 2295,
      "ĠTa": 2296,
      "siÄĻbior": 2297,
      "ĠdziaÅĤania": 2298,
      "Ġwynika": 2299,
      "rzenie": 2300,
      "km": 2301,
      "Ġelem": 2302,
      "Ġzgodnie": 2303,
      "ĠMe": 2304,
      "Ġchcesz": 2305,
      "bieg": 2306,
      "ĠPolski": 2307,
      "Ġwrze": 2308,
      "praszam": 2309,
      "stan": 2310,
      "ĠNi": 2311,
      "wki": 2312,
      "Ġpomoc": 2313,
      "iedy": 2314,
      "nienie": 2315,
      "ÅĦstw": 2316,
      "jecha": 2317,
      "jo": 2318,
      "gh": 2319,
      "Ġpara": 2320,
      "Dzie": 2321,
      "Ġzawar": 2322,
      "robi": 2323,
      "ciaÅ¼": 2324,
      "Ġ.Ċ": 2325,
      "ĠwspÃ³l": 2326,
      "ÅĽni": 2327,
      "Mu": 2328,
      "Ġplan": 2329,
      "lia": 2330,
      "Ġmak": 2331,
      "czycie": 2332,
      "Ġtrwa": 2333,
      "zw": 2334,
      "Ġener": 2335,
      "Ġkur": 2336,
      "ĠdoÅĽÄĩ": 2337,
      "Ġbli": 2338,
      "Ġdwie": 2339,
      "Ġmateria": 2340,
      "ĠwiÄĻkszo": 2341,
      "Ġ?Ċ": 2342,
      "197": 2343,
      "ciÄħg": 2344,
      "Ġmg": 2345,
      "Ġotrzyma": 2346,
      "Ġzre": 2347,
      "wyÅ¼": 2348,
      "Ġth": 2349,
      "Ġmiejsc": 2350,
      "AR": 2351,
      "Ġzwie": 2352,
      "31": 2353,
      "Ġcel": 2354,
      ").ĊĊ": 2355,
      "us": 2356,
      "Ġwraz": 2357,
      "ÅĦskiego": 2358,
      "biega": 2359,
      "Ġprzyzna": 2360,
      "zywa": 2361,
      "len": 2362,
      "ĠroÅĽli": 2363,
      "Ġstycz": 2364,
      "Ġokres": 2365,
      "las": 2366,
      "kcie": 2367,
      "ĠÅĽmier": 2368,
      "Åºdzie": 2369,
      "tuje": 2370,
      "ĠNr": 2371,
      "Ġ>": 2372,
      "suje": 2373,
      "niejsze": 2374,
      "EN": 2375,
      "Ġprogram": 2376,
      "Ġrzecz": 2377,
      "ĠSa": 2378,
      "undu": 2379,
      "Ġswoich": 2380,
      "tyki": 2381,
      "âĢĿ,": 2382,
      "iÄĻkujÄĻ": 2383,
      "podob": 2384,
      "45": 2385,
      "ĠswojÄħ": 2386,
      "Ġnajmniej": 2387,
      "dro": 2388,
      "alnie": 2389,
      "cyjnego": 2390,
      "My": 2391,
      "Ġwas": 2392,
      "Ġgro": 2393,
      "dnoÅĽci": 2394,
      ";Ċ": 2395,
      "Ġniestety": 2396,
      "Ġzdoby": 2397,
      "193": 2398,
      "ĠCiebie": 2399,
      "ĠczÄĻÅĽÄĩ": 2400,
      "Ġsztu": 2401,
      "bio": 2402,
      "Ġzdecy": 2403,
      "cjach": 2404,
      "Ġprzyja": 2405,
      "rych": 2406,
      "row": 2407,
      "wen": 2408,
      "dnak": 2409,
      "Ġorganiza": 2410,
      "Ġrynku": 2411,
      "ĠosiÄħg": 2412,
      "lony": 2413,
      "ĠwzglÄĻdu": 2414,
      "peÅĤnia": 2415,
      "lepiej": 2416,
      "Ġznale": 2417,
      "AT": 2418,
      "ĠwyÅ¼": 2419,
      "Re": 2420,
      "Ġtry": 2421,
      "nÄħÅĤ": 2422,
      "zumie": 2423,
      "Ġbrak": 2424,
      "raca": 2425,
      "owaÅ¼": 2426,
      "Ġpodmio": 2427,
      "Ġpani": 2428,
      "ver": 2429,
      "tnoÅĽci": 2430,
      "daÅĦ": 2431,
      "Ġsuper": 2432,
      "ĠtÄħ": 2433,
      "Ġdobra": 2434,
      "Ġopera": 2435,
      "cyjnej": 2436,
      "Ġarty": 2437,
      "Ġdziecko": 2438,
      "dra": 2439,
      "Ġobej": 2440,
      "Ġbadania": 2441,
      "szÅĤo": 2442,
      "Ġjaka": 2443,
      "Ġwymie": 2444,
      "ÅĤowy": 2445,
      "Ġmojej": 2446,
      "czonych": 2447,
      "ĠnastÄĻpu": 2448,
      "Ġokresie": 2449,
      "ĠCho": 2450,
      "ĠwartoÅĽci": 2451,
      "Ġwej": 2452,
      "Ġjedynie": 2453,
      "kla": 2454,
      "Ġtech": 2455,
      "Jest": 2456,
      "Ġnowe": 2457,
      "Ġdrugiej": 2458,
      "ĠduÅ¼y": 2459,
      "ĠporÃ³w": 2460,
      "Ġwypo": 2461,
      "rp": 2462,
      "Ġprawda": 2463,
      "Ġpierwsze": 2464,
      "Ġpopra": 2465,
      "Ġmiejsca": 2466,
      "amo": 2467,
      "ĠmoÅ¼liwoÅĽci": 2468,
      "tkÃ³w": 2469,
      "taÄĩ": 2470,
      "Ġwyja": 2471,
      "ton": 2472,
      "Ġâ": 2473,
      "ĠRoz": 2474,
      "Ġnale": 2475,
      "wych": 2476,
      "ĠnajwiÄĻk": 2477,
      "ĠzwiÄħzku": 2478,
      "Ġminut": 2479,
      "lka": 2480,
      "goÅĽ": 2481,
      "Ġwiec": 2482,
      "Ġkraj": 2483,
      "Ġnowo": 2484,
      "Ġitp": 2485,
      "Ġtys": 2486,
      "szczÄĻ": 2487,
      "Ġtechni": 2488,
      "Ġwyra": 2489,
      "cent": 2490,
      "ĠkoÅĦcu": 2491,
      "obec": 2492,
      "Ġwsze": 2493,
      "Ġzawod": 2494,
      "ĠprÃ³": 2495,
      "Ġoznacza": 2496,
      "ĠpiÄĻk": 2497,
      "Ġludzie": 2498,
      "By": 2499,
      "gar": 2500,
      "ĠmiaÅĤam": 2501,
      "Ġmaja": 2502,
      "ĠCa": 2503,
      "Ġfirmy": 2504,
      "ĠjakoÅĽ": 2505,
      "tycznych": 2506,
      "wego": 2507,
      "czek": 2508,
      "Ġinnego": 2509,
      "iÄĻc": 2510,
      "sli": 2511,
      "Ġprogra": 2512,
      "czeÅĽnie": 2513,
      "szczy": 2514,
      "ĠmÃ³gÅĤ": 2515,
      "Ġpoko": 2516,
      "Ġefek": 2517,
      "ĠKu": 2518,
      "Ġbio": 2519,
      "Ġzastos": 2520,
      "ĠrobiÄĩ": 2521,
      "ĠzaczÄĻ": 2522,
      "enty": 2523,
      "Ġsamym": 2524,
      "Ġistnie": 2525,
      "dio": 2526,
      "struk": 2527,
      "Ġmiasta": 2528,
      "Ġwybo": 2529,
      "ĠporzÄħd": 2530,
      "noc": 2531,
      "Cho": 2532,
      "ĠpoÅĤÄħ": 2533,
      "owarzy": 2534,
      "dzieÅĦ": 2535,
      "Ġegz": 2536,
      "Ġban": 2537,
      "Ġkocha": 2538,
      "tom": 2539,
      "czaj": 2540,
      "Ġide": 2541,
      "pozy": 2542,
      "Ġwykony": 2543,
      "ÅĤat": 2544,
      "Ġklu": 2545,
      "bud": 2546,
      "ĠuwagÄĻ": 2547,
      "Ġchoro": 2548,
      "Ġuczest": 2549,
      "Ġus": 2550,
      "cyjny": 2551,
      "01": 2552,
      "Ġwymia": 2553,
      "land": 2554,
      "Ġpunk": 2555,
      "ĠUS": 2556,
      "ciej": 2557,
      "ĠMu": 2558,
      "krÄĻ": 2559,
      "rucho": 2560,
      "Ġzmiany": 2561,
      "Ġtema": 2562,
      "Ġdwu": 2563,
      "Ġwydaje": 2564,
      "ON": 2565,
      "najmniej": 2566,
      "Ġniewie": 2567,
      "Ġsez": 2568,
      "ĠpoÅĤo": 2569,
      "nomi": 2570,
      "zwy": 2571,
      "czeÅĦstwa": 2572,
      "Ġrozwi": 2573,
      "mm": 2574,
      "Ġlip": 2575,
      "stw": 2576,
      "ĠsÅĤy": 2577,
      "Ġjakby": 2578,
      "ĠkoÅĦca": 2579,
      "Ġprzygot": 2580,
      "dziaÅĤu": 2581,
      "ĠSu": 2582,
      "biÄĻ": 2583,
      "nione": 2584,
      "ĠpiÄĻ": 2585,
      "ĠBu": 2586,
      "Ġprzewo": 2587,
      "stana": 2588,
      "sach": 2589,
      "ll": 2590,
      "ĠPi": 2591,
      "Ġmojego": 2592,
      "ĠJo": 2593,
      "ĠktÃ³rÄħ": 2594,
      "Ġwody": 2595,
      "zaleÅ¼": 2596,
      "ÅĽciej": 2597,
      "moc": 2598,
      "port": 2599,
      "Ġpierwszym": 2600,
      "dli": 2601,
      "sja": 2602,
      "75": 2603,
      "rami": 2604,
      "aa": 2605,
      "Ġskorzysta": 2606,
      "Ġapli": 2607,
      "ĠuwaÅ¼a": 2608,
      "wam": 2609,
      "Ġczerw": 2610,
      "Ġprzepis": 2611,
      "Ġzja": 2612,
      "qu": 2613,
      "Ġstara": 2614,
      "Ġklie": 2615,
      "logii": 2616,
      "uje": 2617,
      "Ġwykorzysta": 2618,
      "dopodob": 2619,
      "Ġprzedstawi": 2620,
      "Ġmeto": 2621,
      "sila": 2622,
      "Ġudzie": 2623,
      "ĠjakÄħ": 2624,
      "Ġpotwier": 2625,
      "Ġkorzysta": 2626,
      "36": 2627,
      "jÄĻcie": 2628,
      "noÅĽciÄħ": 2629,
      "cenie": 2630,
      "Ġgrudnia": 2631,
      "ÅĤkowi": 2632,
      "cznik": 2633,
      "99": 2634,
      "ĠSy": 2635,
      "ĠmuszÄĻ": 2636,
      "Ġfizy": 2637,
      "sti": 2638,
      "ĠzaczÄħ": 2639,
      "bro": 2640,
      "torÃ³w": 2641,
      "Ni": 2642,
      "Ġpozna": 2643,
      "Ġtrzyma": 2644,
      "par": 2645,
      "ĠzostaÅĤy": 2646,
      "ĠpowiedzieÄĩ": 2647,
      "Ġsytuacji": 2648,
      "au": 2649,
      "moÅ¼li": 2650,
      "Ġpowinna": 2651,
      "ĠnadziejÄĻ": 2652,
      "ĠniÄħ": 2653,
      "Ġniepo": 2654,
      "Ġpozwo": 2655,
      "Ġjakim": 2656,
      "ĠoczywiÅĽcie": 2657,
      "Ġeuro": 2658,
      "mÃ³w": 2659,
      "Ġzmienia": 2660,
      "owoÅĽci": 2661,
      "ĠksztaÅĤ": 2662,
      "ĠsprzÄĻ": 2663,
      "pol": 2664,
      "ĠbÄĻdziesz": 2665,
      "ĠGra": 2666,
      "obie": 2667,
      "ksztaÅĤ": 2668,
      "ria": 2669,
      "ĠuÅ¼ywa": 2670,
      "Ġokoli": 2671,
      "ĠciÄħgu": 2672,
      "Cz": 2673,
      "Ã³z": 2674,
      "Bo": 2675,
      "dowo": 2676,
      "ĠRady": 2677,
      "Ġswoim": 2678,
      "dko": 2679,
      "ces": 2680,
      "strzy": 2681,
      "AL": 2682,
      "Ġdzien": 2683,
      "Ġ'": 2684,
      "Ġpotrafi": 2685,
      "naczej": 2686,
      "Ġsport": 2687,
      "ĠponiewaÅ¼": 2688,
      "Witam": 2689,
      "ĠmiaÅĤem": 2690,
      "ĠkiedyÅĽ": 2691,
      "Ġnu": 2692,
      "owaÅĤa": 2693,
      "ĠogÃ³le": 2694,
      "Ġkwest": 2695,
      "mam": 2696,
      "Ġcm": 2697,
      "rtu": 2698,
      "stawia": 2699,
      "Ġswojej": 2700,
      "ĠprzedsiÄĻbior": 2701,
      "ĠdziaÅĤalnoÅĽci": 2702,
      "Li": 2703,
      "lii": 2704,
      "Ġwczoraj": 2705,
      "Ġrozwoju": 2706,
      "Ġnadal": 2707,
      "dzeniu": 2708,
      "Ġrealizacji": 2709,
      "kowe": 2710,
      "niÄĻcia": 2711,
      "Ġjednego": 2712,
      "dny": 2713,
      "lach": 2714,
      "Ġtrafi": 2715,
      "ĠSo": 2716,
      "mnia": 2717,
      "ĠukÅĤa": 2718,
      "Jestem": 2719,
      "Ġwyb": 2720,
      "=\"": 2721,
      "ĠOr": 2722,
      ":)Ċ": 2723,
      "puszcza": 2724,
      "Ġznalaz": 2725,
      "rzej": 2726,
      "Ġkraju": 2727,
      "ĠkaÅ¼dym": 2728,
      "Ġpoka": 2729,
      "Ġjednej": 2730,
      "Ġryzy": 2731,
      "jest": 2732,
      "Ġmomen": 2733,
      "dzone": 2734,
      "Ġwynosi": 2735,
      "ĠchÅĤop": 2736,
      "ĠÅĽrodkÃ³w": 2737,
      "Ġcoraz": 2738,
      "ĠBi": 2739,
      "poÅĽre": 2740,
      "wzglÄĻ": 2741,
      "Ġblo": 2742,
      "):": 2743,
      "ĠMy": 2744,
      "IN": 2745,
      "Ġadministra": 2746,
      "Ġzmniej": 2747,
      "âĢĻ": 2748,
      "piera": 2749,
      "Ġkwiet": 2750,
      "ĠsobÄħ": 2751,
      "Ġpracu": 2752,
      "Ġdokumen": 2753,
      "sh": 2754,
      "tur": 2755,
      "dnych": 2756,
      "cka": 2757,
      "ĠÅĽrodowi": 2758,
      "Ġorga": 2759,
      "czona": 2760,
      "Ġsierp": 2761,
      "ĠksiÄħÅ¼": 2762,
      "kÅĤadnie": 2763,
      "nica": 2764,
      "nowu": 2765,
      "Ġgrupy": 2766,
      "woÅĤa": 2767,
      "Ġrzu": 2768,
      "gno": 2769,
      "gina": 2770,
      "ĠudziaÅĤ": 2771,
      "Ġzim": 2772,
      "ĠpracÄĻ": 2773,
      "zdra": 2774,
      "kÄħd": 2775,
      "Ġkarty": 2776,
      "Ġmimo": 2777,
      "CH": 2778,
      "niÅĤ": 2779,
      "ĠY": 2780,
      "ĠmiesiÄĻcy": 2781,
      "ĠKomi": 2782,
      "Ġtygodniu": 2783,
      "Ġsprawa": 2784,
      "In": 2785,
      "chÃ³d": 2786,
      "Ġdowo": 2787,
      "Ġinwe": 2788,
      "Ġcos": 2789,
      "Cze": 2790,
      "500": 2791,
      ".pl": 2792,
      "><": 2793,
      "Roz": 2794,
      "jne": 2795,
      "tny": 2796,
      "Ġstrasz": 2797,
      "ownik": 2798,
      "Ġtakiej": 2799,
      "tnych": 2800,
      "Ġwskaza": 2801,
      "lki": 2802,
      "ama": 2803,
      "Åºdzier": 2804,
      "Ġszpita": 2805,
      "wej": 2806,
      "Le": 2807,
      "publi": 2808,
      "34": 2809,
      "ĠDzie": 2810,
      "ĠwÅĤo": 2811,
      "Ġprzestrze": 2812,
      "ĠwojewÃ³dz": 2813,
      "ĠgÅĤÃ³wnie": 2814,
      "Ġznajo": 2815,
      "aki": 2816,
      "syw": 2817,
      "Ġdaje": 2818,
      "cen": 2819,
      "Ġzatru": 2820,
      "lowa": 2821,
      "Ġdane": 2822,
      "Ġrobo": 2823,
      "Ġidzie": 2824,
      "ĠobsÅĤu": 2825,
      "ER": 2826,
      "ÅĤÃ³": 2827,
      "ĠrÃ³Å¼nych": 2828,
      "Ġstronie": 2829,
      "Ġpoprzez": 2830,
      "Ġisto": 2831,
      "arÃ³wno": 2832,
      "Ġgodzin": 2833,
      "Ġobraz": 2834,
      "ÅĤabym": 2835,
      "ĠTwoja": 2836,
      "ĠzajÄĻ": 2837,
      "ĠszkoÅĤy": 2838,
      "rzeÅĦ": 2839,
      "Ġskle": 2840,
      "va": 2841,
      "Ġobja": 2842,
      "chem": 2843,
      "ctwo": 2844,
      "Ġpowy": 2845,
      "tkowo": 2846,
      "150": 2847,
      "ĠLa": 2848,
      "196": 2849,
      "interes": 2850,
      "ĠwystÄĻpu": 2851,
      "szedÅĤ": 2852,
      "ron": 2853,
      "Ġlubi": 2854,
      "Ġzabi": 2855,
      "kacji": 2856,
      "les": 2857,
      "Ġwygra": 2858,
      "Ġcodzie": 2859,
      "rÃ³t": 2860,
      "rzÄħdu": 2861,
      "czyn": 2862,
      "szczegÃ³l": 2863,
      "Ġpozwala": 2864,
      "dzisz": 2865,
      "Å¼one": 2866,
      "gla": 2867,
      "Ra": 2868,
      "ĠproszÄĻ": 2869,
      "Ġkr": 2870,
      "Å¼czy": 2871,
      "ckiego": 2872,
      "Ġmas": 2873,
      "Ġcent": 2874,
      "Ġgenera": 2875,
      "Ġpotrzebu": 2876,
      "ĠwedÅĤug": 2877,
      "ĠÅĽwiecie": 2878,
      "Ġwizy": 2879,
      "Ġodpowiedzi": 2880,
      "Ġjedna": 2881,
      "Ġkontak": 2882,
      "pania": 2883,
      "Ġlisto": 2884,
      "np": 2885,
      "Ġpsycho": 2886,
      "fikacji": 2887,
      "Ġnatomiast": 2888,
      "narod": 2889,
      "ros": 2890,
      "OD": 2891,
      "ĠzakoÅĦ": 2892,
      "klu": 2893,
      "195": 2894,
      "Ġsumie": 2895,
      "zdrawiam": 2896,
      "szyÄĩ": 2897,
      "ÅºÄĩ": 2898,
      "cami": 2899,
      "nikiem": 2900,
      "ĠjednÄħ": 2901,
      "Ġpowierz": 2902,
      "Jeste": 2903,
      "Ġpowinien": 2904,
      "ĠRze": 2905,
      "Ġpopu": 2906,
      "Ġwiesz": 2907,
      "Ġdia": 2908,
      "nna": 2909,
      "Ġ<": 2910,
      "Ġprzezna": 2911,
      "Ġprzedmio": 2912,
      "Ġprez": 2913,
      "Ġprzede": 2914,
      "Ġmuzy": 2915,
      "Ġobsz": 2916,
      "ciÄħga": 2917,
      "Ġsystemu": 2918,
      "Ġmin": 2919,
      "Ġzaba": 2920,
      "Ġstycznia": 2921,
      "ĠmoÅ¼liwoÅĽÄĩ": 2922,
      "ĠpacjentÃ³w": 2923,
      "Ġrazu": 2924,
      "wienia": 2925,
      "witter": 2926,
      "lno": 2927,
      "ĠSe": 2928,
      "Ġotwar": 2929,
      "Ġswojego": 2930,
      "Ġpowinno": 2931,
      "ĠwysokoÅĽci": 2932,
      "Ġinaczej": 2933,
      "We": 2934,
      "ĠSp": 2935,
      "Ġdoty": 2936,
      "Ġ)": 2937,
      "Ġwielo": 2938,
      "tna": 2939,
      "Ġaktu": 2940,
      "Ã©": 2941,
      "Ġtreningu": 2942,
      "Ġpojawi": 2943,
      "Ġczeka": 2944,
      "nim": 2945,
      "38": 2946,
      "ĠpowiedziaÅĤ": 2947,
      "Ġszta": 2948,
      "ĠpaÅºdzier": 2949,
      "Ġkrzy": 2950,
      "Ġnocy": 2951,
      "ĠwspÃ³ÅĤpra": 2952,
      "Ġkilo": 2953,
      "ĠzaÅĽ": 2954,
      "ĠNe": 2955,
      "âĢĿ.": 2956,
      "65": 2957,
      "Ta": 2958,
      "SZ": 2959,
      "ownika": 2960,
      "lone": 2961,
      "Ġbyli": 2962,
      "ĠksiÄĻ": 2963,
      "trÃ³w": 2964,
      "Ġczer": 2965,
      "Ġple": 2966,
      "wal": 2967,
      "pierw": 2968,
      "Ġeta": 2969,
      "Ġdziw": 2970,
      "ĠprÃ³b": 2971,
      "nny": 2972,
      "nale": 2973,
      "towaÄĩ": 2974,
      "ĠiÅ¼": 2975,
      "ĠLo": 2976,
      "Ġmeta": 2977,
      "Ġmart": 2978,
      "192": 2979,
      "Ġdziecka": 2980,
      "obowiÄħ": 2981,
      "ĠPar": 2982,
      "Ġzaraz": 2983,
      "Ġwszyscy": 2984,
      "ĠskÅĤad": 2985,
      "kÃ³ÅĤ": 2986,
      "kniÄĻ": 2987,
      "ĠFi": 2988,
      "ĠcaÅĤkowi": 2989,
      "jedno": 2990,
      "ĠÂ§": 2991,
      "ĠpomiÄĻdzy": 2992,
      "Ġpogo": 2993,
      "fia": 2994,
      "ĠspÃ³ÅĤ": 2995,
      "ĠPre": 2996,
      "ĠchociaÅ¼": 2997,
      "Ġnowych": 2998,
      "czym": 2999,
      "ÅĦskiej": 3000,
      "Ġdlaczego": 3001,
      "ĠmnÄħ": 3002,
      "Ġnatura": 3003,
      "ĠJednak": 3004,
      "ĠZe": 3005,
      "syma": 3006,
      "Ġge": 3007,
      "Ġeko": 3008,
      "Ġkup": 3009,
      "ĠkupiÄĩ": 3010,
      "ĠpaÅĦstwa": 3011,
      "Ġefe": 3012,
      "ĠtakÄħ": 3013,
      "ĠJu": 3014,
      "ĠwidzÄĻ": 3015,
      "Ġzauwa": 3016,
      "zne": 3017,
      "peÅĤnie": 3018,
      "ĠwÅĤÄħ": 3019,
      "ĠwrzeÅĽnia": 3020,
      "zio": 3021,
      "wÅĤa": 3022,
      "racji": 3023,
      "Ġspowo": 3024,
      "ĠÅĽwiata": 3025,
      "Ġnajlepiej": 3026,
      "Ġtechno": 3027,
      "zn": 3028,
      "RZ": 3029,
      "Ġinnymi": 3030,
      "ĠMia": 3031,
      "wym": 3032,
      "Ġporo": 3033,
      "ĠSh": 3034,
      "Ġzabu": 3035,
      "szech": 3036,
      "Ġsuk": 3037,
      "55": 3038,
      "Ġlecz": 3039,
      "bry": 3040,
      "ĠzostaÅĤo": 3041,
      "33": 3042,
      "Ġusu": 3043,
      "Ġkomunika": 3044,
      "Ġmecha": 3045,
      "ĠporzÄħdku": 3046,
      "Ġostatnio": 3047,
      "Ġodpowiedzia": 3048,
      "?ĊĊ": 3049,
      "zmu": 3050,
      "300": 3051,
      "Ġgrze": 3052,
      "nnych": 3053,
      "szystko": 3054,
      "akÃ³w": 3055,
      "czeniem": 3056,
      "Ġzapro": 3057,
      "ĠPier": 3058,
      "Ġner": 3059,
      "owano": 3060,
      "Ġspad": 3061,
      "fer": 3062,
      "kowych": 3063,
      "ĠPu": 3064,
      "ĠbezpoÅĽre": 3065,
      "Ġtempera": 3066,
      "Ġschu": 3067,
      "ĠswÃ³j": 3068,
      "Ġtwoje": 3069,
      "Ġmln": 3070,
      "ĠsÅĤuÅ¼": 3071,
      "Ġwspar": 3072,
      "Hej": 3073,
      "Ġsm": 3074,
      "Ġczerwca": 3075,
      "zwo": 3076,
      "Ġstwo": 3077,
      "Ġponi": 3078,
      "Ġdokona": 3079,
      "Ġpierwszej": 3080,
      "Ġproblemy": 3081,
      "aru": 3082,
      "dyt": 3083,
      "Ġniemiec": 3084,
      "ÅĽle": 3085,
      "Ġpostaci": 3086,
      "Ġznowu": 3087,
      "Ġformula": 3088,
      "Ġsiedzi": 3089,
      "dzeÅĦ": 3090,
      "Naj": 3091,
      "Ġnoc": 3092,
      "lin": 3093,
      "48": 3094,
      "ĠwyjÄħ": 3095,
      "tes": 3096,
      "Ġnikt": 3097,
      "ProszÄĻ": 3098,
      "Ġskrzy": 3099,
      "fon": 3100,
      "ĠduÅ¼e": 3101,
      "ĠHa": 3102,
      "Ġtran": 3103,
      "Ġmle": 3104,
      "Ġwykorzy": 3105,
      "ÅĤama": 3106,
      "Ġdow": 3107,
      "Ġmocno": 3108,
      "listy": 3109,
      "Ġtrakcie": 3110,
      "ĠJeÅ¼eli": 3111,
      "Ġdrze": 3112,
      "Ġrano": 3113,
      "ciÄħÅ¼": 3114,
      "Ġproduk": 3115,
      "widu": 3116,
      "Ġpost": 3117,
      "Ġzobaczy": 3118,
      "ĠporÃ³wna": 3119,
      "ps": 3120,
      "owiem": 3121,
      "dla": 3122,
      "com": 3123,
      "ÄħdÅº": 3124,
      "let": 3125,
      "ĠzaleÅ¼y": 3126,
      "ĠsiÅĤ": 3127,
      "Ġskute": 3128,
      "Ġkcal": 3129,
      "Ġinny": 3130,
      "Ġanty": 3131,
      "rew": 3132,
      "dent": 3133,
      "niwer": 3134,
      "ĠBe": 3135,
      "Ġnowy": 3136,
      "obra": 3137,
      "ĠurzÄħ": 3138,
      "Ġucie": 3139,
      "Ġutwo": 3140,
      "para": 3141,
      "Å¼ony": 3142,
      "Ġper": 3143,
      "Ġzostanie": 3144,
      "Ġwypad": 3145,
      "oo": 3146,
      "Ġoj": 3147,
      "Äħc": 3148,
      "Ġokaza": 3149,
      "mal": 3150,
      "cym": 3151,
      "Ġang": 3152,
      "Ġpoziom": 3153,
      "twie": 3154,
      "Å¼yÅĤ": 3155,
      "ĠHe": 3156,
      "Äĺ": 3157,
      "AM": 3158,
      "Ġobser": 3159,
      "ĠbadaÅĦ": 3160,
      "Ġeksp": 3161,
      "Ġinnym": 3162,
      "Ġwniosku": 3163,
      "sor": 3164,
      "niach": 3165,
      "ĠbudÅ¼e": 3166,
      "Ġplu": 3167,
      "37": 3168,
      "ĉĉ": 3169,
      "ĠchÄĻ": 3170,
      "stry": 3171,
      "Ãĵ": 3172,
      "Ġbudy": 3173,
      "tkiem": 3174,
      "cznoÅĽÄĩ": 3175,
      "Ġgrani": 3176,
      "Ġmoich": 3177,
      "ÅĽmie": 3178,
      "Ġumowy": 3179,
      "Ġzainteres": 3180,
      "Ġwych": 3181,
      "dowanie": 3182,
      "Ġczyta": 3183,
      "lacje": 3184,
      "Sz": 3185,
      "iÄĻkujemy": 3186,
      "ĠNiem": 3187,
      "46": 3188,
      "ĠTu": 3189,
      "Ġstre": 3190,
      "dnich": 3191,
      "ĠzarÃ³wno": 3192,
      "owski": 3193,
      "sÅĤaw": 3194,
      "mentÃ³w": 3195,
      "Å¼na": 3196,
      "syj": 3197,
      "Å¼am": 3198,
      "miar": 3199,
      "ĠudaÅĤo": 3200,
      "grywa": 3201,
      "torem": 3202,
      "ĠusÅĤug": 3203,
      "32": 3204,
      "Ġkwo": 3205,
      "ĠHi": 3206,
      "ĠprzykÅĤad": 3207,
      "ĠgÃ³r": 3208,
      "ĠwidaÄĩ": 3209,
      "ĠrozpoczÄĻ": 3210,
      "rium": 3211,
      "ÅĦcÃ³w": 3212,
      "Ġatak": 3213,
      "Ġtek": 3214,
      "Ġpomaga": 3215,
      "zÅĤ": 3216,
      "ĠmÄĻÅ¼czy": 3217,
      "Ġterenie": 3218,
      "Ġzm": 3219,
      "Ġinternet": 3220,
      "ĠmoÅ¼emy": 3221,
      "Ġsporo": 3222,
      "Ġwyposa": 3223,
      "ĠprzecieÅ¼": 3224,
      "Ġgdyby": 3225,
      "ld": 3226,
      "ĠpowaÅ¼": 3227,
      "lona": 3228,
      "ĠmyÅĽlÄĻ": 3229,
      "cham": 3230,
      "Ġkomi": 3231,
      "Ġjutro": 3232,
      "Ġczar": 3233,
      "szki": 3234,
      "url": 3235,
      "Ġpunkt": 3236,
      "ĠpoÅĤu": 3237,
      "Ġkonkre": 3238,
      "waran": 3239,
      "Ġmoni": 3240,
      "ĠCiÄĻ": 3241,
      "Ġmaszy": 3242,
      "Ġniedo": 3243,
      "wek": 3244,
      "licza": 3245,
      "Ġprzemy": 3246,
      "Ġpoziomie": 3247,
      "Ġgmi": 3248,
      "tywa": 3249,
      "Ġface": 3250,
      "Ã³c": 3251,
      "gÃ³w": 3252,
      "Ġdal": 3253,
      "Ġsub": 3254,
      "Ġkwietnia": 3255,
      "Ġprzesta": 3256,
      "Ġwersji": 3257,
      "Ġwojny": 3258,
      "ĠwrÃ³ci": 3259,
      "Pra": 3260,
      "Ġkam": 3261,
      "ink": 3262,
      "Ġnowego": 3263,
      "czyta": 3264,
      "ĠstaÅĤo": 3265,
      "cena": 3266,
      "Ġtera": 3267,
      "gÅĤa": 3268,
      "ĠÅ¼yciu": 3269,
      "Ġdyrek": 3270,
      "grafi": 3271,
      "Ġobecnie": 3272,
      "ĠGa": 3273,
      "towy": 3274,
      "Ġoba": 3275,
      "Ġregi": 3276,
      "Ġzasila": 3277,
      "ÅĽlÄĻ": 3278,
      "ther": 3279,
      "Ġab": 3280,
      "giem": 3281,
      "ĠskÅĤada": 3282,
      "Ġsierpnia": 3283,
      "dziesz": 3284,
      "ff": 3285,
      "Ġpodoba": 3286,
      "ĠSpo": 3287,
      "Ġode": 3288,
      "dziemy": 3289,
      "Ġzwo": 3290,
      "Ġrozm": 3291,
      "Ġgodziny": 3292,
      "'a": 3293,
      "Ġlipca": 3294,
      "Ġkana": 3295,
      "ĠchciaÅĤ": 3296,
      "ĠzwyciÄĻ": 3297,
      "son": 3298,
      "Ġpor": 3299,
      "Ġdrodze": 3300,
      "ĠMini": 3301,
      "ĠÅĽwiet": 3302,
      "Ġubezpie": 3303,
      "tko": 3304,
      "Ġ@": 3305,
      "Ġznajduje": 3306,
      "Ġdecyzji": 3307,
      "Ġrodziny": 3308,
      "nera": 3309,
      "ĠprÄĻ": 3310,
      "ĠtydzieÅĦ": 3311,
      "ÅĽwiet": 3312,
      "RO": 3313,
      "sob": 3314,
      "Ġ;)": 3315,
      "Ġtzw": 3316,
      "ĠGdy": 3317,
      "(a": 3318,
      "Ġponow": 3319,
      "Ġnauczycie": 3320,
      "ĠWas": 3321,
      "Ã³wie": 3322,
      "Ġprzewi": 3323,
      "nal": 3324,
      "Ġmarca": 3325,
      "Ġrady": 3326,
      "ĠDu": 3327,
      "cjon": 3328,
      "120": 3329,
      "Ġmili": 3330,
      "dzeniem": 3331,
      "ĠpaÅĦstw": 3332,
      "Ġhand": 3333,
      "02": 3334,
      "Å¼d": 3335,
      "Ġtyp": 3336,
      "Ġdziewczyny": 3337,
      "towe": 3338,
      "cio": 3339,
      "Ġis": 3340,
      "lizacji": 3341,
      "Ġposzu": 3342,
      "Ġutrzyma": 3343,
      "Ġznaczy": 3344,
      "scie": 3345,
      "..Ċ": 3346,
      "Ġpoczu": 3347,
      "widÅĤ": 3348,
      "pienia": 3349,
      "owaniem": 3350,
      "Ġew": 3351,
      "KA": 3352,
      "Ġocze": 3353,
      "Ġwojsk": 3354,
      "Ġpoje": 3355,
      "Ġprojekt": 3356,
      "Ġosobi": 3357,
      "mery": 3358,
      "cale": 3359,
      "Ġsieci": 3360,
      "!!!": 3361,
      "67": 3362,
      "wka": 3363,
      "zjÄĻ": 3364,
      "191": 3365,
      "Ġsamego": 3366,
      "ÅĤkiem": 3367,
      "Ġzastana": 3368,
      "39": 3369,
      "Ġkonkur": 3370,
      "lina": 3371,
      "Ġmedy": 3372,
      "ĠPan": 3373,
      "tre": 3374,
      "rÃ³j": 3375,
      "ĠTeraz": 3376,
      "wany": 3377,
      "ÂłÂłÂłÂł": 3378,
      "Ġzdaniem": 3379,
      "Ġnimi": 3380,
      "ĠgÅĤu": 3381,
      "Bar": 3382,
      "Ġpojawia": 3383,
      "Ġitd": 3384,
      "grze": 3385,
      "ĠwpÅĤyw": 3386,
      "Ġprak": 3387,
      "Ġtygodni": 3388,
      "ina": 3389,
      "Ġopar": 3390,
      "Ġindy": 3391,
      "koÅĽÄĩ": 3392,
      "Ġan": 3393,
      "Ġziemi": 3394,
      "feren": 3395,
      "Ġznak": 3396,
      "Ġzni": 3397,
      "id": 3398,
      "Ġstru": 3399,
      "ĠRu": 3400,
      "ĠPO": 3401,
      "Ġzmieni": 3402,
      "Ġosobowych": 3403,
      "gnie": 3404,
      "ciÅĤ": 3405,
      "ÄĦ": 3406,
      "Ġprzypo": 3407,
      "ĠogÅĤo": 3408,
      "ĠszczegÃ³lnie": 3409,
      "chaÄĩ": 3410,
      "waj": 3411,
      "ĠFa": 3412,
      "Ġdzieje": 3413,
      "Ġbro": 3414,
      "Ġnieco": 3415,
      "ÅĤaszcza": 3416,
      "Ġlekarza": 3417,
      "Ġforma": 3418,
      "Ġtwier": 3419,
      "ĠciÄħÅ¼y": 3420,
      "ciel": 3421,
      "ĠzaleÅ¼": 3422,
      "kon": 3423,
      "ĠMie": 3424,
      "Ġwobec": 3425,
      "Ġofi": 3426,
      "08": 3427,
      "Ġzamiast": 3428,
      "diÃ³w": 3429,
      "eryka": 3430,
      "Ġupraw": 3431,
      "âĢ¢": 3432,
      "ÅĽciach": 3433,
      "Ġstand": 3434,
      "Ġzeby": 3435,
      "umer": 3436,
      "ĠkoÅĽci": 3437,
      "ĠAnd": 3438,
      "Ġprzetwarza": 3439,
      "Ġwyniku": 3440,
      "ÅĤki": 3441,
      "Ġwyna": 3442,
      "ĠdokÅĤadnie": 3443,
      "Ġpomi": 3444,
      "Ġprzyci": 3445,
      "ĠdotyczÄħce": 3446,
      "owali": 3447,
      "ĠwÅĽrÃ³d": 3448,
      "Ġpowia": 3449,
      "Ġbrz": 3450,
      "Ġwystarczy": 3451,
      "Ġoni": 3452,
      "ĠciaÅĤa": 3453,
      "Ġkalo": 3454,
      "ÅĤnie": 3455,
      "ĠTwitter": 3456,
      "Ġprawdzi": 3457,
      "44": 3458,
      "Ġprywa": 3459,
      "ĠokreÅĽla": 3460,
      "Ġwido": 3461,
      "Ġszero": 3462,
      "Ġtest": 3463,
      "Ġwyro": 3464,
      "Ġskoro": 3465,
      "Ġodci": 3466,
      "rysty": 3467,
      "85": 3468,
      "Ġprodukcji": 3469,
      "dziÅĤa": 3470,
      "ĠÅĽwiÄĻ": 3471,
      "ĠodpowiadaÅĤa": 3472,
      "Ġprojektu": 3473,
      "Ġat": 3474,
      "Ġmusisz": 3475,
      "Ġtrzech": 3476,
      "ĠkaÅ¼dego": 3477,
      "ĠzarzÄħdza": 3478,
      "âĢŀ": 3479,
      "ger": 3480,
      ",Å¼e": 3481,
      "Mar": 3482,
      "ĠÅĽmie": 3483,
      "Ġautor": 3484,
      "Ġszkole": 3485,
      "dr": 3486,
      "ĠHo": 3487,
      "ĠzostaÄĩ": 3488,
      "alne": 3489,
      "ĠÅºle": 3490,
      "godnie": 3491,
      "gach": 3492,
      "Ġprakty": 3493,
      "ĠbÅĤÄĻ": 3494,
      "ĠgÃ³ry": 3495,
      "ĠĠĠĠĠĠĠĠĠĠĠĠĠĠĠĠ": 3496,
      "Ġznacznie": 3497,
      "ĠpomocÄħ": 3498,
      "zdu": 3499,
      "pisu": 3500,
      "ĠzgÅĤo": 3501,
      "Ã³wczas": 3502,
      "pen": 3503,
      "Ġpodzie": 3504,
      "ĠTwoje": 3505,
      "Ġinformacje": 3506,
      "jny": 3507,
      "Ġtrans": 3508,
      "Ġskar": 3509,
      "Ġrza": 3510,
      "Ġodpad": 3511,
      "Ġopa": 3512,
      "Ġste": 3513,
      "niony": 3514,
      "Ġowo": 3515,
      "ĠCze": 3516,
      "ako": 3517,
      "tnego": 3518,
      "woz": 3519,
      "Ġterminie": 3520,
      "spa": 3521,
      "tnej": 3522,
      "sÅĤo": 3523,
      "ĠDy": 3524,
      "ĠnastÄĻpnie": 3525,
      "kowej": 3526,
      "DZ": 3527,
      "Ġszans": 3528,
      "Å¼ÄĻ": 3529,
      "Ġprzynajmniej": 3530,
      "ion": 3531,
      "Ġosoba": 3532,
      "Ġkwa": 3533,
      "dowaÄĩ": 3534,
      "Ġdniu": 3535,
      "pres": 3536,
      "ĠÅ¼adnych": 3537,
      "ĠÅºrÃ³d": 3538,
      "nowie": 3539,
      "tt": 3540,
      "ĠpoÅĽ": 3541,
      "Ġinwesty": 3542,
      "lik": 3543,
      "Ġinstytu": 3544,
      "Ġmieli": 3545,
      "Ġotrzy": 3546,
      "Ġsia": 3547,
      "ĠIII": 3548,
      "puÅĽci": 3549,
      "Ġoczy": 3550,
      "Ġdziedzi": 3551,
      "ĠopÅĤa": 3552,
      "sen": 3553,
      "Ġegzami": 3554,
      "rÃ³ciÄĩ": 3555,
      "ĠwyÅĤÄħcznie": 3556,
      "ĠmoÅ¼liwe": 3557,
      "Ġgatu": 3558,
      "03": 3559,
      "ft": 3560,
      "moÅ¼liwia": 3561,
      "Ġmacie": 3562,
      "Ġuko": 3563,
      "09": 3564,
      "ĠSÄħ": 3565,
      "resz": 3566,
      "Ġznajdu": 3567,
      "dziaÅĤam": 3568,
      "Ġkrwi": 3569,
      "zacja": 3570,
      "ruje": 3571,
      "Ġdysku": 3572,
      "Ġrekru": 3573,
      "ĠâĨ": 3574,
      "zasa": 3575,
      "kÃ³j": 3576,
      "Ġchwili": 3577,
      "byÅĽ": 3578,
      "ĠznaleÅºÄĩ": 3579,
      "Ġpali": 3580,
      "zujÄħ": 3581,
      "49": 3582,
      "ĠPolska": 3583,
      "ĠdziaÅĤaÅĦ": 3584,
      "nce": 3585,
      "Ġedu": 3586,
      "ĠThe": 3587,
      "ĠuwzglÄĻ": 3588,
      "lkie": 3589,
      "ĠbÄħdÅº": 3590,
      "owaÅĤem": 3591,
      "Sta": 3592,
      "Ġ=": 3593,
      "ÅĤoby": 3594,
      "plo": 3595,
      "Ġzagro": 3596,
      "Ġmor": 3597,
      "Ġhistorii": 3598,
      "bel": 3599,
      "jÄħÅĤ": 3600,
      "szek": 3601,
      "Ġdwo": 3602,
      "ĠpracownikÃ³w": 3603,
      "Ġdocho": 3604,
      "Ġogrom": 3605,
      "rÃ³cz": 3606,
      "Ġuwie": 3607,
      "ĠzdjÄĻcia": 3608,
      "Teraz": 3609,
      "Ġleczni": 3610,
      "Ġochrony": 3611,
      "Ġkandy": 3612,
      "WiÄĻc": 3613,
      "Ġbudow": 3614,
      ".)": 3615,
      "trwa": 3616,
      "Ġzle": 3617,
      "rzÄĻdu": 3618,
      "Ġintere": 3619,
      "cieli": 3620,
      "wnÄħ": 3621,
      "Ġdziennie": 3622,
      "gaÅ¼": 3623,
      "czkÄĻ": 3624,
      "Ġchu": 3625,
      "Ġmocy": 3626,
      "waÅĤy": 3627,
      "dob": 3628,
      "ĠwystÄĻp": 3629,
      "Ġwam": 3630,
      "OR": 3631,
      "ĠwiÄĻkszoÅĽÄĩ": 3632,
      "Ġodda": 3633,
      "Ġprzeka": 3634,
      "onie": 3635,
      "ee": 3636,
      "ĠpieniÄĻ": 3637,
      "ĠskÃ³": 3638,
      "kowania": 3639,
      "sport": 3640,
      "tycznej": 3641,
      "ted": 3642,
      "organi": 3643,
      "Ġ(\"": 3644,
      "ĠrÃ³Å¼ne": 3645,
      "ciska": 3646,
      "........": 3647,
      "05": 3648,
      "Ġzaka": 3649,
      "ĠczynnoÅĽci": 3650,
      "dami": 3651,
      "sne": 3652,
      "dzam": 3653,
      "ĠjesteÅĽmy": 3654,
      "ĠprowadzÄħ": 3655,
      "Ġrozgry": 3656,
      "Ġwios": 3657,
      "Ġrodzaju": 3658,
      "Ġtowarzy": 3659,
      "Ġodpowiednio": 3660,
      "ĠjakoÅĽci": 3661,
      "Ob": 3662,
      "rowi": 3663,
      "ckie": 3664,
      "Ġorganizacji": 3665,
      "ĠpunktÃ³w": 3666,
      "rzem": 3667,
      "Ġprzyczy": 3668,
      "Ġzdrowo": 3669,
      "ĠgdyÅ¼": 3670,
      "Ġpapie": 3671,
      "Ġproblemu": 3672,
      "Ġsposob": 3673,
      "Ġhu": 3674,
      "ĠpÃ³j": 3675,
      ".A": 3676,
      "400": 3677,
      "Ġwyzna": 3678,
      "lak": 3679,
      "ĠmyÅĽla": 3680,
      "Ġbior": 3681,
      "Ġkierow": 3682,
      "Ġdok": 3683,
      "Ġgu": 3684,
      "ance": 3685,
      "ĠnapÄĻ": 3686,
      "Ġtable": 3687,
      "Ġameryka": 3688,
      "Ba": 3689,
      "Ġstosuje": 3690,
      "Ġelektry": 3691,
      "ĠÅĽci": 3692,
      "ÅĦska": 3693,
      "ĠnajwaÅ¼": 3694,
      "Ġreprez": 3695,
      "ĠWÅĤa": 3696,
      "kÅĤada": 3697,
      "ĠczÅĤowiek": 3698,
      "Ġodby": 3699,
      "ĠDzi": 3700,
      "Ġrozwija": 3701,
      "Ġodno": 3702,
      "ĠRy": 3703,
      "ĠzwiÄħzane": 3704,
      "ĠcÃ³r": 3705,
      "ĠÅĤ": 3706,
      "story": 3707,
      "Ã³ki": 3708,
      "Ġprzekona": 3709,
      "ĠiloÅĽci": 3710,
      "Ġtwa": 3711,
      "skiem": 3712,
      "lacja": 3713,
      "Ġyou": 3714,
      "ĠBry": 3715,
      "Ġszuka": 3716,
      "cjami": 3717,
      "Ġprzyjem": 3718,
      "ĠwzglÄĻdem": 3719,
      "siÄĩ": 3720,
      "Ġorze": 3721,
      "tow": 3722,
      "rie": 3723,
      "Ġwieczo": 3724,
      "Ġtroche": 3725,
      "Ġwyniki": 3726,
      "duk": 3727,
      "Ġstanu": 3728,
      "kli": 3729,
      "Ġnieu": 3730,
      "Ġrzeczywi": 3731,
      "Kiedy": 3732,
      "ĠFor": 3733,
      "owoÅĽÄĩ": 3734,
      "Ġziem": 3735,
      "SP": 3736,
      "Ġuli": 3737,
      "ĠniektÃ³rych": 3738,
      "ĠniezbÄĻ": 3739,
      "moÅĽci": 3740,
      "cyjnym": 3741,
      "Ġfirm": 3742,
      "dostÄĻp": 3743,
      "pach": 3744,
      "nar": 3745,
      "04": 3746,
      "jÄħÄĩ": 3747,
      "ĠdÅĤuÅ¼": 3748,
      "ÄĻsto": 3749,
      "fil": 3750,
      "ĠRob": 3751,
      "Ġlotni": 3752,
      "sÄħ": 3753,
      "Ġwro": 3754,
      "Ġdostar": 3755,
      "ĠWil": 3756,
      "Ġzdrowia": 3757,
      "ĠpÄĻ": 3758,
      "Ġzabra": 3759,
      "tyczny": 3760,
      "ĠsprzedaÅ¼y": 3761,
      "ĠczÅĤowieka": 3762,
      "TA": 3763,
      "ÅĦskich": 3764,
      "dnim": 3765,
      "ks": 3766,
      "Ġsym": 3767,
      "Tu": 3768,
      "Ġangiel": 3769,
      "Ġzmian": 3770,
      "trza": 3771,
      "ĠrozporzÄħdzenia": 3772,
      "Ġprezy": 3773,
      "Ġgrafi": 3774,
      "Ġpowinny": 3775,
      "Ġruchu": 3776,
      "ĠpiÄħ": 3777,
      "Ġstosowania": 3778,
      "Ġstan": 3779,
      "ĠgÅĤowy": 3780,
      "line": 3781,
      "lew": 3782,
      "Ġniewy": 3783,
      "Ġmaksyma": 3784,
      "kowy": 3785,
      "lis": 3786,
      "Ġfran": 3787,
      "Ġprawdopodob": 3788,
      "waÅĤa": 3789,
      "Ġodwie": 3790,
      "Ġher": 3791,
      "Ġpolega": 3792,
      "ĠmaÅĤy": 3793,
      "68": 3794,
      "nowaÄĩ": 3795,
      "ĠzwÅĤaszcza": 3796,
      "gre": 3797,
      "twier": 3798,
      "Ġemery": 3799,
      "Ġobo": 3800,
      "Ġkonsu": 3801,
      "ĠzupeÅĤnie": 3802,
      "sÅĤy": 3803,
      "Ġzagra": 3804,
      "ĠwewnÄĻtrz": 3805,
      "spoli": 3806,
      "Ġpopular": 3807,
      "Ġdotyczy": 3808,
      "ĠumiejÄĻ": 3809,
      "ĠgdzieÅĽ": 3810,
      "Ġczasami": 3811,
      "budowa": 3812,
      "Ġgier": 3813,
      "Ġnasze": 3814,
      "ĠpaÅºdziernika": 3815,
      "Ġkandyda": 3816,
      "Ġlistopada": 3817,
      "menta": 3818,
      "Ġkolei": 3819,
      "Ġklima": 3820,
      "Ġare": 3821,
      "obowiÄħza": 3822,
      "ĠDziÄĻki": 3823,
      "Kto": 3824,
      "Ġformie": 3825,
      "Ġczemu": 3826,
      "ĠwziÄħ": 3827,
      "Ġjednostki": 3828,
      "Ġkolejne": 3829,
      "zer": 3830,
      "))": 3831,
      "ĠbezpieczeÅĦstwa": 3832,
      "ÄĨ": 3833,
      "Ġwynik": 3834,
      "guje": 3835,
      "Ġindywidu": 3836,
      "Å¼eniem": 3837,
      "Ġzasady": 3838,
      "Ġsprawy": 3839,
      "ĠposzczegÃ³l": 3840,
      "Ġdowie": 3841,
      "ĠSej": 3842,
      "wszy": 3843,
      "Å¼eniu": 3844,
      "cyjna": 3845,
      "Å¼ona": 3846,
      "ĠkrÄĻ": 3847,
      "ĠâĨĳ": 3848,
      "bur": 3849,
      "Ġwielko": 3850,
      "Ġdra": 3851,
      "Ġkomputer": 3852,
      "syte": 3853,
      "piÄĩ": 3854,
      "ĠbyÅĤam": 3855,
      "Ġmechani": 3856,
      "nnego": 3857,
      "Ġkorzy": 3858,
      "Ġkapita": 3859,
      "Ġniech": 3860,
      "Ġostatnie": 3861,
      "tycznego": 3862,
      "Ġpozytyw": 3863,
      "ĠKar": 3864,
      "Ġzabezpie": 3865,
      "gÃ³ÅĤ": 3866,
      "ĠSzko": 3867,
      "Ġzapy": 3868,
      "spraw": 3869,
      "ower": 3870,
      "Ġbyc": 3871,
      "06": 3872,
      "ÅĤach": 3873,
      "ĠmiaÅĤy": 3874,
      "Ġinsta": 3875,
      "ĠproblemÃ³w": 3876,
      "tyk": 3877,
      "US": 3878,
      "szÅĤa": 3879,
      "Ġpowierzchni": 3880,
      "NI": 3881,
      "niwersyte": 3882,
      "07": 3883,
      "95": 3884,
      "ĠczegoÅĽ": 3885,
      "Ġczuje": 3886,
      "ckiej": 3887,
      "lkoho": 3888,
      "Ġup": 3889,
      "ght": 3890,
      "ĠWarszawa": 3891,
      "nkiem": 3892,
      "dniego": 3893,
      "Ġbylo": 3894,
      "ĠsÅĤucha": 3895,
      "niÄĻcie": 3896,
      "Ġmist": 3897,
      "stwie": 3898,
      "zowa": 3899,
      "ĠÅ¼oÅĤnie": 3900,
      "simy": 3901,
      "tychczas": 3902,
      "lot": 3903,
      "Ġmodel": 3904,
      "Pe": 3905,
      "ÅĦskie": 3906,
      "Ġemo": 3907,
      "Ġzje": 3908,
      "Ġoto": 3909,
      "Ġkim": 3910,
      "krotnie": 3911,
      "zwyczaj": 3912,
      "ĠciÄĻÅ¼ko": 3913,
      "Ġtrudno": 3914,
      "47": 3915,
      "ksa": 3916,
      "patrz": 3917,
      "/Ċ": 3918,
      "ĠDob": 3919,
      "jÃ³w": 3920,
      "ame": 3921,
      "Ġwypowie": 3922,
      "lera": 3923,
      "ĠÅĽmierci": 3924,
      "wnÄħtrz": 3925,
      "ĠdÅº": 3926,
      "ngi": 3927,
      "Ġpowro": 3928,
      "twÃ³r": 3929,
      "Ġgwaran": 3930,
      "Ġstrze": 3931,
      "Ġoceny": 3932,
      "ono": 3933,
      "Ġdoj": 3934,
      "zas": 3935,
      "Ġwcale": 3936,
      "Ġprowadzi": 3937,
      "czÄĻÅĽciej": 3938,
      "Ġwarunki": 3939,
      "ning": 3940,
      "Ġtrady": 3941,
      "Lu": 3942,
      "Ġdiety": 3943,
      "arm": 3944,
      "Ġwaga": 3945,
      "dzonych": 3946,
      "Ġefekt": 3947,
      "ksy": 3948,
      "ĠsÅĤowa": 3949,
      "Ġoprac": 3950,
      "dzony": 3951,
      "ĠczujÄĻ": 3952,
      "Ġucz": 3953,
      "wro": 3954,
      "Ġnaszych": 3955,
      "szczenia": 3956,
      "Ġuczu": 3957,
      "ĠprzepisÃ³w": 3958,
      "blo": 3959,
      "ĠmojÄħ": 3960,
      "ian": 3961,
      "ĠlÄĻ": 3962,
      "ĠpieniÄħ": 3963,
      "Ġpokaza": 3964,
      "Ġpotrzeby": 3965,
      "daj": 3966,
      "ĠwaÅ¼ne": 3967,
      "ckich": 3968,
      "Ġpory": 3969,
      "Ġrozumiem": 3970,
      "rÃ³bu": 3971,
      "Ġczerwo": 3972,
      "Ġcier": 3973,
      "Ġzwykle": 3974,
      "Ġpoch": 3975,
      "ĠmiÄĻdzynarod": 3976,
      "Ġopo": 3977,
      "Ġkwali": 3978,
      "Ġtery": 3979,
      "Powie": 3980,
      "czno": 3981,
      "Ġdosko": 3982,
      "ĠstanowiÄħ": 3983,
      "ĠkÄħ": 3984,
      "kuj": 3985,
      "88": 3986,
      "Ġgrup": 3987,
      "NE": 3988,
      "Å¼eÅĦ": 3989,
      "ĠjednoczeÅĽnie": 3990,
      "Ġdoko": 3991,
      "ĠSi": 3992,
      "Dlaczego": 3993,
      "Ġzestaw": 3994,
      "ĠwÄħt": 3995,
      "ĠpostÄĻpowania": 3996,
      "ĠÄĩwiczenia": 3997,
      "ÅĽciu": 3998,
      "Ġmalu": 3999,
      "Ġgi": 4000,
      "Ġelektroni": 4001,
      "ĠNA": 4002,
      "ĠprzyjÄĻ": 4003,
      "ĠwciÄħÅ¼": 4004,
      "ĠokrÄĻ": 4005,
      "Ġkobiet": 4006,
      "Ġjakiej": 4007,
      "BÄĻ": 4008,
      "III": 4009,
      "rzuca": 4010,
      "Ġczo": 4011,
      "Ġreak": 4012,
      "Ġschud": 4013,
      "Ġenergii": 4014,
      "sla": 4015,
      "(-": 4016,
      "zÃ³w": 4017,
      "ĠUSA": 4018,
      "szaÄĩ": 4019,
      "ĠzespoÅĤu": 4020,
      "Ġpopraw": 4021,
      "Ġzadania": 4022,
      "Ġkwia": 4023,
      "ĠciÄħg": 4024,
      "ĠpomysÅĤ": 4025,
      "DziÄĻki": 4026,
      "ĠkogoÅĽ": 4027,
      "Ġwychodzi": 4028,
      "Ġtelewi": 4029,
      "Dobrze": 4030,
      "Ġserwi": 4031,
      "dnienia": 4032,
      "Ġkierunku": 4033,
      "Ġzao": 4034,
      "wienie": 4035,
      "ĠQ": 4036,
      "42": 4037,
      "ĠPor": 4038,
      "pki": 4039,
      "Ġfakt": 4040,
      "fie": 4041,
      "Ġzapewnia": 4042,
      "Ġuczestni": 4043,
      "ĠWarszawie": 4044,
      "Ġwzrost": 4045,
      "Ġsyn": 4046,
      "Ġstart": 4047,
      "toÅĽÄĩ": 4048,
      "ĠobjÄĻ": 4049,
      "ĠÅĤy": 4050,
      "JesteÅĽ": 4051,
      "Ġcwi": 4052,
      "Ġtur": 4053,
      "siej": 4054,
      "Ġdrogi": 4055,
      "ĠwÃ³wczas": 4056,
      "ĠszczÄĻÅĽcie": 4057,
      "ÄħÅ¼": 4058,
      "torium": 4059,
      "Ġuch": 4060,
      "Ġkatego": 4061,
      "Ġprofe": 4062,
      "Ġstrate": 4063,
      "owu": 4064,
      "tencja": 4065,
      "Ġokazji": 4066,
      ".:": 4067,
      "Ġchi": 4068,
      "ego": 4069,
      "ĠÅĤo": 4070,
      "zosta": 4071,
      "ĠjeÅĽÄĩ": 4072,
      "ĠkaÅ¼dej": 4073,
      "jach": 4074,
      "Ġtar": 4075,
      "Ġmm": 4076,
      "Ġprogramu": 4077,
      "Ġother": 4078,
      "ĠPrzed": 4079,
      "lta": 4080,
      "zda": 4081,
      "Ġ;)Ċ": 4082,
      "kaj": 4083,
      "ĠznÃ³w": 4084,
      "__": 4085,
      "Ġpy": 4086,
      "Ġleczenia": 4087,
      "Ġwraca": 4088,
      "**": 4089,
      "iaÅĤa": 4090,
      "PS": 4091,
      "Ġpodobnie": 4092,
      "Ġproduktu": 4093,
      "Ġodchu": 4094,
      "Ġzawodni": 4095,
      "Ġfilm": 4096,
      "ĠponiÅ¼ej": 4097,
      "ownie": 4098,
      "66": 4099,
      "emi": 4100,
      "Ġnasi": 4101,
      "mii": 4102,
      "ĠgÅĤÄĻ": 4103,
      "Ġodczu": 4104,
      "Ġnogi": 4105,
      "ĠmÃ³w": 4106,
      "Ġjazdy": 4107,
      "Ġdora": 4108,
      "ĠzadaÅĦ": 4109,
      "ium": 4110,
      "Ġtygodnie": 4111,
      "zwa": 4112,
      "dzono": 4113,
      "Gdy": 4114,
      "ĠKiedy": 4115,
      "Ġreklam": 4116,
      "nionych": 4117,
      "ram": 4118,
      "Ġautoma": 4119,
      "âĢĤ": 4120,
      "Ġludz": 4121,
      "waÅ¼a": 4122,
      "Ġmomencie": 4123,
      "kowego": 4124,
      "codaw": 4125,
      "eli": 4126,
      "ĠchwilÄĻ": 4127,
      "ĠsiÅĤy": 4128,
      "ĠproduktÃ³w": 4129,
      "deÅĤ": 4130,
      "Ġnazwi": 4131,
      "Ġsio": 4132,
      "ĠcaÅĤÄħ": 4133,
      "Ġpozycji": 4134,
      "czeni": 4135,
      "Ġzwyk": 4136,
      "Spo": 4137,
      "ĠiloÅĽÄĩ": 4138,
      "dowy": 4139,
      "ĠbÄĻdziemy": 4140,
      "Ġkobiety": 4141,
      "dom": 4142,
      "Ġartyku": 4143,
      "ĠposiÅĤ": 4144,
      "Ġwin": 4145,
      "ĠSam": 4146,
      "Ġkos": 4147,
      "Ġen": 4148,
      "dziaÅĤy": 4149,
      "Gdzie": 4150,
      "Ġwysy": 4151,
      "Ġnazywa": 4152,
      "rzwi": 4153,
      "Ġstosunku": 4154,
      "ĠGe": 4155,
      "zje": 4156,
      "Ġlutego": 4157,
      "trzeb": 4158,
      "Ġfe": 4159,
      "Ġzwro": 4160,
      "lim": 4161,
      "ĠDlatego": 4162,
      "ĠmiaÅĤo": 4163,
      "âĢ¦âĢ¦âĢ¦âĢ¦": 4164,
      "Ġpierwszego": 4165,
      "Ġsamej": 4166,
      "AC": 4167,
      "gor": 4168,
      "stawy": 4169,
      "WÅĤa": 4170,
      "ĠszczegÃ³lnoÅĽci": 4171,
      "Åºnie": 4172,
      "ÅĤÄħd": 4173,
      "ĠpomÃ³c": 4174,
      "pii": 4175,
      "tkÄĻ": 4176,
      "ĠtÅĤuma": 4177,
      "Dzi": 4178,
      "cÅĤa": 4179,
      "IT": 4180,
      "ĠPoli": 4181,
      "ĠskoÅĦczy": 4182,
      "ĠFundu": 4183,
      "Ġstrasznie": 4184,
      "wÃ³w": 4185,
      "form": 4186,
      "ĠGru": 4187,
      "ÅĦskim": 4188,
      "ĠdotyczÄħcych": 4189,
      "tyj": 4190,
      "ĠstÄħd": 4191,
      "Ġlekarz": 4192,
      "tnoÅĽÄĩ": 4193,
      "ĠÅĤatwo": 4194,
      "Ġtow": 4195,
      "rob": 4196,
      "Ġprzekaza": 4197,
      "ĠiÅĽÄĩ": 4198,
      "krzy": 4199,
      "daje": 4200,
      "Ġuszko": 4201,
      "Ġbizne": 4202,
      "ĠCar": 4203,
      "Ġstopni": 4204,
      "Ġzacho": 4205,
      "Ġadres": 4206,
      "DziÄĻkujÄĻ": 4207,
      "Ġnumer": 4208,
      "czyli": 4209,
      "Ġprzer": 4210,
      "szczenie": 4211,
      "Ġwsta": 4212,
      "ĠcaÅĤej": 4213,
      "Ġdem": 4214,
      "Ġseku": 4215,
      "dej": 4216,
      "Ġpas": 4217,
      "]Ċ": 4218,
      "Å¼Äħda": 4219,
      "Ġ:(": 4220,
      "Ġobni": 4221,
      "gan": 4222,
      "Ġliczby": 4223,
      "ĠOsta": 4224,
      "jÄħcymi": 4225,
      "czem": 4226,
      "niejszy": 4227,
      "Åľ": 4228,
      "ĠmaÅĤ": 4229,
      "Ġzadowo": 4230,
      "jna": 4231,
      "bili": 4232,
      "ĠdruÅ¼y": 4233,
      "Ġanali": 4234,
      "Ġruch": 4235,
      "ĠmiesiÄħc": 4236,
      "ĠcaÅĤe": 4237,
      "jona": 4238,
      "ote": 4239,
      "dzaÄĩ": 4240,
      "spie": 4241,
      "Ġcharaktery": 4242,
      "mnie": 4243,
      "nko": 4244,
      "ĠchcÄħ": 4245,
      "Ġspokojnie": 4246,
      "fikowa": 4247,
      "mieniu": 4248,
      "Ġpana": 4249,
      "ĠcaÅĤkiem": 4250,
      "dyn": 4251,
      "szczu": 4252,
      "wanych": 4253,
      "ĠwartoÅĽÄĩ": 4254,
      "Ġwybiera": 4255,
      "stoÅĽci": 4256,
      "Ġliczba": 4257,
      "Ġleki": 4258,
      "ill": 4259,
      "glÄħd": 4260,
      "ĠÅ»y": 4261,
      "ĠciÄħgle": 4262,
      "ĠSer": 4263,
      "Ġwarzy": 4264,
      "Ġzbior": 4265,
      "ĠJan": 4266,
      "190": 4267,
      "Ġresz": 4268,
      "wnie": 4269,
      "ĠzamÃ³wie": 4270,
      "cm": 4271,
      "Ġpolskich": 4272,
      "stki": 4273,
      "Ġpolecam": 4274,
      "finans": 4275,
      "ĠSto": 4276,
      "ĠTylko": 4277,
      "usza": 4278,
      "iÄĩ": 4279,
      "snÄħ": 4280,
      "Ġkontroli": 4281,
      "fy": 4282,
      "Ġobia": 4283,
      "Ġserii": 4284,
      "ĠrÃ³Å¼ni": 4285,
      "waniu": 4286,
      "Ġreje": 4287,
      "urat": 4288,
      "Wiem": 4289,
      "Ġocho": 4290,
      "tal": 4291,
      "Ġewentu": 4292,
      "Ġuczni": 4293,
      "ĠUE": 4294,
      "prawie": 4295,
      "lanie": 4296,
      "wana": 4297,
      "Ġtymi": 4298,
      "ĠobciÄħ": 4299,
      "ĠrzÄħd": 4300,
      "kracza": 4301,
      "lania": 4302,
      "dnym": 4303,
      "Go": 4304,
      "64": 4305,
      "ED": 4306,
      "ed": 4307,
      "ant": 4308,
      "Ġsygna": 4309,
      "Tylko": 4310,
      "Ġciep": 4311,
      "kowaÄĩ": 4312,
      "gia": 4313,
      "Ġalkoho": 4314,
      "Bardzo": 4315,
      "Ġjo": 4316,
      "KI": 4317,
      "ĠNarod": 4318,
      "ĠBra": 4319,
      "dziel": 4320,
      "miany": 4321,
      "ĠlubiÄĻ": 4322,
      "Ġostate": 4323,
      "Masz": 4324,
      "gÃ³": 4325,
      "\")": 4326,
      "ĠmaÅĤe": 4327,
      "Ġkonty": 4328,
      "dak": 4329,
      "Ġogro": 4330,
      "lika": 4331,
      "'s": 4332,
      "ĠShare": 4333,
      "Ġdr": 4334,
      "toÅĽci": 4335,
      "NA": 4336,
      "czyÅĤa": 4337,
      "Ġnaszej": 4338,
      "fini": 4339,
      "ĠdoÅĤÄħ": 4340,
      "ĠSzcze": 4341,
      "PO": 4342,
      "Ġwspiera": 4343,
      "ĠpowtÃ³": 4344,
      "Ġostro": 4345,
      "Ġstruktu": 4346,
      "dniczÄħ": 4347,
      "Ġfan": 4348,
      "ĠwiÄħ": 4349,
      "Ġpostanowi": 4350,
      "Ġopisa": 4351,
      "tere": 4352,
      "Ġnaszym": 4353,
      "Ġas": 4354,
      "mienie": 4355,
      "ĠJego": 4356,
      "skÃ³w": 4357,
      "ĠzobowiÄħza": 4358,
      "Ġekonomi": 4359,
      "Ġodzy": 4360,
      "Ġinten": 4361,
      "57": 4362,
      "ĠurzÄħdzenia": 4363,
      "onÃ³w": 4364,
      "ĠbyÅĤem": 4365,
      "kor": 4366,
      "Ġplanu": 4367,
      "Ã¡": 4368,
      "Ġstary": 4369,
      "DziÄĻkujemy": 4370,
      "pek": 4371,
      "Ġznam": 4372,
      "180": 4373,
      "Ġmiasto": 4374,
      "gru": 4375,
      "sÄĻ": 4376,
      "pospoli": 4377,
      "ĠPio": 4378,
      "Ġfaktycznie": 4379,
      "szone": 4380,
      "wans": 4381,
      "Ġdi": 4382,
      "ĠmuszÄħ": 4383,
      "cyjnÄħ": 4384,
      "Ġpowiem": 4385,
      "JuÅ¼": 4386,
      "Ġzga": 4387,
      "Pier": 4388,
      "towych": 4389,
      "Ġzi": 4390,
      "pow": 4391,
      "przed": 4392,
      "niec": 4393,
      "Ġsites": 4394,
      "Ġczwar": 4395,
      "zacjÄĻ": 4396,
      "Ġ!": 4397,
      "strzega": 4398,
      "Ġuwagi": 4399,
      "Ġakurat": 4400,
      "Ġrolni": 4401,
      "dzania": 4402,
      "Dobra": 4403,
      "sam": 4404,
      "Ġpodkre": 4405,
      "ĠparÄĻ": 4406,
      "nÄĻÅĤa": 4407,
      "Ġakcji": 4408,
      "ĠmogÅĤa": 4409,
      "Ġlepsze": 4410,
      "ĠInter": 4411,
      "Ġbran": 4412,
      "Ġserca": 4413,
      "ĠokreÅĽlonych": 4414,
      "Ġponownie": 4415,
      "logia": 4416,
      "dzin": 4417,
      "Ġcodziennie": 4418,
      "ĠPla": 4419,
      "Ġzaa": 4420,
      "tyczna": 4421,
      "Ġdoprowa": 4422,
      "ĠSte": 4423,
      "piÄħ": 4424,
      "ĠzewnÄĻtrz": 4425,
      "Ġdrugim": 4426,
      "Ġwniosek": 4427,
      "CzeÅĽÄĩ": 4428,
      "turze": 4429,
      "szystkie": 4430,
      "Ġpojem": 4431,
      "prawy": 4432,
      "waÅĤo": 4433,
      "Pozdrawiam": 4434,
      "Ġtyg": 4435,
      "Ġceny": 4436,
      "ĠStra": 4437,
      "Ġlinii": 4438,
      "Ġmoge": 4439,
      "Ġzali": 4440,
      "wiera": 4441,
      "Ġuzu": 4442,
      "ĠspeÅĤnia": 4443,
      "Hi": 4444,
      "Ġwyboru": 4445,
      "bija": 4446,
      "cznymi": 4447,
      "ĠnastÄħpi": 4448,
      "Ġhistory": 4449,
      "ĠspÄĻ": 4450,
      "ĠCe": 4451,
      "Åºni": 4452,
      "ĠdziaÅĤalnoÅĽÄĩ": 4453,
      "vo": 4454,
      "ĠrozwÃ³j": 4455,
      "stych": 4456,
      "250": 4457,
      "Ġstudia": 4458,
      "Ġdawki": 4459,
      "ĠXV": 4460,
      "Å¼dy": 4461,
      "bor": 4462,
      "Ġdotychczas": 4463,
      "58": 4464,
      "Ġfrancu": 4465,
      "Ġwiek": 4466,
      "nor": 4467,
      "sona": 4468,
      "zyn": 4469,
      "War": 4470,
      "Wo": 4471,
      "ĠstronÄĻ": 4472,
      "GO": 4473,
      "ĠgrÄĻ": 4474,
      "Ġkolejny": 4475,
      "ĠMicha": 4476,
      "rÄĻb": 4477,
      "ĠpieniÄħdze": 4478,
      "SR": 4479,
      "69": 4480,
      "ĠCent": 4481,
      "Ġjakich": 4482,
      "Ġostatnich": 4483,
      "jnych": 4484,
      "Przepraszam": 4485,
      "ĠmieszkaÅĦcÃ³w": 4486,
      "gne": 4487,
      "Ġnami": 4488,
      "imi": 4489,
      "Ġgwia": 4490,
      "Ġostatnim": 4491,
      "Ġrozmawia": 4492,
      "ĠXX": 4493,
      "prawia": 4494,
      "kierowa": 4495,
      "owaÅĤy": 4496,
      "Chcia": 4497,
      "dowych": 4498,
      "Å»y": 4499,
      "Ġprodukt": 4500,
      "Ġutrzy": 4501,
      "ĠzespÃ³ÅĤ": 4502,
      "Ġwyka": 4503,
      "Su": 4504,
      "Ġbry": 4505,
      "kÅĤadzie": 4506,
      "Ġpotencja": 4507,
      "Ġgor": 4508,
      "mg": 4509,
      "Ġkomple": 4510,
      "Ġjem": 4511,
      "ĠumoÅ¼liwia": 4512,
      "Ġprzeciwko": 4513,
      "Ġnierucho": 4514,
      "ĠÅĽredni": 4515,
      "....Ċ": 4516,
      "rzeÄĩ": 4517,
      "Ġobsza": 4518,
      "Ġwalki": 4519,
      "Ġorganizm": 4520,
      "del": 4521,
      "jmy": 4522,
      "owaÅĤam": 4523,
      "Ġham": 4524,
      "Ġsukce": 4525,
      "Ġniedzie": 4526,
      "77": 4527,
      "ĠOczywiÅĽcie": 4528,
      "Ġnajpierw": 4529,
      "Ġrobisz": 4530,
      "Ġpraca": 4531,
      "Ġfajnie": 4532,
      "hy": 4533,
      "ĠtytuÅĤu": 4534,
      "Ġzanim": 4535,
      "ĠwraÅ¼enie": 4536,
      "ĠpÃ³ÅĤnoc": 4537,
      "59": 4538,
      "Ġpocho": 4539,
      "Ġpodlega": 4540,
      "Ġtrosz": 4541,
      "ĠFo": 4542,
      "Ġkola": 4543,
      "ĠAn": 4544,
      "Ġzatrzyma": 4545,
      "ĠniezaleÅ¼": 4546,
      "Ġtygodnia": 4547,
      "Ġporu": 4548,
      "Ġmax": 4549,
      "Ġpropozy": 4550,
      "leko": 4551,
      "mujÄħ": 4552,
      "ĠEuropejskiego": 4553,
      "ĠradÄĻ": 4554,
      "ĠwiedzieÄĩ": 4555,
      "Ġnasz": 4556,
      "tnym": 4557,
      "De": 4558,
      "Ġzagrani": 4559,
      "ĠroÅĽlin": 4560,
      "ust": 4561,
      "AS": 4562,
      "nom": 4563,
      "Ġobli": 4564,
      "ktÃ³re": 4565,
      "rys": 4566,
      "zem": 4567,
      "rea": 4568,
      "dyna": 4569,
      "wiÅĤ": 4570,
      "Ġnaszego": 4571,
      "ĠNiestety": 4572,
      "Ġcen": 4573,
      "uu": 4574,
      "dÅĤa": 4575,
      "ĠmiesiÄħce": 4576,
      "Ġfunkcjon": 4577,
      "ĠzmieniÄĩ": 4578,
      "denta": 4579,
      "letni": 4580,
      "ĠpowyÅ¼ej": 4581,
      "denty": 4582,
      "ĠzdjÄĻ": 4583,
      "gatyw": 4584,
      "dki": 4585,
      "ĠdziaÅĤanie": 4586,
      "ĠJestem": 4587,
      "wio": 4588,
      "ÅĦstwie": 4589,
      "Ġsilnik": 4590,
      "ĠzobaczyÄĩ": 4591,
      "ĠzÅĤa": 4592,
      "Ġpsychi": 4593,
      "Ġpublicznych": 4594,
      "ĠAng": 4595,
      "Ġtor": 4596,
      "ĠgÅĤos": 4597,
      "Ġprzyda": 4598,
      "Ġul": 4599,
      "Ġwykorzysty": 4600,
      "Ġzbli": 4601,
      "Ġoferty": 4602,
      "ĠodpadÃ³w": 4603,
      "Ġoczeki": 4604,
      "ĠimiÄĻ": 4605,
      "ĠWiel": 4606,
      "szem": 4607,
      "ĠLink": 4608,
      "Ġwzrostu": 4609,
      "Ġpoziomu": 4610,
      "Ġplus": 4611,
      "szpa": 4612,
      "LE": 4613,
      "ĠpoÅ¼y": 4614,
      "Ġwiedzy": 4615,
      "zÄĻ": 4616,
      "Ġprzesz": 4617,
      "Ġwchodzi": 4618,
      "jekt": 4619,
      "ĠstudiÃ³w": 4620,
      "Ġnormalnie": 4621,
      "ownicy": 4622,
      "Ġbowiem": 4623,
      "ĠzwiÄħzanych": 4624,
      "Ġstabi": 4625,
      "owaÅĦ": 4626,
      "ĠmÅĤody": 4627,
      "ĠobsÅĤugi": 4628,
      "ĠBan": 4629,
      "przez": 4630,
      "Ġpia": 4631,
      "dnego": 4632,
      "Gra": 4633,
      "ya": 4634,
      "niejszych": 4635,
      "Ġgminy": 4636,
      "Ġbraku": 4637,
      "ĠwystÄħpi": 4638,
      "ĠsamochÃ³d": 4639,
      "Ġow": 4640,
      "Ġeduka": 4641,
      "ĠTra": 4642,
      "ĠbyÅĤoby": 4643,
      "Ġglo": 4644,
      "Ġscena": 4645,
      "ĠmusiaÅĤ": 4646,
      "strukcji": 4647,
      "Ġmogli": 4648,
      "ĠjakaÅĽ": 4649,
      "Chyba": 4650,
      "Ca": 4651,
      "ĠÅļwia": 4652,
      "Ġseria": 4653,
      "owac": 4654,
      "padek": 4655,
      "Ġtelefon": 4656,
      "pak": 4657,
      "/><": 4658,
      "nawi": 4659,
      "ĠSejmu": 4660,
      "rzyÅĤ": 4661,
      "41": 4662,
      "Ġpanie": 4663,
      "toli": 4664,
      "Ġproces": 4665,
      "Ġwydaj": 4666,
      "liny": 4667,
      "ĠbraÄĩ": 4668,
      "Kon": 4669,
      "Ġwg": 4670,
      "pÃ³w": 4671,
      "styczne": 4672,
      "Ġnarod": 4673,
      "ime": 4674,
      "ĠdaÄĩ": 4675,
      "dal": 4676,
      "ĠkosztÃ³w": 4677,
      "wien": 4678,
      "terze": 4679,
      "ĠprawidÅĤ": 4680,
      "Ġniko": 4681,
      "pto": 4682,
      "wicz": 4683,
      "rty": 4684,
      "ĠstÄĻ": 4685,
      "dera": 4686,
      "ĠrobiÄĻ": 4687,
      "ĠszczegÃ³ÅĤ": 4688,
      "ĠpoÅĽwiÄĻ": 4689,
      "Ġzmar": 4690,
      "end": 4691,
      "Ġkonkuren": 4692,
      "wolu": 4693,
      "ĠBardzo": 4694,
      "ĠwarunkÃ³w": 4695,
      "ĠwiÄĻkszoÅĽci": 4696,
      "Ġsubstan": 4697,
      "dnÄħ": 4698,
      "owskiego": 4699,
      "Ġmodelu": 4700,
      "Ġregular": 4701,
      "Ġeuropej": 4702,
      "Ġpopro": 4703,
      "43": 4704,
      "Ġzakresu": 4705,
      "scypli": 4706,
      "Ġdzisiej": 4707,
      "Ġzada": 4708,
      "Ġteor": 4709,
      "KO": 4710,
      "Ġur": 4711,
      "Ġcena": 4712,
      "sle": 4713,
      "kowanie": 4714,
      "Ġzasad": 4715,
      "Ġmama": 4716,
      "mer": 4717,
      "Ġcywi": 4718,
      "rol": 4719,
      "Ġwyraz": 4720,
      "Ġboli": 4721,
      "PU": 4722,
      "Ġefekty": 4723,
      "zyg": 4724,
      "ĠtytuÅĤ": 4725,
      "ĠÅĽcia": 4726,
      "Ġprzyro": 4727,
      "ĠĠĠ": 4728,
      "Ġarchi": 4729,
      "Ġstatu": 4730,
      "fu": 4731,
      "ĠBer": 4732,
      "ot": 4733,
      "Ġpozwoli": 4734,
      "Ġblisko": 4735,
      "Ġinnej": 4736,
      "ecnie": 4737,
      "ĠUnii": 4738,
      "ota": 4739,
      "Ġboga": 4740,
      "gni": 4741,
      "Ġnowa": 4742,
      "ĠwspÃ³ÅĤpracy": 4743,
      "ĠposÅĤu": 4744,
      "ĠcaÅĤym": 4745,
      "liÅĽcie": 4746,
      "Ġkolejnych": 4747,
      "dzona": 4748,
      "siu": 4749,
      "Ġodkry": 4750,
      "ĠPoza": 4751,
      "ĠrÃ³wno": 4752,
      "Ġbede": 4753,
      "Ġprzepisy": 4754,
      "Ġstopniu": 4755,
      "ĠzapÅĤa": 4756,
      "skar": 4757,
      "Ġzbiera": 4758,
      "Å¼ar": 4759,
      "ĠmieÅĽcie": 4760,
      "stka": 4761,
      "Ġbiegu": 4762,
      "Ġcztery": 4763,
      "CI": 4764,
      "ine": 4765,
      "Ġdieta": 4766,
      "Ġprzo": 4767,
      "Ġsprawia": 4768,
      "Ġex": 4769,
      "Ġistnieje": 4770,
      "ĠwiÄĻksze": 4771,
      "fra": 4772,
      "cina": 4773,
      "ĠdoÅĽwiadczenia": 4774,
      "wska": 4775,
      "RE": 4776,
      "Ġweek": 4777,
      "ckim": 4778,
      "lon": 4779,
      "Ġwynagro": 4780,
      "kwi": 4781,
      "orÃ³w": 4782,
      "rowo": 4783,
      "jciec": 4784,
      "ĠjÄĻzyka": 4785,
      "ĠMinister": 4786,
      "wÃ³d": 4787,
      "ĠzaleÅ¼noÅĽci": 4788,
      "ĠcaÅĤego": 4789,
      ".o": 4790,
      "Ġutra": 4791,
      "Ġwytrzyma": 4792,
      "kowi": 4793,
      "Wiesz": 4794,
      "rki": 4795,
      "dziale": 4796,
      "ĠBez": 4797,
      "Ġreli": 4798,
      "Å¼em": 4799,
      "toria": 4800,
      "Ġduzo": 4801,
      "Ġznaczenie": 4802,
      "obi": 4803,
      "Ġnajbli": 4804,
      "Ġnagro": 4805,
      "Ġmozna": 4806,
      "Ġubra": 4807,
      "woje": 4808,
      "ĠprzeÅĤo": 4809,
      "Mia": 4810,
      "Ġbit": 4811,
      "nnej": 4812,
      "ĠAd": 4813,
      "Ġkamie": 4814,
      "kowane": 4815,
      "Ġwystarcza": 4816,
      "Ġpiersi": 4817,
      "Ġtwar": 4818,
      "Ġbru": 4819,
      "Ġwspania": 4820,
      "Ġkomenta": 4821,
      "----": 4822,
      "cra": 4823,
      "Ġnowej": 4824,
      "56": 4825,
      "ĠÐ": 4826,
      "Ġwieczorem": 4827,
      "ĠmaÅĤa": 4828,
      "Ġbrzuch": 4829,
      "ĠKrÃ³": 4830,
      "Ġwiecej": 4831,
      "moÅ¼e": 4832,
      "Ġlitera": 4833,
      "chowy": 4834,
      "ĠnajwyÅ¼": 4835,
      "Ġfina": 4836,
      "niona": 4837,
      "wski": 4838,
      "krywa": 4839,
      "pem": 4840,
      "ĠBie": 4841,
      "ĠPozna": 4842,
      "Nic": 4843,
      "ĠnapiÄĻ": 4844,
      "Ġobok": 4845,
      "turÄĻ": 4846,
      "nieÅĽÄĩ": 4847,
      ".),": 4848,
      "ĠpoÅĽre": 4849,
      "Ġpropo": 4850,
      "torze": 4851,
      "dÅĤem": 4852,
      "owaÅĤo": 4853,
      "ĠpamiÄĻtam": 4854,
      "Ġpolu": 4855,
      "ĠFe": 4856,
      "Ġauta": 4857,
      "Ġpytania": 4858,
      "Ġnadzieje": 4859,
      "78": 4860,
      "BA": 4861,
      "ĠrodzicÃ³w": 4862,
      "rabia": 4863,
      "ww": 4864,
      "Ġpal": 4865,
      "ĠtwÃ³j": 4866,
      "ĠumiejÄĻtnoÅĽci": 4867,
      "ĠEuropejskiej": 4868,
      "rÄĻcz": 4869,
      "Ġniemal": 4870,
      "peÅĤno": 4871,
      "ĠpodÅĤo": 4872,
      "ĠAmery": 4873,
      "spi": 4874,
      "Ġpraktycznie": 4875,
      "ciela": 4876,
      "Ġuz": 4877,
      "ĠoglÄħda": 4878,
      "Ġzain": 4879,
      "NIE": 4880,
      "czyc": 4881,
      "mor": 4882,
      "Ġuzasa": 4883,
      "ls": 4884,
      "ĠrzÄħ": 4885,
      "jÄħco": 4886,
      "ĠGre": 4887,
      "ĠSie": 4888,
      "ts": 4889,
      "Ġdynami": 4890,
      "ĠukÅĤadu": 4891,
      "gli": 4892,
      "ĠWÅĤo": 4893,
      "ĠnajczÄĻÅĽciej": 4894,
      "Ġpierwszych": 4895,
      "Ġwywo": 4896,
      "Ġwarunkach": 4897,
      "Ġdzis": 4898,
      "Ġben": 4899,
      "ÅĽwiadczenie": 4900,
      "ĠpoÅĤowie": 4901,
      "ĠjakiegoÅĽ": 4902,
      "ĠKra": 4903,
      "rygina": 4904,
      "ĠChi": 4905,
      "ĠtobÄħ": 4906,
      "160": 4907,
      "kur": 4908,
      "ĠnaleÅ¼Äħ": 4909,
      "???": 4910,
      "noszÄħ": 4911,
      "Ġniniej": 4912,
      "Ġdyspo": 4913,
      "czono": 4914,
      "zes": 4915,
      "Ġnegatyw": 4916,
      "ĠjakÄħÅĽ": 4917,
      "alnych": 4918,
      "Ġsamolo": 4919,
      "armo": 4920,
      "Å¼onych": 4921,
      "ĠGÅĤÃ³w": 4922,
      "ĠwyÅ¼ej": 4923,
      "Ġspi": 4924,
      "ĠKrzy": 4925,
      "Sy": 4926,
      "ĠzajÄĻÄĩ": 4927,
      "Ġprzygotowa": 4928,
      "Ġlekko": 4929,
      "Ġoficja": 4930,
      "ĠXI": 4931,
      "Ġzacze": 4932,
      "jaw": 4933,
      ".....": 4934,
      "akÅĤa": 4935,
      "ĠchciaÅĤbym": 4936,
      "pieÅĦ": 4937,
      "ĠcaÅĤkowicie": 4938,
      "Ġref": 4939,
      "\"/><": 4940,
      "Ġelement": 4941,
      "ĠnarzÄĻ": 4942,
      "ĠsamochodÃ³w": 4943,
      "chaj": 4944,
      "Ġdodatkowo": 4945,
      "ĠÅ¼Ã³ÅĤ": 4946,
      "dium": 4947,
      "Ġtermin": 4948,
      "Ġmiej": 4949,
      "Ġrozpozna": 4950,
      "ĠKrak": 4951,
      "stej": 4952,
      "ĠzaÅĤÄħ": 4953,
      "Ġotwo": 4954,
      "ĠmiÄĻÅĽni": 4955,
      "mos": 4956,
      "val": 4957,
      "JeÅ¼eli": 4958,
      "Ġprowadzenia": 4959,
      "tali": 4960,
      "ÅĤowÄĻ": 4961,
      "Ġwypadku": 4962,
      "mieni": 4963,
      "Ġniby": 4964,
      "Ġcentra": 4965,
      "ĠracjÄĻ": 4966,
      "ĠÅĽrodki": 4967,
      "akie": 4968,
      "Ġobywa": 4969,
      "Ġzasadzie": 4970,
      "ĠZie": 4971,
      "ĠprzyszÅĤoÅĽci": 4972,
      "Ġsens": 4973,
      "Ġpasa": 4974,
      "ĠJuÅ¼": 4975,
      "ĠDO": 4976,
      "LI": 4977,
      "ĠczÅĤonkÃ³w": 4978,
      "Ġpowinni": 4979,
      "ĠgorÄħ": 4980,
      "Ġnaby": 4981,
      "Ġwez": 4982,
      "dru": 4983,
      "Ġnieo": 4984,
      "ĠposzczegÃ³lnych": 4985,
      "Ġsamochodu": 4986,
      "Ġpodpisa": 4987,
      "ĠodpowiedÅº": 4988,
      "myÅĽ": 4989,
      "Ġkupu": 4990,
      "Ġap": 4991,
      "tto": 4992,
      "Ġdrzwi": 4993,
      "ÅĤopo": 4994,
      "Ġtrzeci": 4995,
      "ĠwziÄĻ": 4996,
      "ĠWam": 4997,
      "Ġproduce": 4998,
      "Ġwszystkiego": 4999,
      "Ġnapi": 5000,
      "Zna": 5001,
      "zdÃ³w": 5002,
      "kowo": 5003,
      "Ġude": 5004,
      "Ġzatem": 5005,
      "ĠwyÅĽwiet": 5006,
      "owanego": 5007,
      "ĠNau": 5008,
      "Ġprocesu": 5009,
      "Ġmecz": 5010,
      "Ġocenia": 5011,
      "Ġpolski": 5012,
      "Ġsamodzie": 5013,
      "ĠwysÅĤa": 5014,
      "Ġnauki": 5015,
      "Mie": 5016,
      "ĠlekÃ³w": 5017,
      "dka": 5018,
      "Ġokresu": 5019,
      "ĠzamkniÄĻ": 5020,
      "Ġzdecydowanie": 5021,
      "rzuci": 5022,
      "Å¼ek": 5023,
      "ĠmÄħÅ¼": 5024,
      "Al": 5025,
      "Ġfirma": 5026,
      "Ġ!Ċ": 5027,
      "towania": 5028,
      "ĠEuropy": 5029,
      "zumia": 5030,
      "ĠporÃ³wnaniu": 5031,
      "ĠbÃ³l": 5032,
      "52": 5033,
      "Ġsprawdza": 5034,
      "Ġodleg": 5035,
      "ĠzuÅ¼y": 5036,
      "Ġrealiz": 5037,
      "Ġsensu": 5038,
      "czysz": 5039,
      "ĠpeÅĤni": 5040,
      "Ġustawie": 5041,
      "Ġolej": 5042,
      "ham": 5043,
      "tan": 5044,
      "deo": 5045,
      "Ġprzypomina": 5046,
      "ĠTen": 5047,
      "ancelar": 5048,
      "moÅĽÄĩ": 5049,
      "ĠUniwersyte": 5050,
      "ĠukÅĤad": 5051,
      "ciÃ³ÅĤ": 5052,
      "ĠÅĽrodowiska": 5053,
      "ĠWin": 5054,
      "Ġedy": 5055,
      "ĠKomisji": 5056,
      "Ġzazwyczaj": 5057,
      "bÃ³w": 5058,
      "unda": 5059,
      "mum": 5060,
      "ĠDoda": 5061,
      "rzÄħt": 5062,
      "ĠdÅĤuÅ¼ej": 5063,
      "Ġchoroby": 5064,
      "rzeba": 5065,
      "ÅĤania": 5066,
      "chia": 5067,
      "Ze": 5068,
      "Ġstanowisko": 5069,
      "Ten": 5070,
      "owÄĻ": 5071,
      "Ġstron": 5072,
      "dzwo": 5073,
      "ĠSko": 5074,
      "Ġhandl": 5075,
      "aliz": 5076,
      "luje": 5077,
      "Ġjakies": 5078,
      "krai": 5079,
      "chÃ³w": 5080,
      "Ġintensyw": 5081,
      "Ġprzesa": 5082,
      "Ġskierowa": 5083,
      "Ġprzedstawia": 5084,
      "Ġodpowiedni": 5085,
      "dnoÅĽÄĩ": 5086,
      "ĠtwÃ³r": 5087,
      "nadto": 5088,
      "Ġstopnia": 5089,
      "Ġwagi": 5090,
      "tkÄħ": 5091,
      "Ġinterne": 5092,
      "teli": 5093,
      "On": 5094,
      "Ġwor": 5095,
      "ĠPolskiej": 5096,
      ",ale": 5097,
      "kl": 5098,
      "pka": 5099,
      "Sp": 5100,
      "plem": 5101,
      "ÅĦca": 5102,
      "Ġjas": 5103,
      "dowaÅĤ": 5104,
      "Ġdam": 5105,
      "Ã³sÅĤ": 5106,
      "owanej": 5107,
      "Ġniebezpie": 5108,
      "600": 5109,
      "rio": 5110,
      "tÅĤu": 5111,
      "paÄĩ": 5112,
      "metry": 5113,
      "tle": 5114,
      "gÃ³lnie": 5115,
      "Witaj": 5116,
      "ĠwyÅĽci": 5117,
      "Ġmusze": 5118,
      "ĠwybraÄĩ": 5119,
      "Ġscenari": 5120,
      "ÅĤko": 5121,
      "ĠspoÅ¼y": 5122,
      "ĠsprawdziÄĩ": 5123,
      "Ġkciu": 5124,
      "Ġopak": 5125,
      "AD": 5126,
      "ĠBia": 5127,
      "Ġherba": 5128,
      "Ġnieza": 5129,
      "Ġsami": 5130,
      "rzÄħdzenie": 5131,
      "tysty": 5132,
      "MÃ³j": 5133,
      "towej": 5134,
      "Ġskon": 5135,
      "ĠszczÄĻÅĽli": 5136,
      "ĠtysiÄĻcy": 5137,
      "ml": 5138,
      "ĠmiarÄĻ": 5139,
      "imna": 5140,
      "czania": 5141,
      "Ġgorzej": 5142,
      "Ġdziecia": 5143,
      "oraz": 5144,
      "ĠÅ¼adnego": 5145,
      "Ġthat": 5146,
      "tywy": 5147,
      "ĠsprawÄĻ": 5148,
      "ĠSan": 5149,
      "ket": 5150,
      "ĠrolÄĻ": 5151,
      "ÅĽciami": 5152,
      "ĠWitam": 5153,
      "Ġwiecz": 5154,
      "Ġwczes": 5155,
      "ĠprzysÅĤu": 5156,
      "ĠurzÄĻ": 5157,
      "ĠczÅĤonk": 5158,
      "syst": 5159,
      "trak": 5160,
      "ĠdowÃ³d": 5161,
      "ĠTym": 5162,
      "ĠJoh": 5163,
      "Ġjednostek": 5164,
      "tycznym": 5165,
      "Ġpokona": 5166,
      "gdzie": 5167,
      "Ġoby": 5168,
      "Ġpromo": 5169,
      "Ġkontra": 5170,
      "Ġwsi": 5171,
      "Ġfunkcji": 5172,
      "ĠmÃ³wiÄĩ": 5173,
      "ĠpamiÄĻci": 5174,
      "Ġwpad": 5175,
      "Ġ%": 5176,
      "Ġopinii": 5177,
      "czymy": 5178,
      "czeÅĦstwo": 5179,
      "czam": 5180,
      "towi": 5181,
      "dziÅĤam": 5182,
      "ĠKM": 5183,
      "Ġdrugiego": 5184,
      "Ġmeczu": 5185,
      "metrÃ³w": 5186,
      "jka": 5187,
      "Ġgratu": 5188,
      "wach": 5189,
      "siada": 5190,
      "Wszystko": 5191,
      "ĠcelÃ³w": 5192,
      "ĠpÅĤ": 5193,
      "Ġpoin": 5194,
      "ĠwyrÃ³Å¼": 5195,
      "red": 5196,
      "Ġszybciej": 5197,
      "Ġprzypadkach": 5198,
      "Ġwybu": 5199,
      "Ġpomie": 5200,
      "Â©": 5201,
      "EM": 5202,
      "Ġdoros": 5203,
      "Ġcal": 5204,
      "ĠciÅĽnie": 5205,
      "OS": 5206,
      "sion": 5207,
      "Ġminima": 5208,
      "tÄħd": 5209,
      "ĠdÅĤugi": 5210,
      "Ġciem": 5211,
      "130": 5212,
      "Ġzmu": 5213,
      "ĠprzeÅ¼y": 5214,
      "ĠbezpoÅĽrednio": 5215,
      "Ġprzodu": 5216,
      "ĠBÄĻ": 5217,
      "Ġwscho": 5218,
      "ana": 5219,
      "Ġpolskiej": 5220,
      "Ġwlas": 5221,
      "dzÄħc": 5222,
      "ĠmÃ³z": 5223,
      "ĠÄĩwiczeÅĦ": 5224,
      "ĠNor": 5225,
      "ĠFunduszu": 5226,
      "ang": 5227,
      "ĠEuropie": 5228,
      "Ġpokoju": 5229,
      "peu": 5230,
      "Ġspodzie": 5231,
      "storia": 5232,
      "nda": 5233,
      "chow": 5234,
      "Ġpocze": 5235,
      "Ġmikro": 5236,
      "Ġwprowadza": 5237,
      "ĠÅĽnia": 5238,
      "Ġosie": 5239,
      "Ġpierwsza": 5240,
      "ĠwypÅĤa": 5241,
      "Ġodbywa": 5242,
      "czach": 5243,
      "wiÄĻcej": 5244,
      "wiaÄĩ": 5245,
      "ĠzaczÄħÄĩ": 5246,
      "sportu": 5247,
      "Ġsztang": 5248,
      "Ġwier": 5249,
      "Ġpewien": 5250,
      "ĠniektÃ³re": 5251,
      "ĠCon": 5252,
      "Ġwolno": 5253,
      "ĠudziaÅĤu": 5254,
      "lamentu": 5255,
      "Ġprzesy": 5256,
      "Ġjesli": 5257,
      "koÅĤa": 5258,
      "Ġfundu": 5259,
      "Ġbroni": 5260,
      "Ġdiecie": 5261,
      "woÅĽci": 5262,
      "Ġ:-": 5263,
      "Ġdniach": 5264,
      "The": 5265,
      "Ġpowszech": 5266,
      "razy": 5267,
      "ĠrozwiÄħzania": 5268,
      "krÃ³t": 5269,
      "dowe": 5270,
      "pier": 5271,
      "Ġstaro": 5272,
      "ĠzwierzÄĻ": 5273,
      "Ġchro": 5274,
      "Ġbierze": 5275,
      "rok": 5276,
      "dwie": 5277,
      "tio": 5278,
      "peÅĤnospraw": 5279,
      "scho": 5280,
      "63": 5281,
      "reszcie": 5282,
      "ĠwÅĤaÅĽciwy": 5283,
      "Ġodpo": 5284,
      "ĠmÅĤodzie": 5285,
      "Ġodpa": 5286,
      "Ġpowoduje": 5287,
      "nisty": 5288,
      "ĠspoÅĤecznej": 5289,
      "Pan": 5290,
      "IS": 5291,
      "Me": 5292,
      "Ġkawa": 5293,
      "ĠbieÅ¼Äħ": 5294,
      "Pi": 5295,
      "Ġspecjali": 5296,
      "Ġfoto": 5297,
      "ctwem": 5298,
      "wencji": 5299,
      "nau": 5300,
      "Ġsezonie": 5301,
      "ĠrÄĻce": 5302,
      "Ġmasy": 5303,
      "Ġpodda": 5304,
      "Ġkultury": 5305,
      "cony": 5306,
      "ĠnajbliÅ¼": 5307,
      "ĠsÅĤysza": 5308,
      "nnik": 5309,
      "Ġzama": 5310,
      "ĠpoÅĤudni": 5311,
      "up": 5312,
      "fry": 5313,
      "boli": 5314,
      "Ġpolskiego": 5315,
      "ANIE": 5316,
      "ĠNawet": 5317,
      "stego": 5318,
      "owiec": 5319,
      "Ġzrozumie": 5320,
      "ĠCy": 5321,
      "tychmiast": 5322,
      "dziÅĤem": 5323,
      "Ġopieku": 5324,
      "Ġhehe": 5325,
      "Ġorganiz": 5326,
      "niewaÅ¼": 5327,
      "lozo": 5328,
      "angaÅ¼": 5329,
      "ĠPani": 5330,
      "ĠdziÄĻkujÄĻ": 5331,
      "ĠplacÃ³w": 5332,
      "ĠklientÃ³w": 5333,
      "ĠzastÄĻp": 5334,
      "ĠliÅĽcie": 5335,
      "blem": 5336,
      "ĠÅĽwiadczeÅĦ": 5337,
      "ĠBoÅ¼e": 5338,
      "Ġsytuacja": 5339,
      "rzuciÄĩ": 5340,
      "liÅĤ": 5341,
      "feru": 5342,
      "tnÄħ": 5343,
      "Ġdanego": 5344,
      "Ġwaka": 5345,
      "jeÅ¼d": 5346,
      "ĠDi": 5347,
      ".U": 5348,
      "Ġimpre": 5349,
      "ĠkoÅĤo": 5350,
      "alny": 5351,
      "Ġwidzia": 5352,
      "Ġoku": 5353,
      "dle": 5354,
      "ĠusÅĤugi": 5355,
      "nÄĻÅĤo": 5356,
      "Ġciekawe": 5357,
      "pospolitej": 5358,
      "ĠzwiÄĻksza": 5359,
      "wajÄħ": 5360,
      "struktu": 5361,
      ">Ċ": 5362,
      "fak": 5363,
      "ĠzajÄĻcia": 5364,
      "Ġpracodaw": 5365,
      "lbia": 5366,
      "ĠwÅĤasne": 5367,
      "sÅĤawa": 5368,
      "tarza": 5369,
      "ĠWiÄĻc": 5370,
      "mysÅĤ": 5371,
      "cs": 5372,
      "OM": 5373,
      "ĠÅĽle": 5374,
      "czko": 5375,
      "dowego": 5376,
      "ĠnieruchomoÅĽci": 5377,
      "Ġlekar": 5378,
      "Å¼yÅĤem": 5379,
      "ĠWro": 5380,
      "enu": 5381,
      "Ġpracuje": 5382,
      ".\"Ċ": 5383,
      "ChodÅº": 5384,
      "ĠÅĽwiadczenia": 5385,
      "ĠWedÅĤug": 5386,
      "Ġlepszy": 5387,
      "ĠwystÄĻpuje": 5388,
      "Ġmld": 5389,
      "Ġubo": 5390,
      "niesi": 5391,
      "rus": 5392,
      "Ġspecy": 5393,
      "ĠzrobiÅĤ": 5394,
      "ĠGT": 5395,
      "Ġkombi": 5396,
      "Wa": 5397,
      "Ġhy": 5398,
      "regu": 5399,
      "die": 5400,
      "Ġzastrze": 5401,
      "ĠwystÄħ": 5402,
      "stre": 5403,
      "ĠgÅĤÄĻbo": 5404,
      "towego": 5405,
      "Ġinstruk": 5406,
      "sjÄĻ": 5407,
      "Ġkontynu": 5408,
      "cyjnie": 5409,
      "gres": 5410,
      "ĠzmÄĻ": 5411,
      "sjona": 5412,
      "Ġwil": 5413,
      "Ġzebra": 5414,
      "ĠVi": 5415,
      "Ġgraczy": 5416,
      "ore": 5417,
      "Ġmoment": 5418,
      "Ġlos": 5419,
      "Ġwsparcia": 5420,
      "tyma": 5421,
      "dkoÅĽci": 5422,
      "czonego": 5423,
      "logiczne": 5424,
      "Ġozna": 5425,
      "bierz": 5426,
      "cesz": 5427,
      "Å¼ne": 5428,
      "Ġklucz": 5429,
      "Ġkonsek": 5430,
      "ĠpieniÄĻdzy": 5431,
      "Ġjesie": 5432,
      "Ġzdarza": 5433,
      "czonym": 5434,
      "dÅĤo": 5435,
      "Ġrzadko": 5436,
      "Ġryzyko": 5437,
      "ancelaria": 5438,
      "Ġprote": 5439,
      "Ġwersja": 5440,
      "ĠHu": 5441,
      "ĠZjedno": 5442,
      "Ġwith": 5443,
      "Ġzjawi": 5444,
      "Ġdobrym": 5445,
      "ĠpoczÄħtek": 5446,
      "Ġport": 5447,
      "Ġprocedu": 5448,
      "Ġorygina": 5449,
      "tacja": 5450,
      "Ġodniesie": 5451,
      "dnej": 5452,
      "ĠdokÅĤad": 5453,
      "ĠtreÅĽci": 5454,
      "ĠkÅĤopo": 5455,
      "ĠnazwÄĻ": 5456,
      "SÄħ": 5457,
      "Ġboha": 5458,
      "Ġsoli": 5459,
      "metr": 5460,
      "WedÅĤug": 5461,
      "ĠpÅĤo": 5462,
      "wczych": 5463,
      "79": 5464,
      "ĠrozpoczÄħ": 5465,
      "Ġposi": 5466,
      "masz": 5467,
      "Ġstanowiska": 5468,
      "lowaÄĩ": 5469,
      "rym": 5470,
      "OczywiÅĽcie": 5471,
      "Ġ..": 5472,
      "Ġkor": 5473,
      "Ġpowoli": 5474,
      "wne": 5475,
      "lnia": 5476,
      "wskiego": 5477,
      "Ġrozpa": 5478,
      "Ġstandard": 5479,
      "Ġcelem": 5480,
      "giÄĻ": 5481,
      "dowania": 5482,
      "zia": 5483,
      "Ġfra": 5484,
      "aty": 5485,
      "ĠzaczÄħÅĤ": 5486,
      "rowania": 5487,
      "Ġanaliz": 5488,
      "gam": 5489,
      "ĠKraj": 5490,
      "Ġpewne": 5491,
      "Ġdepres": 5492,
      "ïĤ": 5493,
      "Ġnar": 5494,
      "rowaÄĩ": 5495,
      "Ġprawdopodobnie": 5496,
      "niejsza": 5497,
      "ĠTh": 5498,
      "Ġrado": 5499,
      "ĠwskaÅº": 5500,
      "tymi": 5501,
      "ĠGu": 5502,
      "WO": 5503,
      "ĠwywoÅĤa": 5504,
      "ĠchciaÅĤa": 5505,
      "ÅĽciÄĩ": 5506,
      "Ġzakres": 5507,
      "wczyny": 5508,
      "ĠspaÄĩ": 5509,
      "ĠChyba": 5510,
      "Ġnapraw": 5511,
      "Bu": 5512,
      "Ry": 5513,
      "nel": 5514,
      "biÄĩ": 5515,
      "Ġstoi": 5516,
      "Ġprzedszko": 5517,
      "Ġdolar": 5518,
      "nkach": 5519,
      "WA": 5520,
      "Ġet": 5521,
      "ĠurzÄħdzeÅĦ": 5522,
      "ĠMoÅ¼na": 5523,
      "kura": 5524,
      "ĠduÅ¼Äħ": 5525,
      "Ġdrew": 5526,
      "Ġprace": 5527,
      "ĠWal": 5528,
      "ĠudostÄĻp": 5529,
      "fli": 5530,
      "rzeniu": 5531,
      "53": 5532,
      "Ġwykonania": 5533,
      "nden": 5534,
      "ĠgraÄĩ": 5535,
      "ĠmÃ³wiÄħ": 5536,
      "lizm": 5537,
      "Ġrozmowy": 5538,
      "Ġosa": 5539,
      "ĠIm": 5540,
      "ĠPow": 5541,
      "ych": 5542,
      "lor": 5543,
      "ĠnaleÅ¼a": 5544,
      "Zosta": 5545,
      "Ġturysty": 5546,
      "ĠMon": 5547,
      "Ġkwestia": 5548,
      "Ġkonstruk": 5549,
      "toni": 5550,
      "Ġmaga": 5551,
      "niom": 5552,
      "Ġfabry": 5553,
      "ĠÅĤadnie": 5554,
      "groma": 5555,
      "Ġcharakter": 5556,
      "dor": 5557,
      "ĠbÅĤo": 5558,
      "ingu": 5559,
      ",a": 5560,
      "Ġabso": 5561,
      "miana": 5562,
      "Ġupo": 5563,
      "Ġdek": 5564,
      "Ġwycie": 5565,
      "Jeszcze": 5566,
      "nder": 5567,
      "Ġniczego": 5568,
      "Pol": 5569,
      "Ġnazwa": 5570,
      "Kancelaria": 5571,
      "Ġtrakt": 5572,
      "szeniu": 5573,
      "Ġrea": 5574,
      "Ġkciuki": 5575,
      "Ġkata": 5576,
      "pliwoÅĽci": 5577,
      "Ġpremie": 5578,
      "Ġpotwierdza": 5579,
      "ĠznaczÄħ": 5580,
      "rodek": 5581,
      "Ġuczelni": 5582,
      "Ġgene": 5583,
      "ĠczymÅĽ": 5584,
      "rzam": 5585,
      "czyÅĤem": 5586,
      "Ġist": 5587,
      "mowaÄĩ": 5588,
      "ĠprÃ³bu": 5589,
      "ĠÅĽwiatowej": 5590,
      "stawa": 5591,
      "Ġposz": 5592,
      "ĠprzyjaciÃ³ÅĤ": 5593,
      "ĠPrzez": 5594,
      "ĠgÅĤoÅĽ": 5595,
      "ĠKto": 5596,
      "Ġrekrutacji": 5597,
      "Ġgar": 5598,
      "ĠdokumentÃ³w": 5599,
      "Ġoczywi": 5600,
      "Ġpunktu": 5601,
      "Ġcentrum": 5602,
      "Ġwykaza": 5603,
      "ĠNowy": 5604,
      "Ġniz": 5605,
      "szymi": 5606,
      "Ġbab": 5607,
      "Ġproto": 5608,
      "ĠzwierzÄħt": 5609,
      "mat": 5610,
      "ĠWiem": 5611,
      "ĠspeÅĤ": 5612,
      "Ġstylu": 5613,
      "Ġdruga": 5614,
      "stym": 5615,
      "Ġgeo": 5616,
      "ĠmyÅĽle": 5617,
      "Ġpodobne": 5618,
      "Ġopieki": 5619,
      "ĠsprzÄĻt": 5620,
      "Ġprzekracza": 5621,
      "ĠoprÃ³cz": 5622,
      "ĠZam": 5623,
      "Ġbudowla": 5624,
      "ĠnowÄħ": 5625,
      "sisz": 5626,
      "samo": 5627,
      "Ġoperacji": 5628,
      "Ġgre": 5629,
      "Ġgrupie": 5630,
      "Ġtr": 5631,
      "Ġznajomy": 5632,
      "Ġlogi": 5633,
      "tycznÄħ": 5634,
      "niesz": 5635,
      "Ġprzeszka": 5636,
      "szony": 5637,
      "dÅĤam": 5638,
      "800": 5639,
      "ĠPie": 5640,
      "WE": 5641,
      "Ġofia": 5642,
      "gospodar": 5643,
      "Ġmotywa": 5644,
      "Ġformy": 5645,
      "CE": 5646,
      "des": 5647,
      "54": 5648,
      "ĠpodrÃ³Å¼": 5649,
      "Ġszkoda": 5650,
      "ĠTur": 5651,
      "SI": 5652,
      "ĠpodÅĤÄħ": 5653,
      "ĠPL": 5654,
      "Ġtj": 5655,
      "Ġsystemie": 5656,
      "ĠuczniÃ³w": 5657,
      "ĠWoj": 5658,
      "Ġzaleca": 5659,
      "Ġurucho": 5660,
      "ĠpostÃ³w": 5661,
      "Ġzachowania": 5662,
      "Ġmusimy": 5663,
      "Ġfar": 5664,
      "Ġhor": 5665,
      "cone": 5666,
      "terna": 5667,
      "Ġleku": 5668,
      "und": 5669,
      "ĠIV": 5670,
      "Ġwspomnia": 5671,
      "wcze": 5672,
      "ChcÄĻ": 5673,
      "towanie": 5674,
      "ĠpokÅĤadzie": 5675,
      "ĠoÅĽrod": 5676,
      "ÅĽcio": 5677,
      "niÃ³sÅĤ": 5678,
      "Ġkoszty": 5679,
      "dzieli": 5680,
      "ĠjakimÅĽ": 5681,
      "ĠprzestÄĻp": 5682,
      "ĠwybÃ³r": 5683,
      "ĠSzy": 5684,
      "Ġpojedyn": 5685,
      "nnym": 5686,
      "Ġcyklu": 5687,
      "Au": 5688,
      "Äħb": 5689,
      "ĠogÃ³lnie": 5690,
      "62": 5691,
      "TO": 5692,
      "Ġinni": 5693,
      "ĠpochodzÄħ": 5694,
      "Ġwywia": 5695,
      "Ġgodz": 5696,
      "Ġwidzenia": 5697,
      "Ġkarta": 5698,
      "51": 5699,
      "Ġprzekro": 5700,
      "twiej": 5701,
      "ciele": 5702,
      "ĠstosowaÄĩ": 5703,
      "lec": 5704,
      "Cie": 5705,
      "Ġzapisa": 5706,
      "Ġkogo": 5707,
      "Ġwspomina": 5708,
      "Ġdzwo": 5709,
      "Ġogo": 5710,
      "ĠPodczas": 5711,
      "wni": 5712,
      "ĠsÅĤ": 5713,
      "ĠkrÃ³t": 5714,
      "Ġpublicznej": 5715,
      "jsc": 5716,
      "Ġwyobra": 5717,
      "ĠstaÄĩ": 5718,
      "ĠÄħ": 5719,
      "Ġeksplo": 5720,
      "ĠFrancji": 5721,
      "torzy": 5722,
      "ĠMat": 5723,
      "Ġpers": 5724,
      "ĠHD": 5725,
      "ĠokreÅĽli": 5726,
      "ĠPat": 5727,
      "ĠChcia": 5728,
      "menty": 5729,
      "low": 5730,
      "hh": 5731,
      "Nigdy": 5732,
      "prawa": 5733,
      "ĠwokÃ³ÅĤ": 5734,
      "dowej": 5735,
      "Ġchor": 5736,
      "ĠJako": 5737,
      "biÃ³r": 5738,
      "shi": 5739,
      "Ġzanie": 5740,
      "ĠduÅ¼ej": 5741,
      "Ġtka": 5742,
      "ĠÅļlÄħ": 5743,
      "ĠStu": 5744,
      "Ġinna": 5745,
      "Ġkolor": 5746,
      "ĠczÄĻÅĽciej": 5747,
      "Ġprocent": 5748,
      "decy": 5749,
      "nicja": 5750,
      "ĠDru": 5751,
      "fiÄĻ": 5752,
      "nowaÅĤ": 5753,
      "terii": 5754,
      "Ġnowym": 5755,
      "Ġdysk": 5756,
      "Ġwykonywania": 5757,
      "ĠÅĤatwiej": 5758,
      "ĠTV": 5759,
      "Przed": 5760,
      "Ġbiznes": 5761,
      "ĠodÅ¼y": 5762,
      "61": 5763,
      "lonych": 5764,
      "ntu": 5765,
      "Â©Kancelaria": 5766,
      "ÅĦcu": 5767,
      "Ġmiesz": 5768,
      "stÄĻpnie": 5769,
      "cin": 5770,
      "ciskanie": 5771,
      "Ġkierowni": 5772,
      "Ġprzepisa": 5773,
      "ĠmÃ³wiÄĻ": 5774,
      "laÄĩ": 5775,
      "ĠByÅĤ": 5776,
      "ĠwrÄĻcz": 5777,
      "ph": 5778,
      "dac": 5779,
      "Ġniezwy": 5780,
      "dnikÃ³w": 5781,
      "Ġprzycho": 5782,
      "ĠHar": 5783,
      "Ġzmiana": 5784,
      "cel": 5785,
      "AK": 5786,
      "czypospolitej": 5787,
      "Ġfunkcjona": 5788,
      "Ġpotrzebuje": 5789,
      "ĠoszczÄĻ": 5790,
      "140": 5791,
      "pina": 5792,
      "Ġtryb": 5793,
      "Ġunika": 5794,
      "ciÅĽ": 5795,
      "Ġrower": 5796,
      "Ġklini": 5797,
      "ĠprÄħ": 5798,
      "Ġwysoko": 5799,
      "czyk": 5800,
      "cemy": 5801,
      "lum": 5802,
      "ĠelementÃ³w": 5803,
      "Ġpodatk": 5804,
      "snÄħÄĩ": 5805,
      "ĠdziaÅĤ": 5806,
      "Ġkara": 5807,
      "waga": 5808,
      "Ġdyscypli": 5809,
      "Ġmedia": 5810,
      "ĠuwaÅ¼am": 5811,
      "ĠgÅĤowie": 5812,
      "Ġpochodzi": 5813,
      "Ð¾": 5814,
      "gami": 5815,
      "cjonu": 5816,
      "sch": 5817,
      "Ġkampa": 5818,
      "Ã¼": 5819,
      "Ġojciec": 5820,
      "ĠzakÅĤada": 5821,
      "Ġreprezenta": 5822,
      "89": 5823,
      "rzone": 5824,
      "Ġdobrej": 5825,
      "ĠpojÄĻcia": 5826,
      "bliote": 5827,
      "Ġzaga": 5828,
      "ĠkomÃ³r": 5829,
      "Ġsilnika": 5830,
      "Ġserie": 5831,
      "czar": 5832,
      "Ġdostos": 5833,
      "Ġwpisa": 5834,
      "dÅĤugo": 5835,
      "ĠÅĤÃ³Å¼": 5836,
      ".S": 5837,
      "Ġsocja": 5838,
      "ĠkartÄĻ": 5839,
      "83": 5840,
      "Dy": 5841,
      "stawienie": 5842,
      "ĠpomoÅ¼e": 5843,
      "ĠÅ¼adnej": 5844,
      "Ġkoncep": 5845,
      "zach": 5846,
      "dziÄĻ": 5847,
      "Ġtworzy": 5848,
      "ĠupÅĤy": 5849,
      "ĠzaangaÅ¼": 5850,
      "CA": 5851,
      "Ġrezer": 5852,
      "Ġszpitalu": 5853,
      "87": 5854,
      "Å¼yÅĤam": 5855,
      "Ġnajlepsze": 5856,
      "Ġ...Ċ": 5857,
      "Ġrynek": 5858,
      "Ġdrob": 5859,
      "Ġprodukty": 5860,
      "zdr": 5861,
      "Ġpolity": 5862,
      "ĠcaÅĤa": 5863,
      "rzyma": 5864,
      "ĠpiÄĻÄĩ": 5865,
      "ĠwojewÃ³dztwa": 5866,
      "odpowie": 5867,
      "ĠÅĽwietnie": 5868,
      "Fa": 5869,
      "Ġzdecydowa": 5870,
      "ĠroÅĽnie": 5871,
      "Ġbrakuje": 5872,
      "Ġdoskona": 5873,
      "ĠdolarÃ³w": 5874,
      "Ġwyco": 5875,
      "Ġzorgani": 5876,
      "mp": 5877,
      "110": 5878,
      "ÅĽrod": 5879,
      "Ġsklep": 5880,
      "Ġtelefo": 5881,
      "Ġseksu": 5882,
      "Ġdodatkowe": 5883,
      "Ġprzegra": 5884,
      "Ġspod": 5885,
      "GB": 5886,
      "ĠmÃ³wiÅĤ": 5887,
      "Ġzdanie": 5888,
      "ĠjakoÅĽÄĩ": 5889,
      "zdro": 5890,
      "mÄħ": 5891,
      "szyb": 5892,
      "ĠdrogÄħ": 5893,
      "rr": 5894,
      "MuszÄĻ": 5895,
      "Ġpowietrza": 5896,
      "Bi": 5897,
      "Ġtemacie": 5898,
      "mini": 5899,
      "ĠzgodÄĻ": 5900,
      "Ġnagle": 5901,
      "Ġnadz": 5902,
      "wan": 5903,
      "Ġpowiedz": 5904,
      "cisk": 5905,
      "ĠskÄħd": 5906,
      "Ġstraci": 5907,
      "ĠmoÅ¼li": 5908,
      "ĠwpÅĤywu": 5909,
      "Ġpolityki": 5910,
      "Ġ.ĊĊ": 5911,
      "ĠwÄħtro": 5912,
      "Ã³Åºniej": 5913,
      "spoko": 5914,
      "Ġobszarze": 5915,
      "Ġcieszy": 5916,
      "%Ċ": 5917,
      "ĠmÃ³wiÄħc": 5918,
      "Ġmara": 5919,
      "Ġdanej": 5920,
      "Ġkobieta": 5921,
      "Ġsobo": 5922,
      "Ġwenty": 5923,
      "ĠzakoÅĦczy": 5924,
      "-S": 5925,
      "Ġwierzy": 5926,
      "Ġkompo": 5927,
      "Ġktore": 5928,
      "Ġwina": 5929,
      "Ġcztere": 5930,
      "/h": 5931,
      "Ġzastanawiam": 5932,
      "ĠgÅĤ": 5933,
      "ĠParlamentu": 5934,
      "psu": 5935,
      "Ġgle": 5936,
      "Ġznie": 5937,
      "fr": 5938,
      "ĠÅĽw": 5939,
      "ktyw": 5940,
      "ĠkaÅ¼da": 5941,
      "ĠmiÅĤo": 5942,
      "Ġpowiedzia": 5943,
      "ĠÅ¼yÄĩ": 5944,
      "NY": 5945,
      "Ġglu": 5946,
      "Ġulu": 5947,
      "ĠsprzÄĻtu": 5948,
      "Ġ*": 5949,
      "Ġpis": 5950,
      "ĠJedno": 5951,
      "Ġdobrego": 5952,
      "tno": 5953,
      "miÄĻ": 5954,
      "ĠNew": 5955,
      "ĠwÅĤaÅĽciwie": 5956,
      "Ġszef": 5957,
      "ĠmiesiÄħca": 5958,
      "dzanie": 5959,
      "leÅĦ": 5960,
      "Ġwyklu": 5961,
      "ĠtÅĤuszcz": 5962,
      "ĠWszystko": 5963,
      "Ġumiesz": 5964,
      "pio": 5965,
      "Ġkategorii": 5966,
      "owanym": 5967,
      "Ġnaru": 5968,
      "189": 5969,
      "ĠLon": 5970,
      "Ġpokry": 5971,
      "Ku": 5972,
      "Ġzesz": 5973,
      "ĠznajdujÄħ": 5974,
      "Ju": 5975,
      "Ġkalorii": 5976,
      "Ġpartii": 5977,
      "Ġnatychmiast": 5978,
      "Ġpocz": 5979,
      "rasta": 5980,
      "ĠÅ¼oÅĤnierzy": 5981,
      "Ġsmu": 5982,
      "Jo": 5983,
      "ĠEl": 5984,
      "Ġniezna": 5985,
      "ĠzasiÄĻ": 5986,
      "ĠâĢĶ": 5987,
      "Ġdostaw": 5988,
      "ĠniepeÅĤnospraw": 5989,
      "Ġdiete": 5990,
      "ĠÅĽrednio": 5991,
      "obraz": 5992,
      "Ġbla": 5993,
      "pas": 5994,
      "Ġzazna": 5995,
      "Ġeli": 5996,
      "alnej": 5997,
      ":(": 5998,
      "szoÅĽÄĩ": 5999,
      "nkÄĻ": 6000,
      "ĠprÄĻdkoÅĽci": 6001,
      "ĠspokÃ³j": 6002,
      "Ġdniem": 6003,
      "czÄħc": 6004,
      "dnienie": 6005,
      "ID": 6006,
      "ĠosiÄħga": 6007,
      "MyÅĽlÄĻ": 6008,
      "kola": 6009,
      "Ġzamieszka": 6010,
      "Ġdosy": 6011,
      "Bez": 6012,
      "Ġniedaw": 6013,
      "Ġwoda": 6014,
      "ÅĽlaÅĤem": 6015,
      "ĠwziÄħÄĩ": 6016,
      "stanowi": 6017,
      "Ġogar": 6018,
      ":r": 6019,
      "Ġrobie": 6020,
      "minu": 6021,
      "ĠPodob": 6022,
      "ĠOrgani": 6023,
      "Ġwielkie": 6024,
      "ĠCzÄĻsto": 6025,
      "mowanie": 6026,
      "dzili": 6027,
      "Ġmetody": 6028,
      "ĠWrocÅĤa": 6029,
      "ĠrosnÄħ": 6030,
      "Ġkomputera": 6031,
      "ĠNatomiast": 6032,
      "wkÄĻ": 6033,
      "Zoba": 6034,
      "ach": 6035,
      "ĠIz": 6036,
      "ĠciaÅĤo": 6037,
      "host": 6038,
      "!!!!!!!!": 6039,
      "Ġpaliwa": 6040,
      "Ġrowe": 6041,
      "kowym": 6042,
      "Ġelementy": 6043,
      "osob": 6044,
      "MÃ³wi": 6045,
      "pienie": 6046,
      "Ġsyl": 6047,
      "Niech": 6048,
      "ĠÅļwiÄĻ": 6049,
      "ĠNIE": 6050,
      "Ġmono": 6051,
      "ĠoddziaÅĤy": 6052,
      "Ġster": 6053,
      "Ġzbro": 6054,
      "Ġzare": 6055,
      "pel": 6056,
      "72": 6057,
      "Ġeksper": 6058,
      "Moja": 6059,
      "Ġzostaje": 6060,
      "Ġlisty": 6061,
      "ela": 6062,
      "ction": 6063,
      "Ġdelika": 6064,
      "zulta": 6065,
      "prost": 6066,
      "Ġraj": 6067,
      "ĠotrzymaÅĤ": 6068,
      "Ġtzn": 6069,
      "ĠsÅĤabo": 6070,
      "ari": 6071,
      "Ġcenie": 6072,
      "ĠliczbÄĻ": 6073,
      "Ġopro": 6074,
      "ĠkoÅĦc": 6075,
      "ĠrzeczywiÅĽcie": 6076,
      "krÃ³tce": 6077,
      "Ġprzejmu": 6078,
      "ÅĤysza": 6079,
      "Ġvi": 6080,
      ".W": 6081,
      "lop": 6082,
      "Ġukry": 6083,
      "ĠkrÃ³tki": 6084,
      "loga": 6085,
      "ĠzdjÄĻcie": 6086,
      "ĠÅĽwiÄħ": 6087,
      "Ġkwar": 6088,
      "Ġ#": 6089,
      "Å¼sze": 6090,
      "Ġobjawy": 6091,
      "fonu": 6092,
      "Ġpokar": 6093,
      "ĠEd": 6094,
      "ĠpasaÅ¼e": 6095,
      "Ġwidzi": 6096,
      "ĠsprÃ³b": 6097,
      "wic": 6098,
      "ĠdrugÄħ": 6099,
      "Ġwygo": 6100,
      "jskich": 6101,
      "Ġrecep": 6102,
      "ĠBryta": 6103,
      "ĠobowiÄħzu": 6104,
      "Ġobra": 6105,
      "ntem": 6106,
      "Ġfigu": 6107,
      "Ġsekund": 6108,
      "Ġwielki": 6109,
      "Ġae": 6110,
      "Ġtechnologii": 6111,
      "ĠnastÄĻpujÄħce": 6112,
      "ĠMan": 6113,
      "ĠtroszkÄĻ": 6114,
      "ĠduÅ¼a": 6115,
      "ĠwiÄĻkszÄħ": 6116,
      "ĠWY": 6117,
      "Ġpostanowie": 6118,
      "ĠokreÅĽlone": 6119,
      "Ġopis": 6120,
      "logicznych": 6121,
      "ĠEx": 6122,
      "zajem": 6123,
      "ĠcaÅĤoÅĽci": 6124,
      "ĠJeszcze": 6125,
      "ĠNowi": 6126,
      "lizacja": 6127,
      "Ġobserwa": 6128,
      "wÅĤaÅĽci": 6129,
      "âĢĿ.Ċ": 6130,
      "czonej": 6131,
      "Ġodz": 6132,
      "ĠdoÅĽwiadczenie": 6133,
      "ĠstaÅĤ": 6134,
      "ĠStar": 6135,
      "ven": 6136,
      "bach": 6137,
      "czyÅĤam": 6138,
      "Ġpunkty": 6139,
      "ĠÅĤu": 6140,
      "nujÄĻ": 6141,
      "Ġzwraca": 6142,
      "czest": 6143,
      "ĠRzeczypospolitej": 6144,
      "ĠSpe": 6145,
      "ĠtworzÄħ": 6146,
      "Ġmody": 6147,
      "ĠZna": 6148,
      "Ġzacznie": 6149,
      "strzyma": 6150,
      "ĠodwoÅĤa": 6151,
      "okre": 6152,
      "Ġjedzenie": 6153,
      "Ġprzestrzeni": 6154,
      "gent": 6155,
      "ĠGenera": 6156,
      "Ġobiad": 6157,
      "rop": 6158,
      "ĠwnÄĻ": 6159,
      "Ġatmos": 6160,
      "!!!Ċ": 6161,
      "Ġdyplo": 6162,
      "Ha": 6163,
      "Ġzwa": 6164,
      "Ġwlasnie": 6165,
      "Ġdawno": 6166,
      "ĠokreÅĽ": 6167,
      "Ġpil": 6168,
      "Ġdroga": 6169,
      "munika": 6170,
      "ult": 6171,
      "ÃĵW": 6172,
      "Ġpola": 6173,
      "ĠSamo": 6174,
      "trzeÄĩ": 6175,
      "Ġnarze": 6176,
      "EK": 6177,
      "niÄĻte": 6178,
      "Ġrezulta": 6179,
      "ĠmateriaÅĤÃ³w": 6180,
      "TY": 6181,
      "ĠpojazdÃ³w": 6182,
      "Ġatrak": 6183,
      "Hz": 6184,
      "Ġinteres": 6185,
      "ĠduÅ¼ych": 6186,
      "ĠRP": 6187,
      "Ġrodzaj": 6188,
      "ÅĽwiadczenia": 6189,
      "ĠJez": 6190,
      "ĠobowiÄħzkÃ³w": 6191,
      "ĠwynikÃ³w": 6192,
      "Ġsamych": 6193,
      "ĠwiadomoÅĽci": 6194,
      "ord": 6195,
      "Ġdodatek": 6196,
      "ĠosobÄĻ": 6197,
      "ĠzaÅĤat": 6198,
      "Ġznaczenia": 6199,
      "84": 6200,
      "ĠÃ³w": 6201,
      "Ġkrze": 6202,
      "Ġszczy": 6203,
      "tce": 6204,
      "kaÅ¼": 6205,
      "car": 6206,
      "Ġepi": 6207,
      "ĠdecyzjÄĻ": 6208,
      "ĠGÃ³r": 6209,
      "Ġpolskim": 6210,
      "Ġbram": 6211,
      "Ġefektyw": 6212,
      "ĠHen": 6213,
      "Ġzab": 6214,
      "ree": 6215,
      "leni": 6216,
      "Ġtwoja": 6217,
      "alna": 6218,
      "JA": 6219,
      "La": 6220,
      "Ġroze": 6221,
      "ĠSt": 6222,
      "Ġnowoczes": 6223,
      "Ġtajem": 6224,
      "Ġktos": 6225,
      "ÂłĊĊ": 6226,
      "przeda": 6227,
      "Ġtle": 6228,
      "ĠpotÄĻ": 6229,
      "ĠwspÃ³ÅĤczes": 6230,
      "//": 6231,
      "'t": 6232,
      "Ġrozmowa": 6233,
      "ĠkrÃ³l": 6234,
      "Ġposzuki": 6235,
      "niam": 6236,
      "Ġzaufa": 6237,
      "Ġdiagno": 6238,
      "ĠpowiedziaÅĤa": 6239,
      "Ġszpitala": 6240,
      "ĠRi": 6241,
      "dziec": 6242,
      "Ġnazwy": 6243,
      "Ġzobaczymy": 6244,
      "Ġspoj": 6245,
      "Ġtematu": 6246,
      "Ġzgody": 6247,
      "Ġboi": 6248,
      "Historia": 6249,
      "ĠchciaÅĤem": 6250,
      "ĠpewnoÅĽciÄħ": 6251,
      "WÅĤaÅĽnie": 6252,
      "Ġnume": 6253,
      "Ġmasa": 6254,
      "Ġjakis": 6255,
      "Ð¸": 6256,
      "Ġfun": 6257,
      "Ð°": 6258,
      "mara": 6259,
      "Ġlit": 6260,
      "Ġwszel": 6261,
      "Ġtrybie": 6262,
      "Ġpry": 6263,
      "ĠZwiÄħz": 6264,
      "ĠuzaleÅ¼": 6265,
      "jeÅ¼dÅ¼a": 6266,
      "ĠmogÅĤy": 6267,
      "MI": 6268,
      "peten": 6269,
      "Ġwitami": 6270,
      "170": 6271,
      "86": 6272,
      "Ġinfor": 6273,
      "Ġucznia": 6274,
      "Ġklub": 6275,
      "ĠmyÅĽl": 6276,
      "Ġdaleko": 6277,
      "ĠpowoÅĤa": 6278,
      "dziny": 6279,
      "ĠdobrÄħ": 6280,
      "Ġproste": 6281,
      "Ġojca": 6282,
      "Ġzamk": 6283,
      "tnio": 6284,
      "Ġpsychia": 6285,
      "Ġopinie": 6286,
      "ris": 6287,
      "ĠtrÃ³j": 6288,
      "ĠObecnie": 6289,
      "Ġhipo": 6290,
      "stek": 6291,
      "Ġpublicznego": 6292,
      "ĠzÅĤotych": 6293,
      "wce": 6294,
      "ĠRegu": 6295,
      "Ġkoszu": 6296,
      "Ġmarki": 6297,
      "Ġrosyj": 6298,
      "rÃ³g": 6299,
      "ĠsÄĻ": 6300,
      "]ĊĊ": 6301,
      "ĠMist": 6302,
      "ĠKi": 6303,
      "Ġwygla": 6304,
      "Ġpozba": 6305,
      "ĠprojektÃ³w": 6306,
      "Ġblog": 6307,
      "ĠpeÅĤno": 6308,
      "Â°": 6309,
      "Å»e": 6310,
      "Ġryzyka": 6311,
      "ĠwyjÅĽÄĩ": 6312,
      "Ġwymy": 6313,
      "nni": 6314,
      "Ġzrezyg": 6315,
      "Å¼ki": 6316,
      "Ġds": 6317,
      "ĠtyÅĤu": 6318,
      "loka": 6319,
      "pat": 6320,
      "biegu": 6321,
      "Ġaka": 6322,
      "Ġchle": 6323,
      "Ġopowie": 6324,
      "ĠzasÅĤu": 6325,
      "Ġekra": 6326,
      "Ġnajnow": 6327,
      "lt": 6328,
      "rowanie": 6329,
      "figu": 6330,
      "Ġobserw": 6331,
      "Ġporoz": 6332,
      "ĠdostÄĻpne": 6333,
      "Ġzastanawia": 6334,
      "Ġniewiele": 6335,
      ".e": 6336,
      "cjo": 6337,
      "ĠspÃ³ÅĤki": 6338,
      "ĠPonadto": 6339,
      "dencji": 6340,
      "Ġrach": 6341,
      "ĠSpraw": 6342,
      "Ġniczym": 6343,
      "Ġmega": 6344,
      "dziÅĤo": 6345,
      "Osta": 6346,
      "Ġkoszy": 6347,
      "ĠbÅĤÄħd": 6348,
      "pÅĤyw": 6349,
      "kÅĤo": 6350,
      "ĠczoÅĤ": 6351,
      "Ġnieko": 6352,
      "Ġprzyby": 6353,
      "ĠÅĽli": 6354,
      "ĠkoÅĦczy": 6355,
      "Ġelektro": 6356,
      "ĠZosta": 6357,
      "ĠCom": 6358,
      "Ġgimna": 6359,
      "ley": 6360,
      "ĠTro": 6361,
      "ĠWoje": 6362,
      "Ġdodatku": 6363,
      "ÅĤami": 6364,
      "jac": 6365,
      "ĠczasÃ³w": 6366,
      "Ġmiesza": 6367,
      "Ġpobli": 6368,
      "dba": 6369,
      "Ġmiesia": 6370,
      "Ġinteresu": 6371,
      "Ġaplikacji": 6372,
      "ĠwidziaÅĤem": 6373,
      "Ġkryzy": 6374,
      "Ġodw": 6375,
      "mentu": 6376,
      "Ġobszar": 6377,
      "TU": 6378,
      "wca": 6379,
      "stwem": 6380,
      "ĠNiemiec": 6381,
      "Ġszczu": 6382,
      "miona": 6383,
      "cielem": 6384,
      "ĠNaleÅ¼y": 6385,
      "ĠPÃ³ÅĤ": 6386,
      "emo": 6387,
      "ĠwyciÄħg": 6388,
      "He": 6389,
      "Ġzgi": 6390,
      "Ġniebie": 6391,
      "-ma": 6392,
      "ĠpozostaÅĤych": 6393,
      "ĠsÅĤuÅ¼by": 6394,
      "wler": 6395,
      "Ġkoncer": 6396,
      "zej": 6397,
      "ĠAdam": 6398,
      "ÅĽc": 6399,
      "ĠÅĽrodku": 6400,
      "ĠfunkcjÄĻ": 6401,
      "ĠbudÅ¼etu": 6402,
      "nÃ³": 6403,
      "Ġodm": 6404,
      "Ġbudowy": 6405,
      "SÅĤu": 6406,
      "ĠokazaÅĤo": 6407,
      "ĠÅĽwi": 6408,
      "ĠrÃ³Å¼nica": 6409,
      "czer": 6410,
      "Ġjedzenia": 6411,
      "Ġchrze": 6412,
      "sel": 6413,
      "rzym": 6414,
      "dytowany": 6415,
      "nikami": 6416,
      "ĠksiÄħÅ¼ki": 6417,
      "Ġprzyspie": 6418,
      "produ": 6419,
      "ĠTwÃ³j": 6420,
      "ĠSystem": 6421,
      "ling": 6422,
      "Ġjab": 6423,
      "ĠbÃ³": 6424,
      "ĠuwzglÄĻdnia": 6425,
      "Ġ&": 6426,
      "Czas": 6427,
      "ĠsystemÃ³w": 6428,
      "samowi": 6429,
      "Ġogranicza": 6430,
      "spÃ³l": 6431,
      "Ġczterech": 6432,
      "Ġpanu": 6433,
      "dnik": 6434,
      "mocy": 6435,
      "Ġnapo": 6436,
      "Å¼onego": 6437,
      "ĠostroÅ¼": 6438,
      "Ġpoleca": 6439,
      "186": 6440,
      "Ġpat": 6441,
      "ĠuÅĽmie": 6442,
      "Ġrozsze": 6443,
      "Ġnaraz": 6444,
      "ĠwysokoÅĽÄĩ": 6445,
      "Ġono": 6446,
      "Ġprzeszkadza": 6447,
      "ĠmaÅĤÅ¼e": 6448,
      "mian": 6449,
      "ĠnajwaÅ¼niejsze": 6450,
      "szona": 6451,
      "EL": 6452,
      "Ġkwestii": 6453,
      "ĠwÅĤasnych": 6454,
      "bla": 6455,
      "ĠÄĻ": 6456,
      "Ġfilozo": 6457,
      "empla": 6458,
      "ĠprzykÅĤa": 6459,
      "Ġopowiada": 6460,
      "Ġprzycisk": 6461,
      "ĠskoÅĦ": 6462,
      "Ġstawia": 6463,
      "niesienia": 6464,
      "ĠdÅĤugie": 6465,
      "autor": 6466,
      "ĠpierwszÄħ": 6467,
      "ALA": 6468,
      "ĠwÅĤasnej": 6469,
      "Ġpozostaje": 6470,
      "ĠEdytowany": 6471,
      "Ġgrupa": 6472,
      "akra": 6473,
      "ĠrobiÄħ": 6474,
      "ĠprzemysÅĤ": 6475,
      "ĠpielÄĻ": 6476,
      "Ġzer": 6477,
      "osen": 6478,
      "Ġstaje": 6479,
      "ĠDobrze": 6480,
      "Ġnajlepszy": 6481,
      "Ġodej": 6482,
      "Ġpobiera": 6483,
      "ĠjeÅº": 6484,
      "Ġnag": 6485,
      "kres": 6486,
      "naÅĽcie": 6487,
      "Ġapara": 6488,
      "wor": 6489,
      "domi": 6490,
      "ĠGro": 6491,
      "crawler": 6492,
      "Ġmoj": 6493,
      "Ġbuty": 6494,
      "Ġrodzice": 6495,
      "pisz": 6496,
      "ĠCor": 6497,
      "Ġprezent": 6498,
      "NO": 6499,
      "uchy": 6500,
      "ĠDlaczego": 6501,
      "ĠrozwiÄħzaÅĦ": 6502,
      "hostcrawler": 6503,
      "GA": 6504,
      "Ġskur": 6505,
      "kowany": 6506,
      "Ġzegar": 6507,
      "ĠPrawo": 6508,
      "bela": 6509,
      "ĠtaÅĦ": 6510,
      "Ġsyna": 6511,
      "Lo": 6512,
      "Ġsprawoz": 6513,
      "ĠmaÅĤych": 6514,
      "Ġzasko": 6515,
      "ĠMer": 6516,
      "tylko": 6517,
      "Ġzap": 6518,
      "ĠÅ»e": 6519,
      "Ġbrytyj": 6520,
      "ĠdietÄĻ": 6521,
      "Ġsklepie": 6522,
      "stans": 6523,
      "ĠmiejscowoÅĽci": 6524,
      "Ġlam": 6525,
      "kta": 6526,
      "ĠuÅĤat": 6527,
      "zny": 6528,
      "ÃŃ": 6529,
      "ĠdÃ³ÅĤ": 6530,
      "Ġdba": 6531,
      "ĠSÅĤu": 6532,
      "Ġczekam": 6533,
      "ĠbyÅĽ": 6534,
      "ĠpodjÄĻ": 6535,
      "Ġkarie": 6536,
      "Ġegzaminu": 6537,
      "ĠdÅĤugoÅĽci": 6538,
      "lus": 6539,
      "niÄĻciu": 6540,
      "Ġkomfor": 6541,
      "ssa": 6542,
      "Ġwsparcie": 6543,
      "Ġskom": 6544,
      "Ġprzeczyta": 6545,
      "ĠPraw": 6546,
      "Ġscho": 6547,
      "Ġkasy": 6548,
      "ĠGi": 6549,
      "Ġszac": 6550,
      "ĠNic": 6551,
      "Ġspotkania": 6552,
      "rzony": 6553,
      "Ġpodatku": 6554,
      "ĠwielkoÅĽci": 6555,
      "byÄĩ": 6556,
      "Ġfrag": 6557,
      "ryte": 6558,
      "Ġgrzy": 6559,
      "zak": 6560,
      "ĠÅ¼yje": 6561,
      "trona": 6562,
      "ĠrozwiÄħzanie": 6563,
      "Ġuczy": 6564,
      "ĠOC": 6565,
      "ÅĤuje": 6566,
      "ĠpoÅĽredni": 6567,
      "Ġgospodarki": 6568,
      "Ġrela": 6569,
      "wcy": 6570,
      "Ġteren": 6571,
      "ĠaktywnoÅĽci": 6572,
      "ĠPolakÃ³w": 6573,
      "Ġdziwne": 6574,
      "ĠzarzÄħdzania": 6575,
      "zumienia": 6576,
      "Ġcom": 6577,
      "Ġwskazuje": 6578,
      "Ġnajgor": 6579,
      "maty": 6580,
      "Ġkomp": 6581,
      "Ġtempo": 6582,
      "Ġpartner": 6583,
      "ĠTre": 6584,
      "Ġsprawach": 6585,
      "ĠsprzedaÅ¼": 6586,
      "licy": 6587,
      "ĠsÅĤody": 6588,
      "RZE": 6589,
      "jnej": 6590,
      "gÅĤÄĻ": 6591,
      "ĠdoszÅĤo": 6592,
      "rin": 6593,
      "ĠspoÅĤecznych": 6594,
      "Ã¶": 6595,
      "Ġobejmuje": 6596,
      "ĠJor": 6597,
      "kony": 6598,
      "ies": 6599,
      "Ġwoli": 6600,
      "waÅĤem": 6601,
      "Ġizo": 6602,
      "Ghostcrawler": 6603,
      "Ġnagra": 6604,
      "Å¼ka": 6605,
      "Ġobwo": 6606,
      "nice": 6607,
      "Ġplat": 6608,
      "Ġwykorzystu": 6609,
      "97": 6610,
      "kowÄħ": 6611,
      "portu": 6612,
      "szyÅĤ": 6613,
      "????": 6614,
      "Ġzaburzenia": 6615,
      "Ġrozmia": 6616,
      "ĠZawsze": 6617,
      "Ðµ": 6618,
      "ĠukoÅĦ": 6619,
      "Ġbrzucha": 6620,
      "zju": 6621,
      "dago": 6622,
      "Ġalbu": 6623,
      "ĠMimo": 6624,
      "mowania": 6625,
      "Ġopubli": 6626,
      "kadem": 6627,
      "Ġnajwy": 6628,
      "ĠdobÄĻ": 6629,
      "Ġterytorium": 6630,
      "Ġregiona": 6631,
      "Ġrodzinie": 6632,
      "Ġmistrzo": 6633,
      "ĠpÃ³ki": 6634,
      "ĠmiÅĤoÅĽci": 6635,
      "ĠPolskiego": 6636,
      "lenda": 6637,
      "ĠInforma": 6638,
      "ĠwÅĤadzy": 6639,
      "tÅĤuma": 6640,
      "Ġjakiego": 6641,
      "ĠsamÄħ": 6642,
      "ĠSS": 6643,
      "nci": 6644,
      "Ã³ze": 6645,
      "ĠSuper": 6646,
      "Ġznik": 6647,
      "Ġdop": 6648,
      "hu": 6649,
      "sus": 6650,
      "Ġcele": 6651,
      "AW": 6652,
      "Ġaku": 6653,
      "Ġliczy": 6654,
      "Ġposa": 6655,
      "stawienia": 6656,
      "Nawet": 6657,
      "Ġzaczynam": 6658,
      "Ġdrog": 6659,
      ";)": 6660,
      "jnego": 6661,
      "omi": 6662,
      "ĠdostÄĻpu": 6663,
      "czasem": 6664,
      "frastruktu": 6665,
      "czba": 6666,
      "Ġudziela": 6667,
      "Ġbom": 6668,
      "Ġdodaje": 6669,
      "ĠPowie": 6670,
      "188": 6671,
      "cebo": 6672,
      "szty": 6673,
      "ĠPR": 6674,
      "ĠbranÅ¼y": 6675,
      "ĠroÅĽliny": 6676,
      "ĠPK": 6677,
      "Ġustala": 6678,
      "Ġargu": 6679,
      "leniu": 6680,
      "legro": 6681,
      "AP": 6682,
      "reb": 6683,
      "dentÃ³w": 6684,
      "Ġpewnym": 6685,
      "ÅĤoÅ¼yÄĩ": 6686,
      "ĠdostaÄĩ": 6687,
      "dziaÅĤek": 6688,
      "kujesz": 6689,
      "ĠzÄĻ": 6690,
      "Ġmomentu": 6691,
      "ĠStani": 6692,
      "ĠpracowaÄĩ": 6693,
      "Ġegzempla": 6694,
      "Ġsukces": 6695,
      "ĠszkÃ³ÅĤ": 6696,
      "Ġdlu": 6697,
      "ĠduÅ¼ym": 6698,
      "gÅĤasza": 6699,
      "ĠlÄħ": 6700,
      "niowe": 6701,
      "ĠwyszÅĤo": 6702,
      "landii": 6703,
      "ĠÅĽla": 6704,
      "nÄĻÅĤy": 6705,
      "nionej": 6706,
      "Ġwymagania": 6707,
      "owcÃ³w": 6708,
      "OT": 6709,
      "ĠstaÅĤa": 6710,
      "Ġdaj": 6711,
      "mon": 6712,
      "kru": 6713,
      "ĠbiegaÄĩ": 6714,
      "ĠodrÄĻb": 6715,
      "gda": 6716,
      "lory": 6717,
      "Ġtwoim": 6718,
      "vel": 6719,
      "anka": 6720,
      "Ġzajmuje": 6721,
      "ĠÅĽwiadomo": 6722,
      "ĠmÄĻÅ¼a": 6723,
      "ĠÅĤÄħcznie": 6724,
      "set": 6725,
      "ema": 6726,
      "Ġspowodowa": 6727,
      "ĠOn": 6728,
      "ĠliczyÄĩ": 6729,
      "Bie": 6730,
      "ssi": 6731,
      "Ġdostarcza": 6732,
      "Ġkontakt": 6733,
      "ĠJeste": 6734,
      "ĠXIX": 6735,
      "Ġkomisji": 6736,
      "smy": 6737,
      "Mamy": 6738,
      "ĠwÄħtpliwoÅĽci": 6739,
      "ĠÅĽnie": 6740,
      "Ġreszta": 6741,
      "ĠÅ¼ona": 6742,
      "Ġminister": 6743,
      "Ġbut": 6744,
      "ĠludnoÅĽci": 6745,
      "ksand": 6746,
      "lnymi": 6747,
      "ĠgÃ³rÄĻ": 6748,
      "81": 6749,
      "Ġpobra": 6750,
      "ÅĦskÄħ": 6751,
      "ĠKat": 6752,
      "ĠOp": 6753,
      "Ġpakie": 6754,
      "powo": 6755,
      "lono": 6756,
      "ĠzostanÄħ": 6757,
      "ĠbiorÄĻ": 6758,
      "op": 6759,
      "Ġzapyta": 6760,
      "ĠmiesiÄĻ": 6761,
      "Ġidenty": 6762,
      "king": 6763,
      "ĠwodÄĻ": 6764,
      "\"ĊĊ": 6765,
      "Ġtemperatury": 6766,
      "que": 6767,
      "ĠRober": 6768,
      "Ġzrobic": 6769,
      "Ġodbior": 6770,
      "owuje": 6771,
      "Ġstandar": 6772,
      "Ġmaszyn": 6773,
      "dry": 6774,
      "Ġzmo": 6775,
      "Ġbudynku": 6776,
      "ĠpowaÅ¼nie": 6777,
      "ĠJana": 6778,
      "Ġwojnie": 6779,
      "pekty": 6780,
      "Ġspada": 6781,
      "ĠÂł": 6782,
      "Ġlapto": 6783,
      "Å¹": 6784,
      "Ġbiegania": 6785,
      "ĠRzy": 6786,
      "Ġaplika": 6787,
      "szku": 6788,
      "Ġzakup": 6789,
      "dego": 6790,
      "gencji": 6791,
      "Ġpotrzebne": 6792,
      "Ġunik": 6793,
      "jechaÄĩ": 6794,
      "Ġsezon": 6795,
      "ĠPC": 6796,
      "Ġprzetwarzanie": 6797,
      "cznika": 6798,
      "Ġinicja": 6799,
      "ES": 6800,
      "ĠosobÄħ": 6801,
      "Ga": 6802,
      "Ġrelacji": 6803,
      "cymi": 6804,
      "Ġzajmu": 6805,
      "uÅ¼y": 6806,
      "Ġmialam": 6807,
      "gn": 6808,
      "ĠosobiÅĽcie": 6809,
      "Ġinstalacji": 6810,
      "OK": 6811,
      "fikacja": 6812,
      "rÃ³deÅĤ": 6813,
      "Ġpodobno": 6814,
      "Ġkompa": 6815,
      "ĠwrÃ³ciÄĩ": 6816,
      "Ġprofesjona": 6817,
      "Ġpisem": 6818,
      "ĠrzeczywistoÅĽci": 6819,
      "Ġwreszcie": 6820,
      "Ġmobi": 6821,
      "Ġczujesz": 6822,
      "ĠsÅĤone": 6823,
      "ĠKsiÄĻ": 6824,
      "Ġataku": 6825,
      "Ġprzerwy": 6826,
      "ĠtysiÄħ": 6827,
      "rÃ³Å¼y": 6828,
      "Ġspotkanie": 6829,
      "ĠzastÄħpi": 6830,
      "ĠAM": 6831,
      "ĠprawdÄĻ": 6832,
      "Ġprzesu": 6833,
      "Ġzapomnia": 6834,
      "tero": 6835,
      "...ĊĊ": 6836,
      "jski": 6837,
      "xa": 6838,
      "pety": 6839,
      "ĠgodzinÄĻ": 6840,
      "Ġwybor": 6841,
      "Ġtobie": 6842,
      "Ġplanowa": 6843,
      "ĠzewnÄħtrz": 6844,
      "gier": 6845,
      "ĠKolej": 6846,
      "ĠGALA": 6847,
      "gene": 6848,
      "Ce": 6849,
      "czku": 6850,
      "Ġpiosen": 6851,
      "Ġkrajach": 6852,
      "zesa": 6853,
      "ĠwchodzÄħ": 6854,
      "lip": 6855,
      "Ġprzeja": 6856,
      "ĠdodaÄĩ": 6857,
      "Ġpojazdu": 6858,
      "lku": 6859,
      "Ġfinansowych": 6860,
      "Ġswobo": 6861,
      "Ġwyp": 6862,
      "ĠCzer": 6863,
      "Ġnikogo": 6864,
      "ĠzrobiÄĻ": 6865,
      "ĠwyÅĽwietla": 6866,
      "ĠwiedzÄħ": 6867,
      "ÂłÂłÂłÂłÂłÂłÂłÂł": 6868,
      "82": 6869,
      "71": 6870,
      "ĠprzesÅĤa": 6871,
      "Ġodniesieniu": 6872,
      "dzic": 6873,
      "ĠksztaÅĤcenia": 6874,
      "ĠdosyÄĩ": 6875,
      "jechaÅĤ": 6876,
      "ĠsÅĤuÅ¼b": 6877,
      "tkami": 6878,
      "decznie": 6879,
      "ctwie": 6880,
      "Åºle": 6881,
      "Ġleczenie": 6882,
      "ĠrÄħ": 6883,
      "ĠwiÄĻkszy": 6884,
      "Pre": 6885,
      "Ġroli": 6886,
      "wione": 6887,
      "kamy": 6888,
      "woju": 6889,
      "Ġleci": 6890,
      "Ġrana": 6891,
      "ÅĤkÄĻ": 6892,
      "grafia": 6893,
      "ĠÅĽpie": 6894,
      "Ġochronie": 6895,
      "Ġtransportu": 6896,
      "ĠskÃ³ry": 6897,
      "ĠDziaÅĤa": 6898,
      "tkach": 6899,
      "Ġkoszt": 6900,
      "dziesiÄħ": 6901,
      "Ġfirmie": 6902,
      "Ġzapewne": 6903,
      "ÅĽciem": 6904,
      "ĠzwiÄħzek": 6905,
      "lowe": 6906,
      "ĠleÅ¼y": 6907,
      "ĠGdaÅĦ": 6908,
      "ĠwÅĤaÅĽciwego": 6909,
      "ĠpodwyÅ¼": 6910,
      "bora": 6911,
      "Ġniespo": 6912,
      "101": 6913,
      "Ġprzeprowadza": 6914,
      "Ġprosto": 6915,
      "niak": 6916,
      "lujÄĻ": 6917,
      "Ġdziedzinie": 6918,
      "Ġpierwo": 6919,
      ",ze": 6920,
      "caÄĩ": 6921,
      "Ġwszelkie": 6922,
      "ĠczekaÄĩ": 6923,
      "ĠUni": 6924,
      "Ġposie": 6925,
      "Ġdotar": 6926,
      "ĠwejÅĽcia": 6927,
      "Ġpl": 6928,
      "ĠwiÄĻkszej": 6929,
      "sio": 6930,
      "ĠpÅĤyty": 6931,
      "robo": 6932,
      "Ġpolskie": 6933,
      "Ġprzyty": 6934,
      "Ġmagi": 6935,
      "ĠzamÃ³wienia": 6936,
      "ficj": 6937,
      "Ġinnowa": 6938,
      "rost": 6939,
      "Ġwyz": 6940,
      "Ġgroma": 6941,
      "Ġaspe": 6942,
      "Ġnazwisko": 6943,
      "systent": 6944,
      "Äħza": 6945,
      "Ġke": 6946,
      "zÄħ": 6947,
      "kcal": 6948,
      "ĠInstytu": 6949,
      "Ġsuge": 6950,
      "ĠchciaÅĤam": 6951,
      "ĠsprÃ³bu": 6952,
      "strybu": 6953,
      "datk": 6954,
      "ĠmÄĻÅ¼czyzn": 6955,
      "Ġodpowiednie": 6956,
      "ĠdziaÅĤaÄĩ": 6957,
      "Ġwychowa": 6958,
      "-u": 6959,
      "ĠwyjÄħtkiem": 6960,
      "ĠwyksztaÅĤ": 6961,
      "Ġadministracji": 6962,
      "ĠwpÅĤywa": 6963,
      "ĠnastÄĻpuje": 6964,
      "ĠsiÅĤÄĻ": 6965,
      "Ġstaram": 6966,
      "ĠPracu": 6967,
      "ĠWÄĻ": 6968,
      "ceps": 6969,
      "So": 6970,
      "ĠÅ¼ebym": 6971,
      "Moje": 6972,
      "ĠwÃ³z": 6973,
      "dowym": 6974,
      "ĠMc": 6975,
      "tele": 6976,
      "anu": 6977,
      "Å¼ynie": 6978,
      "Ġdochodzi": 6979,
      "ĠCzas": 6980,
      "Ġnaro": 6981,
      "mion": 6982,
      "lit": 6983,
      "Ġzastosowanie": 6984,
      ":val": 6985,
      "@Ghostcrawler": 6986,
      "ÅĽcija": 6987,
      "czoÅĽci": 6988,
      "Ġbieganie": 6989,
      "ĠCza": 6990,
      "ĠKe": 6991,
      "Ġkonfli": 6992,
      "fii": 6993,
      "ĠzakoÅĦczeniu": 6994,
      "ĠnapisaÄĩ": 6995,
      "Ġzaw": 6996,
      "atem": 6997,
      "ĠchÄĻtnie": 6998,
      "sora": 6999,
      "ĠkoleÅ¼": 7000,
      "kowaniu": 7001,
      "Ġwzo": 7002,
      "Pr": 7003,
      "waniem": 7004,
      "ĠAuto": 7005,
      "niowych": 7006,
      "187": 7007,
      "Ġaz": 7008,
      "Ġgranicy": 7009,
      "raÅ¼": 7010,
      "Ġawar": 7011,
      "ĠKor": 7012,
      "Ġspecyfi": 7013,
      "Ġmale": 7014,
      "ĠProszÄĻ": 7015,
      "Ġmaj": 7016,
      "Ġenerge": 7017,
      "ĠbiaÅĤka": 7018,
      "Ġswego": 7019,
      "wano": 7020,
      "cti": 7021,
      "ĠjÄĻzyku": 7022,
      "ĠÅĽmierÄĩ": 7023,
      "Ar": 7024,
      "szÄĻdzie": 7025,
      "ĠzdobyÅĤ": 7026,
      "kaz": 7027,
      "czkÄħ": 7028,
      "Ġszczerze": 7029,
      "Ġmniejsze": 7030,
      "Ġodebra": 7031,
      "Ġzba": 7032,
      "Ġkolek": 7033,
      "jek": 7034,
      "Ġsztuki": 7035,
      "owanÄħ": 7036,
      "ĠSpoÅĤe": 7037,
      "nieÅĦ": 7038,
      "sznie": 7039,
      "ĠSP": 7040,
      "Ġdopuszcza": 7041,
      "alnego": 7042,
      "ĠÅĤat": 7043,
      "Ġweekend": 7044,
      "Ġwycofa": 7045,
      "ĠuÅ¼ytkownikÃ³w": 7046,
      "zwycza": 7047,
      "Ġprzejmuj": 7048,
      "zjum": 7049,
      "Ġotrzymuje": 7050,
      "ĠPart": 7051,
      "ĠkrÃ³tko": 7052,
      "ĠcÃ³Å¼": 7053,
      "ĠDziÅĽ": 7054,
      "Ġpotrzeba": 7055,
      "typ": 7056,
      "Ġbyl": 7057,
      "ĠkrÄħ": 7058,
      "Ġmiejscach": 7059,
      "ĠprzedÅĤu": 7060,
      "PamiÄĻ": 7061,
      "Ġmodu": 7062,
      "OP": 7063,
      "ist": 7064,
      "Ġprzepisami": 7065,
      "Ġewentualnie": 7066,
      "Ġzatrudnienia": 7067,
      "ÅĤoÅ¼y": 7068,
      "ĠMyÅĽlÄĻ": 7069,
      "ĠpodkreÅĽla": 7070,
      "ĠkoÅĽcio": 7071,
      "Ġanalizy": 7072,
      "Sko": 7073,
      "ĠNiemcy": 7074,
      "Ġinwestycji": 7075,
      "Ã³dz": 7076,
      "Ġkompeten": 7077,
      "Pat": 7078,
      "Ġzwal": 7079,
      "Ġminimum": 7080,
      "chwy": 7081,
      "Ġterytoria": 7082,
      "sztÄħ": 7083,
      "ĠmÃ³wisz": 7084,
      "108": 7085,
      "ĠsÅĤuÅ¼Äħ": 7086,
      "Nowa": 7087,
      "Ġmonitor": 7088,
      "ĠSza": 7089,
      "ĠÅºrÃ³deÅĤ": 7090,
      "pisÃ³w": 7091,
      "Ġspace": 7092,
      "sna": 7093,
      "Ġcharakterysty": 7094,
      "Ġnormalne": 7095,
      "Ġpomimo": 7096,
      "wac": 7097,
      "Ġczasach": 7098,
      "ĠkrajÃ³w": 7099,
      "ĠÅĽrodka": 7100,
      "ĠQu": 7101,
      "OL": 7102,
      "Ġmatka": 7103,
      "Ġutrzymy": 7104,
      "Ġewi": 7105,
      "ĠSport": 7106,
      "czami": 7107,
      "ĠwspÃ³lnego": 7108,
      "str": 7109,
      "ĠMor": 7110,
      "informa": 7111,
      "Ġkwoty": 7112,
      "Ġprzerwa": 7113,
      "ÅĦcy": 7114,
      "ĠMiÄĻdzy": 7115,
      "poli": 7116,
      "ĠSk": 7117,
      "Ġsma": 7118,
      "dynie": 7119,
      "ĠZacho": 7120,
      "ĠUkrai": 7121,
      "Ġkredy": 7122,
      "Ġtransport": 7123,
      "Ġchcemy": 7124,
      "ĠzresztÄħ": 7125,
      "Ġjaj": 7126,
      "Ġprzechowy": 7127,
      "Ġdanym": 7128,
      "Ġprowadzenie": 7129,
      "ĠÅ¼aden": 7130,
      "Ġzasob": 7131,
      "Ġwydo": 7132,
      "Ġpodaje": 7133,
      "Ġjakos": 7134,
      "Ġupad": 7135,
      "dziaÅĤÃ³w": 7136,
      "ciÄħgu": 7137,
      "zywaÄĩ": 7138,
      "Ġunie": 7139,
      "Ġzatwier": 7140,
      "cko": 7141,
      "Ã³wki": 7142,
      "Ġfanta": 7143,
      "ĠAkadem": 7144,
      "Ġszere": 7145,
      "Ġcykl": 7146,
      "wami": 7147,
      "Ġprzechodzi": 7148,
      "ïĢ": 7149,
      "Ġwyjdzie": 7150,
      "ĠniepoÅ¼Äħda": 7151,
      "nge": 7152,
      "Ġwiary": 7153,
      "Ġoskar": 7154,
      "Ġulicy": 7155,
      "Ġpli": 7156,
      "ĠÅģo": 7157,
      "Ġtrzymam": 7158,
      "niÄĻty": 7159,
      "Ġdefini": 7160,
      "Ġfacet": 7161,
      "ĠzmianÄĻ": 7162,
      "ĠwyraÅºnie": 7163,
      "tujÄħ": 7164,
      "Ġkoncent": 7165,
      "ĠwyglÄħ": 7166,
      "ĠmiÅĤoÅĽÄĩ": 7167,
      "byÅĽmy": 7168,
      "okra": 7169,
      "Ġarmii": 7170,
      "ĠÅĽcie": 7171,
      "Ġuwielbia": 7172,
      "ĠPamiÄĻ": 7173,
      "Ġstosowanie": 7174,
      "Ġnasza": 7175,
      "Ġuzyskania": 7176,
      "Ġkontek": 7177,
      "ĠPotem": 7178,
      "raÅ¼a": 7179,
      "Ġrywali": 7180,
      "ĠBoga": 7181,
      "ĠÅļrod": 7182,
      "lat": 7183,
      "Ġchemi": 7184,
      "Ġpowtarza": 7185,
      "-B": 7186,
      "ĠsÅĤÃ³w": 7187,
      "prezent": 7188,
      "ĠmyÅĽlisz": 7189,
      "ĠÅ¼Äħ": 7190,
      "Powi": 7191,
      "owska": 7192,
      "ĠWarto": 7193,
      "serwa": 7194,
      ");": 7195,
      "ĠmiesiÄħcu": 7196,
      "ĠschudnÄħÄĩ": 7197,
      "Ġskali": 7198,
      "ĠWarszawy": 7199,
      "ZY": 7200,
      "Ġlist": 7201,
      "Ġinstytucji": 7202,
      "dziela": 7203,
      "Ġwola": 7204,
      "wziÄĻ": 7205,
      "ĠidÄĻ": 7206,
      "starczy": 7207,
      "Ġwypi": 7208,
      "dawcy": 7209,
      "Ġzadzwo": 7210,
      "dzonego": 7211,
      "Ġwiemy": 7212,
      "weÅĤ": 7213,
      "Ġwytwarza": 7214,
      "Ġzezwo": 7215,
      "Ġtrzecie": 7216,
      "PL": 7217,
      "ĠWielkiej": 7218,
      "pom": 7219,
      "Ġporozmawia": 7220,
      "ĠmÄħd": 7221,
      "Ġrekor": 7222,
      "Ġroboty": 7223,
      "ĠwagÄĻ": 7224,
      "Ġzwolnie": 7225,
      "EC": 7226,
      "700": 7227,
      "Ġniewiel": 7228,
      "ĠbojÄĻ": 7229,
      "ĠrÃ³wnie": 7230,
      "Ġpode": 7231,
      "Ġwysokie": 7232,
      "ĠRÃ³w": 7233,
      "Ġnajlepszych": 7234,
      "Ġregulami": 7235,
      "Ġprzepisach": 7236,
      "ĠwejÅĽÄĩ": 7237,
      "czonÄħ": 7238,
      "Ġbisku": 7239,
      "ĠWtedy": 7240,
      "ïĤ·": 7241,
      "cieka": 7242,
      "dwi": 7243,
      "sje": 7244,
      "Ġbrzmi": 7245,
      "Fi": 7246,
      "Ġspecjalnie": 7247,
      "uszy": 7248,
      "ĠprowadziÄĩ": 7249,
      "NaprawdÄĻ": 7250,
      "Ġotwiera": 7251,
      "ĠTakie": 7252,
      "ĠpowiÄħza": 7253,
      "Ġnieprze": 7254,
      "step": 7255,
      "Ġzapropo": 7256,
      "skÄĻ": 7257,
      "sar": 7258,
      "ĠZjednoczonych": 7259,
      "Kar": 7260,
      "szuki": 7261,
      "Ġpatrzy": 7262,
      "Ġinterak": 7263,
      "Ġgli": 7264,
      "strÃ³w": 7265,
      "dnieniem": 7266,
      "ĠpeÅĤny": 7267,
      "tanie": 7268,
      "Ġproducenta": 7269,
      "dowane": 7270,
      "âĪ": 7271,
      "waÅĤam": 7272,
      "torek": 7273,
      "cona": 7274,
      "tacjÄĻ": 7275,
      "Ġmiec": 7276,
      "ĠprogramÃ³w": 7277,
      "Ġodpor": 7278,
      "lle": 7279,
      "Ġwspomaga": 7280,
      "Ġram": 7281,
      "towany": 7282,
      "Ġznisz": 7283,
      "Ġpomys": 7284,
      "lasy": 7285,
      "tys": 7286,
      "Ġniesamowi": 7287,
      "Ġzamierza": 7288,
      "Ġpokazuje": 7289,
      "Ġstacji": 7290,
      "ĠHiszpa": 7291,
      "ĠkrÃ³la": 7292,
      "ĠÅĽlu": 7293,
      "Ġinteli": 7294,
      "spery": 7295,
      "Zam": 7296,
      "ĠÅĤÃ³": 7297,
      "ĠHer": 7298,
      "Przez": 7299,
      "mnieÄĩ": 7300,
      "czucie": 7301,
      "zumiem": 7302,
      "ÅĤowi": 7303,
      "Ġchomi": 7304,
      "ĠmetrÃ³w": 7305,
      "ĠJÃ³ze": 7306,
      "ĠKaÅ¼dy": 7307,
      "ĠleÅ¼Äħ": 7308,
      "Ġsprowa": 7309,
      "lla": 7310,
      "Ġzdrowie": 7311,
      "zywania": 7312,
      "sety": 7313,
      "ĠDie": 7314,
      "ĠTam": 7315,
      "szto": 7316,
      "ĠGdzie": 7317,
      "tuj": 7318,
      "Ġetapie": 7319,
      "czytaÄĩ": 7320,
      "ĠJakie": 7321,
      "Ġmowi": 7322,
      "ĠciÄĻÅ¼ar": 7323,
      "jestrowa": 7324,
      "ĠÅĽciÄħ": 7325,
      "ĠkoÅĤa": 7326,
      "kiedy": 7327,
      "Ġstatysty": 7328,
      "Ġnerek": 7329,
      "Ad": 7330,
      "ÅĤku": 7331,
      "Ġoparciu": 7332,
      "ĠrealizacjÄĻ": 7333,
      "miny": 7334,
      "ĠTrzeba": 7335,
      "Ġwzmoc": 7336,
      "ĠrozpoczÄħÅĤ": 7337,
      "ĠgÅĤowÄĻ": 7338,
      "trzebu": 7339,
      "ĠwiÄĻksza": 7340,
      "Ġkonkursu": 7341,
      "ĠInd": 7342,
      "Ġchwile": 7343,
      "76": 7344,
      "sowe": 7345,
      "bienia": 7346,
      "âĢĻa": 7347,
      "Ġakadem": 7348,
      "ĠÅ¼yczÄĻ": 7349,
      "Ġmysle": 7350,
      "dzien": 7351,
      "sis": 7352,
      "Ġzasadach": 7353,
      "Ġperspekty": 7354,
      "mac": 7355,
      "dziÅĤy": 7356,
      "Ġdocze": 7357,
      "wiec": 7358,
      "Ġostatecznie": 7359,
      "ĠTi": 7360,
      "ĠzrobiÅĤem": 7361,
      "ĠgoÅĽci": 7362,
      "Ġdzieckiem": 7363,
      "ĠcenÄĻ": 7364,
      "Ġtrafia": 7365,
      "ĠwystÄĻpujÄħ": 7366,
      "Ġnaczy": 7367,
      "ĠÅģa": 7368,
      "Sto": 7369,
      "ĠmyÅĽlaÅĤem": 7370,
      "Ġzaledwie": 7371,
      "Ġzmniejsza": 7372,
      "ĠPola": 7373,
      "ĠPiotr": 7374,
      "Ġtrudne": 7375,
      "haha": 7376,
      "Ġkatoli": 7377,
      "lans": 7378,
      "ĠÅºrÃ³dÅĤa": 7379,
      "Chcesz": 7380,
      "ĠPaÅĦstwa": 7381,
      "rent": 7382,
      "ĠwystÄħpienia": 7383,
      "ĠmiÄĻÅĽnie": 7384,
      "Ġzmianie": 7385,
      "Ġzawartych": 7386,
      "zon": 7387,
      "Ġlimi": 7388,
      "glowo": 7389,
      "Ġkomunikacji": 7390,
      "Å¼ni": 7391,
      "Ġtwarzy": 7392,
      "Ġwentyla": 7393,
      "Ġoptyma": 7394,
      "Ġhistoria": 7395,
      "zycji": 7396,
      ",bo": 7397,
      "Ġkonferen": 7398,
      "MoÅ¼esz": 7399,
      "kimi": 7400,
      ":-": 7401,
      "ĠdaÅĤ": 7402,
      "niosÅĤa": 7403,
      "Ġkaza": 7404,
      "ilka": 7405,
      "ĠMÃ³j": 7406,
      "Ġwymienia": 7407,
      "ĠGar": 7408,
      "Ġostatniej": 7409,
      "Ġszan": 7410,
      "lismy": 7411,
      "\"),": 7412,
      "Ġopcji": 7413,
      "ĠwyÅ¼sze": 7414,
      "lecia": 7415,
      "nin": 7416,
      "ĠâĢĵĊĊ": 7417,
      "dech": 7418,
      "Ġreligi": 7419,
      "ĠinnÄħ": 7420,
      "ĠuÅ¼ywanych": 7421,
      "iÄĻkszoÅĽÄĩ": 7422,
      "Ġporusza": 7423,
      "ĠprzeciÄĻ": 7424,
      "ĠmajÄħc": 7425,
      "ĠprzewodniczÄħ": 7426,
      "Ġtabletki": 7427,
      "piec": 7428,
      "Ġbrze": 7429,
      "ĠFer": 7430,
      "Ġkwalifika": 7431,
      "pewno": 7432,
      "cus": 7433,
      "tykÃ³w": 7434,
      "ĠPaÅĦstw": 7435,
      "Ġnieprzy": 7436,
      "Ġstanowisku": 7437,
      "ĠJej": 7438,
      "ĠsiedzibÄħ": 7439,
      "Ġwykonu": 7440,
      "ÑĤ": 7441,
      "Ġmetabo": 7442,
      "Ġkonieczne": 7443,
      "ĠsprÃ³bowaÄĩ": 7444,
      "UM": 7445,
      "zami": 7446,
      "nelu": 7447,
      "chodziÄĩ": 7448,
      "burzenia": 7449,
      "Ġpilo": 7450,
      "letnie": 7451,
      "ĠzdjÄĻÄĩ": 7452,
      "Ġbywa": 7453,
      "szne": 7454,
      "Ġdokony": 7455,
      "ĠwypeÅĤ": 7456,
      "Ġserce": 7457,
      "ĠCentrum": 7458,
      "Ġnaprawde": 7459,
      "Ġmiast": 7460,
      "our": 7461,
      "onka": 7462,
      "Ġzorganiz": 7463,
      "105": 7464,
      "xx": 7465,
      "dzonej": 7466,
      "ĠÄĩwiczyÄĩ": 7467,
      "DZIE": 7468,
      "Ġujaw": 7469,
      "tnia": 7470,
      "ĠwewnÄħtrz": 7471,
      "Ġintegra": 7472,
      "ĠczÄĻÅĽciÄħ": 7473,
      "ĠodpowiedzialnoÅĽci": 7474,
      "zujÄĻ": 7475,
      "Ġzrozumia": 7476,
      "ĠbroÅĦ": 7477,
      "Ġsh": 7478,
      "Panie": 7479,
      "Ġpomia": 7480,
      "Ġzadanie": 7481,
      "nÃ³stwo": 7482,
      "*Ċ": 7483,
      "dytowane": 7484,
      "Ġwydania": 7485,
      "chÅĤo": 7486,
      "Ġopiera": 7487,
      "fal": 7488,
      "uka": 7489,
      "Ġzapla": 7490,
      "Ġodbiera": 7491,
      "Ġkierowcy": 7492,
      "JE": 7493,
      "dawca": 7494,
      "Ġmatki": 7495,
      "Ġprocesor": 7496,
      "Ġdodatkowych": 7497,
      "Poza": 7498,
      "hat": 7499,
      "Ġrusza": 7500,
      "ĠwÅĤasnego": 7501,
      "Ġzamiar": 7502,
      "Ġorganizmu": 7503,
      "dge": 7504,
      "ĠAna": 7505,
      "fery": 7506,
      "LA": 7507,
      "Ġmatem": 7508,
      "Ġinstru": 7509,
      "Ġpolicja": 7510,
      "Ġeki": 7511,
      "ĠpozycjÄĻ": 7512,
      "Ġodwro": 7513,
      "Ġprzyzwycza": 7514,
      "pry": 7515,
      "Ġleczniczego": 7516,
      "ĠProdu": 7517,
      "rÃ³wna": 7518,
      "Ġpewna": 7519,
      "Ġwypa": 7520,
      "niÅ¼": 7521,
      "ENIE": 7522,
      "budowy": 7523,
      "Ġpowierzch": 7524,
      "ĠzÅĤe": 7525,
      "Ġzakupu": 7526,
      "Ġcharakterze": 7527,
      "ĠpopeÅĤ": 7528,
      "Ġoprogram": 7529,
      "ĠÅ¼yw": 7530,
      "Zawsze": 7531,
      ".\"": 7532,
      "ĠktÃ³rymi": 7533,
      "Ġspecjalisty": 7534,
      "dii": 7535,
      "wagi": 7536,
      "ĠOchro": 7537,
      "tional": 7538,
      "Ġnajszyb": 7539,
      "Ġabsolu": 7540,
      "),Ċ": 7541,
      "Ġrozumieniu": 7542,
      "rÃ³ciÅĤ": 7543,
      "ĠsytuacjÄĻ": 7544,
      "ĠVol": 7545,
      "ĠszukaÄĩ": 7546,
      "Ġprezydent": 7547,
      "ĠwieÅĽ": 7548,
      "Ġproblemem": 7549,
      "SRR": 7550,
      "ÅĤÄħcznik": 7551,
      "ĠKrakowie": 7552,
      "CoÅĽ": 7553,
      "Ġpos": 7554,
      "zz": 7555,
      "ĠwalczyÄĩ": 7556,
      "ÅĤudni": 7557,
      "Ġnosi": 7558,
      "ĠrÃ³wnowa": 7559,
      "ĠTry": 7560,
      "MW": 7561,
      "Ġthis": 7562,
      "niejszym": 7563,
      "Ġpowiecie": 7564,
      "ĠĠĠĠĠĠĠĠĠĠĠĠĠĠĠĠĠĠĠĠĠĠĠĠĠĠĠĠĠĠĠĠ": 7565,
      "Ġpoga": 7566,
      "%ĊĊ": 7567,
      "Ġmonta": 7568,
      "ĠwiÄĻzie": 7569,
      "ĠdrogÄĻ": 7570,
      "bierze": 7571,
      "Ġchwil": 7572,
      "tale": 7573,
      "Ġredu": 7574,
      "Ġkosztuje": 7575,
      "ĠwiÄĻkszych": 7576,
      "Å¼nej": 7577,
      "181": 7578,
      "ĠwojewÃ³dztwie": 7579,
      ".DziÄĻkujemy": 7580,
      "ĠznaÄĩ": 7581,
      "Ġhormo": 7582,
      "grafii": 7583,
      "ĠBro": 7584,
      "szÅĤy": 7585,
      "Ġbutel": 7586,
      "Ġiz": 7587,
      "ĠTer": 7588,
      "Ġmleka": 7589,
      "Ġlak": 7590,
      "%,": 7591,
      "ðŁ": 7592,
      "Ġsklepu": 7593,
      "ĠKlie": 7594,
      "Ġstrona": 7595,
      "Ġonline": 7596,
      "Ġemeryta": 7597,
      "Edytowane": 7598,
      "ĠCO": 7599,
      "biu": 7600,
      "Jakie": 7601,
      "Ġstr": 7602,
      "125": 7603,
      "Ġgospodarczej": 7604,
      "don": 7605,
      "PR": 7606,
      "Ġznajdzie": 7607,
      "ĠzachÄĻ": 7608,
      "czce": 7609,
      "ĠÅ¼ebyÅĽ": 7610,
      "ĠÅ¼ywo": 7611,
      "Ġuprze": 7612,
      "tywne": 7613,
      "ÅĤÄħcza": 7614,
      "dÅĤuÅ¼": 7615,
      "ĠkoniecznoÅĽci": 7616,
      "Ġkomplek": 7617,
      "szedÅĤem": 7618,
      "ĠmusiaÅĤa": 7619,
      "Ġrodzin": 7620,
      "ĠpamiÄĻtaÄĩ": 7621,
[...]
