{
  "dataset": "Konstytucja RP + Tajemniczy ogrod (F.H. Burnett)",
  "typ_tokenizera": "byte-level BPE (baza 256 bajtow, merge od ID 256)",
  "liczba_znakow_korpusu": 675937,
  "liczba_regul_merge": 2000,
  "rozmiar_slownika": 2256,
  "przykladowy_tekst": "Rzeczpospolita Polska troszczy się o dobro obywateli, a w ogrodzie zakwitły róże.",
  "tokeny_id": [
    1641,
    267,
    1525,
    691,
    490,
    2072,
    907,
    274,
    410,
    303,
    262,
    792,
    1448,
    1837,
    293,
    368,
    422,
    286,
    1921,
    1172,
    1859,
    687,
    339,
    438,
    46
  ],
  "tokeny_czytelne": [
    "Rze",
    "cz",
    "pospoli",
    "ta ",
    "Pol",
    "ska ",
    "tro",
    "sz",
    "czy ",
    "się ",
    "o ",
    "dob",
    "ro ",
    "obywa",
    "te",
    "li",
    ", a ",
    "w ",
    "ogrodzie ",
    "zak",
    "wit",
    "ły ",
    "ró",
    "że",
    "."
  ],
  "liczba_tokenow": 25,
  "znaki_na_token": 3.24,
  "reguly_merge": [
    [
      197,
      130,
      256
    ],
    [
      110,
      105,
      257
    ],
    [
      97,
      32,
      258
    ],
    [
      44,
      32,
      259
    ],
    [
      101,
      32,
      260
    ],
    [
      105,
      32,
      261
    ],
    [
      111,
      32,
      262
    ],
    [
      196,
      133,
      263
    ],
    [
      196,
      153,
      264
    ],
    [
      46,
      32,
      265
    ],
    [
      121,
      32,
      266
    ],
    [
      99,
      122,
      267
    ],
    [
      105,
      101,
      268
    ],
    [
      97,
      256,
      269
    ],
    [
      114,
      122,
      270
    ],
    [
      99,
      104,
      271
    ],
    [
      115,
      116,
      272
    ],
    [
      111,
      119,
      273
    ],
    [
      115,
      122,
      274
    ],
    [
      197,
      188,
      275
    ],
    [
      197,
      155,
      276
    ],
    [
      100,
      122,
      277
    ],
    [
      195,
      179,
      278
    ],
    [
      114,
      97,
      279
    ],
    [
      109,
      32,
      280
    ],
    [
      45,
      32,
      281
    ],
    [
      105,
      264,
      282
    ],
    [
      110,
      97,
      283
    ],
    [
      257,
      101,
      284
    ],
    [
      196,
      135,
      285
    ],
    [
      119,
      32,
      286
    ],
    [
      97,
      114,
      287
    ],
    [
      115,
      282,
      288
    ],
    [
      257,
      260,
      289
    ],
    [
      112,
      111,
      290
    ],
    [
      117,
      32,
      291
    ],
    [
      119,
      105,
      292
    ],
    [
      116,
      101,
      293
    ],
    [
      122,
      32,
      294
    ],
    [
      270,
      101,
      295
    ],
    [
      121,
      271,
      296
    ],
    [
      263,
      32,
      297
    ],
    [
      106,
      101,
      298
    ],
    [
      114,
      111,
      299
    ],
    [
      277,
      105,
      300
    ],
    [
      110,
      111,
      301
    ],
    [
      97,
      107,
      302
    ],
    [
      288,
      32,
      303
    ],
    [
      46,
      46,
      304
    ],
    [
      107,
      111,
      305
    ],
    [
      263,
      99,
      306
    ],
    [
      269,
      32,
      307
    ],
    [
      106,
      32,
      308
    ],
    [
      110,
      258,
      309
    ],
    [
      99,
      105,
      310
    ],
    [
      115,
      256,
      311
    ],
    [
      285,
      32,
      312
    ],
    [
      108,
      101,
      313
    ],
    [
      122,
      97,
      314
    ],
    [
      116,
      121,
      315
    ],
    [
      265,
      281,
      316
    ],
    [
      256,
      258,
      317
    ],
    [
      105,
      110,
      318
    ],
    [
      107,
      97,
      319
    ],
    [
      98,
      121,
      320
    ],
    [
      275,
      260,
      321
    ],
    [
      107,
      105,
      322
    ],
    [
      111,
      110,
      323
    ],
    [
      103,
      262,
      324
    ],
    [
      270,
      121,
      325
    ],
    [
      267,
      101,
      326
    ],
    [
      100,
      97,
      327
    ],
    [
      112,
      279,
      328
    ],
    [
      296,
      32,
      329
    ],
    [
      256,
      32,
      330
    ],
    [
      77,
      287,
      331
    ],
    [
      119,
      121,
      332
    ],
    [
      273,
      97,
      333
    ],
    [
      112,
      97,
      334
    ],
    [
      112,
      101,
      335
    ],
    [
      111,
      100,
      336
    ],
    [
      112,
      295,
      337
    ],
    [
      111,
      103,
      338
    ],
    [
      114,
      278,
      339
    ],
    [
      107,
      261,
      340
    ],
    [
      111,
      98,
      341
    ],
    [
      269,
      258,
      342
    ],
    [
      111,
      108,
      343
    ],
    [
      107,
      116,
      344
    ],
    [
      302,
      32,
      345
    ],
    [
      256,
      97,
      346
    ],
    [
      328,
      119,
      347
    ],
    [
      301,
      276,
      348
    ],
    [
      116,
      262,
      349
    ],
    [
      304,
      304,
      350
    ],
    [
      259,
      321,
      351
    ],
    [
      32,
      281,
      352
    ],
    [
      335,
      256,
      353
    ],
    [
      257,
      258,
      354
    ],
    [
      97,
      108,
      355
    ],
    [
      121,
      274,
      356
    ],
    [
      100,
      262,
      357
    ],
    [
      109,
      105,
      358
    ],
    [
      77,
      105,
      359
    ],
    [
      119,
      268,
      360
    ],
    [
      109,
      97,
      361
    ],
    [
      264,
      32,
      362
    ],
    [
      272,
      121,
      363
    ],
    [
      257,
      291,
      364
    ],
    [
      106,
      306,
      365
    ],
    [
      311,
      356,
      366
    ],
    [
      267,
      121,
      367
    ],
    [
      108,
      105,
      368
    ],
    [
      101,
      280,
      369
    ],
    [
      322,
      259,
      370
    ],
    [
      111,
      114,
      371
    ],
    [
      101,
      308,
      372
    ],
    [
      116,
      97,
      373
    ],
    [
      100,
      32,
      374
    ],
    [
      109,
      117,
      375
    ],
    [
      108,
      117,
      376
    ],
    [
      296,
      259,
      377
    ],
    [
      119,
      97,
      378
    ],
    [
      105,
      260,
      379
    ],
    [
      115,
      347,
      380
    ],
    [
      87,
      121,
      381
    ],
    [
      98,
      266,
      382
    ],
    [
      277,
      268,
      383
    ],
    [
      97,
      117,
      384
    ],
    [
      366,
      306,
      385
    ],
    [
      284,
      353,
      386
    ],
    [
      386,
      301,
      387
    ],
    [
      387,
      380,
      388
    ],
    [
      385,
      377,
      389
    ],
    [
      100,
      111,
      390
    ],
    [
      114,
      117,
      391
    ],
    [
      278,
      286,
      392
    ],
    [
      110,
      260,
      393
    ],
    [
      112,
      273,
      394
    ],
    [
      119,
      101,
      395
    ],
    [
      99,
      261,
      396
    ],
    [
      272,
      32,
      397
    ],
    [
      100,
      266,
      398
    ],
    [
      100,
      117,
      399
    ],
    [
      106,
      297,
      400
    ],
    [
      107,
      32,
      401
    ],
    [
      112,
      325,
      402
    ],
    [
      275,
      32,
      403
    ],
    [
      100,
      108,
      404
    ],
    [
      272,
      97,
      405
    ],
    [
      331,
      266,
      406
    ],
    [
      116,
      32,
      407
    ],
    [
      110,
      263,
      408
    ],
    [
      256,
      111,
      409
    ],
    [
      267,
      266,
      410
    ],
    [
      376,
      98,
      411
    ],
    [
      110,
      266,
      412
    ],
    [
      107,
      258,
      413
    ],
    [
      109,
      111,
      414
    ],
    [
      109,
      268,
      415
    ],
    [
      58,
      32,
      416
    ],
    [
      99,
      106,
      417
    ],
    [
      110,
      329,
      418
    ],
    [
      109,
      261,
      419
    ],
    [
      271,
      32,
      420
    ],
    [
      315,
      280,
      421
    ],
    [
      259,
      258,
      422
    ],
    [
      337,
      294,
      423
    ],
    [
      119,
      111,
      424
    ],
    [
      109,
      257,
      425
    ],
    [
      106,
      345,
      426
    ],
    [
      99,
      268,
      427
    ],
    [
      115,
      105,
      428
    ],
    [
      119,
      274,
      429
    ],
    [
      300,
      307,
      430
    ],
    [
      269,
      97,
      431
    ],
    [
      97,
      122,
      432
    ],
    [
      99,
      97,
      433
    ],
    [
      260,
      261,
      434
    ],
    [
      110,
      101,
      435
    ],
    [
      299,
      122,
      436
    ],
    [
      338,
      339,
      437
    ],
    [
      275,
      101,
      438
    ],
    [
      289,
      122,
      439
    ],
    [
      257,
      272,
      440
    ],
    [
      298,
      425,
      441
    ],
    [
      98,
      111,
      442
    ],
    [
      404,
      258,
      443
    ],
    [
      107,
      268,
      444
    ],
    [
      411,
      32,
      445
    ],
    [
      103,
      105,
      446
    ],
    [
      348,
      396,
      447
    ],
    [
      112,
      268,
      448
    ],
    [
      97,
      327,
      449
    ],
    [
      115,
      121,
      450
    ],
    [
      350,
      350,
      451
    ],
    [
      114,
      101,
      452
    ],
    [
      265,
      77,
      453
    ],
    [
      276,
      108,
      454
    ],
    [
      265,
      80,
      455
    ],
    [
      359,
      440,
      456
    ],
    [
      101,
      110,
      457
    ],
    [
      110,
      121,
      458
    ],
    [
      117,
      267,
      459
    ],
    [
      274,
      97,
      460
    ],
    [
      119,
      115,
      461
    ],
    [
      109,
      121,
      462
    ],
    [
      273,
      266,
      463
    ],
    [
      417,
      261,
      464
    ],
    [
      394,
      268,
      465
    ],
    [
      114,
      258,
      466
    ],
    [
      288,
      259,
      467
    ],
    [
      101,
      107,
      468
    ],
    [
      197,
      132,
      469
    ],
    [
      103,
      111,
      470
    ],
    [
      348,
      310,
      471
    ],
    [
      257,
      107,
      472
    ],
    [
      276,
      32,
      473
    ],
    [
      273,
      372,
      474
    ],
    [
      67,
      343,
      475
    ],
    [
      109,
      278,
      476
    ],
    [
      437,
      374,
      477
    ],
    [
      293,
      114,
      478
    ],
    [
      122,
      109,
      479
    ],
    [
      311,
      97,
      480
    ],
    [
      305,
      283,
      481
    ],
    [
      261,
      283,
      482
    ],
    [
      107,
      262,
      483
    ],
    [
      391,
      100,
      484
    ],
    [
      279,
      99,
      485
    ],
    [
      111,
      257,
      486
    ],
    [
      408,
      259,
      487
    ],
    [
      100,
      121,
      488
    ],
    [
      286,
      421,
      489
    ],
    [
      80,
      343,
      490
    ],
    [
      365,
      329,
      491
    ],
    [
      286,
      117,
      492
    ],
    [
      313,
      99,
      493
    ],
    [
      116,
      484,
      494
    ],
    [
      305,
      375,
      495
    ],
    [
      84,
      97,
      496
    ],
    [
      105,
      99,
      497
    ],
    [
      326,
      257,
      498
    ],
    [
      441,
      410,
      499
    ],
    [
      369,
      261,
      500
    ],
    [
      115,
      333,
      501
    ],
    [
      279,
      294,
      502
    ],
    [
      109,
      291,
      503
    ],
    [
      344,
      117,
      504
    ],
    [
      471,
      297,
      505
    ],
    [
      285,
      292,
      506
    ],
    [
      318,
      293,
      507
    ],
    [
      313,
      504,
      508
    ],
    [
      459,
      257,
      509
    ],
    [
      119,
      433,
      510
    ],
    [
      478,
      105,
      511
    ],
    [
      333,
      364,
      512
    ],
    [
      326,
      364,
      513
    ],
    [
      506,
      498,
      514
    ],
    [
      103,
      398,
      515
    ],
    [
      319,
      464,
      516
    ],
    [
      97,
      102,
      517
    ],
    [
      103,
      292,
      518
    ],
    [
      278,
      114,
      519
    ],
    [
      499,
      477,
      520
    ],
    [
      303,
      105,
      521
    ],
    [
      78,
      384,
      522
    ],
    [
      496,
      520,
      523
    ],
    [
      395,
      114,
      524
    ],
    [
      115,
      97,
      525
    ],
    [
      485,
      273,
      526
    ],
    [
      85,
      257,
      527
    ],
    [
      509,
      392,
      528
    ],
    [
      323,
      434,
      529
    ],
    [
      87,
      287,
      530
    ],
    [
      495,
      472,
      531
    ],
    [
      47,
      445,
      532
    ],
    [
      418,
      361,
      533
    ],
    [
      393,
      423,
      534
    ],
    [
      443,
      528,
      535
    ],
    [
      494,
      447,
      536
    ],
    [
      531,
      512,
      537
    ],
    [
      294,
      388,
      538
    ],
    [
      505,
      507,
      539
    ],
    [
      539,
      508,
      540
    ],
    [
      540,
      355,
      541
    ],
    [
      541,
      487,
      542
    ],
    [
      315,
      479,
      543
    ],
    [
      517,
      432,
      544
    ],
    [
      80,
      526,
      545
    ],
    [
      33,
      32,
      546
    ],
    [
      530,
      460,
      547
    ],
    [
      110,
      501,
      548
    ],
    [
      399,
      516,
      549
    ],
    [
      456,
      466,
      550
    ],
    [
      97,
      511,
      551
    ],
    [
      536,
      492,
      552
    ],
    [
      552,
      513,
      553
    ],
    [
      553,
      521,
      554
    ],
    [
      554,
      532,
      555
    ],
    [
      555,
      537,
      556
    ],
    [
      556,
      467,
      557
    ],
    [
      557,
      489,
      558
    ],
    [
      480,
      442,
      559
    ],
    [
      538,
      542,
      560
    ],
    [
      560,
      384,
      561
    ],
    [
      561,
      543,
      562
    ],
    [
      562,
      500,
      563
    ],
    [
      563,
      544,
      564
    ],
    [
      535,
      388,
      565
    ],
    [
      565,
      533,
      566
    ],
    [
      566,
      491,
      567
    ],
    [
      567,
      558,
      568
    ],
    [
      568,
      284,
      569
    ],
    [
      569,
      389,
      570
    ],
    [
      570,
      559,
      571
    ],
    [
      571,
      389,
      572
    ],
    [
      572,
      564,
      573
    ],
    [
      573,
      400,
      574
    ],
    [
      90,
      449,
      575
    ],
    [
      439,
      493,
      576
    ],
    [
      550,
      69,
      577
    ],
    [
      577,
      549,
      578
    ],
    [
      578,
      261,
      579
    ],
    [
      579,
      522,
      580
    ],
    [
      580,
      340,
      581
    ],
    [
      381,
      481,
      582
    ],
    [
      76,
      318,
      583
    ],
    [
      363,
      340,
      584
    ],
    [
      575,
      576,
      585
    ],
    [
      585,
      529,
      586
    ],
    [
      586,
      102,
      587
    ],
    [
      548,
      534,
      588
    ],
    [
      588,
      581,
      589
    ],
    [
      527,
      524,
      590
    ],
    [
      590,
      450,
      591
    ],
    [
      591,
      293,
      592
    ],
    [
      592,
      407,
      593
    ],
    [
      593,
      547,
      594
    ],
    [
      594,
      461,
      595
    ],
    [
      381,
      430,
      596
    ],
    [
      596,
      490,
      597
    ],
    [
      597,
      486,
      598
    ],
    [
      545,
      354,
      599
    ],
    [
      599,
      583,
      600
    ],
    [
      600,
      518,
      601
    ],
    [
      601,
      584,
      602
    ],
    [
      602,
      359,
      603
    ],
    [
      603,
      103,
      604
    ],
    [
      604,
      474,
      605
    ],
    [
      84,
      468,
      606
    ],
    [
      68,
      497,
      607
    ],
    [
      257,
      32,
      608
    ],
    [
      582,
      510,
      609
    ],
    [
      609,
      416,
      610
    ],
    [
      610,
      595,
      611
    ],
    [
      611,
      370,
      612
    ],
    [
      612,
      598,
      613
    ],
    [
      613,
      363,
      614
    ],
    [
      614,
      370,
      615
    ],
    [
      615,
      605,
      616
    ],
    [
      606,
      397,
      617
    ],
    [
      551,
      307,
      618
    ],
    [
      618,
      514,
      619
    ],
    [
      619,
      463,
      620
    ],
    [
      620,
      574,
      621
    ],
    [
      283,
      108,
      622
    ],
    [
      621,
      616,
      623
    ],
    [
      623,
      587,
      624
    ],
    [
      624,
      482,
      625
    ],
    [
      625,
      589,
      626
    ],
    [
      626,
      523,
      627
    ],
    [
      256,
      262,
      628
    ],
    [
      627,
      617,
      629
    ],
    [
      298,
      308,
      630
    ],
    [
      116,
      302,
      631
    ],
    [
      116,
      345,
      632
    ],
    [
      295,
      107,
      633
    ],
    [
      300,
      260,
      634
    ],
    [
      275,
      121,
      635
    ],
    [
      109,
      259,
      636
    ],
    [
      265,
      78,
      637
    ],
    [
      371,
      121,
      638
    ],
    [
      106,
      260,
      639
    ],
    [
      475,
      318,
      640
    ],
    [
      108,
      261,
      641
    ],
    [
      338,
      299,
      642
    ],
    [
      98,
      105,
      643
    ],
    [
      115,
      290,
      644
    ],
    [
      103,
      108,
      645
    ],
    [
      453,
      629,
      646
    ],
    [
      106,
      302,
      647
    ],
    [
      115,
      341,
      648
    ],
    [
      267,
      32,
      649
    ],
    [
      638,
      446,
      650
    ],
    [
      650,
      622,
      651
    ],
    [
      97,
      116,
      652
    ],
    [
      651,
      412,
      653
    ],
    [
      99,
      262,
      654
    ],
    [
      114,
      121,
      655
    ],
    [
      112,
      105,
      656
    ],
    [
      331,
      121,
      657
    ],
    [
      97,
      100,
      658
    ],
    [
      99,
      32,
      659
    ],
    [
      267,
      97,
      660
    ],
    [
      290,
      100,
      661
    ],
    [
      63,
      352,
      662
    ],
    [
      476,
      292,
      663
    ],
    [
      116,
      117,
      664
    ],
    [
      285,
      259,
      665
    ],
    [
      344,
      519,
      666
    ],
    [
      271,
      111,
      667
    ],
    [
      265,
      87,
      668
    ],
    [
      115,
      107,
      669
    ],
    [
      284,
      110,
      670
    ],
    [
      274,
      101,
      671
    ],
    [
      265,
      65,
      672
    ],
    [
      276,
      310,
      673
    ],
    [
      98,
      268,
      674
    ],
    [
      429,
      121,
      675
    ],
    [
      274,
      267,
      676
    ],
    [
      98,
      264,
      677
    ],
    [
      106,
      117,
      678
    ],
    [
      646,
      653,
      679
    ],
    [
      265,
      406,
      680
    ],
    [
      110,
      32,
      681
    ],
    [
      298,
      397,
      682
    ],
    [
      263,
      100,
      683
    ],
    [
      320,
      330,
      684
    ],
    [
      33,
      352,
      685
    ],
    [
      108,
      97,
      686
    ],
    [
      256,
      266,
      687
    ],
    [
      462,
      454,
      688
    ],
    [
      334,
      670,
      689
    ],
    [
      269,
      266,
      690
    ],
    [
      116,
      258,
      691
    ],
    [
      108,
      260,
      692
    ],
    [
      112,
      262,
      693
    ],
    [
      197,
      186,
      694
    ],
    [
      257,
      97,
      695
    ],
    [
      101,
      114,
      696
    ],
    [
      115,
      32,
      697
    ],
    [
      101,
      106,
      698
    ],
    [
      265,
      66,
      699
    ],
    [
      256,
      117,
      700
    ],
    [
      320,
      317,
      701
    ],
    [
      414,
      321,
      702
    ],
    [
      115,
      268,
      703
    ],
    [
      107,
      291,
      704
    ],
    [
      106,
      97,
      705
    ],
    [
      279,
      122,
      706
    ],
    [
      451,
      451,
      707
    ],
    [
      675,
      272,
      708
    ],
    [
      119,
      282,
      709
    ],
    [
      283,
      106,
      710
    ],
    [
      110,
      264,
      711
    ],
    [
      98,
      287,
      712
    ],
    [
      640,
      32,
      713
    ],
    [
      112,
      287,
      714
    ],
    [
      259,
      426,
      715
    ],
    [
      365,
      32,
      716
    ],
    [
      465,
      300,
      717
    ],
    [
      112,
      121,
      718
    ],
    [
      278,
      119,
      719
    ],
    [
      110,
      262,
      720
    ],
    [
      265,
      79,
      721
    ],
    [
      336,
      32,
      722
    ],
    [
      121,
      280,
      723
    ],
    [
      269,
      262,
      724
    ],
    [
      103,
      256,
      725
    ],
    [
      112,
      117,
      726
    ],
    [
      101,
      324,
      727
    ],
    [
      273,
      105,
      728
    ],
    [
      107,
      117,
      729
    ],
    [
      648,
      379,
      730
    ],
    [
      99,
      111,
      731
    ],
    [
      327,
      119,
      732
    ],
    [
      98,
      97,
      733
    ],
    [
      298,
      324,
      734
    ],
    [
      111,
      115,
      735
    ],
    [
      109,
      258,
      736
    ],
    [
      116,
      291,
      737
    ],
    [
      112,
      299,
      738
    ],
    [
      116,
      111,
      739
    ],
    [
      334,
      116,
      740
    ],
    [
      355,
      260,
      741
    ],
    [
      435,
      324,
      742
    ],
    [
      99,
      101,
      743
    ],
    [
      98,
      117,
      744
    ],
    [
      67,
      122,
      745
    ],
    [
      457,
      32,
      746
    ],
    [
      114,
      116,
      747
    ],
    [
      299,
      643,
      748
    ],
    [
      712,
      277,
      749
    ],
    [
      259,
      349,
      750
    ],
    [
      290,
      267,
      751
    ],
    [
      273,
      268,
      752
    ],
    [
      281,
      633,
      753
    ],
    [
      99,
      260,
      754
    ],
    [
      265,
      90,
      755
    ],
    [
      259,
      261,
      756
    ],
    [
      320,
      628,
      757
    ],
    [
      316,
      78,
      758
    ],
    [
      122,
      268,
      759
    ],
    [
      323,
      32,
      760
    ],
    [
      284,
      308,
      761
    ],
    [
      298,
      100,
      762
    ],
    [
      122,
      258,
      763
    ],
    [
      109,
      338,
      764
    ],
    [
      114,
      264,
      765
    ],
    [
      311,
      117,
      766
    ],
    [
      122,
      121,
      767
    ],
    [
      678,
      403,
      768
    ],
    [
      607,
      401,
      769
    ],
    [
      276,
      312,
      770
    ],
    [
      103,
      97,
      771
    ],
    [
      259,
      666,
      772
    ],
    [
      265,
      84,
      773
    ],
    [
      122,
      101,
      774
    ],
    [
      119,
      258,
      775
    ],
    [
      749,
      262,
      776
    ],
    [
      310,
      263,
      777
    ],
    [
      274,
      121,
      778
    ],
    [
      110,
      297,
      779
    ],
    [
      119,
      343,
      780
    ],
    [
      259,
      515,
      781
    ],
    [
      256,
      121,
      782
    ],
    [
      315,
      108,
      783
    ],
    [
      100,
      101,
      784
    ],
    [
      310,
      260,
      785
    ],
    [
      109,
      289,
      786
    ],
    [
      107,
      362,
      787
    ],
    [
      458,
      280,
      788
    ],
    [
      637,
      379,
      789
    ],
    [
      689,
      413,
      790
    ],
    [
      293,
      280,
      791
    ],
    [
      100,
      341,
      792
    ],
    [
      111,
      309,
      793
    ],
    [
      276,
      368,
      794
    ],
    [
      111,
      107,
      795
    ],
    [
      63,
      32,
      796
    ],
    [
      122,
      117,
      797
    ],
    [
      747,
      265,
      798
    ],
    [
      106,
      264,
      799
    ],
    [
      718,
      116,
      800
    ],
    [
      293,
      324,
      801
    ],
    [
      316,
      84,
      802
    ],
    [
      290,
      305,
      803
    ],
    [
      259,
      654,
      804
    ],
    [
      335,
      119,
      805
    ],
    [
      111,
      99,
      806
    ],
    [
      59,
      32,
      807
    ],
    [
      271,
      409,
      808
    ],
    [
      270,
      266,
      809
    ],
    [
      298,
      272,
      810
    ],
    [
      259,
      647,
      811
    ],
    [
      448,
      114,
      812
    ],
    [
      261,
      122,
      813
    ],
    [
      336,
      714,
      814
    ],
    [
      103,
      488,
      815
    ],
    [
      101,
      404,
      816
    ],
    [
      265,
      83,
      817
    ],
    [
      274,
      32,
      818
    ],
    [
      339,
      119,
      819
    ],
    [
      119,
      266,
      820
    ],
    [
      267,
      287,
      821
    ],
    [
      116,
      266,
      822
    ],
    [
      292,
      97,
      823
    ],
    [
      98,
      368,
      824
    ],
    [
      109,
      266,
      825
    ],
    [
      106,
      258,
      826
    ],
    [
      816,
      806,
      827
    ],
    [
      99,
      121,
      828
    ],
    [
      65,
      32,
      829
    ],
    [
      112,
      278,
      830
    ],
    [
      783,
      483,
      831
    ],
    [
      41,
      32,
      832
    ],
    [
      334,
      608,
      833
    ],
    [
      77,
      827,
      834
    ],
    [
      74,
      101,
      835
    ],
    [
      109,
      282,
      836
    ],
    [
      98,
      262,
      837
    ],
    [
      645,
      683,
      838
    ],
    [
      276,
      415,
      839
    ],
    [
      265,
      68,
      840
    ],
    [
      122,
      283,
      841
    ],
    [
      317,
      303,
      842
    ],
    [
      334,
      257,
      843
    ],
    [
      257,
      280,
      844
    ],
    [
      699,
      121,
      845
    ],
    [
      284,
      106,
      846
    ],
    [
      122,
      110,
      847
    ],
    [
      444,
      280,
      848
    ],
    [
      416,
      34,
      849
    ],
    [
      265,
      67,
      850
    ],
    [
      100,
      362,
      851
    ],
    [
      300,
      119,
      852
    ],
    [
      99,
      269,
      853
    ],
    [
      99,
      266,
      854
    ],
    [
      115,
      322,
      855
    ],
    [
      105,
      280,
      856
    ],
    [
      677,
      634,
      857
    ],
    [
      469,
      32,
      858
    ],
    [
      106,
      263,
      859
    ],
    [
      293,
      403,
      860
    ],
    [
      117,
      405,
      861
    ],
    [
      320,
      312,
      862
    ],
    [
      111,
      116,
      863
    ],
    [
      293,
      502,
      864
    ],
    [
      313,
      649,
      865
    ],
    [
      259,
      438,
      866
    ],
    [
      117,
      415,
      867
    ],
    [
      307,
      303,
      868
    ],
    [
      67,
      279,
      869
    ],
    [
      116,
      260,
      870
    ],
    [
      672,
      798,
      871
    ],
    [
      676,
      260,
      872
    ],
    [
      100,
      295,
      873
    ],
    [
      116,
      279,
      874
    ],
    [
      115,
      424,
      875
    ],
    [
      344,
      32,
      876
    ],
    [
      320,
      280,
      877
    ],
    [
      263,
      327,
      878
    ],
    [
      373,
      280,
      879
    ],
    [
      292,
      260,
      880
    ],
    [
      276,
      360,
      881
    ],
    [
      323,
      260,
      882
    ],
    [
      103,
      257,
      883
    ],
    [
      316,
      80,
      884
    ],
    [
      341,
      97,
      885
    ],
    [
      271,
      310,
      886
    ],
    [
      100,
      270,
      887
    ],
    [
      869,
      118,
      888
    ],
    [
      105,
      420,
      889
    ],
    [
      73,
      32,
      890
    ],
    [
      300,
      269,
      891
    ],
    [
      103,
      409,
      892
    ],
    [
      660,
      115,
      893
    ],
    [
      101,
      109,
      894
    ],
    [
      122,
      260,
      895
    ],
    [
      298,
      872,
      896
    ],
    [
      110,
      372,
      897
    ],
    [
      272,
      279,
      898
    ],
    [
      265,
      50,
      899
    ],
    [
      267,
      117,
      900
    ],
    [
      116,
      378,
      901
    ],
    [
      274,
      317,
      902
    ],
    [
      119,
      122,
      903
    ],
    [
      97,
      608,
      904
    ],
    [
      332,
      107,
      905
    ],
    [
      745,
      266,
      906
    ],
    [
      116,
      299,
      907
    ],
    [
      119,
      339,
      908
    ],
    [
      331,
      691,
      909
    ],
    [
      98,
      101,
      910
    ],
    [
      117,
      109,
      911
    ],
    [
      470,
      259,
      912
    ],
    [
      314,
      429,
      913
    ],
    [
      271,
      97,
      914
    ],
    [
      257,
      264,
      915
    ],
    [
      100,
      700,
      916
    ],
    [
      411,
      105,
      917
    ],
    [
      711,
      317,
      918
    ],
    [
      115,
      297,
      919
    ],
    [
      271,
      292,
      920
    ],
    [
      100,
      457,
      921
    ],
    [
      108,
      264,
      922
    ],
    [
      292,
      652,
      923
    ],
    [
      106,
      115,
      924
    ],
    [
      668,
      32,
      925
    ],
    [
      267,
      264,
      926
    ],
    [
      346,
      259,
      927
    ],
    [
      257,
      515,
      928
    ],
    [
      808,
      112,
      929
    ],
    [
      277,
      101,
      930
    ],
    [
      265,
      75,
      931
    ],
    [
      99,
      117,
      932
    ],
    [
      83,
      698,
      933
    ],
    [
      358,
      342,
      934
    ],
    [
      424,
      256,
      935
    ],
    [
      293,
      308,
      936
    ],
    [
      645,
      878,
      937
    ],
    [
      316,
      79,
      938
    ],
    [
      414,
      275,
      939
    ],
    [
      306,
      32,
      940
    ],
    [
      300,
      431,
      941
    ],
    [
      119,
      346,
      942
    ],
    [
      265,
      71,
      943
    ],
    [
      394,
      105,
      944
    ],
    [
      358,
      307,
      945
    ],
    [
      115,
      117,
      946
    ],
    [
      708,
      483,
      947
    ],
    [
      281,
      814,
      948
    ],
    [
      110,
      273,
      949
    ],
    [
      339,
      275,
      950
    ],
    [
      226,
      128,
      951
    ],
    [
      455,
      111,
      952
    ],
    [
      361,
      116,
      953
    ],
    [
      316,
      67,
      954
    ],
    [
      259,
      741,
      955
    ],
    [
      103,
      336,
      956
    ],
    [
      108,
      32,
      957
    ],
    [
      98,
      258,
      958
    ],
    [
      731,
      473,
      959
    ],
    [
      316,
      87,
      960
    ],
    [
      32,
      49,
      961
    ],
    [
      116,
      325,
      962
    ],
    [
      667,
      300,
      963
    ],
    [
      116,
      270,
      964
    ],
    [
      104,
      696,
      965
    ],
    [
      642,
      100,
      966
    ],
    [
      271,
      259,
      967
    ],
    [
      116,
      371,
      968
    ],
    [
      672,
      32,
      969
    ],
    [
      866,
      382,
      970
    ],
    [
      265,
      713,
      971
    ],
    [
      115,
      119,
      972
    ],
    [
      261,
      314,
      973
    ],
    [
      257,
      659,
      974
    ],
    [
      107,
      264,
      975
    ],
    [
      951,
      166,
      976
    ],
    [
      115,
      800,
      977
    ],
    [
      337,
      100,
      978
    ],
    [
      323,
      121,
      979
    ],
    [
      707,
      707,
      980
    ],
    [
      342,
      657,
      981
    ],
    [
      475,
      105,
      982
    ],
    [
      263,
      259,
      983
    ],
    [
      777,
      103,
      984
    ],
    [
      346,
      116,
      985
    ],
    [
      80,
      452,
      986
    ],
    [
      288,
      351,
      987
    ],
    [
      797,
      353,
      988
    ],
    [
      811,
      382,
      989
    ],
    [
      339,
      286,
      990
    ],
    [
      342,
      303,
      991
    ],
    [
      833,
      834,
      992
    ],
    [
      112,
      809,
      993
    ],
    [
      436,
      867,
      994
    ],
    [
      408,
      330,
      995
    ],
    [
      317,
      657,
      996
    ],
    [
      708,
      322,
      997
    ],
    [
      312,
      303,
      998
    ],
    [
      101,
      401,
      999
    ],
    [
      679,
      49,
      1000
    ],
    [
      112,
      282,
      1001
    ],
    [
      319,
      275,
      1002
    ],
    [
      415,
      924,
      1003
    ],
    [
      346,
      100,
      1004
    ],
    [
      314,
      473,
      1005
    ],
    [
      316,
      77,
      1006
    ],
    [
      679,
      50,
      1007
    ],
    [
      717,
      269,
      1008
    ],
    [
      272,
      295,
      1009
    ],
    [
      367,
      110,
      1010
    ],
    [
      284,
      259,
      1011
    ],
    [
      101,
      652,
      1012
    ],
    [
      1012,
      965,
      1013
    ],
    [
      1013,
      405,
      1014
    ],
    [
      1014,
      102,
      1015
    ],
    [
      1015,
      102,
      1016
    ],
    [
      847,
      392,
      1017
    ],
    [
      32,
      82,
      1018
    ],
    [
      383,
      99,
      1019
    ],
    [
      323,
      266,
      1020
    ],
    [
      270,
      263,
      1021
    ],
    [
      908,
      310,
      1022
    ],
    [
      525,
      109,
      1023
    ],
    [
      87,
      1016,
      1024
    ],
    [
      291,
      261,
      1025
    ],
    [
      305,
      108,
      1026
    ],
    [
      316,
      74,
      1027
    ],
    [
      119,
      355,
      1028
    ],
    [
      100,
      273,
      1029
    ],
    [
      270,
      264,
      1030
    ],
    [
      122,
      100,
      1031
    ],
    [
      112,
      114,
      1032
    ],
    [
      373,
      441,
      1033
    ],
    [
      758,
      379,
      1034
    ],
    [
      265,
      76,
      1035
    ],
    [
      272,
      111,
      1036
    ],
    [
      98,
      279,
      1037
    ],
    [
      257,
      403,
      1038
    ],
    [
      259,
      290,
      1039
    ],
    [
      320,
      687,
      1040
    ],
    [
      363,
      664,
      1041
    ],
    [
      75,
      323,
      1042
    ],
    [
      469,
      272,
      1043
    ],
    [
      82,
      97,
      1044
    ],
    [
      263,
      330,
      1045
    ],
    [
      344,
      371,
      1046
    ],
    [
      662,
      977,
      1047
    ],
    [
      276,
      396,
      1048
    ],
    [
      259,
      382,
      1049
    ],
    [
      111,
      122,
      1050
    ],
    [
      272,
      287,
      1051
    ],
    [
      259,
      865,
      1052
    ],
    [
      116,
      295,
      1053
    ],
    [
      257,
      297,
      1054
    ],
    [
      272,
      264,
      1055
    ],
    [
      111,
      272,
      1056
    ],
    [
      270,
      260,
      1057
    ],
    [
      709,
      99,
      1058
    ],
    [
      885,
      367,
      1059
    ],
    [
      375,
      428,
      1060
    ],
    [
      111,
      283,
      1061
    ],
    [
      115,
      101,
      1062
    ],
    [
      97,
      110,
      1063
    ],
    [
      119,
      261,
      1064
    ],
    [
      360,
      108,
      1065
    ],
    [
      642,
      383,
      1066
    ],
    [
      316,
      829,
      1067
    ],
    [
      284,
      324,
      1068
    ],
    [
      272,
      101,
      1069
    ],
    [
      976,
      32,
      1070
    ],
    [
      846,
      274,
      1071
    ],
    [
      119,
      262,
      1072
    ],
    [
      751,
      264,
      1073
    ],
    [
      607,
      107,
      1074
    ],
    [
      109,
      107,
      1075
    ],
    [
      913,
      260,
      1076
    ],
    [
      293,
      681,
      1077
    ],
    [
      334,
      100,
      1078
    ],
    [
      269,
      111,
      1079
    ],
    [
      367,
      373,
      1080
    ],
    [
      642,
      399,
      1081
    ],
    [
      344,
      278,
      1082
    ],
    [
      109,
      318,
      1083
    ],
    [
      102,
      105,
      1084
    ],
    [
      312,
      261,
      1085
    ],
    [
      117,
      428,
      1086
    ],
    [
      290,
      374,
      1087
    ],
    [
      815,
      382,
      1088
    ],
    [
      282,
      32,
      1089
    ],
    [
      98,
      379,
      1090
    ],
    [
      119,
      307,
      1091
    ],
    [
      276,
      427,
      1092
    ],
    [
      289,
      360,
      1093
    ],
    [
      122,
      748,
      1094
    ],
    [
      99,
      258,
      1095
    ],
    [
      48,
      32,
      1096
    ],
    [
      772,
      266,
      1097
    ],
    [
      119,
      269,
      1098
    ],
    [
      256,
      336,
      1099
    ],
    [
      276,
      257,
      1100
    ],
    [
      257,
      876,
      1101
    ],
    [
      395,
      407,
      1102
    ],
    [
      106,
      270,
      1103
    ],
    [
      337,
      374,
      1104
    ],
    [
      319,
      259,
      1105
    ],
    [
      305,
      110,
      1106
    ],
    [
      767,
      921,
      1107
    ],
    [
      314,
      935,
      1108
    ],
    [
      276,
      448,
      1109
    ],
    [
      888,
      746,
      1110
    ],
    [
      197,
      129,
      1111
    ],
    [
      656,
      697,
      1112
    ],
    [
      261,
      290,
      1113
    ],
    [
      105,
      97,
      1114
    ],
    [
      274,
      326,
      1115
    ],
    [
      271,
      121,
      1116
    ],
    [
      437,
      100,
      1117
    ],
    [
      265,
      74,
      1118
    ],
    [
      988,
      289,
      1119
    ],
    [
      265,
      769,
      1120
    ],
    [
      326,
      324,
      1121
    ],
    [
      1032,
      333,
      1122
    ],
    [
      660,
      697,
      1123
    ],
    [
      115,
      111,
      1124
    ],
    [
      772,
      260,
      1125
    ],
    [
      358,
      259,
      1126
    ],
    [
      1042,
      1041,
      1127
    ],
    [
      367,
      280,
      1128
    ],
    [
      305,
      469,
      1129
    ],
    [
      263,
      374,
      1130
    ],
    [
      358,
      97,
      1131
    ],
    [
      454,
      261,
      1132
    ],
    [
      109,
      269,
      1133
    ],
    [
      307,
      309,
      1134
    ],
    [
      753,
      330,
      1135
    ],
    [
      661,
      341,
      1136
    ],
    [
      283,
      374,
      1137
    ],
    [
      265,
      85,
      1138
    ],
    [
      275,
      97,
      1139
    ],
    [
      101,
      488,
      1140
    ],
    [
      319,
      122,
      1141
    ],
    [
      273,
      261,
      1142
    ],
    [
      276,
      289,
      1143
    ],
    [
      1080,
      354,
      1144
    ],
    [
      84,
      82,
      1145
    ],
    [
      333,
      312,
      1146
    ],
    [
      357,
      1144,
      1147
    ],
    [
      1140,
      968,
      1148
    ],
    [
      1148,
      855,
      1149
    ],
    [
      740,
      270,
      1150
    ],
    [
      332,
      838,
      1151
    ],
    [
      112,
      373,
      1152
    ],
    [
      111,
      502,
      1153
    ],
    [
      265,
      51,
      1154
    ],
    [
      1055,
      112,
      1155
    ],
    [
      330,
      303,
      1156
    ],
    [
      284,
      280,
      1157
    ],
    [
      107,
      297,
      1158
    ],
    [
      265,
      82,
      1159
    ],
    [
      378,
      312,
      1160
    ],
    [
      100,
      391,
      1161
    ],
    [
      314,
      1075,
      1162
    ],
    [
      122,
      1059,
      1163
    ],
    [
      850,
      104,
      1164
    ],
    [
      265,
      91,
      1165
    ],
    [
      1165,
      402,
      1166
    ],
    [
      1166,
      1112,
      1167
    ],
    [
      1167,
      1149,
      1168
    ],
    [
      1168,
      93,
      1169
    ],
    [
      119,
      287,
      1170
    ],
    [
      256,
      259,
      1171
    ],
    [
      122,
      302,
      1172
    ],
    [
      313,
      275,
      1173
    ],
    [
      1058,
      372,
      1174
    ],
    [
      100,
      299,
      1175
    ],
    [
      69,
      1145,
      1176
    ],
    [
      300,
      342,
      1177
    ],
    [
      383,
      119,
      1178
    ],
    [
      1046,
      32,
      1179
    ],
    [
      106,
      259,
      1180
    ],
    [
      100,
      354,
      1181
    ],
    [
      277,
      261,
      1182
    ],
    [
      985,
      820,
      1183
    ],
    [
      1183,
      1147,
      1184
    ],
    [
      119,
      270,
      1185
    ],
    [
      322,
      108,
      1186
    ],
    [
      803,
      678,
      1187
    ],
    [
      316,
      68,
      1188
    ],
    [
      293,
      108,
      1189
    ],
    [
      1026,
      360,
      1190
    ],
    [
      283,
      117,
      1191
    ],
    [
      633,
      330,
      1192
    ],
    [
      1044,
      398,
      1193
    ],
    [
      1176,
      832,
      1194
    ],
    [
      278,
      275,
      1195
    ],
    [
      341,
      111,
      1196
    ],
    [
      334,
      681,
      1197
    ],
    [
      274,
      362,
      1198
    ],
    [
      98,
      32,
      1199
    ],
    [
      122,
      105,
      1200
    ],
    [
      117,
      299,
      1201
    ],
    [
      101,
      259,
      1202
    ],
    [
      122,
      409,
      1203
    ],
    [
      265,
      835,
      1204
    ],
    [
      117,
      116,
      1205
    ],
    [
      40,
      1194,
      1206
    ],
    [
      813,
      994,
      1207
    ],
    [
      270,
      32,
      1208
    ],
    [
      431,
      280,
      1209
    ],
    [
      66,
      746,
      1210
    ],
    [
      289,
      290,
      1211
    ],
    [
      122,
      360,
      1212
    ],
    [
      828,
      106,
      1213
    ],
    [
      939,
      309,
      1214
    ],
    [
      73,
      110,
      1215
    ],
    [
      259,
      314,
      1216
    ],
    [
      738,
      272,
      1217
    ],
    [
      331,
      373,
      1218
    ],
    [
      444,
      398,
      1219
    ],
    [
      671,
      100,
      1220
    ],
    [
      107,
      325,
      1221
    ],
    [
      802,
      262,
      1222
    ],
    [
      320,
      256,
      1223
    ],
    [
      405,
      110,
      1224
    ],
    [
      103,
      268,
      1225
    ],
    [
      762,
      283,
      1226
    ],
    [
      109,
      351,
      1227
    ],
    [
      1193,
      456,
      1228
    ],
    [
      327,
      313,
      1229
    ],
    [
      1206,
      51,
      1230
    ],
    [
      58,
      352,
      1231
    ],
    [
      78,
      379,
      1232
    ],
    [
      117,
      427,
      1233
    ],
    [
      898,
      274,
      1234
    ],
    [
      732,
      724,
      1235
    ],
    [
      631,
      261,
      1236
    ],
    [
      283,
      1102,
      1237
    ],
    [
      103,
      269,
      1238
    ],
    [
      278,
      308,
      1239
    ],
    [
      646,
      1184,
      1240
    ],
    [
      1240,
      1207,
      1241
    ],
    [
      1241,
      354,
      1242
    ],
    [
      320,
      378,
      1243
    ],
    [
      115,
      444,
      1244
    ],
    [
      726,
      824,
      1245
    ],
    [
      267,
      111,
      1246
    ],
    [
      107,
      392,
      1247
    ],
    [
      270,
      117,
      1248
    ],
    [
      803,
      106,
      1249
    ],
    [
      986,
      1107,
      1250
    ],
    [
      812,
      429,
      1251
    ],
    [
      101,
      283,
      1252
    ],
    [
      107,
      655,
      1253
    ],
    [
      103,
      634,
      1254
    ],
    [
      740,
      325,
      1255
    ],
    [
      669,
      302,
      1256
    ],
    [
      316,
      65,
      1257
    ],
    [
      932,
      100,
      1258
    ],
    [
      1242,
      1230,
      1259
    ],
    [
      1245,
      267,
      1260
    ],
    [
      102,
      117,
      1261
    ],
    [
      99,
      362,
      1262
    ],
    [
      117,
      378,
      1263
    ],
    [
      755,
      97,
      1264
    ],
    [
      673,
      260,
      1265
    ],
    [
      709,
      107,
      1266
    ],
    [
      303,
      294,
      1267
    ],
    [
      637,
      97,
      1268
    ],
    [
      631,
      379,
      1269
    ],
    [
      346,
      280,
      1270
    ],
    [
      103,
      317,
      1271
    ],
    [
      907,
      271,
      1272
    ],
    [
      645,
      260,
      1273
    ],
    [
      263,
      122,
      1274
    ],
    [
      107,
      273,
      1275
    ],
    [
      257,
      420,
      1276
    ],
    [
      122,
      905,
      1277
    ],
    [
      648,
      268,
      1278
    ],
    [
      316,
      90,
      1279
    ],
    [
      109,
      284,
      1280
    ],
    [
      316,
      906,
      1281
    ],
    [
      1169,
      32,
      1282
    ],
    [
      115,
      319,
      1283
    ],
    [
      267,
      256,
      1284
    ],
    [
      103,
      279,
      1285
    ],
    [
      272,
      299,
      1286
    ],
    [
      766,
      275,
      1287
    ],
    [
      274,
      266,
      1288
    ],
    [
      100,
      694,
      1289
    ],
    [
      109,
      1099,
      1290
    ],
    [
      390,
      503,
      1291
    ],
    [
      103,
      287,
      1292
    ],
    [
      725,
      273,
      1293
    ],
    [
      267,
      289,
      1294
    ],
    [
      114,
      273,
      1295
    ],
    [
      111,
      405,
      1296
    ],
    [
      122,
      327,
      1297
    ],
    [
      265,
      890,
      1298
    ],
    [
      414,
      438,
      1299
    ],
    [
      1035,
      101,
      1300
    ],
    [
      435,
      259,
      1301
    ],
    [
      110,
      362,
      1302
    ],
    [
      290,
      122,
      1303
    ],
    [
      117,
      271,
      1304
    ],
    [
      402,
      106,
      1305
    ],
    [
      667,
      312,
      1306
    ],
    [
      97,
      403,
      1307
    ],
    [
      458,
      419,
      1308
    ],
    [
      310,
      258,
      1309
    ],
    [
      428,
      263,
      1310
    ],
    [
      289,
      314,
      1311
    ],
    [
      278,
      256,
      1312
    ],
    [
      892,
      115,
      1313
    ],
    [
      103,
      330,
      1314
    ],
    [
      276,
      313,
      1315
    ],
    [
      119,
      117,
      1316
    ],
    [
      263,
      116,
      1317
    ],
    [
      115,
      305,
      1318
    ],
    [
      1215,
      100,
      1319
    ],
    [
      452,
      274,
      1320
    ],
    [
      390,
      375,
      1321
    ],
    [
      753,
      317,
      1322
    ],
    [
      112,
      346,
      1323
    ],
    [
      458,
      259,
      1324
    ],
    [
      871,
      49,
      1325
    ],
    [
      289,
      764,
      1326
    ],
    [
      355,
      837,
      1327
    ],
    [
      107,
      339,
      1328
    ],
    [
      111,
      469,
      1329
    ],
    [
      296,
      111,
      1330
    ],
    [
      107,
      923,
      1331
    ],
    [
      622,
      432,
      1332
    ],
    [
      424,
      325,
      1333
    ],
    [
      647,
      382,
      1334
    ],
    [
      839,
      271,
      1335
    ],
    [
      420,
      261,
      1336
    ],
    [
      56,
      32,
      1337
    ],
    [
      266,
      261,
      1338
    ],
    [
      262,
      421,
      1339
    ],
    [
      77,
      629,
      1340
    ],
    [
      1340,
      653,
      1341
    ],
    [
      1185,
      735,
      1342
    ],
    [
      465,
      964,
      1343
    ],
    [
      992,
      107,
      1344
    ],
    [
      107,
      376,
      1345
    ],
    [
      334,
      110,
      1346
    ],
    [
      292,
      735,
      1347
    ],
    [
      108,
      111,
      1348
    ],
    [
      334,
      1043,
      1349
    ],
    [
      910,
      122,
      1350
    ],
    [
      53,
      32,
      1351
    ],
    [
      114,
      119,
      1352
    ],
    [
      360,
      114,
      1353
    ],
    [
      795,
      452,
      1354
    ],
    [
      733,
      292,
      1355
    ],
    [
      279,
      390,
      1356
    ],
    [
      419,
      261,
      1357
    ],
    [
      115,
      261,
      1358
    ],
    [
      107,
      299,
      1359
    ],
    [
      633,
      317,
      1360
    ],
    [
      290,
      425,
      1361
    ],
    [
      316,
      66,
      1362
    ],
    [
      676,
      264,
      1363
    ],
    [
      462,
      794,
      1364
    ],
    [
      265,
      909,
      1365
    ],
    [
      1210,
      1024,
      1366
    ],
    [
      982,
      283,
      1367
    ],
    [
      677,
      100,
      1368
    ],
    [
      257,
      111,
      1369
    ],
    [
      256,
      101,
      1370
    ],
    [
      455,
      295,
      1371
    ],
    [
      1190,
      401,
      1372
    ],
    [
      323,
      329,
      1373
    ],
    [
      265,
      381,
      1374
    ],
    [
      525,
      280,
      1375
    ],
    [
      276,
      825,
      1376
    ],
    [
      664,
      373,
      1377
    ],
    [
      1178,
      1010,
      1378
    ],
    [
      111,
      367,
      1379
    ],
    [
      1272,
      362,
      1380
    ],
    [
      285,
      351,
      1381
    ],
    [
      399,
      275,
      1382
    ],
    [
      98,
      256,
      1383
    ],
    [
      328,
      99,
      1384
    ],
    [
      836,
      277,
      1385
    ],
    [
      105,
      272,
      1386
    ],
    [
      119,
      260,
      1387
    ],
    [
      104,
      378,
      1388
    ],
    [
      1388,
      105,
      1389
    ],
    [
      431,
      259,
      1390
    ],
    [
      465,
      383,
      1391
    ],
    [
      887,
      1064,
      1392
    ],
    [
      269,
      121,
      1393
    ],
    [
      99,
      741,
      1394
    ],
    [
      887,
      292,
      1395
    ],
    [
      1162,
      915,
      1396
    ],
    [
      773,
      262,
      1397
    ],
    [
      121,
      454,
      1398
    ],
    [
      843,
      649,
      1399
    ],
    [
      279,
      110,
      1400
    ],
    [
      414,
      99,
      1401
    ],
    [
      49,
      32,
      1402
    ],
    [
      348,
      312,
      1403
    ],
    [
      637,
      105,
      1404
    ],
    [
      340,
      261,
      1405
    ],
    [
      677,
      851,
      1406
    ],
    [
      943,
      398,
      1407
    ],
    [
      339,
      374,
      1408
    ],
    [
      269,
      369,
      1409
    ],
    [
      309,
      100,
      1410
    ],
    [
      111,
      944,
      1411
    ],
    [
      436,
      361,
      1412
    ],
    [
      685,
      1108,
      1413
    ],
    [
      295,
      367,
      1414
    ],
    [
      427,
      319,
      1415
    ],
    [
      672,
      692,
      1416
    ],
    [
      1186,
      413,
      1417
    ],
    [
      717,
      342,
      1418
    ],
    [
      709,
      659,
      1419
    ],
    [
      546,
      80,
      1420
    ],
    [
      607,
      319,
      1421
    ],
    [
      922,
      883,
      1422
    ],
    [
      1422,
      287,
      1423
    ],
    [
      115,
      854,
      1424
    ],
    [
      256,
      369,
      1425
    ],
    [
      112,
      270,
      1426
    ],
    [
      341,
      728,
      1427
    ],
    [
      310,
      291,
      1428
    ],
    [
      371,
      771,
      1429
    ],
    [
      55,
      32,
      1430
    ],
    [
      114,
      32,
      1431
    ],
    [
      109,
      273,
      1432
    ],
    [
      103,
      371,
      1433
    ],
    [
      258,
      261,
      1434
    ],
    [
      112,
      339,
      1435
    ],
    [
      1050,
      430,
      1436
    ],
    [
      431,
      351,
      1437
    ],
    [
      1300,
      649,
      1438
    ],
    [
      111,
      410,
      1439
    ],
    [
      276,
      358,
      1440
    ],
    [
      1220,
      330,
      1441
    ],
    [
      290,
      791,
      1442
    ],
    [
      299,
      115,
      1443
    ],
    [
      766,
      271,
      1444
    ],
    [
      57,
      32,
      1445
    ],
    [
      328,
      103,
      1446
    ],
    [
      65,
      1111,
      1447
    ],
    [
      114,
      262,
      1448
    ],
    [
      283,
      299,
      1449
    ],
    [
      262,
      315,
      1450
    ],
    [
      111,
      106,
      1451
    ],
    [
      300,
      312,
      1452
    ],
    [
      50,
      32,
      1453
    ],
    [
      413,
      261,
      1454
    ],
    [
      368,
      267,
      1455
    ],
    [
      289,
      117,
      1456
    ],
    [
      383,
      310,
      1457
    ],
    [
      256,
      1195,
      1458
    ],
    [
      845,
      317,
      1459
    ],
    [
      281,
      336,
      1460
    ],
    [
      465,
      430,
      1461
    ],
    [
      427,
      403,
      1462
    ],
    [
      810,
      101,
      1463
    ],
    [
      1152,
      274,
      1464
    ],
    [
      68,
      90,
      1465
    ],
    [
      332,
      279,
      1466
    ],
    [
      289,
      702,
      1467
    ],
    [
      962,
      361,
      1468
    ],
    [
      332,
      275,
      1469
    ],
    [
      287,
      116,
      1470
    ],
    [
      259,
      286,
      1471
    ],
    [
      674,
      279,
      1472
    ],
    [
      686,
      407,
      1473
    ],
    [
      933,
      503,
      1474
    ],
    [
      1266,
      274,
      1475
    ],
    [
      415,
      257,
      1476
    ],
    [
      322,
      260,
      1477
    ],
    [
      1018,
      1436,
      1478
    ],
    [
      883,
      432,
      1479
    ],
    [
      311,
      1329,
      1480
    ],
    [
      268,
      420,
      1481
    ],
    [
      901,
      325,
      1482
    ],
    [
      1319,
      1114,
      1483
    ],
    [
      342,
      309,
      1484
    ],
    [
      1249,
      291,
      1485
    ],
    [
      644,
      305,
      1486
    ],
    [
      716,
      303,
      1487
    ],
    [
      99,
      291,
      1488
    ],
    [
      1465,
      73,
      1489
    ],
    [
      117,
      639,
      1490
    ],
    [
      286,
      635,
      1491
    ],
    [
      54,
      32,
      1492
    ],
    [
      284,
      109,
      1493
    ],
    [
      279,
      100,
      1494
    ],
    [
      112,
      782,
      1495
    ],
    [
      111,
      259,
      1496
    ],
    [
      78,
      97,
      1497
    ],
    [
      1062,
      108,
      1498
    ],
    [
      1226,
      401,
      1499
    ],
    [
      840,
      111,
      1500
    ],
    [
      346,
      351,
      1501
    ],
    [
      115,
      375,
      1502
    ],
    [
      269,
      259,
      1503
    ],
    [
      119,
      1394,
      1504
    ],
    [
      810,
      369,
      1505
    ],
    [
      428,
      108,
      1506
    ],
    [
      808,
      448,
      1507
    ],
    [
      319,
      314,
      1508
    ],
    [
      1284,
      752,
      1509
    ],
    [
      1447,
      32,
      1510
    ],
    [
      97,
      275,
      1511
    ],
    [
      920,
      641,
      1512
    ],
    [
      270,
      683,
      1513
    ],
    [
      103,
      261,
      1514
    ],
    [
      383,
      858,
      1515
    ],
    [
      289,
      292,
      1516
    ],
    [
      751,
      1045,
      1517
    ],
    [
      454,
      318,
      1518
    ],
    [
      677,
      383,
      1519
    ],
    [
      316,
      835,
      1520
    ],
    [
      663,
      330,
      1521
    ],
    [
      102,
      111,
      1522
    ],
    [
      390,
      1179,
      1523
    ],
    [
      290,
      644,
      1524
    ],
    [
      1524,
      368,
      1525
    ],
    [
      341,
      101,
      1526
    ],
    [
      323,
      297,
      1527
    ],
    [
      107,
      287,
      1528
    ],
    [
      910,
      294,
      1529
    ],
    [
      1354,
      454,
      1530
    ],
    [
      306,
      260,
      1531
    ],
    [
      100,
      608,
      1532
    ],
    [
      435,
      470,
      1533
    ],
    [
      259,
      1082,
      1534
    ],
    [
      51,
      32,
      1535
    ],
    [
      276,
      284,
      1536
    ],
    [
      114,
      263,
      1537
    ],
    [
      373,
      270,
      1538
    ],
    [
      902,
      357,
      1539
    ],
    [
      314,
      733,
      1540
    ],
    [
      863,
      1333,
      1541
    ],
    [
      992,
      401,
      1542
    ],
    [
      330,
      309,
      1543
    ],
    [
      679,
      51,
      1544
    ],
    [
      52,
      32,
      1545
    ],
    [
      257,
      319,
      1546
    ],
    [
      312,
      357,
      1547
    ],
    [
      344,
      262,
      1548
    ],
    [
      279,
      108,
      1549
    ],
    [
      298,
      1132,
      1550
    ],
    [
      116,
      273,
      1551
    ],
    [
      103,
      264,
      1552
    ],
    [
      110,
      117,
      1553
    ],
    [
      115,
      696,
      1554
    ],
    [
      313,
      448,
      1555
    ],
    [
      99,
      264,
      1556
    ],
    [
      644,
      1103,
      1557
    ],
    [
      901,
      1208,
      1558
    ],
    [
      299,
      1518,
      1559
    ],
    [
      116,
      362,
      1560
    ],
    [
      79,
      90,
      1561
    ],
    [
      1561,
      1489,
      1562
    ],
    [
      1562,
      1510,
      1563
    ],
    [
      303,
      309,
      1564
    ],
    [
      122,
      119,
      1565
    ],
    [
      283,
      259,
      1566
    ],
    [
      395,
      324,
      1567
    ],
    [
      119,
      293,
      1568
    ],
    [
      332,
      859,
      1569
    ],
    [
      106,
      362,
      1570
    ],
    [
      107,
      1310,
      1571
    ],
    [
      360,
      692,
      1572
    ],
    [
      1342,
      728,
      1573
    ],
    [
      344,
      111,
      1574
    ],
    [
      764,
      317,
      1575
    ],
    [
      97,
      280,
      1576
    ],
    [
      355,
      261,
      1577
    ],
    [
      402,
      838,
      1578
    ],
    [
      264,
      351,
      1579
    ],
    [
      1086,
      658,
      1580
    ],
    [
      336,
      101,
      1581
    ],
    [
      399,
      274,
      1582
    ],
    [
      1001,
      107,
      1583
    ],
    [
      428,
      97,
      1584
    ],
    [
      644,
      115,
      1585
    ],
    [
      1585,
      278,
      1586
    ],
    [
      830,
      694,
      1587
    ],
    [
      323,
      723,
      1588
    ],
    [
      718,
      373,
      1589
    ],
    [
      997,
      260,
      1590
    ],
    [
      1191,
      367,
      1591
    ],
    [
      631,
      268,
      1592
    ],
    [
      305,
      655,
      1593
    ],
    [
      112,
      256,
      1594
    ],
    [
      359,
      115,
      1595
    ],
    [
      1595,
      1498,
      1596
    ],
    [
      1596,
      116,
      1597
    ],
    [
      1597,
      1389,
      1598
    ],
    [
      953,
      413,
      1599
    ],
    [
      310,
      271,
      1600
    ],
    [
      631,
      258,
      1601
    ],
    [
      834,
      401,
      1602
    ],
    [
      100,
      336,
      1603
    ],
    [
      476,
      1314,
      1604
    ],
    [
      390,
      1009,
      1605
    ],
    [
      315,
      267,
      1606
    ],
    [
      314,
      103,
      1607
    ],
    [
      942,
      115,
      1608
    ],
    [
      103,
      258,
      1609
    ],
    [
      415,
      274,
      1610
    ],
    [
      314,
      115,
      1611
    ],
    [
      438,
      641,
      1612
    ],
    [
      295,
      410,
      1613
    ],
    [
      719,
      259,
      1614
    ],
    [
      930,
      354,
      1615
    ],
    [
      525,
      414,
      1616
    ],
    [
      257,
      735,
      1617
    ],
    [
      83,
      1252,
      1618
    ],
    [
      312,
      262,
      1619
    ],
    [
      703,
      1090,
      1620
    ],
    [
      119,
      342,
      1621
    ],
    [
      276,
      1408,
      1622
    ],
    [
      116,
      700,
      1623
    ],
    [
      1479,
      100,
      1624
    ],
    [
      382,
      303,
      1625
    ],
    [
      525,
      736,
      1626
    ],
    [
      117,
      366,
      1627
    ],
    [
      663,
      256,
      1628
    ],
    [
      444,
      109,
      1629
    ],
    [
      920,
      108,
      1630
    ],
    [
      402,
      298,
      1631
    ],
    [
      276,
      285,
      1632
    ],
    [
      111,
      438,
      1633
    ],
    [
      97,
      681,
      1634
    ],
    [
      689,
      754,
      1635
    ],
    [
      759,
      108,
      1636
    ],
    [
      446,
      108,
      1637
    ],
    [
      1363,
      794,
      1638
    ],
    [
      273,
      696,
      1639
    ],
    [
      448,
      1423,
      1640
    ],
    [
      82,
      774,
      1641
    ],
    [
      102,
      371,
      1642
    ],
    [
      122,
      710,
      1643
    ],
    [
      116,
      297,
      1644
    ],
    [
      395,
      106,
      1645
    ],
    [
      669,
      117,
      1646
    ],
    [
      99,
      690,
      1647
    ],
    [
      115,
      112,
      1648
    ],
    [
      271,
      371,
      1649
    ],
    [
      893,
      369,
      1650
    ],
    [
      122,
      1332,
      1651
    ],
    [
      34,
      680,
      1652
    ],
    [
      404,
      97,
      1653
    ],
    [
      271,
      743,
      1654
    ],
    [
      1382,
      262,
      1655
    ],
    [
      101,
      502,
      1656
    ],
    [
      752,
      280,
      1657
    ],
    [
      83,
      1639,
      1658
    ],
    [
      115,
      340,
      1659
    ],
    [
      276,
      292,
      1660
    ],
    [
      110,
      377,
      1661
    ],
    [
      310,
      97,
      1662
    ],
    [
      861,
      119,
      1663
    ],
    [
      452,
      324,
      1664
    ],
    [
      327,
      312,
      1665
    ],
    [
      365,
      260,
      1666
    ],
    [
      289,
      332,
      1667
    ],
    [
      1228,
      990,
      1668
    ],
    [
      34,
      32,
      1669
    ],
    [
      383,
      288,
      1670
    ],
    [
      706,
      266,
      1671
    ],
    [
      265,
      34,
      1672
    ],
    [
      323,
      262,
      1673
    ],
    [
      320,
      346,
      1674
    ],
    [
      305,
      628,
      1675
    ],
    [
      886,
      307,
      1676
    ],
    [
      293,
      470,
      1677
    ],
    [
      122,
      732,
      1678
    ],
    [
      341,
      117,
      1679
    ],
    [
      1502,
      116,
      1680
    ],
    [
      888,
      457,
      1681
    ],
    [
      300,
      292,
      1682
    ],
    [
      104,
      105,
      1683
    ],
    [
      259,
      837,
      1684
    ],
    [
      402,
      937,
      1685
    ],
    [
      314,
      926,
      1686
    ],
    [
      99,
      1089,
      1687
    ],
    [
      100,
      264,
      1688
    ],
    [
      117,
      1335,
      1689
    ],
    [
      982,
      309,
      1690
    ],
    [
      365,
      266,
      1691
    ],
    [
      116,
      329,
      1692
    ],
    [
      272,
      263,
      1693
    ],
    [
      107,
      333,
      1694
    ],
    [
      122,
      956,
      1695
    ],
    [
      73,
      73,
      1696
    ],
    [
      986,
      774,
      1697
    ],
    [
      819,
      284,
      1698
    ],
    [
      101,
      636,
      1699
    ],
    [
      830,
      106,
      1700
    ],
    [
      744,
      100,
      1701
    ],
    [
      265,
      745,
      1702
    ],
    [
      427,
      109,
      1703
    ],
    [
      731,
      502,
      1704
    ],
    [
      966,
      291,
      1705
    ],
    [
      954,
      262,
      1706
    ],
    [
      462,
      1315,
      1707
    ],
    [
      853,
      848,
      1708
    ],
    [
      845,
      330,
      1709
    ],
    [
      265,
      359,
      1710
    ],
    [
      107,
      263,
      1711
    ],
    [
      259,
      410,
      1712
    ],
    [
      843,
      267,
      1713
    ],
    [
      87,
      32,
      1714
    ],
    [
      675,
      1424,
      1715
    ],
    [
      318,
      418,
      1716
    ],
    [
      299,
      100,
      1717
    ],
    [
      276,
      823,
      1718
    ],
    [
      273,
      260,
      1719
    ],
    [
      309,
      290,
      1720
    ],
    [
      112,
      655,
      1721
    ],
    [
      274,
      258,
      1722
    ],
    [
      780,
      720,
      1723
    ],
    [
      259,
      632,
      1724
    ],
    [
      470,
      300,
      1725
    ],
    [
      274,
      260,
      1726
    ],
    [
      116,
      424,
      1727
    ],
    [
      710,
      109,
      1728
    ],
    [
      658,
      258,
      1729
    ],
    [
      327,
      639,
      1730
    ],
    [
      409,
      635,
      1731
    ],
    [
      1002,
      100,
      1732
    ],
    [
      317,
      309,
      1733
    ],
    [
      332,
      937,
      1734
    ],
    [
      316,
      83,
      1735
    ],
    [
      911,
      287,
      1736
    ],
    [
      408,
      256,
      1737
    ],
    [
      106,
      658,
      1738
    ],
    [
      272,
      424,
      1739
    ],
    [
      289,
      361,
      1740
    ],
    [
      272,
      342,
      1741
    ],
    [
      717,
      431,
      1742
    ],
    [
      792,
      1057,
      1743
    ],
    [
      341,
      706,
      1744
    ],
    [
      663,
      317,
      1745
    ],
    [
      459,
      1233,
      1746
    ],
    [
      402,
      705,
      1747
    ],
    [
      66,
      101,
      1748
    ],
    [
      419,
      303,
      1749
    ],
    [
      323,
      372,
      1750
    ],
    [
      110,
      392,
      1751
    ],
    [
      257,
      117,
      1752
    ],
    [
      119,
      336,
      1753
    ],
    [
      108,
      652,
      1754
    ],
    [
      289,
      736,
      1755
    ],
    [
      861,
      820,
      1756
    ],
    [
      455,
      325,
      1757
    ],
    [
      115,
      258,
      1758
    ],
    [
      673,
      297,
      1759
    ],
    [
      663,
      312,
      1760
    ],
    [
      121,
      259,
      1761
    ],
    [
      312,
      309,
      1762
    ],
    [
      1426,
      1330,
      1763
    ],
    [
      873,
      378,
      1764
    ],
    [
      777,
      403,
      1765
    ],
    [
      630,
      303,
      1766
    ],
    [
      794,
      267,
      1767
    ],
    [
      671,
      112,
      1768
    ],
    [
      954,
      104,
      1769
    ],
    [
      916,
      324,
      1770
    ],
    [
      1023,
      262,
      1771
    ],
    [
      1257,
      692,
      1772
    ],
    [
      1053,
      958,
      1773
    ],
    [
      455,
      752,
      1774
    ],
    [
      274,
      287,
      1775
    ],
    [
      503,
      303,
      1776
    ],
    [
      948,
      330,
      1777
    ],
    [
      446,
      957,
      1778
    ],
    [
      357,
      1081,
      1779
    ],
    [
      402,
      274,
      1780
    ],
    [
      367,
      1525,
      1781
    ],
    [
      65,
      798,
      1782
    ],
    [
      319,
      797,
      1783
    ],
    [
      111,
      321,
      1784
    ],
    [
      326,
      354,
      1785
    ],
    [
      274,
      305,
      1786
    ],
    [
      261,
      436,
      1787
    ],
    [
      417,
      105,
      1788
    ],
    [
      261,
      117,
      1789
    ],
    [
      116,
      333,
      1790
    ],
    [
      417,
      258,
      1791
    ],
    [
      1224,
      728,
      1792
    ],
    [
      283,
      100,
      1793
    ],
    [
      323,
      101,
      1794
    ],
    [
      114,
      266,
      1795
    ],
    [
      759,
      358,
      1796
    ],
    [
      703,
      674,
      1797
    ],
    [
      1377,
      308,
      1798
    ],
    [
      289,
      757,
      1799
    ],
    [
      1320,
      785,
      1800
    ],
    [
      812,
      262,
      1801
    ],
    [
      347,
      327,
      1802
    ],
    [
      314,
      502,
      1803
    ],
    [
      332,
      280,
      1804
    ],
    [
      644,
      106,
      1805
    ],
    [
      98,
      1657,
      1806
    ],
    [
      1641,
      1781,
      1807
    ],
    [
      328,
      854,
      1808
    ],
    [
      314,
      805,
      1809
    ],
    [
      1368,
      297,
      1810
    ],
    [
      367,
      257,
      1811
    ],
    [
      405,
      292,
      1812
    ],
    [
      347,
      262,
      1813
    ],
    [
      647,
      268,
      1814
    ],
    [
      830,
      340,
      1815
    ],
    [
      272,
      1072,
      1816
    ],
    [
      303,
      286,
      1817
    ],
    [
      706,
      379,
      1818
    ],
    [
      119,
      1617,
      1819
    ],
    [
      97,
      259,
      1820
    ],
    [
      284,
      378,
      1821
    ],
    [
      1698,
      403,
      1822
    ],
    [
      116,
      107,
      1823
    ],
    [
      115,
      483,
      1824
    ],
    [
      271,
      105,
      1825
    ],
    [
      390,
      405,
      1826
    ],
    [
      283,
      767,
      1827
    ],
    [
      316,
      75,
      1828
    ],
    [
      390,
      1801,
      1829
    ],
    [
      351,
      349,
      1830
    ],
    [
      112,
      765,
      1831
    ],
    [
      479,
      264,
      1832
    ],
    [
      300,
      317,
      1833
    ],
    [
      1027,
      345,
      1834
    ],
    [
      408,
      312,
      1835
    ],
    [
      278,
      292,
      1836
    ],
    [
      111,
      1243,
      1837
    ],
    [
      313,
      112,
      1838
    ],
    [
      778,
      272,
      1839
    ],
    [
      109,
      457,
      1840
    ],
    [
      458,
      636,
      1841
    ],
    [
      110,
      296,
      1842
    ],
    [
      1404,
      876,
      1843
    ],
    [
      931,
      1511,
      1844
    ],
    [
      1031,
      1295,
      1845
    ],
    [
      305,
      259,
      1846
    ],
    [
      264,
      100,
      1847
    ],
    [
      115,
      328,
      1848
    ],
    [
      274,
      117,
      1849
    ],
    [
      261,
      332,
      1850
    ],
    [
      293,
      110,
      1851
    ],
    [
      1728,
      761,
      1852
    ],
    [
      116,
      114,
      1853
    ],
    [
      290,
      311,
      1854
    ],
    [
      1248,
      310,
      1855
    ],
    [
      390,
      305,
      1856
    ],
    [
      292,
      383,
      1857
    ],
    [
      107,
      115,
      1858
    ],
    [
      292,
      116,
      1859
    ],
    [
      334,
      836,
      1860
    ],
    [
      264,
      851,
      1861
    ],
    [
      84,
      262,
      1862
    ],
    [
      286,
      1483,
      1863
    ],
    [
      395,
      1124,
      1864
    ],
    [
      293,
      109,
      1865
    ],
    [
      107,
      295,
      1866
    ],
    [
      264,
      634,
      1867
    ],
    [
      257,
      305,
      1868
    ],
    [
      725,
      264,
      1869
    ],
    [
      375,
      114,
      1870
    ],
    [
      286,
      1066,
      1871
    ],
    [
      352,
      814,
      1872
    ],
    [
      488,
      280,
      1873
    ],
    [
      316,
      71,
      1874
    ],
    [
      358,
      108,
      1875
    ],
    [
      197,
      187,
      1876
    ],
    [
      320,
      409,
      1877
    ],
    [
      1069,
      112,
      1878
    ],
    [
      289,
      684,
      1879
    ],
    [
      98,
      376,
      1880
    ],
    [
      706,
      369,
      1881
    ],
    [
      311,
      486,
      1882
    ],
    [
      311,
      32,
      1883
    ],
    [
      320,
      473,
      1884
    ],
    [
      444,
      256,
      1885
    ],
    [
      97,
      420,
      1886
    ],
    [
      299,
      98,
      1887
    ],
    [
      122,
      320,
      1888
    ],
    [
      117,
      1030,
      1889
    ],
    [
      326,
      1352,
      1890
    ],
    [
      333,
      354,
      1891
    ],
    [
      122,
      1056,
      1892
    ],
    [
      365,
      297,
      1893
    ],
    [
      109,
      264,
      1894
    ],
    [
      383,
      396,
      1895
    ],
    [
      666,
      329,
      1896
    ],
    [
      294,
      780,
      1897
    ],
    [
      666,
      260,
      1898
    ],
    [
      259,
      262,
      1899
    ],
    [
      360,
      325,
      1900
    ],
    [
      286,
      290,
      1901
    ],
    [
      314,
      799,
      1902
    ],
    [
      332,
      660,
      1903
    ],
    [
      436,
      292,
      1904
    ],
    [
      1594,
      302,
      1905
    ],
    [
      1482,
      267,
      1906
    ],
    [
      322,
      280,
      1907
    ],
    [
      1212,
      1021,
      1908
    ],
    [
      119,
      1765,
      1909
    ],
    [
      690,
      303,
      1910
    ],
    [
      312,
      281,
      1911
    ],
    [
      316,
      745,
      1912
    ],
    [
      1540,
      119,
      1913
    ],
    [
      98,
      114,
      1914
    ],
    [
      875,
      639,
      1915
    ],
    [
      948,
      317,
      1916
    ],
    [
      952,
      791,
      1917
    ],
    [
      119,
      1622,
      1918
    ],
    [
      375,
      1358,
      1919
    ],
    [
      787,
      261,
      1920
    ],
    [
      642,
      634,
      1921
    ],
    [
      100,
      775,
      1922
    ],
    [
      271,
      754,
      1923
    ],
    [
      1427,
      263,
      1924
    ],
    [
      490,
      1244,
      1925
    ],
    [
      314,
      525,
      1926
    ],
    [
      111,
      448,
      1927
    ],
    [
      1385,
      121,
      1928
    ],
    [
      1928,
      1449,
      1929
    ],
    [
      115,
      266,
      1930
    ],
    [
      116,
      287,
      1931
    ],
    [
      102,
      97,
      1932
    ],
    [
      257,
      99,
      1933
    ],
    [
      121,
      419,
      1934
    ],
    [
      694,
      32,
      1935
    ],
    [
      319,
      921,
      1936
    ],
    [
      256,
      273,
      1937
    ],
    [
      290,
      688,
      1938
    ],
    [
      666,
      723,
      1939
    ],
    [
      275,
      658,
      1940
    ],
    [
      103,
      391,
      1941
    ],
    [
      1701,
      438,
      1942
    ],
    [
      283,
      313,
      1943
    ],
    [
      109,
      287,
      1944
    ],
    [
      980,
      980,
      1945
    ],
    [
      105,
      692,
      1946
    ],
    [
      274,
      367,
      1947
    ],
    [
      100,
      114,
      1948
    ],
    [
      296,
      97,
      1949
    ],
    [
      289,
      917,
      1950
    ],
    [
      1486,
      106,
      1951
    ],
    [
      115,
      1567,
      1952
    ],
    [
      711,
      346,
      1953
    ],
    [
      314,
      800,
      1954
    ],
    [
      100,
      752,
      1955
    ],
    [
      116,
      264,
      1956
    ],
    [
      1027,
      258,
      1957
    ],
    [
      357,
      1068,
      1958
    ],
    [
      636,
      654,
      1959
    ],
    [
      292,
      390,
      1960
    ],
    [
      904,
      1602,
      1961
    ],
    [
      267,
      340,
      1962
    ],
    [
      285,
      422,
      1963
    ],
    [
      962,
      109,
      1964
    ],
    [
      110,
      278,
      1965
    ],
    [
      874,
      119,
      1966
    ],
    [
      360,
      891,
      1967
    ],
    [
      283,
      347,
      1968
    ],
    [
      67,
      104,
      1969
    ],
    [
      661,
      405,
      1970
    ],
    [
      1807,
      936,
      1971
    ],
    [
      101,
      470,
      1972
    ],
    [
      1693,
      656,
      1973
    ],
    [
      111,
      271,
      1974
    ],
    [
      197,
      154,
      1975
    ],
    [
      436,
      117,
      1976
    ],
    [
      984,
      291,
      1977
    ],
    [
      115,
      683,
      1978
    ],
    [
      435,
      912,
      1979
    ],
    [
      695,
      259,
      1980
    ],
    [
      1019,
      483,
      1981
    ],
    [
      766,
      914,
      1982
    ],
    [
      875,
      856,
      1983
    ],
    [
      261,
      309,
      1984
    ],
    [
      631,
      321,
      1985
    ],
    [
      1587,
      761,
      1986
    ],
    [
      257,
      401,
      1987
    ],
    [
      265,
      49,
      1988
    ],
    [
      358,
      440,
      1989
    ],
    [
      655,
      744,
      1990
    ],
    [
      99,
      282,
      1991
    ],
    [
      365,
      727,
      1992
    ],
    [
      637,
      258,
      1993
    ],
    [
      368,
      272,
      1994
    ],
    [
      289,
      261,
      1995
    ],
    [
      259,
      390,
      1996
    ],
    [
      274,
      297,
      1997
    ],
    [
      272,
      369,
      1998
    ],
    [
      319,
      1098,
      1999
    ],
    [
      271,
      117,
      2000
    ],
    [
      644,
      1009,
      2001
    ],
    [
      267,
      1045,
      2002
    ],
    [
      1002,
      1873,
      2003
    ],
    [
      873,
      775,
      2004
    ],
    [
      845,
      628,
      2005
    ],
    [
      1100,
      449,
      2006
    ],
    [
      299,
      1198,
      2007
    ],
    [
      1118,
      345,
      2008
    ],
    [
      361,
      280,
      2009
    ],
    [
      663,
      351,
      2010
    ],
    [
      688,
      269,
      2011
    ],
    [
      665,
      426,
      2012
    ],
    [
      415,
      312,
      2013
    ],
    [
      326,
      470,
      2014
    ],
    [
      1345,
      649,
      2015
    ],
    [
      546,
      1341,
      2016
    ],
    [
      409,
      740,
      2017
    ],
    [
      305,
      334,
      2018
    ],
    [
      753,
      996,
      2019
    ],
    [
      476,
      308,
      2020
    ],
    [
      792,
      295,
      2021
    ],
    [
      257,
      278,
      2022
    ],
    [
      122,
      287,
      2023
    ],
    [
      274,
      723,
      2024
    ],
    [
      729,
      259,
      2025
    ],
    [
      290,
      108,
      2026
    ],
    [
      337,
      481,
      2027
    ],
    [
      273,
      329,
      2028
    ],
    [
      643,
      269,
      2029
    ],
    [
      312,
      294,
      2030
    ],
    [
      319,
      420,
      2031
    ],
    [
      726,
      676,
      2032
    ],
    [
      103,
      32,
      2033
    ],
    [
      702,
      862,
      2034
    ],
    [
      893,
      291,
      2035
    ],
    [
      1990,
      110,
      2036
    ],
    [
      289,
      119,
      2037
    ],
    [
      117,
      259,
      2038
    ],
    [
      277,
      97,
      2039
    ],
    [
      1526,
      99,
      2040
    ],
    [
      738,
      298,
      2041
    ],
    [
      292,
      300,
      2042
    ],
    [
      1251,
      266,
      2043
    ],
    [
      272,
      307,
      2044
    ],
    [
      272,
      262,
      2045
    ],
    [
      1571,
      275,
      2046
    ],
    [
      390,
      109,
      2047
    ],
    [
      275,
      1312,
      2048
    ],
    [
      276,
      259,
      2049
    ],
    [
      373,
      109,
      2050
    ],
    [
      1584,
      308,
      2051
    ],
    [
      836,
      32,
      2052
    ],
    [
      972,
      372,
      2053
    ],
    [
      311,
      336,
      2054
    ],
    [
      337,
      1462,
      2055
    ],
    [
      367,
      317,
      2056
    ],
    [
      657,
      259,
      2057
    ],
    [
      1073,
      317,
      2058
    ],
    [
      309,
      305,
      2059
    ],
    [
      972,
      1239,
      2060
    ],
    [
      802,
      302,
      2061
    ],
    [
      107,
      259,
      2062
    ],
    [
      1634,
      1110,
      2063
    ],
    [
      115,
      271,
      2064
    ],
    [
      658,
      342,
      2065
    ],
    [
      671,
      401,
      2066
    ],
    [
      313,
      310,
      2067
    ],
    [
      607,
      413,
      2068
    ],
    [
      1507,
      659,
      2069
    ],
    [
      1660,
      658,
      2070
    ],
    [
      1971,
      1925,
      2071
    ],
    [
      115,
      413,
      2072
    ],
    [
      332,
      98,
      2073
    ],
    [
      289,
      294,
      2074
    ],
    [
      740,
      295,
      2075
    ],
    [
      103,
      362,
      2076
    ],
    [
      315,
      119,
      2077
    ],
    [
      455,
      452,
      2078
    ],
    [
      654,
      1852,
      2079
    ],
    [
      273,
      262,
      2080
    ],
    [
      1697,
      1758,
      2081
    ],
    [
      1228,
      819,
      2082
    ],
    [
      106,
      1469,
      2083
    ],
    [
      394,
      111,
      2084
    ],
    [
      303,
      357,
      2085
    ],
    [
      319,
      419,
      2086
    ],
    [
      267,
      263,
      2087
    ],
    [
      1411,
      449,
      2088
    ],
    [
      1534,
      466,
      2089
    ],
    [
      1328,
      368,
      2090
    ],
    [
      117,
      98,
      2091
    ],
    [
      275,
      369,
      2092
    ],
    [
      459,
      117,
      2093
    ],
    [
      115,
      457,
      2094
    ],
    [
      922,
      107,
      2095
    ],
    [
      360,
      941,
      2096
    ],
    [
      633,
      256,
      2097
    ],
    [
      290,
      271,
      2098
    ],
    [
      488,
      382,
      2099
    ],
    [
      674,
      100,
      2100
    ],
    [
      261,
      406,
      2101
    ],
    [
      1092,
      275,
      2102
    ],
    [
      290,
      107,
      2103
    ],
    [
      371,
      1858,
      2104
    ],
    [
      2104,
      1683,
      2105
    ],
    [
      759,
      419,
      2106
    ],
    [
      107,
      270,
      2107
    ],
    [
      307,
      261,
      2108
    ],
    [
      351,
      303,
      2109
    ],
    [
      780,
      105,
      2110
    ],
    [
      299,
      442,
      2111
    ],
    [
      122,
      399,
      2112
    ],
    [
      1414,
      292,
      2113
    ],
    [
      283,
      697,
      2114
    ],
    [
      281,
      1008,
      2115
    ],
    [
      881,
      438,
      2116
    ],
    [
      661,
      284,
      2117
    ],
    [
      341,
      266,
      2118
    ],
    [
      429,
      266,
      2119
    ],
    [
      264,
      259,
      2120
    ],
    [
      391,
      274,
      2121
    ],
    [
      284,
      283,
      2122
    ],
    [
      121,
      109,
      2123
    ],
    [
      1530,
      1373,
      2124
    ],
    [
      1586,
      1199,
      2125
    ],
    [
      286,
      1977,
      2126
    ],
    [
      115,
      263,
      2127
    ],
    [
      1116,
      958,
      2128
    ],
    [
      353,
      257,
      2129
    ],
    [
      301,
      114,
      2130
    ],
    [
      115,
      379,
      2131
    ],
    [
      84,
      2036,
      2132
    ],
    [
      362,
      261,
      2133
    ],
    [
      272,
      325,
      2134
    ],
    [
      289,
      303,
      2135
    ],
    [
      279,
      433,
      2136
    ],
    [
      119,
      278,
      2137
    ],
    [
      336,
      465,
      2138
    ],
    [
      294,
      844,
      2139
    ],
    [
      286,
      936,
      2140
    ],
    [
      293,
      107,
      2141
    ],
    [
      1141,
      307,
      2142
    ],
    [
      427,
      659,
      2143
    ],
    [
      314,
      367,
      2144
    ],
    [
      671,
      299,
      2145
    ],
    [
      1150,
      940,
      2146
    ],
    [
      1832,
      267,
      2147
    ],
    [
      360,
      383,
      2148
    ],
    [
      652,
      413,
      2149
    ],
    [
      349,
      947,
      2150
    ],
    [
      402,
      1361,
      2151
    ],
    [
      1238,
      264,
      2152
    ],
    [
      316,
      890,
      2153
    ],
    [
      1175,
      98,
      2154
    ],
    [
      1593,
      1538,
      2155
    ],
    [
      283,
      280,
      2156
    ],
    [
      332,
      106,
      2157
    ],
    [
      446,
      686,
      2158
    ],
    [
      1366,
      32,
      2159
    ],
    [
      795,
      655,
      2160
    ],
    [
      300,
      473,
      2161
    ],
    [
      290,
      700,
      2162
    ],
    [
      1522,
      1189,
      2163
    ],
    [
      307,
      640,
      2164
    ],
    [
      939,
      368,
      2165
    ],
    [
      642,
      109,
      2166
    ],
    [
      111,
      295,
      2167
    ],
    [
      751,
      117,
      2168
    ],
    [
      942,
      277,
      2169
    ],
    [
      1018,
      1563,
      2170
    ],
    [
      119,
      369,
      2171
    ],
    [
      458,
      109,
      2172
    ],
    [
      1929,
      1029,
      2173
    ],
    [
      332,
      327,
      2174
    ],
    [
      427,
      108,
      2175
    ],
    [
      117,
      272,
      2176
    ],
    [
      289,
      682,
      2177
    ],
    [
      378,
      354,
      2178
    ],
    [
      355,
      105,
      2179
    ],
    [
      272,
      391,
      2180
    ],
    [
      270,
      97,
      2181
    ],
    [
      1127,
      1213,
      2182
    ],
    [
      103,
      117,
      2183
    ],
    [
      1250,
      691,
      2184
    ],
    [
      261,
      289,
      2185
    ],
    [
      722,
      1181,
      2186
    ],
    [
      1569,
      116,
      2187
    ],
    [
      1277,
      256,
      2188
    ],
    [
      456,
      990,
      2189
    ],
    [
      314,
      290,
      2190
    ],
    [
      444,
      308,
      2191
    ],
    [
      725,
      719,
      2192
    ],
    [
      103,
      519,
      2193
    ],
    [
      105,
      957,
      2194
    ],
    [
      320,
      641,
      2195
    ],
    [
      1908,
      116,
      2196
    ],
    [
      112,
      264,
      2197
    ],
    [
      929,
      433,
      2198
    ],
    [
      302,
      321,
      2199
    ],
    [
      942,
      1143,
      2200
    ],
    [
      270,
      323,
      2201
    ],
    [
      259,
      1306,
      2202
    ],
    [
      111,
      349,
      2203
    ],
    [
      427,
      114,
      2204
    ],
    [
      960,
      32,
      2205
    ],
    [
      886,
      342,
      2206
    ],
    [
      358,
      256,
      2207
    ],
    [
      525,
      358,
      2208
    ],
    [
      103,
      297,
      2209
    ],
    [
      415,
      695,
      2210
    ],
    [
      107,
      1130,
      2211
    ],
    [
      928,
      289,
      2212
    ],
    [
      259,
      1088,
      2213
    ],
    [
      1345,
      267,
      2214
    ],
    [
      283,
      1273,
      2215
    ],
    [
      312,
      289,
      2216
    ],
    [
      309,
      805,
      2217
    ],
    [
      294,
      801,
      2218
    ],
    [
      546,
      90,
      2219
    ],
    [
      777,
      1273,
      2220
    ],
    [
      438,
      382,
      2221
    ],
    [
      738,
      428,
      2222
    ],
    [
      112,
      313,
      2223
    ],
    [
      703,
      430,
      2224
    ],
    [
      724,
      303,
      2225
    ],
    [
      1238,
      1274,
      2226
    ],
    [
      264,
      322,
      2227
    ],
    [
      408,
      285,
      2228
    ],
    [
      453,
      1836,
      2229
    ],
    [
      277,
      306,
      2230
    ],
    [
      708,
      305,
      2231
    ],
    [
      355,
      447,
      2232
    ],
    [
      314,
      271,
      2233
    ],
    [
      100,
      287,
      2234
    ],
    [
      762,
      301,
      2235
    ],
    [
      315,
      109,
      2236
    ],
    [
      354,
      303,
      2237
    ],
    [
      1003,
      1095,
      2238
    ],
    [
      259,
      337,
      2239
    ],
    [
      105,
      283,
      2240
    ],
    [
      110,
      107,
      2241
    ],
    [
      80,
      97,
      2242
    ],
    [
      332,
      305,
      2243
    ],
    [
      335,
      315,
      2244
    ],
    [
      267,
      393,
      2245
    ],
    [
      656,
      115,
      2246
    ],
    [
      273,
      258,
      2247
    ],
    [
      274,
      269,
      2248
    ],
    [
      839,
      114,
      2249
    ],
    [
      1475,
      111,
      2250
    ],
    [
      631,
      297,
      2251
    ],
    [
      283,
      116,
      2252
    ],
    [
      341,
      279,
      2253
    ],
    [
      358,
      260,
      2254
    ],
    [
      455,
      262,
      2255
    ]
  ],
  "vocab": {
    "0": "\u0000",
    "1": "\u0001",
    "2": "\u0002",
    "3": "\u0003",
    "4": "\u0004",
    "5": "\u0005",
    "6": "\u0006",
    "7": "\u0007",
    "8": "\b",
    "9": "\t",
    "10": "\n",
    "11": "\u000b",
    "12": "\f",
    "13": "\r",
    "14": "\u000e",
    "15": "\u000f",
    "16": "\u0010",
    "17": "\u0011",
    "18": "\u0012",
    "19": "\u0013",
    "20": "\u0014",
    "21": "\u0015",
    "22": "\u0016",
    "23": "\u0017",
    "24": "\u0018",
    "25": "\u0019",
    "26": "\u001a",
    "27": "\u001b",
    "28": "\u001c",
    "29": "\u001d",
    "30": "\u001e",
    "31": "\u001f",
    "32": " ",
    "33": "!",
    "34": "\"",
    "35": "#",
    "36": "$",
    "37": "%",
    "38": "&",
    "39": "'",
    "40": "(",
    "41": ")",
    "42": "*",
    "43": "+",
    "44": ",",
    "45": "-",
    "46": ".",
    "47": "/",
    "48": "0",
    "49": "1",
    "50": "2",
    "51": "3",
    "52": "4",
    "53": "5",
    "54": "6",
    "55": "7",
    "56": "8",
    "57": "9",
    "58": ":",
    "59": ";",
    "60": "<",
    "61": "=",
    "62": ">",
    "63": "?",
    "64": "@",
    "65": "A",
    "66": "B",
    "67": "C",
    "68": "D",
    "69": "E",
    "70": "F",
    "71": "G",
    "72": "H",
    "73": "I",
    "74": "J",
    "75": "K",
    "76": "L",
    "77": "M",
    "78": "N",
    "79": "O",
    "80": "P",
    "81": "Q",
    "82": "R",
    "83": "S",
    "84": "T",
    "85": "U",
    "86": "V",
    "87": "W",
    "88": "X",
    "89": "Y",
    "90": "Z",
    "91": "[",
    "92": "\\",
    "93": "]",
    "94": "^",
    "95": "_",
    "96": "`",
    "97": "a",
    "98": "b",
    "99": "c",
    "100": "d",
    "101": "e",
    "102": "f",
    "103": "g",
    "104": "h",
    "105": "i",
    "106": "j",
    "107": "k",
    "108": "l",
    "109": "m",
    "110": "n",
    "111": "o",
    "112": "p",
    "113": "q",
    "114": "r",
    "115": "s",
    "116": "t",
    "117": "u",
    "118": "v",
    "119": "w",
    "120": "x",
    "121": "y",
    "122": "z",
    "123": "{",
    "124": "|",
    "125": "}",
    "126": "~",
    "127": "",
    "128": "�",
    "129": "�",
    "130": "�",
    "131": "�",
    "132": "�",
    "133": "�",
    "134": "�",
    "135": "�",
    "136": "�",
    "137": "�",
    "138": "�",
    "139": "�",
    "140": "�",
    "141": "�",
    "142": "�",
    "143": "�",
    "144": "�",
    "145": "�",
    "146": "�",
    "147": "�",
    "148": "�",
    "149": "�",
    "150": "�",
    "151": "�",
    "152": "�",
    "153": "�",
    "154": "�",
    "155": "�",
    "156": "�",
    "157": "�",
    "158": "�",
    "159": "�",
    "160": "�",
    "161": "�",
    "162": "�",
    "163": "�",
    "164": "�",
    "165": "�",
    "166": "�",
    "167": "�",
    "168": "�",
    "169": "�",
    "170": "�",
    "171": "�",
    "172": "�",
    "173": "�",
    "174": "�",
    "175": "�",
    "176": "�",
    "177": "�",
    "178": "�",
    "179": "�",
    "180": "�",
    "181": "�",
    "182": "�",
    "183": "�",
    "184": "�",
    "185": "�",
    "186": "�",
    "187": "�",
    "188": "�",
    "189": "�",
    "190": "�",
    "191": "�",
    "192": "�",
    "193": "�",
    "194": "�",
    "195": "�",
    "196": "�",
    "197": "�",
    "198": "�",
    "199": "�",
    "200": "�",
    "201": "�",
    "202": "�",
    "203": "�",
    "204": "�",
    "205": "�",
    "206": "�",
    "207": "�",
    "208": "�",
    "209": "�",
    "210": "�",
    "211": "�",
    "212": "�",
    "213": "�",
    "214": "�",
    "215": "�",
    "216": "�",
    "217": "�",
    "218": "�",
    "219": "�",
    "220": "�",
    "221": "�",
    "222": "�",
    "223": "�",
    "224": "�",
    "225": "�",
    "226": "�",
    "227": "�",
    "228": "�",
    "229": "�",
    "230": "�",
    "231": "�",
    "232": "�",
    "233": "�",
    "234": "�",
    "235": "�",
    "236": "�",
    "237": "�",
    "238": "�",
    "239": "�",
    "240": "�",
    "241": "�",
    "242": "�",
    "243": "�",
    "244": "�",
    "245": "�",
    "246": "�",
    "247": "�",
    "248": "�",
    "249": "�",
    "250": "�",
    "251": "�",
    "252": "�",
    "253": "�",
    "254": "�",
    "255": "�",
    "256": "ł",
    "257": "ni",
    "258": "a ",
    "259": ", ",
    "260": "e ",
    "261": "i ",
    "262": "o ",
    "263": "ą",
    "264": "ę",
    "265": ". ",
    "266": "y ",
    "267": "cz",
    "268": "ie",
    "269": "ał",
    "270": "rz",
    "271": "ch",
    "272": "st",
    "273": "ow",
    "274": "sz",
    "275": "ż",
    "276": "ś",
    "277": "dz",
    "278": "ó",
    "279": "ra",
    "280": "m ",
    "281": "- ",
    "282": "ię",
    "283": "na",
    "284": "nie",
    "285": "ć",
    "286": "w ",
    "287": "ar",
    "288": "się",
    "289": "nie ",
    "290": "po",
    "291": "u ",
    "292": "wi",
    "293": "te",
    "294": "z ",
    "295": "rze",
    "296": "ych",
    "297": "ą ",
    "298": "je",
    "299": "ro",
    "300": "dzi",
    "301": "no",
    "302": "ak",
    "303": "się ",
    "304": "..",
    "305": "ko",
    "306": "ąc",
    "307": "ał ",
    "308": "j ",
    "309": "na ",
    "310": "ci",
    "311": "sł",
    "312": "ć ",
    "313": "le",
    "314": "za",
    "315": "ty",
    "316": ". - ",
    "317": "ła ",
    "318": "in",
    "319": "ka",
    "320": "by",
    "321": "że ",
    "322": "ki",
    "323": "on",
    "324": "go ",
    "325": "rzy",
    "326": "cze",
    "327": "da",
    "328": "pra",
    "329": "ych ",
    "330": "ł ",
    "331": "Mar",
    "332": "wy",
    "333": "owa",
    "334": "pa",
    "335": "pe",
    "336": "od",
    "337": "prze",
    "338": "og",
    "339": "ró",
    "340": "ki ",
    "341": "ob",
    "342": "ała ",
    "343": "ol",
    "344": "kt",
    "345": "ak ",
    "346": "ła",
    "347": "praw",
    "348": "noś",
    "349": "to ",
    "350": "....",
    "351": ", że ",
    "352": " - ",
    "353": "peł",
    "354": "nia ",
    "355": "al",
    "356": "ysz",
    "357": "do ",
    "358": "mi",
    "359": "Mi",
    "360": "wie",
    "361": "ma",
    "362": "ę ",
    "363": "sty",
    "364": "niu ",
    "365": "jąc",
    "366": "słysz",
    "367": "czy",
    "368": "li",
    "369": "em ",
    "370": "ki, ",
    "371": "or",
    "372": "ej ",
    "373": "ta",
    "374": "d ",
    "375": "mu",
    "376": "lu",
    "377": "ych, ",
    "378": "wa",
    "379": "ie ",
    "380": "spraw",
    "381": "Wy",
    "382": "by ",
    "383": "dzie",
    "384": "au",
    "385": "słysząc",
    "386": "niepeł",
    "387": "niepełno",
    "388": "niepełnospraw",
    "389": "słyszących, ",
    "390": "do",
    "391": "ru",
    "392": "ów ",
    "393": "ne ",
    "394": "pow",
    "395": "we",
    "396": "ci ",
    "397": "st ",
    "398": "dy ",
    "399": "du",
    "400": "ją ",
    "401": "k ",
    "402": "przy",
    "403": "ż ",
    "404": "dl",
    "405": "sta",
    "406": "Mary ",
    "407": "t ",
    "408": "ną",
    "409": "ło",
    "410": "czy ",
    "411": "lub",
    "412": "ny ",
    "413": "ka ",
    "414": "mo",
    "415": "mie",
    "416": ": ",
    "417": "cj",
    "418": "nych ",
    "419": "mi ",
    "420": "ch ",
    "421": "tym ",
    "422": ", a ",
    "423": "przez ",
    "424": "wo",
    "425": "mni",
    "426": "jak ",
    "427": "cie",
    "428": "si",
    "429": "wsz",
    "430": "dział ",
    "431": "ała",
    "432": "az",
    "433": "ca",
    "434": "e i ",
    "435": "ne",
    "436": "roz",
    "437": "ogró",
    "438": "że",
    "439": "nie z",
    "440": "nist",
    "441": "jemni",
    "442": "bo",
    "443": "dla ",
    "444": "kie",
    "445": "lub ",
    "446": "gi",
    "447": "ności ",
    "448": "pie",
    "449": "ada",
    "450": "sy",
    "451": "........",
    "452": "re",
    "453": ". M",
    "454": "śl",
    "455": ". P",
    "456": "Minist",
    "457": "en",
    "458": "ny",
    "459": "ucz",
    "460": "sza",
    "461": "ws",
    "462": "my",
    "463": "owy ",
    "464": "cji ",
    "465": "powie",
    "466": "ra ",
    "467": "się, ",
    "468": "ek",
    "469": "ń",
    "470": "go",
    "471": "ności",
    "472": "nik",
    "473": "ś ",
    "474": "owej ",
    "475": "Col",
    "476": "mó",
    "477": "ogród ",
    "478": "ter",
    "479": "zm",
    "480": "sła",
    "481": "kona",
    "482": "i na",
    "483": "ko ",
    "484": "rud",
    "485": "rac",
    "486": "oni",
    "487": "ną, ",
    "488": "dy",
    "489": "w tym ",
    "490": "Pol",
    "491": "jących ",
    "492": "w u",
    "493": "lec",
    "494": "trud",
    "495": "komu",
    "496": "Ta",
    "497": "ic",
    "498": "czeni",
    "499": "jemniczy ",
    "500": "em i ",
    "501": "sowa",
    "502": "raz ",
    "503": "mu ",
    "504": "ktu",
    "505": "nością ",
    "506": "ćwi",
    "507": "inte",
    "508": "lektu",
    "509": "uczni",
    "510": "wca",
    "511": "teri",
    "512": "owaniu ",
    "513": "czeniu ",
    "514": "ćwiczeni",
    "515": "gdy ",
    "516": "kacji ",
    "517": "af",
    "518": "gwi",
    "519": "ór",
    "520": "jemniczy ogród ",
    "521": "się i",
    "522": "Nau",
    "523": "Tajemniczy ogród ",
    "524": "wer",
    "525": "sa",
    "526": "racow",
    "527": "Uni",
    "528": "uczniów ",
    "529": "one i ",
    "530": "War",
    "531": "komunik",
    "532": "/lub ",
    "533": "nych ma",
    "534": "ne przez ",
    "535": "dla uczniów ",
    "536": "trudności ",
    "537": "komunikowaniu ",
    "538": "z niepełnospraw",
    "539": "nością inte",
    "540": "nością intelektu",
    "541": "nością intelektual",
    "542": "nością intelektualną, ",
    "543": "tyzm",
    "544": "afaz",
    "545": "Pracow",
    "546": "! ",
    "547": "Warsza",
    "548": "nsowa",
    "549": "dukacji ",
    "550": "Ministra ",
    "551": "ateri",
    "552": "trudności w u",
    "553": "trudności w uczeniu ",
    "554": "trudności w uczeniu się i",
    "555": "trudności w uczeniu się i/lub ",
    "556": "trudności w uczeniu się i/lub komunikowaniu ",
    "557": "trudności w uczeniu się i/lub komunikowaniu się, ",
    "558": "trudności w uczeniu się i/lub komunikowaniu się, w tym ",
    "559": "słabo",
    "560": "z niepełnosprawnością intelektualną, ",
    "561": "z niepełnosprawnością intelektualną, au",
    "562": "z niepełnosprawnością intelektualną, autyzm",
    "563": "z niepełnosprawnością intelektualną, autyzmem i ",
    "564": "z niepełnosprawnością intelektualną, autyzmem i afaz",
    "565": "dla uczniów niepełnospraw",
    "566": "dla uczniów niepełnosprawnych ma",
    "567": "dla uczniów niepełnosprawnych mających ",
    "568": "dla uczniów niepełnosprawnych mających trudności w uczeniu się i/lub komunikowaniu się, w tym ",
    "569": "dla uczniów niepełnosprawnych mających trudności w uczeniu się i/lub komunikowaniu się, w tym nie",
    "570": "dla uczniów niepełnosprawnych mających trudności w uczeniu się i/lub komunikowaniu się, w tym niesłyszących, ",
    "571": "dla uczniów niepełnosprawnych mających trudności w uczeniu się i/lub komunikowaniu się, w tym niesłyszących, słabo",
    "572": "dla uczniów niepełnosprawnych mających trudności w uczeniu się i/lub komunikowaniu się, w tym niesłyszących, słabosłyszących, ",
    "573": "dla uczniów niepełnosprawnych mających trudności w uczeniu się i/lub komunikowaniu się, w tym niesłyszących, słabosłyszących, z niepełnosprawnością intelektualną, autyzmem i afaz",
    "574": "dla uczniów niepełnosprawnych mających trudności w uczeniu się i/lub komunikowaniu się, w tym niesłyszących, słabosłyszących, z niepełnosprawnością intelektualną, autyzmem i afazją ",
    "575": "Zada",
    "576": "nie zlec",
    "577": "Ministra E",
    "578": "Ministra Edukacji ",
    "579": "Ministra Edukacji i ",
    "580": "Ministra Edukacji i Nau",
    "581": "Ministra Edukacji i Nauki ",
    "582": "Wykona",
    "583": "Lin",
    "584": "styki ",
    "585": "Zadanie zlec",
    "586": "Zadanie zlecone i ",
    "587": "Zadanie zlecone i f",
    "588": "nsowane przez ",
    "589": "nsowane przez Ministra Edukacji i Nauki ",
    "590": "Uniwer",
    "591": "Uniwersy",
    "592": "Uniwersyte",
    "593": "Uniwersytet ",
    "594": "Uniwersytet Warsza",
    "595": "Uniwersytet Warszaws",
    "596": "Wydział ",
    "597": "Wydział Pol",
    "598": "Wydział Poloni",
    "599": "Pracownia ",
    "600": "Pracownia Lin",
    "601": "Pracownia Lingwi",
    "602": "Pracownia Lingwistyki ",
    "603": "Pracownia Lingwistyki Mi",
    "604": "Pracownia Lingwistyki Mig",
    "605": "Pracownia Lingwistyki Migowej ",
    "606": "Tek",
    "607": "Dic",
    "608": "ni ",
    "609": "Wykonawca",
    "610": "Wykonawca: ",
    "611": "Wykonawca: Uniwersytet Warszaws",
    "612": "Wykonawca: Uniwersytet Warszawski, ",
    "613": "Wykonawca: Uniwersytet Warszawski, Wydział Poloni",
    "614": "Wykonawca: Uniwersytet Warszawski, Wydział Polonisty",
    "615": "Wykonawca: Uniwersytet Warszawski, Wydział Polonistyki, ",
    "616": "Wykonawca: Uniwersytet Warszawski, Wydział Polonistyki, Pracownia Lingwistyki Migowej ",
    "617": "Tekst ",
    "618": "ateriał ",
    "619": "ateriał ćwiczeni",
    "620": "ateriał ćwiczeniowy ",
    "621": "ateriał ćwiczeniowy dla uczniów niepełnosprawnych mających trudności w uczeniu się i/lub komunikowaniu się, w tym niesłyszących, słabosłyszących, z niepełnosprawnością intelektualną, autyzmem i afazją ",
    "622": "nal",
    "623": "ateriał ćwiczeniowy dla uczniów niepełnosprawnych mających trudności w uczeniu się i/lub komunikowaniu się, w tym niesłyszących, słabosłyszących, z niepełnosprawnością intelektualną, autyzmem i afazją Wykonawca: Uniwersytet Warszawski, Wydział Polonistyki, Pracownia Lingwistyki Migowej ",
    "624": "ateriał ćwiczeniowy dla uczniów niepełnosprawnych mających trudności w uczeniu się i/lub komunikowaniu się, w tym niesłyszących, słabosłyszących, z niepełnosprawnością intelektualną, autyzmem i afazją Wykonawca: Uniwersytet Warszawski, Wydział Polonistyki, Pracownia Lingwistyki Migowej Zadanie zlecone i f",
    "625": "ateriał ćwiczeniowy dla uczniów niepełnosprawnych mających trudności w uczeniu się i/lub komunikowaniu się, w tym niesłyszących, słabosłyszących, z niepełnosprawnością intelektualną, autyzmem i afazją Wykonawca: Uniwersytet Warszawski, Wydział Polonistyki, Pracownia Lingwistyki Migowej Zadanie zlecone i fi na",
    "626": "ateriał ćwiczeniowy dla uczniów niepełnosprawnych mających trudności w uczeniu się i/lub komunikowaniu się, w tym niesłyszących, słabosłyszących, z niepełnosprawnością intelektualną, autyzmem i afazją Wykonawca: Uniwersytet Warszawski, Wydział Polonistyki, Pracownia Lingwistyki Migowej Zadanie zlecone i fi nansowane przez Ministra Edukacji i Nauki ",
    "627": "ateriał ćwiczeniowy dla uczniów niepełnosprawnych mających trudności w uczeniu się i/lub komunikowaniu się, w tym niesłyszących, słabosłyszących, z niepełnosprawnością intelektualną, autyzmem i afazją Wykonawca: Uniwersytet Warszawski, Wydział Polonistyki, Pracownia Lingwistyki Migowej Zadanie zlecone i fi nansowane przez Ministra Edukacji i Nauki Tajemniczy ogród ",
    "628": "ło ",
    "629": "ateriał ćwiczeniowy dla uczniów niepełnosprawnych mających trudności w uczeniu się i/lub komunikowaniu się, w tym niesłyszących, słabosłyszących, z niepełnosprawnością intelektualną, autyzmem i afazją Wykonawca: Uniwersytet Warszawski, Wydział Polonistyki, Pracownia Lingwistyki Migowej Zadanie zlecone i fi nansowane przez Ministra Edukacji i Nauki Tajemniczy ogród Tekst ",
    "630": "jej ",
    "631": "tak",
    "632": "tak ",
    "633": "rzek",
    "634": "dzie ",
    "635": "ży",
    "636": "m, ",
    "637": ". N",
    "638": "ory",
    "639": "je ",
    "640": "Colin",
    "641": "li ",
    "642": "ogro",
    "643": "bi",
    "644": "spo",
    "645": "gl",
    "646": ". Materiał ćwiczeniowy dla uczniów niepełnosprawnych mających trudności w uczeniu się i/lub komunikowaniu się, w tym niesłyszących, słabosłyszących, z niepełnosprawnością intelektualną, autyzmem i afazją Wykonawca: Uniwersytet Warszawski, Wydział Polonistyki, Pracownia Lingwistyki Migowej Zadanie zlecone i fi nansowane przez Ministra Edukacji i Nauki Tajemniczy ogród Tekst ",
    "647": "jak",
    "648": "sob",
    "649": "cz ",
    "650": "orygi",
    "651": "oryginal",
    "652": "at",
    "653": "oryginalny ",
    "654": "co ",
    "655": "ry",
    "656": "pi",
    "657": "Mary",
    "658": "ad",
    "659": "c ",
    "660": "cza",
    "661": "pod",
    "662": "? - ",
    "663": "mówi",
    "664": "tu",
    "665": "ć, ",
    "666": "któr",
    "667": "cho",
    "668": ". W",
    "669": "sk",
    "670": "nien",
    "671": "sze",
    "672": ". A",
    "673": "ści",
    "674": "bie",
    "675": "wszy",
    "676": "szcz",
    "677": "bę",
    "678": "ju",
    "679": ". Materiał ćwiczeniowy dla uczniów niepełnosprawnych mających trudności w uczeniu się i/lub komunikowaniu się, w tym niesłyszących, słabosłyszących, z niepełnosprawnością intelektualną, autyzmem i afazją Wykonawca: Uniwersytet Warszawski, Wydział Polonistyki, Pracownia Lingwistyki Migowej Zadanie zlecone i fi nansowane przez Ministra Edukacji i Nauki Tajemniczy ogród Tekst oryginalny ",
    "680": ". Mary ",
    "681": "n ",
    "682": "jest ",
    "683": "ąd",
    "684": "był ",
    "685": "! - ",
    "686": "la",
    "687": "ły ",
    "688": "myśl",
    "689": "panien",
    "690": "ały ",
    "691": "ta ",
    "692": "le ",
    "693": "po ",
    "694": "ź",
    "695": "nia",
    "696": "er",
    "697": "s ",
    "698": "ej",
    "699": ". B",
    "700": "łu",
    "701": "była ",
    "702": "może ",
    "703": "sie",
    "704": "ku ",
    "705": "ja",
    "706": "raz",
    "707": "................",
    "708": "wszyst",
    "709": "wię",
    "710": "naj",
    "711": "nę",
    "712": "bar",
    "713": "Colin ",
    "714": "par",
    "715": ", jak ",
    "716": "jąc ",
    "717": "powiedzi",
    "718": "py",
    "719": "ów",
    "720": "no ",
    "721": ". O",
    "722": "od ",
    "723": "ym ",
    "724": "ało ",
    "725": "gł",
    "726": "pu",
    "727": "ego ",
    "728": "owi",
    "729": "ku",
    "730": "sobie ",
    "731": "co",
    "732": "daw",
    "733": "ba",
    "734": "jego ",
    "735": "os",
    "736": "ma ",
    "737": "tu ",
    "738": "pro",
    "739": "to",
    "740": "pat",
    "741": "ale ",
    "742": "nego ",
    "743": "ce",
    "744": "bu",
    "745": "Cz",
    "746": "en ",
    "747": "rt",
    "748": "robi",
    "749": "bardz",
    "750": ", to ",
    "751": "pocz",
    "752": "owie",
    "753": "- rzek",
    "754": "ce ",
    "755": ". Z",
    "756": ", i ",
    "757": "było ",
    "758": ". - N",
    "759": "zie",
    "760": "on ",
    "761": "niej ",
    "762": "jed",
    "763": "za ",
    "764": "mog",
    "765": "rę",
    "766": "słu",
    "767": "zy",
    "768": "już ",
    "769": "Dick ",
    "770": "ść ",
    "771": "ga",
    "772": ", któr",
    "773": ". T",
    "774": "ze",
    "775": "wa ",
    "776": "bardzo ",
    "777": "cią",
    "778": "szy",
    "779": "ną ",
    "780": "wol",
    "781": ", gdy ",
    "782": "ły",
    "783": "tyl",
    "784": "de",
    "785": "cie ",
    "786": "mnie ",
    "787": "kę ",
    "788": "nym ",
    "789": ". Nie ",
    "790": "panienka ",
    "791": "tem ",
    "792": "dob",
    "793": "ona ",
    "794": "śli",
    "795": "ok",
    "796": "? ",
    "797": "zu",
    "798": "rt. ",
    "799": "ję",
    "800": "pyt",
    "801": "tego ",
    "802": ". - T",
    "803": "poko",
    "804": ", co ",
    "805": "pew",
    "806": "oc",
    "807": "; ",
    "808": "chło",
    "809": "rzy ",
    "810": "jest",
    "811": ", jak",
    "812": "pier",
    "813": "i z",
    "814": "odpar",
    "815": "gdy",
    "816": "edl",
    "817": ". S",
    "818": "sz ",
    "819": "rów",
    "820": "wy ",
    "821": "czar",
    "822": "ty ",
    "823": "wia",
    "824": "bli",
    "825": "my ",
    "826": "ja ",
    "827": "edloc",
    "828": "cy",
    "829": "A ",
    "830": "pó",
    "831": "tylko ",
    "832": ") ",
    "833": "pani ",
    "834": "Medloc",
    "835": "Je",
    "836": "mię",
    "837": "bo ",
    "838": "gląd",
    "839": "śmie",
    "840": ". D",
    "841": "zna",
    "842": "ła się ",
    "843": "pani",
    "844": "nim ",
    "845": ". By",
    "846": "niej",
    "847": "zn",
    "848": "kiem ",
    "849": ": \"",
    "850": ". C",
    "851": "dę ",
    "852": "dziw",
    "853": "cał",
    "854": "cy ",
    "855": "ski",
    "856": "im ",
    "857": "będzie ",
    "858": "ń ",
    "859": "ją",
    "860": "też ",
    "861": "usta",
    "862": "być ",
    "863": "ot",
    "864": "teraz ",
    "865": "lecz ",
    "866": ", że",
    "867": "umie",
    "868": "ał się ",
    "869": "Cra",
    "870": "te ",
    "871": ". Art. ",
    "872": "szcze ",
    "873": "drze",
    "874": "tra",
    "875": "swo",
    "876": "kt ",
    "877": "bym ",
    "878": "ąda",
    "879": "tam ",
    "880": "wie ",
    "881": "świe",
    "882": "one ",
    "883": "gni",
    "884": ". - P",
    "885": "oba",
    "886": "chci",
    "887": "drz",
    "888": "Crav",
    "889": "ich ",
    "890": "I ",
    "891": "dział",
    "892": "gło",
    "893": "czas",
    "894": "em",
    "895": "ze ",
    "896": "jeszcze ",
    "897": "nej ",
    "898": "stra",
    "899": ". 2",
    "900": "czu",
    "901": "twa",
    "902": "szła ",
    "903": "wz",
    "904": "ani ",
    "905": "wyk",
    "906": "Czy ",
    "907": "tro",
    "908": "wró",
    "909": "Marta ",
    "910": "be",
    "911": "um",
    "912": "go, ",
    "913": "zawsz",
    "914": "cha",
    "915": "nię",
    "916": "dłu",
    "917": "lubi",
    "918": "nęła ",
    "919": "są ",
    "920": "chwi",
    "921": "den",
    "922": "lę",
    "923": "wiat",
    "924": "js",
    "925": ". W ",
    "926": "czę",
    "927": "ła, ",
    "928": "nigdy ",
    "929": "chłop",
    "930": "dze",
    "931": ". K",
    "932": "cu",
    "933": "Sej",
    "934": "miała ",
    "935": "woł",
    "936": "tej ",
    "937": "gląda",
    "938": ". - O",
    "939": "moż",
    "940": "ąc ",
    "941": "działa",
    "942": "wła",
    "943": ". G",
    "944": "powi",
    "945": "miał ",
    "946": "su",
    "947": "wszystko ",
    "948": "- odpar",
    "949": "now",
    "950": "róż",
    "951": "�",
    "952": ". Po",
    "953": "mat",
    "954": ". - C",
    "955": ", ale ",
    "956": "god",
    "957": "l ",
    "958": "ba ",
    "959": "coś ",
    "960": ". - W",
    "961": " 1",
    "962": "trzy",
    "963": "chodzi",
    "964": "trz",
    "965": "her",
    "966": "ogrod",
    "967": "ch, ",
    "968": "tor",
    "969": ". A ",
    "970": ", żeby ",
    "971": ". Colin ",
    "972": "sw",
    "973": "i za",
    "974": "nic ",
    "975": "kę",
    "976": "…",
    "977": "spyt",
    "978": "przed",
    "979": "ony",
    "980": "................................",
    "981": "ała Mary",
    "982": "Coli",
    "983": "ą, ",
    "984": "ciąg",
    "985": "łat",
    "986": "Pre",
    "987": "się, że ",
    "988": "zupeł",
    "989": ", jakby ",
    "990": "rów ",
    "991": "ała się ",
    "992": "pani Medloc",
    "993": "przy ",
    "994": "rozumie",
    "995": "nął ",
    "996": "ła Mary",
    "997": "wszystki",
    "998": "ć się ",
    "999": "ek ",
    "1000": ". Materiał ćwiczeniowy dla uczniów niepełnosprawnych mających trudności w uczeniu się i/lub komunikowaniu się, w tym niesłyszących, słabosłyszących, z niepełnosprawnością intelektualną, autyzmem i afazją Wykonawca: Uniwersytet Warszawski, Wydział Polonistyki, Pracownia Lingwistyki Migowej Zadanie zlecone i fi nansowane przez Ministra Edukacji i Nauki Tajemniczy ogród Tekst oryginalny 1",
    "1001": "pię",
    "1002": "każ",
    "1003": "miejs",
    "1004": "ład",
    "1005": "zaś ",
    "1006": ". - M",
    "1007": ". Materiał ćwiczeniowy dla uczniów niepełnosprawnych mających trudności w uczeniu się i/lub komunikowaniu się, w tym niesłyszących, słabosłyszących, z niepełnosprawnością intelektualną, autyzmem i afazją Wykonawca: Uniwersytet Warszawski, Wydział Polonistyki, Pracownia Lingwistyki Migowej Zadanie zlecone i fi nansowane przez Ministra Edukacji i Nauki Tajemniczy ogród Tekst oryginalny 2",
    "1008": "powiedział",
    "1009": "strze",
    "1010": "czyn",
    "1011": "nie, ",
    "1012": "eat",
    "1013": "eather",
    "1014": "eathersta",
    "1015": "eatherstaf",
    "1016": "eatherstaff",
    "1017": "znów ",
    "1018": " R",
    "1019": "dziec",
    "1020": "ony ",
    "1021": "rzą",
    "1022": "wróci",
    "1023": "sam",
    "1024": "Weatherstaff",
    "1025": "u i ",
    "1026": "kol",
    "1027": ". - J",
    "1028": "wal",
    "1029": "dow",
    "1030": "rzę",
    "1031": "zd",
    "1032": "pr",
    "1033": "tajemni",
    "1034": ". - Nie ",
    "1035": ". L",
    "1036": "sto",
    "1037": "bra",
    "1038": "niż ",
    "1039": ", po",
    "1040": "były ",
    "1041": "stytu",
    "1042": "Kon",
    "1043": "ńst",
    "1044": "Ra",
    "1045": "ął ",
    "1046": "ktor",
    "1047": "? - spyt",
    "1048": "ści ",
    "1049": ", by ",
    "1050": "oz",
    "1051": "star",
    "1052": ", lecz ",
    "1053": "trze",
    "1054": "nią ",
    "1055": "stę",
    "1056": "ost",
    "1057": "rze ",
    "1058": "więc",
    "1059": "obaczy",
    "1060": "musi",
    "1061": "ona",
    "1062": "se",
    "1063": "an",
    "1064": "wi ",
    "1065": "wiel",
    "1066": "ogrodzie",
    "1067": ". - A ",
    "1068": "niego ",
    "1069": "ste",
    "1070": "… ",
    "1071": "niejsz",
    "1072": "wo ",
    "1073": "poczę",
    "1074": "Dick",
    "1075": "mk",
    "1076": "zawsze ",
    "1077": "ten ",
    "1078": "pad",
    "1079": "ało",
    "1080": "czyta",
    "1081": "ogrodu",
    "1082": "któ",
    "1083": "min",
    "1084": "fi",
    "1085": "ć i ",
    "1086": "usi",
    "1087": "pod ",
    "1088": "gdyby ",
    "1089": "ię ",
    "1090": "bie ",
    "1091": "wał ",
    "1092": "ście",
    "1093": "nie wie",
    "1094": "zrobi",
    "1095": "ca ",
    "1096": "0 ",
    "1097": ", który ",
    "1098": "wał",
    "1099": "łod",
    "1100": "śni",
    "1101": "nikt ",
    "1102": "wet ",
    "1103": "jrz",
    "1104": "przed ",
    "1105": "ka, ",
    "1106": "kon",
    "1107": "zyden",
    "1108": "zawoł",
    "1109": "śpie",
    "1110": "Craven ",
    "1111": "Ł",
    "1112": "pis ",
    "1113": "i po",
    "1114": "ia",
    "1115": "szcze",
    "1116": "chy",
    "1117": "ogród",
    "1118": ". J",
    "1119": "zupełnie ",
    "1120": ". Dick ",
    "1121": "czego ",
    "1122": "prowa",
    "1123": "czas ",
    "1124": "so",
    "1125": ", które ",
    "1126": "mi, ",
    "1127": "Konstytu",
    "1128": "czym ",
    "1129": "koń",
    "1130": "ąd ",
    "1131": "mia",
    "1132": "śli ",
    "1133": "mał",
    "1134": "ał na ",
    "1135": "- rzekł ",
    "1136": "podob",
    "1137": "nad ",
    "1138": ". U",
    "1139": "ża",
    "1140": "edy",
    "1141": "kaz",
    "1142": "owi ",
    "1143": "śnie ",
    "1144": "czytania ",
    "1145": "TR",
    "1146": "ować ",
    "1147": "do czytania ",
    "1148": "edytor",
    "1149": "edytorski",
    "1150": "patrz",
    "1151": "wygląd",
    "1152": "pta",
    "1153": "oraz ",
    "1154": ". 3",
    "1155": "stęp",
    "1156": "ł się ",
    "1157": "niem ",
    "1158": "ką ",
    "1159": ". R",
    "1160": "wać ",
    "1161": "dru",
    "1162": "zamk",
    "1163": "zobaczy",
    "1164": ". Ch",
    "1165": ". [",
    "1166": ". [przy",
    "1167": ". [przypis ",
    "1168": ". [przypis edytorski",
    "1169": ". [przypis edytorski]",
    "1170": "war",
    "1171": "ł, ",
    "1172": "zak",
    "1173": "leż",
    "1174": "więcej ",
    "1175": "dro",
    "1176": "ETR",
    "1177": "działa ",
    "1178": "dziew",
    "1179": "ktor ",
    "1180": "j, ",
    "1181": "dnia ",
    "1182": "dzi ",
    "1183": "łatwy ",
    "1184": "łatwy do czytania ",
    "1185": "wrz",
    "1186": "kil",
    "1187": "pokoju",
    "1188": ". - D",
    "1189": "tel",
    "1190": "kolwie",
    "1191": "nau",
    "1192": "rzekł ",
    "1193": "Rady ",
    "1194": "ETR) ",
    "1195": "óż",
    "1196": "obo",
    "1197": "pan ",
    "1198": "szę ",
    "1199": "b ",
    "1200": "zi",
    "1201": "uro",
    "1202": "e, ",
    "1203": "zło",
    "1204": ". Je",
    "1205": "ut",
    "1206": "(ETR) ",
    "1207": "i zrozumie",
    "1208": "rz ",
    "1209": "ałam ",
    "1210": "Ben ",
    "1211": "nie po",
    "1212": "zwie",
    "1213": "cyj",
    "1214": "można ",
    "1215": "In",
    "1216": ", za",
    "1217": "prost",
    "1218": "Marta",
    "1219": "kiedy ",
    "1220": "szed",
    "1221": "krzy",
    "1222": ". - To ",
    "1223": "był",
    "1224": "stan",
    "1225": "gie",
    "1226": "jedna",
    "1227": "m, że ",
    "1228": "Rady Minist",
    "1229": "dale",
    "1230": "(ETR) 3",
    "1231": ": - ",
    "1232": "Nie ",
    "1233": "ucie",
    "1234": "strasz",
    "1235": "dawało ",
    "1236": "taki ",
    "1237": "nawet ",
    "1238": "gał",
    "1239": "ój ",
    "1240": ". Materiał ćwiczeniowy dla uczniów niepełnosprawnych mających trudności w uczeniu się i/lub komunikowaniu się, w tym niesłyszących, słabosłyszących, z niepełnosprawnością intelektualną, autyzmem i afazją Wykonawca: Uniwersytet Warszawski, Wydział Polonistyki, Pracownia Lingwistyki Migowej Zadanie zlecone i fi nansowane przez Ministra Edukacji i Nauki Tajemniczy ogród Tekst łatwy do czytania ",
    "1241": ". Materiał ćwiczeniowy dla uczniów niepełnosprawnych mających trudności w uczeniu się i/lub komunikowaniu się, w tym niesłyszących, słabosłyszących, z niepełnosprawnością intelektualną, autyzmem i afazją Wykonawca: Uniwersytet Warszawski, Wydział Polonistyki, Pracownia Lingwistyki Migowej Zadanie zlecone i fi nansowane przez Ministra Edukacji i Nauki Tajemniczy ogród Tekst łatwy do czytania i zrozumie",
    "1242": ". Materiał ćwiczeniowy dla uczniów niepełnosprawnych mających trudności w uczeniu się i/lub komunikowaniu się, w tym niesłyszących, słabosłyszących, z niepełnosprawnością intelektualną, autyzmem i afazją Wykonawca: Uniwersytet Warszawski, Wydział Polonistyki, Pracownia Lingwistyki Migowej Zadanie zlecone i fi nansowane przez Ministra Edukacji i Nauki Tajemniczy ogród Tekst łatwy do czytania i zrozumienia ",
    "1243": "bywa",
    "1244": "skie",
    "1245": "publi",
    "1246": "czo",
    "1247": "ków ",
    "1248": "rzu",
    "1249": "pokoj",
    "1250": "Prezyden",
    "1251": "pierwsz",
    "1252": "ena",
    "1253": "kry",
    "1254": "gdzie ",
    "1255": "patrzy",
    "1256": "skak",
    "1257": ". - A",
    "1258": "cud",
    "1259": ". Materiał ćwiczeniowy dla uczniów niepełnosprawnych mających trudności w uczeniu się i/lub komunikowaniu się, w tym niesłyszących, słabosłyszących, z niepełnosprawnością intelektualną, autyzmem i afazją Wykonawca: Uniwersytet Warszawski, Wydział Polonistyki, Pracownia Lingwistyki Migowej Zadanie zlecone i fi nansowane przez Ministra Edukacji i Nauki Tajemniczy ogród Tekst łatwy do czytania i zrozumienia (ETR) 3",
    "1260": "publicz",
    "1261": "fu",
    "1262": "cę ",
    "1263": "uwa",
    "1264": ". Za",
    "1265": "ście ",
    "1266": "więk",
    "1267": "się z ",
    "1268": ". Na",
    "1269": "takie ",
    "1270": "łam ",
    "1271": "gła ",
    "1272": "troch",
    "1273": "gle ",
    "1274": "ąz",
    "1275": "kow",
    "1276": "nich ",
    "1277": "zwyk",
    "1278": "sobie",
    "1279": ". - Z",
    "1280": "mnie",
    "1281": ". - Czy ",
    "1282": ". [przypis edytorski] ",
    "1283": "ska",
    "1284": "czł",
    "1285": "gra",
    "1286": "stro",
    "1287": "służ",
    "1288": "szy ",
    "1289": "dź",
    "1290": "młod",
    "1291": "domu ",
    "1292": "gar",
    "1293": "głow",
    "1294": "cznie ",
    "1295": "row",
    "1296": "osta",
    "1297": "zda",
    "1298": ". I ",
    "1299": "może",
    "1300": ". Le",
    "1301": "ne, ",
    "1302": "nę ",
    "1303": "poz",
    "1304": "uch",
    "1305": "przyj",
    "1306": "choć ",
    "1307": "aż ",
    "1308": "nymi ",
    "1309": "cia ",
    "1310": "sią",
    "1311": "nie za",
    "1312": "ół",
    "1313": "głos",
    "1314": "gł ",
    "1315": "śle",
    "1316": "wu",
    "1317": "ąt",
    "1318": "sko",
    "1319": "Ind",
    "1320": "resz",
    "1321": "domu",
    "1322": "- rzekła ",
    "1323": "pła",
    "1324": "ny, ",
    "1325": ". Art. 1",
    "1326": "nie mog",
    "1327": "albo ",
    "1328": "kró",
    "1329": "oń",
    "1330": "ycho",
    "1331": "kwiat",
    "1332": "nalaz",
    "1333": "worzy",
    "1334": "jakby ",
    "1335": "śmiech",
    "1336": "ch i ",
    "1337": "8 ",
    "1338": "y i ",
    "1339": "o tym ",
    "1340": "Materiał ćwiczeniowy dla uczniów niepełnosprawnych mających trudności w uczeniu się i/lub komunikowaniu się, w tym niesłyszących, słabosłyszących, z niepełnosprawnością intelektualną, autyzmem i afazją Wykonawca: Uniwersytet Warszawski, Wydział Polonistyki, Pracownia Lingwistyki Migowej Zadanie zlecone i fi nansowane przez Ministra Edukacji i Nauki Tajemniczy ogród Tekst ",
    "1341": "Materiał ćwiczeniowy dla uczniów niepełnosprawnych mających trudności w uczeniu się i/lub komunikowaniu się, w tym niesłyszących, słabosłyszących, z niepełnosprawnością intelektualną, autyzmem i afazją Wykonawca: Uniwersytet Warszawski, Wydział Polonistyki, Pracownia Lingwistyki Migowej Zadanie zlecone i fi nansowane przez Ministra Edukacji i Nauki Tajemniczy ogród Tekst oryginalny ",
    "1342": "wrzos",
    "1343": "powietrz",
    "1344": "pani Medlock",
    "1345": "klu",
    "1346": "pan",
    "1347": "wios",
    "1348": "lo",
    "1349": "państ",
    "1350": "bez",
    "1351": "5 ",
    "1352": "rw",
    "1353": "wier",
    "1354": "okre",
    "1355": "bawi",
    "1356": "rado",
    "1357": "mi i ",
    "1358": "si ",
    "1359": "kro",
    "1360": "rzekła ",
    "1361": "pomni",
    "1362": ". - B",
    "1363": "szczę",
    "1364": "myśli",
    "1365": ". Marta ",
    "1366": "Ben Weatherstaff",
    "1367": "Colina",
    "1368": "będ",
    "1369": "nio",
    "1370": "łe",
    "1371": ". Prze",
    "1372": "kolwiek ",
    "1373": "onych ",
    "1374": ". Wy",
    "1375": "sam ",
    "1376": "śmy ",
    "1377": "tuta",
    "1378": "dziewczyn",
    "1379": "oczy",
    "1380": "trochę ",
    "1381": "ć, że ",
    "1382": "duż",
    "1383": "bł",
    "1384": "prac",
    "1385": "międz",
    "1386": "ist",
    "1387": "we ",
    "1388": "hwa",
    "1389": "hwai",
    "1390": "ała, ",
    "1391": "powiedzie",
    "1392": "drzwi ",
    "1393": "ały",
    "1394": "cale ",
    "1395": "drzwi",
    "1396": "zamknię",
    "1397": ". To ",
    "1398": "yśl",
    "1399": "panicz ",
    "1400": "ran",
    "1401": "moc",
    "1402": "1 ",
    "1403": "ność ",
    "1404": ". Ni",
    "1405": "ki i ",
    "1406": "będę ",
    "1407": ". Gdy ",
    "1408": "ród ",
    "1409": "ałem ",
    "1410": "na d",
    "1411": "opowi",
    "1412": "rozma",
    "1413": "! - zawoł",
    "1414": "rzeczy",
    "1415": "cieka",
    "1416": ". Ale ",
    "1417": "kilka ",
    "1418": "powiedziała ",
    "1419": "więc ",
    "1420": "! P",
    "1421": "Dicka",
    "1422": "lęgni",
    "1423": "lęgniar",
    "1424": "scy ",
    "1425": "łem ",
    "1426": "prz",
    "1427": "obowi",
    "1428": "ciu ",
    "1429": "orga",
    "1430": "7 ",
    "1431": "r ",
    "1432": "mow",
    "1433": "gor",
    "1434": "a i ",
    "1435": "pró",
    "1436": "ozdział ",
    "1437": "ała, że ",
    "1438": ". Lecz ",
    "1439": "oczy ",
    "1440": "śmi",
    "1441": "szedł ",
    "1442": "potem ",
    "1443": "ros",
    "1444": "słuch",
    "1445": "9 ",
    "1446": "prag",
    "1447": "AŁ",
    "1448": "ro ",
    "1449": "naro",
    "1450": "o ty",
    "1451": "oj",
    "1452": "dzić ",
    "1453": "2 ",
    "1454": "ka i ",
    "1455": "licz",
    "1456": "nie u",
    "1457": "dzieci",
    "1458": "łóż",
    "1459": ". Była ",
    "1460": "- od",
    "1461": "powiedział ",
    "1462": "cież ",
    "1463": "jeste",
    "1464": "ptasz",
    "1465": "DZ",
    "1466": "wyra",
    "1467": "nie może ",
    "1468": "trzyma",
    "1469": "wyż",
    "1470": "art",
    "1471": ", w ",
    "1472": "biera",
    "1473": "lat ",
    "1474": "Sejmu ",
    "1475": "większ",
    "1476": "mieni",
    "1477": "kie ",
    "1478": " Rozdział ",
    "1479": "gniaz",
    "1480": "słoń",
    "1481": "iech ",
    "1482": "twarzy",
    "1483": "India",
    "1484": "ała na ",
    "1485": "pokoju ",
    "1486": "spoko",
    "1487": "jąc się ",
    "1488": "cu ",
    "1489": "DZI",
    "1490": "uje ",
    "1491": "w ży",
    "1492": "6 ",
    "1493": "niem",
    "1494": "rad",
    "1495": "pły",
    "1496": "o, ",
    "1497": "Na",
    "1498": "sel",
    "1499": "jednak ",
    "1500": ". Do",
    "1501": "ła, że ",
    "1502": "smu",
    "1503": "ał, ",
    "1504": "wcale ",
    "1505": "jestem ",
    "1506": "sil",
    "1507": "chłopie",
    "1508": "kaza",
    "1509": "człowie",
    "1510": "AŁ ",
    "1511": "aż",
    "1512": "chwili ",
    "1513": "rząd",
    "1514": "gi ",
    "1515": "dzień ",
    "1516": "nie wi",
    "1517": "począł ",
    "1518": "ślin",
    "1519": "będzie",
    "1520": ". - Je",
    "1521": "mówił ",
    "1522": "fo",
    "1523": "doktor ",
    "1524": "pospo",
    "1525": "pospoli",
    "1526": "obe",
    "1527": "oną ",
    "1528": "kar",
    "1529": "bez ",
    "1530": "określ",
    "1531": "ące ",
    "1532": "dni ",
    "1533": "nego",
    "1534": ", któ",
    "1535": "3 ",
    "1536": "śnie",
    "1537": "rą",
    "1538": "tarz",
    "1539": "szła do ",
    "1540": "zaba",
    "1541": "otworzy",
    "1542": "pani Medlock ",
    "1543": "ł na ",
    "1544": ". Materiał ćwiczeniowy dla uczniów niepełnosprawnych mających trudności w uczeniu się i/lub komunikowaniu się, w tym niesłyszących, słabosłyszących, z niepełnosprawnością intelektualną, autyzmem i afazją Wykonawca: Uniwersytet Warszawski, Wydział Polonistyki, Pracownia Lingwistyki Migowej Zadanie zlecone i fi nansowane przez Ministra Edukacji i Nauki Tajemniczy ogród Tekst oryginalny 3",
    "1545": "4 ",
    "1546": "nika",
    "1547": "ć do ",
    "1548": "kto ",
    "1549": "ral",
    "1550": "jeśli ",
    "1551": "tow",
    "1552": "gę",
    "1553": "nu",
    "1554": "ser",
    "1555": "lepie",
    "1556": "cę",
    "1557": "spojrz",
    "1558": "twarz ",
    "1559": "roślin",
    "1560": "tę ",
    "1561": "OZ",
    "1562": "OZDZI",
    "1563": "OZDZIAŁ ",
    "1564": "się na ",
    "1565": "zw",
    "1566": "na, ",
    "1567": "wego ",
    "1568": "wte",
    "1569": "wyją",
    "1570": "ję ",
    "1571": "ksią",
    "1572": "wiele ",
    "1573": "wrzosowi",
    "1574": "kto",
    "1575": "mogła ",
    "1576": "am ",
    "1577": "ali ",
    "1578": "przygląd",
    "1579": "ę, że ",
    "1580": "usiad",
    "1581": "ode",
    "1582": "dusz",
    "1583": "pięk",
    "1584": "sia",
    "1585": "spos",
    "1586": "sposó",
    "1587": "póź",
    "1588": "onym ",
    "1589": "pyta",
    "1590": "wszystkie ",
    "1591": "nauczy",
    "1592": "takie",
    "1593": "kory",
    "1594": "pł",
    "1595": "Mis",
    "1596": "Missel",
    "1597": "Misselt",
    "1598": "Misselthwai",
    "1599": "matka ",
    "1600": "cich",
    "1601": "taka ",
    "1602": "Medlock ",
    "1603": "dod",
    "1604": "mógł ",
    "1605": "dostrze",
    "1606": "tycz",
    "1607": "zag",
    "1608": "włas",
    "1609": "ga ",
    "1610": "miesz",
    "1611": "zas",
    "1612": "żeli ",
    "1613": "rzeczy ",
    "1614": "ów, ",
    "1615": "dzenia ",
    "1616": "samo",
    "1617": "nios",
    "1618": "Sena",
    "1619": "ć o ",
    "1620": "siebie ",
    "1621": "wała ",
    "1622": "śród ",
    "1623": "tłu",
    "1624": "gniazd",
    "1625": "by się ",
    "1626": "sama ",
    "1627": "usłysz",
    "1628": "mówił",
    "1629": "kiem",
    "1630": "chwil",
    "1631": "przyje",
    "1632": "ść",
    "1633": "oże",
    "1634": "an ",
    "1635": "panience ",
    "1636": "ziel",
    "1637": "gil",
    "1638": "szczęśli",
    "1639": "ower",
    "1640": "pielęgniar",
    "1641": "Rze",
    "1642": "for",
    "1643": "znaj",
    "1644": "tą ",
    "1645": "wej",
    "1646": "sku",
    "1647": "cały ",
    "1648": "sp",
    "1649": "chor",
    "1650": "czasem ",
    "1651": "znalaz",
    "1652": "\". Mary ",
    "1653": "dla",
    "1654": "chce",
    "1655": "dużo ",
    "1656": "eraz ",
    "1657": "owiem ",
    "1658": "Sower",
    "1659": "ski ",
    "1660": "świ",
    "1661": "nych, ",
    "1662": "cia",
    "1663": "ustaw",
    "1664": "rego ",
    "1665": "dać ",
    "1666": "jące ",
    "1667": "nie wy",
    "1668": "Rady Ministrów ",
    "1669": "\" ",
    "1670": "dziesię",
    "1671": "razy ",
    "1672": ". \"",
    "1673": "ono ",
    "1674": "była",
    "1675": "koło ",
    "1676": "chciał ",
    "1677": "tego",
    "1678": "zdaw",
    "1679": "obu",
    "1680": "smut",
    "1681": "Craven",
    "1682": "dziwi",
    "1683": "hi",
    "1684": ", bo ",
    "1685": "przygląda",
    "1686": "zaczę",
    "1687": "cię ",
    "1688": "dę",
    "1689": "uśmiech",
    "1690": "Colina ",
    "1691": "jący ",
    "1692": "tych ",
    "1693": "stą",
    "1694": "kowa",
    "1695": "zgod",
    "1696": "II",
    "1697": "Preze",
    "1698": "równie",
    "1699": "em, ",
    "1700": "pój",
    "1701": "bud",
    "1702": ". Cz",
    "1703": "ciem",
    "1704": "coraz ",
    "1705": "ogrodu ",
    "1706": ". - Co ",
    "1707": "myśle",
    "1708": "całkiem ",
    "1709": ". Był ",
    "1710": ". Mi",
    "1711": "ką",
    "1712": ", czy ",
    "1713": "panicz",
    "1714": "W ",
    "1715": "wszyscy ",
    "1716": "innych ",
    "1717": "rod",
    "1718": "świa",
    "1719": "owe ",
    "1720": "na po",
    "1721": "pry",
    "1722": "sza ",
    "1723": "wolno ",
    "1724": ", tak ",
    "1725": "godzi",
    "1726": "sze ",
    "1727": "two",
    "1728": "najm",
    "1729": "ada ",
    "1730": "daje ",
    "1731": "łoży",
    "1732": "każd",
    "1733": "ła na ",
    "1734": "wygląda",
    "1735": ". - S",
    "1736": "umar",
    "1737": "nął",
    "1738": "jad",
    "1739": "stwo",
    "1740": "nie ma",
    "1741": "stała ",
    "1742": "powiedziała",
    "1743": "dobrze ",
    "1744": "obraz",
    "1745": "mówiła ",
    "1746": "uczucie",
    "1747": "przyja",
    "1748": "Be",
    "1749": "mi się ",
    "1750": "onej ",
    "1751": "nów ",
    "1752": "niu",
    "1753": "wod",
    "1754": "lat",
    "1755": "nie ma ",
    "1756": "ustawy ",
    "1757": ". Przy",
    "1758": "sa ",
    "1759": "ścią ",
    "1760": "mówić ",
    "1761": "y, ",
    "1762": "ć na ",
    "1763": "przycho",
    "1764": "drzewa",
    "1765": "ciąż ",
    "1766": "jej się ",
    "1767": "ślicz",
    "1768": "szep",
    "1769": ". - Ch",
    "1770": "długo ",
    "1771": "samo ",
    "1772": ". - Ale ",
    "1773": "trzeba ",
    "1774": ". Powie",
    "1775": "szar",
    "1776": "mu się ",
    "1777": "- odparł ",
    "1778": "gil ",
    "1779": "do ogrodu",
    "1780": "przysz",
    "1781": "czypospoli",
    "1782": "Art. ",
    "1783": "kazu",
    "1784": "oże ",
    "1785": "czenia ",
    "1786": "szko",
    "1787": "i roz",
    "1788": "cji",
    "1789": "i u",
    "1790": "towa",
    "1791": "cja ",
    "1792": "stanowi",
    "1793": "nad",
    "1794": "one",
    "1795": "ry ",
    "1796": "ziemi",
    "1797": "siebie",
    "1798": "tutaj ",
    "1799": "nie było ",
    "1800": "reszcie ",
    "1801": "piero ",
    "1802": "prawda",
    "1803": "zaraz ",
    "1804": "wym ",
    "1805": "spoj",
    "1806": "bowiem ",
    "1807": "Rzeczypospoli",
    "1808": "pracy ",
    "1809": "zapew",
    "1810": "będą ",
    "1811": "czyni",
    "1812": "stawi",
    "1813": "prawo ",
    "1814": "jakie",
    "1815": "póki ",
    "1816": "stwo ",
    "1817": "się w ",
    "1818": "razie ",
    "1819": "wnios",
    "1820": "a, ",
    "1821": "niewa",
    "1822": "również ",
    "1823": "tk",
    "1824": "sko ",
    "1825": "chi",
    "1826": "dosta",
    "1827": "nazy",
    "1828": ". - K",
    "1829": "dopiero ",
    "1830": ", że to ",
    "1831": "prę",
    "1832": "zmę",
    "1833": "dziła ",
    "1834": ". - Jak ",
    "1835": "nąć ",
    "1836": "ówi",
    "1837": "obywa",
    "1838": "lep",
    "1839": "szyst",
    "1840": "men",
    "1841": "nym, ",
    "1842": "nych",
    "1843": ". Nikt ",
    "1844": ". Każ",
    "1845": "zdrow",
    "1846": "ko, ",
    "1847": "ęd",
    "1848": "spra",
    "1849": "szu",
    "1850": "i wy",
    "1851": "ten",
    "1852": "najmniej ",
    "1853": "tr",
    "1854": "posł",
    "1855": "rzuci",
    "1856": "doko",
    "1857": "widzie",
    "1858": "ks",
    "1859": "wit",
    "1860": "pamię",
    "1861": "ędę ",
    "1862": "To ",
    "1863": "w India",
    "1864": "weso",
    "1865": "tem",
    "1866": "krze",
    "1867": "ędzie ",
    "1868": "niko",
    "1869": "głę",
    "1870": "mur",
    "1871": "w ogrodzie",
    "1872": " - odpar",
    "1873": "dym ",
    "1874": ". - G",
    "1875": "mil",
    "1876": "Ż",
    "1877": "było",
    "1878": "step",
    "1879": "nie był ",
    "1880": "blu",
    "1881": "razem ",
    "1882": "słoni",
    "1883": "sł ",
    "1884": "byś ",
    "1885": "kieł",
    "1886": "ach ",
    "1887": "rob",
    "1888": "zby",
    "1889": "urzę",
    "1890": "czerw",
    "1891": "owania ",
    "1892": "zost",
    "1893": "jącą ",
    "1894": "mę",
    "1895": "dzieci ",
    "1896": "których ",
    "1897": "z wol",
    "1898": "które ",
    "1899": ", o ",
    "1900": "wierzy",
    "1901": "w po",
    "1902": "zaję",
    "1903": "wycza",
    "1904": "rozwi",
    "1905": "płak",
    "1906": "twarzycz",
    "1907": "kim ",
    "1908": "zwierzą",
    "1909": "wciąż ",
    "1910": "ały się ",
    "1911": "ć - ",
    "1912": ". - Cz",
    "1913": "zabaw",
    "1914": "br",
    "1915": "swoje ",
    "1916": "- odparła ",
    "1917": ". Potem ",
    "1918": "wśród ",
    "1919": "musi ",
    "1920": "kę i ",
    "1921": "ogrodzie ",
    "1922": "dwa ",
    "1923": "chce ",
    "1924": "obowią",
    "1925": "Polskie",
    "1926": "zasa",
    "1927": "opie",
    "1928": "między",
    "1929": "międzynaro",
    "1930": "sy ",
    "1931": "tar",
    "1932": "fa",
    "1933": "nic",
    "1934": "ymi ",
    "1935": "ź ",
    "1936": "kaden",
    "1937": "łow",
    "1938": "pomyśl",
    "1939": "którym ",
    "1940": "żad",
    "1941": "gru",
    "1942": "budże",
    "1943": "nale",
    "1944": "mar",
    "1945": "................................................................",
    "1946": "ile ",
    "1947": "szczy",
    "1948": "dr",
    "1949": "ycha",
    "1950": "nie lubi",
    "1951": "spokoj",
    "1952": "swego ",
    "1953": "nęła",
    "1954": "zapyt",
    "1955": "dowie",
    "1956": "tę",
    "1957": ". - Ja ",
    "1958": "do niego ",
    "1959": "m, co ",
    "1960": "wido",
    "1961": "ani Medlock ",
    "1962": "czki ",
    "1963": "ć, a ",
    "1964": "trzym",
    "1965": "nó",
    "1966": "traw",
    "1967": "wiedział",
    "1968": "napraw",
    "1969": "Ch",
    "1970": "podsta",
    "1971": "Rzeczypospolitej ",
    "1972": "ego",
    "1973": "stąpi",
    "1974": "och",
    "1975": "Ś",
    "1976": "rozu",
    "1977": "ciągu ",
    "1978": "sąd",
    "1979": "nego, ",
    "1980": "nia, ",
    "1981": "dziecko ",
    "1982": "słucha",
    "1983": "swoim ",
    "1984": "i na ",
    "1985": "także ",
    "1986": "później ",
    "1987": "nik ",
    "1988": ". 1",
    "1989": "minist",
    "1990": "rybu",
    "1991": "cię",
    "1992": "jącego ",
    "1993": ". Na ",
    "1994": "list",
    "1995": "nie i ",
    "1996": ", do",
    "1997": "szą ",
    "1998": "stem ",
    "1999": "kawał",
    "2000": "chu",
    "2001": "spostrze",
    "2002": "czął ",
    "2003": "każdym ",
    "2004": "drzewa ",
    "2005": ". Było ",
    "2006": "śniada",
    "2007": "roszę ",
    "2008": ". Jak ",
    "2009": "mam ",
    "2010": "mówi, że ",
    "2011": "myślał",
    "2012": "ć, jak ",
    "2013": "mieć ",
    "2014": "czego",
    "2015": "klucz ",
    "2016": "! Materiał ćwiczeniowy dla uczniów niepełnosprawnych mających trudności w uczeniu się i/lub komunikowaniu się, w tym niesłyszących, słabosłyszących, z niepełnosprawnością intelektualną, autyzmem i afazją Wykonawca: Uniwersytet Warszawski, Wydział Polonistyki, Pracownia Lingwistyki Migowej Zadanie zlecone i fi nansowane przez Ministra Edukacji i Nauki Tajemniczy ogród Tekst oryginalny ",
    "2017": "łopat",
    "2018": "kopa",
    "2019": "- rzekła Mary",
    "2020": "mój ",
    "2021": "dobrze",
    "2022": "nió",
    "2023": "zar",
    "2024": "szym ",
    "2025": "ku, ",
    "2026": "pol",
    "2027": "przekona",
    "2028": "owych ",
    "2029": "biał",
    "2030": "ć z ",
    "2031": "kach ",
    "2032": "puszcz",
    "2033": "g ",
    "2034": "może być ",
    "2035": "czasu ",
    "2036": "rybun",
    "2037": "nie w",
    "2038": "u, ",
    "2039": "dza",
    "2040": "obec",
    "2041": "proje",
    "2042": "widzi",
    "2043": "pierwszy ",
    "2044": "stał ",
    "2045": "sto ",
    "2046": "książ",
    "2047": "dom",
    "2048": "żół",
    "2049": "ś, ",
    "2050": "tam",
    "2051": "siaj ",
    "2052": "mię ",
    "2053": "swej ",
    "2054": "słod",
    "2055": "przecież ",
    "2056": "czyła ",
    "2057": "Mary, ",
    "2058": "poczęła ",
    "2059": "na ko",
    "2060": "swój ",
    "2061": ". - Tak",
    "2062": "k, ",
    "2063": "an Craven ",
    "2064": "sch",
    "2065": "adała ",
    "2066": "szek ",
    "2067": "leci",
    "2068": "Dicka ",
    "2069": "chłopiec ",
    "2070": "świad",
    "2071": "Rzeczypospolitej Polskie",
    "2072": "ska ",
    "2073": "wyb",
    "2074": "nie z ",
    "2075": "patrze",
    "2076": "gę ",
    "2077": "tyw",
    "2078": ". Pre",
    "2079": "co najmniej ",
    "2080": "owo ",
    "2081": "Prezesa ",
    "2082": "Rady Ministrów",
    "2083": "jwyż",
    "2084": "powo",
    "2085": "się do ",
    "2086": "kami ",
    "2087": "czą",
    "2088": "opowiada",
    "2089": ", która ",
    "2090": "króli",
    "2091": "ub",
    "2092": "żem ",
    "2093": "uczu",
    "2094": "sen",
    "2095": "lęk",
    "2096": "wiedziała",
    "2097": "rzekł",
    "2098": "poch",
    "2099": "dyby ",
    "2100": "bied",
    "2101": "i Mary ",
    "2102": "ścież",
    "2103": "pok",
    "2104": "orks",
    "2105": "orkshi",
    "2106": "ziemi ",
    "2107": "krz",
    "2108": "ał i ",
    "2109": ", że się ",
    "2110": "woli",
    "2111": "robo",
    "2112": "zdu",
    "2113": "rzeczywi",
    "2114": "nas ",
    "2115": "- powiedział",
    "2116": "świeże",
    "2117": "podnie",
    "2118": "oby ",
    "2119": "wszy ",
    "2120": "ę, ",
    "2121": "rusz",
    "2122": "niena",
    "2123": "ym",
    "2124": "określonych ",
    "2125": "sposób ",
    "2126": "w ciągu ",
    "2127": "są",
    "2128": "chyba ",
    "2129": "pełni",
    "2130": "nor",
    "2131": "sie ",
    "2132": "Trybun",
    "2133": "ę i ",
    "2134": "strzy",
    "2135": "nie się ",
    "2136": "raca",
    "2137": "wó",
    "2138": "odpowie",
    "2139": "z nim ",
    "2140": "w tej ",
    "2141": "tek",
    "2142": "kazał ",
    "2143": "ciec ",
    "2144": "zaczy",
    "2145": "szero",
    "2146": "patrząc ",
    "2147": "zmęcz",
    "2148": "wiedzie",
    "2149": "atka ",
    "2150": "to wszystko ",
    "2151": "przypomni",
    "2152": "gałę",
    "2153": ". - I ",
    "2154": "drob",
    "2155": "korytarz",
    "2156": "nam ",
    "2157": "wyj",
    "2158": "gila",
    "2159": "Ben Weatherstaff ",
    "2160": "okry",
    "2161": "dziś ",
    "2162": "połu",
    "2163": "fotel",
    "2164": "ał Colin",
    "2165": "możli",
    "2166": "ogrom",
    "2167": "orze",
    "2168": "poczu",
    "2169": "władz",
    "2170": " ROZDZIAŁ ",
    "2171": "wem ",
    "2172": "nym",
    "2173": "międzynarodow",
    "2174": "wyda",
    "2175": "ciel",
    "2176": "ust",
    "2177": "nie jest ",
    "2178": "wania ",
    "2179": "ali",
    "2180": "stru",
    "2181": "rza",
    "2182": "Konstytucyj",
    "2183": "gu",
    "2184": "Prezydenta ",
    "2185": "i nie ",
    "2186": "od dnia ",
    "2187": "wyjąt",
    "2188": "zwykł",
    "2189": "Ministrów ",
    "2190": "zapo",
    "2191": "kiej ",
    "2192": "głów",
    "2193": "gór",
    "2194": "il ",
    "2195": "byli ",
    "2196": "zwierząt",
    "2197": "pę",
    "2198": "chłopca",
    "2199": "akże ",
    "2200": "właśnie ",
    "2201": "rzon",
    "2202": ", choć ",
    "2203": "oto ",
    "2204": "cier",
    "2205": ". - W ",
    "2206": "chciała ",
    "2207": "mił",
    "2208": "sami",
    "2209": "gą ",
    "2210": "mienia",
    "2211": "kąd ",
    "2212": "nigdy nie ",
    "2213": ", gdyby ",
    "2214": "klucz",
    "2215": "nagle ",
    "2216": "ć nie ",
    "2217": "na pew",
    "2218": "z tego ",
    "2219": "! Z",
    "2220": "ciągle ",
    "2221": "żeby ",
    "2222": "prosi",
    "2223": "ple",
    "2224": "siedział ",
    "2225": "ało się ",
    "2226": "gałąz",
    "2227": "ęki",
    "2228": "nąć",
    "2229": ". Mówi",
    "2230": "dząc",
    "2231": "wszystko",
    "2232": "alności ",
    "2233": "zach",
    "2234": "dar",
    "2235": "jedno",
    "2236": "tym",
    "2237": "nia się ",
    "2238": "miejsca ",
    "2239": ", prze",
    "2240": "ina",
    "2241": "nk",
    "2242": "Pa",
    "2243": "wyko",
    "2244": "pety",
    "2245": "czne ",
    "2246": "pis",
    "2247": "owa ",
    "2248": "szał",
    "2249": "śmier",
    "2250": "większo",
    "2251": "taką ",
    "2252": "nat",
    "2253": "obra",
    "2254": "mie ",
    "2255": ". Po "
  }
}