{
  "version": "1.0",
  "truncation": null,
  "padding": null,
  "added_tokens": [
    {
      "id": 0,
      "content": "<|endoftext|>",
      "single_word": false,
      "lstrip": false,
      "rstrip": false,
      "normalized": false,
      "special": true
    }
  ],
  "normalizer": null,
  "pre_tokenizer": {
    "type": "ByteLevel",
    "add_prefix_space": false,
    "trim_offsets": true,
    "use_regex": true
  },
  "post_processor": null,
  "decoder": {
    "type": "ByteLevel",
    "add_prefix_space": true,
    "trim_offsets": true,
    "use_regex": true
  },
  "model": {
    "type": "BPE",
    "dropout": null,
    "unk_token": null,
    "continuing_subword_prefix": null,
    "end_of_word_suffix": null,
    "fuse_unk": false,
    "byte_fallback": false,
    "ignore_merges": false,
    "vocab": {
      "<|endoftext|>": 0,
      "!": 1,
      "\"": 2,
      "#": 3,
      "$": 4,
      "%": 5,
      "&": 6,
      "'": 7,
      "(": 8,
      ")": 9,
      "*": 10,
      "+": 11,
      ",": 12,
      "-": 13,
      ".": 14,
      "/": 15,
      "0": 16,
      "1": 17,
      "2": 18,
      "3": 19,
      "4": 20,
      "5": 21,
      "6": 22,
      "7": 23,
      "8": 24,
      "9": 25,
      ":": 26,
      ";": 27,
      "<": 28,
      "=": 29,
      ">": 30,
      "?": 31,
      "@": 32,
      "A": 33,
      "B": 34,
      "C": 35,
      "D": 36,
      "E": 37,
      "F": 38,
      "G": 39,
      "H": 40,
      "I": 41,
      "J": 42,
      "K": 43,
      "L": 44,
      "M": 45,
      "N": 46,
      "O": 47,
      "P": 48,
      "Q": 49,
      "R": 50,
      "S": 51,
      "T": 52,
      "U": 53,
      "V": 54,
      "W": 55,
      "X": 56,
      "Y": 57,
      "Z": 58,
      "[": 59,
      "\\": 60,
      "]": 61,
      "^": 62,
      "_": 63,
      "`": 64,
      "a": 65,
      "b": 66,
      "c": 67,
      "d": 68,
      "e": 69,
      "f": 70,
      "g": 71,
      "h": 72,
      "i": 73,
      "j": 74,
      "k": 75,
      "l": 76,
      "m": 77,
      "n": 78,
      "o": 79,
      "p": 80,
      "q": 81,
      "r": 82,
      "s": 83,
      "t": 84,
      "u": 85,
      "v": 86,
      "w": 87,
      "x": 88,
      "y": 89,
      "z": 90,
      "{": 91,
      "|": 92,
      "}": 93,
      "~": 94,
      "¡": 95,
      "¢": 96,
      "£": 97,
      "¤": 98,
      "¥": 99,
      "¦": 100,
      "§": 101,
      "¨": 102,
      "©": 103,
      "ª": 104,
      "«": 105,
      "¬": 106,
      "®": 107,
      "¯": 108,
      "°": 109,
      "±": 110,
      "²": 111,
      "³": 112,
      "´": 113,
      "µ": 114,
      "¶": 115,
      "·": 116,
      "¸": 117,
      "¹": 118,
      "º": 119,
      "»": 120,
      "¼": 121,
      "½": 122,
      "¾": 123,
      "¿": 124,
      "À": 125,
      "Á": 126,
      "Â": 127,
      "Ã": 128,
      "Ä": 129,
      "Å": 130,
      "Æ": 131,
      "Ç": 132,
      "È": 133,
      "É": 134,
      "Ê": 135,
      "Ë": 136,
      "Ì": 137,
      "Í": 138,
      "Î": 139,
      "Ï": 140,
      "Ð": 141,
      "Ñ": 142,
      "Ò": 143,
      "Ó": 144,
      "Ô": 145,
      "Õ": 146,
      "Ö": 147,
      "×": 148,
      "Ø": 149,
      "Ù": 150,
      "Ú": 151,
      "Û": 152,
      "Ü": 153,
      "Ý": 154,
      "Þ": 155,
      "ß": 156,
      "à": 157,
      "á": 158,
      "â": 159,
      "ã": 160,
      "ä": 161,
      "å": 162,
      "æ": 163,
      "ç": 164,
      "è": 165,
      "é": 166,
      "ê": 167,
      "ë": 168,
      "ì": 169,
      "í": 170,
      "î": 171,
      "ï": 172,
      "ð": 173,
      "ñ": 174,
      "ò": 175,
      "ó": 176,
      "ô": 177,
      "õ": 178,
      "ö": 179,
      "÷": 180,
      "ø": 181,
      "ù": 182,
      "ú": 183,
      "û": 184,
      "ü": 185,
      "ý": 186,
      "þ": 187,
      "ÿ": 188,
      "Ā": 189,
      "ā": 190,
      "Ă": 191,
      "ă": 192,
      "Ą": 193,
      "ą": 194,
      "Ć": 195,
      "ć": 196,
      "Ĉ": 197,
      "ĉ": 198,
      "Ċ": 199,
      "ċ": 200,
      "Č": 201,
      "č": 202,
      "Ď": 203,
      "ď": 204,
      "Đ": 205,
      "đ": 206,
      "Ē": 207,
      "ē": 208,
      "Ĕ": 209,
      "ĕ": 210,
      "Ė": 211,
      "ė": 212,
      "Ę": 213,
      "ę": 214,
      "Ě": 215,
      "ě": 216,
      "Ĝ": 217,
      "ĝ": 218,
      "Ğ": 219,
      "ğ": 220,
      "Ġ": 221,
      "ġ": 222,
      "Ģ": 223,
      "ģ": 224,
      "Ĥ": 225,
      "ĥ": 226,
      "Ħ": 227,
      "ħ": 228,
      "Ĩ": 229,
      "ĩ": 230,
      "Ī": 231,
      "ī": 232,
      "Ĭ": 233,
      "ĭ": 234,
      "Į": 235,
      "į": 236,
      "İ": 237,
      "ı": 238,
      "Ĳ": 239,
      "ĳ": 240,
      "Ĵ": 241,
      "ĵ": 242,
      "Ķ": 243,
      "ķ": 244,
      "ĸ": 245,
      "Ĺ": 246,
      "ĺ": 247,
      "Ļ": 248,
      "ļ": 249,
      "Ľ": 250,
      "ľ": 251,
      "Ŀ": 252,
      "ŀ": 253,
      "Ł": 254,
      "ł": 255,
      "Ń": 256,
      "ie": 257,
      "ÅĤ": 258,
      "Ġp": 259,
      "Ġw": 260,
      "Ġs": 261,
      "ÄĻ": 262,
      "Ġz": 263,
      "ni": 264,
      "Äħ": 265,
      "cz": 266,
      "rz": 267,
      "na": 268,
      "ch": 269,
      "ow": 270,
      "nie": 271,
      "Å¼": 272,
      "st": 273,
      "ra": 274,
      "Ã³": 275,
      "Ġo": 276,
      "Ġd": 277,
      "Ġt": 278,
      "ÅĽ": 279,
      "Ġm": 280,
      "ro": 281,
      "Ġi": 282,
      "sz": 283,
      "go": 284,
      "Ġk": 285,
      "dz": 286,
      "ia": 287,
      "Ġna": 288,
      "Ġj": 289,
      "Ġpo": 290,
      "iÄĻ": 291,
      "li": 292,
      "ne": 293,
      "rze": 294,
      "ny": 295,
      "âĢ": 296,
      "Äĩ": 297,
      "le": 298,
      "Ġb": 299,
      "ka": 300,
      "ÅĤa": 301,
      "Ġza": 302,
      "ar": 303,
      "ci": 304,
      "nia": 305,
      "Ġdo": 306,
      "Ġu": 307,
      "ĠĊ": 308,
      "em": 309,
      "ak": 310,
      "Ã³w": 311,
      "Ġnie": 312,
      "ÅĤo": 313,
      "wa": 314,
      "Ġje": 315,
      "re": 316,
      "ĠsiÄĻ": 317,
      "no": 318,
      "owa": 319,
      "rzy": 320,
      "at": 321,
      "Å¼e": 322,
      "mi": 323,
      "Ġwy": 324,
      "ko": 325,
      "jÄħ": 326,
      "ki": 327,
      "ry": 328,
      "Ġprze": 329,
      "Ġa": 330,
      "ego": 331,
      "ta": 332,
      "cy": 333,
      "la": 334,
      "czy": 335,
      "cj": 336,
      "ce": 337,
      "da": 338,
      "Ġg": 339,
      "to": 340,
      "ĠP": 341,
      "wo": 342,
      "ĠĊĊ": 343,
      "ÅĦ": 344,
      "po": 345,
      "cze": 346,
      "ĠâĢ": 347,
      "cie": 348,
      "Âł": 349,
      "dy": 350,
      "ÅĽci": 351,
      "sta": 352,
      "kie": 353,
      "ej": 354,
      "Ġro": 355,
      "Ġod": 356,
      "en": 357,
      "ty": 358,
      "er": 359,
      "ĠW": 360,
      "ku": 361,
      "wi": 362,
      "ÅĤy": 363,
      "nych": 364,
      "ca": 365,
      "ĠS": 366,
      "Ġ1": 367,
      "ob": 368,
      "dzie": 369,
      "tÃ³": 370,
      "je": 371,
      "wie": 372,
      "am": 373,
      "Å¼y": 374,
      "Ġko": 375,
      "20": 376,
      "ĠK": 377,
      "szy": 378,
      "ru": 379,
      "by": 380,
      "owy": 381,
      "Ġl": 382,
      "ĠktÃ³": 383,
      "dzi": 384,
      "ĠÅ¼e": 385,
      "ĠN": 386,
      "ma": 387,
      "Ġprzy": 388,
      "tu": 389,
      "Ġty": 390,
      "raz": 391,
      "Ġmo": 392,
      "Ġjak": 393,
      "Ġ(": 394,
      "ÅĤu": 395,
      "Ġto": 396,
      "rÃ³": 397,
      "mie": 398,
      "Ġby": 399,
      "or": 400,
      "te": 401,
      "nÄħ": 402,
      "ĠA": 403,
      "ĠM": 404,
      "owie": 405,
      "cza": 406,
      "Ġjest": 407,
      "ĠâĢĶ": 408,
      "Ġsz": 409,
      "ga": 410,
      "ĠÅĽ": 411,
      "nej": 412,
      "Ġch": 413,
      "Ġc": 414,
      "Ġf": 415,
      "Ġroz": 416,
      "nego": 417,
      "ĠB": 418,
      "cji": 419,
      "my": 420,
      "skie": 421,
      "ja": 422,
      "mu": 423,
      "za": 424,
      "Ġpod": 425,
      "ÅĽÄĩ": 426,
      "owi": 427,
      "lo": 428,
      "ĠT": 429,
      "ĠZ": 430,
      "sze": 431,
      "Ġob": 432,
      "wy": 433,
      "ĠC": 434,
      "âĢĶ": 435,
      "pra": 436,
      "zy": 437,
      "Ġtak": 438,
      "Ġdz": 439,
      "gi": 440,
      "Ġma": 441,
      "pi": 442,
      "Ġni": 443,
      "ĊĊ": 444,
      "Ġpra": 445,
      "Ġpa": 446,
      "nym": 447,
      "pie": 448,
      "ĠR": 449,
      "si": 450,
      "wia": 451,
      "Ġte": 452,
      "ĠJ": 453,
      "cho": 454,
      "ski": 455,
      "du": 456,
      "ĠO": 457,
      "pa": 458,
      "Ġst": 459,
      "Ġwie": 460,
      "jÄħc": 461,
      "Ġlu": 462,
      "ria": 463,
      "ol": 464,
      "ek": 465,
      "Ġin": 466,
      "atego": 467,
      "Ġ20": 468,
      "Ġgo": 469,
      "dze": 470,
      "iaÅĤ": 471,
      "ĠD": 472,
      "ez": 473,
      "niu": 474,
      "Ġpro": 475,
      "Ġcz": 476,
      "Ġr": 477,
      "un": 478,
      "Ġmi": 479,
      "Ġco": 480,
      "sa": 481,
      "noÅĽci": 482,
      "Ġsta": 483,
      "ategoria": 484,
      "Kategoria": 485,
      "ĠE": 486,
      "rzÄħ": 487,
      "ska": 488,
      "ĠKo": 489,
      "ĠG": 490,
      "Ġmie": 491,
      "čĠĊĊ": 492,
      "Ġn": 493,
      "sty": 494,
      "ĠI": 495,
      "Ġre": 496,
      "Åº": 497,
      "mo": 498,
      "an": 499,
      "Ġjed": 500,
      "ÅĤem": 501,
      "ĠktÃ³ry": 502,
      "cia": 503,
      "Ġprzez": 504,
      "bi": 505,
      "čĠĊ": 506,
      "čĠĊĊčĠĊ": 507,
      "Ġli": 508,
      "cja": 509,
      "ÄĻd": 510,
      "Ġ2": 511,
      "nt": 512,
      "ĊĠ": 513,
      "ĠÅ": 514,
      "sto": 515,
      "niej": 516,
      "ĠâĢĵ": 517,
      "Ġmu": 518,
      "kÃ³w": 519,
      "ĠNa": 520,
      "pe": 521,
      "sza": 522,
      "ba": 523,
      "ÅĦst": 524,
      "ĠL": 525,
      "bie": 526,
      "lu": 527,
      "Ġspo": 528,
      "Ġwi": 529,
      "owych": 530,
      "mia": 531,
      "czas": 532,
      "owo": 533,
      "âĢĿ": 534,
      "Ġoraz": 535,
      "rÃ³d": 536,
      "ĠU": 537,
      "art": 538,
      "Å¼a": 539,
      "Ġzna": 540,
      "stÄĻ": 541,
      "sy": 542,
      "pu": 543,
      "Ġprzed": 544,
      "jÄĻ": 545,
      "Ġda": 546,
      "Ġczy": 547,
      "Ġdzie": 548,
      "czÄħ": 549,
      "do": 550,
      "we": 551,
      "ĠktÃ³re": 552,
      "dni": 553,
      "Ġdla": 554,
      "ĠPo": 555,
      "bli": 556,
      "tem": 557,
      "Ġtym": 558,
      "uÅ¼": 559,
      "kre": 560,
      "Ġjego": 561,
      "nika": 562,
      "nu": 563,
      "rowa": 564,
      "Ġra": 565,
      "Ġze": 566,
      "owe": 567,
      "nÄĻ": 568,
      "siÄĻ": 569,
      "spo": 570,
      "bo": 571,
      "jÄħcy": 572,
      "Ġspra": 573,
      "ĠÅ¼y": 574,
      "amo": 575,
      "owej": 576,
      "rza": 577,
      "Ġwszy": 578,
      "cha": 579,
      "sie": 580,
      "Ġka": 581,
      "osta": 582,
      "ĠâĢŀ": 583,
      "bu": 584,
      "ri": 585,
      "kÅĤa": 586,
      "gl": 587,
      "Ã³ÅĤ": 588,
      "il": 589,
      "gu": 590,
      "su": 591,
      "men": 592,
      "Ġlub": 593,
      "obie": 594,
      "Ġwo": 595,
      "Ġpie": 596,
      "Ġnaj": 597,
      "Ġle": 598,
      "Ġh": 599,
      "zna": 600,
      "Ġ3": 601,
      "zu": 602,
      "gra": 603,
      "unk": 604,
      "ona": 605,
      "rak": 606,
      "Ġbu": 607,
      "Ġmia": 608,
      "Ġ19": 609,
      "00": 610,
      "ĠEu": 611,
      "Ġtu": 612,
      "py": 613,
      "Ġrze": 614,
      "lko": 615,
      "io": 616,
      "Ã³l": 617,
      "kiem": 618,
      "ĠjuÅ¼": 619,
      "czne": 620,
      "Ġjej": 621,
      "Ġwszyst": 622,
      "Ġbo": 623,
      "Ġtego": 624,
      "oba": 625,
      "Ġusta": 626,
      "rod": 627,
      "ĠsÄħ": 628,
      "de": 629,
      "kÄħ": 630,
      "Ġlo": 631,
      "skiej": 632,
      "tor": 633,
      "szcze": 634,
      "ĠNie": 635,
      "ÅĤÄħ": 636,
      "js": 637,
      "zd": 638,
      "Ġe": 639,
      "niem": 640,
      "ÅĤe": 641,
      "âĢ¦": 642,
      "Ġ201": 643,
      "Ġgdy": 644,
      "Ġmnie": 645,
      "¹rÃ³d": 646,
      "nio": 647,
      "skiego": 648,
      "Ġbez": 649,
      "ran": 650,
      "Ġos": 651,
      "czo": 652,
      "powie": 653,
      "Ġswo": 654,
      "201": 655,
      "rt": 656,
      "in": 657,
      "cyj": 658,
      "rop": 659,
      "Ġale": 660,
      "Ġpoz": 661,
      "ĠF": 662,
      "owego": 663,
      "Ġsto": 664,
      "fi": 665,
      "stÄĻp": 666,
      "Ġci": 667,
      "ji": 668,
      "Ġwz": 669,
      "ĠwiÄĻ": 670,
      "ÅĽmy": 671,
      "Ġnr": 672,
      "Ġsy": 673,
      "ÅĽcie": 674,
      "for": 675,
      "ĠÅ¹rÃ³d": 676,
      "jÄħce": 677,
      "dzo": 678,
      "Ġczas": 679,
      "ÅĽli": 680,
      "Ġtylko": 681,
      "on": 682,
      "kÄĻ": 683,
      "ĠH": 684,
      "Ġde": 685,
      "ĠwÅĤa": 686,
      "Äħc": 687,
      "iaÅĤa": 688,
      "Ġpe": 689,
      "ÂłÂł": 690,
      "dzenia": 691,
      "Ġja": 692,
      "Ġwa": 693,
      "dza": 694,
      "owania": 695,
      "Ã³j": 696,
      "Ġdro": 697,
      "dziaÅĤ": 698,
      "Ġsie": 699,
      "nist": 700,
      "dem": 701,
      "Na": 702,
      "rÄĻ": 703,
      "ĠmoÅ¼e": 704,
      "sp": 705,
      "Ġca": 706,
      "Ġart": 707,
      "cu": 708,
      "noÅĽÄĩ": 709,
      "Ġzosta": 710,
      "Ġog": 711,
      "Å¼o": 712,
      "Ġrozpo": 713,
      "ropej": 714,
      "Ġpowie": 715,
      "niÄĻ": 716,
      "Ġim": 717,
      "ÄĻdzie": 718,
      "Ġwe": 719,
      "UE": 720,
      "Ġokre": 721,
      "rga": 722,
      "dzy": 723,
      "wiÄħ": 724,
      "ĠbyÅĤ": 725,
      "um": 726,
      "czÄĻ": 727,
      "owym": 728,
      "Ġdnia": 729,
      "Ġpow": 730,
      "tÃ³w": 731,
      "dnie": 732,
      "Ġich": 733,
      "nii": 734,
      "..": 735,
      "glÄĻd": 736,
      ").": 737,
      "Ġku": 738,
      "Ġno": 739,
      "sÅĤu": 740,
      "so": 741,
      "ĠWy": 742,
      "Ã³r": 743,
      "rysty": 744,
      "jazd": 745,
      "Ġkie": 746,
      "im": 747,
      "cje": 748,
      "Ġpu": 749,
      "aty": 750,
      "lej": 751,
      "Ġce": 752,
      "Ġmiejs": 753,
      "ĠbyÅĤo": 754,
      "wz": 755,
      "ĠÅĽwia": 756,
      "ĠÅ¹rÃ³dÅĤo": 757,
      "Ġmy": 758,
      "ju": 759,
      "ĠJe": 760,
      "Ġnad": 761,
      "rw": 762,
      "Ġ4": 763,
      "siÄħ": 764,
      "owanie": 765,
      "ter": 766,
      "ĠRa": 767,
      "sÅĤa": 768,
      "Ġbud": 769,
      "Ġcie": 770,
      "nik": 771,
      "sko": 772,
      "Ġta": 773,
      "ĠmoÅ¼": 774,
      "ĠEuropej": 775,
      "ĠCh": 776,
      "den": 777,
      "ze": 778,
      "ĠteÅ¼": 779,
      "Ġten": 780,
      "ĠrÃ³w": 781,
      "bra": 782,
      "prze": 783,
      "cznej": 784,
      "Po": 785,
      "Ã³wi": 786,
      "Ġmog": 787,
      "Ġsam": 788,
      "tni": 789,
      "mis": 790,
      "Ġnau": 791,
      "waÅĤ": 792,
      "Ġroku": 793,
      "wiÄĻ": 794,
      "czeÅĦst": 795,
      "arto": 796,
      "praw": 797,
      "ĠDo": 798,
      "Ġbar": 799,
      "Ġtej": 800,
      "dzia": 801,
      "Ġoko": 802,
      "czyÄĩ": 803,
      "pad": 804,
      "wzglÄĻd": 805,
      "Ġorga": 806,
      "ĠsÅĤu": 807,
      "Ġjako": 808,
      "co": 809,
      "nowi": 810,
      "Ġjeszcze": 811,
      "ĠgÅĤ": 812,
      "Ġraz": 813,
      "cznych": 814,
      "Ġwyko": 815,
      "Ġpot": 816,
      "ĠbÄĻdzie": 817,
      "ĠTo": 818,
      "Ġcho": 819,
      "niajÄħc": 820,
      "Ġodpowie": 821,
      "jÄħcych": 822,
      "ĠrozporzÄħ": 823,
      "ĠPol": 824,
      "Dz": 825,
      "rÃ³Å¼": 826,
      "Ġfi": 827,
      "ĠPa": 828,
      "Ġdu": 829,
      "uto": 830,
      "Ġba": 831,
      "dzenie": 832,
      "Ġkra": 833,
      "ĠbyÄĩ": 834,
      "Ġszcze": 835,
      "Ġsobie": 836,
      "Äħd": 837,
      "me": 838,
      "ĠtakÅ¼e": 839,
      "owaÄĩ": 840,
      "cznie": 841,
      "liÅĽmy": 842,
      "ĠJa": 843,
      "prowa": 844,
      "ĠĠ": 845,
      "stro": 846,
      "trzy": 847,
      "nymi": 848,
      "ezpie": 849,
      "Ġ5": 850,
      "ĠMi": 851,
      "rÃ³w": 852,
      "forma": 853,
      "),": 854,
      "rÄħ": 855,
      "Ġlat": 856,
      "kich": 857,
      "gie": 858,
      "iada": 859,
      "rezy": 860,
      "Ġpi": 861,
      "ns": 862,
      "scy": 863,
      "al": 864,
      "Ġdy": 865,
      "ĠgÅĤo": 866,
      "raca": 867,
      "ĠSt": 868,
      "wzglÄĻdniajÄħc": 869,
      "ĠrÄĻ": 870,
      "rzu": 871,
      "ĠmiÄĻ": 872,
      "Ġfunk": 873,
      "uka": 874,
      "uwzglÄĻdniajÄħc": 875,
      "kt": 876,
      "sem": 877,
      "nÃ³w": 878,
      "dÅĤ": 879,
      "Ġaby": 880,
      "Ã³b": 881,
      "ĠSamo": 882,
      "emu": 883,
      "ĠdziaÅĤa": 884,
      "Ġ\"": 885,
      "skich": 886,
      "ĠbudÅ¼e": 887,
      "aku": 888,
      "Ġdoty": 889,
      "ĠczÄĻ": 890,
      "Art": 891,
      "ĠZa": 892,
      "Ġdob": 893,
      "ary": 894,
      "mier": 895,
      "szÄħ": 896,
      "Ġust": 897,
      "ĠmÃ³wi": 898,
      "Ġpracy": 899,
      "chodzi": 900,
      "sk": 901,
      "Ġser": 902,
      "Ġtych": 903,
      "Ġsk": 904,
      "ciÄħ": 905,
      "Ġfor": 906,
      "Ġpraw": 907,
      "cÃ³w": 908,
      "ĠktÃ³rych": 909,
      "Ġsprawie": 910,
      "ĠokreÅĽ": 911,
      "cjÄĻ": 912,
      "Ko": 913,
      "ĠÅĤa": 914,
      "bliÅ¼": 915,
      "gÃ³l": 916,
      "nak": 917,
      "ĠĊĠĊ": 918,
      "jem": 919,
      "Ġop": 920,
      "Ġzoba": 921,
      "Ġzd": 922,
      "szej": 923,
      "ĠKomis": 924,
      "Ġme": 925,
      "Ġgru": 926,
      "munika": 927,
      "Ġgra": 928,
      "pis": 929,
      "arak": 930,
      "Ġchwi": 931,
      "19": 932,
      "peÅĤ": 933,
      "owÄħ": 934,
      "cej": 935,
      "ÅĤowie": 936,
      "ĠBo": 937,
      "Ġnas": 938,
      "wet": 939,
      "26": 940,
      "owaÅĤ": 941,
      "Ġkon": 942,
      "Ġstro": 943,
      "ĠIn": 944,
      "Ġokoli": 945,
      "10": 946,
      "ĠkaÅ¼": 947,
      "ezpieczeÅĦst": 948,
      "szym": 949,
      "Ġtam": 950,
      "ich": 951,
      "lÄĻ": 952,
      "Ġmat": 953,
      "cÄħ": 954,
      "dar": 955,
      "gÅĤ": 956,
      "Ġjedno": 957,
      "lni": 958,
      "Ġpierw": 959,
      "dÃ³w": 960,
      "ĠdÅĤu": 961,
      "ec": 962,
      "ÅĽnie": 963,
      "Ġoj": 964,
      "ĠktÃ³ra": 965,
      "Å¼Äħ": 966,
      "Ġdzi": 967,
      "Ġlotni": 968,
      "se": 969,
      "chy": 970,
      "ur": 971,
      "owni": 972,
      "Ġosob": 973,
      "szka": 974,
      "nÄħÅĤ": 975,
      "Ġkiedy": 976,
      "owiÄħ": 977,
      "nieÅ¼": 978,
      "ral": 979,
      "Ġznaj": 980,
      "gen": 981,
      "Ġstra": 982,
      "Ġstanowi": 983,
      "nek": 984,
      "Ġ2018": 985,
      "est": 986,
      "ĠRady": 987,
      "Ġdru": 988,
      "Ġ9": 989,
      "ĠsÅĤ": 990,
      "leg": 991,
      "Ġnim": 992,
      "ĠjÄħ": 993,
      "czenia": 994,
      "ct": 995,
      "Ġok": 996,
      "Ġgdzie": 997,
      "war": 998,
      "Ġzda": 999,
      "czu": 1000,
      "ĠMar": 1001,
      "strono": 1002,
      "ii": 1003,
      "akt": 1004,
      "Ġjednak": 1005,
      "wszy": 1006,
      "ĠKa": 1007,
      "Ġnawet": 1008,
      "siÄĻÅ¼y": 1009,
      "arakte": 1010,
      "iemi": 1011,
      "atu": 1012,
      "ĠpaÅĦst": 1013,
      "ĠuÅ¼y": 1014,
      "taÅĤ": 1015,
      "Ġar": 1016,
      "ĠÅĽmier": 1017,
      "ĠbyÅĤa": 1018,
      "ĠmiÄĻdzy": 1019,
      "Ã³d": 1020,
      "ĠMo": 1021,
      "stat": 1022,
      "Ġpol": 1023,
      "ĠrÃ³wnieÅ¼": 1024,
      "trz": 1025,
      "âĢŀ": 1026,
      "Ġry": 1027,
      "Ġjakie": 1028,
      "waÄĩ": 1029,
      "szych": 1030,
      "kach": 1031,
      "kim": 1032,
      "Ġal": 1033,
      "ĠUnii": 1034,
      "Ġsw": 1035,
      "ĠNo": 1036,
      "Ġwiel": 1037,
      "el": 1038,
      "ĠzÅĤo": 1039,
      "Ġzasa": 1040,
      "Ġwyda": 1041,
      "Nie": 1042,
      "jbliÅ¼": 1043,
      "strze": 1044,
      "Ġru": 1045,
      "Ġwsp": 1046,
      "Ġpan": 1047,
      "âĢī": 1048,
      "Ġsze": 1049,
      "Ġbardzo": 1050,
      "Ġmar": 1051,
      "Ġ10": 1052,
      "Ġprac": 1053,
      "chodem": 1054,
      "astrono": 1055,
      "Ġucze": 1056,
      "Ġgodzi": 1057,
      "ĠMa": 1058,
      "Ġsp": 1059,
      "szego": 1060,
      "owane": 1061,
      "ĠpeÅĤ": 1062,
      "ĠÅ¼a": 1063,
      "rzÄĻ": 1064,
      "Ġon": 1065,
      "Ġpla": 1066,
      "tom": 1067,
      "ĠszczegÃ³l": 1068,
      "ciu": 1069,
      "Ġ13": 1070,
      "dat": 1071,
      "Ġtwo": 1072,
      "cych": 1073,
      "tych": 1074,
      "nans": 1075,
      "Ġsamo": 1076,
      "Ġdrog": 1077,
      "ezpieczeÅĦstwo": 1078,
      "liwo": 1079,
      "ali": 1080,
      "Ġcze": 1081,
      "Ġkil": 1082,
      "dzÄħ": 1083,
      "ĠmoÅ¼na": 1084,
      "sku": 1085,
      "stÄĻpu": 1086,
      "mienia": 1087,
      "cznego": 1088,
      "rzÄħd": 1089,
      "czycie": 1090,
      "kiego": 1091,
      "skim": 1092,
      "lotem": 1093,
      "ntakt": 1094,
      "Ġuwa": 1095,
      "om": 1096,
      "Ġak": 1097,
      "ĠciÄĻ": 1098,
      "Ġ-": 1099,
      "ste": 1100,
      "czenie": 1101,
      "ĠRo": 1102,
      "nistra": 1103,
      "Ġpodsta": 1104,
      "Ġtrze": 1105,
      "formacje": 1106,
      "kaza": 1107,
      "ĠchÅĤo": 1108,
      "stÄħ": 1109,
      "akupy": 1110,
      "Ġszko": 1111,
      "ĠmiaÅĤ": 1112,
      "kÅĤad": 1113,
      "Ġnale": 1114,
      "Ġ18": 1115,
      "ÅĽcia": 1116,
      "ĠniÅ¼": 1117,
      "ĠEuropejskiej": 1118,
      "szo": 1119,
      "ĠzobaczyÄĩ": 1120,
      "Ġkolej": 1121,
      "ĠÅĽrod": 1122,
      "Ġspos": 1123,
      "wiÄħza": 1124,
      "Ġwska": 1125,
      "ĠtÄĻ": 1126,
      "Ġlicz": 1127,
      "Ġ7": 1128,
      "Ġbie": 1129,
      "cyz": 1130,
      "astronomia": 1131,
      "kÅĤ": 1132,
      "nd": 1133,
      "ĠÅ¼eby": 1134,
      "ĠAle": 1135,
      "arakterysty": 1136,
      "nienia": 1137,
      "Ġpomo": 1138,
      "Do": 1139,
      "ĠwÄĻ": 1140,
      "iwa": 1141,
      "Ġpat": 1142,
      "Ġniego": 1143,
      "bor": 1144,
      "lnych": 1145,
      "ktor": 1146,
      "Ġ6": 1147,
      "nem": 1148,
      "ÅĤoÅĽci": 1149,
      "Ġbi": 1150,
      "dnia": 1151,
      "ĠpiÄĻ": 1152,
      "ĠPrze": 1153,
      "Ġturysty": 1154,
      "Pol": 1155,
      "gro": 1156,
      "Ġzro": 1157,
      "ĠwÅĤas": 1158,
      "ĠbÄĻd": 1159,
      "ĠciÄħ": 1160,
      "Ġad": 1161,
      "ĠdotyczÄħ": 1162,
      "trzyma": 1163,
      "Ġwol": 1164,
      "munikacja": 1165,
      "ge": 1166,
      "Ġrodzi": 1167,
      "stwa": 1168,
      "chu": 1169,
      "ĠÅĽwie": 1170,
      "17": 1171,
      "arakterystyka": 1172,
      "pisa": 1173,
      "Ġmiasto": 1174,
      "ĠsÅĤuÅ¼": 1175,
      "Ġnam": 1176,
      "ĠrÃ³Å¼": 1177,
      "kami": 1178,
      "Ġzw": 1179,
      "Ġrok": 1180,
      "Ġani": 1181,
      "ĠktÃ³rej": 1182,
      "Ġchc": 1183,
      "Ġsi": 1184,
      "tury": 1185,
      "ĠmyÅĽ": 1186,
      "Ġteraz": 1187,
      "Ġfinans": 1188,
      "tk": 1189,
      "ÅĤoÅĦ": 1190,
      "Ġtakie": 1191,
      "ĠczÅĤowie": 1192,
      "dÄĻ": 1193,
      "sÅĤ": 1194,
      "12": 1195,
      "Ġpowi": 1196,
      "Ġpowo": 1197,
      "wania": 1198,
      "Ġfunkcj": 1199,
      "lar": 1200,
      "stem": 1201,
      "now": 1202,
      "tora": 1203,
      "2013": 1204,
      "Ġoczy": 1205,
      "Ġgmi": 1206,
      "szcza": 1207,
      "rÃ³ci": 1208,
      "ĠktÃ³rym": 1209,
      "ntro": 1210,
      "ĠÅļ": 1211,
      "ĠspoÅĤe": 1212,
      "Ġzawo": 1213,
      "Ġpubli": 1214,
      "towy": 1215,
      "Prze": 1216,
      "ĠkrÃ³": 1217,
      "dziÄĩ": 1218,
      "Ġ*": 1219,
      "Ġwszystko": 1220,
      "dÅº": 1221,
      "lne": 1222,
      "ĠrozporzÄħdzenie": 1223,
      "gdy": 1224,
      "ĠwiÄĻc": 1225,
      "czny": 1226,
      "prezy": 1227,
      "two": 1228,
      "Ġ2026": 1229,
      "ĠmÄĻ": 1230,
      "lejÄħ": 1231,
      "czej": 1232,
      "ĠWie": 1233,
      "ĠKomisji": 1234,
      "Ġposta": 1235,
      "Å¼eli": 1236,
      "Ġokolice": 1237,
      "sia": 1238,
      "Ġska": 1239,
      "lity": 1240,
      "jbliÅ¼sze": 1241,
      "lenia": 1242,
      "Ġzaw": 1243,
      "rzysta": 1244,
      "lem": 1245,
      "ĠksiÄħ": 1246,
      "duje": 1247,
      "ĠwaÅ¼": 1248,
      "niza": 1249,
      "Ġniez": 1250,
      "pro": 1251,
      "Ġbra": 1252,
      "Ġwykona": 1253,
      "pÅĤy": 1254,
      "ĠpÃ³ÅĤ": 1255,
      "Ġprzedsta": 1256,
      "Wy": 1257,
      "tego": 1258,
      "Ġnich": 1259,
      "fe": 1260,
      "obacz": 1261,
      "Ġustawy": 1262,
      "bywa": 1263,
      "Ġdecyz": 1264,
      "Ġzgo": 1265,
      "Ġturystyczne": 1266,
      "ĠWi": 1267,
      "wÃ³": 1268,
      "ĊÂłÂł": 1269,
      "ĠÅ¼ycie": 1270,
      "Ġpew": 1271,
      "Ġnauczycie": 1272,
      "et": 1273,
      "Ġostat": 1274,
      "Ġwyraz": 1275,
      "ĠSz": 1276,
      "Ġregi": 1277,
      "spodar": 1278,
      "gle": 1279,
      "kry": 1280,
      "Ġum": 1281,
      "wier": 1282,
      "fa": 1283,
      "czyÅĤ": 1284,
      "ĠokreÅĽlo": 1285,
      "ĠmÃ³": 1286,
      "mio": 1287,
      "tek": 1288,
      "dowa": 1289,
      "pli": 1290,
      "ĠkoÅĦ": 1291,
      "Ġpotrze": 1292,
      "Ġwyso": 1293,
      "niÄħ": 1294,
      "szedÅĤ": 1295,
      "czego": 1296,
      "Ġwar": 1297,
      "mentu": 1298,
      "stu": 1299,
      "Za": 1300,
      "tru": 1301,
      "nowa": 1302,
      "...": 1303,
      "Ġtrzy": 1304,
      "Ġczasu": 1305,
      "dnio": 1306,
      "miÄĻ": 1307,
      "Ġsko": 1308,
      "dzieÄĩ": 1309,
      "ranspo": 1310,
      "Ġmam": 1311,
      "Ġprogra": 1312,
      "estiwa": 1313,
      "Ġ200": 1314,
      "ĠwiÄĻcej": 1315,
      "Ġpy": 1316,
      "owiada": 1317,
      "Ġ12": 1318,
      "pera": 1319,
      "zie": 1320,
      "ĠV": 1321,
      "Ġmieszka": 1322,
      "Ġwszystkich": 1323,
      "towa": 1324,
      "od": 1325,
      "utor": 1326,
      "Ch": 1327,
      "II": 1328,
      "Ġws": 1329,
      "Ġprowa": 1330,
      "Ġwia": 1331,
      "ĠobowiÄħ": 1332,
      "utobu": 1333,
      "ĠWe": 1334,
      "Ġspraw": 1335,
      "Ġmarca": 1336,
      "âĢĵ": 1337,
      "dziÅĤ": 1338,
      "ĠRe": 1339,
      "ĊĠĠĠ": 1340,
      "Ġmowa": 1341,
      "ĠpÅĤa": 1342,
      "Ġsu": 1343,
      "dziej": 1344,
      "ĠmÃ³j": 1345,
      "Ġniej": 1346,
      "Ġinnych": 1347,
      "tÄħ": 1348,
      "liwoÅĽci": 1349,
      "ng": 1350,
      "ĠKsiÄĻÅ¼y": 1351,
      "rzenia": 1352,
      "âĢĿ.": 1353,
      "nister": 1354,
      "11": 1355,
      "Ġalbo": 1356,
      "tr": 1357,
      "ĠPar": 1358,
      "kiej": 1359,
      "mniej": 1360,
      "man": 1361,
      "mieni": 1362,
      "Ġpozosta": 1363,
      "dÅĤu": 1364,
      "stwo": 1365,
      "riu": 1366,
      "lÄħ": 1367,
      "Ġtra": 1368,
      "Ġkar": 1369,
      "tnie": 1370,
      "legi": 1371,
      "Ġur": 1372,
      "ÅĦski": 1373,
      "Ġkom": 1374,
      "Ġimprezy": 1375,
      "ĠrozporzÄħdzenia": 1376,
      "dno": 1377,
      "rzo": 1378,
      "danie": 1379,
      "dÄħ": 1380,
      "Ġ8": 1381,
      "âĢĿ,": 1382,
      "res": 1383,
      "myÅĽ": 1384,
      "estiwale": 1385,
      "ĠÅĽwiat": 1386,
      "Ġnaz": 1387,
      "ĠEura": 1388,
      "Ġtwa": 1389,
      "di": 1390,
      "szÄĻ": 1391,
      "Ġof": 1392,
      "waÅĤa": 1393,
      "ÅĤych": 1394,
      "ĠZakupy": 1395,
      "ĠsposÃ³b": 1396,
      "Ġzie": 1397,
      "ĠDojazd": 1398,
      "ĠBezpieczeÅĦstwo": 1399,
      "ĠSamochodem": 1400,
      "wu": 1401,
      "ciec": 1402,
      "ĠgÅĤos": 1403,
      "ĠSamolotem": 1404,
      "Ġgro": 1405,
      "ĠcaÅĤ": 1406,
      "pat": 1407,
      "ministra": 1408,
      "ĠEuratom": 1409,
      "ĠKontakt": 1410,
      "ÅĤym": 1411,
      "Ġcy": 1412,
      "ers": 1413,
      "ĠbudÅ¼etowy": 1414,
      "Ġgrani": 1415,
      "gÄĻ": 1416,
      "pada": 1417,
      "ha": 1418,
      "ĠZiemi": 1419,
      "ĠÅ¼o": 1420,
      "ruk": 1421,
      "ĠZobacz": 1422,
      "Å¼ej": 1423,
      "Ġzakre": 1424,
      "ĠogÃ³l": 1425,
      "zi": 1426,
      "kura": 1427,
      "wio": 1428,
      "Ġszy": 1429,
      "Ġsiebie": 1430,
      "ĠPro": 1431,
      "Ġnic": 1432,
      "wiÄħz": 1433,
      "ĠEuropejskiego": 1434,
      "tÄĻ": 1435,
      "jej": 1436,
      "Ġpos": 1437,
      "ĠWarto": 1438,
      "ĠGastronomia": 1439,
      "ĠchÅĤop": 1440,
      "Ġzach": 1441,
      "ĠmÃ³gÅĤ": 1442,
      "ĠÅ¼ycia": 1443,
      "ist": 1444,
      "ĠNoc": 1445,
      "18": 1446,
      "mowa": 1447,
      "ÅĽwia": 1448,
      "ÅĽrÃ³d": 1449,
      "Ġchwili": 1450,
      "ÅĤÃ³w": 1451,
      "ĠktÃ³rego": 1452,
      "row": 1453,
      "ĠCo": 1454,
      "stra": 1455,
      "Ã³Å¼": 1456,
      "ĠksiÄĻ": 1457,
      "ĠmajÄħ": 1458,
      "ren": 1459,
      "amiÄĻ": 1460,
      "ĠosÃ³b": 1461,
      "wÄħ": 1462,
      "wen": 1463,
      "Ġkto": 1464,
      "Ġtru": 1465,
      "bym": 1466,
      "kÅĤada": 1467,
      "ĠAn": 1468,
      "ĠcoÅĽ": 1469,
      "biera": 1470,
      "ciÄĻ": 1471,
      "ĠBa": 1472,
      "nosi": 1473,
      "ĠSta": 1474,
      "ĠszczegÃ³lnoÅĽci": 1475,
      "cÄĻ": 1476,
      "tej": 1477,
      "ciw": 1478,
      "kona": 1479,
      "ÅĽciÄħ": 1480,
      "Ġzmia": 1481,
      "Ġzale": 1482,
      "Ġprzypad": 1483,
      "ĠOd": 1484,
      "Ġkobie": 1485,
      "wali": 1486,
      "tedy": 1487,
      "Ġstos": 1488,
      "ĠCharakterystyka": 1489,
      "Samo": 1490,
      "Ġfa": 1491,
      "wiÄĻk": 1492,
      "rem": 1493,
      "cznoÅĽci": 1494,
      "pÅĤa": 1495,
      "czych": 1496,
      "Ġjaki": 1497,
      "muje": 1498,
      "ul": 1499,
      "Ġdzieci": 1500,
      "th": 1501,
      "obÄħ": 1502,
      "us": 1503,
      "tel": 1504,
      "nÄĻtrz": 1505,
      "Ġadministra": 1506,
      "Ġzawsze": 1507,
      "ĠÅ¼": 1508,
      "ĠwÅĤaÅĽci": 1509,
      "nku": 1510,
      "lega": 1511,
      "owaniu": 1512,
      "nÄħÄĩ": 1513,
      "Ġga": 1514,
      "pisy": 1515,
      "waÅ¼": 1516,
      "ber": 1517,
      "skÄħ": 1518,
      "Ġwnio": 1519,
      "kty": 1520,
      "Ġla": 1521,
      "ĠwiÄĻk": 1522,
      "Ġzrobi": 1523,
      "ĠbyÅĤy": 1524,
      "nach": 1525,
      "Ġdomu": 1526,
      "Å¼enia": 1527,
      "naj": 1528,
      "ud": 1529,
      "wnÄĻtrz": 1530,
      "logi": 1531,
      "rezyden": 1532,
      "gencji": 1533,
      "kow": 1534,
      "mar": 1535,
      "ÅĤoÅĽÄĩ": 1536,
      "resz": 1537,
      "Ġkraju": 1538,
      "Ġpyta": 1539,
      "zÅĤem": 1540,
      "maga": 1541,
      "ĠLe": 1542,
      "ĠusÅĤu": 1543,
      "Ġjakby": 1544,
      "ene": 1545,
      "ĠInformacje": 1546,
      "owarzy": 1547,
      "ĠpoÅĤu": 1548,
      "ĠPrzy": 1549,
      "wych": 1550,
      "jÄħcego": 1551,
      "Ġwszystkie": 1552,
      "ĠKomunikacja": 1553,
      "lnoÅĽci": 1554,
      "pew": 1555,
      "Ġkilka": 1556,
      "ĠgÃ³": 1557,
      "16": 1558,
      "2020": 1559,
      "Ġludzi": 1560,
      "Ġorganiza": 1561,
      "nni": 1562,
      "ĠsÅĤoÅĦ": 1563,
      "wiet": 1564,
      "ĠCz": 1565,
      "ĠrzekÅĤ": 1566,
      "Ã³Åº": 1567,
      "dzÄħc": 1568,
      "Ġjednost": 1569,
      "Ġswoje": 1570,
      "trze": 1571,
      "Ġwarto": 1572,
      "Ġmiasta": 1573,
      "wem": 1574,
      "czna": 1575,
      "glÄħ": 1576,
      "dob": 1577,
      "Ġstu": 1578,
      "Ġzwy": 1579,
      "cznym": 1580,
      "ĠÅ»": 1581,
      "bÄĻ": 1582,
      "ĠTe": 1583,
      "ĠÅĽwiad": 1584,
      "ĠNoclegi": 1585,
      "szu": 1586,
      "Ġwybor": 1587,
      "ĠPraca": 1588,
      "ĠCzy": 1589,
      "Ġnigdy": 1590,
      "ĠJak": 1591,
      "onariu": 1592,
      "ĠBy": 1593,
      "rzÄĻd": 1594,
      "chro": 1595,
      "Ġdwa": 1596,
      "ÅĽni": 1597,
      "ĠimiÄĻ": 1598,
      "Ġuczelni": 1599,
      "Ġrzecz": 1600,
      "Ġosoby": 1601,
      "ÅĤoÅ¼o": 1602,
      "kro": 1603,
      "mÃ³w": 1604,
      "Ġumie": 1605,
      "woz": 1606,
      "ĠbudÅ¼etu": 1607,
      "ĠkaÅ¼dy": 1608,
      "ĠsÅĤowa": 1609,
      "utobusem": 1610,
      "66": 1611,
      "cjÄħ": 1612,
      "Ġpar": 1613,
      "ÄĻzy": 1614,
      "Ġpodob": 1615,
      "ĠNauka": 1616,
      "Ġot": 1617,
      "Ġpotem": 1618,
      "ata": 1619,
      "daÄĩ": 1620,
      "rach": 1621,
      "atkiem": 1622,
      "mina": 1623,
      "Ġmiejsce": 1624,
      "Ġformu": 1625,
      "ĠÅĤ": 1626,
      "miast": 1627,
      "Ġrzeczy": 1628,
      "ĠzwiÄħz": 1629,
      "Ġ11": 1630,
      "Ġwiele": 1631,
      "stos": 1632,
      "grani": 1633,
      "jÄħcej": 1634,
      "ĠmogÄħ": 1635,
      "Ġlata": 1636,
      "lnego": 1637,
      "Ġsku": 1638,
      "noc": 1639,
      "ĠwÄĻzÅĤem": 1640,
      "os": 1641,
      "Ġsek": 1642,
      "ÅĽmie": 1643,
      "cki": 1644,
      "Ġstar": 1645,
      "000": 1646,
      "ĠÅĽmierci": 1647,
      "ntroli": 1648,
      "nienie": 1649,
      "ĠnaleÅ¼y": 1650,
      "emi": 1651,
      "sÅĤaw": 1652,
      "ĠParla": 1653,
      "kra": 1654,
      "lami": 1655,
      "Ġtele": 1656,
      "ment": 1657,
      "ÅĽre": 1658,
      "ĠmÅĤo": 1659,
      "sztaÅĤ": 1660,
      "Ġlutego": 1661,
      "ĠÅ¼ad": 1662,
      "rtu": 1663,
      "Å¼enie": 1664,
      "ĠTak": 1665,
      "Ġ30": 1666,
      "bro": 1667,
      "tra": 1668,
      "ĠktÃ³rzy": 1669,
      "ĠbÄĻdÄħ": 1670,
      "rom": 1671,
      "szenia": 1672,
      "Ġho": 1673,
      "stÄħpi": 1674,
      "ktÃ³": 1675,
      "ĠOpis": 1676,
      "Ġmiejsc": 1677,
      "lny": 1678,
      "Ġdalej": 1679,
      "arsza": 1680,
      "ĠaÅ¼": 1681,
      "mach": 1682,
      "cznÄħ": 1683,
      "Ġ16": 1684,
      "Ġjeden": 1685,
      "ĠNajbliÅ¼sze": 1686,
      "wÄĻ": 1687,
      "Ġkonie": 1688,
      "ĠParlamentu": 1689,
      "tka": 1690,
      "Ġtro": 1691,
      "Je": 1692,
      "ÅĤam": 1693,
      "ÅĤon": 1694,
      "mieniu": 1695,
      "szech": 1696,
      "wym": 1697,
      "ĠniÄħ": 1698,
      "siÅĤ": 1699,
      "Ġpodstawie": 1700,
      "kacji": 1701,
      "ĠKolejÄħ": 1702,
      "cyjnych": 1703,
      "Ġlotniczy": 1704,
      "Ġkrzy": 1705,
      "pyta": 1706,
      "Ġele": 1707,
      "Ġprzeciw": 1708,
      "Ġczym": 1709,
      "Ġojciec": 1710,
      "Ġzada": 1711,
      "ĠNr": 1712,
      "Ġpier": 1713,
      "Ġmiejsca": 1714,
      "ĠdÅĤugo": 1715,
      "Ġprzewo": 1716,
      "ktora": 1717,
      "ner": 1718,
      "and": 1719,
      "Ġwoj": 1720,
      "niÄĩ": 1721,
      "Ġkla": 1722,
      "kar": 1723,
      "Ġfil": 1724,
      "Ġ25": 1725,
      "Ġpracowni": 1726,
      "ĠsobÄħ": 1727,
      "wanie": 1728,
      "ĠÅģ": 1729,
      "nad": 1730,
      "owÄĻ": 1731,
      "ĠchoÄĩ": 1732,
      "ĠchciaÅĤ": 1733,
      "Ġwysoko": 1734,
      "jrza": 1735,
      "rozu": 1736,
      "Jak": 1737,
      "Ġ[": 1738,
      "niz": 1739,
      "Ġproje": 1740,
      "ĠWyjazd": 1741,
      "pl": 1742,
      "sÅĤy": 1743,
      "Ġwprowa": 1744,
      "ato": 1745,
      "mien": 1746,
      "czaj": 1747,
      "wyÅ¼": 1748,
      "rium": 1749,
      "ÅĽnia": 1750,
      "Ġinte": 1751,
      "ĠzostaÅĤ": 1752,
      "ym": 1753,
      "Ġtem": 1754,
      "Ġczu": 1755,
      "zuje": 1756,
      "15": 1757,
      "dia": 1758,
      "ĠPio": 1759,
      "Ġsprawoz": 1760,
      "Ġnauk": 1761,
      "maty": 1762,
      "ÅĤnie": 1763,
      "Ġzam": 1764,
      "rowi": 1765,
      "chem": 1766,
      "tyw": 1767,
      "Ġproce": 1768,
      "Ġ199": 1769,
      "lnym": 1770,
      "ryka": 1771,
      "Ġprawo": 1772,
      "Ġdni": 1773,
      "ĠPra": 1774,
      "Ġsystem": 1775,
      "ĠzaÅĽ": 1776,
      "rzyÅĤ": 1777,
      "czeÅĦ": 1778,
      "ÅĤÄĻ": 1779,
      "ĠjÄĻzy": 1780,
      "Ġcelu": 1781,
      "28": 1782,
      "Ġmusi": 1783,
      "mat": 1784,
      "Ġtw": 1785,
      "dzÄĻ": 1786,
      "ĠnastÄĻp": 1787,
      "sek": 1788,
      "Ġozna": 1789,
      "ĠjeÅĽli": 1790,
      "ÅĽwiad": 1791,
      "lnej": 1792,
      "Ġuro": 1793,
      "rywa": 1794,
      "ĠWo": 1795,
      "Ġobec": 1796,
      "Od": 1797,
      "Ġpoko": 1798,
      "pom": 1799,
      "Ġpodczas": 1800,
      "Ġdaw": 1801,
      "ĠwspÃ³ÅĤ": 1802,
      "dÅĤug": 1803,
      "Ġposiada": 1804,
      "ĠwaÅ¼nym": 1805,
      "gÃ³w": 1806,
      "daw": 1807,
      "14": 1808,
      "Ġzawie": 1809,
      "obec": 1810,
      "amy": 1811,
      "Ġtr": 1812,
      "lep": 1813,
      "czyna": 1814,
      "ĠszczÄĻ": 1815,
      "ĠRze": 1816,
      "Ġdrogowym": 1817,
      "Ġzakresie": 1818,
      "lenie": 1819,
      "lach": 1820,
      "Ġprzysz": 1821,
      "30": 1822,
      "kowi": 1823,
      "istor": 1824,
      "Ġona": 1825,
      "ĠLi": 1826,
      "Ro": 1827,
      "ic": 1828,
      "powiada": 1829,
      "Ġbli": 1830,
      "Ġniepo": 1831,
      "Ġrobi": 1832,
      "Ġ15": 1833,
      "Ġdobrze": 1834,
      "he": 1835,
      "par": 1836,
      "Ġter": 1837,
      "Ġ14": 1838,
      "Ġgospodar": 1839,
      "jemy": 1840,
      "Ġdrugie": 1841,
      "dniej": 1842,
      "ĠX": 1843,
      "Ã³g": 1844,
      "ĠpostÄĻp": 1845,
      "owanych": 1846,
      "2019": 1847,
      "Ġwraz": 1848,
      "Ġpoprze": 1849,
      "Ġwyna": 1850,
      "Ġ198": 1851,
      "Ġpowsta": 1852,
      "ĠksiÄħÅ¼": 1853,
      "Ġczar": 1854,
      "sce": 1855,
      "âī": 1856,
      "bior": 1857,
      "ĠpaÅĦstw": 1858,
      "âīĪ": 1859,
      "es": 1860,
      "Ġudzie": 1861,
      "rybu": 1862,
      "ent": 1863,
      "Ġ17": 1864,
      "ĠÅ¼oÅĤnie": 1865,
      "ser": 1866,
      "zo": 1867,
      "ciÅĤ": 1868,
      "taj": 1869,
      "Ġczasie": 1870,
      "ctwa": 1871,
      "Ġisto": 1872,
      "rakt": 1873,
      "Ġgdyby": 1874,
      "ĠpiÄĻk": 1875,
      "Ġ+": 1876,
      "ĠjeÅ¼eli": 1877,
      "stytu": 1878,
      "pisÃ³w": 1879,
      "tne": 1880,
      "Ġpre": 1881,
      "Ġzapew": 1882,
      "Ġodda": 1883,
      "Ġkocha": 1884,
      "zacji": 1885,
      "Ġstrony": 1886,
      "Ġat": 1887,
      "waÅĤy": 1888,
      "eru": 1889,
      "lnie": 1890,
      "Å»": 1891,
      "chni": 1892,
      "jÄħca": 1893,
      "Ġobie": 1894,
      "Ġprawa": 1895,
      "ÅĦstwa": 1896,
      "AR": 1897,
      "In": 1898,
      "Å¼yÅĤ": 1899,
      "200": 1900,
      "owoÅĽci": 1901,
      "ĠpamiÄĻ": 1902,
      "Ġzu": 1903,
      "Ġzaj": 1904,
      "Ġzaraz": 1905,
      "ĠzarzÄħ": 1906,
      "nÄĻÅĤa": 1907,
      "ĠFestiwale": 1908,
      "ami": 1909,
      "Ġwtedy": 1910,
      "Ġopera": 1911,
      "Ġprzygo": 1912,
      "Ġprawie": 1913,
      "ĠFran": 1914,
      "ĠgÅĤÃ³w": 1915,
      "ĠczÄĻÅĽci": 1916,
      "nowu": 1917,
      "latego": 1918,
      "jÄħcym": 1919,
      "ĠktÃ³rÄħ": 1920,
      "ĠAutor": 1921,
      "gÅĤo": 1922,
      "nikÃ³w": 1923,
      "niesie": 1924,
      "ĠnastÄĻpu": 1925,
      "Ġwarun": 1926,
      "ĠobowiÄħz": 1927,
      "Ġzatru": 1928,
      "ĠWarsza": 1929,
      "gÄħ": 1930,
      "ti": 1931,
      "Ġopie": 1932,
      "Ġpolity": 1933,
      "cach": 1934,
      "Ġpani": 1935,
      "Ġregio": 1936,
      "lia": 1937,
      "Ġ28": 1938,
      "Ġdziec": 1939,
      "ĠÅ¹rÃ³dÅĤa": 1940,
      "Ġ130": 1941,
      "22": 1942,
      "sÃ³w": 1943,
      "tar": 1944,
      "waÅĤo": 1945,
      "ÅĦskiego": 1946,
      "mienie": 1947,
      "Ġjestem": 1948,
      "Ġsza": 1949,
      "ĠNaj": 1950,
      "szcz": 1951,
      "ĠpoczÄħ": 1952,
      "Ġodci": 1953,
      "ĠdzieÅĦ": 1954,
      "2012": 1955,
      "Ġznajduje": 1956,
      "\",": 1957,
      "Ġjedy": 1958,
      "ĠGra": 1959,
      "Ġdyre": 1960,
      "Ġpomocy": 1961,
      "Ġpowin": 1962,
      "glÄħda": 1963,
      "46": 1964,
      "Â§": 1965,
      "naÅĤ": 1966,
      "Ġwszyscy": 1967,
      "ĠsÅĤuÅ¼by": 1968,
      "kle": 1969,
      "Ġlist": 1970,
      "ĠokreÅĽla": 1971,
      "Mi": 1972,
      "Ġtranspo": 1973,
      "Ġtowarzy": 1974,
      "wane": 1975,
      "Ġhi": 1976,
      "Ġ2013": 1977,
      "Ġgodzin": 1978,
      "Ġsty": 1979,
      "Ġist": 1980,
      "Ġobo": 1981,
      "Ġ26": 1982,
      "Ġwzro": 1983,
      "Ġstrasz": 1984,
      "dli": 1985,
      "are": 1986,
      "Ġrodza": 1987,
      "Ġwido": 1988,
      "Ġlecz": 1989,
      "ten": 1990,
      "dach": 1991,
      "Ġloka": 1992,
      "nty": 1993,
      "ĠpÃ³Åº": 1994,
      "ĠbiaÅĤ": 1995,
      "cieÅ¼": 1996,
      "prawie": 1997,
      "ĠdziaÅĤania": 1998,
      "ĠRoz": 1999,
      "cego": 2000,
      "Ġznowu": 2001,
      "rodowej": 2002,
      "Ġstop": 2003,
      "Ġwal": 2004,
      "13": 2005,
      "Ġrzu": 2006,
      "Ġformula": 2007,
      "23": 2008,
      "rzenie": 2009,
      "mawia": 2010,
      "ÂłÂłÂł": 2011,
      "ĠpaÅĦstwa": 2012,
      "Ġarty": 2013,
      "ĠPi": 2014,
      "maÅĤy": 2015,
      "Ġzwie": 2016,
      "Ġ0": 2017,
      "ĠsÅĤy": 2018,
      "Ġprodu": 2019,
      "czone": 2020,
      "25": 2021,
      "Ġek": 2022,
      "god": 2023,
      "koÅĦ": 2024,
      "Ġchce": 2025,
      "Ġreali": 2026,
      "Ġpunk": 2027,
      "Ġsprze": 2028,
      "star": 2029,
      "Ġpoda": 2030,
      "tym": 2031,
      "Ġprzyja": 2032,
      "Ġinne": 2033,
      "Gdy": 2034,
      "pca": 2035,
      "tach": 2036,
      "moÅĽci": 2037,
      "chÄĻ": 2038,
      "ĠPod": 2039,
      "Ġwojs": 2040,
      "sÅĤugu": 2041,
      "Ġgminy": 2042,
      "cem": 2043,
      "Ġ=": 2044,
      "nar": 2045,
      "szko": 2046,
      "szczÄĻ": 2047,
      "dziaÅĤa": 2048,
      "Ġprzeprowa": 2049,
      "ĠSo": 2050,
      "ĠPolskiej": 2051,
      "Ġziemi": 2052,
      "Ġoce": 2053,
      "ĠtÅĤu": 2054,
      "Ġdoda": 2055,
      "ĠLa": 2056,
      "suje": 2057,
      "ĠczÄĻÅĽÄĩ": 2058,
      "Ġupraw": 2059,
      "laz": 2060,
      "jÄħcÄħ": 2061,
      "Ġ2020": 2062,
      "Ġswoich": 2063,
      "Ġpocho": 2064,
      "iÄĻc": 2065,
      "wiÄĩ": 2066,
      "piero": 2067,
      "Åºdzie": 2068,
      "wÃ³ch": 2069,
      "wer": 2070,
      "szczy": 2071,
      "poÅĽre": 2072,
      "undu": 2073,
      "Ġsmu": 2074,
      "liz": 2075,
      "ÅĦskie": 2076,
      "Ġobro": 2077,
      "Ġinforma": 2078,
      "IE": 2079,
      "No": 2080,
      "ĠwÅĽrÃ³d": 2081,
      "Ġzastos": 2082,
      "ĠmaÅĤ": 2083,
      "Ġfunkcjon": 2084,
      "Ġnauczyciel": 2085,
      "ĠÅĤÄħ": 2086,
      "Å¼yÄĩ": 2087,
      "Ġmoje": 2088,
      "prac": 2089,
      "Ġdrodze": 2090,
      "Ġwskaza": 2091,
      "przy": 2092,
      "ĠRy": 2093,
      "dniczÄħ": 2094,
      "ÅĤeÅĽ": 2095,
      "Å¼li": 2096,
      "rucho": 2097,
      "czki": 2098,
      "Ġnada": 2099,
      "Ġprzyj": 2100,
      "Ġgrudnia": 2101,
      "Ġfunkcjonariu": 2102,
      "Ġdecyzji": 2103,
      "wach": 2104,
      "siÄĻcy": 2105,
      "ĠwspÃ³l": 2106,
      "Ġpor": 2107,
      "Ġab": 2108,
      "Ġtrzeba": 2109,
      "Ġzawod": 2110,
      "vi": 2111,
      "Ġkam": 2112,
      "ĠrÄĻkÄĻ": 2113,
      "kowa": 2114,
      "Ġdom": 2115,
      "Ġwymaga": 2116,
      "Ġge": 2117,
      "2014": 2118,
      "Ġkilku": 2119,
      "gnie": 2120,
      "iÄħ": 2121,
      "jego": 2122,
      "ut": 2123,
      "wiÅĤ": 2124,
      "Ġpapie": 2125,
      "ĠczÄĻsto": 2126,
      "ĠzwiÄħza": 2127,
      "Ġkan": 2128,
      "ĠTrybu": 2129,
      "Ġludz": 2130,
      "Ġlipca": 2131,
      "cyjne": 2132,
      "Ġsprawozdanie": 2133,
      "ĠwÄħ": 2134,
      "rami": 2135,
      "Ġuchy": 2136,
      "Ġtyle": 2137,
      "Ġtytu": 2138,
      "Ġhand": 2139,
      "Ġdrogi": 2140,
      "ckiego": 2141,
      "ir": 2142,
      "net": 2143,
      "ĠTa": 2144,
      "Ġinter": 2145,
      "czony": 2146,
      "ĠorganÃ³w": 2147,
      "tku": 2148,
      "nami": 2149,
      "ĠdwÃ³ch": 2150,
      "Ġwielu": 2151,
      "Ġlek": 2152,
      "Ġbardziej": 2153,
      "ĠprÃ³": 2154,
      "Ġwypad": 2155,
      "ĠPan": 2156,
      "ĠAl": 2157,
      "Ġnoc": 2158,
      "Ġpierwszy": 2159,
      "Ġzasad": 2160,
      "usz": 2161,
      "ĠÅº": 2162,
      "chunk": 2163,
      "ĠprzepisÃ³w": 2164,
      "ĠAgencji": 2165,
      "ĠcaÅĤy": 2166,
      "ĠJest": 2167,
      "ĠokoÅĤo": 2168,
      "Ġszyb": 2169,
      "ust": 2170,
      "ĠwpÅĤy": 2171,
      "ĠÅĽwiÄĻ": 2172,
      "Ġciebie": 2173,
      "ĠStatkiem": 2174,
      "rowie": 2175,
      "tua": 2176,
      "Ġbezpie": 2177,
      "reszcie": 2178,
      "nta": 2179,
      "ĠwÅĤo": 2180,
      "Ġczego": 2181,
      "Ġkraj": 2182,
      "be": 2183,
      "wÅĤa": 2184,
      "Ġponad": 2185,
      "Ġuli": 2186,
      "owymi": 2187,
      "Ġjeste": 2188,
      "ĠTy": 2189,
      "ĠDa": 2190,
      "ĠmÄĻÅ¼": 2191,
      "ĠpÃ³ÅĤnoc": 2192,
      "Ġzgodnie": 2193,
      "ÅĽla": 2194,
      "Ġdosta": 2195,
      "zyska": 2196,
      "Ġtaki": 2197,
      "Ġmaja": 2198,
      "meryka": 2199,
      "jo": 2200,
      "tki": 2201,
      "ĠsÅĤa": 2202,
      "ciem": 2203,
      "ĠSpraw": 2204,
      "oby": 2205,
      "Ġ29": 2206,
      "Ġdrugi": 2207,
      "Ale": 2208,
      "ad": 2209,
      "Ġpowa": 2210,
      "Ġauto": 2211,
      "ĠObra": 2212,
      "ĠczÅĤon": 2213,
      "ĠswojÄħ": 2214,
      "dziaÅĤem": 2215,
      "ĠStra": 2216,
      "ĠkaÅ¼d": 2217,
      "gniÄĻ": 2218,
      "Ġmniej": 2219,
      "kadem": 2220,
      "Ġdoktor": 2221,
      "Ġpodej": 2222,
      "spoli": 2223,
      "Przy": 2224,
      "Ġdoku": 2225,
      "ĠprzestÄĻp": 2226,
      "ĠjakÄħ": 2227,
      "ĠMu": 2228,
      "Ġcoraz": 2229,
      "noÅĽciÄħ": 2230,
      "Ġwszystkim": 2231,
      "ĠĊĠĊĠĊĠĊ": 2232,
      "Polscy": 2233,
      "ĠObrachunk": 2234,
      "Ġso": 2235,
      "tery": 2236,
      "owiem": 2237,
      "Ġregu": 2238,
      "Ġdale": 2239,
      "peÅĤnie": 2240,
      "Ġzmar": 2241,
      "ĠzakÅĤa": 2242,
      "wienie": 2243,
      "Ġjednego": 2244,
      "ery": 2245,
      "Åļ": 2246,
      "Ġzaba": 2247,
      "Ġkorzysta": 2248,
      "Ġsztu": 2249,
      "ĠTrakt": 2250,
      "21": 2251,
      "RO": 2252,
      "gar": 2253,
      "sh": 2254,
      "ĊÂł": 2255,
      "Ġem": 2256,
      "Ġiz": 2257,
      "syj": 2258,
      "Ġczyn": 2259,
      "Ġdziedzi": 2260,
      "ĠmÃ³wiÅĤ": 2261,
      "kniÄĻ": 2262,
      "Ġsil": 2263,
      "ÅĽniej": 2264,
      "Ġprzej": 2265,
      "Ġkosz": 2266,
      "Ġmuzy": 2267,
      "ĠToma": 2268,
      "Ġskrzy": 2269,
      "ĠusÅĤug": 2270,
      "lat": 2271,
      "Ġopi": 2272,
      "ĠksiÄĻÅ¼y": 2273,
      "ĠWÅĤo": 2274,
      "gii": 2275,
      "pita": 2276,
      "graf": 2277,
      "Ġrazem": 2278,
      "ĠmieszkaÅĦ": 2279,
      "WD": 2280,
      "nka": 2281,
      "sji": 2282,
      "Noc": 2283,
      "gna": 2284,
      "ple": 2285,
      "ÅĽwiet": 2286,
      "ĠniektÃ³": 2287,
      "czeÅĽnie": 2288,
      "ĠZie": 2289,
      "ĠciÄĻÅ¼": 2290,
      "Åºdzier": 2291,
      ".,": 2292,
      "sol": 2293,
      "Ġprob": 2294,
      "ĠPolsce": 2295,
      "rp": 2296,
      "iedy": 2297,
      "Ġpana": 2298,
      "ĠpaÅºdzier": 2299,
      "ĠPolski": 2300,
      "ÄħdÅº": 2301,
      "ĠAnto": 2302,
      "Ġoznacza": 2303,
      "50": 2304,
      "niÅĤ": 2305,
      "roz": 2306,
      "Ġkry": 2307,
      "ĠAutobusem": 2308,
      "Ġwieku": 2309,
      "Ġjednym": 2310,
      "jÄĻcia": 2311,
      "ĠmiaÅĤa": 2312,
      "ĠmyÅĽl": 2313,
      "24": 2314,
      "gÅĤa": 2315,
      "âĨ": 2316,
      "ĠpÅĤy": 2317,
      "chowa": 2318,
      "rat": 2319,
      "Ġutwo": 2320,
      "pospoli": 2321,
      "ĠstaÅĤ": 2322,
      "Ġswego": 2323,
      "ĠdotyczÄħce": 2324,
      "ĠczÅĤowiek": 2325,
      "ĠczÅĤowieka": 2326,
      "To": 2327,
      "czeniu": 2328,
      "Dzie": 2329,
      "nki": 2330,
      "rych": 2331,
      "ĠgÃ³r": 2332,
      "czes": 2333,
      "byt": 2334,
      "Ġ193": 2335,
      "ĠMinister": 2336,
      "Ġ:": 2337,
      "Ġwrze": 2338,
      "narod": 2339,
      "ros": 2340,
      "Ġuczu": 2341,
      "Ġrozu": 2342,
      "moc": 2343,
      "Ġha": 2344,
      "Ġuczest": 2345,
      "nicy": 2346,
      "strzy": 2347,
      "Ġdniu": 2348,
      "Ġzacho": 2349,
      "kol": 2350,
      "woÅĤa": 2351,
      "Ġobej": 2352,
      "Ġrazie": 2353,
      "ĠTraktatu": 2354,
      "Bo": 2355,
      "bar": 2356,
      "ĠÅĽci": 2357,
      "ciÄĩ": 2358,
      "Ġuda": 2359,
      "ĠuÅĽmie": 2360,
      "cym": 2361,
      "Ġkomis": 2362,
      "Ġmoja": 2363,
      "ĠrÄĻce": 2364,
      "Ġabsol": 2365,
      "WE": 2366,
      "ck": 2367,
      "pre": 2368,
      "Ġpkt": 2369,
      "Ġwspo": 2370,
      "kon": 2371,
      "Ġwiem": 2372,
      "ĠGdy": 2373,
      "Polska": 2374,
      "Ġwykonania": 2375,
      "):": 2376,
      "fek": 2377,
      "Ġwsze": 2378,
      "nomu": 2379,
      "skiem": 2380,
      "szenie": 2381,
      "ÅĦstwo": 2382,
      "nuje": 2383,
      "Ġsiedzi": 2384,
      "ĠgÅĤÄĻ": 2385,
      "Ġdziw": 2386,
      "Ġregionie": 2387,
      "EN": 2388,
      "St": 2389,
      "Ġwobec": 2390,
      "ĠmnÄħ": 2391,
      "Ġwynika": 2392,
      "ĠDe": 2393,
      "menta": 2394,
      "ĠwysokoÅĽci": 2395,
      "âīĪâīĪ": 2396,
      "kowych": 2397,
      "Ġwej": 2398,
      "raj": 2399,
      "szÅĤo": 2400,
      "ĠzaczÄĻ": 2401,
      "Ġwyra": 2402,
      "ĠSa": 2403,
      "wienia": 2404,
      "Ġbyli": 2405,
      "wyczaj": 2406,
      "ĠmyÅĽli": 2407,
      "ĠuwaÅ¼a": 2408,
      "ĠpoÅĤÄħ": 2409,
      "Ġspotka": 2410,
      "Ġbada": 2411,
      "ĠuÅ¼ytk": 2412,
      "Ġpotrzeb": 2413,
      "wnÄĻtrznych": 2414,
      "ĠpoÅĤudni": 2415,
      "cznia": 2416,
      "Ġkro": 2417,
      "rew": 2418,
      "tura": 2419,
      "ĠrozwiÄħza": 2420,
      "Ġmil": 2421,
      "Ġstanie": 2422,
      "Ġogrom": 2423,
      "Ġurlo": 2424,
      "Ġodcinek": 2425,
      "is": 2426,
      "jcie": 2427,
      "ncji": 2428,
      "struk": 2429,
      "Ġnp": 2430,
      "Ġdal": 2431,
      "Ġszero": 2432,
      "Ġprogram": 2433,
      "ĠKsiÄĻÅ¼yca": 2434,
      "ĠpaÅºdziernika": 2435,
      "Ġdow": 2436,
      "Ġtakich": 2437,
      "ĠzostaÅĤa": 2438,
      "dziaÅĤu": 2439,
      "ĠjakiÅĽ": 2440,
      "Tak": 2441,
      "czni": 2442,
      "ĠiÅ¼": 2443,
      "Ġprokura": 2444,
      "ĠLu": 2445,
      "Ġpio": 2446,
      "Ġdodat": 2447,
      "rzyÄĩ": 2448,
      "Ġwyni": 2449,
      "Ġprzyzna": 2450,
      "Ġswoim": 2451,
      "Ġswojej": 2452,
      "Ġpisa": 2453,
      "Ġprzypadku": 2454,
      "dÅĤa": 2455,
      "ĠÅĤo": 2456,
      "Ġspa": 2457,
      "Ã³sÅĤ": 2458,
      "Ġopu": 2459,
      "Ġochro": 2460,
      "Ġzapa": 2461,
      "Ġzatrzyma": 2462,
      "Ġuzyska": 2463,
      "ĠwyÅ¼": 2464,
      "cenia": 2465,
      "Ġnajmniej": 2466,
      "Ġjas": 2467,
      "ĠÅĽwiata": 2468,
      "Ġserce": 2469,
      "ĠzÅĤotych": 2470,
      "der": 2471,
      "nicznej": 2472,
      "Ġdlatego": 2473,
      "piej": 2474,
      "ĠwÅĤaÅĽnie": 2475,
      "ĠchwilÄĻ": 2476,
      "ĠdziÅĽ": 2477,
      "ĠRzeczy": 2478,
      "ĠpÃ³Åºniej": 2479,
      "Ġnadz": 2480,
      "ĠPie": 2481,
      "Ġludzie": 2482,
      "Ġkul": 2483,
      "czeÅĦstwa": 2484,
      "Åģ": 2485,
      "Ġzab": 2486,
      "Ġdopiero": 2487,
      "ĠNe": 2488,
      "ĠNi": 2489,
      "ĠMia": 2490,
      "ĠTu": 2491,
      "ĠgdyÅ¼": 2492,
      "kwi": 2493,
      "tnej": 2494,
      "Ġnami": 2495,
      "Ġbla": 2496,
      "Ġdoktora": 2497,
      "unku": 2498,
      "ĠGo": 2499,
      "Ġjednej": 2500,
      "ktu": 2501,
      "ony": 2502,
      "Ġsce": 2503,
      "kom": 2504,
      "chaÅĤ": 2505,
      "ĠbezpoÅĽre": 2506,
      "Ġsytua": 2507,
      "ĠJeÅĽli": 2508,
      "ĠProkura": 2509,
      "ĠwrzeÅĽnia": 2510,
      "Ġkm": 2511,
      "Ġrobo": 2512,
      "ĠZd": 2513,
      "szaÅĤ": 2514,
      "nione": 2515,
      "Pod": 2516,
      "obowiÄħ": 2517,
      "Ġ417": 2518,
      "Ġodpowiedzia": 2519,
      "Roz": 2520,
      "Ġinformacji": 2521,
      "Ja": 2522,
      "zen": 2523,
      "Ġdrze": 2524,
      "Ġnierucho": 2525,
      "koj": 2526,
      "szyst": 2527,
      "cyjnej": 2528,
      "Ġkieru": 2529,
      "Ġodpowiedni": 2530,
      "Ġfunkcji": 2531,
      "Warto": 2532,
      "ker": 2533,
      "tow": 2534,
      "szar": 2535,
      "ĠpoÅĽ": 2536,
      "ĠdoÅĽÄĩ": 2537,
      "ĠurzÄħ": 2538,
      "Ġakadem": 2539,
      "ÅĽcio": 2540,
      "ĠMie": 2541,
      "stÄĻpuje": 2542,
      "ld": 2543,
      "ĊĠĊ": 2544,
      "Ġâ": 2545,
      "Ġpozna": 2546,
      "Ġzapyta": 2547,
      "Ġprzewi": 2548,
      "ama": 2549,
      "Ġ24": 2550,
      "dzania": 2551,
      "umb": 2552,
      "Ġczeka": 2553,
      "wÃ³dz": 2554,
      "Ġofia": 2555,
      "05": 2556,
      "sen": 2557,
      "lii": 2558,
      "ĠnajwiÄĻk": 2559,
      "Ġojca": 2560,
      "76": 2561,
      "leÅ¼": 2562,
      "koÅĤa": 2563,
      "laÅĤ": 2564,
      "pytaÅĤ": 2565,
      "giem": 2566,
      "ĠÅĽrodkÃ³w": 2567,
      "Ġtermi": 2568,
      "SK": 2569,
      "kÃ³ÅĤ": 2570,
      "nowie": 2571,
      "usta": 2572,
      "Ġprzestrze": 2573,
      "ĠSy": 2574,
      "wiek": 2575,
      "ĠAr": 2576,
      "Ġobchodzi": 2577,
      "ĠJani": 2578,
      "Ġtransportu": 2579,
      "dek": 2580,
      "lna": 2581,
      "Ġzwa": 2582,
      "Ġpoza": 2583,
      "Ġupo": 2584,
      "ÅĦska": 2585,
      "rii": 2586,
      "Ġtwarz": 2587,
      "ĠksiÄĻÅ¼yc": 2588,
      "Ġprezyden": 2589,
      "Ġpoli": 2590,
      "iÄĻk": 2591,
      "Ġbrz": 2592,
      "Ġniniej": 2593,
      "ĠII": 2594,
      "weÅĤ": 2595,
      "NajbliÅ¼sze": 2596,
      "ĠpomocÄħ": 2597,
      "Ġostatni": 2598,
      "ĠpracownikÃ³w": 2599,
      "Ġwybra": 2600,
      "widÅĤ": 2601,
      "ĠSpo": 2602,
      "Ġjakim": 2603,
      "moÅ¼li": 2604,
      "story": 2605,
      "Ġlatach": 2606,
      "Ġistnie": 2607,
      "--": 2608,
      "AM": 2609,
      "chi": 2610,
      "tami": 2611,
      "cale": 2612,
      "Ġpodstaw": 2613,
      "Ġwszel": 2614,
      "ho": 2615,
      "Ġdwie": 2616,
      "owany": 2617,
      "cami": 2618,
      "jewÃ³dz": 2619,
      "Ġstara": 2620,
      "czÄħÅĤ": 2621,
      "ĠHa": 2622,
      "Dojazd": 2623,
      "Samochodem": 2624,
      "Samolotem": 2625,
      "ĠzupeÅĤnie": 2626,
      "szÅĤa": 2627,
      "czeÅĽniej": 2628,
      "Ġmoc": 2629,
      "dzeÅĦ": 2630,
      "ĠbÄĻdÄĻ": 2631,
      "pospolitej": 2632,
      "kowe": 2633,
      "kowej": 2634,
      "ĠznÃ³w": 2635,
      "Ġtry": 2636,
      "ÅĤat": 2637,
      "Ġdocho": 2638,
      "Ġodpowiada": 2639,
      "ĠEU": 2640,
      "Ġtutaj": 2641,
      "czonych": 2642,
      "rÃ³ciÅĤ": 2643,
      "rowia": 2644,
      "ĠwartoÅĽci": 2645,
      "istoria": 2646,
      "ĠprzecieÅ¼": 2647,
      "jedno": 2648,
      "ĠCie": 2649,
      "ĠNarodowej": 2650,
      "Ġwykony": 2651,
      "rzÄĻdu": 2652,
      "Ġkamie": 2653,
      "].": 2654,
      "dwi": 2655,
      "gia": 2656,
      "tny": 2657,
      "Ġspe": 2658,
      "Ġkontroli": 2659,
      "Ġszuka": 2660,
      "ĠgÅĤosem": 2661,
      "Ġliczby": 2662,
      "Ġotwar": 2663,
      "kolwiek": 2664,
      "41": 2665,
      "BezpieczeÅĦstwo": 2666,
      "Co": 2667,
      "dwie": 2668,
      "uropej": 2669,
      "rad": 2670,
      "ĠÅĽmie": 2671,
      "piec": 2672,
      "cyjnego": 2673,
      "ĠHo": 2674,
      "ĠRzeczypospolitej": 2675,
      "niÃ³sÅĤ": 2676,
      "Ġniezna": 2677,
      "sami": 2678,
      "Ġrado": 2679,
      "fika": 2680,
      "Ġciem": 2681,
      "Kontakt": 2682,
      "Ġwscho": 2683,
      "Ġuchyla": 2684,
      "Ka": 2685,
      "Pro": 2686,
      "bÄħ": 2687,
      "wczy": 2688,
      "cznoÅĽÄĩ": 2689,
      "Ġotrzyma": 2690,
      "Ġdwu": 2691,
      "Ġzamie": 2692,
      "ĠzajÄĻ": 2693,
      "rek": 2694,
      "Ġkole": 2695,
      "Ġprzyczy": 2696,
      "ĠLo": 2697,
      "Ġ2012": 2698,
      "Ġnocy": 2699,
      "ĠdrogÄĻ": 2700,
      "ĠciÄħgle": 2701,
      "ĠÅĽwiecie": 2702,
      "Ġadministracji": 2703,
      "ĠgÃ³ry": 2704,
      "96": 2705,
      "nicj": 2706,
      "Ã³z": 2707,
      "Ġdwo": 2708,
      "Ġnagle": 2709,
      "pol": 2710,
      "ĠWsp": 2711,
      "wicie": 2712,
      "zywa": 2713,
      "ĊĊĊĊ": 2714,
      "Ġustala": 2715,
      "ĠpowiedzieÄĩ": 2716,
      "utorium": 2717,
      "ĠMinist": 2718,
      "ĠogÃ³lnego": 2719,
      "Ġabsolutorium": 2720,
      "27": 2721,
      "wÃ³r": 2722,
      "Ġstan": 2723,
      "Ġprzedmio": 2724,
      "bur": 2725,
      "menda": 2726,
      "Komunikacja": 2727,
      "ÅĤoÅ¼one": 2728,
      "Ġwynagro": 2729,
      "Ġzastosowanie": 2730,
      "Gastronomia": 2731,
      "Le": 2732,
      "Mo": 2733,
      "qu": 2734,
      "Ġse": 2735,
      "rzeÄĩ": 2736,
      "Ġwyzna": 2737,
      "cenie": 2738,
      "Ġgwia": 2739,
      "tera": 2740,
      "ĠIz": 2741,
      "Ġwzgl": 2742,
      "ctwo": 2743,
      "ĠmiÄĻdzynarod": 2744,
      "Ġgodziny": 2745,
      "ĠokreÅĽlonych": 2746,
      "Ġstycznia": 2747,
      "Ġkandy": 2748,
      "ĠStraÅ¼y": 2749,
      "Praca": 2750,
      "Zakupy": 2751,
      "zji": 2752,
      "Ġzbli": 2753,
      "czka": 2754,
      "chÃ³d": 2755,
      "Ġport": 2756,
      "liÅĤ": 2757,
      "mist": 2758,
      "ĠOb": 2759,
      "ĠgÅĤowÄĻ": 2760,
      "ĠÅĽmierÄĩ": 2761,
      "Ġtrzyma": 2762,
      "By": 2763,
      "Ty": 2764,
      "lnoÅĽÄĩ": 2765,
      "Ġki": 2766,
      "Ġbak": 2767,
      "Ġnieza": 2768,
      "ĠprzysÅĤugu": 2769,
      "ĠÅĽpie": 2770,
      "szek": 2771,
      "Ġmus": 2772,
      "ciÄħg": 2773,
      "KolejÄħ": 2774,
      "peÅĤnia": 2775,
      "ĠstanowiÄħ": 2776,
      "Ġ966": 2777,
      "ĠzwiÄħzku": 2778,
      "ĠzamkniÄĻ": 2779,
      "bia": 2780,
      "tak": 2781,
      "tÄħd": 2782,
      "ura": 2783,
      "Ġprowi": 2784,
      "ate": 2785,
      "ÅĦskich": 2786,
      "mysÅĤ": 2787,
      "ĠUrzÄĻd": 2788,
      "Nauka": 2789,
      "Ġmater": 2790,
      "EJ": 2791,
      "ĠksztaÅĤ": 2792,
      "owaÅĤa": 2793,
      "ÅĦskiej": 2794,
      "Ġodc": 2795,
      "ĠMe": 2796,
      "Ġobli": 2797,
      "Ġobraz": 2798,
      "Ġstwo": 2799,
      "Ġlud": 2800,
      "kÄħd": 2801,
      "Ġmatka": 2802,
      "Ġwiado": 2803,
      "ĠPiotr": 2804,
      "twa": 2805,
      "ĠsÅĤo": 2806,
      "niewaÅ¼": 2807,
      "Ġobywa": 2808,
      "Ġpole": 2809,
      "Ġuczy": 2810,
      "emy": 2811,
      "Ġoba": 2812,
      "ĠCy": 2813,
      "ĠmiÅĤoÅĽci": 2814,
      "ĠmieÄĩ": 2815,
      "ntÃ³w": 2816,
      "chaÄĩ": 2817,
      "Ġosoba": 2818,
      "scypli": 2819,
      "Ġpowodu": 2820,
      "ĠspoÅĤecznej": 2821,
      "nne": 2822,
      "tnoÅĽci": 2823,
      "Ġzmienia": 2824,
      "Ġoto": 2825,
      "liÄĩ": 2826,
      "Ġobu": 2827,
      "czasem": 2828,
      "Ġsyna": 2829,
      "Ġfinansowych": 2830,
      "Ġmamy": 2831,
      "Ġwniosek": 2832,
      "Informacje": 2833,
      "kerto": 2834,
      "90": 2835,
      "wokerto": 2836,
      "ĠprzykÅĤad": 2837,
      "Ġznale": 2838,
      "Ġczyli": 2839,
      "mentÃ³w": 2840,
      "Ġtajem": 2841,
      "Ġrazy": 2842,
      "Ġregiona": 2843,
      "Ġzawiera": 2844,
      "Ġemery": 2845,
      "stwie": 2846,
      "Ġdr": 2847,
      "ĠPur": 2848,
      "lony": 2849,
      "Ġtere": 2850,
      "Ġstat": 2851,
      "dzeniu": 2852,
      "Ġmiej": 2853,
      "ĠtrochÄĻ": 2854,
      "70": 2855,
      "PL": 2856,
      "mÄĻ": 2857,
      "ĠoÅĽ": 2858,
      "ĠtÄħ": 2859,
      "Ġucie": 2860,
      "wiÅĽcie": 2861,
      "ĠCa": 2862,
      "ĠIm": 2863,
      "west": 2864,
      "Ġcent": 2865,
      "ĠdziaÅĤalnoÅĽci": 2866,
      "Ġznajdu": 2867,
      "wencji": 2868,
      "Ġhistory": 2869,
      "33": 2870,
      "Ġzmie": 2871,
      "owski": 2872,
      "iaÅĤo": 2873,
      "Ġuch": 2874,
      "ĠKontroli": 2875,
      "Ġlisto": 2876,
      "ĠUE": 2877,
      "Ġramach": 2878,
      "Ġmiejscu": 2879,
      "Ġdobre": 2880,
      "Ġopowiada": 2881,
      "ĠKomisja": 2882,
      "Ġcywi": 2883,
      "Pra": 2884,
      "gz": 2885,
      "ÅĤowa": 2886,
      "nien": 2887,
      "jÄħÄĩ": 2888,
      "woju": 2889,
      "tur": 2890,
      "inte": 2891,
      "Ġcel": 2892,
      "Ġdyscypli": 2893,
      "Charakterystyka": 2894,
      "ĠGranicznej": 2895,
      "Ġdyrektor": 2896,
      "ckie": 2897,
      "mem": 2898,
      "sor": 2899,
      "tp": 2900,
      "wÃ³j": 2901,
      "ier": 2902,
      "Ġzja": 2903,
      "Ġone": 2904,
      "Ġotrzy": 2905,
      "Ġbowiem": 2906,
      "ĠdostÄĻp": 2907,
      "Ġprzepisy": 2908,
      "ĠmajÄħcych": 2909,
      "Ġstosuje": 2910,
      "ĠJadwi": 2911,
      "ĠsÅĤÃ³w": 2912,
      "Ġswej": 2913,
      "ĠsÅĤoÅĦca": 2914,
      "ĠnastÄĻpnie": 2915,
      "ĠuchylajÄħce": 2916,
      "Festiwale": 2917,
      "dne": 2918,
      "Ġ,": 2919,
      "Ġzde": 2920,
      "ĠpoÅĤo": 2921,
      "iÄĻki": 2922,
      "Ġniebie": 2923,
      "Ġprakty": 2924,
      "Ġswojego": 2925,
      "ciÄħga": 2926,
      "ĠciÄħgu": 2927,
      "Ġskar": 2928,
      "ĠRegu": 2929,
      "Czy": 2930,
      "tnych": 2931,
      "uje": 2932,
      "ĠosiÄħ": 2933,
      "Ġtemu": 2934,
      "Ġkwia": 2935,
      "Ġpoja": 2936,
      "ĠporzÄħd": 2937,
      "niach": 2938,
      "wala": 2939,
      "Ġana": 2940,
      "rÃ³t": 2941,
      "liwoÅĽÄĩ": 2942,
      "Ġczer": 2943,
      "Ġaktor": 2944,
      "Ġrodziny": 2945,
      "Pa": 2946,
      "Sz": 2947,
      "fo": 2948,
      "nij": 2949,
      "Å¼na": 2950,
      "Ġimienia": 2951,
      "Ġnadzie": 2952,
      "Ġbrze": 2953,
      "ÅĤaÅĤ": 2954,
      "Ġude": 2955,
      "Ġniech": 2956,
      "Ġwymia": 2957,
      "Ġprzekaza": 2958,
      "Ġprzekona": 2959,
      "czyz": 2960,
      "Ġteat": 2961,
      "ĠwzglÄĻd": 2962,
      "Ġduch": 2963,
      "laminu": 2964,
      "Ġwspom": 2965,
      "ve": 2966,
      "Ġwcale": 2967,
      "ĠwczeÅĽniej": 2968,
      "Ġograni": 2969,
      "Ġmego": 2970,
      "âĢľ": 2971,
      "ĠWiÄĻc": 2972,
      "Ġdzien": 2973,
      "ĠwedÅĤug": 2974,
      "ĠrÃ³Å¼nych": 2975,
      "Ġklasy": 2976,
      "ĠksiÄħÅ¼ÄĻ": 2977,
      "Ġâĺ": 2978,
      "Wi": 2979,
      "wej": 2980,
      "Ġne": 2981,
      "ownika": 2982,
      "Ġnaszej": 2983,
      "Ġporozu": 2984,
      "Ġwychowa": 2985,
      "jÄħÅĤ": 2986,
      "land": 2987,
      "Ġgrze": 2988,
      "Ġgar": 2989,
      "Ġ100": 2990,
      "ĠBi": 2991,
      "Ġnimi": 2992,
      "ciÄħÅ¼": 2993,
      "ROP": 2994,
      "ksztaÅĤ": 2995,
      "lnÄħ": 2996,
      "lacji": 2997,
      "Ġode": 2998,
      "ĠSe": 2999,
      "Ġmasz": 3000,
      "ĠGe": 3001,
      "biega": 3002,
      "chaj": 3003,
      "ĠpieniÄĻ": 3004,
      "sÅĤugi": 3005,
      "ĠmogÅĤa": 3006,
      "Ġdobry": 3007,
      "Ġfunkcjonowaniu": 3008,
      "ĠEUROP": 3009,
      "Ġdniem": 3010,
      "lan": 3011,
      "Ġroczne": 3012,
      "dziÅĤa": 3013,
      "niejsze": 3014,
      "ĠPoli": 3015,
      "Ġbur": 3016,
      "Ġwykorzysta": 3017,
      "Ġodpowiednio": 3018,
      "Ġopar": 3019,
      "ĠskoÅĦ": 3020,
      "thumb": 3021,
      "ĠpostÄĻpowania": 3022,
      "ĠÅ¼oÅĤnierzy": 3023,
      "EJSK": 3024,
      "ĠEUROPEJSK": 3025,
      "Ġcza": 3026,
      "Ġds": 3027,
      "Ġzas": 3028,
      "Ġzapo": 3029,
      "ÅĽciu": 3030,
      "ĠWa": 3031,
      "Ġnowo": 3032,
      "Ġ23": 3033,
      "ĠwziÄħ": 3034,
      "ĠzostaÅĤo": 3035,
      "ĠokrÄĻ": 3036,
      "miÄĻdzy": 3037,
      "Ġziem": 3038,
      "40": 3039,
      "gÃ³": 3040,
      "pÄĻ": 3041,
      "per": 3042,
      "ÅĤego": 3043,
      "Ġzmien": 3044,
      "Ġdrz": 3045,
      "ĠBÃ³g": 3046,
      "iaÅĤem": 3047,
      "ĠJed": 3048,
      "Ġlotnisko": 3049,
      "Ġzasady": 3050,
      "ĠszkoÅĤy": 3051,
      "ĠkrÃ³t": 3052,
      "ĠÅ»y": 3053,
      "Ma": 3054,
      "tna": 3055,
      "kazy": 3056,
      "ĠzaÅĤÄħ": 3057,
      "Ġszczy": 3058,
      "Ġtakim": 3059,
      "Ġstatu": 3060,
      "Ġwody": 3061,
      "gram": 3062,
      "Ġsyn": 3063,
      "ĠcaÅĤÄħ": 3064,
      "ĠPurwokerto": 3065,
      "Å¼u": 3066,
      "leÅĦ": 3067,
      "ĠSu": 3068,
      "ĠSej": 3069,
      "Ġprote": 3070,
      "ÅĦstw": 3071,
      "owoÅĽÄĩ": 3072,
      "ĠprzedsiÄĻ": 3073,
      "Ġrad": 3074,
      "ĠÅ¼yciu": 3075,
      "ing": 3076,
      "Ġpusty": 3077,
      "sÅĤawa": 3078,
      "Ġtrzech": 3079,
      "ĠkaÅ¼dym": 3080,
      "Ġlistopada": 3081,
      "krÄĻ": 3082,
      "Ã©": 3083,
      "nawia": 3084,
      "cyjny": 3085,
      "ĠmoÅ¼liwoÅĽci": 3086,
      "ĠduÅ¼y": 3087,
      "ĠuwagÄĻ": 3088,
      "ĠdecyzjÄĻ": 3089,
      "Ġwyrazy": 3090,
      "ransport": 3091,
      "Nocleg": 3092,
      "lb": 3093,
      "pia": 3094,
      "Ġsen": 3095,
      "Ġzwo": 3096,
      "stry": 3097,
      "Ġile": 3098,
      "miona": 3099,
      "Ġrozwi": 3100,
      "ĠpodrÃ³Å¼": 3101,
      "Ġstaro": 3102,
      "ĠGÅĤÃ³w": 3103,
      "ĠwojewÃ³dz": 3104,
      "ĠHe": 3105,
      "Ġsamym": 3106,
      "Ġmatki": 3107,
      "Ġwykonaw": 3108,
      "Ġzmiany": 3109,
      "Minister": 3110,
      "AS": 3111,
      "grze": 3112,
      "ĠÂ§": 3113,
      "Ġporu": 3114,
      "Ġposie": 3115,
      "Ġuzna": 3116,
      "ryto": 3117,
      "Ġrozm": 3118,
      "unda": 3119,
      "ank": 3120,
      "ĠjednÄħ": 3121,
      "ĠCho": 3122,
      "Ġpolski": 3123,
      "Ġruchu": 3124,
      "ĠplacÃ³w": 3125,
      "ĠWiel": 3126,
      "ENT": 3127,
      "Ġurlopu": 3128,
      "45": 3129,
      "va": 3130,
      "Å¼d": 3131,
      "Ġimieni": 3132,
      "czym": 3133,
      "dami": 3134,
      "turze": 3135,
      "Ġpozio": 3136,
      "NajbliÅ¼": 3137,
      "ĠmogÄĻ": 3138,
      "Ġchoro": 3139,
      "ĠPaweÅĤ": 3140,
      "Ġmeto": 3141,
      "ĠbezpieczeÅĦstwa": 3142,
      "wki": 3143,
      "Ġpocz": 3144,
      "ĠzaÅĤo": 3145,
      "ĠprzyjÄĻ": 3146,
      "Ġmor": 3147,
      "orem": 3148,
      "ĠDla": 3149,
      "ang": 3150,
      "Ġ22": 3151,
      "ĠPrzed": 3152,
      "Ġdrugiej": 3153,
      "ĠTrybunaÅĤ": 3154,
      "ĠÅºrÃ³d": 3155,
      "Ġbakter": 3156,
      "NA": 3157,
      "wego": 3158,
      "Ã¡": 3159,
      "Ã¶": 3160,
      "ĠskÅĤada": 3161,
      "ĠBu": 3162,
      "ĠBar": 3163,
      "ĠHi": 3164,
      "Ġpowiet": 3165,
      "dnienia": 3166,
      "ĠBoga": 3167,
      "szem": 3168,
      "ĠbÄħdÅº": 3169,
      "ĠwyÅĽwiet": 3170,
      "ĠKra": 3171,
      "Ġprzyby": 3172,
      "Ġnikt": 3173,
      "sach": 3174,
      "ĠMoÅ¼e": 3175,
      "ĠWiki": 3176,
      "Ġnazwi": 3177,
      "ĠzrobiÄĩ": 3178,
      "Ġakademic": 3179,
      "bÄĻd": 3180,
      "ĠwciÄħÅ¼": 3181,
      "chczas": 3182,
      "puszcza": 3183,
      "Ġdotychczas": 3184,
      "Ġprzedstawicie": 3185,
      "ĠsÅĤoÅĦce": 3186,
      "Ġdziecko": 3187,
      "âĨĳ": 3188,
      "zdy": 3189,
      "Ġsez": 3190,
      "stw": 3191,
      "ĠduÅ¼": 3192,
      "Ġpom": 3193,
      "nemu": 3194,
      "cio": 3195,
      "czyÅĤa": 3196,
      "Ġmorze": 3197,
      "ĠDzie": 3198,
      "infor": 3199,
      "Ġokresie": 3200,
      "Ġtwarzy": 3201,
      "cÅĤa": 3202,
      "dliwoÅĽci": 3203,
      "stemu": 3204,
      "Ġwyj": 3205,
      "ĠPrezyden": 3206,
      "Ġchy": 3207,
      "ĠmaÅĤo": 3208,
      "Ġstwier": 3209,
      "ĠDz": 3210,
      "ĠstaÅĤo": 3211,
      "čĠĊĊčĠĊĊčĠĊ": 3212,
      "ĠEuro": 3213,
      "Ġczasem": 3214,
      "ĠogÅĤo": 3215,
      "ĠpowiedziaÅĤ": 3216,
      "ĠsÅĤuÅ¼b": 3217,
      "Ġpochodzenia": 3218,
      "ĊÂłĊ": 3219,
      "Ġrozumie": 3220,
      "36": 3221,
      "LAM": 3222,
      "cznik": 3223,
      "Ġkart": 3224,
      "Ġnaszego": 3225,
      "niaÅĤ": 3226,
      "chodzÄħ": 3227,
      "Ġsprawach": 3228,
      "Ġpowietrz": 3229,
      "Ġodpowiedzi": 3230,
      "ĠPaÅĦstwa": 3231,
      "ĠgÅĤosowania": 3232,
      "Ġfilm": 3233,
      "29": 3234,
      "dro": 3235,
      "ĠpÅĤo": 3236,
      "Ġor": 3237,
      "Ġtre": 3238,
      "ĠzaczÄħÅĤ": 3239,
      "ĠKrak": 3240,
      "tural": 3241,
      "Ġmimo": 3242,
      "rzÄħc": 3243,
      "Ġokres": 3244,
      "Ġpowia": 3245,
      "ĠswÃ³j": 3246,
      "ÅĽciach": 3247,
      "ĠchcÄĻ": 3248,
      "ĠprzewodniczÄħ": 3249,
      "Ġjedynie": 3250,
      "ĠwzglÄĻ": 3251,
      "\".": 3252,
      "LL": 3253,
      "towej": 3254,
      "ĠbÅĤy": 3255,
      "ÅĤad": 3256,
      "ÅĤach": 3257,
      "Ġniewie": 3258,
      "Ġwydat": 3259,
      "ĠPor": 3260,
      "tyka": 3261,
      "olu": 3262,
      "ĠGer": 3263,
      "bio": 3264,
      "ĠwidziaÅĤ": 3265,
      "Ġprzede": 3266,
      "Ġwas": 3267,
      "ĠuÅ¼ywa": 3268,
      "Ġuwagi": 3269,
      "Ġsprzeda": 3270,
      "ĠMiasta": 3271,
      "trÃ³w": 3272,
      "ÅĤkow": 3273,
      "Ġzapom": 3274,
      "wicz": 3275,
      "piera": 3276,
      "ĠJan": 3277,
      "ciaÅ¼": 3278,
      "kreÅĽla": 3279,
      "grafi": 3280,
      "Ġsieci": 3281,
      "Ġserca": 3282,
      "Ġkolejowa": 3283,
      "ĠsiÅĤy": 3284,
      "ĠWewnÄĻtrznych": 3285,
      "eneral": 3286,
      "Ġocza": 3287,
      "Ġnap": 3288,
      "ĠzakoÅĦ": 3289,
      "Ġkontro": 3290,
      "zyka": 3291,
      "Ġpanie": 3292,
      "ĠzostaÅĤy": 3293,
      "ĠmoÅ¼li": 3294,
      "Ġchodzi": 3295,
      "Ġpatrzy": 3296,
      "Ġprzedstawia": 3297,
      "ARLAM": 3298,
      "Ġniniejszej": 3299,
      "ARLAMENT": 3300,
      "62": 3301,
      "Cz": 3302,
      "EM": 3303,
      "kowy": 3304,
      "Ġkwiet": 3305,
      "âĢĻ": 3306,
      "Ġbro": 3307,
      "Ġzau": 3308,
      "ĠnieszczÄĻ": 3309,
      "Ġstruk": 3310,
      "ĠmieÅĽcie": 3311,
      "Ġlinii": 3312,
      "Ġdanych": 3313,
      "nionych": 3314,
      "Ġstoli": 3315,
      "Ġrodzin": 3316,
      "Ġnadzwyczaj": 3317,
      "Ġprowincji": 3318,
      "Ġimieniny": 3319,
      "Ar": 3320,
      "Ġofi": 3321,
      "Ġklu": 3322,
      "ĠwyÅĤÄħ": 3323,
      "cer": 3324,
      "ĠPu": 3325,
      "Ġstacja": 3326,
      "ĠmiesiÄĻcy": 3327,
      "Ġnowe": 3328,
      "rint": 3329,
      "com": 3330,
      "ĠMarta": 3331,
      "Ġtakiego": 3332,
      "ĠKsiÄĻÅ¼ycu": 3333,
      "ĠwiÄĻkszo": 3334,
      "Ġjednostki": 3335,
      "ĠparÄĻ": 3336,
      "Ġelekt": 3337,
      "atoli": 3338,
      "Ġ1990": 3339,
      "Ġproduk": 3340,
      "Ġszybko": 3341,
      "Ġspecja": 3342,
      "*,": 3343,
      "ĠpÄĻ": 3344,
      "ĠudziaÅĤ": 3345,
      "Ã³wczas": 3346,
      "mite": 3347,
      "ĠMy": 3348,
      "pidÃ³w": 3349,
      "rzÄħdu": 3350,
      "Ġrekon": 3351,
      "bud": 3352,
      "198": 3353,
      "ĠciÄħg": 3354,
      "lityka": 3355,
      "ĠcaÅĤkowi": 3356,
      "ĠRegulaminu": 3357,
      "Ġâĺı": 3358,
      "Ra": 3359,
      "twie": 3360,
      "ĠÅ¼Äħ": 3361,
      "Ġnasze": 3362,
      "limat": 3363,
      "Ġprzepisa": 3364,
      "rum": 3365,
      "Ġrozpa": 3366,
      "lone": 3367,
      "Åºnie": 3368,
      "Ġspostrze": 3369,
      "nÄĻÅĤo": 3370,
      "Ġpozba": 3371,
      "Ġsystemu": 3372,
      "ĠpotÄĻ": 3373,
      "ĠdziaÅĤaÅĦ": 3374,
      "siaj": 3375,
      "Å»e": 3376,
      "ĠgÅĤÄĻbo": 3377,
      "44": 3378,
      "OM": 3379,
      "cka": 3380,
      "Ġple": 3381,
      "dziÄĻ": 3382,
      "Ġnarod": 3383,
      "Ġniema": 3384,
      "Ġkomunika": 3385,
      "Ġstary": 3386,
      "Ġwiecz": 3387,
      "Ġczo": 3388,
      "anta": 3389,
      "Ġ195": 3390,
      "nicjaty": 3391,
      "37": 3392,
      "ckim": 3393,
      "fer": 3394,
      "ote": 3395,
      "Ġwro": 3396,
      "ĠzwiÄĻk": 3397,
      "Ġoni": 3398,
      "Ġidzie": 3399,
      "Ġus": 3400,
      "Ġwyja": 3401,
      "Ġwybo": 3402,
      "Ġtek": 3403,
      "Ġnowych": 3404,
      "Å¼aÅĤ": 3405,
      "niony": 3406,
      "spek": 3407,
      "ĠjakieÅĽ": 3408,
      "Ġwiary": 3409,
      "jrzaÅĤ": 3410,
      "grafia": 3411,
      "widÅĤowoÅĽci": 3412,
      "RF": 3413,
      "Spo": 3414,
      "dra": 3415,
      "rwa": 3416,
      "zio": 3417,
      "Ġpart": 3418,
      "Ġwreszcie": 3419,
      "lina": 3420,
      "owano": 3421,
      "Ġwyro": 3422,
      "Ġtypu": 3423,
      "ĠpodrÃ³": 3424,
      "pisu": 3425,
      "mos": 3426,
      "Ġznalaz": 3427,
      "dopo": 3428,
      "Ġpozwo": 3429,
      "Ġprawdzi": 3430,
      "Ġstronie": 3431,
      "Ġsposob": 3432,
      "35": 3433,
      "Autobusem": 3434,
      "tnÄħ": 3435,
      "Ġwra": 3436,
      "Ġocze": 3437,
      "ĠmÃ³w": 3438,
      "kazu": 3439,
      "Ġzapro": 3440,
      "nomi": 3441,
      "ÅĦskim": 3442,
      "Ġpal": 3443,
      "pania": 3444,
      "Åºni": 3445,
      "rzaÅĤ": 3446,
      "ĠrzekÅĤa": 3447,
      "ĠKomisjÄĻ": 3448,
      "Ġjakiego": 3449,
      "ĠwÅĤasnoÅĽÄĩ": 3450,
      "Ġpowinien": 3451,
      "Wyjazd": 3452,
      "usr": 3453,
      "Ġstuden": 3454,
      "Ġproblem": 3455,
      "Ġkandydat": 3456,
      "dak": 3457,
      "ĠY": 3458,
      "Ġpr": 3459,
      "Ġsio": 3460,
      "ĠzastÄĻpuje": 3461,
      "szyÄĩ": 3462,
      "Ġmojej": 3463,
      "unkÃ³w": 3464,
      "Ġsprawy": 3465,
      "mencie": 3466,
      "ĠgÅĤowy": 3467,
      "ersji": 3468,
      "logii": 3469,
      "Ġlotniczym": 3470,
      "ĠjesteÅĽ": 3471,
      "49": 3472,
      "kowym": 3473,
      "ÅĽÅĦ": 3474,
      "godnie": 3475,
      "Ġwymie": 3476,
      "Ġwynosi": 3477,
      "Ġgry": 3478,
      "ĠPe": 3479,
      "pozy": 3480,
      "Ġpara": 3481,
      "Ġinstytu": 3482,
      "bili": 3483,
      "Ġram": 3484,
      "menty": 3485,
      "Ġ31": 3486,
      "skona": 3487,
      "ĠĠĠĠ": 3488,
      "ezpieczeÅĦstwa": 3489,
      "Ġjakiej": 3490,
      "Ġczerw": 3491,
      "Ġwolnomu": 3492,
      "ĠkrÃ³l": 3493,
      "ĠPipidÃ³w": 3494,
      "interes": 3495,
      "Da": 3496,
      "scho": 3497,
      "ĠÃ³w": 3498,
      "Ġzbior": 3499,
      "Ġzbyt": 3500,
      "che": 3501,
      "Ġorze": 3502,
      "ĠpomyÅĽ": 3503,
      "kaz": 3504,
      "Ġwypo": 3505,
      "Ġszlach": 3506,
      "Ġwoli": 3507,
      "Ġeuropej": 3508,
      "ĠPolska": 3509,
      "Ġzwraca": 3510,
      "Ġfinansowego": 3511,
      "ĠkoÅĦc": 3512,
      "Ġpoprzez": 3513,
      "ĠNajwyÅ¼": 3514,
      "bardziej": 3515,
      "Ġburmist": 3516,
      "uro": 3517,
      "ĠrzÄħd": 3518,
      "szÄħc": 3519,
      "Ġzaczyna": 3520,
      "Ġniewy": 3521,
      "reta": 3522,
      "ater": 3523,
      "Ġagencji": 3524,
      "Ġameryka": 3525,
      "dyn": 3526,
      "Å¼ynie": 3527,
      "Ġmoim": 3528,
      "ÅĤuÅ¼": 3529,
      "ĠDob": 3530,
      "Ġmieli": 3531,
      "Ġrady": 3532,
      "dzone": 3533,
      "Ġpowierz": 3534,
      "Ġmogli": 3535,
      "Ġliczb": 3536,
      "Ġumowy": 3537,
      "ĠszczÄĻÅĽli": 3538,
      "ĠmieszkaÅĦcÃ³w": 3539,
      "Ġkwietnia": 3540,
      "Te": 3541,
      "dny": 3542,
      "tnego": 3543,
      "czem": 3544,
      "chno": 3545,
      "Ġdokona": 3546,
      "ĠumoÅ¼li": 3547,
      "cent": 3548,
      "ĠÅĽre": 3549,
      "Ġjedna": 3550,
      "bija": 3551,
      "ĠleÅ¼Äħ": 3552,
      "iofa": 3553,
      "ĠMaria": 3554,
      "ĠdotyczÄħcych": 3555,
      "ĠtytuÅĤu": 3556,
      "share": 3557,
      "Ġobywate": 3558,
      "NajbliÅ¼szym": 3559,
      "47": 3560,
      "Ġzni": 3561,
      "Ġdowie": 3562,
      "Ġpozy": 3563,
      "ĠpomiÄĻdzy": 3564,
      "les": 3565,
      "Ġbrak": 3566,
      "Ġwypowie": 3567,
      "Ġodw": 3568,
      "ĠSÄħ": 3569,
      "obil": 3570,
      "ĠBra": 3571,
      "zyj": 3572,
      "ĠJu": 3573,
      "Ġstru": 3574,
      "ĠmiÅĤoÅĽÄĩ": 3575,
      "ĠGar": 3576,
      "niejszy": 3577,
      "Ġwidzi": 3578,
      "rans": 3579,
      "rancu": 3580,
      "stÄħpie": 3581,
      "ĠtÄĻsk": 3582,
      "rÃ³ciÄĩ": 3583,
      "ĠwartoÅĽÄĩ": 3584,
      "Ġhono": 3585,
      "Ġportem": 3586,
      "ĠpowaÅ¼": 3587,
      "miaÅĤ": 3588,
      "wnÄħ": 3589,
      "Ġ/": 3590,
      "niego": 3591,
      "stru": 3592,
      "szak": 3593,
      "Ġkwest": 3594,
      "Ġnasz": 3595,
      "Ġzao": 3596,
      "Ġutrzy": 3597,
      "Ġnieco": 3598,
      "torzy": 3599,
      "Ġodby": 3600,
      "rÃ³b": 3601,
      "Ġwielko": 3602,
      "ĠKon": 3603,
      "čĠĊĊčĠĊĊčĠĊĊčĠĊ": 3604,
      "Ġreli": 3605,
      "glÄħd": 3606,
      "ĠpiÄĻÄĩ": 3607,
      "ĠzadaÅĦ": 3608,
      "ĠkaÅ¼dego": 3609,
      "ĠznaleÅº": 3610,
      "EC": 3611,
      "Wie": 3612,
      "brze": 3613,
      "zak": 3614,
      "min": 3615,
      "Ġkol": 3616,
      "Ġcu": 3617,
      "Ġpis": 3618,
      "Ġforma": 3619,
      "Ġzobaczy": 3620,
      "ĠdÅĤugi": 3621,
      "Ġjednostek": 3622,
      "ĠnieruchomoÅĽci": 3623,
      "Ġdyscyplinar": 3624,
      "Znaj": 3625,
      "Ġtrak": 3626,
      "tacji": 3627,
      "ĠgwaÅĤ": 3628,
      "ÅĦcu": 3629,
      "ĠRu": 3630,
      "Ġcztery": 3631,
      "Ġmili": 3632,
      "ĠGa": 3633,
      "ion": 3634,
      "Ġduszy": 3635,
      "Ġkrzyk": 3636,
      "Ġotrzymuje": 3637,
      "Wo": 3638,
      "zja": 3639,
      "Å¹rÃ³d": 3640,
      "stÃ³w": 3641,
      "Ġfundu": 3642,
      "bieg": 3643,
      "Ġ2019": 3644,
      "Ġzostanie": 3645,
      "Ġdobro": 3646,
      "najmniej": 3647,
      "Ġprzyjacie": 3648,
      "Ġczerwo": 3649,
      "iÄĩ": 3650,
      "Ġper": 3651,
      "Ġsa": 3652,
      "ÄħÅ¼": 3653,
      "nieÅĽÄĩ": 3654,
      "Ġdowo": 3655,
      "Ġnieu": 3656,
      "Ġodrze": 3657,
      "ĠBie": 3658,
      "ĠgorÄħ": 3659,
      "Ġrez": 3660,
      "moÅĽÄĩ": 3661,
      "unkcj": 3662,
      "ĠrÃ³Å¼ne": 3663,
      "ĠnastÄĻpujÄħce": 3664,
      "Ġwychowaw": 3665,
      "lbrzy": 3666,
      "rzeniu": 3667,
      "ÅĤoby": 3668,
      "nom": 3669,
      "owana": 3670,
      "Å¼eniem": 3671,
      "czyk": 3672,
      "ĠgÅĤu": 3673,
      "ÅĽciÄĩ": 3674,
      "tuje": 3675,
      "ĠTen": 3676,
      "sio": 3677,
      "Ġteryto": 3678,
      "Ġprofe": 3679,
      "niejszych": 3680,
      "Ġspokoj": 3681,
      "Ġnajlep": 3682,
      "ĠzostaÄĩ": 3683,
      "ĠrozpoczÄĻ": 3684,
      "Ġpolskich": 3685,
      "ĠpracÄĻ": 3686,
      "Ġgmina": 3687,
      "Ġkomisji": 3688,
      "Ġczerwca": 3689,
      "Sta": 3690,
      "ciaÅĤ": 3691,
      "fra": 3692,
      "wne": 3693,
      "Ġemi": 3694,
      "Å¼dy": 3695,
      "Ġdra": 3696,
      "Ġtar": 3697,
      "Ġtobie": 3698,
      "liza": 3699,
      "kazuje": 3700,
      "Ġzabra": 3701,
      "Ġzarzu": 3702,
      "Ġzainteres": 3703,
      "Ġchcia": 3704,
      "Ġinnymi": 3705,
      "dom": 3706,
      "del": 3707,
      "1046": 3708,
      "Polskie": 3709,
      "ĠsiÅĤ": 3710,
      "Ġpostaci": 3711,
      "ĠksiÄĻcia": 3712,
      "Ġtemat": 3713,
      "ĠpoczÄħtku": 3714,
      "Ġhandlu": 3715,
      "ĠwzglÄĻdu": 3716,
      "mÃ³wi": 3717,
      "ografia": 3718,
      "towych": 3719,
      "niwer": 3720,
      "czkÄĻ": 3721,
      "ĠnastÄħpi": 3722,
      "ÅĤaszcza": 3723,
      "Ġzaga": 3724,
      "Ġkoch": 3725,
      "Ġkomu": 3726,
      "ĠmojÄħ": 3727,
      "Ġ(âĢ¦": 3728,
      "ĠdziÄĻki": 3729,
      "Ġprzezna": 3730,
      "Ġspoj": 3731,
      "ĠNiech": 3732,
      "ĠcaÅĤe": 3733,
      "ĠBoÅ¼e": 3734,
      "Ġzdaje": 3735,
      "Ġzrozu": 3736,
      "ĠzwÅĤaszcza": 3737,
      "Ġkoniec": 3738,
      "ĠjakÄħÅĽ": 3739,
      "ĠAntoni": 3740,
      "Å¹rÃ³dÅĤo": 3741,
      "ks": 3742,
      "wny": 3743,
      "ĠskÅĤa": 3744,
      "owia": 3745,
      "kawe": 3746,
      "dzien": 3747,
      "ĠKto": 3748,
      "ĠKiedy": 3749,
      "lona": 3750,
      "lonych": 3751,
      "Ġobrach": 3752,
      "ĠJaku": 3753,
      "czÄħc": 3754,
      "szczenia": 3755,
      "szczegÃ³l": 3756,
      "Ġsym": 3757,
      "onÃ³w": 3758,
      "Naj": 3759,
      "Ġnor": 3760,
      "rÃ³wna": 3761,
      "Ġpierwszej": 3762,
      "ĠszczegÃ³lnie": 3763,
      "Ġkobieta": 3764,
      "ĠpaÅĦstwowej": 3765,
      "Ġwskazano": 3766,
      "ĠwzglÄĻdem": 3767,
      "Ġbakteriofa": 3768,
      "59": 3769,
      "ckiej": 3770,
      "ml": 3771,
      "towe": 3772,
      "Ġilo": 3773,
      "listy": 3774,
      "ĠdoÅĽwiad": 3775,
      "ret": 3776,
      "ÅĤuje": 3777,
      "ĠAda": 3778,
      "czaÅĤ": 3779,
      "Ġprag": 3780,
      "siÄĩ": 3781,
      "Ġnum": 3782,
      "Ġlepiej": 3783,
      "dzonych": 3784,
      "Ġdeleg": 3785,
      "groma": 3786,
      "Ġgranicy": 3787,
      "Ġprojekt": 3788,
      "Ġatmos": 3789,
      "Ġrodzaju": 3790,
      "Ġstopnia": 3791,
      "Ġobrachunk": 3792,
      ");": 3793,
      "38": 3794,
      "Ni": 3795,
      "gÃ³ÅĤ": 3796,
      "sÅĤo": 3797,
      "Å¼noÅĽci": 3798,
      "ĠponiewaÅ¼": 3799,
      "Ġpoinfor": 3800,
      "iÄĻku": 3801,
      "ĠurzÄĻd": 3802,
      "Ġnieraz": 3803,
      "wano": 3804,
      "Ġodniesie": 3805,
      "tycznych": 3806,
      "ĠSÅĤoÅĦ": 3807,
      "gami": 3808,
      "ĠcÃ³r": 3809,
      "ĠpodjÄĻ": 3810,
      "prawy": 3811,
      "ÄĻdko": 3812,
      "ĠNau": 3813,
      "Ġlep": 3814,
      "Ġ196": 3815,
      "Å¼ony": 3816,
      "ĠstronÄĻ": 3817,
      "ĠpeÅĤni": 3818,
      "Ġwyrazami": 3819,
      "Ġoferu": 3820,
      "Ġpytanie": 3821,
      "ĠÅĽwiadczenia": 3822,
      "Ġskute": 3823,
      "Ġblisko": 3824,
      "Ġdaleko": 3825,
      "Autor": 3826,
      "dna": 3827,
      "Ġwam": 3828,
      "ĠzobowiÄħ": 3829,
      "ĠuwzglÄĻd": 3830,
      "ĠwyglÄħda": 3831,
      "ĠKu": 3832,
      "ĠmaÅĤy": 3833,
      "ĠJo": 3834,
      "ĠdaÅĤ": 3835,
      "ĠÅ¼ywo": 3836,
      "Ġdotyczy": 3837,
      "ĠÅĽrodowi": 3838,
      "prost": 3839,
      "feren": 3840,
      "spodarka": 3841,
      "ĠktoÅĽ": 3842,
      "Ġtelewi": 3843,
      "Ġobok": 3844,
      "ĠniektÃ³rych": 3845,
      "Ġdrzwi": 3846,
      "ĠpodrÃ³Å¼y": 3847,
      "eli": 3848,
      "it": 3849,
      "tkiem": 3850,
      "Ġwchodzi": 3851,
      "Ġzim": 3852,
      "rab": 3853,
      "Ġtow": 3854,
      "Ġnaszych": 3855,
      "ĠpoÅ¼y": 3856,
      "Ġuspo": 3857,
      "Ġutrzyma": 3858,
      "Ġukry": 3859,
      "Å¼eÅĦ": 3860,
      "czer": 3861,
      "szyÅĤ": 3862,
      "ĠÅĽle": 3863,
      "Ġinnego": 3864,
      "ĠnajwyÅ¼": 3865,
      "ĠNiem": 3866,
      "Ġener": 3867,
      "Ġzdoby": 3868,
      "Ġtwoje": 3869,
      "Ġprogramu": 3870,
      "ĠobowiÄħzu": 3871,
      "ĠKsiÄĻÅ¼yc": 3872,
      "Ġpokoju": 3873,
      "Ġoperacji": 3874,
      "Ġtajemni": 3875,
      "39": 3876,
      "Mar": 3877,
      "Ġ.": 3878,
      "ĠÅĤu": 3879,
      "Ġspyta": 3880,
      "dania": 3881,
      "ciej": 3882,
      "staw": 3883,
      "Ġmocy": 3884,
      "Ġcier": 3885,
      "Ġrynku": 3886,
      "Ġoczyma": 3887,
      "Ġkobiety": 3888,
      "Ġpytania": 3889,
      "ĠÅ»e": 3890,
      "Ġpiersi": 3891,
      "Ġwyniku": 3892,
      "ĠWspÃ³l": 3893,
      "Ġchyba": 3894,
      "Ġzmieni": 3895,
      "szt": 3896,
      "Ġkwa": 3897,
      "dziela": 3898,
      "ĠkoÅĤo": 3899,
      "Ġkont": 3900,
      "mujÄħ": 3901,
      "ĠZjedno": 3902,
      "ĠCza": 3903,
      "Ġstanu": 3904,
      "ĠwidzÄĻ": 3905,
      "Äħcego": 3906,
      "Ġkonsu": 3907,
      "Ġstanowiska": 3908,
      "Ġprzedstawio": 3909,
      "ĠkoÅĦca": 3910,
      "Ġstosunku": 3911,
      "ĠzakÅĤadÃ³w": 3912,
      "Znajduje": 3913,
      "unkcjonariu": 3914,
      "OT": 3915,
      "Ob": 3916,
      "Ġzbro": 3917,
      "Ġolbrzy": 3918,
      "Ġpokry": 3919,
      "Ġwys": 3920,
      "ÅĽciÃ³ÅĤ": 3921,
      "ĠWszyst": 3922,
      "ĠKrzy": 3923,
      "ĠtysiÄĻcy": 3924,
      "ĠObro": 3925,
      "ĠGdzie": 3926,
      "ĠÅ¼yje": 3927,
      "Ġboh": 3928,
      "cyjnym": 3929,
      "Ġjaka": 3930,
      "Ġumar": 3931,
      "ĠkoÅĦcu": 3932,
      "ĠtwÃ³j": 3933,
      "Ġuroczy": 3934,
      "ÅĽcioÅĤa": 3935,
      "ckich": 3936,
      "Ġpia": 3937,
      "ĠpÃ³j": 3938,
      "Ġswe": 3939,
      "Ġswych": 3940,
      "ĠzgÅĤo": 3941,
      "Ġwyob": 3942,
      "Ġwybu": 3943,
      "tyczne": 3944,
      "ĠSer": 3945,
      "dziesiÄħ": 3946,
      "ĠAnd": 3947,
      "ĠÅĽcia": 3948,
      "Ġpodmio": 3949,
      "Ġtechni": 3950,
      "bliote": 3951,
      "Ġleka": 3952,
      "Ġhistor": 3953,
      "....": 3954,
      "rÃ³wnowa": 3955,
      "ĠopÅĤa": 3956,
      "ĠcaÅĤej": 3957,
      "Ġtrwa": 3958,
      "entral": 3959,
      "ĠzwierzÄĻ": 3960,
      "Ġulicy": 3961,
      "ĠprzysÅĤuguje": 3962,
      "80": 3963,
      "Li": 3964,
      "Nr": 3965,
      "mer": 3966,
      "cznymi": 3967,
      "naczej": 3968,
      "Ġmobil": 3969,
      "Ġkwo": 3970,
      "komunika": 3971,
      "tomiast": 3972,
      "por": 3973,
      "czek": 3974,
      "Ġniko": 3975,
      "Ġ27": 3976,
      "bach": 3977,
      "Ġtymczasem": 3978,
      "jÄħcymi": 3979,
      "Ġhu": 3980,
      "Ġustawie": 3981,
      "ĠgÅĤowÄħ": 3982,
      "Ġwykorzy": 3983,
      "ĠbÄĻdziesz": 3984,
      "Ġseria": 3985,
      "Ġzdrowia": 3986,
      "ĠspÃ³ÅĤ": 3987,
      "Ġfinansowe": 3988,
      "Ġtrady": 3989,
      "Ġudziela": 3990,
      "ratia": 3991,
      "dopodob": 3992,
      "Ser": 3993,
      "rzÃ³d": 3994,
      "Ġkatoli": 3995,
      "Ġnatomiast": 3996,
      "ĠposÅĤa": 3997,
      "len": 3998,
      "Ġzasta": 3999,
      "mion": 4000,
      "ĠWÅĤa": 4001,
      "dzieli": 4002,
      "Ġcharak": 4003,
      "zasa": 4004,
      "miar": 4005,
      "Ġraczej": 4006,
      "ĠÅ¼yÄĩ": 4007,
      "Ġloty": 4008,
      "Ġsamego": 4009,
      "Ġ50": 4010,
      "ĠwskaÅº": 4011,
      "ĠdotyczÄħcego": 4012,
      "Ġpowinny": 4013,
      "ĠkaÅ¼dej": 4014,
      "Ġzjawi": 4015,
      "Ġcharakter": 4016,
      "31": 4017,
      "bel": 4018,
      "iÅĤ": 4019,
      "Ġdar": 4020,
      "Ġnaru": 4021,
      "Ġpokaza": 4022,
      "ryty": 4023,
      "Ġam": 4024,
      "Ġkolo": 4025,
      "ĠAu": 4026,
      "ĠÅĽw": 4027,
      "Ġcharakte": 4028,
      "Ġobra": 4029,
      "pracy": 4030,
      "ĠtakÄħ": 4031,
      "ĠOj": 4032,
      "ĠOr": 4033,
      "Ġnu": 4034,
      "dnich": 4035,
      "Ġrach": 4036,
      "Ġpozwala": 4037,
      "dzony": 4038,
      "ĠpuÅĤkow": 4039,
      "ĠRadzie": 4040,
      "ĠdÅĤugie": 4041,
      "tychmiast": 4042,
      "Ġpublicznej": 4043,
      "Ġpotrzeby": 4044,
      "starcza": 4045,
      "ĠzwiÄħzane": 4046,
      "Ġwypadku": 4047,
      "Ġochrony": 4048,
      "ĠmusiaÅĤ": 4049,
      "ĠprÄĻdko": 4050,
      "!âĢ¦": 4051,
      "Al": 4052,
      "Ġspad": 4053,
      "ĠspytaÅĤ": 4054,
      "nim": 4055,
      "Ġnapisa": 4056,
      "Ġpopu": 4057,
      "owanej": 4058,
      "mil": 4059,
      "ĠSkar": 4060,
      "rÃ³j": 4061,
      "gach": 4062,
      "ĠBud": 4063,
      "Ġwielo": 4064,
      "ĠKomenda": 4065,
      "torÃ³w": 4066,
      "ĠHistoria": 4067,
      "Ġpowro": 4068,
      "siÄħce": 4069,
      "Ġsama": 4070,
      "Ġpotra": 4071,
      "Ġskle": 4072,
      "Ġzdol": 4073,
      "ĠswÄħ": 4074,
      "Ġorganizacji": 4075,
      "ĠPraw": 4076,
      "Ġchcesz": 4077,
      "ĠczynnoÅĽci": 4078,
      "ĠzobowiÄħza": 4079,
      "dniu": 4080,
      "ina": 4081,
      "Â°": 4082,
      "naÅĽcie": 4083,
      "owemu": 4084,
      "ciÅĤa": 4085,
      "Ġniespo": 4086,
      "Ġniebo": 4087,
      "waj": 4088,
      "ĠSprawie": 4089,
      "gania": 4090,
      "jach": 4091,
      "Ġobwo": 4092,
      "dukacji": 4093,
      "Ġwier": 4094,
      "ĠDu": 4095,
      "ĠrÄħ": 4096,
      "2018": 4097,
      "ÄħcÄħ": 4098,
      "Ġkur": 4099,
      "ĠmÃ³wiÄĩ": 4100,
      "Ġformie": 4101,
      "Ġostate": 4102,
      "III": 4103,
      "ĠpoÅĽwiÄĻ": 4104,
      "ĠMinistrÃ³w": 4105,
      "100": 4106,
      "GO": 4107,
      "jnych": 4108,
      "nieÅĦ": 4109,
      "Ġpolega": 4110,
      "ÅĽciÅĤ": 4111,
      "Ġodwa": 4112,
      "ĠSto": 4113,
      "ĠchÄĻ": 4114,
      "siÄħc": 4115,
      "stym": 4116,
      "Ġznaczenie": 4117,
      "ĠwziÄĻ": 4118,
      "Ġsierp": 4119,
      "Å¼one": 4120,
      "ĠchociaÅ¼": 4121,
      "ĠKaro": 4122,
      "parta": 4123,
      "Ġizby": 4124,
      "Ġoczach": 4125,
      "\")": 4126,
      "Kiedy": 4127,
      "La": 4128,
      "pÃ³w": 4129,
      "plo": 4130,
      "wski": 4131,
      "ĠzÅĤ": 4132,
      "Ġopowie": 4133,
      "ĠkÄħ": 4134,
      "Ġnatychmiast": 4135,
      "rzem": 4136,
      "kaÄĩ": 4137,
      "Ġdoli": 4138,
      "ĠupÅĤy": 4139,
      "ĠusÅĤy": 4140,
      "resie": 4141,
      "Ġodleg": 4142,
      "skar": 4143,
      "ĠGeneral": 4144,
      "ĠreÅ¼y": 4145,
      "cjach": 4146,
      "rowane": 4147,
      "cyjna": 4148,
      "rÃ³wno": 4149,
      "Ġstanowisko": 4150,
      "ĠsÅĤowo": 4151,
      "Ġliczba": 4152,
      "Ġzwykle": 4153,
      "Ġwprowadza": 4154,
      "ĠrobiÄĩ": 4155,
      "ĠFranci": 4156,
      "Statkiem": 4157,
      "ĠGarro": 4158,
      "(\"": 4159,
      "42": 4160,
      "An": 4161,
      "dowo": 4162,
      "kla": 4163,
      "kowego": 4164,
      "kÃ³j": 4165,
      "zÃ³w": 4166,
      "ĠzÅĤa": 4167,
      "Å¼ona": 4168,
      "Ġotwo": 4169,
      "rocÅĤa": 4170,
      "Ġimieniu": 4171,
      "Ġnag": 4172,
      "owali": 4173,
      "ĠwystÄħpie": 4174,
      "ĠgÄĻ": 4175,
      "ĠPre": 4176,
      "pod": 4177,
      "caÅĤ": 4178,
      "ĠciaÅĤa": 4179,
      "ĠcÃ³Å¼": 4180,
      "ĠCze": 4181,
      "stoÅĽci": 4182,
      "ĠLud": 4183,
      "suwa": 4184,
      "Ġweso": 4185,
      "Ġwielki": 4186,
      "Ġtakiej": 4187,
      "resztÄħ": 4188,
      "ĠzwyciÄĻ": 4189,
      "Ġhandl": 4190,
      "ĠprzedsiÄĻbior": 4191,
      "ĠduÅ¼o": 4192,
      "Ġdelegowane": 4193,
      "71": 4194,
      "fie": 4195,
      "ĠwÃ³wczas": 4196,
      "Ã³ki": 4197,
      "Ġinicjaty": 4198,
      "rzej": 4199,
      "Ġniedo": 4200,
      "ĠPat": 4201,
      "wiera": 4202,
      "ĠÅĽla": 4203,
      "Ġinfor": 4204,
      "Ġ21": 4205,
      "nter": 4206,
      "Ġczyta": 4207,
      "rÄĻb": 4208,
      "ĠpowtÃ³": 4209,
      "ĠWybor": 4210,
      "ĠrÃ³wno": 4211,
      "Ġorgan": 4212,
      "Ġ53": 4213,
      "Ġsercu": 4214,
      "ĠchÅĤopiec": 4215,
      "ĠniezbÄĻd": 4216,
      "ĠwyÅĽwietla": 4217,
      "frastruk": 4218,
      "Ba": 4219,
      "nnik": 4220,
      "skÃ³w": 4221,
      "ster": 4222,
      "ĠdÅĤo": 4223,
      "ĠbÅĤo": 4224,
      "ĠzakÅĤad": 4225,
      "ĠzakÅĤada": 4226,
      "ĠzarÃ³wno": 4227,
      "Ġubra": 4228,
      "Ġniemie": 4229,
      "Ġautobu": 4230,
      "cep": 4231,
      "wodniczÄħ": 4232,
      "Ġodbywa": 4233,
      "ĠKar": 4234,
      "Ġtys": 4235,
      "orga": 4236,
      "Ġrozwoju": 4237,
      "Ġpodlega": 4238,
      "ĠobjÄĻ": 4239,
      "wymi": 4240,
      "cjami": 4241,
      "Ġkapita": 4242,
      "ring": 4243,
      "bliÅ¼u": 4244,
      "Ġstrate": 4245,
      "Ġzaledwie": 4246,
      "ĠpamiÄĻci": 4247,
      "Ġprzygotowa": 4248,
      "Ġstraszli": 4249,
      "ĠTomasz": 4250,
      "âīĪâīĪâīĪâīĪ": 4251,
      "Ġsytuacji": 4252,
      "ĠZdrowie": 4253,
      "Ġwynagrodzenia": 4254,
      "Ġmateria": 4255,
      "60": 4256,
      "LI": 4257,
      "bezpie": 4258,
      "krzy": 4259,
      "lnia": 4260,
      "naÅĤu": 4261,
      "szczo": 4262,
      "Ġnaro": 4263,
      "ĠpobliÅ¼u": 4264,
      "rzeÅĦ": 4265,
      "ĠdoszÅĤo": 4266,
      "Ġul": 4267,
      "Ġwyrzu": 4268,
      "ĠPÃ³ÅĤ": 4269,
      "Ġodwie": 4270,
      "Ġodkry": 4271,
      "ĠTrze": 4272,
      "pio": 4273,
      "Ġpali": 4274,
      "pieÅĦ": 4275,
      "Ġinny": 4276,
      "Ġnajbardziej": 4277,
      "Ġefek": 4278,
      "ĠFi": 4279,
      "ĠHen": 4280,
      "Ġpowietrze": 4281,
      "Ġsamej": 4282,
      "Ġznajo": 4283,
      "Ġplan": 4284,
      "ĠliczbÄĻ": 4285,
      "ĠzawoÅĤaÅĤ": 4286,
      "rzony": 4287,
      "ĠchÅĤopca": 4288,
      "ĠÅĽwiadczeÅĦ": 4289,
      "ĠProkuratury": 4290,
      "ĠGeografia": 4291,
      "ĠprzewodniczÄħcego": 4292,
      "JA": 4293,
      "Kto": 4294,
      "Zna": 4295,
      "dowanie": 4296,
      "Ġpowy": 4297,
      "Ġpsy": 4298,
      "Ġwraca": 4299,
      "stej": 4300,
      "racji": 4301,
      "Ġdek": 4302,
      "rob": 4303,
      "ler": 4304,
      "Ġzap": 4305,
      "Ġzatem": 4306,
      "Ġan": 4307,
      "Ġodez": 4308,
      "Ġfo": 4309,
      "ĠBe": 4310,
      "ĠBezpieczeÅĦstwa": 4311,
      "lome": 4312,
      "ĠZe": 4313,
      "ĠmiaÅĤy": 4314,
      "Ġlos": 4315,
      "dzono": 4316,
      "ĠsÅĤucha": 4317,
      "ĠszczegÃ³ÅĤ": 4318,
      "giel": 4319,
      "Ġdzisiaj": 4320,
      "Ġwspar": 4321,
      "szony": 4322,
      "ĠÅĽrodki": 4323,
      "diÃ³w": 4324,
      "ĠusÅĤugi": 4325,
      "ĠCzÅĤowie": 4326,
      "Ġdziennika": 4327,
      "ĠObrony": 4328,
      "34": 4329,
      "77": 4330,
      "We": 4331,
      "dow": 4332,
      "gry": 4333,
      "Ã¼": 4334,
      "Ġ<": 4335,
      "ieÅĦ": 4336,
      "ĠskÅĤad": 4337,
      "Ġmej": 4338,
      "szli": 4339,
      "szpa": 4340,
      "ĠkrÄĻ": 4341,
      "Ġnaszym": 4342,
      "Ġnazywa": 4343,
      "ĠpoÅĤ": 4344,
      "Ġdoskona": 4345,
      "pomina": 4346,
      "ĠKlimat": 4347,
      "orÄħ": 4348,
      "Ġfak": 4349,
      "ĠBer": 4350,
      "Ġpas": 4351,
      "ĠinÅ¼ynie": 4352,
      "ĠGEM": 4353,
      "Ġrepre": 4354,
      "biÄĩ": 4355,
      "ĠmuszÄħ": 4356,
      "lub": 4357,
      "Ġzespo": 4358,
      "ĠcaÅĤa": 4359,
      "ĠgÅĤoÅĽ": 4360,
      "Ġzasadach": 4361,
      "ĠWedÅĤug": 4362,
      "ĠStani": 4363,
      "ĠByÅĤ": 4364,
      "Ġobecnie": 4365,
      "ĠWarszawy": 4366,
      "ĠPrezydenta": 4367,
      "SA": 4368,
      "WiÄĻc": 4369,
      "dii": 4370,
      "kÅĤo": 4371,
      "czno": 4372,
      "Å¼ne": 4373,
      "Ġinaczej": 4374,
      "Ġzawar": 4375,
      "Ġmoich": 4376,
      "Ġfrancu": 4377,
      "ĠZak": 4378,
      "ĠZda": 4379,
      "ĠOn": 4380,
      "Ġministra": 4381,
      "Ġlitera": 4382,
      "ĠwidzieÄĩ": 4383,
      "ĠpieÅĽni": 4384,
      "ĠcaÅĤym": 4385,
      "Ġpowszech": 4386,
      "ĠJeÅ¼eli": 4387,
      "ĠmÃ³wiÄħc": 4388,
      "Ġruch": 4389,
      "Ġpomoc": 4390,
      "ĠwejÅĽcia": 4391,
      "ĊĠĊĠ": 4392,
      "ĠwydatkÃ³w": 4393,
      "wnÄħtrz": 4394,
      "car": 4395,
      "tli": 4396,
      "tnym": 4397,
      "Ġzm": 4398,
      "emo": 4399,
      "Ġnieo": 4400,
      "noszÄħ": 4401,
      "czyli": 4402,
      "stawa": 4403,
      "Ġchwy": 4404,
      "Ġrozko": 4405,
      "mujÄħc": 4406,
      "ĠCi": 4407,
      "Ġinnym": 4408,
      "Ġminu": 4409,
      "ĠwiÄħ": 4410,
      "Ġznaczy": 4411,
      "Ġustaw": 4412,
      "Ġorganiz": 4413,
      "Ġprawda": 4414,
      "Ġ70": 4415,
      "Ġnauczyciela": 4416,
      "Ġrzeczywi": 4417,
      "Ġprojek": 4418,
      "ĠPolicji": 4419,
      "jÃ³w": 4420,
      "nnych": 4421,
      "Ġzdzi": 4422,
      "Ġkrew": 4423,
      "ĠpoÅĤoÅ¼o": 4424,
      "lika": 4425,
      "licza": 4426,
      "aki": 4427,
      "wany": 4428,
      "ati": 4429,
      "tarza": 4430,
      "torze": 4431,
      "ĠkoÅĽcie": 4432,
      "ĠAch": 4433,
      "Ġpodat": 4434,
      "ĠIII": 4435,
      "nÄĻÅĤy": 4436,
      "Ġbog": 4437,
      "ÂłÂłĊĠĊĠ": 4438,
      "prawdÄĻ": 4439,
      "Ġfir": 4440,
      "Ġzdr": 4441,
      "ĠwielkÄħ": 4442,
      "ĠpostaÄĩ": 4443,
      "Ġartyku": 4444,
      "ĠprÃ³b": 4445,
      "Ġzabezpie": 4446,
      "Ġzdecy": 4447,
      "retarz": 4448,
      "Ġodniesieniu": 4449,
      "Ġtowar": 4450,
      "ĠSprawiedliwoÅĽci": 4451,
      "Funkcjonariu": 4452,
      "Jest": 4453,
      "bry": 4454,
      "nÃ³": 4455,
      "nny": 4456,
      "sprawie": 4457,
      "ĠwÃ³z": 4458,
      "Ġuj": 4459,
      "Ġnieba": 4460,
      "obo": 4461,
      "Ġkogo": 4462,
      "tual": 4463,
      "ĠTransport": 4464,
      "pierw": 4465,
      "ĠDzi": 4466,
      "budowa": 4467,
      "ĠwoÅĤa": 4468,
      "ÂłÂłĊ": 4469,
      "Ġdrob": 4470,
      "wziÄĻ": 4471,
      "Ġtabli": 4472,
      "ĠsÅĤuÅ¼Äħ": 4473,
      "ĠrÄĻkÄħ": 4474,
      "ĠszeÅĽÄĩ": 4475,
      "Ġpublicznych": 4476,
      "Ġzadania": 4477,
      "Ġwidok": 4478,
      "Ġwalki": 4479,
      "Ġartysty": 4480,
      "ĠZiemiÄĻ": 4481,
      "Ġterenie": 4482,
      "ĠJednak": 4483,
      "Ġramowego": 4484,
      "Ġwolnomular": 4485,
      "Ġsierpnia": 4486,
      "*.": 4487,
      "fy": 4488,
      "zw": 4489,
      "ÃŃ": 4490,
      "ÄĻdzi": 4491,
      "ron": 4492,
      "Ġkre": 4493,
      "leni": 4494,
      "Ġucz": 4495,
      "reb": 4496,
      "ĠwyjÄħ": 4497,
      "tam": 4498,
      "Å¼yÅĤa": 4499,
      "Ġrozum": 4500,
      "ĠwidaÄĩ": 4501,
      "Ġgrupy": 4502,
      "Ġokrop": 4503,
      "ĠmÄĻskie": 4504,
      "ĠziemiÄĻ": 4505,
      "nniku": 4506,
      "trzeb": 4507,
      "ĠFrancji": 4508,
      "ĠskrzydÅĤa": 4509,
      "Ġscena": 4510,
      "Ġprzewidzia": 4511,
      "Ġstandar": 4512,
      "ĠgwaÅĤtow": 4513,
      "iÄĻkujÄĻ": 4514,
      "Sek": 4515,
      "Ġskie": 4516,
      "Ġzgi": 4517,
      "niÅ¼": 4518,
      "rej": 4519,
      "czeniem": 4520,
      "ciel": 4521,
      "Ġ(\"": 4522,
      "ĠAd": 4523,
      "ĠMart": 4524,
      "stych": 4525,
      "anu": 4526,
      "biÅĤ": 4527,
      "syte": 4528,
      "Ġkaza": 4529,
      "Ġlega": 4530,
      "Ġrzeki": 4531,
      "ĠMinistra": 4532,
      "ĠpatrzÄħc": 4533,
      "ĠwolnoÅĽci": 4534,
      "PrzewodniczÄħ": 4535,
      "ĠmiejscowoÅĽÄĩ": 4536,
      "Ġkolei": 4537,
      "ĠporzÄħdku": 4538,
      "zakresie": 4539,
      "niwersyte": 4540,
      "Ġ(âĢ¦)": 4541,
      "KtÃ³": 4542,
      "mowaÄĩ": 4543,
      "mowaÅĤ": 4544,
      "Ġow": 4545,
      "niec": 4546,
      "nos": 4547,
      "rzyÅĤa": 4548,
      "Ġodej": 4549,
      "wiÅĤa": 4550,
      "Ġmorza": 4551,
      "log": 4552,
      "Ġobja": 4553,
      "Ġobszar": 4554,
      "ĠCentral": 4555,
      "Ġwieczy": 4556,
      "syÅĤa": 4557,
      "Ġdziewczy": 4558,
      "Ġnajp": 4559,
      "czoÅĽci": 4560,
      "stÄĻpnie": 4561,
      "Ġ40": 4562,
      "ĠodpowiedziaÅĤ": 4563,
      "Ġpierwsze": 4564,
      "ĠÅĽwiatÅĤo": 4565,
      "Ġintere": 4566,
      "Ġprzygot": 4567,
      "ĠLawi": 4568,
      "----": 4569,
      "Lecz": 4570,
      "48": 4571,
      "YZ": 4572,
      "ke": 4573,
      "krÃ³t": 4574,
      "try": 4575,
      "wnie": 4576,
      "zwo": 4577,
      "ĠÂłÂłĊ": 4578,
      "ÅĤÃ³": 4579,
      "Ġwst": 4580,
      "ĠstÃ³": 4581,
      "ĠzrÃ³wnowa": 4582,
      "czona": 4583,
      "Ġmro": 4584,
      "Ġpoe": 4585,
      "Ġpoch": 4586,
      "rzec": 4587,
      "ĠzasiÄĻ": 4588,
      "owaÅĤo": 4589,
      "Ġprzera": 4590,
      "wor": 4591,
      "ĠodwoÅĤa": 4592,
      "Ġtymi": 4593,
      "teÅ¼": 4594,
      "ĠÅĽnie": 4595,
      "ĠCen": 4596,
      "Ġmal": 4597,
      "ĠOt": 4598,
      "ĠwiedziaÅĤ": 4599,
      "ĊĠÂłÂłĊĠĊĠ": 4600,
      "ĠpieniÄħ": 4601,
      "Ġrzecze": 4602,
      "Ġogro": 4603,
      "Ġtaka": 4604,
      "Ġsklep": 4605,
      "Ġbieg": 4606,
      "Ġgmin": 4607,
      "ÅĽwiadczenie": 4608,
      "Ġrzuca": 4609,
      "Ġrealizacji": 4610,
      "Ġfunkcjonariuszy": 4611,
      "ĠZiemia": 4612,
      "Ġbrzmienie": 4613,
      "Ġzauwa": 4614,
      "Ġrezolu": 4615,
      "Ġwyobra": 4616,
      "bla": 4617,
      "dowi": 4618,
      "Ġwsta": 4619,
      "ĠskÄħd": 4620,
      "Ġzgroma": 4621,
      "Ġoprac": 4622,
      "Ġtrans": 4623,
      "ĠiÅĽÄĩ": 4624,
      "Ġpoje": 4625,
      "leÄĩ": 4626,
      "Ġdobra": 4627,
      "Ġdotk": 4628,
      "Ġniena": 4629,
      "wana": 4630,
      "wanych": 4631,
      "miÄħ": 4632,
      "Ġwybiera": 4633,
      "Ġprzesta": 4634,
      "Ġgnie": 4635,
      "szyscy": 4636,
      "byÅĽ": 4637,
      "dziÅĤo": 4638,
      "Ġprzynajmniej": 4639,
      "mieniem": 4640,
      "ĠBez": 4641,
      "Ġniby": 4642,
      "Ġtedy": 4643,
      "ĠEdukacji": 4644,
      "Ġwiru": 4645,
      "ĠmiaÅĤo": 4646,
      "ÅĽciej": 4647,
      "ĠmoÅ¼emy": 4648,
      "Ġnauki": 4649,
      "ĠPanie": 4650,
      "ĠpaÅĦstwo": 4651,
      "Ġpewnym": 4652,
      "ĠokreÅĽlone": 4653,
      "ĠTeraz": 4654,
      "ĠÅ¼adnego": 4655,
      "2002": 4656,
      "Ġpowinna": 4657,
      "ĠTrybunaÅĤu": 4658,
      "Ġszeroko": 4659,
      "ĠdochodÃ³w": 4660,
      "ĠskreÅĽla": 4661,
      "Å¼ny": 4662,
      "Ġopa": 4663,
      "Ġoczu": 4664,
      "Ġbia": 4665,
      "Ġdoko": 4666,
      "ĠdotÄħd": 4667,
      "Ġwywo": 4668,
      "cen": 4669,
      "dal": 4670,
      "ĠbyÅĤem": 4671,
      "ĠJego": 4672,
      "unki": 4673,
      "Ġminister": 4674,
      "ĠstaÅĤa": 4675,
      "ĠktÃ³rymi": 4676,
      "ĠbyÅĤoby": 4677,
      "ĠÅĤaÅĦcu": 4678,
      "seÅĤ": 4679,
      "Ġwielkie": 4680,
      "ĠpowoÅĤa": 4681,
      "Ġpublikacji": 4682,
      "wiony": 4683,
      "kracza": 4684,
      "ĠmÅĤody": 4685,
      "ĠnastÄĻpuje": 4686,
      "Ġzatrudnio": 4687,
      "ĠtÅĤum": 4688,
      "ĠtÅĤuma": 4689,
      "Ġemeryta": 4690,
      "ĠosiÄħgniÄĻ": 4691,
      "ĠznaleÅºÄĩ": 4692,
      "Ġcharakterze": 4693,
      "Ta": 4694,
      "dÅĤem": 4695,
      "âĶ": 4696,
      "ĠrzÄħ": 4697,
      "Ġowo": 4698,
      "Ġswym": 4699,
      "Ġdia": 4700,
      "godni": 4701,
      "dzna": 4702,
      "lek": 4703,
      "leÅ¼y": 4704,
      "Ġprzeby": 4705,
      "czyzna": 4706,
      "ĠWrocÅĤa": 4707,
      "ĠSp": 4708,
      "wien": 4709,
      "ÅĤuma": 4710,
      "zajem": 4711,
      "skimi": 4712,
      "ĠObywa": 4713,
      "Ġstawia": 4714,
      "publi": 4715,
      "westy": 4716,
      "ĠkawaÅĤ": 4717,
      "fikacji": 4718,
      "spÃ³ÅĤ": 4719,
      "ĠwewnÄĻtrz": 4720,
      "ĠmoÅ¼liwoÅĽÄĩ": 4721,
      "Ġlotnicze": 4722,
      "Ġwielkim": 4723,
      "Ġwydaje": 4724,
      "Ġwskazu": 4725,
      "JeÅ¼eli": 4726,
      "ĠzarzÄħdzenia": 4727,
      "Ġopieki": 4728,
      "Ġeksp": 4729,
      "Ġterminie": 4730,
      "Ġnieznany": 4731,
      "ĠludnoÅĽci": 4732,
      "ĠPort": 4733,
      "dziesiÄħt": 4734,
      "âĶĢ": 4735,
      "99": 4736,
      "?âĢ¦": 4737,
      "Mu": 4738,
      "pen": 4739,
      "Å¼em": 4740,
      "Ġpocie": 4741,
      "let": 4742,
      "Ġzanie": 4743,
      "Ġudo": 4744,
      "Ġuprze": 4745,
      "Ġniepra": 4746,
      "nocy": 4747,
      "stawienie": 4748,
      "nÄħÅĤem": 4749,
      "Ġgospo": 4750,
      "ĠIra": 4751,
      "Ġstoi": 4752,
      "Ġwzru": 4753,
      "ÂłÂłÂłÂł": 4754,
      "Ġpowiecie": 4755,
      "ĠrÃ³wni": 4756,
      "ĠgÅĤowie": 4757,
      "ĠduÅ¼e": 4758,
      "Ġszere": 4759,
      "Ġwspiera": 4760,
      "ĠkomÃ³r": 4761,
      "Ġautomaty": 4762,
      "Ġutworzo": 4763,
      "Ġuczestni": 4764,
      "ĠzmieniajÄħce": 4765,
      "Ġporusza": 4766,
      "ĠwyÅĤÄħcznie": 4767,
      "ĠkoÅĦcowe": 4768,
      "Ġburmistrz": 4769,
      "ECYZ": 4770,
      "Ġbohater": 4771,
      "PrzewodniczÄħcy": 4772,
      "krÃ³tce": 4773,
      "%)": 4774,
      "Ġv": 4775,
      "nieniem": 4776,
      "rag": 4777,
      "Ġokaza": 4778,
      "szczÄħ": 4779,
      "Ġnatural": 4780,
      "Ġzagro": 4781,
      "rego": 4782,
      "ÅĦskÄħ": 4783,
      "ĠrolÄĻ": 4784,
      "ĠprzyszedÅĤ": 4785,
      "Ġ(...": 4786,
      "piÄħ": 4787,
      "pisz": 4788,
      "ĊĊĊ": 4789,
      "ĠpaÅĤa": 4790,
      "Ġznacznie": 4791,
      "Ġdlaczego": 4792,
      "rzad": 4793,
      "Ġeko": 4794,
      "cony": 4795,
      "Ġtelekomunika": 4796,
      "Ġwojny": 4797,
      "Ġudzielenia": 4798,
      "ĠmÄĻÅ¼czyz": 4799,
      "Ġostatnich": 4800,
      "Ġwychowawczego": 4801,
      "Ġatmosfe": 4802,
      "55": 4803,
      "Lo": 4804,
      "dle": 4805,
      "dla": 4806,
      "grywa": 4807,
      "hi": 4808,
      "tle": 4809,
      "Ġzez": 4810,
      "Ġide": 4811,
      "ĠbÅĤÄĻ": 4812,
      "Ġupad": 4813,
      "ĠwypÅĤa": 4814,
      "cieli": 4815,
      "ĠSie": 4816,
      "rÃ³cz": 4817,
      "Ġrozmawia": 4818,
      "prawia": 4819,
      "Ġmaso": 4820,
      "Ġpracu": 4821,
      "Ġpanu": 4822,
      "ĠRzy": 4823,
      "Ġczte": 4824,
      "ĠmiÅĤo": 4825,
      "biÃ³r": 4826,
      "ĠdaÄĩ": 4827,
      "Ġdziew": 4828,
      "ĠdziesiÄĻ": 4829,
      "Ġdroga": 4830,
      "dziaÅĤy": 4831,
      "Ġorganu": 4832,
      "Ġrazu": 4833,
      "Ġpierwszym": 4834,
      "Ġpierwszego": 4835,
      "ownikÃ³w": 4836,
      "ĠzdawaÅĤo": 4837,
      "Niech": 4838,
      "ĠmiaÅĤem": 4839,
      "ĠÅĤzy": 4840,
      "ĠjesteÅĽmy": 4841,
      "Ġsiedziba": 4842,
      "Ġcentrum": 4843,
      "ĠwziÄħÅĤ": 4844,
      "ĠpieniÄħdze": 4845,
      "32": 4846,
      "Pie": 4847,
      "ana": 4848,
      "eÅĤ": 4849,
      "twÃ³r": 4850,
      "wÃ³w": 4851,
      "ĠÄĩ": 4852,
      "ĠwdziÄĻ": 4853,
      "owskiego": 4854,
      "kaÅĤ": 4855,
      "ĠzapytaÅĤ": 4856,
      "Ġuzasa": 4857,
      "waniu": 4858,
      "ĠodrÄĻb": 4859,
      "kuje": 4860,
      "ĠstÄħd": 4861,
      "Ġprosto": 4862,
      "suniÄĻ": 4863,
      "Ġhar": 4864,
      "dniego": 4865,
      "ĠmogÅĤy": 4866,
      "czeÅĦstwo": 4867,
      "ĠbÄĻdziemy": 4868,
      "Ġmedy": 4869,
      "Ġspowo": 4870,
      "czyciel": 4871,
      "ĠkrÃ³le": 4872,
      "ĠksiÄħdz": 4873,
      "Ġkomple": 4874,
      "Ġzmian": 4875,
      "ĠzrobiÅĤ": 4876,
      "ĠCzÄĻ": 4877,
      "Ġumiera": 4878,
      "ĠÅĤÃ³Å¼": 4879,
      "Ġprojektu": 4880,
      "Ġprocedu": 4881,
      "Ġdrugiego": 4882,
      "ĠXI": 4883,
      "Ġuprawnienia": 4884,
      "Ġopinii": 4885,
      "strzyma": 4886,
      "Ġdowol": 4887,
      "ĠPierw": 4888,
      "Ġkierunku": 4889,
      "ĠurzÄħdzeÅĦ": 4890,
      "ĠMiej": 4891,
      "Ġklucz": 4892,
      "ĠchciaÅĤa": 4893,
      "ĠSkarbu": 4894,
      "()": 4895,
      "Zobacz": 4896,
      "dr": 4897,
      "fr": 4898,
      "snÄħÅĤ": 4899,
      "Ġzy": 4900,
      "Ġzer": 4901,
      "niesio": 4902,
      "Ġthe": 4903,
      "roni": 4904,
      "Ġdoprowa": 4905,
      "Ġup": 4906,
      "Ġwysta": 4907,
      "koÅĤo": 4908,
      "kimi": 4909,
      "Ġanty": 4910,
      "czyn": 4911,
      "ĠWol": 4912,
      "dzili": 4913,
      "chodzÄħc": 4914,
      "Ġinfrastruk": 4915,
      "ĠproszÄĻ": 4916,
      "saÅ¼e": 4917,
      "Ġramiona": 4918,
      "cyjnÄħ": 4919,
      "Ġorgany": 4920,
      "Ġfizy": 4921,
      "ÅĽciami": 4922,
      "Przed": 4923,
      "Ġpostanowi": 4924,
      "Cho": 4925,
      "Ġwspania": 4926,
      "Jako": 4927,
      "Dziennik": 4928,
      "rossi": 4929,
      "ĠUrzÄĻdowym": 4930,
      "ĠwiadomoÅĽci": 4931,
      "ĠEUROPEJSKIE": 4932,
      "ĠumoÅ¼liwia": 4933,
      "ĠJakub": 4934,
      "Wszyst": 4935,
      "kowanie": 4936,
      "onu": 4937,
      "wart": 4938,
      "Ġpta": 4939,
      "Ġwprost": 4940,
      "Ġsami": 4941,
      "Ġosie": 4942,
      "ĠdÅº": 4943,
      "Ġimion": 4944,
      "lin": 4945,
      "ciÃ³ÅĤ": 4946,
      "akie": 4947,
      "Ġautor": 4948,
      "ĠPowie": 4949,
      "encja": 4950,
      "ĠKrÃ³": 4951,
      "Ġwiesz": 4952,
      "Ġludu": 4953,
      "Ġznak": 4954,
      "Ġdaje": 4955,
      "Ġratu": 4956,
      "Ġustanawia": 4957,
      "ĠnoszÄħ": 4958,
      "Ġcieka": 4959,
      "ĠmÃ³wiÅĤa": 4960,
      "aliz": 4961,
      "ĠpÃ³ÅĤnocy": 4962,
      "ĠÅģom": 4963,
      "Ġzawodowych": 4964,
      "ĠjakiegoÅĽ": 4965,
      "ĠoferujÄħ": 4966,
      "ĠreÅ¼yser": 4967,
      "65": 4968,
      "75": 4969,
      "eÅĽ": 4970,
      "fia": 4971,
      "gh": 4972,
      "iz": 4973,
      "kowane": 4974,
      "usza": 4975,
      "wskiego": 4976,
      "Ġoka": 4977,
      "Ġmart": 4978,
      "nes": 4979,
      "leniu": 4980,
      "ĠdokoÅĤa": 4981,
      "Ġuwie": 4982,
      "noÅĽ": 4983,
      "owaÅĤy": 4984,
      "Ġkorzy": 4985,
      "Ġprzypomina": 4986,
      "Ġmaszy": 4987,
      "Ġstre": 4988,
      "dzeniem": 4989,
      "Å¼aÅĤa": 4990,
      "dnim": 4991,
      "ĠPolityka": 4992,
      "Ġzebra": 4993,
      "Ġwozu": 4994,
      "Ġserwi": 4995,
      "ownicy": 4996,
      "ĠgdzieÅĽ": 4997,
      "Ġargu": 4998,
      "ĠMoÅ¼na": 4999,
      "gene": 5000,
      "ĠÅļwiÄĻ": 5001,
      "ĠgÅĤosÃ³w": 5002,
      "ĠÅ¼em": 5003,
      "ĠdÅĤugoÅĽci": 5004,
      "ĠtwÃ³r": 5005,
      "Ġtrwo": 5006,
      "ĠRozdziaÅĤ": 5007,
      "godnoÅĽci": 5008,
      "vid": 5009,
      "Ġdziedzinie": 5010,
      "ĠWÅĤoszech": 5011,
      "RozdziaÅĤ": 5012,
      "Ġofiar": 5013,
      "ĠCiekawe": 5014,
      "Ġporozumieniu": 5015,
      "Ġpowietrza": 5016,
      "Ġoczeki": 5017,
      "ĠPÃ³ÅĤnoc": 5018,
      ".:": 5019,
      "Ameryka": 5020,
      "Sa": 5021,
      "Tu": 5022,
      "jmy": 5023,
      "ven": 5024,
      "zem": 5025,
      "ÅĤka": 5026,
      "Ġpli": 5027,
      "Ġptak": 5028,
      "Ġsur": 5029,
      "Å¼ar": 5030,
      "Ġml": 5031,
      "ĠnaprawdÄĻ": 5032,
      "Ġpojazd": 5033,
      "Ġzako": 5034,
      "Ġzastrze": 5035,
      "owaniem": 5036,
      "Ġprzer": 5037,
      "ÅĦscy": 5038,
      "jecha": 5039,
      "jeÅ¼d": 5040,
      "Ġprzyci": 5041,
      "Ġprzypom": 5042,
      "turÄĻ": 5043,
      "Ġchmu": 5044,
      "Ġfanta": 5045,
      "Ġpodobie": 5046,
      "nÄĻli": 5047,
      "ĠleÅ¼y": 5048,
      "Ġ34": 5049,
      "Ġ35": 5050,
      "Ġeg": 5051,
      "czoraj": 5052,
      "ĠmogÅĤo": 5053,
      "ĠÅĤaci": 5054,
      "Ġaktyw": 5055,
      "ĠmyÅĽlÄħ": 5056,
      "Ġprzeciwko": 5057,
      "Ġzajmowa": 5058,
      "Ġobrony": 5059,
      "ĠniezaleÅ¼": 5060,
      "ĠoÅĽrod": 5061,
      "Ġzaopat": 5062,
      "Sekretarz": 5063,
      "64": 5064,
      "88": 5065,
      "DECYZ": 5066,
      "Kra": 5067,
      "dnego": 5068,
      "ll": 5069,
      "wska": 5070,
      "xml": 5071,
      "ĠprÃ³Å¼": 5072,
      "nat": 5073,
      "chiwa": 5074,
      "ĠposzczegÃ³l": 5075,
      "ÅĤami": 5076,
      "Ġzagrani": 5077,
      "niami": 5078,
      "ĠukoÅĦ": 5079,
      "wajÄħ": 5080,
      "rzym": 5081,
      "staura": 5082,
      "ĠSi": 5083,
      "pieÅĽÅĦ": 5084,
      "ĠRob": 5085,
      "Ġstrze": 5086,
      "ĠwiedzieÄĩ": 5087,
      "Ġspodzie": 5088,
      "mery": 5089,
      "ĠrÄĻku": 5090,
      "Ġformy": 5091,
      "set": 5092,
      "ĠkiedyÅĽ": 5093,
      "berg": 5094,
      "20204": 5095,
      "szuki": 5096,
      "Ġzatrudnienia": 5097,
      "Ġdziecka": 5098,
      "Ġdrugim": 5099,
      "Ġsocja": 5100,
      "ĠuÅĽmiech": 5101,
      "ĠGospodarka": 5102,
      "Ġistnieje": 5103,
      "ĠUrzÄĻdowy": 5104,
      "ĠznajdujÄħ": 5105,
      "Ġzmiennej": 5106,
      "Ġrozwija": 5107,
      "ĠplacÃ³wek": 5108,
      "ĠKrakÃ³w": 5109,
      "Ġtrakcie": 5110,
      "ĠodrzekÅĤ": 5111,
      "Ġ<<": 5112,
      "ĠlegalnoÅĽci": 5113,
      "DECYZJA": 5114,
      "Orga": 5115,
      "ntu": 5116,
      "tro": 5117,
      "wro": 5118,
      "ÅĤki": 5119,
      "ĠspeÅĤnia": 5120,
      "Å¼ÄĻ": 5121,
      "stego": 5122,
      "Ġtwier": 5123,
      "ĠposÅĤu": 5124,
      "Ġprzesz": 5125,
      "Ġgu": 5126,
      "ĠroÅĽli": 5127,
      "ĠSte": 5128,
      "Ġkons": 5129,
      "mieÅĦ": 5130,
      "ĠciaÅĤo": 5131,
      "ĠTam": 5132,
      "Ġinni": 5133,
      "Ġgor": 5134,
      "nti": 5135,
      "ĠUrzÄĻdu": 5136,
      "dziale": 5137,
      "ĠjakoÅĽ": 5138,
      "ĠTom": 5139,
      "ĠPana": 5140,
      "ĠdÅĤuÅ¼ej": 5141,
      "Ġznajdzie": 5142,
      "Ġzasadni": 5143,
      "Ġtworzy": 5144,
      "Ġpotrzeba": 5145,
      "ĠprowadzÄħ": 5146,
      "ĠcaÅĤkiem": 5147,
      "ĠgÃ³rÄĻ": 5148,
      "ĠumiejÄĻ": 5149,
      "Ġotwiera": 5150,
      "seria": 5151,
      "ĠwarunkÃ³w": 5152,
      "Ġoceny": 5153,
      "Ġprotein": 5154,
      "Ġrekonw": 5155,
      "ĠGeneralny": 5156,
      "SO": 5157,
      "dÅĤo": 5158,
      "dnÄħ": 5159,
      "mÄħ": 5160,
      "ĠwszedÅĤ": 5161,
      "gosÅĤa": 5162,
      "Ġkrak": 5163,
      "Ġpopraw": 5164,
      "ĠpoÅĽre": 5165,
      "Å¼eniu": 5166,
      "tal": 5167,
      "ĠWtedy": 5168,
      "ĠSza": 5169,
      "ĠAust": 5170,
      "piÄĩ": 5171,
      "pach": 5172,
      "ĠLOT": 5173,
      "Ġwil": 5174,
      "ĠsÄħd": 5175,
      "ĠFunda": 5176,
      "dzoru": 5177,
      "ĠokreÅĽli": 5178,
      "ĠjednoczeÅĽnie": 5179,
      "Ġosobi": 5180,
      "Ġzdarzenia": 5181,
      "ĠPrzez": 5182,
      "krotnie": 5183,
      "Ġsekwencji": 5184,
      "ĠPiotra": 5185,
      "ĠpunktÃ³w": 5186,
      "Ġproble": 5187,
      "Ġdrzewa": 5188,
      "Ġprezydenta": 5189,
      "ĠjakimÅĽ": 5190,
      "Ġutrzymy": 5191,
      "Ġkolor": 5192,
      "ĠBudÅ¼e": 5193,
      "Ġpotrafi": 5194,
      "Ġzezwo": 5195,
      ".)": 5196,
      "68": 5197,
      "CZ": 5198,
      "OS": 5199,
      "WP": 5200,
      "kwa": 5201,
      "lie": 5202,
      "snÄħ": 5203,
      "zer": 5204,
      "Ġrzad": 5205,
      "Ġzmu": 5206,
      "Å¼nych": 5207,
      "Ġkrze": 5208,
      "Ġnarze": 5209,
      "Ġpochodzi": 5210,
      "ligen": 5211,
      "waÅĤem": 5212,
      "rech": 5213,
      "Ġgene": 5214,
      "Ġkomite": 5215,
      "Ġprzyw": 5216,
      "ord": 5217,
      "ĠMat": 5218,
      "Ġchle": 5219,
      "Ġobser": 5220,
      "ĠJez": 5221,
      "ĠJuÅ¼": 5222,
      "ĠOrga": 5223,
      "ĠGre": 5224,
      "ĠmiesiÄĻ": 5225,
      "ĠNarod": 5226,
      "ĠnajwaÅ¼": 5227,
      "ĠHu": 5228,
      "ĠzostanÄħ": 5229,
      "ĠPawÅĤa": 5230,
      "ĠrÄĻki": 5231,
      "pliwie": 5232,
      "ĠzwiÄħzkowym": 5233,
      "ĠÅ¼adnej": 5234,
      "ĠÅģÄħ": 5235,
      "ĠWarszawie": 5236,
      "ĠobojÄĻ": 5237,
      "Ġwzrokiem": 5238,
      "Ġprzyjdzie": 5239,
      "ĠObrachunkowego": 5240,
      "ĠuczestnikÃ³w": 5241,
      "ĠHeniu": 5242,
      "ĠGerwi": 5243,
      "ĠnaprzÃ³d": 5244,
      "ĠHenry": 5245,
      "ĠÅģomÅ¼y": 5246,
      "Kla": 5247,
      "Os": 5248,
      "Wa": 5249,
      "gla": 5250,
      "pres": 5251,
      "Ġzmniej": 5252,
      "Ġoby": 5253,
      "szki": 5254,
      "Ġponow": 5255,
      "liÅĤa": 5256,
      "Ġwychodzi": 5257,
      "Ġprzekracza": 5258,
      "tali": 5259,
      "czyÅĤo": 5260,
      "port": 5261,
      "dyna": 5262,
      "stan": 5263,
      "ĠÅĽmia": 5264,
      "ĠÅĽrÃ³d": 5265,
      "zami": 5266,
      "Ġindy": 5267,
      "peten": 5268,
      "siej": 5269,
      "Ġmiast": 5270,
      "szczenie": 5271,
      "niom": 5272,
      "Ġnogi": 5273,
      "przed": 5274,
      "cone": 5275,
      "Ġpotwier": 5276,
      "ĠfunkcjÄĻ": 5277,
      "ĠmÃ³wiÄħ": 5278,
      "Ġserde": 5279,
      "Ġzdra": 5280,
      "Ġkonkre": 5281,
      "Ġstron": 5282,
      "Ġsamocho": 5283,
      "ĠkrÃ³la": 5284,
      "ĠcaÅĤego": 5285,
      "ersja": 5286,
      "Ġzwyczaj": 5287,
      "ĠszczÄĻÅĽcie": 5288,
      "ĠszczÄĻÅĽcia": 5289,
      "Ġwarunkach": 5290,
      "ĠWarszawa": 5291,
      "Ġpowinno": 5292,
      "ĠczÅĤonkÃ³w": 5293,
      "Dzienniku": 5294,
      "ĠzaczÄĻÅĤa": 5295,
      "ĠNew": 5296,
      "ĠbezpoÅĽrednio": 5297,
      "ĠJanina": 5298,
      "Ġgwiazd": 5299,
      "Ġanali": 5300,
      "Ġprzekazania": 5301,
      "ĠzaÅĤÄħcznik": 5302,
      "ĠwiÄĻkszoÅĽci": 5303,
      "ĠznalazÅĤ": 5304,
      "Ġterytoria": 5305,
      "Ġnikogo": 5306,
      "Ġwykorzysty": 5307,
      "Ġgospoda": 5308,
      "ĠEUROPEJSKIEGO": 5309,
      "],": 5310,
      "ed": 5311,
      "iha": 5312,
      "jne": 5313,
      "tnoÅĽÄĩ": 5314,
      "iera": 5315,
      "Ġwszech": 5316,
      "Ġsprowa": 5317,
      "Å¼ni": 5318,
      "ĠtuÅ¼": 5319,
      "ĠmÄħd": 5320,
      "Ġkwali": 5321,
      "Ġzamia": 5322,
      "niaÅĤa": 5323,
      "Ġuzu": 5324,
      "akÃ³w": 5325,
      "mii": 5326,
      "woÅĽci": 5327,
      "cier": 5328,
      "Ġkola": 5329,
      "ĠKul": 5330,
      "rÃ³g": 5331,
      "ĠÅĽwi": 5332,
      "ĠmajÄħc": 5333,
      "ĠOs": 5334,
      "ĠnÄĻ": 5335,
      "ĠspojrzaÅĤ": 5336,
      "Ġwio": 5337,
      "mentem": 5338,
      "Ġbudy": 5339,
      "nios": 5340,
      "terna": 5341,
      "ĠgruntÃ³w": 5342,
      "ĠBogu": 5343,
      "ĠdrugÄħ": 5344,
      "Ġpowoli": 5345,
      "Ġpostanowie": 5346,
      "ĠksiÄħg": 5347,
      "ĠCoret": 5348,
      "Ġgaze": 5349,
      "ĠmaÅĤÅ¼e": 5350,
      "ĠpieniÄĻdzy": 5351,
      "ĠTrybunaÅĤowi": 5352,
      "ĠKrakowa": 5353,
      "ĠjakiejÅĽ": 5354,
      "ĠÅĽredni": 5355,
      "Ġpopular": 5356,
      "Cza": 5357,
      "ER": 5358,
      "np": 5359,
      "nnego": 5360,
      "sj": 5361,
      "Ġzdo": 5362,
      "chÃ³w": 5363,
      "stnie": 5364,
      "Ġopisa": 5365,
      "Ġkli": 5366,
      "dzej": 5367,
      "ĠpoÅ¼e": 5368,
      "kara": 5369,
      "ĠuÅĤat": 5370,
      "wal": 5371,
      "Ġau": 5372,
      "czech": 5373,
      "tycznej": 5374,
      "razy": 5375,
      "Ġszpita": 5376,
      "ĠszkÃ³ÅĤ": 5377,
      "Ġobsza": 5378,
      "ĠprawidÅĤowoÅĽci": 5379,
      "ĠORF": 5380,
      "Ġnowego": 5381,
      "ĠmuszÄĻ": 5382,
      "put": 5383,
      "Ġrano": 5384,
      "Ġpotencja": 5385,
      "Ġducha": 5386,
      "ĠStary": 5387,
      "ĠdziaÅĤalnoÅĽÄĩ": 5388,
      "Ġmedia": 5389,
      "ĠnaleÅ¼Äħ": 5390,
      "Ġ60": 5391,
      "ĠwÅĤasne": 5392,
      "ĠrÃ³Å¼ni": 5393,
      "ĠmÅĤod": 5394,
      "Ġprezen": 5395,
      "Ġwarunki": 5396,
      "Ġtransport": 5397,
      "Ġfunkcjonariusza": 5398,
      "utro": 5399,
      "Ġ298": 5400,
      "Ġsztuki": 5401,
      "ĠdowÃ³d": 5402,
      "ĠzbliÅ¼a": 5403,
      "Ġzwol": 5404,
      "Ġtelewizyj": 5405,
      "ĠNiemczech": 5406,
      "ĠmobilnoÅĽci": 5407,
      "ĠGarrone": 5408,
      "Ġreprezen": 5409,
      "Ġskierowa": 5410,
      "ĠObywatel": 5411,
      "!âĢĿ": 5412,
      "98": 5413,
      "klu": 5414,
      "wnoÅĽci": 5415,
      "zwy": 5416,
      "ĊĠĊĊ": 5417,
      "Ġwez": 5418,
      "ĠwstÄĻp": 5419,
      "Ġwzajem": 5420,
      "Ġzbiera": 5421,
      "Ġpora": 5422,
      "Ġpoczu": 5423,
      "ĠposzedÅĤ": 5424,
      "Ġbio": 5425,
      "Ġzamiast": 5426,
      "Ġniedzie": 5427,
      "Ġnieprze": 5428,
      "noty": 5429,
      "ĠwywoÅĤa": 5430,
      "Ġprzechodzi": 5431,
      "taÄĩ": 5432,
      "ĠPARLAMENT": 5433,
      "czeni": 5434,
      "Ġchu": 5435,
      "ĠBank": 5436,
      "Ġustawa": 5437,
      "Ġedy": 5438,
      "Ġkierowa": 5439,
      "ĠsÅĤusz": 5440,
      "ĠsamorzÄħdu": 5441,
      "trum": 5442,
      "rzone": 5443,
      "myÅĽla": 5444,
      "ĠÅ¼adnych": 5445,
      "ĠchoÄĩby": 5446,
      "Ġ[].": 5447,
      "ĠjÄĻzyk": 5448,
      "ĠjÄĻzyka": 5449,
      "Ġgeo": 5450,
      "ĠuÅĽmiechem": 5451,
      "ĠuÅ¼ytkownika": 5452,
      "Ġprokurator": 5453,
      "ĠradoÅĽci": 5454,
      "Ġkilome": 5455,
      "Ġdyrektorowi": 5456,
      "ĠJadwiga": 5457,
      "Ġprzepisach": 5458,
      "Ġszlachet": 5459,
      "ĠwskaÅºnika": 5460,
      "ĠTrzeba": 5461,
      "ĠPARLAMENTU": 5462,
      "78": 5463,
      "Tam": 5464,
      "iny": 5465,
      "kowo": 5466,
      "sla": 5467,
      "son": 5468,
      "ÅĤek": 5469,
      "Ġwsz": 5470,
      "ĠspeÅĤ": 5471,
      "Ġzdu": 5472,
      "Å¼on": 5473,
      "stwem": 5474,
      "Ã³dz": 5475,
      "Ġzapowie": 5476,
      "Ġdozna": 5477,
      "Ġunij": 5478,
      "czyÅĤy": 5479,
      "Ġgi": 5480,
      "enu": 5481,
      "ĠWE": 5482,
      "ĠWscho": 5483,
      "win": 5484,
      "dziÅĤy": 5485,
      "Ġrozsze": 5486,
      "Ġtechno": 5487,
      "Ġinnej": 5488,
      "ĠgoÅĽci": 5489,
      "ĠDlatego": 5490,
      "Ġprostu": 5491,
      "Ġrej": 5492,
      "ĠliÅĽcie": 5493,
      "ĠwidzÄħc": 5494,
      "czÄħce": 5495,
      "ĠPociÄĻ": 5496,
      "kreÅĽli": 5497,
      "ĠFa": 5498,
      "ĠogÃ³": 5499,
      "ĠKaÅ¼dy": 5500,
      "szone": 5501,
      "ĠczÅĤowiekiem": 5502,
      "ĠÅļwia": 5503,
      "ĠÅļrod": 5504,
      "gdyÅĽ": 5505,
      "Ġtrafi": 5506,
      "ĠÅĽwiatÅĤa": 5507,
      "Ġprzypadkach": 5508,
      "sÅĤycha": 5509,
      "ĠPracy": 5510,
      "Ġwojskowej": 5511,
      "ĠObrachunkowy": 5512,
      "gÅĤasza": 5513,
      "ĠZdrowia": 5514,
      "ĠJaniny": 5515,
      "Ġpowierzchni": 5516,
      "ĠleÅ¼Äħcych": 5517,
      "ĠrachunkÃ³w": 5518,
      "Com": 5519,
      "De": 5520,
      "Ustawa": 5521,
      "dowaÅĤ": 5522,
      "gni": 5523,
      "zÄħ": 5524,
      "Ġwsty": 5525,
      "ownik": 5526,
      "ÅĽniÄĻ": 5527,
      "leniem": 5528,
      "Ġzapisa": 5529,
      "wan": 5530,
      "ĠwysÅĤa": 5531,
      "dam": 5532,
      "Ġgastrono": 5533,
      "ĠPow": 5534,
      "enta": 5535,
      "Ġjakich": 5536,
      "Ġinformacje": 5537,
      "niejsza": 5538,
      "ĠUniwersyte": 5539,
      "Ġdzieje": 5540,
      "czonym": 5541,
      "ĠogieÅĦ": 5542,
      "sora": 5543,
      "ĠJeszcze": 5544,
      "skoÅĦ": 5545,
      "Ġchory": 5546,
      "ĠrÄĻka": 5547,
      "peÅĤnos": 5548,
      "ĠpatrzyÅĤ": 5549,
      "Ġbibliote": 5550,
      "Ġ2006": 5551,
      "Ġintegra": 5552,
      "Ġzapewne": 5553,
      "Ġzarazem": 5554,
      "Ġopieku": 5555,
      "ĠuprawnieÅĦ": 5556,
      "ĠtytuÅĤ": 5557,
      "ĠpÃ³ÅĤnocno": 5558,
      "Ġtrybie": 5559,
      "Ġelektry": 5560,
      "Ġobywateli": 5561,
      "organiz": 5562,
      "ĠBudÅ¼etowej": 5563,
      "peÅĤnospraw": 5564,
      "69": 5565,
      "Go": 5566,
      "PARLAMENT": 5567,
      "Re": 5568,
      "dnoÅĽci": 5569,
      "fli": 5570,
      "zobowiÄħ": 5571,
      "Ġ000": 5572,
      "Ġtwe": 5573,
      "Ġkr": 5574,
      "Ġpomie": 5575,
      "ĠpoÅĤoÅ¼one": 5576,
      "ĠpoÅĽwiadczenie": 5577,
      "letni": 5578,
      "Ġbru": 5579,
      "Ġutra": 5580,
      "ĠniesÅĤycha": 5581,
      "kor": 5582,
      "toÅĽci": 5583,
      "tymi": 5584,
      "widu": 5585,
      "ĠSAS": 5586,
      "jesz": 5587,
      "Ġprzychodzi": 5588,
      "Ġszan": 5589,
      "Ġcud": 5590,
      "Ġfe": 5591,
      "lot": 5592,
      "lonej": 5593,
      "szeni": 5594,
      "sady": 5595,
      "pelu": 5596,
      "biegÅĤ": 5597,
      "ĠprzedÅĤoÅ¼one": 5598,
      "Ġdane": 5599,
      "Ġeta": 5600,
      "ĠHer": 5601,
      "Ġogar": 5602,
      "ĠJestem": 5603,
      "Ġciep": 5604,
      "Ġfilo": 5605,
      "Ġchwila": 5606,
      "ĠInstytu": 5607,
      "ĠÅĽmiertel": 5608,
      "Ġpolskiej": 5609,
      "wione": 5610,
      "ĠstudiÃ³w": 5611,
      "ĠwyborÃ³w": 5612,
      "Ġpodobne": 5613,
      "ĠmÅĤodzie": 5614,
      "Ġgospodarki": 5615,
      "ĠgÅĤÃ³wnie": 5616,
      "ĠObrachunkowemu": 5617,
      "ĠniektÃ³re": 5618,
      "ĠpoÅĤÄħczenia": 5619,
      "Ġmocno": 5620,
      "ĠCyber": 5621,
      "Ġstatku": 5622,
      "Prawo": 5623,
      "ĠEUROPEJSKI": 5624,
      "Ġpowietrzu": 5625,
      "LLE": 5626,
      "Ġniewiel": 5627,
      "Ġoficja": 5628,
      "ĠwiarygodnoÅĽci": 5629,
      "David": 5630,
      "Serratia": 5631,
      "Ġfoto": 5632,
      "ĠgÅĤoÅĽno": 5633,
      "Ġmln": 5634,
      "2020417": 5635,
      "SOLI": 5636,
      "Klaus": 5637,
      "ĠWELLE": 5638,
      "zobowiÄħzuje": 5639,
      "ĠSASSOLI": 5640,
      "58": 5641,
      "BT": 5642,
      "Gdzie": 5643,
      "dnej": 5644,
      "ÅĤej": 5645,
      "Ġocho": 5646,
      "Ġdum": 5647,
      "ĠmÄħÅ¼": 5648,
      "Ġpogo": 5649,
      "Ġzaku": 5650,
      "ĠzasiÅĤ": 5651,
      "Ġnieprzy": 5652,
      "ĠwyszedÅĤ": 5653,
      "Ġprzestra": 5654,
      "ĠprzeksztaÅĤ": 5655,
      "end": 5656,
      "ĠKat": 5657,
      "ĠpasaÅ¼e": 5658,
      "ĠOto": 5659,
      "ĠstaÅĤy": 5660,
      "ĠstopieÅĦ": 5661,
      "Ġpewien": 5662,
      "Ġpowtarza": 5663,
      "prawdzie": 5664,
      "ĠpiÄħ": 5665,
      "ĠmatkÄĻ": 5666,
      "ĠdÅĤuÅ¼": 5667,
      "ctwem": 5668,
      "Ġpolska": 5669,
      "ĠÅ¼aden": 5670,
      "ĠSztu": 5671,
      "Ġ2009": 5672,
      "Ġsub": 5673,
      "Ġgroma": 5674,
      "Ġnaukowych": 5675,
      "ĠksiÄħÅ¼ki": 5676,
      "ĠobowiÄħzek": 5677,
      "ĠobowiÄħzkÃ³w": 5678,
      "ĠopiniÄĻ": 5679,
      "ĠrozwiÄħzania": 5680,
      "Ġpiosen": 5681,
      "Ġuposa": 5682,
      "Ġprezydent": 5683,
      "Ġrozmowy": 5684,
      "Ġniemal": 5685,
      "Ġreligi": 5686,
      "dopodobnie": 5687,
      "ĠAugu": 5688,
      "43": 5689,
      "kli": 5690,
      "wczej": 5691,
      "Ġprint": 5692,
      "ĠwrÃ³ci": 5693,
      "Ġzba": 5694,
      "stka": 5695,
      "Ġpomi": 5696,
      "rzego": 5697,
      "Ġubo": 5698,
      "Ġukaza": 5699,
      "Ġniewo": 5700,
      "rea": 5701,
      "owanego": 5702,
      "owanym": 5703,
      "Å¼ek": 5704,
      "koju": 5705,
      "ryta": 5706,
      "tacza": 5707,
      "cjona": 5708,
      "daj": 5709,
      "ĠgÅĤa": 5710,
      "Ġgre": 5711,
      "wiz": 5712,
      "Ġkoleg": 5713,
      "Ġtyp": 5714,
      "ĠCar": 5715,
      "ĠmaÅĤe": 5716,
      "ĠRÃ³w": 5717,
      "ĠOstat": 5718,
      "Ġstaje": 5719,
      "Ġ223": 5720,
      "ĠznaÄĩ": 5721,
      "Ġlekar": 5722,
      "Ġ36": 5723,
      "czonÄħ": 5724,
      "Nau": 5725,
      "ĠmoÅ¼esz": 5726,
      "ĠPaÅĦstw": 5727,
      "ecnie": 5728,
      "ĠÅĽmierte": 5729,
      "Ġwielkiej": 5730,
      "Ġgodzinach": 5731,
      "ĠpeÅĤne": 5732,
      "ĠwÅĤasnych": 5733,
      "Ġ1296": 5734,
      "ĠpoÅĤudnie": 5735,
      "Ġtwego": 5736,
      "Ġ283": 5737,
      "ĠczÅĤonkow": 5738,
      "Ġodpowiedziami": 5739,
      "ĠSejmu": 5740,
      "ĠkandydatÃ³w": 5741,
      "Ġscenariu": 5742,
      "ĠCentrum": 5743,
      "ĠÅģÄħcznoÅĽci": 5744,
      "Ze": 5745,
      "dry": 5746,
      "kowie": 5747,
      "skÄĻ": 5748,
      "towaÄĩ": 5749,
      "twier": 5750,
      "ÅĤszy": 5751,
      "Ġznie": 5752,
      "ower": 5753,
      "Ġkary": 5754,
      "Ġnarodowej": 5755,
      "Ġpola": 5756,
      "ĠporÃ³wna": 5757,
      "Ġzatrzy": 5758,
      "waÅ¼a": 5759,
      "miu": 5760,
      "Ġwygene": 5761,
      "tanie": 5762,
      "stawia": 5763,
      "Ġodczy": 5764,
      "Ġprzyjem": 5765,
      "ĠAir": 5766,
      "ĠÅĽwiÄħ": 5767,
      "myka": 5768,
      "myÅĽli": 5769,
      "ĠTek": 5770,
      "ĠRp": 5771,
      "ĠEa": 5772,
      "Ġlisty": 5773,
      "ĠNastÄĻpnie": 5774,
      "ĠsporzÄħ": 5775,
      "randen": 5776,
      "czonego": 5777,
      "Ġswobo": 5778,
      "denty": 5779,
      "wiÄĻcej": 5780,
      "Ġ541": 5781,
      "Ġdyplo": 5782,
      "ĠosobÄĻ": 5783,
      "ĠdrogÄħ": 5784,
      "Ġbraku": 5785,
      "Ġnauczycieli": 5786,
      "Ġofer": 5787,
      "Ġzmianie": 5788,
      "Ġ1605": 5789,
      "Ġnaukowego": 5790,
      "ĠprzyszÅĤoÅĽci": 5791,
      "Ġ1303": 5792,
      "Ġ1304": 5793,
      "Ġ1309": 5794,
      "Ġrodzaj": 5795,
      "Ġzawodowej": 5796,
      "Ġzabawy": 5797,
      "Ġzapytanie": 5798,
      "Ġtryb": 5799,
      "Ġskarb": 5800,
      "ĠnieszczÄĻÅĽli": 5801,
      "ĠjakaÅĽ": 5802,
      "Funkcjonariusz": 5803,
      "ĠzrÃ³wnowaÅ¼o": 5804,
      "ĊĠĊĊĠÂłÂłĊ": 5805,
      "ĠPociÄĻgle": 5806,
      "86": 5807,
      "Mia": 5808,
      "ela": 5809,
      "gg": 5810,
      "lski": 5811,
      "zdu": 5812,
      "Ġary": 5813,
      "Ġzga": 5814,
      "rabi": 5815,
      "Ġodzy": 5816,
      "szuka": 5817,
      "Ġpoto": 5818,
      "Ġpobiera": 5819,
      "iÄĻdzy": 5820,
      "kan": 5821,
      "Ġzawi": 5822,
      "cina": 5823,
      "ĠniegdyÅĽ": 5824,
      "ĠWÄĻ": 5825,
      "ĠSP": 5826,
      "dziesiÄĻ": 5827,
      "bytu": 5828,
      "Ġprzyro": 5829,
      "mysÅĤu": 5830,
      "szeniu": 5831,
      "ĠczÄħ": 5832,
      "Ġwios": 5833,
      "rio": 5834,
      "ris": 5835,
      "zdÅĤuÅ¼": 5836,
      "fini": 5837,
      "ĠStar": 5838,
      "ĠokolicznoÅĽci": 5839,
      "ĠSzko": 5840,
      "dÅĤugo": 5841,
      "Ġkompeten": 5842,
      "ĠksiÄĻdza": 5843,
      "ĠWoj": 5844,
      "ĠbiaÅĤka": 5845,
      "Ġstopni": 5846,
      "ĠwspÃ³lnego": 5847,
      "ĠÅºle": 5848,
      "Ġdokumenta": 5849,
      "Ġposiedzenia": 5850,
      "ĠSÅĤoÅĦca": 5851,
      "ĠspytaÅĤa": 5852,
      "Znane": 5853,
      "ĠsklepÃ³w": 5854,
      "ĠkilometrÃ³w": 5855,
      "randenbur": 5856,
      "57": 5857,
      "92": 5858,
      "Tre": 5859,
      "gdzie": 5860,
      "har": 5861,
      "kowÄħ": 5862,
      "knÄħÅĤ": 5863,
      "tÅĤuma": 5864,
      "Ġono": 5865,
      "ĠkÅĤa": 5866,
      "Ġkrwa": 5867,
      "rzeniem": 5868,
      "kali": 5869,
      "ĠuÅĽci": 5870,
      "ako": 5871,
      "ĠnieskoÅĦ": 5872,
      "Ġwycie": 5873,
      "ĠwystÄħpi": 5874,
      "cjan": 5875,
      "dale": 5876,
      "ton": 5877,
      "wicza": 5878,
      "tÃ³Å¼": 5879,
      "ĠKsiÄĻ": 5880,
      "szymi": 5881,
      "byÅĽmy": 5882,
      "orÃ³w": 5883,
      "ĠMam": 5884,
      "Ġrozmowa": 5885,
      "jaw": 5886,
      "ĠpodniÃ³sÅĤ": 5887,
      "ĠobsÅĤugi": 5888,
      "ĠstaÄĩ": 5889,
      "Ġresz": 5890,
      "Ġdzielni": 5891,
      "Ġran": 5892,
      "kÅĤadu": 5893,
      "ĠbogÃ³w": 5894,
      "ĠwÅĤadzy": 5895,
      "Ġcele": 5896,
      "ĠmogÅĤem": 5897,
      "Ġdysku": 5898,
      "ĠrÄĻkami": 5899,
      "Ġprawnych": 5900,
      "Ġkonku": 5901,
      "ĠkaÅ¼da": 5902,
      "Ġstanowisku": 5903,
      "Ġ1316": 5904,
      "Ġwolno": 5905,
      "ĠspoÅĤecznego": 5906,
      "Ġwiatr": 5907,
      "ĠRegi": 5908,
      "ĠpÅĤaszczy": 5909,
      "Ġsuk": 5910,
      "ĠgroÅº": 5911,
      "ĠByÅĤa": 5912,
      "Ġsekwen": 5913,
      "nizm": 5914,
      "Ġproces": 5915,
      "ĠwspÃ³ÅĤpracy": 5916,
      "ĠXV": 5917,
      "Ġrealiz": 5918,
      "Ġlekko": 5919,
      "Ġinstytucji": 5920,
      "Ġsymbo": 5921,
      "Ġangiel": 5922,
      "))": 5923,
      "53": 5924,
      "72": 5925,
      "AT": 5926,
      "kowania": 5927,
      "remu": 5928,
      "ver": 5929,
      "znik": 5930,
      "Ġspu": 5931,
      "Ġzorganiz": 5932,
      "niÅĤa": 5933,
      "czli": 5934,
      "owem": 5935,
      "nieÄĩ": 5936,
      "rasta": 5937,
      "Ã³ze": 5938,
      "Ġdam": 5939,
      "ĠtobÄħ": 5940,
      "lepiej": 5941,
      "ÅĤaga": 5942,
      "ĠudziaÅĤu": 5943,
      "Ġwyd": 5944,
      "rys": 5945,
      "Ġasy": 5946,
      "tan": 5947,
      "jekt": 5948,
      "2026": 5949,
      "dzisz": 5950,
      "mai": 5951,
      "Ġbym": 5952,
      "Ġszer": 5953,
      "zacho": 5954,
      "ĠZna": 5955,
      "gip": 5956,
      "Ġproto": 5957,
      "skaÅĤ": 5958,
      "Ġnowej": 5959,
      "styczne": 5960,
      "jÄĻcie": 5961,
      "Ġhe": 5962,
      "Ġboga": 5963,
      "niosÅĤa": 5964,
      "czonej": 5965,
      "rÄĻdzej": 5966,
      "Ġokna": 5967,
      "Ġskoro": 5968,
      "Ġmama": 5969,
      "Ġzalecenie": 5970,
      "ĠmiejscowoÅĽci": 5971,
      "Ġtempera": 5972,
      "Ġ1301": 5973,
      "Ġwzrok": 5974,
      "ĠwÄħtp": 5975,
      "plex": 5976,
      "Ġhabili": 5977,
      "ĠNeu": 5978,
      "Ġprzestrzeni": 5979,
      "deksu": 5980,
      "ĠogÅĤoszenia": 5981,
      "Ġwyboru": 5982,
      "spekty": 5983,
      "ĠKomendanta": 5984,
      "ĠstÃ³p": 5985,
      "Ġ(...)": 5986,
      "Ġczterech": 5987,
      "My": 5988,
      "mowania": 5989,
      "print": 5990,
      "ws": 5991,
      "zwyczaj": 5992,
      "ĠwkrÃ³tce": 5993,
      "ĠwzdÅĤuÅ¼": 5994,
      "Ġzi": 5995,
      "Ġzre": 5996,
      "ĠzbiÃ³r": 5997,
      "stek": 5998,
      "ĠkrÄħ": 5999,
      "Ġnaby": 6000,
      "Ġpogrze": 6001,
      "lizacji": 6002,
      "ĠbÅĤ": 6003,
      "ĠzastÄĻp": 6004,
      "Ġzachodzi": 6005,
      "Ġuko": 6006,
      "ĠurzÄĻdu": 6007,
      "dziÅĤem": 6008,
      "ĠAuto": 6009,
      "Ġchrze": 6010,
      "lonego": 6011,
      "prawa": 6012,
      "ĠGÃ³r": 6013,
      "Ġmiesza": 6014,
      "Åºli": 6015,
      "Ġlikwi": 6016,
      "ĠdzieciÄĻ": 6017,
      "ĠzewnÄĻtrz": 6018,
      "Ġwszystkiego": 6019,
      "ĠsÄħdu": 6020,
      "ĠsÄħsie": 6021,
      "Ġ2010": 6022,
      "ĠFundu": 6023,
      "Ġsiedem": 6024,
      "Ġrozpozna": 6025,
      "Ġcelem": 6026,
      "Poli": 6027,
      "ĠopÅĤat": 6028,
      "Ġdzisiej": 6029,
      "ctwie": 6030,
      "Ġaktorzy": 6031,
      "Ġszkolenia": 6032,
      "Ġniezmier": 6033,
      "ĠSzcze": 6034,
      "Ġkarty": 6035,
      "Ġpierwo": 6036,
      "ĠzarzÄħdza": 6037,
      "ĠRozwoju": 6038,
      "Ġrealiza": 6039,
      "ĠprzyjaciÃ³ÅĤ": 6040,
      "Ġpapieru": 6041,
      "ĠÅĽwiÄĻta": 6042,
      "ĠMinisterstwa": 6043,
      "0576": 6044,
      "Ġwykonywania": 6045,
      "Ġnazwisko": 6046,
      "Ġpoinformowa": 6047,
      "rytyj": 6048,
      "Ġminut": 6049,
      "Ġzdrowo": 6050,
      "widual": 6051,
      "dziesiÄĻciu": 6052,
      "94": 6053,
      "NI": 6054,
      "Si": 6055,
      "dio": 6056,
      "gnÄħÄĩ": 6057,
      "ham": 6058,
      "laty": 6059,
      "rie": 6060,
      "Ġpil": 6061,
      "Ġscho": 6062,
      "Ġsreb": 6063,
      "Ġznik": 6064,
      "Ġoskar": 6065,
      "Ġtzw": 6066,
      "ĠidÄħ": 6067,
      "Ġju": 6068,
      "kaÅ¼": 6069,
      "ĠzapÅĤa": 6070,
      "ari": 6071,
      "ematy": 6072,
      "Ġnieb": 6073,
      "ÅĤos": 6074,
      "ryz": 6075,
      "laÅĤem": 6076,
      "Ġgl": 6077,
      "Ġgrzy": 6078,
      "ĠPLL": 6079,
      "ÅĦca": 6080,
      "ÅĽcija": 6081,
      "ĠpodÅĤo": 6082,
      "ĠZdzi": 6083,
      "piÅĤ": 6084,
      "Ġster": 6085,
      "ĠczÅĤo": 6086,
      "Ġcodzien": 6087,
      "Ġliczne": 6088,
      "ĠLin": 6089,
      "chach": 6090,
      "rip": 6091,
      "Ġ33": 6092,
      "Ġrzek": 6093,
      "Ġ2016": 6094,
      "Ġosobie": 6095,
      "Ġokolicy": 6096,
      "Ġpolskiego": 6097,
      "Ġryzyka": 6098,
      "ĠwÅĤasnej": 6099,
      "Ġwolna": 6100,
      "Ġ2004": 6101,
      "myÅĽlnie": 6102,
      "ĠBad": 6103,
      "ĠÅ¼ar": 6104,
      "emisyj": 6105,
      "ĠczymÅĽ": 6106,
      "ĠwysokoÅĽÄĩ": 6107,
      "ĠsystemÃ³w": 6108,
      "Ġwynagra": 6109,
      "Ġlokalnym": 6110,
      "Ġprzeprowadza": 6111,
      "ĠSocja": 6112,
      "ĠzwiÄħzanych": 6113,
      "ĠAntoniego": 6114,
      "ĠbadaÅĦ": 6115,
      "ĠsÅĤone": 6116,
      "Ġcentral": 6117,
      "Ġwieczorem": 6118,
      "ĠFranciszek": 6119,
      "Ġautomatycznie": 6120,
      "jeÅ¼dÅ¼a": 6121,
      "Complex": 6122,
      "73": 6123,
      "Lu": 6124,
      "Mare": 6125,
      "Sy": 6126,
      "ger": 6127,
      "ine": 6128,
      "ksa": 6129,
      "nkÃ³w": 6130,
      "ss": 6131,
      "sja": 6132,
      "ĠrÃ³": 6133,
      "Ġprywa": 6134,
      "Ġzb": 6135,
      "chÄħ": 6136,
      "Ġnagro": 6137,
      "Ġban": 6138,
      "ĠbÅĤÄħ": 6139,
      "Ġdoj": 6140,
      "Ġuszko": 6141,
      "atÃ³w": 6142,
      "minu": 6143,
      "ĠPamiÄĻ": 6144,
      "dziem": 6145,
      "ĠNor": 6146,
      "szeÅĦ": 6147,
      "Ġinstru": 6148,
      "ĠDru": 6149,
      "ĠInter": 6150,
      "niejszym": 6151,
      "Å¼aÅĤo": 6152,
      "kÅĤadzie": 6153,
      "kÅĤadnie": 6154,
      "sÅĤucha": 6155,
      "ĠÅĤaw": 6156,
      "ĠÅĤatwo": 6157,
      "ĠzobaczyÅĤ": 6158,
      "Ġszep": 6159,
      "ĠszedÅĤ": 6160,
      "Ġbile": 6161,
      "Ġprowadzenia": 6162,
      "ĠtwarzÄħ": 6163,
      "Ġzakresu": 6164,
      "Ġtrudno": 6165,
      "Ġwniosku": 6166,
      "Ġstudia": 6167,
      "ĠprzyszÅĤo": 6168,
      "Ġzapewnia": 6169,
      "Ġobiek": 6170,
      "Ġpapier": 6171,
      "ĠkosztÃ³w": 6172,
      "ĠTomasza": 6173,
      "ĠwyraÅºnie": 6174,
      "Ġbrzmieniu": 6175,
      "ĠSpoÅĤe": 6176,
      "Ġregionalne": 6177,
      "ĠcelÃ³w": 6178,
      "ĠPrzedsiÄĻ": 6179,
      "ĠHiszpa": 6180,
      "Ġpozbawienia": 6181,
      "Ġhonoru": 6182,
      "ĠZjednoczonych": 6183,
      "ĠWszystko": 6184,
      "AmerykaÅĦscy": 6185,
      "Dla": 6186,
      "Ga": 6187,
      "Ru": 6188,
      "ach": 6189,
      "bÃ³w": 6190,
      "sowych": 6191,
      "Ã¤": 6192,
      "Äĺ": 6193,
      "Ġwp": 6194,
      "Ġwu": 6195,
      "Ġsia": 6196,
      "ownie": 6197,
      "Å¼nej": 6198,
      "ranie": 6199,
      "ĠklÄĻ": 6200,
      "Ġnareszcie": 6201,
      "Ġjam": 6202,
      "lec": 6203,
      "Ġblo": 6204,
      "cin": 6205,
      "ÅĤom": 6206,
      "owaÅĦ": 6207,
      "Ġwynik": 6208,
      "ĠwyciÄħg": 6209,
      "ĠprzeglÄħd": 6210,
      "cymi": 6211,
      "tyki": 6212,
      "ĠSan": 6213,
      "nÄħwszy": 6214,
      "Ġfrag": 6215,
      "ĠRP": 6216,
      "bami": 6217,
      "ĠwidziaÅĤem": 6218,
      "Ġkarze": 6219,
      "Ġkapelu": 6220,
      "rida": 6221,
      "Ġbole": 6222,
      "nionym": 6223,
      "ĠwzgÃ³": 6224,
      "Ġmych": 6225,
      "ĠJedno": 6226,
      "ĠodpowiedÅº": 6227,
      "ĠgÅĤosu": 6228,
      "Ġojcu": 6229,
      "Ġznajdowa": 6230,
      "Ġokrzy": 6231,
      "ĠokrÄħ": 6232,
      "ĠÅ¼al": 6233,
      "Ġbiegu": 6234,
      "ĠchcÄħc": 6235,
      "ĠÅļlÄħ": 6236,
      "ĠokreÅĽlonym": 6237,
      "Ġpotrzebu": 6238,
      "Ġprowadzi": 6239,
      "Ġkobiet": 6240,
      "ĠrzeczywiÅĽcie": 6241,
      "mentar": 6242,
      "Ġwojen": 6243,
      "ĠchciaÅĤem": 6244,
      "ĠmaÅĤÅ¼on": 6245,
      "ĠudaÅĤo": 6246,
      "Ġaktorki": 6247,
      "Ġchoroby": 6248,
      "ĠStanisÅĤaw": 6249,
      "ĠudostÄĻp": 6250,
      "ĠCzÄĻsto": 6251,
      "Ġinfrastruktury": 6252,
      "ĠnoszÄħce": 6253,
      "ĠpojazdÃ³w": 6254,
      "ĠCoretti": 6255,
      "ĠwszÄĻdzie": 6256,
      "Ġgastronomi": 6257,
      "ĠÅĽmiertelnych": 6258,
      "52": 6259,
      "89": 6260,
      "ST": 6261,
      "Sto": 6262,
      "Ten": 6263,
      "cko": 6264,
      "jny": 6265,
      "pla": 6266,
      "tz": 6267,
      "tkÃ³w": 6268,
      "zwa": 6269,
      "ĠÃ": 6270,
      "Ġwersji": 6271,
      "Ġwczoraj": 6272,
      "Ġzo": 6273,
      "Ġzle": 6274,
      "Ġogo": 6275,
      "ÅĽle": 6276,
      "ĠmnÃ³": 6277,
      "Ġpochy": 6278,
      "ĠwystÄĻp": 6279,
      "ĠwystÄĻpu": 6280,
      "daje": 6281,
      "ciera": 6282,
      "ĠSch": 6283,
      "ĠSÅĤowa": 6284,
      "dziel": 6285,
      "ĠKraj": 6286,
      "rup": 6287,
      "ĠTym": 6288,
      "ĠZam": 6289,
      "ĠCe": 6290,
      "ĠCÃ³Å¼": 6291,
      "Ġwierz": 6292,
      "Ġ2025": 6293,
      "ĠproÅĽ": 6294,
      "ĠKoÅĽcioÅĤa": 6295,
      "stoÅĽÄĩ": 6296,
      "Ġspotyka": 6297,
      "ĠUkra": 6298,
      "ÅĽciem": 6299,
      "dzaÄĩ": 6300,
      "Ġnosi": 6301,
      "dencji": 6302,
      "zeÅĤ": 6303,
      "ĠduszÄĻ": 6304,
      "Ġdyspo": 6305,
      "rzuca": 6306,
      "Ġzdanie": 6307,
      "Ġare": 6308,
      "Ġarchi": 6309,
      "ĠpeÅĤno": 6310,
      "ĠRosji": 6311,
      "Ġszkole": 6312,
      "Ġkolejowym": 6313,
      "Przepisy": 6314,
      "Ġbraci": 6315,
      "Ġ2005": 6316,
      "ĠwschÃ³d": 6317,
      "patry": 6318,
      "ĠwÅĤaÅĽciwie": 6319,
      "ĠwyborcÃ³w": 6320,
      "ĠByÅĤo": 6321,
      "osob": 6322,
      "Ġfilmy": 6323,
      "Ġnaukowy": 6324,
      "Ġdawna": 6325,
      "wersyj": 6326,
      "ĠmaÅĤego": 6327,
      "ĠwpÅĤyw": 6328,
      "Ġwszelkie": 6329,
      "Ġstatut": 6330,
      "ĠPipidÃ³wki": 6331,
      "ĠwielkoÅĽci": 6332,
      "Ġnumer": 6333,
      "Ġzatrudnionych": 6334,
      "âĶĢâĶĢ": 6335,
      "ĠposzczegÃ³lnych": 6336,
      "ihai": 6337,
      "ĠTekst": 6338,
      "JuÅ¼": 6339,
      "RZ": 6340,
      "wÅĤo": 6341,
      "Ġrzym": 6342,
      "Ġwul": 6343,
      "Ġokiem": 6344,
      "Ġostro": 6345,
      "Ġnaraz": 6346,
      "Ġnasza": 6347,
      "Ġnabo": 6348,
      "ĠdokÅĤad": 6349,
      "Ġunika": 6350,
      "ĠniepeÅĤnospraw": 6351,
      "Ġprzebywa": 6352,
      "Ġprzekro": 6353,
      "Ġapli": 6354,
      "Ġgrz": 6355,
      "Ġgat": 6356,
      "Ġodno": 6357,
      "tyku": 6358,
      "wiÅĤo": 6359,
      "mami": 6360,
      "Ġprzypuszcza": 6361,
      "lonym": 6362,
      "logia": 6363,
      "Ġpraca": 6364,
      "Ġpacj": 6365,
      "duk": 6366,
      "paÅĤ": 6367,
      "Ġstrza": 6368,
      "Ġczwar": 6369,
      "ĠEBT": 6370,
      "Ġrestaura": 6371,
      "siego": 6372,
      "siÄħca": 6373,
      "ĠcieÅĦ": 6374,
      "Polityka": 6375,
      "Ġsame": 6376,
      "ĠJana": 6377,
      "prowadziÅĤ": 6378,
      "gÅĤÄĻ": 6379,
      "Ġosobom": 6380,
      "Ġwielka": 6381,
      "strzega": 6382,
      "Ġplane": 6383,
      "ĠrodzicÃ³w": 6384,
      "ĠsprawÄĻ": 6385,
      "ĠÅ¼ony": 6386,
      "Ġlam": 6387,
      "ĠpoÅĤudniu": 6388,
      "chrony": 6389,
      "Ġ1989": 6390,
      "Ġludzkie": 6391,
      "ĠprzestÄĻpstwa": 6392,
      "Ġobejmuje": 6393,
      "Ġkultury": 6394,
      "polskie": 6395,
      "ĠJadwigi": 6396,
      "ĠsprzedaÅ¼y": 6397,
      "ĠcaÅĤkowicie": 6398,
      "Ġpowierzch": 6399,
      "Ġpozytyw": 6400,
      "Ġkocham": 6401,
      "ĠnieprawidÅĤowoÅĽci": 6402,
      "Ġrekonwersji": 6403,
      "ĠpoÅĽredni": 6404,
      "010": 6405,
      "51": 6406,
      "63": 6407,
      "Gene": 6408,
      "ORF": 6409,
      "Posta": 6410,
      "Ry": 6411,
      "hy": 6412,
      "int": 6413,
      "ssi": 6414,
      "tt": 6415,
      "towi": 6416,
      "zosta": 6417,
      "Âµ": 6418,
      "Ġwprawdzie": 6419,
      "Ġsali": 6420,
      "Ġset": 6421,
      "Ġzbo": 6422,
      "niki": 6423,
      "stki": 6424,
      "Ġmak": 6425,
      "sznie": 6426,
      "Ġkrop": 6427,
      "ĠnarzÄĻ": 6428,
      "Ġzazna": 6429,
      "Ġzaprze": 6430,
      "koma": 6431,
      "Ġprzekazy": 6432,
      "cel": 6433,
      "danych": 6434,
      "wolu": 6435,
      "2021": 6436,
      "ĠktÃ³remu": 6437,
      "ĠÅ¼eÅĦskie": 6438,
      "ĠtysiÄħce": 6439,
      "Ġ(âĢŀ": 6440,
      "ĠAm": 6441,
      "ĠMÃ³wi": 6442,
      "ĠrozwÃ³j": 6443,
      "zach": 6444,
      "Ġpodoba": 6445,
      "lom": 6446,
      "lonÄħ": 6447,
      "Ġmala": 6448,
      "Ġmacie": 6449,
      "Ġtera": 6450,
      "Ġinwesty": 6451,
      "Ġczemu": 6452,
      "Ġminist": 6453,
      "Ġwidno": 6454,
      "kÅĤadem": 6455,
      "ĠnajbliÅ¼": 6456,
      "dnienie": 6457,
      "Ġkierow": 6458,
      "ĠÅĽwiado": 6459,
      "Ġ42": 6460,
      "ĠĠĠ": 6461,
      "ĠMicha": 6462,
      "Ġprawdopodobnie": 6463,
      "ĠMarty": 6464,
      "Ġpracownika": 6465,
      "ĠspÄĻ": 6466,
      "ĠsamorzÄħd": 6467,
      "Ġtrzeci": 6468,
      "ĠwÄĻzeÅĤ": 6469,
      "Ġzwro": 6470,
      "ĠzawoÅĤa": 6471,
      "Ġpozostaje": 6472,
      "ĠÅ¼Ã³ÅĤ": 6473,
      "Ġwnioski": 6474,
      "ĠwnioskÃ³w": 6475,
      "Ġstarego": 6476,
      "JeÅĽli": 6477,
      "ĠÅģa": 6478,
      "ĠwspÃ³ÅĤczes": 6479,
      "Ġistotnie": 6480,
      "Ġopiera": 6481,
      "Ġregionu": 6482,
      "ĠPodczas": 6483,
      "ĠwÄħt": 6484,
      "Ġinternet": 6485,
      "ĠczegoÅĽ": 6486,
      "ĠpoÅĤudniowo": 6487,
      "Ġodpowiednich": 6488,
      "burg": 6489,
      "ĠImprezy": 6490,
      "Ã¶l": 6491,
      "ĠkrzyknÄħÅĤ": 6492,
      "Ġprofesora": 6493,
      "ciaÅĤbym": 6494,
      "Ġemisji": 6495,
      "Ġwybuch": 6496,
      "Ġhistorii": 6497,
      "ĠpuÅĤkownik": 6498,
      "ĠbÅĤogosÅĤa": 6499,
      "Ġdekla": 6500,
      "ĠosiÄħgniÄĻcia": 6501,
      "Ġekonomi": 6502,
      "ĠpodobieÅĦstwo": 6503,
      "Ġwygenerowane": 6504,
      "Aby": 6505,
      "Fi": 6506,
      "PF": 6507,
      "dnych": 6508,
      "giÄĻ": 6509,
      "hu": 6510,
      "ktorze": 6511,
      "ls": 6512,
      "zek": 6513,
      "ÄĦ": 6514,
      "Ġy": 6515,
      "ĠÅĤy": 6516,
      "ÅĤowi": 6517,
      "cznika": 6518,
      "owska": 6519,
      "stre": 6520,
      "strowa": 6521,
      "rato": 6522,
      "Ġopo": 6523,
      "rologi": 6524,
      "gospodar": 6525,
      "dzona": 6526,
      "kaÅĤa": 6527,
      "ĠzaÄĩ": 6528,
      "ĠdokÅĤadnie": 6529,
      "Ġuczni": 6530,
      "tania": 6531,
      "ces": 6532,
      "daÅĤ": 6533,
      "toni": 6534,
      "ĠPer": 6535,
      "dziemy": 6536,
      "jechaÅĤ": 6537,
      "Ġkomi": 6538,
      "Ġtor": 6539,
      "Ġchi": 6540,
      "Ġrozp": 6541,
      "Ġpodpisa": 6542,
      "ĠTF": 6543,
      "ĠThe": 6544,
      "ĠZosta": 6545,
      "ĠJul": 6546,
      "ĠJÃ³ze": 6547,
      "ĠludÅº": 6548,
      "Ġpropozy": 6549,
      "doÅĽÄĩ": 6550,
      "Ġzestawienie": 6551,
      "Ġsprawa": 6552,
      "Ġnajpierw": 6553,
      "Ġ2014": 6554,
      "ĠbezpÅĤa": 6555,
      "Ġsynu": 6556,
      "dzonej": 6557,
      "Nad": 6558,
      "Ġogni": 6559,
      "czÄĻÅĽciej": 6560,
      "ĠgÅĤowa": 6561,
      "Ġzdrowie": 6562,
      "Ġwielkiego": 6563,
      "Ġruchem": 6564,
      "ĠzwrÃ³ci": 6565,
      "Ġpowinni": 6566,
      "Ġpublicznego": 6567,
      "doby": 6568,
      "ĠpostÄĻpowanie": 6569,
      "ĠpowstaÅĤa": 6570,
      "ĠrzuciÅĤ": 6571,
      "Ġfunkcjonowania": 6572,
      "Ġnadal": 6573,
      "ĠpoÅĤudniowej": 6574,
      "ĠbezpoÅĽrednie": 6575,
      "Ġwschodzie": 6576,
      "ĠsÅĤod": 6577,
      "ĠkwiatÃ³w": 6578,
      "ĠnadziejÄĻ": 6579,
      "Ġnazwiska": 6580,
      "ĠtreÅĽci": 6581,
      "Ġrekonwersyj": 6582,
      "Ġtekst": 6583,
      "Ġfunduszu": 6584,
      "Ġobrachunkowe": 6585,
      "ĠWyborcza": 6586,
      "Ġindywidual": 6587,
      "Ġfilozo": 6588,
      "ĠludÅºmi": 6589,
      "Cze": 6590,
      "Prezyden": 6591,
      "dnym": 6592,
      "fil": 6593,
      "gÅĤem": 6594,
      "kru": 6595,
      "wscho": 6596,
      "yg": 6597,
      "Ġ_": 6598,
      "Ġwsi": 6599,
      "Ġjutro": 6600,
      "ĠpoczÄĻ": 6601,
      "Ġbe": 6602,
      "Ġzatwier": 6603,
      "ĠdomÃ³w": 6604,
      "Ġjezio": 6605,
      "miÅĤ": 6606,
      "ĠwynikÃ³w": 6607,
      "koÅĽÄĩ": 6608,
      "czyÅĤem": 6609,
      "ĠPla": 6610,
      "ĠWszak": 6611,
      "wiÅĤy": 6612,
      "208": 6613,
      "Ġmoty": 6614,
      "Ġfar": 6615,
      "mych": 6616,
      "ĠpodkreÅĽli": 6617,
      "szeÄĩ": 6618,
      "ĠobÅĤo": 6619,
      "Ġniczego": 6620,
      "wiado": 6621,
      "Ġwieczo": 6622,
      "ĠNawet": 6623,
      "ĠPotem": 6624,
      "Ġwoda": 6625,
      "deÅĤ": 6626,
      "nionej": 6627,
      "nionego": 6628,
      "Ġdniach": 6629,
      "Ġbudowni": 6630,
      "Ġcierp": 6631,
      "Ġmelo": 6632,
      "Ġmatematy": 6633,
      "Ġzdarza": 6634,
      "Ġpolskie": 6635,
      "Ġtwojej": 6636,
      "Ġaktu": 6637,
      "stety": 6638,
      "ĠmÄĻÅ¼a": 6639,
      "Ġtrzydzie": 6640,
      "ĠogÃ³lne": 6641,
      "ĠwiÄĻksze": 6642,
      "ĠdÅĤugoÅĽÄĩ": 6643,
      "ĠWojcie": 6644,
      "virida": 6645,
      "ĠTylko": 6646,
      "Ġmilczeniu": 6647,
      "Ġotwarcia": 6648,
      "Ġzamieszka": 6649,
      "ĠEuropy": 6650,
      "ĠiloÅĽÄĩ": 6651,
      "ĠOjciec": 6652,
      "Fil": 6653,
      "KrÃ³": 6654,
      "dowej": 6655,
      "dowaÄĩ": 6656,
      "psu": 6657,
      "rnie": 6658,
      "wcy": 6659,
      "zent": 6660,
      "ĠwrÃ³ciÅĤ": 6661,
      "Ġspie": 6662,
      "ĠzresztÄħ": 6663,
      "Ġtrakt": 6664,
      "Ġkamy": 6665,
      "iabi": 6666,
      "Ġnade": 6667,
      "Ġnadzoru": 6668,
      "Ġpomaga": 6669,
      "wale": 6670,
      "Ġodde": 6671,
      "erma": 6672,
      "ÅĤymi": 6673,
      "ĠSze": 6674,
      "szyÅĤa": 6675,
      "ĠprzywiÄħza": 6676,
      "ture": 6677,
      "Ġmoi": 6678,
      "Ġmojego": 6679,
      "ĠAnu": 6680,
      "ĠAmery": 6681,
      "ĠBek": 6682,
      "ĠZo": 6683,
      "Ġmas": 6684,
      "ĠOpera": 6685,
      "Ġinfek": 6686,
      "Ġinstruk": 6687,
      "Ġ208": 6688,
      "ĠKoÅĽciÃ³ÅĤ": 6689,
      "Ġlinie": 6690,
      "pery": 6691,
      "Ġwina": 6692,
      "ĠprzedÅĤu": 6693,
      "Ġ39": 6694,
      "Ġbudyn": 6695,
      "Ġcicho": 6696,
      "Ġdelika": 6697,
      "ĠwÅĤadz": 6698,
      "Ġwese": 6699,
      "Ġ46": 6700,
      "Dzi": 6701,
      "Ġmecha": 6702,
      "ĠkaÅ¼de": 6703,
      "Ġ99": 6704,
      "Ġwielkich": 6705,
      "ĠczeÅĽÄĩ": 6706,
      "dzÄħce": 6707,
      "nder": 6708,
      "Ġniezwy": 6709,
      "Ġdecyzje": 6710,
      "ĠprogramÃ³w": 6711,
      "ĠVa": 6712,
      "ChÅĤo": 6713,
      "ĠobowiÄħza": 6714,
      "ĠWeihai": 6715,
      "Ġkompu": 6716,
      "Ġstosowania": 6717,
      "nadto": 6718,
      "Ġprocesu": 6719,
      "ĠzarzÄħdzania": 6720,
      "ĠusÅĤugowych": 6721,
      "ĠNigdy": 6722,
      "ĠstanowiÄħcych": 6723,
      "landii": 6724,
      "ĠkrÃ³tko": 6725,
      "Ġpustyni": 6726,
      "ĠstaroÅ¼y": 6727,
      "ĠKrakowie": 6728,
      "ĠmoÅ¼liwych": 6729,
      "Ġstruktury": 6730,
      "ĠPubli": 6731,
      "ĠamerykaÅĦski": 6732,
      "ĠtÄĻskno": 6733,
      "ĠÅĽrodowiska": 6734,
      "ĠtowarÃ³w": 6735,
      "ĠbÅĤÄĻki": 6736,
      "Pierw": 6737,
      "Ġserwisie": 6738,
      "chiwalne": 6739,
      "Ġanalizy": 6740,
      "Ġwynagradzania": 6741,
      "ĠHiszpanii": 6742,
      "ygmu": 6743,
      "79": 6744,
      "715": 6745,
      "::": 6746,
      "OG": 6747,
      "gaty": 6748,
      "nnej": 6749,
      "zz": 6750,
      "Ġprem": 6751,
      "niona": 6752,
      "ramach": 6753,
      "Ġoku": 6754,
      "rona": 6755,
      "Ġitp": 6756,
      "ĠkÃ³ÅĤ": 6757,
      "niaÄĩ": 6758,
      "ĠPary": 6759,
      "woj": 6760,
      "ĠWar": 6761,
      "ĠSam": 6762,
      "Å¼yli": 6763,
      "ĠkoÅĽcioÅĤa": 6764,
      "ĠKi": 6765,
      "ĠÅ¼elaz": 6766,
      "mierz": 6767,
      "ĠMiÄĻdzy": 6768,
      "Ġflo": 6769,
      "Ġfan": 6770,
      "Ġteren": 6771,
      "Ġstd": 6772,
      "Ġwiek": 6773,
      "Ġproro": 6774,
      "Ġczter": 6775,
      "Ġczwart": 6776,
      "ĠnÃ³g": 6777,
      "niejszÄħ": 6778,
      "ĠNawro": 6779,
      "ĠLan": 6780,
      "Ġczyni": 6781,
      "czÄħcych": 6782,
      "ĠPosta": 6783,
      "Ġkara": 6784,
      "Ġdeparta": 6785,
      "zesa": 6786,
      "ĠPolskiego": 6787,
      "ĠMichaÅĤ": 6788,
      "ĠmetrÃ³w": 6789,
      "ralne": 6790,
      "Niechaj": 6791,
      "Ġpewne": 6792,
      "Ġpewno": 6793,
      "Ġostatnie": 6794,
      "Ġcyfr": 6795,
      "Ġzakres": 6796,
      "ĠzachÄĻ": 6797,
      "ĠzaleÅ¼noÅĽci": 6798,
      "ĠwiÄĻkszÄħ": 6799,
      "ĠpraworzÄħd": 6800,
      "ĠpaÅĦstwowych": 6801,
      "ĠobowiÄħzku": 6802,
      "Ġzmarli": 6803,
      "ĠzmarÅĤy": 6804,
      "Ġopubli": 6805,
      "ĠpoznaÄĩ": 6806,
      "Ġgwiazdy": 6807,
      "ĠmiÄĻdzynarodowy": 6808,
      "ĠuchwaÅĤy": 6809,
      "Ġnadziei": 6810,
      "Ġbrzegu": 6811,
      "Ġodebra": 6812,
      "ĠwraÅ¼enie": 6813,
      "ĠrzÄħdowej": 6814,
      "Ġkochan": 6815,
      "ĠHeniuÅĽ": 6816,
      "ĠzdoÅĤa": 6817,
      "ĠogÃ³le": 6818,
      "Ġkompetencji": 6819,
      "//": 6820,
      "Nek": 6821,
      "QL": 6822,
      "biÄĻ": 6823,
      "gno": 6824,
      "nkÄĻ": 6825,
      "ok": 6826,
      "zda": 6827,
      "Ġ{": 6828,
      "Ġsro": 6829,
      "Ġspi": 6830,
      "Ġskaza": 6831,
      "ĠzÄĻ": 6832,
      "niku": 6833,
      "cher": 6834,
      "Å¼nie": 6835,
      "ĠoÅĽwiad": 6836,
      "Ġnara": 6837,
      "Ġnatury": 6838,
      "Ġzak": 6839,
      "Ġniewi": 6840,
      "Ġwystar": 6841,
      "Ġprzeba": 6842,
      "ciela": 6843,
      "dziny": 6844,
      "ÅĤudni": 6845,
      "orf": 6846,
      "ĠMal": 6847,
      "lon": 6848,
      "szedÅĤem": 6849,
      "ĠobsÅĤugu": 6850,
      "ĠmaÅĤych": 6851,
      "wiaÄĩ": 6852,
      "duka": 6853,
      "ĠstanÄħÅĤ": 6854,
      "ĠKomite": 6855,
      "Ġnowy": 6856,
      "ĠNapisz": 6857,
      "Ġspod": 6858,
      "czÄħÄĩ": 6859,
      "ĠPozna": 6860,
      "Ġ319": 6861,
      "ĠToteÅ¼": 6862,
      "ciÄħgniÄĻ": 6863,
      "Ġ90": 6864,
      "Ġplanowa": 6865,
      "ĠogÃ³lnej": 6866,
      "wiÄħzku": 6867,
      "Ġfag": 6868,
      "ĠkilkanaÅĽcie": 6869,
      "ĠkoniecznoÅĽci": 6870,
      "ĠpierÅĽcie": 6871,
      "Ġinteligen": 6872,
      "Ġtwej": 6873,
      "ĠzwierzÄħ": 6874,
      "ĠwÅĤosy": 6875,
      "ĠprzestÄĻpstw": 6876,
      "ĠciÄĻÅ¼ar": 6877,
      "Ġzachodzie": 6878,
      "Ġwyniki": 6879,
      "Ġodpowiednik": 6880,
      "ĠHaven": 6881,
      "Ġwiadomo": 6882,
      "Ġczasach": 6883,
      "ĠokrÄĻgu": 6884,
      "Ġpoziomie": 6885,
      "Ġmetody": 6886,
      "ĠBardzo": 6887,
      "ĠgÅĤÄĻboko": 6888,
      "Ġkomunikacji": 6889,
      "ĠwyjaÅĽnie": 6890,
      "Ġbakteriofaga": 6891,
      "Ġserialu": 6892,
      "ĠpuÅĤkownika": 6893,
      "ĠKarol": 6894,
      "Ġinicjatywy": 6895,
      "Ġautobus": 6896,
      "ĠodezwaÅĤ": 6897,
      "wziÄĻcia": 6898,
      "niÅ¼szej": 6899,
      "ĠwstrzÄħ": 6900,
      "Ġrezolucji": 6901,
      "Ġutworzonych": 6902,
      "ĠKatowi": 6903,
      "ĠBeksi": 6904,
      "Nekrologi": 6905,
      "\").": 6906,
      "Jam": 6907,
      "RA": 6908,
      "Rze": 6909,
      "Stra": 6910,
      "Ucze": 6911,
      "gnaÅĤ": 6912,
      "pÃ³ki": 6913,
      "towania": 6914,
      "iego": 6915,
      "Ġwnet": 6916,
      "ĠsÄĻdzi": 6917,
      "nin": 6918,
      "czkÄħ": 6919,
      "Ġtj": 6920,
      "Ġmundu": 6921,
      "roÅĽÄĩ": 6922,
      "szto": 6923,
      "ian": 6924,
      "liny": 6925,
      "Ġzamyka": 6926,
      "Ġdostos": 6927,
      "Ġuz": 6928,
      "Ġunie": 6929,
      "wajÄħc": 6930,
      "noszÄħc": 6931,
      "ĠwyciÄħga": 6932,
      "Ġwystarcza": 6933,
      "Ġapa": 6934,
      "Ġand": 6935,
      "Ġodga": 6936,
      "Ġprzywi": 6937,
      "ĠprzyjÄħÄĩ": 6938,
      "ĠjakÅ¼e": 6939,
      "ĠAt": 6940,
      "ĠÅĽli": 6941,
      "Ġrozpat": 6942,
      "Ġrozmai": 6943,
      "ĠBrandenbur": 6944,
      "ĠTÃ¶l": 6945,
      "ĠZygmu": 6946,
      "Ġmagi": 6947,
      "ĠDNA": 6948,
      "ĠGu": 6949,
      "ĠnowÄħ": 6950,
      "Ġresor": 6951,
      "stokra": 6952,
      "Ġmusia": 6953,
      "Ġwidzenia": 6954,
      "Ġ2017": 6955,
      "ĠczasÃ³w": 6956,
      "ĠHar": 6957,
      "Ġokresu": 6958,
      "ĠbyÅĤby": 6959,
      "Ġfina": 6960,
      "ĠĊĠĊĠĊ": 6961,
      "Ġmatce": 6962,
      "ĠMarek": 6963,
      "ĠgodzinÄĻ": 6964,
      "Ġtwoja": 6965,
      "ĠwÅĤasnÄħ": 6966,
      "ĠÅĽwietle": 6967,
      "ĠmyÅĽleÄĩ": 6968,
      "Ġbrata": 6969,
      "ĊĠĠĠĠĠĠĠ": 6970,
      "Ġnazwie": 6971,
      "Ġziemia": 6972,
      "atomiast": 6973,
      "Ġinteres": 6974,
      "ĠjÄĻzyku": 6975,
      "ĠprzyszÅĤa": 6976,
      "Ġniepodob": 6977,
      "ĠdodaÅĤ": 6978,
      "poÅĽrednie": 6979,
      "Ġgenomu": 6980,
      "ĠdostaÄĩ": 6981,
      "Ġizb": 6982,
      "ĠDerossi": 6983,
      "Ġdalsze": 6984,
      "ĠszukaÄĩ": 6985,
      "ĠLotni": 6986,
      "ĠmateriaÅĤ": 6987,
      "Ġoblicza": 6988,
      "Ġregionalnych": 6989,
      "Ġprzedstawicieli": 6990,
      "ĠmoÅ¼liwe": 6991,
      "Ġprzepisami": 6992,
      "ĠczoÅĤo": 6993,
      "ĠDobrze": 6994,
      "Ġ//": 6995,
      "Ġspokojnie": 6996,
      "Ġzrozumie": 6997,
      "ĠFinans": 6998,
      "Ġwsparcia": 6999,
      "ĠXIX": 7000,
      "ĠÅĤaciÅĦskiego": 7001,
      "Ġkwalifika": 7002,
      "ĠintegralnÄħ": 7003,
      "ĠuposaÅ¼enia": 7004,
      "ĠwÄħtpliwoÅĽci": 7005,
      "ĠTFUE": 7006,
      "54": 7007,
      "Pan": 7008,
      "Tym": 7009,
      "bÃ³r": 7010,
      "dowych": 7011,
      "ff": 7012,
      "gÃ³r": 7013,
      "hn": 7014,
      "ium": 7015,
      "twy": 7016,
      "Ġ'": 7017,
      "ĠQ": 7018,
      "Ġen": 7019,
      "ĠzgÅĤasza": 7020,
      "chÅĤo": 7021,
      "ĠkÅĤo": 7022,
      "Ġnapo": 7023,
      "Ġpobytu": 7024,
      "Ġzaspo": 7025,
      "Ġzadowo": 7026,
      "mino": 7027,
      "Ġwydoby": 7028,
      "Ġprzesy": 7029,
      "czywiÅĽcie": 7030,
      "daÅĦ": 7031,
      "stanie": 7032,
      "ĠWil": 7033,
      "dzieÅĽcia": 7034,
      "ruje": 7035,
      "Ġmodli": 7036,
      "ĠMÅĤo": 7037,
      "ĠrozdziaÅĤ": 7038,
      "ĠTwo": 7039,
      "ĠCO": 7040,
      "Ġdzwo": 7041,
      "ĠmaÅĤÄħ": 7042,
      "ĠOchrony": 7043,
      "paÄĩ": 7044,
      "Ġmist": 7045,
      "Ġmusie": 7046,
      "Ġdanego": 7047,
      "bliÅ¼ej": 7048,
      "kreÅĽ": 7049,
      "ĠÅ¼yÅĤ": 7050,
      "ĠnajwiÄĻcej": 7051,
      "Ġnajlepiej": 7052,
      "ĠrzekÄħ": 7053,
      "ĠNiektÃ³": 7054,
      "Ġgdybym": 7055,
      "czono": 7056,
      "ĠwiÄĻzie": 7057,
      "Ġzostaje": 7058,
      "niÄĻty": 7059,
      "ĠWywo": 7060,
      "ĠRada": 7061,
      "ĠrÃ³wnowa": 7062,
      "Ġsamy": 7063,
      "ĠsamÄħ": 7064,
      "Ġpotwor": 7065,
      "media": 7066,
      "ĠMimo": 7067,
      "ĠStowarzy": 7068,
      "Ġryce": 7069,
      "Ġsprzy": 7070,
      "ĠsprzÄĻ": 7071,
      "ĠpeÅĤnym": 7072,
      "ĠsamorzÄħ": 7073,
      "dzÄħcy": 7074,
      "Ġkolejnych": 7075,
      "ĠwÅĤasnego": 7076,
      "Przez": 7077,
      "siadÅĤ": 7078,
      "ĠwaÅ¼ne": 7079,
      "tekÅĽcie": 7080,
      "Ġskon": 7081,
      "Ġgrozi": 7082,
      "ĠchÅĤopcÃ³w": 7083,
      "ĠmÃ³gÅĤby": 7084,
      "jrzaÅĤem": 7085,
      "Ġwprowadzenie": 7086,
      "Ġdawno": 7087,
      "Ġdawniej": 7088,
      "ĠpostÄĻpowaniu": 7089,
      "Å»y": 7090,
      "Ġpolityki": 7091,
      "ĠRyszar": 7092,
      "ustria": 7093,
      "Noclegi": 7094,
      "Ġuczucia": 7095,
      "ĠGdyby": 7096,
      "ĠgÅĤÄĻbi": 7097,
      "ĠIzby": 7098,
      "Ġpowiatu": 7099,
      "Ġniewiele": 7100,
      "ĠwiÄĻkszoÅĽÄĩ": 7101,
      "Ġzagad": 7102,
      "Ġenergii": 7103,
      "ĠzwierzÄĻta": 7104,
      "Ġstrategi": 7105,
      "Nauczyciel": 7106,
      "ĠNeuiabi": 7107,
      "ĠchrzeÅĽcija": 7108,
      "56": 7109,
      "Bu": 7110,
      "CH": 7111,
      "Dob": 7112,
      "IN": 7113,
      "On": 7114,
      "SZ": 7115,
      "WÅĤa": 7116,
      "gc": 7117,
      "gne": 7118,
      "gun": 7119,
      "matu": 7120,
      "one": 7121,
      "px": 7122,
      "sÄĻ": 7123,
      "siada": 7124,
      "vo": 7125,
      "wek": 7126,
      "ya": 7127,
      "zÄĻ": 7128,
      "ĠÏ": 7129,
      "Ġowego": 7130,
      "Ġsobo": 7131,
      "nic": 7132,
      "nica": 7133,
      "nieniu": 7134,
      "Ġodzie": 7135,
      "ĠdÄħ": 7136,
      "ĠtrÃ³j": 7137,
      "szczone": 7138,
      "gor": 7139,
      "Ġpopar": 7140,
      "ĠzarzÄħd": 7141,
      "Ġniemu": 7142,
      "warza": 7143,
      "owaÅ¼": 7144,
      "rzyÅĤem": 7145,
      "Ġwyga": 7146,
      "Ġwyczer": 7147,
      "komi": 7148,
      "Ġprzeszko": 7149,
      "Ġaa": 7150,
      "Ġalko": 7151,
      "Ġroli": 7152,
      "ĠSA": 7153,
      "ĠSÄħd": 7154,
      "wieniem": 7155,
      "ame": 7156,
      "ĠNic": 7157,
      "ĠMÄĻ": 7158,
      "ĠÅĽmiaÅĤ": 7159,
      "Ġcha": 7160,
      "ĠTra": 7161,
      "pienia": 7162,
      "Ġinsta": 7163,
      "Ġstacji": 7164,
      "Ġmienia": 7165,
      "Ġredak": 7166,
      "Ġwino": 7167,
      "Ġwidzia": 7168,
      "Å¼aÄĩ": 7169,
      "sier": 7170,
      "sunek": 7171,
      "Ġpies": 7172,
      "fikowa": 7173,
      "Ġpedo": 7174,
      "ĠPapie": 7175,
      "ĠpiÃ³": 7176,
      "ĠrÄĻkach": 7177,
      "Ġojczyz": 7178,
      "tkowo": 7179,
      "ĠspoÅĤeczeÅĦstwa": 7180,
      "ĠumiaÅĤ": 7181,
      "Ġ122": 7182,
      "Ġnazwa": 7183,
      "ĠÅ¼ona": 7184,
      "Ġwyborcza": 7185,
      "ĠobowiÄħzki": 7186,
      "Ġdyrekty": 7187,
      "Ġgeno": 7188,
      "ĠMinisterstwo": 7189,
      "Ġdodatkowe": 7190,
      "ĠzatrzymaÅĤ": 7191,
      "ĠpoÅĽpie": 7192,
      "ĠotrzymaÅĤ": 7193,
      "ĠiloÅĽci": 7194,
      "ĠzdolnoÅĽci": 7195,
      "Ġodwagi": 7196,
      "ĠodlegÅĤoÅĽci": 7197,
      "ĠrÃ³wnoczeÅĽnie": 7198,
      "Ġpaliw": 7199,
      "ĠpoÅĤoÅ¼ony": 7200,
      "Ġnienawi": 7201,
      "ĠÄĩwi": 7202,
      "Ġosiem": 7203,
      "ĠustanawiajÄħce": 7204,
      "ĠGerwid": 7205,
      "Ġgospodarza": 7206,
      "ĠObywatelskich": 7207,
      "Ġarystokra": 7208,
      "Ġasyst": 7209,
      ".),": 7210,
      "93": 7211,
      "DL": 7212,
      "Oto": 7213,
      "Pi": 7214,
      "Pat": 7215,
      "Por": 7216,
      "Pio": 7217,
      "au": 7218,
      "crip": 7219,
      "frowa": 7220,
      "sÄħ": 7221,
      "sÄħd": 7222,
      "wsze": 7223,
      "Ãĵ": 7224,
      "ĠwÃ³d": 7225,
      "Ġsum": 7226,
      "niÅĤo": 7227,
      "nictwa": 7228,
      "czko": 7229,
      "rzÄĻdzie": 7230,
      "char": 7231,
      "owu": 7232,
      "racja": 7233,
      "Ġoca": 7234,
      "rol": 7235,
      "Ġkim": 7236,
      "Ġpoci": 7237,
      "Ġpolu": 7238,
      "ĠbÃ³": 7239,
      "Ġdoby": 7240,
      "Ġutru": 7241,
      "Ġwych": 7242,
      "ĠwysiÅĤ": 7243,
      "Ġwybrze": 7244,
      "cjon": 7245,
      "dan": 7246,
      "erwa": 7247,
      "ĠWal": 7248,
      "Ġkor": 7249,
      "Ġbywa": 7250,
      "orÄħc": 7251,
      "ĠchorÄħ": 7252,
      "ĠJl": 7253,
      "Ġwiedzy": 7254,
      "Ġprobo": 7255,
      "ĠElia": 7256,
      "ĠGru": 7257,
      "pela": 7258,
      "szaÅĤa": 7259,
      "miany": 7260,
      "ĠznakÃ³w": 7261,
      "syÄĩ": 7262,
      "Ġdanej": 7263,
      "ĠwokÃ³ÅĤ": 7264,
      "powiedzia": 7265,
      "ĠwÅĤad": 7266,
      "Ġpowiem": 7267,
      "ĠJerzy": 7268,
      "conych": 7269,
      "Ġchorego": 7270,
      "Ġbab": 7271,
      "Ġprawdy": 7272,
      "ĠÅĤagod": 7273,
      "1990": 7274,
      "Ġkonty": 7275,
      "gÅĤej": 7276,
      "Å¼Äħda": 7277,
      "ĠKauka": 7278,
      "Ġarmii": 7279,
      "Ġsamodzie": 7280,
      "Ġkolejne": 7281,
      "ĠzwrÃ³": 7282,
      "ĠmyÅĽlaÅĤ": 7283,
      "Wyso": 7284,
      "Ġpewnego": 7285,
      "ransportu": 7286,
      "towany": 7287,
      "ĠPark": 7288,
      "ĠJako": 7289,
      "Ġwojska": 7290,
      "Ġpracownicy": 7291,
      "Ġ[]": 7292,
      "Ġistotne": 7293,
      "ARQL": 7294,
      "niesienia": 7295,
      "ĠbiaÅĤek": 7296,
      "ĠĊĠĊĠĊĠĊĠĊ": 7297,
      "Ġmiejskiej": 7298,
      "Wiki": 7299,
      "Ġnowoczes": 7300,
      "ĠSejm": 7301,
      "Ġpoziomu": 7302,
      "ĠWikidanych": 7303,
      "Ġhonor": 7304,
      "Ġkwestii": 7305,
      "mÃ³wiÄĩ": 7306,
      "ĠWspÃ³lnego": 7307,
      "ĠrÄħk": 7308,
      "ĠPreco": 7309,
      "Ġkapitan": 7310,
      "Ġowszem": 7311,
      "ĠwypÅĤaca": 7312,
      "ĠumiejÄĻtnoÅĽci": 7313,
      "Policja": 7314,
      "05761": 7315,
      "Ġwulka": 7316,
      "ĠTÃ¶lz": 7317,
      "Cie": 7318,
      "Mie": 7319,
      "Se": 7320,
      "brew": 7321,
      "gowi": 7322,
      "mb": 7323,
      "ono": 7324,
      "sar": 7325,
      "spie": 7326,
      "ĠrzÄħdu": 7327,
      "Ġspada": 7328,
      "nice": 7329,
      "nictwo": 7330,
      "Ġokie": 7331,
      "ĠoglÄħda": 7332,
      "Ġotacza": 7333,
      "Ġtle": 7334,
      "roÅĽci": 7335,
      "rosÅĤaw": 7336,
      "Ġimiona": 7337,
      "szer": 7338,
      "Ġpopra": 7339,
      "ĠposeÅĤ": 7340,
      "lij": 7341,
      "dacji": 7342,
      "Ġgen": 7343,
      "toÅĽÄĩ": 7344,
      "woÅĽÄĩ": 7345,
      "Ġrolni": 7346,
      "ĠWszyscy": 7347,
      "wili": 7348,
      "caÅĤu": 7349,
      "jenia": 7350,
      "ĠKata": 7351,
      "mal": 7352,
      "Ġprzypu": 7353,
      "Ġprzytom": 7354,
      "Ġmody": 7355,
      "Ġsznu": 7356,
      "gaÅ¼": 7357,
      "Ġdzia": 7358,
      "Ġniczym": 7359,
      "ĊĊĠĠĠ": 7360,
      "Ġpragnie": 7361,
      "wiaÅĤ": 7362,
      "wiajÄħ": 7363,
      "Ġlubi": 7364,
      "olf": 7365,
      "ĠDy": 7366,
      "ĠmiesiÄħc": 7367,
      "ĠIV": 7368,
      "Ġwizy": 7369,
      "dnik": 7370,
      "ĠPocz": 7371,
      "ĠPolity": 7372,
      "Ġkap": 7373,
      "sunÄħÅĤ": 7374,
      "ĠwodÄħ": 7375,
      "Ġgdym": 7376,
      "czoÅĽÄĩ": 7377,
      "Ġsynem": 7378,
      "Ġjazdy": 7379,
      "ĠwewnÄħtrz": 7380,
      "Ġkier": 7381,
      "Ġmym": 7382,
      "ĠJeden": 7383,
      "Ġbudow": 7384,
      "ĠPaw": 7385,
      "Ġdusza": 7386,
      "Ġbaj": 7387,
      "ĠsprawiedliwoÅĽci": 7388,
      "Ġgrunt": 7389,
      "ĠchwilÄħ": 7390,
      "waria": 7391,
      "ĠpeÅĤna": 7392,
      "szonych": 7393,
      "ĠmyÅĽlÄĻ": 7394,
      "sÅĤÃ³w": 7395,
      "Ġgminie": 7396,
      "Ġskom": 7397,
      "Ġ2002": 7398,
      "hage": 7399,
      "Ġzachwy": 7400,
      "ĠNocleg": 7401,
      "Ġorganizacyjnych": 7402,
      "Ġpodobnie": 7403,
      "ĠTakie": 7404,
      "ĠWood": 7405,
      "ĠÅ¼oÅĤnierz": 7406,
      "Ġzajmuje": 7407,
      "Ġstopniu": 7408,
      "Ġpunktu": 7409,
      "Ġkorzystania": 7410,
      "Ġwszelkich": 7411,
      "Ġprzedmiotem": 7412,
      "Ġwymiarze": 7413,
      "ĠwziÄħÄĩ": 7414,
      "ĠDlaczego": 7415,
      "Archiwalne": 7416,
      "1989": 7417,
      "Ġwypowiedzi": 7418,
      "Antoni": 7419,
      "ĠwyjÄħtkiem": 7420,
      "ĠkazaÅĤ": 7421,
      "ĠreÅ¼yserii": 7422,
      "Ġkonsek": 7423,
      "ĠSPARQL": 7424,
      "ĠbÅĤÄĻd": 7425,
      "ĠZdzisÅĤaw": 7426,
      ".).": 7427,
      "COM": 7428,
      "MÃ³wi": 7429,
      "Sza": 7430,
      "Wtem": 7431,
      "Zak": 7432,
      "ft": 7433,
      "fry": 7434,
      "gnÄĻ": 7435,
      "kowaÄĩ": 7436,
      "lÄħd": 7437,
      "nna": 7438,
      "nowaÅĤ": 7439,
      "ĠwnÄĻ": 7440,
      "ĠzÅĤe": 7441,
      "ĠzÅĤego": 7442,
      "czar": 7443,
      "czemu": 7444,
      "Ġosa": 7445,
      "Ġdnie": 7446,
      "Ġid": 7447,
      "szona": 7448,
      "szliÅĽmy": 7449,
      "Ġnazy": 7450,
      "Ġnamio": 7451,
      "Ġpomy": 7452,
      "ĠpociÄħ": 7453,
      "Ġpotom": 7454,
      "Ġzabija": 7455,
      "Ġukara": 7456,
      "ĠnieÅĽ": 7457,
      "atÄĻ": 7458,
      "Ġwywia": 7459,
      "Ġprzeja": 7460,
      "dyj": 7461,
      "ĠSÅĤu": 7462,
      "ĠSzy": 7463,
      "ĠBel": 7464,
      "Ġpodda": 7465,
      "Ġrower": 7466,
      "ĠmiÅĤy": 7467,
      "ĠEl": 7468,
      "rzÄħdzenie": 7469,
      "moda": 7470,
      "ĠlistÄĻ": 7471,
      "szaÅĤem": 7472,
      "Ġprzedtem": 7473,
      "Ġraj": 7474,
      "rzami": 7475,
      "Ġkaje": 7476,
      "kÅĤady": 7477,
      "Ġ32": 7478,
      "Ġmiastem": 7479,
      "ÅĤÄħb": 7480,
      "Ġeli": 7481,
      "dzanie": 7482,
      "ĠcaÅĤoÅĽci": 7483,
      "Ġkup": 7484,
      "Ġcen": 7485,
      "Ġ48": 7486,
      "Ġbudowy": 7487,
      "Ġfigu": 7488,
      "ĠPani": 7489,
      "Ġfunkcje": 7490,
      "Ġabym": 7491,
      "ĠdziaÅĤanie": 7492,
      "ĠoprÃ³cz": 7493,
      "Ġgrup": 7494,
      "Ġgrafi": 7495,
      "Ġpierwszych": 7496,
      "Ġpolskim": 7497,
      "Ġalterna": 7498,
      "ĠzÅĤoÅ¼o": 7499,
      "ĠtworzÄħ": 7500,
      "ĠoczywiÅĽcie": 7501,
      "ĠwaÅ¼nych": 7502,
      "ĠÅ¼yciem": 7503,
      "Ġprogramie": 7504,
      "ĠksiÄĻdz": 7505,
      "ĠzaleÅ¼y": 7506,
      "Ġludziom": 7507,
      "Ã³Åºniej": 7508,
      "Ġpodobny": 7509,
      "Ġzapewnienia": 7510,
      "Ġzajmu": 7511,
      "Ġoperatora": 7512,
      "Ġzatrudnia": 7513,
      "Ġdyrektora": 7514,
      "Ġfunkcjonariusz": 7515,
      "ĠzakÅĤadu": 7516,
      "Ġmuzyka": 7517,
      "âĨĲ": 7518,
      "Ġuczucie": 7519,
      "ĠuÅ¼ytkowanie": 7520,
      "Ġostatnim": 7521,
      "ByÅĤ": 7522,
      "âĢľ.": 7523,
      "ĠGÅĤÃ³wnej": 7524,
      "ĠÅºrÃ³deÅĤ": 7525,
      "Ġakademickiego": 7526,
      "ĠDziÄĻkujÄĻ": 7527,
      "Ġnarodowych": 7528,
      "Teraz": 7529,
      "Ġwidzisz": 7530,
      "ĠKonstytu": 7531,
      "Ġolbrzymie": 7532,
      "ĠumarÅĤ": 7533,
      "Ġnukle": 7534,
      "Ġtablicy": 7535,
      "ĠIraku": 7536,
      "Ġkompleks": 7537,
      "ĠÅĽredniowie": 7538,
      "Ġedycji": 7539,
      "ĠzwierzÄħt": 7540,
      "74": 7541,
      "91": 7542,
      "://": 7543,
      "Ach": 7544,
      "Bez": 7545,
      "Kon": 7546,
      "ecznie": 7547,
      "gli": 7548,
      "iu": 7549,
      "ttp": 7550,
      "wka": 7551,
      "wnych": 7552,
      "wraca": 7553,
      "ĠÐ": 7554,
      "ĠwrÃ³": 7555,
      "ĠwrÄĻ": 7556,
      "Ġsnu": 7557,
      "Ġzby": 7558,
      "natu": 7559,
      "nastu": 7560,
      "chnÄħÅĤ": 7561,
      "owcÃ³w": 7562,
      "Ã³ry": 7563,
      "ÅĽrod": 7564,
      "Ġmno": 7565,
      "Ġit": 7566,
      "Ġkata": 7567,
      "Ġpobo": 7568,
      "ĠpoÅ¼ar": 7569,
      "Ġzaro": 7570,
      "Ġdochodzi": 7571,
      "Ġdoktorze": 7572,
      "rzyna": 7573,
      "rzyÅĤo": 7574,
      "Ġamino": 7575,
      "cyden": 7576,
      "celu": 7577,
      "ÅĦczy": 7578,
      "ĠSÅĤuÅ¼": 7579,
      "obi": 7580,
      "dziera": 7581,
      "dzieÅĦ": 7582,
      "wiej": 7583,
      "ĠKle": 7584,
      "ĠNatomiast": 7585,
      "ĠprzyjÄĻcia": 7586,
      "ĠAb": 7587,
      "Ġchcieli": 7588,
      "Ġfunda": 7589,
      "owiska": 7590,
      "lono": 7591,
      "ĠTar": 7592,
      "ĠZresztÄħ": 7593,
      "paÅĦstw": 7594,
      "Ġstwarza": 7595,
      "Ġint": 7596,
      "Ġ203": 7597,
      "Ġpromo": 7598,
      "Ġrela": 7599,
      "ĠNaleÅ¼y": 7600,
      "pedii": 7601,
      "ĠdziewiÄĻ": 7602,
      "Ġrada": 7603,
      "Ġzech": 7604,
      "ĠkapÅĤa": 7605,
      "ĠwodÄĻ": 7606,
      "Ġlogi": 7607,
      "dzaÅĤ": 7608,
      "Ġpowstrzyma": 7609,
      "ĠWykona": 7610,
      "siÄħdz": 7611,
      "Ġ500": 7612,
      "ĠgÅĤosy": 7613,
      "ĠZacho": 7614,
      "ĠprawdÄĻ": 7615,
      "ĠkaÅ¼dÄħ": 7616,
      "Ġplanu": 7617,
      "Ġtwoim": 7618,
      "Ġwskazuje": 7619,
      "ĠzwrÃ³ciÄĩ": 7620,
      "nizacji": 7621,
      "ĠniezwÅĤo": 7622,
      "ĠzgoÅĤa": 7623,
      "ĠokreÅĽlony": 7624,
      "ĠokreÅĽlonego": 7625,
      "Ġ80": 7626,
      "ĠzachÃ³d": 7627,
      "wÄħt": 7628,
      "wentual": 7629,
      "nosiÅĤ": 7630,
      "ĠTele": 7631,
      "Ġwyborczej": 7632,
      "Ġparla": 7633,
      "Ġkoniecznie": 7634,
      "ĠchciaÅĤbym": 7635,
      "ĠczujÄĻ": 7636,
      "ĠbiaÅĤe": 7637,
      "Ġdodaje": 7638,
      "ĠciÄĻÅ¼ko": 7639,
      "ĠpisaÄĩ": 7640,
      "Ġroboty": 7641,
      "ĠodpowiedzialnoÅĽci": 7642,
      "ĠurzÄħdzenia": 7643,
      "ĠIzra": 7644,
      "ĠstatkÃ³w": 7645,
      "Ġkwiaty": 7646,
      "Ġnegaty": 7647,
      "Ġporozumienia": 7648,
      "Ġwykonawczych": 7649,
      "Ġakademickich": 7650,
      "Ġzaufa": 7651,
      "ĠMyÅĽ": 7652,
      "Ġsposobem": 7653,
      "Ġterytorium": 7654,
      "Ġobrachunkowych": 7655,
      "ĠWÅĤady": 7656,
      "âīĪâīĪâīĪâīĪâīĪâīĪâīĪâīĪ": 7657,
      "ĠpowyÅ¼": 7658,
      "WedÅĤug": 7659,
      "ĠHenryku": 7660,
      "sjona": 7661,
      "ĠpoÅ¼egna": 7662,
      "Ġobszarze": 7663,
      "Ġkrwi": 7664,
      "ĠEast": 7665,
      "Ġprotoko": 7666,
      "Ġzdrowotnej": 7667,
      "Gaze": 7668,
      "Filmy": 7669,
      "ĠZygmunt": 7670,
      "ĠFinansÃ³w": 7671,
      "87": 7672,
      "IA": 7673,
      "OW": 7674,
      "Powie": 7675,
      "cona": 7676,
      "dowe": 7677,
      "fan": 7678,
      "lti": 7679,
      "ou": 7680,
      "paty": 7681,
      "sno": 7682,
      "ĠwÄĻd": 7683,
      "niÅĤy": 7684,
      "chÅĤa": 7685,
      "owskiej": 7686,
      "Ġtwych": 7687,
      "Ġmary": 7688,
      "Ġpodzie": 7689,
      "Ġpodzi": 7690,
      "ĠpoÅĤowie": 7691,
      "Ġposzuki": 7692,
      "licz": 7693,
      "ÅĤama": 7694,
      "Ġzanim": 7695,
      "ĠdoÅĤÄħ": 7696,
      "Ġniepraw": 7697,
      "Ġastrono": 7698,
      "amie": 7699,
      "ĠkoÅĽcio": 7700,
      "Ġprzypada": 7701,
      "ĠtysiÄħc": 7702,
      "razu": 7703,
      "gina": 7704,
      "pina": 7705,
      "ĠstÄĻ": 7706,
      "skach": 7707,
      "ĠmiesiÄħce": 7708,
      "Ġliter": 7709,
      "ĠNafi": 7710,
      "pel": 7711,
      "nikami": 7712,
      "Ġrana": 7713,
      "Ġradi": 7714,
      "Ġkana": 7715,
      "ĠmiarÄĻ": 7716,
      "pyty": 7717,
      "Ġ2015": 7718,
      "nionÄħ": 7719,
      "ĠFra": 7720,
      "Äħco": 7721,
      "Ġrozpoczyna": 7722,
      "ĠwewnÄĻtrznych": 7723,
      "Ġpowiada": 7724,
      "ĠWydaw": 7725,
      "ĠrÃ³wnie": 7726,
      "Ġdobrych": 7727,
      "Ġstrona": 7728,
      "Ġjednoli": 7729,
      "owiÄħza": 7730,
      "ĠstraÅ¼": 7731,
      "ĠsÅĤowem": 7732,
      "Ġakcji": 7733,
      "szono": 7734,
      "ĠpatrzeÄĩ": 7735,
      "Ġbisku": 7736,
      "ĠpiÄĻciu": 7737,
      "etro": 7738,
      "ĠmÃ³z": 7739,
      "Ġskorzysta": 7740,
      "Ġ1271": 7741,
      "ĠkarÄĻ": 7742,
      "Ġnazwy": 7743,
      "ĠwÅĤaÅĽciwy": 7744,
      "ĠCzar": 7745,
      "Ġwyborczych": 7746,
      "kroÄĩ": 7747,
      "ĠbÄĻdÄħce": 7748,
      "ĠczuÅĤ": 7749,
      "ĠPiosen": 7750,
      "287": 7751,
      "ĠXX": 7752,
      "Ġistoty": 7753,
      "szczÄĻd": 7754,
      "Ġwzrost": 7755,
      "Ġregulami": 7756,
      "ĠkorzystaÄĩ": 7757,
      "Ġkoszty": 7758,
      "Ġdziwnie": 7759,
      "ĠzaczÄĻli": 7760,
      "ĠLui": 7761,
      "ĠuzyskaÄĩ": 7762,
      "kwizy": 7763,
      "Ġrobotni": 7764,
      "Ġdrzew": 7765,
      "ĠradoÅĽÄĩ": 7766,
      "ĠMinistrem": 7767,
      "ĠObecnie": 7768,
      "Ġzapozna": 7769,
      "ĠduÅ¼ym": 7770,
      "ĠWielkiej": 7771,
      "ĠduÅ¼Äħ": 7772,
      "ĠGerman": 7773,
      "SpoÅĤe": 7774,
      "Ġpozwoli": 7775,
      "ĠmÃ³wiÄĻ": 7776,
      "ĠNajwyÅ¼szej": 7777,
      "Ġburmistrza": 7778,
      "ĠAdam": 7779,
      "ĠcÃ³rki": 7780,
      "lenda": 7781,
      "bell": 7782,
      "ĠdÅĤoni": 7783,
      "ĠCzÅĤowiek": 7784,
      "ĠmÄĻÅ¼czyzn": 7785,
      "przedstawia": 7786,
      "ĠKultury": 7787,
      "Czas": 7788,
      "ĠUniwersytetu": 7789,
      "ĠPociÄĻglewicz": 7790,
      "TreÅĽÄĩ": 7791,
      "tykuÅĤ": 7792,
      "Âµl": 7793,
      "Ġdepartamencie": 7794,
      "ĠpraworzÄħdnoÅĽci": 7795,
      "Ġsamych": 7796,
      "Ġaminokwa": 7797,
      "AÅ¼": 7798,
      "CS": 7799,
      "Ca": 7800,
      "Sie": 7801,
      "WÅĤo": 7802,
      "Wszyscy": 7803,
      "dowania": 7804,
      "deru": 7805,
      "ede": 7806,
      "fu": 7807,
      "gre": 7808,
      "mowy": 7809,
      "mowanie": 7810,
      "towego": 7811,
      "udziela": 7812,
      "Åĥ": 7813,
      "ĠrzÄĻdu": 7814,
      "ĠwÅĤÄħ": 7815,
      "Ġwszak": 7816,
      "Ġzem": 7817,
      "niÅ¼ej": 7818,
      "czor": 7819,
      "nau": 7820,
      "ÅĽwie": 7821,
      "ĠmÄħ": 7822,
      "szcie": 7823,
      "Ġpomia": 7824,
      "Ġponu": 7825,
      "ĠbÃ³l": 7826,
      "Ġbrytyj": 7827,
      "niaÅĤy": 7828,
      "ĠdopÃ³ki": 7829,
      "ĠujÄĻ": 7830,
      "Ġniecier": 7831,
      "ĠwyksztaÅĤ": 7832,
      "ĠwytÅĤuma": 7833,
      "cyfi": 7834,
      "Ġrosyj": 7835,
      "encji": 7836,
      "ĠWÅĽrÃ³d": 7837,
      "ĠlÄĻ": 7838,
      "rÃ³z": 7839,
      "Ġszar": 7840,
      "Ġrozstrzy": 7841,
      "ĠBÄĻdzie": 7842,
      "ĠobsÅĤu": 7843,
      "Ġ2022": 7844,
      "ĠDro": 7845,
      "ĠDol": 7846,
      "unÄĻ": 7847,
      "ĠEOG": 7848,
      "ĠIstnie": 7849,
      "Ġreferen": 7850,
      "bienia": 7851,
      "âĢĿ)": 7852,
      "Ġznakomi": 7853,
      "dniÄħ": 7854,
      "Ġtymczas": 7855,
      "Ġ328": 7856,
      "Ġmiaste": 7857,
      "szczeÅĦ": 7858,
      "ĠosÅĤa": 7859,
      "Ġdeszcz": 7860,
      "Ġwaha": 7861,
      "Ġdrogie": 7862,
      "Ġsied": 7863,
      "ĠpowiedziaÅĤa": 7864,
      "Ġodpowiednie": 7865,
      "Ġkrater": 7866,
      "Ġskro": 7867,
      "Ġopro": 7868,
      "Ġkonfli": 7869,
      "Ġrys": 7870,
      "Ġtworzenia": 7871,
      "Ġbierze": 7872,
      "ĠsÅĤuÅ¼bÄĻ": 7873,
      "ĠsiÅĤÄħ": 7874,
      "Ġdecyzja": 7875,
      "ĠpewnoÅĽciÄħ": 7876,
      "Ġostatniego": 7877,
      "liwoÅĽciÄħ": 7878,
      "ĠLecz": 7879,
      "ĠpoÅĤudnia": 7880,
      "ĠdwadzieÅĽcia": 7881,
      "Ġhomo": 7882,
      "Ġtematy": 7883,
      "ĠobecnoÅĽci": 7884,
      "ĠobecnoÅĽÄĩ": 7885,
      "ĠwspÃ³ÅĤpra": 7886,
      "ĠbliÅ¼": 7887,
      "Ġ1982": 7888,
      "ĠpiÄĻkna": 7889,
      "ĠkochaÄĩ": 7890,
      "ĠpamiÄĻÄĩ": 7891,
      "Ġdzieckiem": 7892,
      "ĠTade": 7893,
      "Ġdaleka": 7894,
      "Ġspotkania": 7895,
      "ĠHotel": 7896,
      "Ġdwudzie": 7897,
      "ĠWspÃ³ÅĤ": 7898,
      "Ġwspomnia": 7899,
      "Ġoparciu": 7900,
      "Ġofice": 7901,
      "Ġprodukcji": 7902,
      "Ġpartner": 7903,
      "Ġzapropo": 7904,
      "ĠCzas": 7905,
      "........": 7906,
      "Ġzmart": 7907,
      "--------": 7908,
      "ĠdÅºwiÄĻ": 7909,
      "ĠAustrii": 7910,
      "ĠFundacja": 7911,
      "zachodniej": 7912,
      "Ġzrealiz": 7913,
      "viridae": 7914,
      "ĠÏĨ": 7915,
      "ĠniezwÅĤocznie": 7916,
      "!...": 7917,
      "83": 7918,
      "Historia": 7919,
      "OP": 7920,
      "Oprac": 7921,
      "Wtedy": 7922,
      "Warsza": 7923,
      "bn": 7924,
      "han": 7925,
      "icki": 7926,
      "kÅĤy": 7927,
      "ly": 7928,
      "nowania": 7929,
      "piÄĻ": 7930,
      "sjÄĻ": 7931,
      "ww": 7932,
      "wna": 7933,
      "wca": 7934,
      "zat": 7935,
      "ĠwÅĽcie": 7936,
      "Ġwers": 7937,
      "Ġwdra": 7938,
      "chowy": 7939,
      "owuje": 7940,
      "Ã³c": 7941,
      "Ġozd": 7942,
      "ĠdÅĤoÅĦ": 7943,
      "szÅĤy": 7944,
      "ĠnaszÄħ": 7945,
      "ĠjÄĻ": 7946,
      "kanie": 7947,
      "Ġzato": 7948,
      "ĠdosyÄĩ": 7949,
      "Ġuzd": 7950,
      "Ġnies": 7951,
      "Ġnieod": 7952,
      "Ġwykaza": 7953,
      "ĠwyÅ¼ej": 7954,
      "ryte": 7955,
      "Ġprzeto": 7956,
      "ĠprzeÅ¼y": 7957,
      "Ġang": 7958,
      "Ġgerma": 7959,
      "ÅĦcy": 7960,
      "ÅĦcÃ³w": 7961,
      "Ġodrzu": 7962,
      "ĠKry": 7963,
      "mas": 7964,
      "Ġman": 7965,
      "Ġteo": 7966,
      "ĠinnÄħ": 7967,
      "Ġpromieni": 7968,
      "skaÄĩ": 7969,
      "ĠmieliÅĽmy": 7970,
      "ĠIdÅº": 7971,
      "Ġmulti": 7972,
      "Ġspokoju": 7973,
      "ĠUSA": 7974,
      "sypa": 7975,
      "dnikÃ³w": 7976,
      "ĠPodob": 7977,
      "Ġkadr": 7978,
      "Ġ37": 7979,
      "onal": 7980,
      "formu": 7981,
      "Ġdecy": 7982,
      "ĠbaÅĤ": 7983,
      "Ġkrajach": 7984,
      "Ġ52": 7985,
      "ĠpiÅĽmie": 7986,
      "ĠStre": 7987,
      "ĠczÄĻÅĽciÄħ": 7988,
      "Ġprawem": 7989,
      "peÅĤnienia": 7990,
      "Ġokolicach": 7991,
      "Ġarku": 7992,
      "szoÅĽÄĩ": 7993,
      "ĠAleÅ¼": 7994,
      "ĠAleksa": 7995,
      "ÅĤoÅĽciÄħ": 7996,
      "ĠwÅĤasnoÅĽci": 7997,
      "ĠÅĽwieci": 7998,
      "ĠsiÅĤÄĻ": 7999,
      "ĠspoÅĤecznoÅĽci": 8000,
      "towanego": 8001,
      "ĠgranicÄĻ": 8002,
      "ĠogÃ³lno": 8003,
      "Ġpodobnych": 8004,
      "Ġdawnych": 8005,
      "ĠpiÄĻkne": 8006,
      "Ġpolityk": 8007,
      "Ġszac": 8008,
      "ĠsÅĤyszy": 8009,
      "Ġnauczycielka": 8010,
      "ĠwpÅĤywem": 8011,
      "Ġautora": 8012,
      "gniÄĻciu": 8013,
      "Ġdokument": 8014,
      "ĠzaczÄĻÅĤy": 8015,
      "ĠpoÅĤÄħczeÅĦ": 8016,
      "Podroz": 8017,
      "que": 8018,
      "ĠksztaÅĤt": 8019,
      "Ġobywatel": 8020,
      "Ġdobrej": 8021,
      "Prac": 8022,
      "Ġuspraw": 8023,
      "ĠstudentÃ³w": 8024,
      "ĠPipidÃ³wce": 8025,
      "Ġuspoko": 8026,
      "ĠÅĽciany": 8027,
      "ĠpodmiotÃ³w": 8028,
      "ĠhistoriÄĻ": 8029,
      "Ġdokony": 8030,
      "Ġmasone": 8031,
      "presjo": 8032,
      "Ġgastronomicznych": 8033,
      "Ġsprzyja": 8034,
      "ĠMÄĻÅ¼": 8035,
      "ĠWykonawczej": 8036,
      "!âĢľ": 8037,
      "Bi": 8038,
      "Euro": 8039,
      "FE": 8040,
      "Oj": 8041,
      "Transport": 8042,
      "ale": 8043,
      "bem": 8044,
      "jemu": 8045,
      "kl": 8046,
      "kowanych": 8047,
      "nnoÅĽci": 8048,
      "nowaÄĩ": 8049,
      "tat": 8050,
      "zm": 8051,
      "ĠwchodzÄħ": 8052,
      "Ġwbrew": 8053,
      "Ġzbu": 8054,
      "Ġzbudowa": 8055,
      "Ġodzna": 8056,
      "Ġtwar": 8057,
      "rodzi": 8058,
      "Ġira": 8059,
      "szny": 8060,
      "szty": 8061,
      "Ġnadanie": 8062,
      "Ġpog": 8063,
      "Ġpop": 8064,
      "Äĩmi": 8065,
      "lecia": 8066,
      "ĠzasÅĤu": 8067,
      "Ġzadanie": 8068,
      "Ġdopuszcza": 8069,
      "Ġujaw": 8070,
      "regu": 8071,
      "Ġwykry": 8072,
      "ĠprzejÄĻ": 8073,
      "ĠprzesÅĤa": 8074,
      "ĠprzeciÄĻ": 8075,
      "ĠStu": 8076,
      "ĠKor": 8077,
      "Ġlaty": 8078,
      "Ġmodel": 8079,
      "ĠchcÄħ": 8080,
      "ĠpodwÃ³j": 8081,
      "ĠZat": 8082,
      "dujÄħ": 8083,
      "pas": 8084,
      "Ġwieki": 8085,
      "Ġprosi": 8086,
      "Ġmini": 8087,
      "Ġstali": 8088,
      "ĠEner": 8089,
      "Ġrejo": 8090,
      "biony": 8091,
      "ntem": 8092,
      "ĠspoÅĽrÃ³d": 8093,
      "miaÅĤa": 8094,
      "Ġznam": 8095,
      "ĠdaÅĤa": 8096,
      "Ġher": 8097,
      "zul": 8098,
      "Ġ190": 8099,
      "Ġboles": 8100,
      "niono": 8101,
      "powiedzi": 8102,
      "Ġwzbu": 8103,
      "Ġdel": 8104,
      "Ġdetali": 8105,
      "ĠsiedziaÅĤ": 8106,
      "Ġkieszeni": 8107,
      "Ġ41": 8108,
      "Ġ45": 8109,
      "zes": 8110,
      "padÅĤa": 8111,
      "Ġwykonuje": 8112,
      "ĠPolskÄħ": 8113,
      "ĠskÅĤo": 8114,
      "Ġchwil": 8115,
      "Ġgodzinie": 8116,
      "ĠpeÅĤny": 8117,
      "ĠpeÅĤnÄħ": 8118,
      "ĠpeÅĤnienia": 8119,
      "ĠtwojÄħ": 8120,
      "skutek": 8121,
      "Ġtrzecie": 8122,
      "ĠsÅĤuÅ¼bie": 8123,
      "ĠnamiÄĻ": 8124,
      "ĠrÃ³Å¼no": 8125,
      "ĠspoÅĤecznych": 8126,
      "ĠskaÅĤy": 8127,
      "dowany": 8128,
      "ĠprowadziÄĩ": 8129,
      "ĠchÅĤopcze": 8130,
      "Ġadministracyjnych": 8131,
      "dzÄħcego": 8132,
      "Ġpiersia": 8133,
      "Ġsystemie": 8134,
      "Ġczarne": 8135,
      "ĠÅ¼oÅĤnierze": 8136,
      "Ġeks": 8137,
      "ĠmÄĻÅ¼czyzna": 8138,
      "ĠprzestÄĻpczoÅĽci": 8139,
      "Ġkryty": 8140,
      "ustawie": 8141,
      "ĠmiÅĤoÅĽciÄħ": 8142,
      "Ġdrzwia": 8143,
      "Ġwykonawczemu": 8144,
      "Ġposiedzeniu": 8145,
      "Ġfilmowi": 8146,
      "ĠbÅĤyska": 8147,
      "Ġelektro": 8148,
      "ĠproblemÃ³w": 8149,
      "ĠzabraÄĩ": 8150,
      "ĠÅĽled": 8151,
      "ĠSerratia": 8152,
      "ĠopÅĤaty": 8153,
      "Ġpowrotem": 8154,
      "Ġniespokoj": 8155,
      "wajcar": 8156,
      "ĠLudwi": 8157,
      "ĠpoÅĤowy": 8158,
      "ĠOtto": 8159,
      "Ġuzasadnio": 8160,
      "Ġobserwa": 8161,
      "ĠRegiona": 8162,
      "Ġsymboli": 8163,
      "Ġsrebr": 8164,
      "ĠPiosenki": 8165,
      "'s": 8166,
      "67": 8167,
      "82": 8168,
      "AN": 8169,
      "Du": 8170,
      "Fran": 8171,
      "ON": 8172,
      "bÄĻdzie": 8173,
      "cowie": 8174,
      "dt": 8175,
      "dwo": 8176,
      "jak": 8177,
      "jnego": 8178,
      "knÄħÄĩ": 8179,
      "mÅĤo": 8180,
      "pem": 8181,
      "sch": 8182,
      "udo": 8183,
      "Ġqu": 8184,
      "ĠpowiÄħza": 8185,
      "Ġsna": 8186,
      "Ġsch": 8187,
      "chan": 8188,
      "owszech": 8189,
      "Ġmowy": 8190,
      "szne": 8191,
      "szÃ³w": 8192,
      "letnie": 8193,
      "Ġzadzi": 8194,
      "Ġzabi": 8195,
      "Ġzazd": 8196,
      "Ġzakry": 8197,
      "ciÅĤem": 8198,
      "ĠdostÄĻpu": 8199,
      "ĠumysÅĤ": 8200,
      "Ġwyru": 8201,
      "ĠwyrÃ³Å¼": 8202,
      "Ġwykro": 8203,
      "rym": 8204,
      "Ġprzeczy": 8205,
      "celar": 8206,
      "ert": 8207,
      "ĠWP": 8208,
      "Å¼ycie": 8209,
      "ĠkoÅĤa": 8210,
      "2022": 8211,
      "ĠlÄħd": 8212,
      "Ġmomencie": 8213,
      "Ġfal": 8214,
      "Ġrozry": 8215,
      "skiemu": 8216,
      "wyciÄĻ": 8217,
      "ĠOce": 8218,
      "Ġinna": 8219,
      "ĠGi": 8220,
      "Ġnowym": 8221,
      "Ġrektor": 8222,
      "ÅºÅĦ": 8223,
      "niejszego": 8224,
      "mian": 8225,
      "Ġznane": 8226,
      "syma": 8227,
      "Ġradzie": 8228,
      "ĠzewnÄħtrz": 8229,
      "ĠzespÃ³ÅĤ": 8230,
      "rzach": 8231,
      "Ġkalenda": 8232,
      "Ġ1966": 8233,
      "Ġ2011": 8234,
      "cyjnymi": 8235,
      "Ġcio": 8236,
      "dzonym": 8237,
      "ĠpowrÃ³ci": 8238,
      "Ġ44": 8239,
      "przeciw": 8240,
      "ĠDopiero": 8241,
      "Ġwykonu": 8242,
      "ĠduÅ¼ej": 8243,
      "gier": 8244,
      "ĠdobrÄħ": 8245,
      "ĠskrÃ³": 8246,
      "ĠÅĽmierciÄħ": 8247,
      "Ġwydarzenia": 8248,
      "ĠszeÅĽciu": 8249,
      "ĠpracowaÄĩ": 8250,
      "ĠpeÅĤniÄħ": 8251,
      "ĠÅ¼aÅĤo": 8252,
      "ĠpodstawÄĻ": 8253,
      "cyzja": 8254,
      "ĠzwrÃ³ciÅĤ": 8255,
      "ĠskaÅĤ": 8256,
      "Ġ2003": 8257,
      "ĠpozostaÄĩ": 8258,
      "ĠnazwÄĻ": 8259,
      "ĠAnna": 8260,
      "ulture": 8261,
      "Ġorganizacyjnej": 8262,
      "stÄħpiÄĩ": 8263,
      "Ġprzeciwnika": 8264,
      "jrzawszy": 8265,
      "Ġwprowadzenia": 8266,
      "ĠLinie": 8267,
      "Ġniepod": 8268,
      "Ġtermina": 8269,
      "Ġkochany": 8270,
      "prawiedli": 8271,
      "Ġpodaje": 8272,
      "Ġmuzyki": 8273,
      "ĠmieszkaÅĦcy": 8274,
      "ĠpÅĤynÄħ": 8275,
      "ĠkrokÃ³w": 8276,
      "Ġogromne": 8277,
      "Ġspace": 8278,
      "Ġakademicki": 8279,
      "Ġpolicji": 8280,
      "Ġemerytury": 8281,
      "ĠoÅĽwie": 8282,
      "krÄĻg": 8283,
      "stryk": 8284,
      "ĠChoÄĩ": 8285,
      "ĠsÅĤuÅ¼bowych": 8286,
      "ĠbÅĤyszczÄħ": 8287,
      "Rada": 8288,
      "ĠwieczÃ³r": 8289,
      "Ġpartii": 8290,
      "Ġkonsul": 8291,
      "Ġpowrotu": 8292,
      "Ġobwodzie": 8293,
      "field": 8294,
      "ĠkogoÅĽ": 8295,
      "ĠgwaÅĤtownie": 8296,
      "Ġogrodu": 8297,
      "Ġpojedyn": 8298,
      "ĠBezpoÅĽrednie": 8299,
      "ĠwskazujÄħc": 8300,
      "Ġprocedury": 8301,
      "ĠKrÃ³le": 8302,
      "ght": 8303,
      "ĠzastrzeÅ¼eniem": 8304,
      "ĠniezaleÅ¼nie": 8305,
      "Ġscenariusza": 8306,
      "Prezydent": 8307,
      "ĠÏĨOS": 8308,
      "Ani": 8309,
      "Ce": 8310,
      "ES": 8311,
      "MP": 8312,
      "OR": 8313,
      "Su": 8314,
      "TA": 8315,
      "bÃ³": 8316,
      "ble": 8317,
      "brium": 8318,
      "eu": 8319,
      "ffi": 8320,
      "gÅĤy": 8321,
      "jnym": 8322,
      "rki": 8323,
      "âĪ": 8324,
      "Ġwtem": 8325,
      "ĠzmÄĻ": 8326,
      "nili": 8327,
      "rzona": 8328,
      "owne": 8329,
      "Ã³gÅĤ": 8330,
      "Ġmle": 8331,
      "dztwa": 8332,
      "Ġnaci": 8333,
      "Ġponie": 8334,
      "Ġdostat": 8335,
      "Ġuci": 8336,
      "Ġuleg": 8337,
      "Ġniemi": 8338,
      "Ġniedaw": 8339,
      "nor": 8340,
      "owanÄħ": 8341,
      "rzyma": 8342,
      "ryzo": 8343,
      "ĠprzeszedÅĤ": 8344,
      "tacje": 8345,
      "cieka": 8346,
      "kiewicz": 8347,
      "kujÄħ": 8348,
      "kujÄħc": 8349,
      "dziesz": 8350,
      "run": 8351,
      "ĠprzyjÄħÅĤ": 8352,
      "tuga": 8353,
      "Ġtygodni": 8354,
      "Ġmodu": 8355,
      "Ġmode": 8356,
      "ĠAna": 8357,
      "ĠAby": 8358,
      "ĠAgen": 8359,
      "ĠMen": 8360,
      "Ġfakt": 8361,
      "Ġpodleg": 8362,
      "ĠpodkreÅĽla": 8363,
      "ĠTi": 8364,
      "ĠZu": 8365,
      "ĠmaÅĤym": 8366,
      "ĠRi": 8367,
      "ĠOl": 8368,
      "ĠOfi": 8369,
      "Ġincyden": 8370,
      "anna": 8371,
      "ĠLon": 8372,
      "Ġwice": 8373,
      "âĢĿ).": 8374,
      "czÄħcy": 8375,
      "rowania": 8376,
      "Ġsprawia": 8377,
      "ille": 8378,
      "Ġnajstar": 8379,
      "Ġhod": 8380,
      "Ġwszystkimi": 8381,
      "Ġewentual": 8382,
      "Ġognia": 8383,
      "sone": 8384,
      "ĠWysta": 8385,
      "ĠÅĽwiade": 8386,
      "ĠJeste": 8387,
      "Ġcieniu": 8388,
      "ĠtaÅĦ": 8389,
      "ĠChciaÅĤbym": 8390,
      "zeum": 8391,
      "ĠmogÄħc": 8392,
      "ĠjakoÅĽci": 8393,
      "formacji": 8394,
      "Ġsprawiedli": 8395,
      "Ġgruntu": 8396,
      "Ġkoncep": 8397,
      "105": 8398,
      "ĠpierwszÄħ": 8399,
      "Ġojcem": 8400,
      "ĠjednakÅ¼e": 8401,
      "Ġzasadzie": 8402,
      "ĠwydaÅĤ": 8403,
      "Ġtwoich": 8404,
      "Ġkolejno": 8405,
      "Ġliczbie": 8406,
      "Ġbiedny": 8407,
      "Ġadres": 8408,
      "Ġrodzinie": 8409,
      "Ġchcemy": 8410,
      "ĠmyÅĽlaÅĤem": 8411,
      "nizacja": 8412,
      "Ġwykonanie": 8413,
      "ĠWizz": 8414,
      "Ġ2008": 8415,
      "Ġdzieciom": 8416,
      "bert": 8417,
      "nnikÃ³w": 8418,
      "Ġstrasznie": 8419,
      "Ġwidocznie": 8420,
      "Ġlokalu": 8421,
      "ĠsÅĤyszeÄĩ": 8422,
      "Ġwojskowych": 8423,
      "ĠRyana": 8424,
      "Ġfunkcjonariusze": 8425,
      "Ġponadto": 8426,
      "ĠdokumentÃ³w": 8427,
      "Ġobejmu": 8428,
      "ĠrozwiÄħzanie": 8429,
      "Ġprokuratora": 8430,
      "ĠopuÅĽci": 8431,
      "Ġtermin": 8432,
      "Ġprzyczyny": 8433,
      "ĠzamkniÄĻcie": 8434,
      "ĠdrÅ¼Äħ": 8435,
      "ĠImbrium": 8436,
      "Ġcywilnego": 8437,
      "Ġanaliz": 8438,
      "Ġwspomnienie": 8439,
      "Ġprzedstawiciel": 8440,
      "Ġmorzem": 8441,
      "Ġnadzwyczajnego": 8442,
      "ArtykuÅĤ": 8443,
      "ĠspostrzegÅĤem": 8444,
      "Ġsiostra": 8445,
      "Ġwyposa": 8446,
      "mÃ³wiÅĤ": 8447,
      "ĠobowiÄħzujÄħcych": 8448,
      "Ġlekarza": 8449,
      "ĠLudowej": 8450,
      "Ġhandlowych": 8451,
      "ĠkoÅĽciele": 8452,
      "ĠCentralnej": 8453,
      "ĠwstrÄĻ": 8454,
      "Ġemerytalnym": 8455,
      "Ġszereg": 8456,
      "Ġzaopatrzeniu": 8457,
      "ĠStefan": 8458,
      "Tymczasem": 8459,
      "ĠPolityki": 8460,
      "PodrozdziaÅĤ": 8461,
      "ĠRyanair": 8462,
      "84": 8463,
      "85": 8464,
      "95": 8465,
      "Odzna": 8466,
      "Pe": 8467,
      "hol": 8468,
      "jna": 8469,
      "lak": 8470,
      "pki": 8471,
      "tri": 8472,
      "wcze": 8473,
      "zor": 8474,
      "Â²": 8475,
      "Ð°": 8476,
      "Ġwdro": 8477,
      "nito": 8478,
      "niowych": 8479,
      "nale": 8480,
      "ratu": 8481,
      "ĠoÅĽwia": 8482,
      "Ġdba": 8483,
      "Ġth": 8484,
      "ĠtrÄħ": 8485,
      "robi": 8486,
      "Ġilu": 8487,
      "Ġimieniem": 8488,
      "Ġidenty": 8489,
      "szczu": 8490,
      "szkow": 8491,
      "Ġklie": 8492,
      "Ġpou": 8493,
      "Ġpoku": 8494,
      "ĠpociÄħg": 8495,
      "ĠpocaÅĤu": 8496,
      "nera": 8497,
      "kana": 8498,
      "Ġdosto": 8499,
      "Ġupa": 8500,
      "Ġumo": 8501,
      "ĠudziaÅĤem": 8502,
      "ĠusuniÄĻ": 8503,
      "Ġniewia": 8504,
      "Ġnieobec": 8505,
      "regi": 8506,
      "ĠwydziaÅĤu": 8507,
      "Ġwyzwo": 8508,
      "Ġprzeci": 8509,
      "lane": 8510,
      "cjo": 8511,
      "cjum": 8512,
      "ĠKan": 8513,
      "ÅĤujÄħc": 8514,
      "ĠszÅĤo": 8515,
      "Ġchro": 8516,
      "Ġcia": 8517,
      "ĠpodjÄĻcia": 8518,
      "ĠTego": 8519,
      "szewski": 8520,
      "ĠdziaÅĤ": 8521,
      "ĠmajÄħce": 8522,
      "ĠpracÄħ": 8523,
      "ĠprawidÅĤ": 8524,
      "ĠwiedzÄħ": 8525,
      "Ġprogu": 8526,
      "Ġrenty": 8527,
      "Ġrelacji": 8528,
      "Ġsport": 8529,
      "jÄĻzy": 8530,
      "ĠdzieÅĤo": 8531,
      "ĠnajczÄĻÅĽciej": 8532,
      "Ġlegen": 8533,
      "Ġustanowi": 8534,
      "Ġustalenia": 8535,
      "fii": 8536,
      "dzonego": 8537,
      "Ġsier": 8538,
      "ĠcaÅĤoÅĽÄĩ": 8539,
      "ĠpowiÄĻk": 8540,
      "ĠWyso": 8541,
      "Ġceny": 8542,
      "ĠEuropejskÄħ": 8543,
      "ĠodpowiedzieÄĩ": 8544,
      "Ġbal": 8545,
      "Ġ54": 8546,
      "ĠmiÄĻk": 8547,
      "ĠbudÅ¼et": 8548,
      "ĠmÃ³wili": 8549,
      "Ġskrom": 8550,
      "ĠÅĤaski": 8551,
      "ĠÅĤaska": 8552,
      "Ġgrupie": 8553,
      "Ġgrupa": 8554,
      "sel": 8555,
      "ralnych": 8556,
      "Ġokru": 8557,
      "ĠKaÅ¼": 8558,
      "ĠKala": 8559,
      "ĠKaczor": 8560,
      "ĠuÅ¼ywane": 8561,
      "ĠzÅĤoÅ¼one": 8562,
      "dzÄħcych": 8563,
      "Ġzgody": 8564,
      "Ġregion": 8565,
      "towaÅĤa": 8566,
      "ĠWene": 8567,
      "mieniÄĩ": 8568,
      "ĠgranicÄħ": 8569,
      "ĠogÃ³lny": 8570,
      "ĠposÄħ": 8571,
      "rown": 8572,
      "ĠzmianÄĻ": 8573,
      "glÄħdaÄĩ": 8574,
      "stÄħpiÅĤ": 8575,
      "ĠelementÃ³w": 8576,
      "Ġmiejscach": 8577,
      "ĠbliÅ¼ej": 8578,
      "Ġ150": 8579,
      "ĠpiÄĻkny": 8580,
      "ĠÅĤÄħczy": 8581,
      "ĠsÅĤab": 8582,
      "Ġpodejrza": 8583,
      "ĠMusi": 8584,
      "Ġdziwne": 8585,
      "ĠspotkaÅĤ": 8586,
      "Ġbadania": 8587,
      "ĠzatrzymaÄĩ": 8588,
      "ĠwyÅ¼szego": 8589,
      "Ġblasku": 8590,
      "Ġzwal": 8591,
      "KaÅ¼dy": 8592,
      "Ġprzyczyn": 8593,
      "Ġwymiaru": 8594,
      "landia": 8595,
      "Ġdobrym": 8596,
      "Ġwykorzystania": 8597,
      "ĠplacÃ³wki": 8598,
      "Ġmetod": 8599,
      "ĠEuropie": 8600,
      "ĠtreÅĽÄĩ": 8601,
      "Ġbroni": 8602,
      "ĠspostrzegÅĤ": 8603,
      "ferÄĻ": 8604,
      "Ġusprawiedli": 8605,
      "Ġkandydata": 8606,
      "ĠdowiedzieÄĩ": 8607,
      "ĠmilionÃ³w": 8608,
      "lizacja": 8609,
      "Ġzbrojnych": 8610,
      "Ġambi": 8611,
      "ĠKarola": 8612,
      "ĠartykuÅĤÃ³w": 8613,
      "Ġwieczyste": 8614,
      "Ġinteresu": 8615,
      "ĠpaÅĤacu": 8616,
      "Ġtelekomunikacyjnych": 8617,
      "Ġatmosfery": 8618,
      "Wszystko": 8619,
      "Ġkomitetu": 8620,
      "Ġterytorialnego": 8621,
      "Ġchuste": 8622,
      "ĠÅĽwiÄħty": 8623,
      "Ġkonkuren": 8624,
      "emisyjnych": 8625,
      "ĠobiektÃ³w": 8626,
      "ĠprzeglÄħdar": 8627,
      "ĠwidnokrÄĻ": 8628,
      "Ġkomputer": 8629,
      "Warszawa": 8630,
      "âĪĹ": 8631,
      "61": 8632,
      "ID": 8633,
      "Opera": 8634,
      "Tego": 8635,
      "bez": 8636,
      "ckÄħ": 8637,
      "dowane": 8638,
      "fam": 8639,
      "gnu": 8640,
      "sowej": 8641,
      "tkÄĻ": 8642,
      "wczych": 8643,
      "Ġ&": 8644,
      "ĠĠĊĊ": 8645,
      "Ġowej": 8646,
      "iery": 8647,
      "ĠpÃ³l": 8648,
      "Ġsmo": 8649,
      "Ġzwi": 8650,
      "Ġznu": 8651,
      "stowi": 8652,
      "Ġdrew": 8653,
      "ÅĽpie": 8654,
      "ĠidÅº": 8655,
      "Ġnapa": 8656,
      "Ġpostu": 8657,
      "kajÄħc": 8658,
      "Ġzagra": 8659,
      "ard": 8660,
      "ĠuÅĤo": 8661,
      "Ġucho": 8662,
      "Ġnieusta": 8663,
      "Ġniebezpie": 8664,
      "wam": 8665,
      "ĠwystÄĻpuje": 8666,
      "ryj": 8667,
      "ĠprzeÅĤoÅ¼o": 8668,
      "ĠprzemysÅĤ": 8669,
      "Ġagen": 8670,
      "tory": 8671,
      "Ġoder": 8672,
      "Ġoddzie": 8673,
      "Ġodbiera": 8674,
      "ĠoddziaÅĤu": 8675,
      "ĠWia": 8676,
      "wiona": 8677,
      "dzieliÅĽmy": 8678,
      "jewo": 8679,
      "Ġkoor": 8680,
      "ĠKie": 8681,
      "ĠMÃ³j": 8682,
      "czania": 8683,
      "Ġfu": 8684,
      "Ġfla": 8685,
      "Ġroze": 8686,
      "ĠBÄħdÅº": 8687,
      "piÅĦski": 8688,
      "Ġpanem": 8689,
      "siu": 8690,
      "ĠJÄĻzy": 8691,
      "ĠOczywiÅĽcie": 8692,
      "panii": 8693,
      "Ġwiemy": 8694,
      "Ġ2021": 8695,
      "Ġcom": 8696,
      "Ġreje": 8697,
      "Ġrektora": 8698,
      "Å¼aÅĤy": 8699,
      "Ġdzier": 8700,
      "ĠPozosta": 8701,
      "ĠramiÄĻ": 8702,
      "Ġtur": 8703,
      "ĠrzeÅº": 8704,
      "Ġustach": 8705,
      "Ġety": 8706,
      "ÅĤecz": 8707,
      "ĠsynÃ³w": 8708,
      "ĠHor": 8709,
      "Ġpety": 8710,
      "ĠpowrÃ³ciÅĤ": 8711,
      "ĠbudowÄĻ": 8712,
      "Ġtacy": 8713,
      "ĠsÅĤuÅ¼y": 8714,
      "conÄħ": 8715,
      "prowadziÄĩ": 8716,
      "Ġdydak": 8717,
      "mierÄĩ": 8718,
      "Ġmedal": 8719,
      "Ġlotniskiem": 8720,
      "ĠMarszaÅĤ": 8721,
      "Ġakty": 8722,
      "Ġaktual": 8723,
      "ĠÅĽrodkowej": 8724,
      "ĠPrzecieÅ¼": 8725,
      "Ġoczywi": 8726,
      "ĠksiÄħÅ¼ek": 8727,
      "ĠpewnÄħ": 8728,
      "Ġostatniej": 8729,
      "Ġ2001": 8730,
      "Ġprowadzenie": 8731,
      "Ġszyi": 8732,
      "ĠpytaÅĦ": 8733,
      "ĠByÄĩ": 8734,
      "Ġparu": 8735,
      "Ġmiejscem": 8736,
      "Ġkonieczne": 8737,
      "ĠkoniecznoÅĽÄĩ": 8738,
      "Ġniepotrzeb": 8739,
      "ĠrobiÅĤ": 8740,
      "Ġgospodarczej": 8741,
      "ĠzapewniÄĩ": 8742,
      "ĠpamiÄĻta": 8743,
      "Ġoboje": 8744,
      "ĠpaÅĦstwami": 8745,
      "Ġpunkt": 8746,
      "ĠPodstaw": 8747,
      "Ġprzeprowadzenia": 8748,
      "ĠmaÅĤej": 8749,
      "Ġinterpre": 8750,
      "Ġautostra": 8751,
      "Ġsztuka": 8752,
      "ĠuÅĽmiecha": 8753,
      "Ġkrok": 8754,
      "ĠrozwiÄħzaÅĦ": 8755,
      "Ġogromny": 8756,
      "Ġpion": 8757,
      "ĠwyÅ¼szych": 8758,
      "Ġjasno": 8759,
      "deks": 8760,
      "Ġpodstawowych": 8761,
      "Ġdwor": 8762,
      "ĠprzysÅĤugujÄħ": 8763,
      "ĠmusiaÅĤa": 8764,
      "mysÅĤÃ³w": 8765,
      "ĠuczyniÄĩ": 8766,
      "Ġzmiesza": 8767,
      "ĠdostÄĻpne": 8768,
      "ĠpoÅĤoÅ¼ona": 8769,
      "Ġaktorka": 8770,
      "ĠÅ»ycie": 8771,
      "Ġszczyty": 8772,
      "ĠwojewÃ³dztwie": 8773,
      "Ġpoziom": 8774,
      "ĠWikipedii": 8775,
      "Ġpowietrznego": 8776,
      "Ġfilmowe": 8777,
      "ĠproduktÃ³w": 8778,
      "Ġwolnomula": 8779,
      "ĠBiegun": 8780,
      "NajbliÅ¼ej": 8781,
      "ĠdoÅĽwiadczenia": 8782,
      "ĠuwzglÄĻdnieniem": 8783,
      "ĠWszystkie": 8784,
      "blioteka": 8785,
      "Ġefektyw": 8786,
      "ĠpowyÅ¼ej": 8787,
      "Ġdeklar": 8788,
      "emokra": 8789,
      "Ġzdecydowa": 8790,
      "Ġprzewidzianych": 8791,
      "ĠLawinia": 8792,
      "Muzyka": 8793,
      "ÂłÂłÂłÂłÂłÂłÂłÂł": 8794,
      "Ġharmo": 8795,
      "ĠWolnoÅĽci": 8796,
      "wskaznik": 8797,
      "Ġaudy": 8798,
      "zwycza": 8799,
      "Ġnieprzyja": 8800,
      "Ġsetki": 8801,
      "Ġmacierzy": 8802,
      "Ġjeziora": 8803,
      "ĠbudynkÃ³w": 8804,
      "Ġkierowni": 8805,
      "Ġmultimoda": 8806,
      "AD": 8807,
      "Hej": 8808,
      "Me": 8809,
      "Pu": 8810,
      "US": 8811,
      "WÅĽrÃ³d": 8812,
      "bÅĤÄħ": 8813,
      "fal": 8814,
      "gowie": 8815,
      "nnie": 8816,
      "oty": 8817,
      "samo": 8818,
      "van": 8819,
      "Ġx": 8820,
      "Ġpary": 8821,
      "niar": 8822,
      "owskim": 8823,
      "Ġopozy": 8824,
      "ĠdÃ³ÅĤ": 8825,
      "szan": 8826,
      "Ġpory": 8827,
      "ĠponiÅ¼szej": 8828,
      "ĠbÅĤaga": 8829,
      "Ġzaan": 8830,
      "ĠzajÄħÄĩ": 8831,
      "niania": 8832,
      "niaÅĤo": 8833,
      "Ġunik": 8834,
      "Ġnieli": 8835,
      "Ġjeno": 8836,
      "ĠsiÄĻga": 8837,
      "miÄĩ": 8838,
      "Ġwyrze": 8839,
      "Ġwykazuje": 8840,
      "ĠwysyÅĤa": 8841,
      "kony": 8842,
      "rystu": 8843,
      "Ġprzecie": 8844,
      "ĠprzeszÅĤo": 8845,
      "Ġas": 8846,
      "Ġanio": 8847,
      "can": 8848,
      "ĠSek": 8849,
      "dzieÅ¼y": 8850,
      "wieniu": 8851,
      "tujÄħ": 8852,
      "Ġmoder": 8853,
      "Ġrozle": 8854,
      "Ġrozja": 8855,
      "ĠBan": 8856,
      "zacja": 8857,
      "ĠTel": 8858,
      "szeniem": 8859,
      "Ġobraca": 8860,
      "ĠwiedzÄħc": 8861,
      "Ġludowa": 8862,
      "ĠgotÃ³w": 8863,
      "Ġczci": 8864,
      "ĠmiesiÄħca": 8865,
      "mocy": 8866,
      "niejszej": 8867,
      "Ġspoczy": 8868,
      "Ġwin": 8869,
      "Ġznaki": 8870,
      "nus": 8871,
      "ĠradÄĻ": 8872,
      "Ġzegar": 8873,
      "rodÄħ": 8874,
      "ĠNiemie": 8875,
      "cyjnie": 8876,
      "ĠFer": 8877,
      "ĠwÅĤadze": 8878,
      "ĠsieÄĩ": 8879,
      "Ġpowiedzia": 8880,
      "Ġpuste": 8881,
      "teria": 8882,
      "ĠChcÄĻ": 8883,
      "padÅĤ": 8884,
      "Ġbadaw": 8885,
      "Ġ57": 8886,
      "ĠMikoÅĤa": 8887,
      "ĠpiÃ³r": 8888,
      "Ġform": 8889,
      "Ġprawnej": 8890,
      "lnictwa": 8891,
      "Ġlotniczych": 8892,
      "ĠKazi": 8893,
      "Ġpanowie": 8894,
      "ĠÅ¼ebym": 8895,
      "ĠwÅĤasnym": 8896,
      "ĠbÄĻdÄħc": 8897,
      "ĠciÄħÅ¼y": 8898,
      "Ġadre": 8899,
      "Ġrodzice": 8900,
      "ĠspoÅĤeczne": 8901,
      "Ġskali": 8902,
      "Ġbrat": 8903,
      "ĠumÃ³w": 8904,
      "Ġmieszkania": 8905,
      "ĠRepubli": 8906,
      "ĠpozostaÅĤ": 8907,
      "hapu": 8908,
      "ĠchÅĤopak": 8909,
      "ĠwÅĤaÅĽciwoÅĽci": 8910,
      "logiczne": 8911,
      "Ġorganizacyjne": 8912,
      "ĠTechno": 8913,
      "Ġelement": 8914,
      "Ġfilmie": 8915,
      "Ġ1983": 8916,
      "Ġ287": 8917,
      "ĠpoczÄħtek": 8918,
      "Ġtowarzyszy": 8919,
      "ĠpodaÅĤ": 8920,
      "ĠkrajÃ³w": 8921,
      "Ġregular": 8922,
      "Ġsilnie": 8923,
      "ĠÅĽciska": 8924,
      "ĠuwaÅ¼aÅĤ": 8925,
      "Podczas": 8926,
      "Ġprzestrzega": 8927,
      "ĠSyl": 8928,
      "ĠodpowiadaÄĩ": 8929,
      "radol": 8930,
      "radhapu": 8931,
      "Program": 8932,
      "ĠmiÄĻdzynarodowych": 8933,
      "ĠtrzymaÅĤ": 8934,
      "ĠzamkniÄĻcia": 8935,
      "Ġstatek": 8936,
      "ĠstwierdziÄĩ": 8937,
      "Ġoczami": 8938,
      "budowy": 8939,
      "kazujÄħ": 8940,
      "ĠnastÄħpiÄĩ": 8941,
      "Ġlepsze": 8942,
      "ĠupÅĤywie": 8943,
      "ĠusÅĤyszaÅĤ": 8944,
      "ĠwystÄħpienia": 8945,
      "ĠzakÅĤadach": 8946,
      "Ġpsycho": 8947,
      "ĠszczegÃ³ÅĤowe": 8948,
      "Ġeksplo": 8949,
      "Ġuprzej": 8950,
      "ĠdziesiÄĻÄĩ": 8951,
      "ĠMiejskiego": 8952,
      "Ġniedziele": 8953,
      "ĠInstytutu": 8954,
      "ĠpÅĤaszczyz": 8955,
      "Ġukocha": 8956,
      "Ġmusieli": 8957,
      "Piotr": 8958,
      "SpoÅĤeczeÅĦstwo": 8959,
      "Ġpiersiach": 8960,
      "ĠzaangaÅ¼": 8961,
      "SÄħ": 8962,
      "Trze": 8963,
      "Zgodnie": 8964,
      "baty": 8965,
      "inie": 8966,
      "klÄĻ": 8967,
      "taty": 8968,
      "ÃŁ": 8969,
      "ËĿ": 8970,
      "Ġwczes": 8971,
      "Ġste": 8972,
      "nina": 8973,
      "nikiem": 8974,
      "Å¼nego": 8975,
      "sti": 8976,
      "ĠoÅĽwiet": 8977,
      "Ġdem": 8978,
      "szczony": 8979,
      "Ġjemu": 8980,
      "Ġpobli": 8981,
      "Ġporzu": 8982,
      "ĠposzÅĤa": 8983,
      "ledwie": 8984,
      "Ġbry": 8985,
      "kaja": 8986,
      "ĠzamyÅĽ": 8987,
      "Ġdoro": 8988,
      "Ġule": 8989,
      "Ġuwo": 8990,
      "Ġubieg": 8991,
      "emnie": 8992,
      "ĠniewÄħt": 8993,
      "waga": 8994,
      "mir": 8995,
      "ĠwyÅ¼y": 8996,
      "Ġwymo": 8997,
      "ĠwybÃ³r": 8998,
      "lanowa": 8999,
      "ĠPart": 9000,
      "ĠPÃ³j": 9001,
      "Ġodpo": 9002,
      "ĠWin": 9003,
      "Å¼ywszy": 9004,
      "ĠÅ¼eÅĽ": 9005,
      "Ġprzymu": 9006,
      "ĠbyÅĽ": 9007,
      "ĠAni": 9008,
      "gara": 9009,
      "ĠÅĽcie": 9010,
      "ĠÅĽlub": 9011,
      "ĠrozciÄħga": 9012,
      "ĠBrazy": 9013,
      "zaleÅ¼": 9014,
      "Ġpodo": 9015,
      "ĠobciÄħ": 9016,
      "Ġobszer": 9017,
      "ĠCzu": 9018,
      "Ġpada": 9019,
      "wiajÄħc": 9020,
      "unt": 9021,
      "Ġcof": 9022,
      "ĠstajÄħ": 9023,
      "ĠEwa": 9024,
      "ĠEgip": 9025,
      "ĠIr": 9026,
      "Ġrezy": 9027,
      "bignie": 9028,
      "ĠdzieÄĩmi": 9029,
      "ĠPorozu": 9030,
      "Ġlesie": 9031,
      "Ġhistoria": 9032,
      "Ġmianowa": 9033,
      "Ġboku": 9034,
      "ĠustawÄħ": 9035,
      "ĠustaleÅĦ": 9036,
      "ĠloÅ¼e": 9037,
      "ĠloÅ¼y": 9038,
      "jsko": 9039,
      "ĠHal": 9040,
      "Ġnogami": 9041,
      "ĠChÅĤo": 9042,
      "conej": 9043,
      "meter": 9044,
      "ĠpiÅĤ": 9045,
      "skry": 9046,
      "Ġsercem": 9047,
      "Ġprawne": 9048,
      "Ġmeta": 9049,
      "Ġgraczy": 9050,
      "Ġstronach": 9051,
      "chym": 9052,
      "Ġzdania": 9053,
      "Ġryby": 9054,
      "ĠÅĽrodku": 9055,
      "ĠbieÅ¼Äħ": 9056,
      "Doktor": 9057,
      "ĠÅļpie": 9058,
      "ĠWiem": 9059,
      "pÅĤywa": 9060,
      "ĠumrzeÄĩ": 9061,
      "miony": 9062,
      "Ġwaria": 9063,
      "Ġ2007": 9064,
      "ĠpÅĤacze": 9065,
      "Ġgranicznych": 9066,
      "ĠszyjÄĻ": 9067,
      "ĠchÅĤopcy": 9068,
      "Ġtrudem": 9069,
      "mÃ³wie": 9070,
      "Ġtrosk": 9071,
      "Ġelementy": 9072,
      "Ġnaukowej": 9073,
      "Ġczarno": 9074,
      "ĠzupeÅĤ": 9075,
      "Ġtowarzystwa": 9076,
      "ĠprzyjÅĽÄĩ": 9077,
      "Ġludzkiej": 9078,
      "ĠMular": 9079,
      "ĠWÅĤoch": 9080,
      "Ġkryzy": 9081,
      "ĠwyraÅ¼a": 9082,
      "ĠpoÅĤÄħczenie": 9083,
      "ĠprokuratorÃ³w": 9084,
      "ĠwyÅ¼szej": 9085,
      "ĠNikt": 9086,
      "ĠGospodar": 9087,
      "Ġprzewiduje": 9088,
      "ĠnajwiÄĻkszy": 9089,
      "ĠistniejÄħ": 9090,
      "Ġprzedmiot": 9091,
      "Ġtajemnicy": 9092,
      "ĠprzekonaÄĩ": 9093,
      "ĠzasÅĤo": 9094,
      "Ġszczyt": 9095,
      "ĠduÅ¼ych": 9096,
      "ĠrozmowÄĻ": 9097,
      "ĠprzyjÄĻcie": 9098,
      "Ġprzedstawiciele": 9099,
      "grafii": 9100,
      "ĠstolicÄħ": 9101,
      "Ġtekstu": 9102,
      "Ġeuropejskiego": 9103,
      "Ġpismo": 9104,
      "Ġprzyjacielu": 9105,
      "ĠgorÄħcz": 9106,
      "ĠzmieniÄĩ": 9107,
      "8041": 9108,
      "Ġnikomu": 9109,
      "Ġwykorzystu": 9110,
      "ĠwskaÅºnik": 9111,
      "ĠpowtÃ³rzyÅĤ": 9112,
      "Ġstrategii": 9113,
      "ĠwiÄħÅ¼e": 9114,
      "ĠwskazujÄħ": 9115,
      "Ġekspres": 9116,
      "ĠmiÅĤosier": 9117,
      "Ġspowodowa": 9118,
      "akiem": 9119,
      "Ġwilgo": 9120,
      "Ġzezwolenia": 9121,
      "ĠÅļrodowiska": 9122,
      "Gospodarka": 9123,
      "Ġzatrzymy": 9124,
      "Ġprzyrody": 9125,
      "Ġlikwidacji": 9126,
      "ĠzewnÄĻtrzne": 9127,
      "Ġniezmiernie": 9128,
      "ĠPrzedsiÄĻwziÄĻcia": 9129,
      "ĠmnÃ³stwo": 9130,
      "ĠpoÅĽrednictwem": 9131,
      "Ġmaksyma": 9132,
      "ĠnarzÄĻdzia": 9133,
      "ĠJulia": 9134,
      "Ġniepodobna": 9135,
      "ĠWywodzi": 9136,
      "Ġkontynu": 9137,
      "ttps": 9138,
      "Ġhodow": 9139,
      "Austria": 9140,
      "Bie": 9141,
      "BÃ³g": 9142,
      "CA": 9143,
      "Ho": 9144,
      "Jan": 9145,
      "bek": 9146,
      "ban": 9147,
      "dÅ¼": 9148,
      "dba": 9149,
      "ena": 9150,
      "gnÄħÅĤ": 9151,
      "nkiem": 9152,
      "nkach": 9153,
      "prÃ³cz": 9154,
      "trza": 9155,
      "wcÃ³w": 9156,
      "zar": 9157,
      "ĉĉ": 9158,
      "Ġwrza": 9159,
      "Ġwstrzyma": 9160,
      "Ġwskutek": 9161,
      "Ġsej": 9162,
      "Ġsiada": 9163,
      "Ġschy": 9164,
      "Ġswymi": 9165,
      "Ġzgu": 9166,
      "owny": 9167,
      "Å¼ki": 9168,
      "stnicy": 9169,
      "Ã³ra": 9170,
      "Ġom": 9171,
      "Ġory": 9172,
      "Ġdi": 9173,
      "rodzenia": 9174,
      "Ġkowa": 9175,
      "Ġnar": 9176,
      "ĠpodziaÅĤ": 9177,
      "kania": 9178,
      "Ġzapisu": 9179,
      "cili": 9180,
      "ciwszy": 9181,
      "ĠdochÃ³d": 9182,
      "ĠukÅĤada": 9183,
      "ĠusiÅĤ": 9184,
      "ĠutwÃ³r": 9185,
      "rety": 9186,
      "noÅĽciach": 9187,
      "owaÅĤem": 9188,
      "rzyÅĤy": 9189,
      "rzyÅĦski": 9190,
      "Ġwyp": 9191,
      "ĠwyÅĤo": 9192,
      "Ġwyba": 9193,
      "Ġwygra": 9194,
      "Ġprzebiega": 9195,
      "tany": 9196,
      "tacja": 9197,
      "czysz": 9198,
      "czywszy": 9199,
      "porzÄħd": 9200,
      "porzÄħdzenie": 9201,
      "Ġodwo": 9202,
      "Ġoddy": 9203,
      "Ġodmien": 9204,
      "ĠWs": 9205,
      "Å¼yÅĤem": 9206,
      "Ġkore": 9207,
      "Ġkomenda": 9208,
[...]
