{
  "vocab_size": 16000,
  "eos_token": "<|endoftext|>",
  "token_to_id": {
    "Ā": 0,
    "ā": 1,
    "Ă": 2,
    "ă": 3,
    "Ą": 4,
    "ą": 5,
    "Ć": 6,
    "ć": 7,
    "Ĉ": 8,
    "ĉ": 9,
    "Ċ": 10,
    "ċ": 11,
    "Č": 12,
    "č": 13,
    "Ď": 14,
    "ď": 15,
    "Đ": 16,
    "đ": 17,
    "Ē": 18,
    "ē": 19,
    "Ĕ": 20,
    "ĕ": 21,
    "Ė": 22,
    "ė": 23,
    "Ę": 24,
    "ę": 25,
    "Ě": 26,
    "ě": 27,
    "Ĝ": 28,
    "ĝ": 29,
    "Ğ": 30,
    "ğ": 31,
    "Ġ": 32,
    "!": 33,
    "\"": 34,
    "#": 35,
    "$": 36,
    "%": 37,
    "&": 38,
    "'": 39,
    "(": 40,
    ")": 41,
    "*": 42,
    "+": 43,
    ",": 44,
    "-": 45,
    ".": 46,
    "/": 47,
    "0": 48,
    "1": 49,
    "2": 50,
    "3": 51,
    "4": 52,
    "5": 53,
    "6": 54,
    "7": 55,
    "8": 56,
    "9": 57,
    ":": 58,
    ";": 59,
    "<": 60,
    "=": 61,
    ">": 62,
    "?": 63,
    "@": 64,
    "A": 65,
    "B": 66,
    "C": 67,
    "D": 68,
    "E": 69,
    "F": 70,
    "G": 71,
    "H": 72,
    "I": 73,
    "J": 74,
    "K": 75,
    "L": 76,
    "M": 77,
    "N": 78,
    "O": 79,
    "P": 80,
    "Q": 81,
    "R": 82,
    "S": 83,
    "T": 84,
    "U": 85,
    "V": 86,
    "W": 87,
    "X": 88,
    "Y": 89,
    "Z": 90,
    "[": 91,
    "\\": 92,
    "]": 93,
    "^": 94,
    "_": 95,
    "`": 96,
    "a": 97,
    "b": 98,
    "c": 99,
    "d": 100,
    "e": 101,
    "f": 102,
    "g": 103,
    "h": 104,
    "i": 105,
    "j": 106,
    "k": 107,
    "l": 108,
    "m": 109,
    "n": 110,
    "o": 111,
    "p": 112,
    "q": 113,
    "r": 114,
    "s": 115,
    "t": 116,
    "u": 117,
    "v": 118,
    "w": 119,
    "x": 120,
    "y": 121,
    "z": 122,
    "{": 123,
    "|": 124,
    "}": 125,
    "~": 126,
    "ġ": 127,
    "Ģ": 128,
    "ģ": 129,
    "Ĥ": 130,
    "ĥ": 131,
    "Ħ": 132,
    "ħ": 133,
    "Ĩ": 134,
    "ĩ": 135,
    "Ī": 136,
    "ī": 137,
    "Ĭ": 138,
    "ĭ": 139,
    "Į": 140,
    "į": 141,
    "İ": 142,
    "ı": 143,
    "Ĳ": 144,
    "ĳ": 145,
    "Ĵ": 146,
    "ĵ": 147,
    "Ķ": 148,
    "ķ": 149,
    "ĸ": 150,
    "Ĺ": 151,
    "ĺ": 152,
    "Ļ": 153,
    "ļ": 154,
    "Ľ": 155,
    "ľ": 156,
    "Ŀ": 157,
    "ŀ": 158,
    "Ł": 159,
    "ł": 160,
    "¡": 161,
    "¢": 162,
    "£": 163,
    "¤": 164,
    "¥": 165,
    "¦": 166,
    "§": 167,
    "¨": 168,
    "©": 169,
    "ª": 170,
    "«": 171,
    "¬": 172,
    "Ń": 173,
    "®": 174,
    "¯": 175,
    "°": 176,
    "±": 177,
    "²": 178,
    "³": 179,
    "´": 180,
    "µ": 181,
    "¶": 182,
    "·": 183,
    "¸": 184,
    "¹": 185,
    "º": 186,
    "»": 187,
    "¼": 188,
    "½": 189,
    "¾": 190,
    "¿": 191,
    "À": 192,
    "Á": 193,
    "Â": 194,
    "Ã": 195,
    "Ä": 196,
    "Å": 197,
    "Æ": 198,
    "Ç": 199,
    "È": 200,
    "É": 201,
    "Ê": 202,
    "Ë": 203,
    "Ì": 204,
    "Í": 205,
    "Î": 206,
    "Ï": 207,
    "Ð": 208,
    "Ñ": 209,
    "Ò": 210,
    "Ó": 211,
    "Ô": 212,
    "Õ": 213,
    "Ö": 214,
    "×": 215,
    "Ø": 216,
    "Ù": 217,
    "Ú": 218,
    "Û": 219,
    "Ü": 220,
    "Ý": 221,
    "Þ": 222,
    "ß": 223,
    "à": 224,
    "á": 225,
    "â": 226,
    "ã": 227,
    "ä": 228,
    "å": 229,
    "æ": 230,
    "ç": 231,
    "è": 232,
    "é": 233,
    "ê": 234,
    "ë": 235,
    "ì": 236,
    "í": 237,
    "î": 238,
    "ï": 239,
    "ð": 240,
    "ñ": 241,
    "ò": 242,
    "ó": 243,
    "ô": 244,
    "õ": 245,
    "ö": 246,
    "÷": 247,
    "ø": 248,
    "ù": 249,
    "ú": 250,
    "û": 251,
    "ü": 252,
    "ý": 253,
    "þ": 254,
    "ÿ": 255,
    "<|endoftext|>": 256,
    "ie": 257,
    "ÅĤ": 258,
    "Ġp": 259,
    "Ġw": 260,
    "Ġs": 261,
    "ÄĻ": 262,
    "Ġz": 263,
    "ni": 264,
    "ow": 265,
    "na": 266,
    "cz": 267,
    "Äħ": 268,
    "rz": 269,
    "ch": 270,
    "st": 271,
    "Ã³": 272,
    "nie": 273,
    "ra": 274,
    "Å¼": 275,
    "Ġo": 276,
    "Ġd": 277,
    "Ġt": 278,
    "ÅĽ": 279,
    "ro": 280,
    "Ġm": 281,
    "Ġi": 282,
    "ia": 283,
    "go": 284,
    "Ġk": 285,
    "sz": 286,
    "ne": 287,
    "Ġpo": 288,
    "li": 289,
    "dz": 290,
    "ny": 291,
    "Ġna": 292,
    "je": 293,
    "rze": 294,
    "iÄĻ": 295,
    "âĢ": 296,
    "ÅĤa": 297,
    "ka": 298,
    "le": 299,
    "ar": 300,
    "Ġb": 301,
    "Äĩ": 302,
    "re": 303,
    "te": 304,
    "Ġza": 305,
    "ci": 306,
    "Ã³w": 307,
    "Ġdo": 308,
    "nia": 309,
    "wa": 310,
    "ki": 311,
    "Ġu": 312,
    "owa": 313,
    "ta": 314,
    "ÅĤo": 315,
    "ja": 316,
    "no": 317,
    "rzy": 318,
    "ko": 319,
    "ry": 320,
    "la": 321,
    "Ġje": 322,
    "mi": 323,
    "ĠS": 324,
    "ĠsiÄĻ": 325,
    "Ġa": 326,
    "Ġnie": 327,
    "Ġwy": 328,
    "ce": 329,
    "ĠâĢ": 330,
    "ĠP": 331,
    "Ġprze": 332,
    "jÄħ": 333,
    "ty": 334,
    "Å¼e": 335,
    "da": 336,
    "cy": 337,
    "kie": 338,
    "to": 339,
    "sta": 340,
    "Ġg": 341,
    "ÅĦ": 342,
    "ku": 343,
    "ĠW": 344,
    "cze": 345,
    "==": 346,
    "po": 347,
    "wo": 348,
    "czy": 349,
    "em": 350,
    "Âł": 351,
    "ÅĽci": 352,
    "Ġ1": 353,
    "dy": 354,
    "Ġro": 355,
    "cie": 356,
    "ÅĤy": 357,
    "ma": 358,
    "en": 359,
    "er": 360,
    "Ġod": 361,
    "nych": 362,
    "wi": 363,
    "Ġ(": 364,
    "Ġko": 365,
    "ĠK": 366,
    "lo": 367,
    "ĠA": 368,
    "tu": 369,
    "ru": 370,
    "ca": 371,
    "ej": 372,
    "ĠN": 373,
    "wie": 374,
    "lu": 375,
    "ĠM": 376,
    "cj": 377,
    "tÃ³": 378,
    "Å¼y": 379,
    "Ġ2": 380,
    "dzie": 381,
    "Ġja": 382,
    "by": 383,
    "owy": 384,
    "or": 385,
    "am": 386,
    "rÃ³": 387,
    "szy": 388,
    "ĠB": 389,
    "zy": 390,
    "Ġprzy": 391,
    "ĠktÃ³": 392,
    "za": 393,
    "dzi": 394,
    "mie": 395,
    "ob": 396,
    "Ġby": 397,
    "ÅĤu": 398,
    "Ġmo": 399,
    "ga": 400,
    "ĠÅ¼e": 401,
    "Ġte": 402,
    "Ġty": 403,
    "Ġto": 404,
    "cza": 405,
    "owie": 406,
    "ate": 407,
    "ĠâĢĶ": 408,
    "ski": 409,
    "čĠ": 410,
    "nÄħ": 411,
    "Ġjest": 412,
    "===": 413,
    "ĠC": 414,
    "ĠZ": 415,
    "ĠT": 416,
    "raz": 417,
    "cji": 418,
    "ĠÅĽ": 419,
    "Ġf": 420,
    "sze": 421,
    "pi": 422,
    "Ġpa": 423,
    "Ġta": 424,
    "mu": 425,
    "ria": 426,
    "nej": 427,
    "skie": 428,
    "ÅĽÄĩ": 429,
    "cho": 430,
    "owi": 431,
    "nego": 432,
    "ĠâĢĵ": 433,
    "du": 434,
    "pa": 435,
    "gi": 436,
    "Ġpod": 437,
    "Ġma": 438,
    "wy": 439,
    "ĠJ": 440,
    "ĠR": 441,
    "Ġob": 442,
    "co": 443,
    "sa": 444,
    "Ġroz": 445,
    "my": 446,
    "Ġdz": 447,
    "ĠD": 448,
    "atego": 449,
    "ĠO": 450,
    "owe": 451,
    "ategoria": 452,
    "si": 453,
    "Kategoria": 454,
    "Ġsz": 455,
    "nym": 456,
    "Ġwie": 457,
    "Ġ20": 458,
    "wia": 459,
    "ĠG": 460,
    "ĠPo": 461,
    "pra": 462,
    "Ġlu": 463,
    "on": 464,
    "Ġin": 465,
    "pie": 466,
    "ĠI": 467,
    "Ġni": 468,
    "Ġpra": 469,
    "Ġpro": 470,
    "Ġsta": 471,
    "ek": 472,
    "Ġre": 473,
    "niu": 474,
    "cia": 475,
    "Ġch": 476,
    "âĢĶ": 477,
    "Ġ19": 478,
    "ska": 479,
    "ez": 480,
    "cja": 481,
    "sty": 482,
    "ĠÅ": 483,
    "Ġcz": 484,
    "in": 485,
    "sy": 486,
    "Ġst": 487,
    "an": 488,
    "owo": 489,
    "ĠL": 490,
    "Ġjak": 491,
    "Ġprzez": 492,
    "Ġgo": 493,
    "Ġr": 494,
    "un": 495,
    "Ġmie": 496,
    "do": 497,
    "dze": 498,
    "kÃ³w": 499,
    "Ġli": 500,
    "noÅĽci": 501,
    "mo": 502,
    "Ġjed": 503,
    "ju": 504,
    "sza": 505,
    "bi": 506,
    "ĠNa": 507,
    "ĠE": 508,
    "Ġco": 509,
    "Åº": 510,
    "bie": 511,
    "mia": 512,
    "il": 513,
    "sto": 514,
    "AR": 515,
    "de": 516,
    "niej": 517,
    "âĢĿ": 518,
    "dzia": 519,
    "pe": 520,
    "PAR": 521,
    "AT": 522,
    "rzÄħ": 523,
    "ĠF": 524,
    "OR": 525,
    "ba": 526,
    "jÄĻ": 527,
    "pu": 528,
    "ĠSE": 529,
    "Ġtak": 530,
    "Ġ===": 531,
    "ATOR": 532,
    "ĠSEPAR": 533,
    "ĠSEPARATOR": 534,
    "Ġspo": 535,
    "we": 536,
    "osta": 537,
    "ĠktÃ³ry": 538,
    "Ġwo": 539,
    "sie": 540,
    "ÅĦst": 541,
    "stÄĻ": 542,
    "dni": 543,
    "su": 544,
    "jÄħc": 545,
    "Ġmi": 546,
    "ÅĤem": 547,
    "Ġmu": 548,
    "owych": 549,
    "Ġe": 550,
    "ĠH": 551,
    "Ġzna": 552,
    "kre": 553,
    "Ġn": 554,
    "ri": 555,
    "Ã³ÅĤ": 556,
    "ĠâĢŀ": 557,
    "Ġze": 558,
    "ĠKo": 559,
    "rowa": 560,
    "gra": 561,
    "kÅĤa": 562,
    "bli": 563,
    "kt": 564,
    "Ġoraz": 565,
    "Ġmia": 566,
    "UR": 567,
    "czÄħ": 568,
    "rÃ³d": 569,
    "Ġdla": 570,
    "bu": 571,
    "ier": 572,
    "Ġka": 573,
    "tem": 574,
    "art": 575,
    "ĠktÃ³re": 576,
    "CE": 577,
    "ĠU": 578,
    "Ġda": 579,
    "spo": 580,
    "Ġczy": 581,
    "ĠSO": 582,
    "bo": 583,
    "nÄĻ": 584,
    "ĠSOUR": 585,
    "ĠSOURCE": 586,
    "Ġh": 587,
    "owej": 588,
    "Å¼a": 589,
    "20": 590,
    "Ġlub": 591,
    "nika": 592,
    "rza": 593,
    "Ġdzie": 594,
    "..": 595,
    "gu": 596,
    "ÅĤe": 597,
    "men": 598,
    "zna": 599,
    "amo": 600,
    "io": 601,
    "Ġra": 602,
    "czo": 603,
    "ĠsÄħ": 604,
    "Ġroku": 605,
    "Ġprzed": 606,
    "Ġ3": 607,
    "cha": 608,
    "js": 609,
    "so": 610,
    "jÄħcy": 611,
    "ÄĻd": 612,
    "fi": 613,
    "Po": 614,
    "Ġle": 615,
    "Ġzosta": 616,
    "nt": 617,
    "skiego": 618,
    "rod": 619,
    "Ġtym": 620,
    "czne": 621,
    "nu": 622,
    "Ġla": 623,
    "ur": 624,
    "Ġwi": 625,
    "kiem": 626,
    "kÄħ": 627,
    "ÅĤÄħ": 628,
    "Ġnaj": 629,
    "ran": 630,
    "jÄħce": 631,
    "ĠÅ¼y": 632,
    "Ġjego": 633,
    "al": 634,
    "Ġrze": 635,
    "ĠNie": 636,
    "py": 637,
    "Ġwz": 638,
    "Ã³r": 639,
    "ona": 640,
    "Ġtu": 641,
    "rak": 642,
    "zu": 643,
    "ĠZa": 644,
    "cu": 645,
    "siÄĻ": 646,
    "niem": 647,
    "wiÄħ": 648,
    "Ġwszy": 649,
    "Ġbo": 650,
    "me": 651,
    "Ġpoz": 652,
    "stÄĻp": 653,
    "),": 654,
    "tor": 655,
    ").": 656,
    "00": 657,
    "ĠĠ": 658,
    "ĠJa": 659,
    "cyj": 660,
    "czas": 661,
    "Ġlo": 662,
    "owego": 663,
    "for": 664,
    "nio": 665,
    "ĠwÅĤa": 666,
    "Ġjej": 667,
    "oba": 668,
    "Ġsto": 669,
    "rt": 670,
    "zd": 671,
    "gl": 672,
    "Ġ201": 673,
    "owania": 674,
    "sp": 675,
    "skiej": 676,
    "Ġale": 677,
    "iÄĻk": 678,
    "Ġju": 679,
    "lko": 680,
    "Ġspra": 681,
    "tycz": 682,
    "Ġce": 683,
    "nd": 684,
    "Ã³l": 685,
    "Ġbez": 686,
    "cje": 687,
    "ÅĽli": 688,
    "Ġwszyst": 689,
    "dzy": 690,
    "¹rÃ³d": 691,
    "Ġtego": 692,
    "ze": 693,
    "Ġpow": 694,
    "tni": 695,
    "Ġswo": 696,
    "szcze": 697,
    "Ġsy": 698,
    "dzo": 699,
    "kÄĻ": 700,
    "ĠWy": 701,
    "Ġde": 702,
    "rÄĻ": 703,
    "Ġusta": 704,
    "Na": 705,
    "ĠCh": 706,
    "ĠÅ¹rÃ³d": 707,
    "19": 708,
    "um": 709,
    "Ġpowie": 710,
    "ÅĽcie": 711,
    "Ġwe": 712,
    "dnie": 713,
    "Ġokre": 714,
    "ter": 715,
    "owym": 716,
    "ĠJe": 717,
    "ĠmoÅ¼e": 718,
    "ĠjuÅ¼": 719,
    "sÅĤa": 720,
    "ji": 721,
    "dza": 722,
    "noÅĽÄĩ": 723,
    "Å¼o": 724,
    "war": 725,
    "ÅĤÃ³w": 726,
    "ĠbyÅĤ": 727,
    "Ġgdy": 728,
    "Ġpe": 729,
    "Ġpier": 730,
    "powie": 731,
    "nist": 732,
    "Ġno": 733,
    "Ġkon": 734,
    "sko": 735,
    "Ġjako": 736,
    "czÄĻ": 737,
    "ĠPa": 738,
    "prze": 739,
    "trzy": 740,
    "iaÅĤa": 741,
    "ciÄħ": 742,
    "kich": 743,
    "jazd": 744,
    "rga": 745,
    "Ġca": 746,
    "niÄĻ": 747,
    "Ġ4": 748,
    "ĠteÅ¼": 749,
    "lej": 750,
    "Ġdro": 751,
    "Ġich": 752,
    "rysty": 753,
    "ĠrÃ³w": 754,
    "ĠMa": 755,
    "Ġ-": 756,
    "unk": 757,
    "tÃ³w": 758,
    "ĠDo": 759,
    "Ġsie": 760,
    "Ġba": 761,
    "nii": 762,
    "Ġog": 763,
    "dem": 764,
    "Ġbu": 765,
    "Ġme": 766,
    "Ġmiejs": 767,
    "se": 768,
    "ĠMi": 769,
    "nik": 770,
    "ĠPol": 771,
    "Ġos": 772,
    "ĠÅĽwia": 773,
    "Ġnad": 774,
    "Ġim": 775,
    "pad": 776,
    "siÄħ": 777,
    "Ġtylko": 778,
    "âĢī": 779,
    "Ã³j": 780,
    "owaÅĤ": 781,
    "ĠmoÅ¼": 782,
    "sia": 783,
    "nowi": 784,
    "dzenia": 785,
    "ÄĻdzie": 786,
    "Ġku": 787,
    "sk": 788,
    "Ġfi": 789,
    "ĠbyÅĤo": 790,
    "obie": 791,
    "den": 792,
    "ĠczÄĻ": 793,
    "owanie": 794,
    "gie": 795,
    "uro": 796,
    "Ġ5": 797,
    "rÃ³Å¼": 798,
    "Ġkra": 799,
    "owaÄĩ": 800,
    "Ġdu": 801,
    "Ġbar": 802,
    "bra": 803,
    "Ġwa": 804,
    "âĢ¦": 805,
    "ĠKa": 806,
    "forma": 807,
    "el": 808,
    "Ġpi": 809,
    "ÅĦski": 810,
    "ĠdziaÅĤa": 811,
    "Ġorga": 812,
    "Ġoko": 813,
    "ak": 814,
    "piecze": 815,
    "Ġcze": 816,
    "ary": 817,
    "ĠÅ¹rÃ³dÅĤo": 818,
    "nymi": 819,
    "Ġkie": 820,
    "Ġust": 821,
    "scy": 822,
    "Ġdy": 823,
    "cznych": 824,
    "sÅĤu": 825,
    "iÄĻdzy": 826,
    "praw": 827,
    "Ġc": 828,
    "czyÄĩ": 829,
    "cÄħ": 830,
    "dziaÅĤ": 831,
    "...": 832,
    "Ġmog": 833,
    "Ġmnie": 834,
    "Äħd": 835,
    "Ġpu": 836,
    "wszy": 837,
    "Ġten": 838,
    "waÅĤ": 839,
    "cjÄĻ": 840,
    "ĠRa": 841,
    "ĠwiÄĻ": 842,
    "two": 843,
    "Ġcie": 844,
    "ĠtakÅ¼e": 845,
    "Ġwyko": 846,
    "ĠWar": 847,
    "Ġmy": 848,
    "ĠTo": 849,
    "kÅĤad": 850,
    "kim": 851,
    "Ġcho": 852,
    "Ġart": 853,
    "Ġ202": 854,
    "prowa": 855,
    "cÃ³w": 856,
    "Ã³wi": 857,
    "ge": 858,
    "Ġcza": 859,
    "Ġsam": 860,
    "cznie": 861,
    "ĠsÅĤu": 862,
    "Ġtej": 863,
    "rzu": 864,
    "rÄħ": 865,
    "Ġgru": 866,
    "pre": 867,
    "tk": 868,
    "ĠRo": 869,
    "ĠIn": 870,
    "nak": 871,
    "ÅĦstwa": 872,
    "ĠbyÄĩ": 873,
    "Ġwar": 874,
    "owÄħ": 875,
    "Ġaby": 876,
    "ÅĦstwo": 877,
    "Ġar": 878,
    "szÄħ": 879,
    "Ġgra": 880,
    "ii": 881,
    "Ã³b": 882,
    "âĢĵ": 883,
    "rÃ³w": 884,
    "dzÄħ": 885,
    "lne": 886,
    "kiego": 887,
    "ĠuÅ¼y": 888,
    "stro": 889,
    "Ġwyda": 890,
    "at": 891,
    "jÄħcych": 892,
    "Ġ\"": 893,
    "szka": 894,
    "bliÅ¼": 895,
    "Ġrozpo": 896,
    "cznej": 897,
    "Ġpol": 898,
    "Å¼Äħ": 899,
    "Ġ18": 900,
    "Ġznaj": 901,
    "ĠSamo": 902,
    "Ġdru": 903,
    "im": 904,
    "uto": 905,
    "Ġstro": 906,
    "Ġal": 907,
    "nÃ³w": 908,
    "Ġodpowie": 909,
    "trze": 910,
    "mis": 911,
    "Ġak": 912,
    "ĠMo": 913,
    "Ġsk": 914,
    "Ġpraw": 915,
    "skich": 916,
    "Ġsp": 917,
    "Ġok": 918,
    "trz": 919,
    "ĠBo": 920,
    "ezpiecze": 921,
    "Ġdnia": 922,
    "ĠzwiÄħ": 923,
    "ĠokreÅĽ": 924,
    "ĠÅĤa": 925,
    "ns": 926,
    "Ġ200": 927,
    "nieÅ¼": 928,
    "raca": 929,
    "rem": 930,
    "ĠkrÃ³": 931,
    "skim": 932,
    "ÅĽmy": 933,
    "ec": 934,
    "th": 935,
    "uka": 936,
    "nic": 937,
    "Ġpre": 938,
    "arak": 939,
    "ĠSta": 940,
    "nek": 941,
    "ste": 942,
    "Ġraz": 943,
    "Ġry": 944,
    "ÅĤowie": 945,
    "ÅĽnie": 946,
    "Ġdoty": 947,
    "Ġwsp": 948,
    "ĠbÄĻdzie": 949,
    "Ġjednak": 950,
    "Ġ6": 951,
    "Ġjeszcze": 952,
    "kiej": 953,
    "Ġjedno": 954,
    "ĠbyÅĤa": 955,
    "wiÄĻ": 956,
    "Ġsamo": 957,
    "Ġsobie": 958,
    "Ġsze": 959,
    "ĠNo": 960,
    "Ġop": 961,
    "Ġser": 962,
    "ĠKon": 963,
    "Ġpan": 964,
    "Art": 965,
    "sem": 966,
    "tego": 967,
    "Ġszcze": 968,
    "Ġnr": 969,
    "lÄĻ": 970,
    "Ã³d": 971,
    "Ġci": 972,
    "gro": 973,
    "ĠrÃ³wnieÅ¼": 974,
    "ali": 975,
    "owane": 976,
    "duje": 977,
    "ĠEuro": 978,
    "nÄħÅĤ": 979,
    "mier": 980,
    "stÄĻpu": 981,
    "stem": 982,
    "ĠmÃ³wi": 983,
    "pisy": 984,
    "gÃ³l": 985,
    "peÅĤ": 986,
    "ĠmoÅ¼na": 987,
    "stwa": 988,
    "tka": 989,
    "Ġpie": 990,
    "ĠgÅĤo": 991,
    "Ġ7": 992,
    "sku": 993,
    "jbliÅ¼": 994,
    "Ġru": 995,
    "iwa": 996,
    "Ġzie": 997,
    "tra": 998,
    "owia": 999,
    "dar": 1000,
    "tach": 1001,
    "Ġ9": 1002,
    "Ġlotni": 1003,
    "Ġtych": 1004,
    "zie": 1005,
    "ÂłÂł": 1006,
    "arakte": 1007,
    "ĠzÅĤo": 1008,
    "czu": 1009,
    "owiÄħ": 1010,
    "Ġgmi": 1011,
    "szo": 1012,
    "tek": 1013,
    "ĠmiÄĻdzy": 1014,
    "âĢŀ": 1015,
    "taÅĤ": 1016,
    "ĠjÄħ": 1017,
    "Ġdzi": 1018,
    "Ġnale": 1019,
    "Ġfunk": 1020,
    "ĠÅļ": 1021,
    "ĠrÄĻ": 1022,
    "cej": 1023,
    "dÅĤ": 1024,
    "ti": 1025,
    "pej": 1026,
    "Ġstanowi": 1027,
    "Ġtam": 1028,
    "ĠkaÅ¼": 1029,
    "ber": 1030,
    "ĠktÃ³rych": 1031,
    "chodem": 1032,
    "ĠV": 1033,
    "nem": 1034,
    "Ġpoli": 1035,
    "ĠktÃ³ra": 1036,
    "szym": 1037,
    "ĠÅĽrod": 1038,
    "Ġokoli": 1039,
    "munika": 1040,
    "pis": 1041,
    "Ġzoba": 1042,
    "ĠMar": 1043,
    "szej": 1044,
    "Ġzw": 1045,
    "est": 1046,
    "Ġkolej": 1047,
    "kach": 1048,
    "dzenie": 1049,
    "Ġkom": 1050,
    "czenia": 1051,
    "ĠdÅĤu": 1052,
    "rzÄħd": 1053,
    "Ġbi": 1054,
    "Ġtra": 1055,
    "Ġbud": 1056,
    "chodzi": 1057,
    "di": 1058,
    "chy": 1059,
    "wsze": 1060,
    "10": 1061,
    "Ġpodsta": 1062,
    "wÃ³": 1063,
    "Ġpla": 1064,
    "Pol": 1065,
    "Ġswoje": 1066,
    "ĠBa": 1067,
    "Ġfor": 1068,
    "Ġdob": 1069,
    "rzÄĻ": 1070,
    "ng": 1071,
    "Ġmar": 1072,
    "stÄħ": 1073,
    "Ġpowo": 1074,
    "leg": 1075,
    "Za": 1076,
    "12": 1077,
    "glÄĻd": 1078,
    "Ġgdzie": 1079,
    "ĠLe": 1080,
    "ĠPrze": 1081,
    "kaza": 1082,
    "owni": 1083,
    "Ġnau": 1084,
    "fa": 1085,
    "tnie": 1086,
    "Ġbardzo": 1087,
    "tych": 1088,
    "Ġsu": 1089,
    "ÅĤÄĻ": 1090,
    "waÄĩ": 1091,
    "tÄĻ": 1092,
    "Ġon": 1093,
    "Ġstra": 1094,
    "ciu": 1095,
    "pÅĤy": 1096,
    "ĠzostaÅĤ": 1097,
    "twa": 1098,
    "czny": 1099,
    "he": 1100,
    "Ġlat": 1101,
    "szych": 1102,
    "dowa": 1103,
    "towa": 1104,
    "Ġ8": 1105,
    "ĠX": 1106,
    "Ġprac": 1107,
    "lnoÅĽci": 1108,
    "liwo": 1109,
    "pisa": 1110,
    "ĠrÃ³Å¼": 1111,
    "ĠWi": 1112,
    "Ġkil": 1113,
    "Ġchwi": 1114,
    "Ġtem": 1115,
    "now": 1116,
    "stu": 1117,
    "gen": 1118,
    "cznego": 1119,
    "tyw": 1120,
    "ĠSz": 1121,
    "ĠAle": 1122,
    "cych": 1123,
    "lar": 1124,
    "II": 1125,
    "Wy": 1126,
    "trzyma": 1127,
    "Ġtrze": 1128,
    "lnych": 1129,
    "strze": 1130,
    "pro": 1131,
    "Ġnim": 1132,
    "nistra": 1133,
    "13": 1134,
    "Ġzgo": 1135,
    "ĠspoÅĤe": 1136,
    "formacje": 1137,
    "Ġ10": 1138,
    "rii": 1139,
    "Ġkiedy": 1140,
    "Ġws": 1141,
    "Ko": 1142,
    "wiet": 1143,
    "Ġpracy": 1144,
    "ĠWie": 1145,
    "Przy": 1146,
    "Ġof": 1147,
    "mio": 1148,
    "chu": 1149,
    "Ġnaz": 1150,
    "szcza": 1151,
    "Ġwiel": 1152,
    "kar": 1153,
    "ist": 1154,
    "wet": 1155,
    "ciw": 1156,
    "logi": 1157,
    "Ġmieszka": 1158,
    "rywa": 1159,
    "dnia": 1160,
    "strono": 1161,
    "ĠGa": 1162,
    "takt": 1163,
    "fe": 1164,
    "bywa": 1165,
    "ÅĤon": 1166,
    "spodar": 1167,
    "wz": 1168,
    "lÄħ": 1169,
    "arakterysty": 1170,
    "18": 1171,
    "Ġzda": 1172,
    "Ã³g": 1173,
    "Ġdrog": 1174,
    "lnie": 1175,
    "ÅĽcia": 1176,
    "wier": 1177,
    "lem": 1178,
    "ÅĦstw": 1179,
    "dÄĻ": 1180,
    "ĠpeÅĤ": 1181,
    "Ġ199": 1182,
    "Ġuwa": 1183,
    "Ġtwo": 1184,
    "ezpieczeÅĦstwo": 1185,
    "ĠAu": 1186,
    "ÅĤowa": 1187,
    "ÅĽla": 1188,
    "niÄħ": 1189,
    "et": 1190,
    "lotem": 1191,
    "czenie": 1192,
    "ĠpÃ³ÅĤ": 1193,
    "Ġad": 1194,
    "Ġczas": 1195,
    "Do": 1196,
    "Ġzasa": 1197,
    "ĠniÅ¼": 1198,
    "Ġrodzi": 1199,
    "Nie": 1200,
    "tar": 1201,
    "niza": 1202,
    "obacz": 1203,
    "kupy": 1204,
    "Ġga": 1205,
    "ĠzobaczyÄĩ": 1206,
    "jem": 1207,
    "Ġwyso": 1208,
    "ho": 1209,
    "lny": 1210,
    "dno": 1211,
    "mar": 1212,
    "szego": 1213,
    "dÅĤu": 1214,
    "Ġbra": 1215,
    "tury": 1216,
    "ĠCo": 1217,
    "ÅĤoÅĽci": 1218,
    "kow": 1219,
    "ĠRe": 1220,
    "dÃ³w": 1221,
    "ĠÅ¼a": 1222,
    "rzo": 1223,
    "ĠrozporzÄħ": 1224,
    "Ġfil": 1225,
    "Ġposta": 1226,
    "Ġ2024": 1227,
    "kowa": 1228,
    "stronomia": 1229,
    "ĠEuropej": 1230,
    "Ġ198": 1231,
    "Ġnawet": 1232,
    "zo": 1233,
    "Ġspos": 1234,
    "usz": 1235,
    "ĠLi": 1236,
    "czej": 1237,
    "Ġturysty": 1238,
    "ĠWo": 1239,
    "ĠAn": 1240,
    "arakterystyka": 1241,
    "lnego": 1242,
    "ĠwÅĤas": 1243,
    "Ġpomo": 1244,
    "lni": 1245,
    "ĠTe": 1246,
    "tura": 1247,
    "ĠdotyczÄħ": 1248,
    "liÅĽmy": 1249,
    "Ġprowa": 1250,
    "dÄħ": 1251,
    "ĠktÃ³rej": 1252,
    "wania": 1253,
    "rek": 1254,
    "stwo": 1255,
    "ĠFran": 1256,
    "âĢĿ,": 1257,
    "mienia": 1258,
    "Ġsi": 1259,
    "bor": 1260,
    "czyÅĤ": 1261,
    "âĢĿ.": 1262,
    "ĠOd": 1263,
    "Ġbie": 1264,
    "rÃ³ci": 1265,
    "Ġpubli": 1266,
    "zi": 1267,
    "jÄĻzy": 1268,
    "sÅĤ": 1269,
    "ktÃ³": 1270,
    "dÅº": 1271,
    "ĠÅĽmier": 1272,
    "ers": 1273,
    "wnÄĻ": 1274,
    "dziej": 1275,
    "KI": 1276,
    "Ġmiasto": 1277,
    "Ġdoda": 1278,
    "ĠokreÅĽlo": 1279,
    "ĠkoÅĦ": 1280,
    "Ġnich": 1281,
    "dziÅĤ": 1282,
    "munikacja": 1283,
    "Ġlicz": 1284,
    "dziÄĩ": 1285,
    "ĠbyÅĤy": 1286,
    "koÅĦ": 1287,
    "prezy": 1288,
    "ĠWarsza": 1289,
    "ĠKomis": 1290,
    "Ġele": 1291,
    "wnÄĻtrz": 1292,
    "Ġprodu": 1293,
    "wÄħ": 1294,
    "ĠzwiÄħz": 1295,
    "nku": 1296,
    "ĠktÃ³rym": 1297,
    "Ġwyra": 1298,
    "jbliÅ¼sze": 1299,
    "Ã³Åº": 1300,
    "kami": 1301,
    "nowa": 1302,
    "kÅĤ": 1303,
    "nienia": 1304,
    "dnio": 1305,
    "ĠwiÄĻc": 1306,
    "rzysta": 1307,
    "Ġinnych": 1308,
    "UE": 1309,
    "ich": 1310,
    "ha": 1311,
    "Ġosta": 1312,
    "mina": 1313,
    "Ġoczy": 1314,
    "Ġniez": 1315,
    "Ġpew": 1316,
    "ĠwÄĻ": 1317,
    "Ġcy": 1318,
    "Ġoj": 1319,
    "tki": 1320,
    "Ġkar": 1321,
    "Ġani": 1322,
    "ner": 1323,
    "Ġpowsta": 1324,
    "zm": 1325,
    "ciÄĻ": 1326,
    "ryka": 1327,
    "cowo": 1328,
    "Ġstos": 1329,
    "Ġszko": 1330,
    "Ġfa": 1331,
    "tej": 1332,
    "pli": 1333,
    "Ġzd": 1334,
    "ĠbÄĻd": 1335,
    "stra": 1336,
    "Å¼eli": 1337,
    "ck": 1338,
    "lejÄħ": 1339,
    "ĠPL": 1340,
    "ĠmiaÅĤ": 1341,
    "wu": 1342,
    "rwa": 1343,
    "par": 1344,
    "Ġpowi": 1345,
    "Ġwoj": 1346,
    "ok": 1347,
    "tru": 1348,
    "Ġszy": 1349,
    "Ġokolice": 1350,
    "Ġprzedsta": 1351,
    "Ġkraju": 1352,
    "muje": 1353,
    "Ġgro": 1354,
    "ĠWe": 1355,
    "Ġsprawie": 1356,
    "ĠtÄĻ": 1357,
    "ren": 1358,
    "ĠczÅĤowie": 1359,
    "ĠmÄĻ": 1360,
    "ĠAl": 1361,
    "zji": 1362,
    "Ġ12": 1363,
    "rch": 1364,
    "Ġturystyczne": 1365,
    "Ġpierwszy": 1366,
    "tÄħ": 1367,
    "ĠciÄĻ": 1368,
    "ciÄħg": 1369,
    "ul": 1370,
    "ĠgÅĤÃ³w": 1371,
    "biera": 1372,
    "cki": 1373,
    "ĠczÄĻÅĽci": 1374,
    "ĠksiÄĻ": 1375,
    "ĠÅĽwiat": 1376,
    "legi": 1377,
    "wio": 1378,
    "nans": 1379,
    "Ġsystem": 1380,
    "Dz": 1381,
    "ĠszczegÃ³l": 1382,
    "kry": 1383,
    "ĠmÅĤo": 1384,
    "sÅĤaw": 1385,
    "ĠÅ»": 1386,
    "jo": 1387,
    "Ġnas": 1388,
    "ĠsÅĤuÅ¼": 1389,
    "kÅĤada": 1390,
    "Ġ13": 1391,
    "estiwa": 1392,
    "Ġgodzi": 1393,
    "Ġznajduje": 1394,
    "ĠTa": 1395,
    "ĠsÅĤo": 1396,
    "maÅĤy": 1397,
    "ĠjÄĻzy": 1398,
    "kro": 1399,
    "res": 1400,
    "ÅĽrÃ³d": 1401,
    "ĠobowiÄħ": 1402,
    "wzglÄĻd": 1403,
    "Ġzach": 1404,
    "14": 1405,
    "ĠBy": 1406,
    "Ġkla": 1407,
    "lenia": 1408,
    "Ġprogra": 1409,
    "ĠLu": 1410,
    "ministra": 1411,
    "Ġsza": 1412,
    "Ġprzeciw": 1413,
    "Prze": 1414,
    "Ġauto": 1415,
    "ĠWI": 1416,
    "tyka": 1417,
    "Ġwia": 1418,
    "ĠwspÃ³ÅĤ": 1419,
    "ĠwÅĤaÅĽci": 1420,
    "tora": 1421,
    "sce": 1422,
    "ruk": 1423,
    "wÄĻ": 1424,
    "siada": 1425,
    "17": 1426,
    "Ġzwy": 1427,
    "waÅ¼": 1428,
    "ĠÅģ": 1429,
    "ĠmogÄħ": 1430,
    "Ġprzypad": 1431,
    "ÅĤych": 1432,
    "Ġniego": 1433,
    "mÃ³w": 1434,
    "pew": 1435,
    "rzenia": 1436,
    "ĠczÅĤon": 1437,
    "ĠÅ¼ycie": 1438,
    "Ġzawo": 1439,
    "ĠmajÄħ": 1440,
    "ĠPro": 1441,
    "wÃ³r": 1442,
    "nty": 1443,
    "Ġwszystko": 1444,
    "od": 1445,
    "miast": 1446,
    "ĠwaÅ¼": 1447,
    "ĠWIKI": 1448,
    "tel": 1449,
    "ĠÅĽwie": 1450,
    "Ġteraz": 1451,
    "ĠDojazd": 1452,
    "ĠSamochodem": 1453,
    "ĠnaleÅ¼y": 1454,
    "nach": 1455,
    "tkiem": 1456,
    "Ġwska": 1457,
    "Ġzdo": 1458,
    "mowa": 1459,
    "gdy": 1460,
    "ĠosÃ³b": 1461,
    "Â§": 1462,
    "ĠSamolotem": 1463,
    "Ġzro": 1464,
    "sztaÅĤ": 1465,
    "Ġ15": 1466,
    "tku": 1467,
    "owiada": 1468,
    "ĠZakupy": 1469,
    "ĠwiÄĻk": 1470,
    "maga": 1471,
    "Ġ194": 1472,
    "kona": 1473,
    "czna": 1474,
    "ĠBezpieczeÅĦstwo": 1475,
    "Ġpotrze": 1476,
    "ser": 1477,
    "ĠBi": 1478,
    "pera": 1479,
    "nad": 1480,
    "Ġpy": 1481,
    "ĠNoc": 1482,
    "noc": 1483,
    "tro": 1484,
    "mach": 1485,
    "grani": 1486,
    "Ġwoje": 1487,
    "ĠpÅĤa": 1488,
    "ĠKontakt": 1489,
    "liwoÅĽci": 1490,
    "lnej": 1491,
    "Å¼enia": 1492,
    "czego": 1493,
    "niÄĩ": 1494,
    "Ġzmia": 1495,
    "pada": 1496,
    "istor": 1497,
    "Ġgospodar": 1498,
    "mniej": 1499,
    "chro": 1500,
    "Ġpozosta": 1501,
    "lega": 1502,
    "ĠWarto": 1503,
    "Ġtrzy": 1504,
    "wen": 1505,
    "stnie": 1506,
    "stÄħpi": 1507,
    "Å¼ej": 1508,
    "Ġsa": 1509,
    "dia": 1510,
    "Ġ17": 1511,
    "cjona": 1512,
    "cznym": 1513,
    "ĠGastronomia": 1514,
    "skÄħ": 1515,
    "Ġdecy": 1516,
    "ĠksiÄħ": 1517,
    "Ġ16": 1518,
    "ym": 1519,
    "ĠCharakterystyka": 1520,
    "sÃ³w": 1521,
    "fia": 1522,
    "Ġniej": 1523,
    "be": 1524,
    "cjÄħ": 1525,
    "cÄĻ": 1526,
    "ĠZie": 1527,
    "15": 1528,
    "ĠÅ¼ycia": 1529,
    "Ġadministra": 1530,
    "ĠPrzy": 1531,
    "tera": 1532,
    "Ġmarca": 1533,
    "Ġsiebie": 1534,
    "ing": 1535,
    "ĠMe": 1536,
    "Ġczer": 1537,
    "gÄĻ": 1538,
    "wer": 1539,
    "amiÄĻ": 1540,
    "pod": 1541,
    "Ġchcia": 1542,
    "Ġmiejsce": 1543,
    "us": 1544,
    "ĠktÃ³rego": 1545,
    "Ġso": 1546,
    "Ġorganiza": 1547,
    "wem": 1548,
    "Ġucze": 1549,
    "ĠsposÃ³b": 1550,
    "pÅĤa": 1551,
    "ĠchÅĤo": 1552,
    "Ã³Åºniej": 1553,
    "szedÅĤ": 1554,
    "glÄħ": 1555,
    "wÃ³j": 1556,
    "Ġstycz": 1557,
    "ĠNr": 1558,
    "nta": 1559,
    "Ġbate": 1560,
    "ld": 1561,
    "Ġustawy": 1562,
    "Je": 1563,
    "Ġosob": 1564,
    "bior": 1565,
    "Ġpoda": 1566,
    "ncji": 1567,
    "lna": 1568,
    "ÅĦskiego": 1569,
    "ĠZobacz": 1570,
    "Ġnam": 1571,
    "nosi": 1572,
    "lnym": 1573,
    "ĠĠĠ": 1574,
    "jÄħcego": 1575,
    "nister": 1576,
    "ÅĤym": 1577,
    "pl": 1578,
    "ÅĤego": 1579,
    "Ro": 1580,
    "Ġlatach": 1581,
    "Ġwszystkich": 1582,
    "Ġsku": 1583,
    "Ġimprezy": 1584,
    "Ġkobie": 1585,
    "Ġjednost": 1586,
    "nÄĻÅĤa": 1587,
    "Ġwal": 1588,
    "Ġwykona": 1589,
    "ĠwiÄĻcej": 1590,
    "Ġmiasta": 1591,
    "ĠÅ¹rÃ³dÅĤa": 1592,
    "Ġpar": 1593,
    "ĠInformacje": 1594,
    "naj": 1595,
    "ĠÅ¼o": 1596,
    "ĠCzy": 1597,
    "Ġkilka": 1598,
    "ĠpoÅĤu": 1599,
    "Ġregi": 1600,
    "ene": 1601,
    "ĠpaÅĦstw": 1602,
    "Ġwieku": 1603,
    "Ġludzi": 1604,
    "Ġmowa": 1605,
    "Ã³Å¼": 1606,
    "Ġtru": 1607,
    "ment": 1608,
    "Ġzam": 1609,
    "estiwale": 1610,
    "szÄĻ": 1611,
    "tym": 1612,
    "ĠPraca": 1613,
    "ĠpoczÄħ": 1614,
    "szu": 1615,
    "koÅĽci": 1616,
    "chni": 1617,
    "niajÄħc": 1618,
    "ĠHo": 1619,
    "ĠCz": 1620,
    "sek": 1621,
    "ura": 1622,
    "16": 1623,
    "Ġczasu": 1624,
    "nicy": 1625,
    "Ġwprowa": 1626,
    "ĠRady": 1627,
    "wego": 1628,
    "tr": 1629,
    "ĠÅ¼eby": 1630,
    "tedy": 1631,
    "ÅĤoÅĽÄĩ": 1632,
    "tom": 1633,
    "Ġmuzy": 1634,
    "Przypisy": 1635,
    "Ġkry": 1636,
    "ĠbudÅ¼e": 1637,
    "ĠKomunikacja": 1638,
    "ĠNoclegi": 1639,
    "czych": 1640,
    "Ġpodczas": 1641,
    "zyden": 1642,
    "dÅĤug": 1643,
    "ĠgÅĤ": 1644,
    "wali": 1645,
    "stos": 1646,
    "zowa": 1647,
    "Ġozna": 1648,
    "ÅĽwia": 1649,
    "Ġwnio": 1650,
    "Ġzmie": 1651,
    "Ġmate": 1652,
    "dzieÄĩ": 1653,
    "ĠnastÄĻp": 1654,
    "cach": 1655,
    "ĠNauka": 1656,
    "Ġzakre": 1657,
    "ĠPolsce": 1658,
    "man": 1659,
    "nÄħÄĩ": 1660,
    "and": 1661,
    "Ġposiada": 1662,
    "Ġ193": 1663,
    "daw": 1664,
    "zacji": 1665,
    "ĠpoÅĤo": 1666,
    "Ġ14": 1667,
    "ĠKra": 1668,
    ".,": 1669,
    "log": 1670,
    "ĠbÄĻdÄħ": 1671,
    "taj": 1672,
    "ĠSa": 1673,
    "Ġjakie": 1674,
    "wanie": 1675,
    "owarzy": 1676,
    "Ġwszystkie": 1677,
    "Ġalbo": 1678,
    "Ġzawie": 1679,
    "ĠAr": 1680,
    "Ġkonie": 1681,
    "mentu": 1682,
    "ĠPar": 1683,
    "Ġpom": 1684,
    "szech": 1685,
    "Ja": 1686,
    "ĠRu": 1687,
    "Ġproce": 1688,
    "Ġzale": 1689,
    "Ġnic": 1690,
    "ĠDa": 1691,
    "Ġstycznia": 1692,
    "Ġter": 1693,
    "50": 1694,
    "Ġstar": 1695,
    "soby": 1696,
    "Ġwiele": 1697,
    "Ġkont": 1698,
    "Ġspraw": 1699,
    "Ġmam": 1700,
    "Ġfinans": 1701,
    "Ġdzieci": 1702,
    "Ġ,": 1703,
    "ĠpiÄĻk": 1704,
    "ĠPra": 1705,
    "Å¼enie": 1706,
    "ogra": 1707,
    "ĠzwiÄħza": 1708,
    "wiÄĻk": 1709,
    "ĠÅ¼": 1710,
    "wyÅ¼": 1711,
    "om": 1712,
    "cznoÅĽci": 1713,
    "cznÄħ": 1714,
    "ĠNajbliÅ¼sze": 1715,
    "Ġkrzy": 1716,
    "rach": 1717,
    "ĠNaj": 1718,
    "twie": 1719,
    "Ġrzecz": 1720,
    "Ġwarto": 1721,
    "ĠktÃ³rzy": 1722,
    "Ġpr": 1723,
    "Ġobec": 1724,
    "czym": 1725,
    "ÅĽmie": 1726,
    "Ġpoprze": 1727,
    "wÃ³dz": 1728,
    "Ġrzeczy": 1729,
    "ĠKolejÄħ": 1730,
    "Ġdwa": 1731,
    "Ġproje": 1732,
    "nki": 1733,
    "bro": 1734,
    "ÅĽre": 1735,
    "Ġdrugie": 1736,
    "cego": 1737,
    "Ã³gÅĤ": 1738,
    "bym": 1739,
    "Ch": 1740,
    "waÅĤa": 1741,
    "meryka": 1742,
    "Ġpor": 1743,
    "ve": 1744,
    "chodzÄħ": 1745,
    "ĠmyÅĽ": 1746,
    "Ġumie": 1747,
    "Ġjeden": 1748,
    "Ġsko": 1749,
    "Ġkto": 1750,
    "Ġmoje": 1751,
    "der": 1752,
    "ĠSo": 1753,
    "Ġinte": 1754,
    "jÄħcej": 1755,
    "resz": 1756,
    "Ġchwili": 1757,
    "Ġczasie": 1758,
    "Ġzapew": 1759,
    "ciel": 1760,
    "wych": 1761,
    "Ġek": 1762,
    "Ġtwa": 1763,
    "niÅĤ": 1764,
    "Ġzada": 1765,
    "cka": 1766,
    "ĠPod": 1767,
    "ÅĤej": 1768,
    "Ġhi": 1769,
    "czone": 1770,
    "ĠNi": 1771,
    "menta": 1772,
    "dniej": 1773,
    "Ġprawa": 1774,
    "Ġpodstawie": 1775,
    "Ġbia": 1776,
    "bÄĻ": 1777,
    "Ġkwiet": 1778,
    "obÄħ": 1779,
    "kra": 1780,
    "ĠWyjazd": 1781,
    "ĠzostaÅĤa": 1782,
    "ĠgÃ³r": 1783,
    "lenie": 1784,
    "ĠWa": 1785,
    "Polscy": 1786,
    "Ġzawsze": 1787,
    "Ġsprze": 1788,
    "zen": 1789,
    "ĠpÃ³Åºniej": 1790,
    "ĠogÃ³l": 1791,
    "Ġpli": 1792,
    "Ġstu": 1793,
    "dziaÅĤa": 1794,
    "net": 1795,
    "Ġ197": 1796,
    "Ġpodob": 1797,
    "ĠrzekÅĤ": 1798,
    "Ġona": 1799,
    "arÃ³w": 1800,
    "wiÄħza": 1801,
    "ranspo": 1802,
    "ut": 1803,
    "is": 1804,
    "Ġprzewo": 1805,
    "mieniu": 1806,
    "glÄħda": 1807,
    "Ġho": 1808,
    "Ġarty": 1809,
    "chem": 1810,
    "kowi": 1811,
    "ĠpaÅĦstwa": 1812,
    "ĠUnii": 1813,
    "ĠdÅĤugo": 1814,
    "ĠczÄĻÅĽÄĩ": 1815,
    "rym": 1816,
    "ĠTu": 1817,
    "Ġjaki": 1818,
    "Ġcelu": 1819,
    "wej": 1820,
    "ĠwpÅĤy": 1821,
    "Ġjedy": 1822,
    "Ġtakie": 1823,
    "ĠÅĽwiad": 1824,
    "it": 1825,
    "bar": 1826,
    "Mie": 1827,
    "wzglÄĻdniajÄħc": 1828,
    "Ġ196": 1829,
    "ĠAutor": 1830,
    "Ġuro": 1831,
    "Ġpyta": 1832,
    "ĠkaÅ¼dy": 1833,
    "24": 1834,
    "Ġobie": 1835,
    "ckiego": 1836,
    "niku": 1837,
    "cyjnych": 1838,
    "ĠpÅĤy": 1839,
    "ĠII": 1840,
    "Ġ2018": 1841,
    "lan": 1842,
    "ĠÅĤ": 1843,
    "Ġmaja": 1844,
    "lnoÅĽÄĩ": 1845,
    "ĠmÃ³gÅĤ": 1846,
    "ĠokoÅĤo": 1847,
    "ÅĽni": 1848,
    "che": 1849,
    "200": 1850,
    "ĠaÅ¼": 1851,
    "Ġpani": 1852,
    "prawie": 1853,
    "000": 1854,
    "Ġkul": 1855,
    "Ġzamie": 1856,
    "Ġinter": 1857,
    "Ġdomu": 1858,
    "umb": 1859,
    "Ġstrony": 1860,
    "ĠHa": 1861,
    "god": 1862,
    "pca": 1863,
    "Ġzwie": 1864,
    "Ġlecz": 1865,
    "fika": 1866,
    "zyska": 1867,
    "owÄĻ": 1868,
    "tne": 1869,
    "ĠniÄħ": 1870,
    "jÄħca": 1871,
    "ĠLa": 1872,
    "jedno": 1873,
    "cowoÅĽÄĩ": 1874,
    "thumb": 1875,
    "ÅĽciÄħ": 1876,
    "gna": 1877,
    "Ġkwietnia": 1878,
    "wane": 1879,
    "waria": 1880,
    "ĠcoÅĽ": 1881,
    "lep": 1882,
    "Ġpotem": 1883,
    "ĠmieszkaÅĦ": 1884,
    "uwzglÄĻdniajÄħc": 1885,
    "ÅĤam": 1886,
    "kty": 1887,
    "Ġzu": 1888,
    "Ġska": 1889,
    "Ġse": 1890,
    "lia": 1891,
    "Ġloka": 1892,
    "Ġbaterii": 1893,
    "laz": 1894,
    "ĠGo": 1895,
    "Ġzaj": 1896,
    "Ġinne": 1897,
    "Ġ30": 1898,
    "ĠgÃ³": 1899,
    "11": 1900,
    "Ġwarun": 1901,
    "Ġutwo": 1902,
    "ĠÅĤÄħ": 1903,
    "siÅĤ": 1904,
    "ÅĽnia": 1905,
    "sen": 1906,
    "stÄĻpuje": 1907,
    "Ġinforma": 1908,
    "Ġtro": 1909,
    "Ġprawo": 1910,
    "Å¼yÅĤ": 1911,
    "per": 1912,
    "Ġzapo": 1913,
    "Ġczar": 1914,
    "sÅĤy": 1915,
    "ĠPi": 1916,
    "Åºdzie": 1917,
    "ĠwÅĤo": 1918,
    "Ġspotka": 1919,
    "ĠobowiÄħz": 1920,
    "ĠjeÅĽli": 1921,
    "ĠKsiÄĻ": 1922,
    "ĠwÅĽrÃ³d": 1923,
    "nami": 1924,
    "ciÅĤ": 1925,
    "przy": 1926,
    "Å»": 1927,
    "czes": 1928,
    "Ġha": 1929,
    "dli": 1930,
    "In": 1931,
    "rych": 1932,
    "mienie": 1933,
    "Ġbada": 1934,
    "szenia": 1935,
    "onu": 1936,
    "ten": 1937,
    "moÅ¼": 1938,
    "Samo": 1939,
    "obec": 1940,
    "Ġ11": 1941,
    "Ġpoko": 1942,
    "domo": 1943,
    "nikÃ³w": 1944,
    "ĠokrÄĻ": 1945,
    "Ġlutego": 1946,
    "ÅĤka": 1947,
    "ĠHe": 1948,
    "ĠJu": 1949,
    "Ġpowin": 1950,
    "dow": 1951,
    "Ġodda": 1952,
    "Ġnag": 1953,
    "Ġkam": 1954,
    "bio": 1955,
    "owaniu": 1956,
    "Miejs": 1957,
    "rom": 1958,
    "star": 1959,
    "ĠSe": 1960,
    "Ġana": 1961,
    "ĠJo": 1962,
    "czyÅĤa": 1963,
    "Ã©": 1964,
    "Ġgminy": 1965,
    "Ġpierw": 1966,
    "ĠzaÅĽ": 1967,
    "Ġwtedy": 1968,
    "Ġtele": 1969,
    "Ġnp": 1970,
    "Ġrok": 1971,
    "Ġmusi": 1972,
    "Sta": 1973,
    "ĠRze": 1974,
    "Ġwzro": 1975,
    "chi": 1976,
    "czeÅĦ": 1977,
    "vi": 1978,
    "):": 1979,
    "utobu": 1980,
    "ckie": 1981,
    "wca": 1982,
    "ĠsobÄħ": 1983,
    "jrza": 1984,
    "stytu": 1985,
    "ĠrozporzÄħdzenia": 1986,
    "Ġ.": 1987,
    "Ġ0": 1988,
    "Ġdosta": 1989,
    "jÄħcym": 1990,
    "ĠPolski": 1991,
    "bia": 1992,
    "ple": 1993,
    "ĠszczÄĻ": 1994,
    "ĠÅ¼ad": 1995,
    "ĠTy": 1996,
    "Ġdalej": 1997,
    "kom": 1998,
    "ĠKomisji": 1999,
    "ĠgÅĤos": 2000,
    "tur": 2001,
    "nienie": 2002,
    "Ġdaw": 2003,
    "dzÄĻ": 2004,
    "Ġ25": 2005,
    "ĠDe": 2006,
    "Ġczyn": 2007,
    "ĠÅĽmierci": 2008,
    "Ġosoby": 2009,
    "Ġponad": 2010,
    "Ba": 2011,
    "ĠtÅĤu": 2012,
    "ĠpoÅĤÄħ": 2013,
    "ĠBu": 2014,
    "Ġkraj": 2015,
    "ĠwÄĻz": 2016,
    "czyna": 2017,
    "gÅĤo": 2018,
    "ĠwojewÃ³dz": 2019,
    "jÄħcÄħ": 2020,
    "ĠAnd": 2021,
    "Ġreali": 2022,
    "23": 2023,
    "Ġczu": 2024,
    "dach": 2025,
    "Ġwielu": 2026,
    "âĢĻ": 2027,
    "tery": 2028,
    "try": 2029,
    "Ġnigdy": 2030,
    "ir": 2031,
    "ĠpÃ³ÅĤnoc": 2032,
    "Ġpowiecie": 2033,
    "ĠÅº": 2034,
    "ego": 2035,
    "mowy": 2036,
    "kle": 2037,
    "Ġobro": 2038,
    "ĠsÅĤoÅĦ": 2039,
    "sh": 2040,
    "Ġau": 2041,
    "Od": 2042,
    "ĠpiÄĻ": 2043,
    "ĠNiem": 2044,
    "czony": 2045,
    "tami": 2046,
    "wÃ³ch": 2047,
    "towy": 2048,
    "ĠkrÃ³l": 2049,
    "prac": 2050,
    "ktu": 2051,
    "ĠpostÄĻp": 2052,
    "Ġsztu": 2053,
    "ĠpamiÄĻ": 2054,
    "ĠsÅĤowa": 2055,
    "rozu": 2056,
    "Ġchce": 2057,
    "chaÅĤ": 2058,
    "Ġ[": 2059,
    "Ġl": 2060,
    "ĠniektÃ³": 2061,
    "Ġbrz": 2062,
    "Ġstop": 2063,
    "ĠchoÄĩ": 2064,
    "gÃ³w": 2065,
    "ĠusÅĤu": 2066,
    "zuje": 2067,
    "cenia": 2068,
    "Ġzgodnie": 2069,
    "Ġjakby": 2070,
    "Ġnada": 2071,
    "Ġrzu": 2072,
    "niesie": 2073,
    "Ġmniej": 2074,
    "tua": 2075,
    "Ġwraz": 2076,
    "gii": 2077,
    "ktÃ³w": 2078,
    "miÄĻ": 2079,
    "Ġobej": 2080,
    "Ġpana": 2081,
    "czki": 2082,
    "ÅĤnie": 2083,
    "ĠNe": 2084,
    "22": 2085,
    "ĠjeÅ¼eli": 2086,
    "waÅĤy": 2087,
    "ĠPe": 2088,
    "Åļ": 2089,
    "Ġisto": 2090,
    "ĠPoli": 2091,
    "spoli": 2092,
    "Ġdyrek": 2093,
    "gÄħ": 2094,
    "ĠTak": 2095,
    "Ġuzna": 2096,
    "Ġrodza": 2097,
    "ĠktÃ³rÄħ": 2098,
    "ble": 2099,
    "cieÅ¼": 2100,
    "ĠJak": 2101,
    "Ġdni": 2102,
    "Ġuzyska": 2103,
    "ĠksiÄħÅ¼": 2104,
    "ĠdwÃ³ch": 2105,
    "ĠÅĽwiÄĻ": 2106,
    "Ġszyb": 2107,
    "cjonari": 2108,
    "land": 2109,
    "30": 2110,
    "ĠzaÅĤo": 2111,
    "ĠzarzÄħ": 2112,
    "ÅĦskie": 2113,
    "Ġpkt": 2114,
    "Ġziemi": 2115,
    "ĠEuropejskiej": 2116,
    "ĠFestiwale": 2117,
    "lach": 2118,
    "ciem": 2119,
    "ard": 2120,
    "ĠWÅĤa": 2121,
    "Å¼yÄĩ": 2122,
    "czonych": 2123,
    "ownikÃ³w": 2124,
    "Åºdzier": 2125,
    "suje": 2126,
    "ĠokreÅĽla": 2127,
    "ĠmiaÅĤa": 2128,
    "ÅĦska": 2129,
    "Ġuli": 2130,
    "ntÃ³w": 2131,
    "rium": 2132,
    "Ġsek": 2133,
    "ĠMu": 2134,
    "ĠprzedsiÄĻ": 2135,
    "Ġklu": 2136,
    "ĠciÄħg": 2137,
    "wym": 2138,
    "Ġot": 2139,
    "cer": 2140,
    "Ġ195": 2141,
    "ĠdziaÅĤania": 2142,
    "zja": 2143,
    "Ġur": 2144,
    "owski": 2145,
    "Ġkro": 2146,
    "fo": 2147,
    "glÄĻ": 2148,
    "ĠRy": 2149,
    "ĠSy": 2150,
    "Ġelekt": 2151,
    "ÅĽwiad": 2152,
    "Ġwyzna": 2153,
    "ĠzostaÅĤo": 2154,
    "Mi": 2155,
    "cem": 2156,
    "ĠprÃ³": 2157,
    "pyta": 2158,
    "cyjne": 2159,
    "lii": 2160,
    "ĠwÄĻzÅĤem": 2161,
    "Ġdobrze": 2162,
    "biÄĩ": 2163,
    "szÅĤo": 2164,
    "ĠczÄĻsto": 2165,
    "wiÅĤ": 2166,
    "min": 2167,
    "Ġoznacza": 2168,
    "owany": 2169,
    "Ġgrudnia": 2170,
    "Ġ2013": 2171,
    "Ġsce": 2172,
    "ĠspÃ³ÅĤ": 2173,
    "Ġ+": 2174,
    "Ġbardziej": 2175,
    "godnie": 2176,
    "Ġprzygo": 2177,
    "tomiast": 2178,
    "ĠJest": 2179,
    "czeniu": 2180,
    "utobusem": 2181,
    "Arch": 2182,
    "ografia": 2183,
    "Ġwyna": 2184,
    "poÅĽre": 2185,
    "25": 2186,
    "czaj": 2187,
    "Ġwybor": 2188,
    "jÄĻcia": 2189,
    "Ġspe": 2190,
    "Ġczym": 2191,
    "Ġcia": 2192,
    "rzenie": 2193,
    "Ġprzeprowa": 2194,
    "ÅĦskiej": 2195,
    "ĠpaÅºdzier": 2196,
    "Ġzwa": 2197,
    "matycz": 2198,
    "Ġotrzyma": 2199,
    "piera": 2200,
    "Ġistnie": 2201,
    "wiÄĩ": 2202,
    "Ġdoku": 2203,
    "âĢľ": 2204,
    "powiada": 2205,
    "pol": 2206,
    "ciec": 2207,
    "ĠmÃ³j": 2208,
    "Ġskrzy": 2209,
    "198": 2210,
    "pita": 2211,
    "Ġtere": 2212,
    "Ġtowarzy": 2213,
    "ĠsÅĤy": 2214,
    "ad": 2215,
    "ĠGra": 2216,
    "Ġlinii": 2217,
    "ĠMie": 2218,
    "Ġwymaga": 2219,
    "syj": 2220,
    "Ġlek": 2221,
    "Ġzapa": 2222,
    "narod": 2223,
    "ĠwspÃ³l": 2224,
    "ĠuÅ¼ytk": 2225,
    "Ġper": 2226,
    "piero": 2227,
    "Ġopera": 2228,
    "Ġproduk": 2229,
    "NajbliÅ¼": 2230,
    "Ã¡": 2231,
    "Ġprzyja": 2232,
    "dnoÅĽci": 2233,
    "kowym": 2234,
    "ĠMia": 2235,
    "czka": 2236,
    "Ġtakich": 2237,
    "Ġkosz": 2238,
    "Ġochro": 2239,
    "Ġpozio": 2240,
    "Ġczyli": 2241,
    "Ġkontro": 2242,
    "zmu": 2243,
    "rami": 2244,
    "Ġopu": 2245,
    "Ġfilm": 2246,
    "ĠPre": 2247,
    "nowu": 2248,
    "ryty": 2249,
    "Ġzawiera": 2250,
    "nar": 2251,
    "Ġopi": 2252,
    "istoria": 2253,
    "Ġreje": 2254,
    "undu": 2255,
    "Le": 2256,
    "waÅĤo": 2257,
    "ĠÅ»y": 2258,
    "Ġkilku": 2259,
    "Ġcu": 2260,
    "Ġem": 2261,
    "ĠLo": 2262,
    "ÅĽniej": 2263,
    "ĠJan": 2264,
    "Ġwojs": 2265,
    "nne": 2266,
    "Ġpisa": 2267,
    "Ġdziew": 2268,
    "Å¼one": 2269,
    "Ġzakresie": 2270,
    "Ġwrze": 2271,
    "cyjnego": 2272,
    "Ġdrze": 2273,
    "Ġludz": 2274,
    "ĠCa": 2275,
    "Ġlipca": 2276,
    "Ġwynika": 2277,
    "Polska": 2278,
    "Ġdrugi": 2279,
    "ĠÅ¼oÅĤnie": 2280,
    "Ġprezyden": 2281,
    "Ġtytu": 2282,
    "Ġbli": 2283,
    "Ġjednym": 2284,
    "ĠAnto": 2285,
    "ĠOr": 2286,
    "Ġswoich": 2287,
    "ĠKsiÄĻÅ¼y": 2288,
    "Ġnauczy": 2289,
    "wienie": 2290,
    "niewaÅ¼": 2291,
    "Ġzdoby": 2292,
    "War": 2293,
    "Ġpierwsze": 2294,
    "moÅ¼li": 2295,
    "Ġ26": 2296,
    "ĠswojÄħ": 2297,
    "pia": 2298,
    "czeÅĽnie": 2299,
    "rzyÅĤ": 2300,
    "Ġmiejsca": 2301,
    "ĠosiÄħ": 2302,
    "ĠOpis": 2303,
    "czÄħÅĤ": 2304,
    "Ġzacho": 2305,
    "ĠdostÄĻp": 2306,
    "Ġprawie": 2307,
    "ĠchciaÅĤ": 2308,
    "nka": 2309,
    "Ġkieru": 2310,
    "ĠUni": 2311,
    "ĠwaÅ¼nym": 2312,
    "Ġdom": 2313,
    "owymi": 2314,
    "ĠZiemi": 2315,
    "Ġtry": 2316,
    "struk": 2317,
    "iwalne": 2318,
    "por": 2319,
    "tkÃ³w": 2320,
    "ĠÅĽpie": 2321,
    "sÅĤugu": 2322,
    "ĠsÅĤa": 2323,
    "fry": 2324,
    "es": 2325,
    "ĠRoz": 2326,
    "Ġuda": 2327,
    "ĠwÅĤaÅĽnie": 2328,
    "Ġzdr": 2329,
    "Ġdok": 2330,
    "Pod": 2331,
    "onie": 2332,
    "Ġdrogowym": 2333,
    "tyczne": 2334,
    "Ġgrani": 2335,
    "Ġkm": 2336,
    "myÅĽ": 2337,
    "zda": 2338,
    "Ġregu": 2339,
    "Ġrazem": 2340,
    "iÄĻc": 2341,
    "Ġprzyj": 2342,
    "logii": 2343,
    "Å¼u": 2344,
    "ĠzostaÅĤy": 2345,
    "ĠĠĠĠ": 2346,
    "Archiwalne": 2347,
    "Ġprzej": 2348,
    "ĠzakoÅĦ": 2349,
    "kura": 2350,
    "pisÃ³w": 2351,
    "rew": 2352,
    "ĠzaczÄĻ": 2353,
    "ĠPan": 2354,
    "ryto": 2355,
    "mÄĻ": 2356,
    "gnie": 2357,
    "mawia": 2358,
    "niki": 2359,
    "Ġznowu": 2360,
    "ĠnajwiÄĻk": 2361,
    "ĠmieszkaÅĦcÃ³w": 2362,
    "ĠBar": 2363,
    "dr": 2364,
    "ĠpoÅĤudni": 2365,
    "ĠmyÅĽli": 2366,
    "Ġsil": 2367,
    "torÃ³w": 2368,
    "Äħc": 2369,
    "Ġgdyby": 2370,
    "kowej": 2371,
    "Ġpodstaw": 2372,
    "gar": 2373,
    "mat": 2374,
    "iÄĻki": 2375,
    "rzyÄĩ": 2376,
    "bezpiecze": 2377,
    "Ġzmar": 2378,
    "Ġszero": 2379,
    "ĠsÅĤuÅ¼by": 2380,
    "mula": 2381,
    "szÅĤa": 2382,
    "ĠPio": 2383,
    "Ġprzypadku": 2384,
    "Ġsytua": 2385,
    "ĠWiel": 2386,
    "szko": 2387,
    "usta": 2388,
    "nictwa": 2389,
    "ĠiÅ¼": 2390,
    "Pa": 2391,
    "kowych": 2392,
    "Ġzastos": 2393,
    "usza": 2394,
    "Ġtrzeba": 2395,
    "Ã¶": 2396,
    "28": 2397,
    "lnÄħ": 2398,
    "Ga": 2399,
    "Ġpolski": 2400,
    "Ġâ": 2401,
    "ĠÅĽwiecie": 2402,
    "ĠciÄħ": 2403,
    "bur": 2404,
    "Ale": 2405,
    "Ġwyraz": 2406,
    "ĠwzglÄĻd": 2407,
    "Ġoce": 2408,
    "Ġmateria": 2409,
    "lor": 2410,
    "Ġdwo": 2411,
    "Ġ*": 2412,
    "Ġkolejowa": 2413,
    "Ġlotnisko": 2414,
    "ÅĽcio": 2415,
    "sji": 2416,
    "Ġkwia": 2417,
    "ĠWiki": 2418,
    "Ra": 2419,
    "stw": 2420,
    "wicz": 2421,
    "tow": 2422,
    "zio": 2423,
    "Å¼ony": 2424,
    "Ġpowodu": 2425,
    "nowie": 2426,
    "ĠNarod": 2427,
    "Ġmin": 2428,
    "ĠuwaÅ¼a": 2429,
    "lone": 2430,
    "Ġotrzy": 2431,
    "rie": 2432,
    "Ġtaki": 2433,
    "sor": 2434,
    "Ġwybra": 2435,
    "Ġprzewi": 2436,
    "prezen": 2437,
    "ĠprzedsiÄĻbior": 2438,
    "ĠZjedno": 2439,
    "ĠdzieÅĦ": 2440,
    "ĠuÅĽmie": 2441,
    "wÅĤa": 2442,
    "ÅĤeÅĽ": 2443,
    "Ka": 2444,
    "wany": 2445,
    "dziaÅĤu": 2446,
    "ĠgÅĤÄĻ": 2447,
    "leÅ¼": 2448,
    "ĠOb": 2449,
    "pozy": 2450,
    "Ġnarod": 2451,
    "ĠÅĽrodkÃ³w": 2452,
    "strzy": 2453,
    "dek": 2454,
    "Ġograni": 2455,
    "Kon": 2456,
    "ĠrozporzÄħdzenie": 2457,
    "Ġjestem": 2458,
    "ĠgdyÅ¼": 2459,
    "fek": 2460,
    "Ġsmu": 2461,
    "Ġlisto": 2462,
    "gÅĤa": 2463,
    "mii": 2464,
    "lew": 2465,
    "\",": 2466,
    "Ġwej": 2467,
    "Pro": 2468,
    "Ġan": 2469,
    "chaÄĩ": 2470,
    "woÅĤa": 2471,
    "Ġprzyzna": 2472,
    "Ġ24": 2473,
    "eru": 2474,
    "ĠwysokoÅĽci": 2475,
    "Ġ28": 2476,
    "Ġ29": 2477,
    "ron": 2478,
    "Ġpodej": 2479,
    "jÄħÅĤ": 2480,
    "rum": 2481,
    "Ġ2012": 2482,
    "chÄĻ": 2483,
    "cym": 2484,
    "Ġostatni": 2485,
    "krzy": 2486,
    "rÃ³t": 2487,
    "Ã¼": 2488,
    "Ġtutaj": 2489,
    "Ġkan": 2490,
    "waj": 2491,
    "mnia": 2492,
    "ĠEuropejskiego": 2493,
    "ĠciÄĻÅ¼": 2494,
    "ĠsÅĤ": 2495,
    "ĠSt": 2496,
    "siÄĻcy": 2497,
    "Ġdale": 2498,
    "lin": 2499,
    "26": 2500,
    "ĠnastÄĻpu": 2501,
    "Ġjednego": 2502,
    "ÅĦskich": 2503,
    "stÃ³w": 2504,
    "Ġstacja": 2505,
    "Ã³sÅĤ": 2506,
    "Ġupraw": 2507,
    "ĠpaÅºdziernika": 2508,
    "ĠÂ§": 2509,
    "tyki": 2510,
    "rzÄĻd": 2511,
    "Ġpoja": 2512,
    "ÅĦskim": 2513,
    "szczÄĻ": 2514,
    "Ġpole": 2515,
    "ĠFi": 2516,
    "Ġniepo": 2517,
    "wersy": 2518,
    "szcz": 2519,
    "kowe": 2520,
    "ĠprzykÅĤad": 2521,
    "ĠcaÅĤy": 2522,
    "ĠwÄħ": 2523,
    "wach": 2524,
    "liwoÅĽÄĩ": 2525,
    "ĠwzglÄĻ": 2526,
    "ĠGe": 2527,
    "cyjny": 2528,
    "21": 2529,
    "dziaÅĤem": 2530,
    "wersyte": 2531,
    "szenie": 2532,
    "ss": 2533,
    "ĠdziaÅĤalnoÅĽci": 2534,
    "Ġkompu": 2535,
    "Å¼na": 2536,
    "story": 2537,
    "Ma": 2538,
    "dÅĤa": 2539,
    "Ġdanych": 2540,
    "rucho": 2541,
    "ckiej": 2542,
    "Ġprywa": 2543,
    "Ġczego": 2544,
    "Ġwspo": 2545,
    "Ġdziedzi": 2546,
    "Ġpowa": 2547,
    "ksztaÅĤ": 2548,
    "MiejscowoÅĽÄĩ": 2549,
    "No": 2550,
    "Ġcent": 2551,
    "ĠKrzy": 2552,
    "ĠprzyjÄĻ": 2553,
    "Ġdowo": 2554,
    "peÅĤnia": 2555,
    "ĠnastÄĻpnie": 2556,
    "Ġ2026": 2557,
    "Ġwszyscy": 2558,
    "rÃ³ciÅĤ": 2559,
    "Ġbyli": 2560,
    "tny": 2561,
    "Ġfo": 2562,
    "iÄħ": 2563,
    "ĠÅĽwiata": 2564,
    "ĠzewnÄĻtrz": 2565,
    "Ġswoim": 2566,
    "ÄħdÅº": 2567,
    "Ġstanie": 2568,
    "ĠbezpoÅĽre": 2569,
    "Ġdrodze": 2570,
    "Ġludzie": 2571,
    "Ġodby": 2572,
    "czeÅĽniej": 2573,
    "2013": 2574,
    "Ġwszystkim": 2575,
    "owaÅĤa": 2576,
    "Ġwobec": 2577,
    "Ġwsze": 2578,
    "Ġzaraz": 2579,
    "giem": 2580,
    "ĠDz": 2581,
    "Ġczerwca": 2582,
    "Ġwido": 2583,
    "Ġwykony": 2584,
    "Ġameryka": 2585,
    "Ġstrasz": 2586,
    "ĠParla": 2587,
    "Ġjas": 2588,
    "Ġuczest": 2589,
    "biega": 2590,
    "ryta": 2591,
    "ĠwedÅĤug": 2592,
    "ĠksztaÅĤ": 2593,
    "To": 2594,
    "Ġcoraz": 2595,
    "ĠrÃ³Å¼nych": 2596,
    "ckim": 2597,
    "Ġdwu": 2598,
    "Ġzawar": 2599,
    "szczy": 2600,
    "Ġinformacji": 2601,
    "noÅĽciÄħ": 2602,
    "ĠGdy": 2603,
    "rancu": 2604,
    "reszcie": 2605,
    "Ġpozna": 2606,
    "ĠimiÄĻ": 2607,
    "Äģ": 2608,
    "com": 2609,
    "ĠzwiÄħzku": 2610,
    "Ġwymia": 2611,
    "Ġone": 2612,
    "Ġpart": 2613,
    "Ġrozu": 2614,
    "Ġprzestrze": 2615,
    "ĠpoÅĽ": 2616,
    "Ġge": 2617,
    "Ġzatru": 2618,
    "ĠczÅĤowieka": 2619,
    "ĠDla": 2620,
    "skiem": 2621,
    "ĠPu": 2622,
    "va": 2623,
    "Bo": 2624,
    "ĠcaÅĤ": 2625,
    "Ġudzie": 2626,
    "ĠMoÅ¼e": 2627,
    "Ġswojej": 2628,
    "Ġmoc": 2629,
    "zer": 2630,
    "Ġnieza": 2631,
    "Ġsamym": 2632,
    "Ġpowia": 2633,
    "Ġcel": 2634,
    "jski": 2635,
    "nuje": 2636,
    "ĠIm": 2637,
    "Ġwiadomo": 2638,
    "Ġ23": 2639,
    "unku": 2640,
    "ĠmÄĻÅ¼": 2641,
    "lno": 2642,
    "ĠÅĽre": 2643,
    "ownika": 2644,
    "Ġklasy": 2645,
    "Ġprzedmio": 2646,
    "stry": 2647,
    "Â»": 2648,
    "Ġgmina": 2649,
    "toli": 2650,
    "Ġbro": 2651,
    "Ġmil": 2652,
    "Ġodpowiedzia": 2653,
    "west": 2654,
    "Ġpozy": 2655,
    "czech": 2656,
    "Ġlata": 2657,
    "niÃ³sÅĤ": 2658,
    "Ġdrogi": 2659,
    "menty": 2660,
    "qu": 2661,
    "giel": 2662,
    "Â«": 2663,
    "ĠdotyczÄħce": 2664,
    "dniczÄħ": 2665,
    "dne": 2666,
    "ĠNiemczech": 2667,
    "27": 2668,
    "Ġwielo": 2669,
    "len": 2670,
    "Ġbezpiecze": 2671,
    "dziÅĤa": 2672,
    "sach": 2673,
    "cieli": 2674,
    "ĠoÅĽ": 2675,
    "Ġpos": 2676,
    "ĠSpo": 2677,
    "ĠpomocÄħ": 2678,
    "pospoli": 2679,
    "Ġwers": 2680,
    "Ġpoza": 2681,
    "Ġnazy": 2682,
    "Ġsier": 2683,
    "ĠÅĤo": 2684,
    "bez": 2685,
    "lami": 2686,
    "ĠSu": 2687,
    "mentÃ³w": 2688,
    "iedy": 2689,
    "Åģ": 2690,
    "Ġ=": 2691,
    "Ġrazie": 2692,
    "wala": 2693,
    "Ġstwo": 2694,
    "Ġwojny": 2695,
    "ĠKrak": 2696,
    "Ä«": 2697,
    "ĠStatkiem": 2698,
    "Ġdwie": 2699,
    "dra": 2700,
    "ĠSpraw": 2701,
    "Ġzespo": 2702,
    "gÃ³": 2703,
    "lony": 2704,
    "moc": 2705,
    "byt": 2706,
    "koj": 2707,
    "ciÄĩ": 2708,
    "mysÅĤ": 2709,
    "hor": 2710,
    "Ġokresie": 2711,
    "ĠÅĽci": 2712,
    "Roz": 2713,
    "roz": 2714,
    "Ġznajdu": 2715,
    "kol": 2716,
    "piej": 2717,
    "ĠczÅĤowiek": 2718,
    "tycznych": 2719,
    "amy": 2720,
    "Ġsprzeda": 2721,
    "stru": 2722,
    "dio": 2723,
    "ĠprzepisÃ³w": 2724,
    "wienia": 2725,
    "ĠmiÄĻ": 2726,
    "nione": 2727,
    "dzeniu": 2728,
    "ckich": 2729,
    "ros": 2730,
    "ĠSÄħ": 2731,
    "ler": 2732,
    "ĠwartoÅĽci": 2733,
    "Ġdrugiej": 2734,
    "bÄħ": 2735,
    "nnych": 2736,
    "ĠHi": 2737,
    "ĠwzglÄĻdu": 2738,
    "Ġwybo": 2739,
    "logia": 2740,
    "naÅĤ": 2741,
    "By": 2742,
    "owanych": 2743,
    "ĠdziÅĽ": 2744,
    "Ġzamk": 2745,
    "ĠrozwiÄħza": 2746,
    "gniÄĻ": 2747,
    "Ġwypad": 2748,
    "inte": 2749,
    "Ġpanie": 2750,
    "les": 2751,
    "Ġniniej": 2752,
    "Ġwio": 2753,
    "Ġbla": 2754,
    "Ġjednej": 2755,
    "dyn": 2756,
    "29": 2757,
    "owiÄħza": 2758,
    "enera": 2759,
    "ĠokrÄĻgu": 2760,
    "Ġotwar": 2761,
    "tion": 2762,
    "ĠAda": 2763,
    "Ġtre": 2764,
    "ĠPolskiej": 2765,
    "Ġzde": 2766,
    "Ġdopiero": 2767,
    "2020": 2768,
    "Ġrozpa": 2769,
    "stwie": 2770,
    "Ġfir": 2771,
    "kon": 2772,
    "ĠmÃ³wiÅĤ": 2773,
    "Ġspa": 2774,
    "Ġprogram": 2775,
    "Ġpomocy": 2776,
    "Ġkomis": 2777,
    "Ġdziw": 2778,
    "biÅĤ": 2779,
    "Ġzwo": 2780,
    "Gdy": 2781,
    "Ġ2020": 2782,
    "ĠwrzeÅĽnia": 2783,
    "rzej": 2784,
    "ĠreÅ¼y": 2785,
    "Wi": 2786,
    "podob": 2787,
    "Ġpreze": 2788,
    "Ġucie": 2789,
    "liÄĩ": 2790,
    "ĠszczegÃ³lnoÅĽci": 2791,
    "sami": 2792,
    "Ġobywa": 2793,
    "tak": 2794,
    "Ġne": 2795,
    "ĠMinist": 2796,
    "owiem": 2797,
    "dwi": 2798,
    "emu": 2799,
    "Ġboga": 2800,
    "budowa": 2801,
    "Ġszczy": 2802,
    "dego": 2803,
    "Ġsiedzi": 2804,
    "Ġskar": 2805,
    "Ġtrwa": 2806,
    "cjon": 2807,
    "Ġtranspo": 2808,
    "liÅĤ": 2809,
    "ĠurzÄħ": 2810,
    "199": 2811,
    "Ġniemie": 2812,
    "ĠudziaÅĤ": 2813,
    "ĠWD": 2814,
    "pÄĻ": 2815,
    "niach": 2816,
    "Ġwscho": 2817,
    "cÅĤa": 2818,
    "NajbliÅ¼szym": 2819,
    "Ġswego": 2820,
    "ĠCy": 2821,
    "Ġpocho": 2822,
    "rtu": 2823,
    "kÃ³ÅĤ": 2824,
    "Ġobo": 2825,
    "Ġwiem": 2826,
    "ĠBia": 2827,
    "Co": 2828,
    "ĠCho": 2829,
    "ĠpomiÄĻdzy": 2830,
    "Ġnoc": 2831,
    "ĠGÃ³r": 2832,
    "ĠSej": 2833,
    "tywy": 2834,
    "Ġportem": 2835,
    "Ġobsz": 2836,
    "dro": 2837,
    "kowy": 2838,
    "Ġlotniczym": 2839,
    "ĠrÄĻce": 2840,
    "Ġstanu": 2841,
    "cyjnej": 2842,
    "Ġthe": 2843,
    "Ġmiejscu": 2844,
    "Ġobu": 2845,
    "Ġkorzysta": 2846,
    "ĠDu": 2847,
    "ĠWÅĤo": 2848,
    "Ġpat": 2849,
    "Ġinnymi": 2850,
    "Ġwskaza": 2851,
    "puszcza": 2852,
    "Å¼ona": 2853,
    "ĠrzÄħd": 2854,
    "kreÅĽla": 2855,
    "wnÄĻtrznych": 2856,
    "Ġdecyzji": 2857,
    "are": 2858,
    "ĠZe": 2859,
    "ĠokreÅĽlonych": 2860,
    "Ġkole": 2861,
    "Ġkur": 2862,
    "ĠBra": 2863,
    "jcie": 2864,
    "kÅĤadu": 2865,
    "ll": 2866,
    "Ġprzekaza": 2867,
    "Ġpapie": 2868,
    "Ġczo": 2869,
    "Ġbrze": 2870,
    "Ġreli": 2871,
    "ĠprzestÄĻp": 2872,
    "Ġwykorzysta": 2873,
    "ĠmieÄĩ": 2874,
    "pania": 2875,
    "ina": 2876,
    "ver": 2877,
    "ĠCen": 2878,
    "sÅĤawa": 2879,
    "kacji": 2880,
    "Å¼Äħda": 2881,
    "Ġtyle": 2882,
    "cami": 2883,
    "Ġkamie": 2884,
    "Ġlistopada": 2885,
    "mieni": 2886,
    "lacji": 2887,
    "Ġpio": 2888,
    "sio": 2889,
    "ĠKrÃ³": 2890,
    "Ġ31": 2891,
    "Ġ2011": 2892,
    "Ġoto": 2893,
    "liza": 2894,
    "Ġgrupy": 2895,
    "dnich": 2896,
    "ĠIII": 2897,
    "ĠParlamentu": 2898,
    "ĠDzie": 2899,
    "wiek": 2900,
    "Ġteat": 2901,
    "Ġzatrzyma": 2902,
    "Ġprzysz": 2903,
    "Ġlitera": 2904,
    "Ġramach": 2905,
    "Ġaktor": 2906,
    "Ġjeste": 2907,
    "Ġdzien": 2908,
    "Ġprzyczy": 2909,
    "Ġobli": 2910,
    "ĠThe": 2911,
    "szaÅĤ": 2912,
    "Ġmeto": 2913,
    "kwi": 2914,
    "szczegÃ³l": 2915,
    "ĠskÅĤad": 2916,
    "Ġregionie": 2917,
    "Ġwszel": 2918,
    "spÃ³ÅĤ": 2919,
    "tnych": 2920,
    "Ġgwia": 2921,
    "ke": 2922,
    "zyj": 2923,
    "ĠwyÅ¼": 2924,
    "Ġdlatego": 2925,
    "Ġpunk": 2926,
    "Ġnimi": 2927,
    "Ġopowiada": 2928,
    "Ġtek": 2929,
    "ĠMinister": 2930,
    "Ġrozwi": 2931,
    "ĠwiÄĻkszo": 2932,
    "ciaÅ¼": 2933,
    "kolwiek": 2934,
    "Ġrzeczywi": 2935,
    "Ġor": 2936,
    "syÅĤa": 2937,
    "rÃ³j": 2938,
    "yg": 2939,
    "Ġojciec": 2940,
    "peÅĤnie": 2941,
    "nij": 2942,
    "Ġprzedstawi": 2943,
    "ÂłÂłÂł": 2944,
    "ĠchÅĤop": 2945,
    "Ã³z": 2946,
    "cio": 2947,
    "ff": 2948,
    "tnoÅĽci": 2949,
    "Ġodci": 2950,
    "66": 2951,
    "ĠczÅĤonkow": 2952,
    "ĠMy": 2953,
    "pina": 2954,
    "tnego": 2955,
    "Ġmor": 2956,
    "ĠwyÅĤÄħ": 2957,
    "Ġtypu": 2958,
    "tt": 2959,
    "Ġwyro": 2960,
    "ĠBe": 2961,
    "ĠskÅĤada": 2962,
    "sÅĤo": 2963,
    "Ġener": 2964,
    "Ġznalaz": 2965,
    "chowa": 2966,
    "Ġpotrzeb": 2967,
    "ĠJed": 2968,
    "Ġtys": 2969,
    "tna": 2970,
    "Ġrado": 2971,
    "ĠponiewaÅ¼": 2972,
    "Ġ27": 2973,
    "Ġnatomiast": 2974,
    "Ġnajmniej": 2975,
    "Ġznale": 2976,
    "bardziej": 2977,
    "ĠzajÄĻ": 2978,
    "Ġprzyby": 2979,
    "Ġhistory": 2980,
    "ĠBan": 2981,
    "ĠmaÅĤ": 2982,
    "Ġdal": 2983,
    "Ġspecja": 2984,
    "Sz": 2985,
    "Ġpara": 2986,
    "Ã³wczas": 2987,
    "twier": 2988,
    "gh": 2989,
    "Zobacz": 2990,
    "Ġpoprzez": 2991,
    "Ġwier": 2992,
    "dzna": 2993,
    "ĠmiÄĻdzynarod": 2994,
    "ĠÅĽmie": 2995,
    "ĠpoczÄħtku": 2996,
    "ct": 2997,
    "Ġfizy": 2998,
    "Ġwniosek": 2999,
    "ĠzwiÄħzkowym": 3000,
    "ĠJeÅĽli": 3001,
    "Ġeg": 3002,
    "ĠdrogÄĻ": 3003,
    "lub": 3004,
    "Ġhistor": 3005,
    "arÃ³wno": 3006,
    "bud": 3007,
    "Ġhand": 3008,
    "ĠzwyciÄĻ": 3009,
    "Ġuczu": 3010,
    "Ġzja": 3011,
    "twÃ³r": 3012,
    "ĠumoÅ¼li": 3013,
    "ĠkrÃ³t": 3014,
    "ĠPier": 3015,
    "rab": 3016,
    "orga": 3017,
    "nny": 3018,
    "rowane": 3019,
    "WE": 3020,
    "ls": 3021,
    "Ġnowo": 3022,
    "sÅĤugi": 3023,
    "lina": 3024,
    "bieg": 3025,
    "ĠuwagÄĻ": 3026,
    "ĠwczeÅĽniej": 3027,
    "Ġzawod": 3028,
    "ĠPZ": 3029,
    "Ġgry": 3030,
    "ĠpotÄĻ": 3031,
    "Ġteryto": 3032,
    "Ġfunkcjonari": 3033,
    "Ġzapyta": 3034,
    "Ġtemu": 3035,
    "ĠPaÅĦstwa": 3036,
    "cowoÅĽci": 3037,
    "rzÄĻdu": 3038,
    "Ġul": 3039,
    "ĠKu": 3040,
    "Ġsierp": 3041,
    "ĠjakiÅĽ": 3042,
    "ksa": 3043,
    "tÄħd": 3044,
    "gencji": 3045,
    "Ġadministracji": 3046,
    "Ġfunkcji": 3047,
    "Ġdrz": 3048,
    "Wie": 3049,
    "Mo": 3050,
    "dzÄħc": 3051,
    "czni": 3052,
    "Ġartyku": 3053,
    "ws": 3054,
    "listy": 3055,
    "Ġtechni": 3056,
    "int": 3057,
    "ĠY": 3058,
    "zami": 3059,
    "szyst": 3060,
    "\".": 3061,
    "ĠzakÅĤad": 3062,
    "rzÄħdu": 3063,
    "dzeÅĦ": 3064,
    "kÄħd": 3065,
    "niejsze": 3066,
    "Ġprzepisy": 3067,
    "ĠbezpieczeÅĦstwa": 3068,
    "wski": 3069,
    "ĠjednÄħ": 3070,
    "czasem": 3071,
    "Ġprowi": 3072,
    "ĠstaÅĤ": 3073,
    "Ġniewie": 3074,
    "kazy": 3075,
    "Ġopie": 3076,
    "Ġorgani": 3077,
    "nictwo": 3078,
    "Ġobraz": 3079,
    "cjach": 3080,
    "Pra": 3081,
    "Ġstwier": 3082,
    "ĠduÅ¼y": 3083,
    "cznoÅĽÄĩ": 3084,
    "chÃ³d": 3085,
    "ian": 3086,
    "Ġ21": 3087,
    "koÅĽÄĩ": 3088,
    "Ġfrancu": 3089,
    "cenie": 3090,
    "ĠstanowiÄħ": 3091,
    "ĠWil": 3092,
    "Ġ50": 3093,
    "ĠToma": 3094,
    "ĠprzecieÅ¼": 3095,
    "Ġgodziny": 3096,
    "aru": 3097,
    "Ġkoniec": 3098,
    "Ġpatrzy": 3099,
    "Ġodpowiada": 3100,
    "Ġab": 3101,
    "uropej": 3102,
    "Ġczeka": 3103,
    "ĠswÃ³j": 3104,
    "Noc": 3105,
    "ĠtwÃ³r": 3106,
    "ĠuÅ¼ywa": 3107,
    "Ġsyn": 3108,
    "ĠjakÄħ": 3109,
    "Ġrzeki": 3110,
    "Ġwyrazy": 3111,
    "hi": 3112,
    "Ġciem": 3113,
    "Ġoba": 3114,
    "Ġorze": 3115,
    "Ġwys": 3116,
    "Ġtermi": 3117,
    "ĠogÅĤo": 3118,
    "Ġwro": 3119,
    "Ġzmiany": 3120,
    "tacji": 3121,
    "NajbliÅ¼sze": 3122,
    "Ġzau": 3123,
    "bÄĻd": 3124,
    "ĠksiÄĻÅ¼y": 3125,
    "Ġanty": 3126,
    "dzania": 3127,
    "Ġopar": 3128,
    "Å¼em": 3129,
    "Ġjedynie": 3130,
    "ĠÅĽrodowi": 3131,
    "Ġniema": 3132,
    "Ġnajlep": 3133,
    "liz": 3134,
    "Ġciebie": 3135,
    "Ġnowe": 3136,
    "Ġki": 3137,
    "Ġogrom": 3138,
    "ĠorganÃ³w": 3139,
    "szpa": 3140,
    "ĠBer": 3141,
    "Ġpowierz": 3142,
    "rymber": 3143,
    "ĠHen": 3144,
    "bezpie": 3145,
    "Ġkwa": 3146,
    "najduje": 3147,
    "ĠrÄĻkÄĻ": 3148,
    "koÅĤa": 3149,
    "lie": 3150,
    "nale": 3151,
    "torzy": 3152,
    "Ġdr": 3153,
    "Ġpopu": 3154,
    "Ġruchu": 3155,
    "os": 3156,
    "tun": 3157,
    "Ġtrzech": 3158,
    "Ġgrze": 3159,
    "ĠRzeczy": 3160,
    "ĠWarszawa": 3161,
    "ang": 3162,
    "krÄĻ": 3163,
    "Ġ22": 3164,
    "ĠWarszawie": 3165,
    "Ġstara": 3166,
    "ĠmogÅĤa": 3167,
    "zw": 3168,
    "Ġv": 3169,
    "ĠAutobusem": 3170,
    "Ġrobo": 3171,
    "Ġupo": 3172,
    "kaz": 3173,
    "34": 3174,
    "niony": 3175,
    "Ġwynagro": 3176,
    "cale": 3177,
    "Ġwykorzy": 3178,
    "ĠNorymber": 3179,
    "ĠUniwersyte": 3180,
    "daÄĩ": 3181,
    "Ġchodzi": 3182,
    "Ġzaba": 3183,
    "ĠbÅĤy": 3184,
    "Ġprzypo": 3185,
    "Ġgre": 3186,
    "ciela": 3187,
    "cko": 3188,
    "ust": 3189,
    "Te": 3190,
    "Ġpoe": 3191,
    "Re": 3192,
    "ton": 3193,
    "myÅĽla": 3194,
    "Ġnu": 3195,
    "Ġotrzymuje": 3196,
    "ĠciÄħgu": 3197,
    "Mar": 3198,
    "Ġzasady": 3199,
    "Ġsprawo": 3200,
    "miaÅĤ": 3201,
    "Ġkocha": 3202,
    "dzeni": 3203,
    "ĠTry": 3204,
    "nnej": 3205,
    "Li": 3206,
    "ÅĤach": 3207,
    "tnej": 3208,
    "Ġport": 3209,
    "dyda": 3210,
    "Ġmili": 3211,
    "ĠroÅĽli": 3212,
    "Ġpodmio": 3213,
    "ĠWÅĤady": 3214,
    "rzem": 3215,
    "ĠleÅ¼y": 3216,
    "Ġtr": 3217,
    "Ġrodziny": 3218,
    "ciÄħÅ¼": 3219,
    "berg": 3220,
    "ĠbÄħdÅº": 3221,
    "ĠSte": 3222,
    "gram": 3223,
    "spek": 3224,
    "Ġchy": 3225,
    "ÅĽcija": 3226,
    "ĠusÅĤug": 3227,
    "szek": 3228,
    "Ġdniu": 3229,
    "groma": 3230,
    "dzone": 3231,
    "Ġtrak": 3232,
    "rzeÅĽcija": 3233,
    "Jak": 3234,
    "Ġnatura": 3235,
    "ĠniektÃ³rych": 3236,
    "towi": 3237,
    "Bawaria": 3238,
    "Ġode": 3239,
    "ĠzarÃ³wno": 3240,
    "ĠdÅĤo": 3241,
    "kade": 3242,
    "ĠPÃ³ÅĤ": 3243,
    "Ġlist": 3244,
    "Ġofia": 3245,
    "ciÄħga": 3246,
    "Ġstosuje": 3247,
    "ĠzwiÄĻk": 3248,
    "Ġstoli": 3249,
    "Ġmoja": 3250,
    "bach": 3251,
    "Al": 3252,
    "Ġdokona": 3253,
    ");": 3254,
    "Ġnikt": 3255,
    "ÄĻdzi": 3256,
    "kazu": 3257,
    "Ġzesta": 3258,
    "ĠPor": 3259,
    "ĠmoÅ¼liwoÅĽci": 3260,
    "nicja": 3261,
    "Ġlotniczy": 3262,
    "ĠAme": 3263,
    "ĠgÃ³ry": 3264,
    "szczo": 3265,
    "Ġeme": 3266,
    "pisu": 3267,
    "ĠBihor": 3268,
    "noszÄħ": 3269,
    "Lu": 3270,
    "Ġryce": 3271,
    "46": 3272,
    "ÅĽciu": 3273,
    "dej": 3274,
    "Ġserce": 3275,
    "Ġliczby": 3276,
    "pospolitej": 3277,
    "Ġ1990": 3278,
    "ĠbudÅ¼etu": 3279,
    "ĠKomisja": 3280,
    "au": 3281,
    "czek": 3282,
    "Ġiz": 3283,
    "ster": 3284,
    "let": 3285,
    "nomi": 3286,
    "Ġcier": 3287,
    "czyz": 3288,
    "ĠsÄħdu": 3289,
    "gene": 3290,
    "Ġnapisa": 3291,
    "ĠdotyczÄħcych": 3292,
    "Ġtran": 3293,
    "Ġswojego": 3294,
    "Ġofi": 3295,
    "ÅĽciach": 3296,
    "Ġporu": 3297,
    "Ġterenie": 3298,
    "ĠEura": 3299,
    "Ġprzezna": 3300,
    "lek": 3301,
    "ĠpieniÄĻ": 3302,
    "Ġtajem": 3303,
    "ĠpÅĤo": 3304,
    "ĠCza": 3305,
    "33": 3306,
    "Ġsen": 3307,
    "ĠpowiedziaÅĤ": 3308,
    "rad": 3309,
    "cent": 3310,
    "Ġzasad": 3311,
    "ĠcaÅĤÄħ": 3312,
    "lona": 3313,
    "Ġnap": 3314,
    "Da": 3315,
    "ĠcÃ³r": 3316,
    "Ġtemat": 3317,
    "pen": 3318,
    "ĠsÄħd": 3319,
    "Ġdecyz": 3320,
    "leÅĦ": 3321,
    "niec": 3322,
    "racji": 3323,
    "ĠwspÃ³ÅĤpra": 3324,
    "Ġstruk": 3325,
    "scypli": 3326,
    "ĠByÅĤ": 3327,
    "ĠrzekÅĤa": 3328,
    "Ġstronie": 3329,
    "Ġwymie": 3330,
    "ĠpostÄĻpowania": 3331,
    "wiÄħz": 3332,
    "Dzie": 3333,
    "Ġpopraw": 3334,
    "kowie": 3335,
    "ĠZyg": 3336,
    "Ġmimo": 3337,
    "lka": 3338,
    "ĠwzglÄĻdem": 3339,
    "Ġrozwo": 3340,
    "Ġ/": 3341,
    "Ġszuka": 3342,
    "Å¼aÅĤ": 3343,
    "ĠmyÅĽl": 3344,
    "Ġreprezen": 3345,
    "cen": 3346,
    "Ġude": 3347,
    "Ġ100": 3348,
    "Ġsez": 3349,
    "ĠEuratom": 3350,
    "ĠdziÄĻki": 3351,
    "ĠtaÅĦ": 3352,
    "unda": 3353,
    "Warto": 3354,
    "ÅĤÄħcz": 3355,
    "Ġpierwszej": 3356,
    "ĠgÅĤowÄĻ": 3357,
    "Ġjakim": 3358,
    "Ġstary": 3359,
    "Ġzapro": 3360,
    "Ġokres": 3361,
    "ĠdziaÅĤaÅĦ": 3362,
    "Ġwyniku": 3363,
    "ĠPZU": 3364,
    "mon": 3365,
    "ĠbudÅ¼etowy": 3366,
    "ĠDob": 3367,
    "wyczaj": 3368,
    "ĠÅºrÃ³d": 3369,
    "Ġdodatk": 3370,
    "Ġkwest": 3371,
    "Ġjedna": 3372,
    "ĠdÅº": 3373,
    "mil": 3374,
    "ĠporzÄħd": 3375,
    "dliwoÅĽci": 3376,
    "Ġuch": 3377,
    "Ġsprawy": 3378,
    "Ġodpowiednio": 3379,
    "Ġsystemu": 3380,
    "Ġzbli": 3381,
    "rzym": 3382,
    "ĠRzeczypospolitej": 3383,
    "Ġforma": 3384,
    "Ġ<": 3385,
    "ĠzupeÅĤnie": 3386,
    "ĠSi": 3387,
    "dami": 3388,
    "brze": 3389,
    "III": 3390,
    "Ġcharakte": 3391,
    "Ġobwo": 3392,
    "ĠLon": 3393,
    "cep": 3394,
    "Poli": 3395,
    "Ġchoro": 3396,
    "Ġpoje": 3397,
    "ĠStra": 3398,
    "Ġkolo": 3399,
    "br": 3400,
    "31": 3401,
    "szyÅĤ": 3402,
    "ĠCie": 3403,
    "ĠpracownikÃ³w": 3404,
    "Ġsio": 3405,
    "kÅĤadzie": 3406,
    "ĠzewnÄĻtrzne": 3407,
    "Ġmusia": 3408,
    "Ġat": 3409,
    "ĠgÅĤÃ³wnie": 3410,
    "ĠWarszawy": 3411,
    "Ã¤": 3412,
    "ĠzamkniÄĻ": 3413,
    "Ġruch": 3414,
    "Ġszere": 3415,
    "mer": 3416,
    "ya": 3417,
    "Ġkomu": 3418,
    "Ġdotych": 3419,
    "Ġdotychczas": 3420,
    "Ġkomunika": 3421,
    "40": 3422,
    "Ġuczelni": 3423,
    "2019": 3424,
    "rzaÅĤ": 3425,
    "ĠzaczÄħÅĤ": 3426,
    "Ġpowszech": 3427,
    "Ġrejencji": 3428,
    "Åºnie": 3429,
    "ĠdoÅĽÄĩ": 3430,
    "nim": 3431,
    "Å¼ne": 3432,
    "Ġzagro": 3433,
    "Ġgminie": 3434,
    "ĠBawaria": 3435,
    "mencie": 3436,
    "Ġosoba": 3437,
    "Ġfunkcjon": 3438,
    "Ġtwarz": 3439,
    "nica": 3440,
    "ĠCze": 3441,
    "Ġpta": 3442,
    "Ġlud": 3443,
    "Ġzm": 3444,
    "Ġprzekona": 3445,
    "Ġrynku": 3446,
    "Dojazd": 3447,
    "We": 3448,
    "ĠpowiedzieÄĩ": 3449,
    "Ġple": 3450,
    "dii": 3451,
    "Ġnadz": 3452,
    "ĠmiÅĤoÅĽci": 3453,
    "ĠmiejscowoÅĽci": 3454,
    "Ġstatu": 3455,
    "Ġml": 3456,
    "ĠUE": 3457,
    "Ġtor": 3458,
    "jemy": 3459,
    "ĠgÅĤÄĻbo": 3460,
    "Ġsym": 3461,
    "mite": 3462,
    "ĠzawoÅĤa": 3463,
    "Ġcywi": 3464,
    "szki": 3465,
    "nien": 3466,
    "Ġzmienia": 3467,
    "Ġkwo": 3468,
    "sja": 3469,
    "Samolotem": 3470,
    "Samochodem": 3471,
    "Ġwas": 3472,
    "ĠstaÅĤo": 3473,
    "anta": 3474,
    "ĠsiÅĤy": 3475,
    "pla": 3476,
    "ĠzÅĤ": 3477,
    "czeni": 3478,
    "ĠGre": 3479,
    ".)": 3480,
    "jÄħÄĩ": 3481,
    "ownik": 3482,
    "Ġbowiem": 3483,
    "ksand": 3484,
    "Pi": 3485,
    "prawy": 3486,
    "mujÄħ": 3487,
    "dopodob": 3488,
    "twarza": 3489,
    "39": 3490,
    "ĠEu": 3491,
    "MP": 3492,
    "BezpieczeÅĦstwo": 3493,
    "ĠmogÄĻ": 3494,
    "ĠrÃ³Å¼ne": 3495,
    "Ġbrak": 3496,
    "towania": 3497,
    "Ġdzia": 3498,
    "tycznej": 3499,
    "SA": 3500,
    "Ġnazwi": 3501,
    "czem": 3502,
    "ĠrozpoczÄĻ": 3503,
    "nnego": 3504,
    "Ġnocy": 3505,
    "tecznie": 3506,
    "rchi": 3507,
    "Ġsty": 3508,
    "kowego": 3509,
    "inki": 3510,
    "Bi": 3511,
    "Ġsierpnia": 3512,
    "ĠPrzed": 3513,
    "Czy": 3514,
    "Ġpozwo": 3515,
    "Ġduch": 3516,
    "nikiem": 3517,
    "Ġswej": 3518,
    "ĠkaÅ¼dym": 3519,
    "Ġwielko": 3520,
    "trÃ³w": 3521,
    "ĠmiesiÄħ": 3522,
    "Ġrazy": 3523,
    "Ġgodzin": 3524,
    "ksy": 3525,
    "ÅĤaszcza": 3526,
    "Ġfundu": 3527,
    "Ġjednostki": 3528,
    "ĠsÅĤuÅ¼b": 3529,
    "Ġefek": 3530,
    "Ġnieu": 3531,
    "Ġbieg": 3532,
    "Ġsuk": 3533,
    "Ġpozwala": 3534,
    "Ġnor": 3535,
    "Ġobecnie": 3536,
    "Ġsamochodem": 3537,
    "siaj": 3538,
    "ĠgorÄħ": 3539,
    "Ġmamy": 3540,
    "ĠBie": 3541,
    "ĠSto": 3542,
    "onÃ³w": 3543,
    "interes": 3544,
    "ĠSprawie": 3545,
    "Informacje": 3546,
    "Ġdra": 3547,
    "ÅĦcu": 3548,
    "jskiego": 3549,
    "ÅĽciej": 3550,
    "ĠSie": 3551,
    "stnieje": 3552,
    "owoÅĽci": 3553,
    "ĠWewnÄĻtrznych": 3554,
    "Kontakt": 3555,
    "ĠmyÅĽla": 3556,
    "Ġdobre": 3557,
    "ĠznÃ³w": 3558,
    "Å¼yÅĤa": 3559,
    "Ġam": 3560,
    "nom": 3561,
    "ĠwÃ³wczas": 3562,
    "rea": 3563,
    "ĠchrzeÅĽcija": 3564,
    "szem": 3565,
    "Ġnadzie": 3566,
    "del": 3567,
    "Ġnagle": 3568,
    "miona": 3569,
    "Ġszep": 3570,
    "gry": 3571,
    "gia": 3572,
    "Cz": 3573,
    "Ġeko": 3574,
    "Ġprodukcji": 3575,
    "35": 3576,
    "Ar": 3577,
    "Komunikacja": 3578,
    "Charakterystyka": 3579,
    "Ġile": 3580,
    "Ġnajbardziej": 3581,
    "jskiej": 3582,
    "dostÄĻp": 3583,
    "ĠcaÅĤkowi": 3584,
    "nal": 3585,
    "ĠTrybu": 3586,
    "ctwa": 3587,
    "hate": 3588,
    "ĠkaÅ¼dego": 3589,
    "Ġpsy": 3590,
    "Ġilo": 3591,
    "Znajduje": 3592,
    "Tak": 3593,
    "Ġnierucho": 3594,
    "blio": 3595,
    "Ġwcale": 3596,
    "sprawie": 3597,
    "owana": 3598,
    "Ġporozu": 3599,
    "Ġkandyda": 3600,
    "ĠFranko": 3601,
    "Ġprzede": 3602,
    "Ġuchy": 3603,
    "zÃ³w": 3604,
    "ĠBÃ³g": 3605,
    "dnik": 3606,
    "ĠwciÄħÅ¼": 3607,
    "ĠchociaÅ¼": 3608,
    "ĠXI": 3609,
    "Ġorganizacji": 3610,
    "Gastronomia": 3611,
    "Ġpun": 3612,
    "Ġwody": 3613,
    "Ġniech": 3614,
    "ĠÅ¼yciu": 3615,
    "Ġochrony": 3616,
    "ĠIz": 3617,
    "Ġustala": 3618,
    "pytaÅĤ": 3619,
    "rio": 3620,
    "Ġniezna": 3621,
    "Ġojca": 3622,
    "towaÄĩ": 3623,
    "glÄħd": 3624,
    "ĠspoÅĤecze": 3625,
    "ĠNorymberdze": 3626,
    "rag": 3627,
    "Ġpolity": 3628,
    "Ġdow": 3629,
    "ĠzwÅĤaszcza": 3630,
    "cek": 3631,
    "ĠHu": 3632,
    "Ġsprawozda": 3633,
    "Ġtelewi": 3634,
    "ĠXX": 3635,
    "Ġzab": 3636,
    "ĠpodrÃ³Å¼": 3637,
    "ĠwiÄħ": 3638,
    "grze": 3639,
    "ÅĽwiet": 3640,
    "Ġwynosi": 3641,
    "Ġ2019": 3642,
    "ĠÅĽmierÄĩ": 3643,
    "niesio": 3644,
    "Ġpostaci": 3645,
    "ĠwieÅĽ": 3646,
    "Nauka": 3647,
    "Zakupy": 3648,
    "ciej": 3649,
    "Ta": 3650,
    "szyÄĩ": 3651,
    "Ġsposob": 3652,
    "dwie": 3653,
    "Praca": 3654,
    "rocÅĤa": 3655,
    "Ġ(âĢ¦": 3656,
    "ĠreÅ¼yser": 3657,
    "Ġmat": 3658,
    "ĠWiÄĻc": 3659,
    "ĠbÄĻdÄĻ": 3660,
    "Ġnowych": 3661,
    "36": 3662,
    "nisty": 3663,
    "ĠpÄĻ": 3664,
    "ĠzostaÄĩ": 3665,
    "Ġwykonaw": 3666,
    "Ġdyscypli": 3667,
    "Ġproc": 3668,
    "dny": 3669,
    "Ġwypo": 3670,
    "ĠSer": 3671,
    "ĠJego": 3672,
    "wskiego": 3673,
    "ĠprzysÅĤugu": 3674,
    "feren": 3675,
    "ĠdoszÅĤo": 3676,
    "Å«": 3677,
    "Ni": 3678,
    "ĠNajwyÅ¼": 3679,
    "row": 3680,
    "tal": 3681,
    "Ġzob": 3682,
    "turze": 3683,
    "Ġdocho": 3684,
    "ĠchwilÄĻ": 3685,
    "Ġprowincji": 3686,
    "fer": 3687,
    "blem": 3688,
    "wencji": 3689,
    "emi": 3690,
    "nionych": 3691,
    "Ġstaro": 3692,
    "Ġpozba": 3693,
    "ĠmoÅ¼li": 3694,
    "ĠmieÅĽcie": 3695,
    "Ġoni": 3696,
    "ĠPolska": 3697,
    "ĠKar": 3698,
    "Ġsocja": 3699,
    "ĠRob": 3700,
    "towe": 3701,
    "ĠkoÅĽcio": 3702,
    "ĠprzewodniczÄħ": 3703,
    "ĠtÄħ": 3704,
    "Ġhu": 3705,
    "Ġszybko": 3706,
    "Ġide": 3707,
    "ĠkoÅĦca": 3708,
    "miar": 3709,
    "kla": 3710,
    "nÄĻÅĤo": 3711,
    "ĠkrÃ³la": 3712,
    "wana": 3713,
    "Ġsieci": 3714,
    "Ġ2010": 3715,
    "Ġzim": 3716,
    "Ġprzedstawia": 3717,
    "port": 3718,
    "Ġscena": 3719,
    "tz": 3720,
    "zakre": 3721,
    "KolejÄħ": 3722,
    "Ġsyna": 3723,
    "ĠzadaÅĦ": 3724,
    "dla": 3725,
    "czyn": 3726,
    "menda": 3727,
    "Ġarchi": 3728,
    "Ġumowy": 3729,
    "dom": 3730,
    "76": 3731,
    "IE": 3732,
    "Ġwam": 3733,
    "fikacji": 3734,
    "ĠPiotr": 3735,
    "ĠHit": 3736,
    "Ġtakim": 3737,
    "ĠgÄĻ": 3738,
    "lb": 3739,
    "Ġcesa": 3740,
    "zdy": 3741,
    "westy": 3742,
    "Ġczerwo": 3743,
    "Ġprawdzi": 3744,
    "czach": 3745,
    "Ġwyja": 3746,
    "ĠmoÅ¼esz": 3747,
    "ĠÅĽcia": 3748,
    "ĠTrze": 3749,
    "jÃ³w": 3750,
    "Ġbrzmienie": 3751,
    "ĠpowoÅĤa": 3752,
    "45": 3753,
    "Ġand": 3754,
    "raj": 3755,
    "Ġrozumie": 3756,
    "Ġzbro": 3757,
    "ks": 3758,
    "Ġwspina": 3759,
    "Ġteor": 3760,
    "ÅºÄĩ": 3761,
    "ÅĽciÃ³ÅĤ": 3762,
    "ĠPla": 3763,
    "80": 3764,
    "Åºni": 3765,
    "rzÄħc": 3766,
    "dna": 3767,
    "cyjnym": 3768,
    "Ġprojekt": 3769,
    "ĠJani": 3770,
    "Ġocze": 3771,
    "ĠPie": 3772,
    "ĠmnÄħ": 3773,
    "Ġstrze": 3774,
    "weÅĤ": 3775,
    "dniu": 3776,
    "70": 3777,
    "Ġtwarzy": 3778,
    "Ġpierwszym": 3779,
    "ĠPow": 3780,
    "kali": 3781,
    "czno": 3782,
    "Ġcentrum": 3783,
    "Ġ:": 3784,
    "ĠszczegÃ³lnie": 3785,
    "Ġrobi": 3786,
    "Ġzni": 3787,
    "jskich": 3788,
    "ĠFa": 3789,
    "jach": 3790,
    "Ġspokoj": 3791,
    "ĠmÅĤody": 3792,
    "ĠnaleÅ¼Äħ": 3793,
    "Ġprofe": 3794,
    "Ġtrady": 3795,
    "stÄħpie": 3796,
    "Ġwyj": 3797,
    "Ġdoli": 3798,
    "Ġrady": 3799,
    "fii": 3800,
    "Ġpobiera": 3801,
    "Ġpolskich": 3802,
    "kli": 3803,
    "tuje": 3804,
    "szto": 3805,
    "ĠnastÄħpi": 3806,
    "ĠÅĽw": 3807,
    "ĠKli": 3808,
    "Ġserca": 3809,
    "godny": 3810,
    "stych": 3811,
    "Ġstosunku": 3812,
    "Ġsub": 3813,
    "ĠKraj": 3814,
    "ĠwziÄħ": 3815,
    "Ġmieli": 3816,
    "wnÄħ": 3817,
    "Naj": 3818,
    "ĠwpÅĤyw": 3819,
    "Ġedy": 3820,
    "Ġum": 3821,
    "Ġban": 3822,
    "wano": 3823,
    "stoÅĽci": 3824,
    "Ġbio": 3825,
    "Ġ40": 3826,
    "ĠkoÅĦcu": 3827,
    "ĠÅļwiÄĻ": 3828,
    "kuje": 3829,
    "Ġodkry": 3830,
    "ger": 3831,
    "dnim": 3832,
    "ĠnastÄĻpujÄħce": 3833,
    "Festiwale": 3834,
    "ĠFrankonia": 3835,
    "ĠsÅĤÃ³w": 3836,
    "Ġzrozu": 3837,
    "Ġusu": 3838,
    "nicÄĻ": 3839,
    "ĠksiÄħÅ¼ÄĻ": 3840,
    "ĠskreÅĽla": 3841,
    "Ġstanowisko": 3842,
    "Ġeuropej": 3843,
    "Ġformula": 3844,
    "ransport": 3845,
    "Ġpocz": 3846,
    "Ġup": 3847,
    "Ġkr": 3848,
    "nÄĻÅĤy": 3849,
    "dniego": 3850,
    "Ġwra": 3851,
    "Minister": 3852,
    "ĠMiasta": 3853,
    "ĠopÅĤa": 3854,
    "Ġopa": 3855,
    "60": 3856,
    "Ġsprawach": 3857,
    "ĠspoÅĤecznej": 3858,
    "Ġaktyw": 3859,
    "Ġmatka": 3860,
    "czyk": 3861,
    "krywa": 3862,
    "ĠskoÅĦ": 3863,
    "ĠBoga": 3864,
    "Ġczasem": 3865,
    "nda": 3866,
    "ĠnajwyÅ¼": 3867,
    "ĠksiÄĻÅ¼yc": 3868,
    "rody": 3869,
    "czona": 3870,
    "nnie": 3871,
    "Ġuczy": 3872,
    "Ġpokoju": 3873,
    "niejszych": 3874,
    "Ġpodlega": 3875,
    "48": 3876,
    "ĠFrancji": 3877,
    "ĠXV": 3878,
    "ĠGÅĤÃ³w": 3879,
    "stym": 3880,
    "Ġtrzyma": 3881,
    "Ġmiejsc": 3882,
    "Ġwreszcie": 3883,
    "ĠpoÅĽwiÄĻ": 3884,
    "ĠprÄĻd": 3885,
    "dziaÅĤy": 3886,
    "ĠmiaÅĤy": 3887,
    "Ġrodzaju": 3888,
    "km": 3889,
    "Ġodw": 3890,
    "nna": 3891,
    "Ġpis": 3892,
    "Ġzbyt": 3893,
    "OS": 3894,
    "tnÄħ": 3895,
    "Ġmasz": 3896,
    "Ġobywate": 3897,
    "ĠRzy": 3898,
    "Ġgenera": 3899,
    "Ob": 3900,
    "Ġmocy": 3901,
    "ĠRumu": 3902,
    "Ð¾": 3903,
    "niejszy": 3904,
    "rzeÅĦ": 3905,
    "Ġwprowadza": 3906,
    "dowo": 3907,
    "ĠSch": 3908,
    "ĠPÃ³ÅĤnoc": 3909,
    "Ġzabra": 3910,
    "ĠÅĽwiÄħ": 3911,
    "Ġoka": 3912,
    "49": 3913,
    "starcza": 3914,
    "Ġzy": 3915,
    "tp": 3916,
    "turÄĻ": 3917,
    "Ġponow": 3918,
    "ĠHer": 3919,
    "widÅĤ": 3920,
    "ÅĤek": 3921,
    "ĠKiedy": 3922,
    "ĠtysiÄħ": 3923,
    "nor": 3924,
    "rÃ³cz": 3925,
    "bliote": 3926,
    "ĠKrakÃ³w": 3927,
    "klu": 3928,
    "ĠdÅĤugoÅĽci": 3929,
    "ĠÂłÂł": 3930,
    "2012": 3931,
    "Ġkobiety": 3932,
    "Å¼d": 3933,
    "Ġpowinien": 3934,
    "gami": 3935,
    "Ġdniem": 3936,
    "Wo": 3937,
    "ĠdoÅĽwiad": 3938,
    "--": 3939,
    "Ġelektry": 3940,
    "ĠwystÄĻpu": 3941,
    "Ġprogramu": 3942,
    "zakresie": 3943,
    "Ġwybu": 3944,
    "Ġniebie": 3945,
    "Ġprag": 3946,
    "NA": 3947,
    "Ġrej": 3948,
    "stan": 3949,
    "ÃŃ": 3950,
    "Ġutrzyma": 3951,
    "wki": 3952,
    "ĠtrochÄĻ": 3953,
    "Ġnieco": 3954,
    "niÅĤa": 3955,
    "Ġzao": 3956,
    "publi": 3957,
    "Ġgranicy": 3958,
    "Ġsytuacji": 3959,
    "tkowo": 3960,
    "dera": 3961,
    "ĠStani": 3962,
    "ĠkoÅĤo": 3963,
    "dzieli": 3964,
    "naczej": 3965,
    "reta": 3966,
    "Ġzastosowanie": 3967,
    "37": 3968,
    "Ġproto": 3969,
    "Ġ2004": 3970,
    "kazaÅĤ": 3971,
    "dziÄĻ": 3972,
    "Ġrad": 3973,
    "chaj": 3974,
    "Ġkart": 3975,
    "Ġobok": 3976,
    "Ġwspania": 3977,
    "owano": 3978,
    "rÃ³ciÄĩ": 3979,
    "Ġkapita": 3980,
    "owali": 3981,
    "ĠÃ³w": 3982,
    "Ġpia": 3983,
    "ĠobjÄĻ": 3984,
    "Ġtwier": 3985,
    "ĠZdr": 3986,
    "ĠCi": 3987,
    "Ġtakiego": 3988,
    "Ġkonsu": 3989,
    "ĠmÅĤodzie": 3990,
    "ĠÅĽle": 3991,
    "Ġzgroma": 3992,
    "ĠWal": 3993,
    "ĠWrocÅĤa": 3994,
    "Ġproble": 3995,
    "Ġpal": 3996,
    "maty": 3997,
    "wyciÄĻ": 3998,
    "Ġzjawi": 3999,
    "Ġoprac": 4000,
    "Ġ35": 4001,
    "Ġ60": 4002,
    "son": 4003,
    "tychmiast": 4004,
    "piec": 4005,
    "ĠstronÄĻ": 4006,
    "owskiego": 4007,
    "Ġpomoc": 4008,
    "Pre": 4009,
    "44": 4010,
    "Ġprokura": 4011,
    "ĠmiesiÄĻcy": 4012,
    "ĠNau": 4013,
    "ĠmÃ³w": 4014,
    "ĠstaÅĤa": 4015,
    "Ġgi": 4016,
    "jÄħcymi": 4017,
    "Ġchyba": 4018,
    "ĠCe": 4019,
    "ownicy": 4020,
    "gÃ³ÅĤ": 4021,
    "Ġmln": 4022,
    "Ġfilo": 4023,
    "ĠRumunii": 4024,
    "Äĵ": 4025,
    "Ġwchodzi": 4026,
    "kÃ³j": 4027,
    "ĠwyjÄħ": 4028,
    "Ġpowiet": 4029,
    "Ġkierunku": 4030,
    "roni": 4031,
    "Ġtransportu": 4032,
    "ĠZjednoczonych": 4033,
    "ĠgÅĤowy": 4034,
    "Ġulicy": 4035,
    "ĠposÅĤa": 4036,
    "ciÅĤa": 4037,
    "rob": 4038,
    "Ġtwoje": 4039,
    "rÃ³b": 4040,
    "Ġsamego": 4041,
    "ssi": 4042,
    "nes": 4043,
    "Ġkli": 4044,
    "32": 4045,
    "Ġzainteres": 4046,
    "zasa": 4047,
    "Ġproblem": 4048,
    "niami": 4049,
    "Ġsama": 4050,
    "obra": 4051,
    "Ġinnego": 4052,
    "Ġprowadzi": 4053,
    "Ġdrob": 4054,
    "kÅĤady": 4055,
    "Ġrealizacji": 4056,
    "Ġprzesz": 4057,
    "Ġnaszej": 4058,
    "Ġotwo": 4059,
    "taÄĩ": 4060,
    "ĠmaÅĤo": 4061,
    "ĠjakieÅĽ": 4062,
    "ĠbÅĤo": 4063,
    "Ġbohate": 4064,
    "Ty": 4065,
    "Ġdaleko": 4066,
    "krÃ³t": 4067,
    "pio": 4068,
    "Ġpolega": 4069,
    "WD": 4070,
    "ĠczÅĤonkÃ³w": 4071,
    "Ġkier": 4072,
    "Ġpliku": 4073,
    "Ġucz": 4074,
    "ĠktoÅĽ": 4075,
    "cjami": 4076,
    "tere": 4077,
    "ĠpoÅĤ": 4078,
    "ĠzobowiÄħza": 4079,
    "ĠPola": 4080,
    "ĠMinistrÃ³w": 4081,
    "ĠumoÅ¼liwia": 4082,
    "mowaÅĤ": 4083,
    "ĠwoÅĤa": 4084,
    "ĠwyglÄħda": 4085,
    "ĠsÅĤoÅĦca": 4086,
    "Ġtow": 4087,
    "jska": 4088,
    "Lecz": 4089,
    "Ġinstytu": 4090,
    "ĠSzcze": 4091,
    "dzono": 4092,
    "ĠokreÅĽlone": 4093,
    "Ġbryty": 4094,
    "Linki": 4095,
    "ĠÅ¼oÅĤnierzy": 4096,
    "ĠzÅĤotych": 4097,
    "Ġdotyczy": 4098,
    "38": 4099,
    "ĠÅļwia": 4100,
    "Ġubezpiecze": 4101,
    "rÃ³wna": 4102,
    "ĠsÅĤoÅĦce": 4103,
    "ĠkrÃ³lew": 4104,
    "Ġrozwoju": 4105,
    "Pier": 4106,
    "gach": 4107,
    "Ġpotra": 4108,
    "pier": 4109,
    "Ġpowy": 4110,
    "skar": 4111,
    "zyka": 4112,
    "ĠzwiÄħzane": 4113,
    "ĠznajdujÄħ": 4114,
    "Ġzez": 4115,
    "ĠÅĽrodki": 4116,
    "41": 4117,
    "ĠszczÄĻÅĽli": 4118,
    "ÅĽciÄĩ": 4119,
    "Ġprzepisa": 4120,
    "Ġaktu": 4121,
    "Ġpanu": 4122,
    "kowane": 4123,
    "Ġzre": 4124,
    "Ġtzw": 4125,
    "ĠÅ¼Äħda": 4126,
    "skÃ³w": 4127,
    "Ġbur": 4128,
    "chno": 4129,
    "ĠjÄĻzyka": 4130,
    "fy": 4131,
    "Ġpochodzenia": 4132,
    "Nocleg": 4133,
    "uje": 4134,
    "strz": 4135,
    "towych": 4136,
    "ĠÅĽwiet": 4137,
    "Ġautomatycz": 4138,
    "75": 4139,
    "Ġprakty": 4140,
    "ĠKrakowie": 4141,
    "Ġdrzwi": 4142,
    "ĠKaro": 4143,
    "czkÄĻ": 4144,
    "ĠObywa": 4145,
    "tyczny": 4146,
    "Ġprzeciwko": 4147,
    "owcÃ³w": 4148,
    "ĠniezbÄĻd": 4149,
    "ĠÐ": 4150,
    "ĠszkoÅĤy": 4151,
    "ÅĤÃ³": 4152,
    "czÄħc": 4153,
    "ĠAleksand": 4154,
    "Ġwalki": 4155,
    "ĠEl": 4156,
    "ĠPary": 4157,
    "ĠzastÄĻpuje": 4158,
    "ĠmiaÅĤo": 4159,
    "moÅĽci": 4160,
    "Ġtar": 4161,
    "ÅĦscy": 4162,
    "rÄĻb": 4163,
    "Ġfak": 4164,
    "Ġseria": 4165,
    "mÃ³wi": 4166,
    "Ġzwykle": 4167,
    "Ġniewy": 4168,
    "Ġspad": 4169,
    "ciaÅĤ": 4170,
    "Ġwywo": 4171,
    "Ġsre": 4172,
    "ĠwewnÄĻtrz": 4173,
    "ĠpaÅĦstwo": 4174,
    "szczenia": 4175,
    "Ġformula_": 4176,
    "dzony": 4177,
    "terna": 4178,
    "Ġdzisiaj": 4179,
    "ĠKaÅ¼": 4180,
    "Ġkonku": 4181,
    "Ġakcji": 4182,
    "ĠkÄħ": 4183,
    "stej": 4184,
    "Ġobra": 4185,
    "Ġodpowiedzi": 4186,
    "ĠwartoÅĽÄĩ": 4187,
    "Å¼noÅĽci": 4188,
    "96": 4189,
    "trzymy": 4190,
    "ÅĽciÅĤ": 4191,
    "ĠpiÄĻÄĩ": 4192,
    "ĠciÄħgle": 4193,
    "Ġzas": 4194,
    "Ġwolno": 4195,
    "wiÅĽcie": 4196,
    "Ġspowo": 4197,
    "tan": 4198,
    "Ġkultury": 4199,
    "ert": 4200,
    "Ġzbiera": 4201,
    "ari": 4202,
    "Ġpowro": 4203,
    "lonych": 4204,
    "Ġkomputer": 4205,
    "ĠTen": 4206,
    "dal": 4207,
    "Ġpoch": 4208,
    "ĠcaÅĤe": 4209,
    "ĠWs": 4210,
    "Ġjednostek": 4211,
    "Istnieje": 4212,
    "onda": 4213,
    "ĠcaÅĤej": 4214,
    "dak": 4215,
    "plo": 4216,
    "ĠpaÅĤa": 4217,
    "torem": 4218,
    "ĠPolicji": 4219,
    "ĠdÅĤugi": 4220,
    "krÃ³tce": 4221,
    "ĠpracÄĻ": 4222,
    "Ġdosko": 4223,
    "ĠTur": 4224,
    "ĠczynnoÅĽci": 4225,
    "jrzaÅĤ": 4226,
    "Ġmaszy": 4227,
    "ryk": 4228,
    "mnie": 4229,
    "ĠbÅĤÄĻ": 4230,
    "krotnie": 4231,
    "ĠGer": 4232,
    "ĠposzczegÃ³l": 4233,
    "burg": 4234,
    "ĠsamorzÄħd": 4235,
    "organi": 4236,
    "Ġkontroli": 4237,
    "Ġ2006": 4238,
    "Ġziem": 4239,
    "ĠKul": 4240,
    "Ġzwraca": 4241,
    "bija": 4242,
    "mac": 4243,
    "Ġzauwa": 4244,
    "ryt": 4245,
    "zwo": 4246,
    "Uro": 4247,
    "ĠJednak": 4248,
    "ĠAntoni": 4249,
    "ĠAch": 4250,
    "ĠÅĽnie": 4251,
    "Ġlepiej": 4252,
    "ĠpiÅĤ": 4253,
    "miÄħ": 4254,
    "lim": 4255,
    "nawia": 4256,
    "ÅĦstwie": 4257,
    "dnienia": 4258,
    "Ġds": 4259,
    "grody": 4260,
    "jskie": 4261,
    "czaÅĤ": 4262,
    "Ġszlach": 4263,
    "rÃ³Å¼y": 4264,
    "Å¼eÅĦ": 4265,
    "Ġwygra": 4266,
    "ft": 4267,
    "01": 4268,
    "tio": 4269,
    "Ġodwie": 4270,
    "Ġnapraw": 4271,
    "Ġlep": 4272,
    "cznymi": 4273,
    "Ġsur": 4274,
    "woÅĽci": 4275,
    "05": 4276,
    "Ġpopular": 4277,
    "Ameryka": 4278,
    "Ġwyd": 4279,
    "rowi": 4280,
    "gla": 4281,
    "Ġswe": 4282,
    "Ġautor": 4283,
    "parta": 4284,
    "tory": 4285,
    "Ġkatoli": 4286,
    "ĠTusk": 4287,
    "nieÅĽÄĩ": 4288,
    "Ġkolei": 4289,
    "ĠFe": 4290,
    "wan": 4291,
    "bel": 4292,
    "Ġurlo": 4293,
    "tywa": 4294,
    "Ġpodzie": 4295,
    "deÅĤ": 4296,
    "Historia": 4297,
    "seÅĤ": 4298,
    "ĠniezaleÅ¼": 4299,
    "Kra": 4300,
    "tycznego": 4301,
    "np": 4302,
    "jnych": 4303,
    "infor": 4304,
    "ĠAdam": 4305,
    "Wyjazd": 4306,
    "ĠsÅĤuÅ¼Äħ": 4307,
    "ĠzrobiÄĩ": 4308,
    "ĠmiÅĤoÅĽÄĩ": 4309,
    "Ġznaczenie": 4310,
    "jÄĻcie": 4311,
    "Ġkre": 4312,
    "czoÅĽci": 4313,
    "Ġzaczyna": 4314,
    "Ġwspar": 4315,
    "ÅĤudni": 4316,
    "armo": 4317,
    "Ġnasze": 4318,
    "ĠÅĽla": 4319,
    "Ġzostanie": 4320,
    "Ġniby": 4321,
    "Ġdane": 4322,
    "ĠzwiÄħzanych": 4323,
    "Ð°": 4324,
    "Ġweso": 4325,
    "Ġinaczej": 4326,
    "Ġleka": 4327,
    "najmniej": 4328,
    "Ġposie": 4329,
    "Å»e": 4330,
    "arakter": 4331,
    "ĠÅĽredni": 4332,
    "Ġstanowiska": 4333,
    "Ġpopar": 4334,
    "ĠSA": 4335,
    "prost": 4336,
    "bili": 4337,
    "owaÅĤo": 4338,
    "ĠspeÅĤ": 4339,
    "Ġwypowie": 4340,
    "dle": 4341,
    "ĠQ": 4342,
    "EN": 4343,
    "ĠÂ«": 4344,
    "kowski": 4345,
    "Ġgnie": 4346,
    "ĠWszyst": 4347,
    "Ġstan": 4348,
    "ĠchÄĻ": 4349,
    "tali": 4350,
    "ĠtakÄħ": 4351,
    "dzeniem": 4352,
    "ĠPozna": 4353,
    "noÅĽ": 4354,
    "Ġnieo": 4355,
    "hil": 4356,
    "ĠuwzglÄĻd": 4357,
    "Ġprote": 4358,
    "tei": 4359,
    "onald": 4360,
    "nice": 4361,
    "kaÄĩ": 4362,
    "Ġdoprowa": 4363,
    "Ġzdecy": 4364,
    "Å¼eniem": 4365,
    "Ġpytanie": 4366,
    "Ġosa": 4367,
    "Ġ2017": 4368,
    "Ġjaka": 4369,
    "Ġzarzu": 4370,
    "naÅĤu": 4371,
    "Ġangiel": 4372,
    "Ġrzym": 4373,
    "Ġmojej": 4374,
    "car": 4375,
    "Ġdziewczy": 4376,
    "Ġdowie": 4377,
    "ĠSkar": 4378,
    "Ġzapewnia": 4379,
    "bliÅ¼u": 4380,
    "ĠMinistra": 4381,
    "ĠJoh": 4382,
    "Ġstrate": 4383,
    "siÄĩ": 4384,
    "ĠjÄĻzyku": 4385,
    "ĠwiadomoÅĽci": 4386,
    "ĠukÅĤad": 4387,
    "ĠKrÃ³le": 4388,
    "ntro": 4389,
    "ĠprzedsiÄĻbiorstwa": 4390,
    "Ġkonty": 4391,
    "Ġnauczyciel": 4392,
    "Ġodbywa": 4393,
    "Ġnatychmiast": 4394,
    "Ġwiecz": 4395,
    "Ġhe": 4396,
    "ĠObywatel": 4397,
    "ĠkoÅĦc": 4398,
    "Polskie": 4399,
    "ĠMen": 4400,
    "Ġcztery": 4401,
    "ĠgÅĤosem": 4402,
    "Ġswych": 4403,
    "czyli": 4404,
    "Ġopowie": 4405,
    "ĠpobliÅ¼u": 4406,
    "Ġuwagi": 4407,
    "rys": 4408,
    "Å»y": 4409,
    "cin": 4410,
    "Ġ2016": 4411,
    "ĠVi": 4412,
    "Ġ(âĢ¦)": 4413,
    "szak": 4414,
    "ĠchcÄĻ": 4415,
    "ĠNiech": 4416,
    "resztÄħ": 4417,
    "ĠduÅ¼o": 4418,
    "Ġspoj": 4419,
    "Ġzebra": 4420,
    "ĠkaÅ¼dej": 4421,
    "Ġzagrani": 4422,
    "Ġmoim": 4423,
    "ĠWin": 4424,
    "Ġprojektu": 4425,
    "ĠJana": 4426,
    "Ġinformacje": 4427,
    "Ġpoinfor": 4428,
    "47": 4429,
    "Ġeta": 4430,
    "mos": 4431,
    "Ġtram": 4432,
    "ĠpamiÄĻci": 4433,
    "iÄĩ": 4434,
    "WiÄĻc": 4435,
    "ĠgÅĤu": 4436,
    "wione": 4437,
    "Ġniedo": 4438,
    "ÅĦskÄħ": 4439,
    "Ġpiosen": 4440,
    "uszy": 4441,
    "Ġinicja": 4442,
    "Ġstand": 4443,
    "torium": 4444,
    "tnym": 4445,
    "woje": 4446,
    "Ġwoli": 4447,
    "Ġpotrzeby": 4448,
    "grywa": 4449,
    "ĠDy": 4450,
    "Å¼nej": 4451,
    "ĠmoÅ¼liwoÅĽÄĩ": 4452,
    "owoÅĽÄĩ": 4453,
    "kiewicz": 4454,
    "Ġmatki": 4455,
    "ĠmÃ³wiÄĩ": 4456,
    "Ġduszy": 4457,
    "Ġnaru": 4458,
    "ĠSp": 4459,
    "Ġzdrowia": 4460,
    "ĠsÄĻdzi": 4461,
    "jaw": 4462,
    "ĠAndrzej": 4463,
    "ĠparÄĻ": 4464,
    "ĠsiÅĤ": 4465,
    "ĠsÅĤucha": 4466,
    "Å¼ynie": 4467,
    "stÄħpiÅĤ": 4468,
    "Ġpostanowi": 4469,
    "Ġtakiej": 4470,
    "Ġdia": 4471,
    "ĠEuropy": 4472,
    "ĠudostÄĻp": 4473,
    "stÄĻpnie": 4474,
    "ĠZygfry": 4475,
    "Ġautobu": 4476,
    "lski": 4477,
    "celu": 4478,
    "ĠtÅĤum": 4479,
    "ĠwÅĤadzy": 4480,
    "Ġindy": 4481,
    "Ġskie": 4482,
    "ĠwyÅĤÄħcznie": 4483,
    "ĠprowadzÄħ": 4484,
    "Ġuspo": 4485,
    "snÄħ": 4486,
    "Tu": 4487,
    "ĠMon": 4488,
    "ĠmÄħ": 4489,
    "La": 4490,
    "ĠÃ": 4491,
    "ĠotrzymaÅĤ": 4492,
    "Ġtrakcie": 4493,
    "Ġdojazd": 4494,
    "ĠWÅĤadysÅĤaw": 4495,
    "âī": 4496,
    "dyna": 4497,
    "Ġwykonania": 4498,
    "ling": 4499,
    "Ġpowinny": 4500,
    "55": 4501,
    "fini": 4502,
    "Ġosie": 4503,
    "Ġkrew": 4504,
    "ĠgoÅĽci": 4505,
    "dzonych": 4506,
    "Ġstuden": 4507,
    "Ġdem": 4508,
    "ĠosiÄħgniÄĻ": 4509,
    "09": 4510,
    "Ġrowe": 4511,
    "2014": 4512,
    "ĠtysiÄĻcy": 4513,
    "Å¼ny": 4514,
    "gle": 4515,
    "tatu": 4516,
    "Ġhistorii": 4517,
    "win": 4518,
    "ĠrÃ³wno": 4519,
    "Ġzgi": 4520,
    "Ġstopnia": 4521,
    "Ġodc": 4522,
    "Ġstron": 4523,
    "fra": 4524,
    "rzeÄĩ": 4525,
    "nemu": 4526,
    "Ġdziennika": 4527,
    "owaniem": 4528,
    "Ġwielki": 4529,
    "prawia": 4530,
    "szuki": 4531,
    "ĠSÅĤo": 4532,
    "Ġorgany": 4533,
    "nizm": 4534,
    "Ġliczba": 4535,
    "Ġodcinek": 4536,
    "ĠnieszczÄĻ": 4537,
    "szony": 4538,
    "rego": 4539,
    "pÃ³w": 4540,
    "ĠjesteÅĽ": 4541,
    "Ġcieka": 4542,
    "jmy": 4543,
    "czeniem": 4544,
    "Ġjezio": 4545,
    "Nr": 4546,
    "Ġreak": 4547,
    "Ġwieczo": 4548,
    "czer": 4549,
    "Ġznaczy": 4550,
    "wnÄħtrz": 4551,
    "Å¼onych": 4552,
    "rzec": 4553,
    "pieÅĦ": 4554,
    "Ġogro": 4555,
    "Ġosobi": 4556,
    "ol": 4557,
    "ham": 4558,
    "ĠdziaÅĤalnoÅĽÄĩ": 4559,
    "ĠGospodar": 4560,
    "ĠÅļlÄħ": 4561,
    "TP": 4562,
    "chodniej": 4563,
    "âīĪ": 4564,
    "Ġnami": 4565,
    "mÄħ": 4566,
    "ĠpoÅ¼y": 4567,
    "ĠBoÅ¼e": 4568,
    "fie": 4569,
    "ĠjednoczeÅĽnie": 4570,
    "ĠpaÅĦstwowej": 4571,
    "wiÄħzku": 4572,
    "Ġtrans": 4573,
    "ĠRosji": 4574,
    "Ġ2005": 4575,
    "ĠFil": 4576,
    "Ġsia": 4577,
    "ciele": 4578,
    "ĠduÅ¼e": 4579,
    "ĠwzgÃ³": 4580,
    "Ġwidzi": 4581,
    "ÅĦca": 4582,
    "dziale": 4583,
    "Ġprostu": 4584,
    "ĠÅĽwiÄħty": 4585,
    "ĠJÃ³": 4586,
    "Ġregiona": 4587,
    "An": 4588,
    "Ġ2008": 4589,
    "ÅĤoby": 4590,
    "ĠÅĤu": 4591,
    "ĠcÃ³Å¼": 4592,
    "Ġwysta": 4593,
    "Ġpierwszego": 4594,
    "ĠprÃ³b": 4595,
    "rowania": 4596,
    "ker": 4597,
    "Ġdziecko": 4598,
    "Ġzatem": 4599,
    "ĠÅ¼ywo": 4600,
    "Ġwykorzysty": 4601,
    "Ġautomatycznie": 4602,
    "ĠwolnoÅĽci": 4603,
    "Ġ1989": 4604,
    "ĠtytuÅĤu": 4605,
    "Ġpolityka": 4606,
    "ĠAgencji": 4607,
    "Ġabso": 4608,
    "Ġbudow": 4609,
    "ĠÅĽwiatowej": 4610,
    "Ġfilozo": 4611,
    "ĠgÅĤowÄħ": 4612,
    "Ġnaro": 4613,
    "waniu": 4614,
    "wolu": 4615,
    "ĠHistoria": 4616,
    "Ġrezer": 4617,
    "cyjna": 4618,
    "Ġplan": 4619,
    "Ġpolskiego": 4620,
    "ĠtÄĻsk": 4621,
    "Ġnaszego": 4622,
    "czonej": 4623,
    "ĠrzÄħ": 4624,
    "Ġzbior": 4625,
    "ĠKi": 4626,
    "dor": 4627,
    "ĠszczegÃ³ÅĤ": 4628,
    "ĠNarodowej": 4629,
    "LA": 4630,
    "OT": 4631,
    "Ġ&": 4632,
    "Ġtaka": 4633,
    "ĠSÅĤu": 4634,
    "ĠupÅĤy": 4635,
    "togra": 4636,
    "wajÄħ": 4637,
    "Ġmecha": 4638,
    "rej": 4639,
    "OP": 4640,
    "wska": 4641,
    "ĠrolÄĻ": 4642,
    "Ġnowy": 4643,
    "sch": 4644,
    "Ġchcesz": 4645,
    "Ġminister": 4646,
    "Ġwyrazami": 4647,
    "âĨ": 4648,
    "wicza": 4649,
    "Ġkaden": 4650,
    "Autobusem": 4651,
    "ĠÅģa": 4652,
    "ĠwziÄĻ": 4653,
    "wiony": 4654,
    "ĠznaleÅºÄĩ": 4655,
    "ĠLondy": 4656,
    "Ġfrag": 4657,
    "Ġprzewidzia": 4658,
    "kademi": 4659,
    "ĠAby": 4660,
    "wei": 4661,
    "Ġolb": 4662,
    "ĠAust": 4663,
    "Ġtygo": 4664,
    "towej": 4665,
    "ÅĤami": 4666,
    "ĠAd": 4667,
    "78": 4668,
    "lec": 4669,
    "Ġgar": 4670,
    "jne": 4671,
    "ĠKto": 4672,
    "Ġinnym": 4673,
    "rzyÅĤa": 4674,
    "Mia": 4675,
    "ĠpuÅĤ": 4676,
    "Ġpowierzchni": 4677,
    "ces": 4678,
    "Ġsport": 4679,
    "serwa": 4680,
    "Ġdyrektywy": 4681,
    "Äĥ": 4682,
    "Ġinny": 4683,
    "koÅĤo": 4684,
    "trwa": 4685,
    "Ġrozwija": 4686,
    "wne": 4687,
    "ĠzgÅĤo": 4688,
    "ĠukoÅĦ": 4689,
    "Ġher": 4690,
    "Ġkorzy": 4691,
    "diÃ³w": 4692,
    "Ġuczestni": 4693,
    "ĠwojewÃ³dztwie": 4694,
    "Ġdogodny": 4695,
    "Ġdzwo": 4696,
    "ĠuÅĽmiech": 4697,
    "Ġsamej": 4698,
    "ony": 4699,
    "Ġzaga": 4700,
    "Ã³dz": 4701,
    "Ġwielkie": 4702,
    "ĠSzy": 4703,
    "Ġprzesta": 4704,
    "nnym": 4705,
    "nocy": 4706,
    "ĠjÄĻzyk": 4707,
    "bÃ³w": 4708,
    "ĠprzemysÅĤ": 4709,
    "Ġokaza": 4710,
    "owiec": 4711,
    "Ġgrupa": 4712,
    "ĠWybor": 4713,
    "Ġwybiera": 4714,
    "Ġrozko": 4715,
    "ĠXIX": 4716,
    "Ġfinansowych": 4717,
    "Ġklie": 4718,
    "ĠPrezyden": 4719,
    "ĠGda": 4720,
    "Ġrosyj": 4721,
    "Ġdogodnie": 4722,
    "ĠtÅĤuma": 4723,
    "ĠziemiÄĻ": 4724,
    "czÄĻÅĽciej": 4725,
    "lika": 4726,
    "ĠwystÄĻp": 4727,
    ".:": 4728,
    "Ġwygene": 4729,
    "ĠImprezy": 4730,
    "szli": 4731,
    "Ġidzie": 4732,
    "Ġprzyw": 4733,
    "cham": 4734,
    "Ġcharakter": 4735,
    "ĠzakÅĤada": 4736,
    "ĠpoÅĤoÅ¼ona": 4737,
    "ĠSprawiedliwoÅĽci": 4738,
    "Ġinwesty": 4739,
    "ĠdecyzjÄĻ": 4740,
    "Ġniena": 4741,
    "szczÄħ": 4742,
    "miany": 4743,
    "Ġzaw": 4744,
    "Ġpojazd": 4745,
    "Ġist": 4746,
    "ĠÅĽwiadczenia": 4747,
    "Ġ2014": 4748,
    "bliografia": 4749,
    "ĠwidziaÅĤ": 4750,
    "Ġoczyma": 4751,
    "ĠleÅ¼Äħ": 4752,
    "Ġupad": 4753,
    "Ġzb": 4754,
    "ĠJeÅ¼eli": 4755,
    "Ġnazwa": 4756,
    "Ġskute": 4757,
    "ĠÅĽwiadczeÅĦ": 4758,
    "Ġorgan": 4759,
    "Ġeksp": 4760,
    "Ġenergii": 4761,
    "Å¡": 4762,
    "ĠamerykaÅĦski": 4763,
    "iÄĻku": 4764,
    "ĠzÅĤa": 4765,
    "szta": 4766,
    "Ġrza": 4767,
    "stwem": 4768,
    "poli": 4769,
    "ĠodwoÅĤa": 4770,
    "ille": 4771,
    "ĠmiejscowoÅĽÄĩ": 4772,
    "Ġoceny": 4773,
    "set": 4774,
    "ĠStar": 4775,
    "Ġraczej": 4776,
    "Ġstru": 4777,
    "waÅ¼a": 4778,
    "dowaÅĤ": 4779,
    "Ġuprze": 4780,
    "Ġodrzu": 4781,
    "sel": 4782,
    "Ġuroczy": 4783,
    "Ġpotwier": 4784,
    "cel": 4785,
    "stein": 4786,
    "ĠOn": 4787,
    "gania": 4788,
    "Ġkrze": 4789,
    "jscy": 4790,
    "owaÅĤy": 4791,
    "53": 4792,
    "ĠUniwersytetu": 4793,
    "Ġscenari": 4794,
    "Ġplik": 4795,
    "nadto": 4796,
    "ĠchcÄħ": 4797,
    "Ġostatnie": 4798,
    "wiÅĤa": 4799,
    "cone": 4800,
    "ĠGdzie": 4801,
    "ĠpochodzÄħ": 4802,
    "czania": 4803,
    "ĠGi": 4804,
    "Ġodleg": 4805,
    "Ġzmniej": 4806,
    "ĠobowiÄħzu": 4807,
    "Ġopinii": 4808,
    "ĠfunkcjÄĻ": 4809,
    "ower": 4810,
    "toÅĽci": 4811,
    "Ġpora": 4812,
    "ĠpowtÃ³": 4813,
    "Ġzrobi": 4814,
    "Ġnaszych": 4815,
    "Ġminut": 4816,
    "Ġobchodzi": 4817,
    "Ġklucz": 4818,
    "tyku": 4819,
    "Ġpochodzi": 4820,
    "Ġreligi": 4821,
    "Ġ2000": 4822,
    "ĠBryta": 4823,
    "ĠZam": 4824,
    "zem": 4825,
    "Ġpiersi": 4826,
    "Ġgu": 4827,
    "ÅĽle": 4828,
    "Ġokresu": 4829,
    "ĠcelÃ³w": 4830,
    "trum": 4831,
    "ĠAs": 4832,
    "ly": 4833,
    "Ġniko": 4834,
    "ĠZosta": 4835,
    "Ġjakiego": 4836,
    "ĠsÅĤowo": 4837,
    "Ġniespo": 4838,
    "Ġsymbo": 4839,
    "Ġhandl": 4840,
    "prawa": 4841,
    "ĠrzekÄħ": 4842,
    "Ġdyscyplinar": 4843,
    "zob": 4844,
    "ĠTrak": 4845,
    "ĠWikipe": 4846,
    "Ġbak": 4847,
    "Bibliografia": 4848,
    "bry": 4849,
    "ĠOj": 4850,
    "Ġjakiej": 4851,
    "ĠmÃ³wiÄħc": 4852,
    "kÅĤo": 4853,
    "ĠPraw": 4854,
    "zach": 4855,
    "Ġbudy": 4856,
    "Ġpierwo": 4857,
    "Ġniniejszej": 4858,
    "Ġwarunki": 4859,
    "Ġsprawozdanie": 4860,
    "Ġsamocho": 4861,
    "toni": 4862,
    "ĠKsiÄĻÅ¼yca": 4863,
    "ĠPanie": 4864,
    "ĠczÄħ": 4865,
    "ĠmÄĻÅ¼czyz": 4866,
    "Å¼eniu": 4867,
    "ĠliczbÄĻ": 4868,
    "ĠDem": 4869,
    "65": 4870,
    "dowania": 4871,
    "jekt": 4872,
    "Odzna": 4873,
    "Ġ2009": 4874,
    "Ġuj": 4875,
    "ĠDro": 4876,
    "Ġukry": 4877,
    "Ġciep": 4878,
    "dÅĤo": 4879,
    "tycznie": 4880,
    "Ġdek": 4881,
    "ĠCzÄĻ": 4882,
    "99": 4883,
    "ĠChi": 4884,
    "ĠodrÄĻb": 4885,
    "Ġodniesie": 4886,
    "Ġ70": 4887,
    "rowanie": 4888,
    "ĠÅĽmia": 4889,
    "Ġmogli": 4890,
    "Ġimieniu": 4891,
    "Ġczwar": 4892,
    "miny": 4893,
    "Ã³ry": 4894,
    "ĠSan": 4895,
    "Ġsztuki": 4896,
    "Ġdoktor": 4897,
    "Ġrozsze": 4898,
    "ĠOs": 4899,
    "wanych": 4900,
    "73": 4901,
    "usa": 4902,
    "ĠPaweÅĤ": 4903,
    "ĠplikÃ³w": 4904,
    "knÄħÅĤ": 4905,
    "Ġtymczasem": 4906,
    "czonego": 4907,
    "Ġalbu": 4908,
    "Spo": 4909,
    "Ġdoktora": 4910,
    "ĠOsta": 4911,
    "danych": 4912,
    "OM": 4913,
    "Ġprzypadkach": 4914,
    "Ġmedy": 4915,
    "Ġoferu": 4916,
    "Ġolbrzy": 4917,
    "wal": 4918,
    "rzÃ³d": 4919,
    "cyk": 4920,
    "stka": 4921,
    "ĠÅļrod": 4922,
    "ĠbezpoÅĽrednio": 4923,
    "ĠludnoÅĽci": 4924,
    "Ġtelewizyj": 4925,
    "ĠPoÅĤudni": 4926,
    "Ġostatnich": 4927,
    "niosÅĤa": 4928,
    "ĠswÄħ": 4929,
    "mieniem": 4930,
    "ĠdowÃ³d": 4931,
    "ĠJez": 4932,
    "Ġimienia": 4933,
    "ĠMarek": 4934,
    "ame": 4935,
    "Ġwywia": 4936,
    "Ġowo": 4937,
    "Ju": 4938,
    "ĠnaprawdÄĻ": 4939,
    "ĠGro": 4940,
    "Å¼nie": 4941,
    "kowo": 4942,
    "ĠÅĤaci": 4943,
    "ĠSzko": 4944,
    "Ġwiary": 4945,
    "Ru": 4946,
    "Ġpolicja": 4947,
    "Ġszer": 4948,
    "Ġlekar": 4949,
    "gÅĤÄĻ": 4950,
    "tymi": 4951,
    "Ġwspiera": 4952,
    "ĠmuszÄħ": 4953,
    "lum": 4954,
    "ĠpoÅĽre": 4955,
    "Ġprzygotowa": 4956,
    "Ġzmian": 4957,
    "Ġpolskiej": 4958,
    "Ġterytoria": 4959,
    "Ġobsza": 4960,
    "Ġanali": 4961,
    "Ġwraca": 4962,
    "Ġdobro": 4963,
    "ret": 4964,
    "ĠPrzez": 4965,
    "ĠpÃ³j": 4966,
    "ĠHiszpa": 4967,
    "letni": 4968,
    "ĠpieniÄħ": 4969,
    "dziela": 4970,
    "dÅĤuÅ¼": 4971,
    "Ġpusty": 4972,
    "ĠzuÅ¼y": 4973,
    "Ġniebo": 4974,
    "JeÅ¼eli": 4975,
    "sti": 4976,
    "dopodobnie": 4977,
    "Ġformie": 4978,
    "lizacji": 4979,
    "hy": 4980,
    "bory": 4981,
    "tyfi": 4982,
    "Ġata": 4983,
    "Ġinternet": 4984,
    "ĠdÅĤugie": 4985,
    "Cho": 4986,
    "ĠmusiaÅĤ": 4987,
    "Ġoczach": 4988,
    "ĠpÃ³ÅĤnocy": 4989,
    "ĠGu": 4990,
    "Ġdobra": 4991,
    "ÅĤuje": 4992,
    "Ġpokry": 4993,
    "rent": 4994,
    "ĠkrÄĻ": 4995,
    "stego": 4996,
    "Ġistnieje": 4997,
    "Ġkaza": 4998,
    "42": 4999,
    "ĠEUR": 5000,
    "Ġ2003": 5001,
    "gan": 5002,
    "Ġtur": 5003,
    "ĠÅ»e": 5004,
    "ÅĤat": 5005,
    "ĠciaÅĤa": 5006,
    "ĠSÄħd": 5007,
    "miec": 5008,
    "Â».": 5009,
    "Ġprezydenta": 5010,
    "dzili": 5011,
    "59": 5012,
    "czonym": 5013,
    "tia": 5014,
    "Ġtworzy": 5015,
    "kÅĤadni": 5016,
    "ana": 5017,
    "Ġofer": 5018,
    "ĠWoj": 5019,
    "Ġen": 5020,
    "sla": 5021,
    "ĠUSA": 5022,
    "cony": 5023,
    "Ġnadal": 5024,
    "Ġrzuca": 5025,
    "Ġnieraz": 5026,
    "ÅĽciami": 5027,
    "lak": 5028,
    "ĠpeÅĤni": 5029,
    "\")": 5030,
    "ĠgÅĤoÅĽ": 5031,
    "wagi": 5032,
    "Ġnasz": 5033,
    "dka": 5034,
    "ĠliczyÅĤa": 5035,
    "ĠCzÅĤowie": 5036,
    "piÄħ": 5037,
    "kazuje": 5038,
    "ÅĽÅĦ": 5039,
    "Ġmorza": 5040,
    "gre": 5041,
    "ĠWedÅĤug": 5042,
    "ĠTomasz": 5043,
    "ven": 5044,
    "Ġzasta": 5045,
    "Ġpracu": 5046,
    "Å¼ÄĻ": 5047,
    "ĠÅ»ycie": 5048,
    "ĠCar": 5049,
    "Ġkompozy": 5050,
    "ĠFor": 5051,
    "Ġznacznie": 5052,
    "ps": 5053,
    "Ġdoko": 5054,
    "Ġzorgani": 5055,
    "spi": 5056,
    "ĠJaku": 5057,
    "des": 5058,
    "ÈĻ": 5059,
    "Ġmm": 5060,
    "krai": 5061,
    "ĠZna": 5062,
    "mem": 5063,
    "ĠÅĽwi": 5064,
    "ĠpostaÄĩ": 5065,
    "ĠFranci": 5066,
    "Ġprzestrzeni": 5067,
    "Å¼ni": 5068,
    "landii": 5069,
    "ĠzespoÅĤu": 5070,
    "ĠGÃ³rna": 5071,
    "ĠzaczÄĻÅĤa": 5072,
    "Ġono": 5073,
    "nowaÅĤ": 5074,
    "niom": 5075,
    "czyÅĤo": 5076,
    "nce": 5077,
    "Ġemery": 5078,
    "Ġudziela": 5079,
    "Å¼nych": 5080,
    "ĠwÅĤÄħ": 5081,
    "ĠspÃ³ÅĤki": 5082,
    "71": 5083,
    "Me": 5084,
    "ĠNew": 5085,
    "Statkiem": 5086,
    "Ġâĺ": 5087,
    "zajem": 5088,
    "Ġkobieta": 5089,
    "Sy": 5090,
    "ieÅĦ": 5091,
    "Ġuz": 5092,
    "ĠdotÄħd": 5093,
    "ĠJÃ³ze": 5094,
    "ĠKor": 5095,
    "ĠkomÃ³r": 5096,
    "mai": 5097,
    "Ġpolska": 5098,
    "chunk": 5099,
    "Ġare": 5100,
    "okra": 5101,
    "fli": 5102,
    "Ðµ": 5103,
    "Ġato": 5104,
    "gru": 5105,
    "Ġwin": 5106,
    "ĠczasÃ³w": 5107,
    "ĠgwaÅĤ": 5108,
    "wien": 5109,
    "Ġmiast": 5110,
    "Ġdzielni": 5111,
    "ĠpodrÃ³Å¼y": 5112,
    "Ġodpar": 5113,
    "ĠGru": 5114,
    "mieÅĦ": 5115,
    "Ġkryty": 5116,
    "Ġwychowa": 5117,
    "rÃ³g": 5118,
    "Ġpodpisa": 5119,
    "widu": 5120,
    "ĠwspÃ³ÅĤpracy": 5121,
    "Ġzezwo": 5122,
    "kor": 5123,
    "ĠJacek": 5124,
    "Ġ2002": 5125,
    "Ġ2023": 5126,
    "mentar": 5127,
    "siej": 5128,
    "obo": 5129,
    "Ġwsta": 5130,
    "chan": 5131,
    "strzyma": 5132,
    "Usta": 5133,
    "Ġpublicznych": 5134,
    "ĠstaÅĤy": 5135,
    "ĠnajwaÅ¼": 5136,
    "Ġwymo": 5137,
    "Ġbrzmieniu": 5138,
    "Ġ{": 5139,
    "ĠcaÅĤa": 5140,
    "czyÅĤy": 5141,
    "ĠDzi": 5142,
    "Ġwierz": 5143,
    "Ġzi": 5144,
    "Ġniemal": 5145,
    "rasta": 5146,
    "ĠrÃ³wna": 5147,
    "hu": 5148,
    "ĠposÅĤÃ³w": 5149,
    "Ġobwodzie": 5150,
    "Urodzeni": 5151,
    "ĠwejÅĽcia": 5152,
    "ĠcaÅĤym": 5153,
    "wny": 5154,
    "rowaÄĩ": 5155,
    "Ġspostrze": 5156,
    "ĠrÄħ": 5157,
    "liÅĤa": 5158,
    "Ġswobo": 5159,
    "strzo": 5160,
    "ĠprzeÅĤo": 5161,
    "ĠspeÅĤnia": 5162,
    "Ġgrup": 5163,
    "Ġgospodarki": 5164,
    "Ġproduce": 5165,
    "ĠzaÅĤÄħcz": 5166,
    "Ġwersji": 5167,
    "WÅĤa": 5168,
    "Ġpojedyn": 5169,
    "ĠZÅĤo": 5170,
    "Ġzer": 5171,
    "ĠÅĽli": 5172,
    "gÅĤ": 5173,
    "ĠÅ¼yje": 5174,
    "biÃ³r": 5175,
    "Ġwarunkach": 5176,
    "gip": 5177,
    "para": 5178,
    "ĠMicha": 5179,
    "Ġdysku": 5180,
    "Ġkobiet": 5181,
    "nÄĻli": 5182,
    "orÄħ": 5183,
    "ĠTeraz": 5184,
    "daje": 5185,
    "Ġroze": 5186,
    "Ġrozm": 5187,
    "Ġabsolu": 5188,
    "ĠNor": 5189,
    "ĠHar": 5190,
    "Ġpowta": 5191,
    "ĠSza": 5192,
    "Ġostat": 5193,
    "Ġbe": 5194,
    "dale": 5195,
    "Ġumar": 5196,
    "ciÃ³ÅĤ": 5197,
    "Ġwypadku": 5198,
    "Ġodzy": 5199,
    "ĠgÅĤosÃ³w": 5200,
    "pela": 5201,
    "ĠwypÅĤa": 5202,
    "Ġekonomi": 5203,
    "Ġpartii": 5204,
    "ĠObra": 5205,
    "Ġwydaj": 5206,
    "ĠwyÅĽwiet": 5207,
    "ĠwielkÄħ": 5208,
    "ĠmojÄħ": 5209,
    "dziesiÄħ": 5210,
    "ĠÅĤaÅĦcu": 5211,
    "ĠzwierzÄĻ": 5212,
    "Ġzagra": 5213,
    "ĠFo": 5214,
    "Ġprezen": 5215,
    "Ġzestawienie": 5216,
    "Ġwynagrodzenia": 5217,
    "Ġatmos": 5218,
    "Ġpowinna": 5219,
    "ĠPer": 5220,
    "mian": 5221,
    "ĠchciaÅĤa": 5222,
    "Ġnaby": 5223,
    "ĠusÅĤy": 5224,
    "gne": 5225,
    "Przed": 5226,
    "ĠkrzyÅ¼": 5227,
    "ctwo": 5228,
    "ĠLud": 5229,
    "licza": 5230,
    "ĠwspÃ³ÅĤczes": 5231,
    "Ġustaw": 5232,
    "Ġteren": 5233,
    "ĠwiÄĻkszoÅĽci": 5234,
    "ĠWielkiej": 5235,
    "ĠWikipedii": 5236,
    "Ġnauki": 5237,
    "kaÅĤ": 5238,
    "ĠwiedziaÅĤ": 5239,
    "Mu": 5240,
    "nieniem": 5241,
    "Ġdrzew": 5242,
    "ĠusÅĤugi": 5243,
    "90": 5244,
    "Ġkomisji": 5245,
    "62": 5246,
    "ĠosiÄħg": 5247,
    "sora": 5248,
    "tfor": 5249,
    "ĠZwyciÄĻ": 5250,
    "Ġwygenerowane": 5251,
    "ĠOto": 5252,
    "Ġmego": 5253,
    "ĠdaÅĤ": 5254,
    "ĠStu": 5255,
    "Ġtema": 5256,
    "ĠZo": 5257,
    "Ġakademi": 5258,
    "ĠpoÅĤÄħczenia": 5259,
    "Ġ[]": 5260,
    "rologi": 5261,
    "Ġdrugim": 5262,
    "Ġnowego": 5263,
    "Ġzadania": 5264,
    "Ġintere": 5265,
    "ĠPowie": 5266,
    "ĠÅ¼yÄĩ": 5267,
    "lnia": 5268,
    "ĠmÄħd": 5269,
    "Ġniewo": 5270,
    "ĠpodjÄĻ": 5271,
    "czono": 5272,
    "ĠksiÄĻcia": 5273,
    "ĠwiÄĻkszoÅĽÄĩ": 5274,
    "Ġmora": 5275,
    "Ġartysty": 5276,
    "Ġ33": 5277,
    "64": 5278,
    "Ġopubli": 5279,
    "Ġ000": 5280,
    "ĠFlor": 5281,
    "Ġ2001": 5282,
    "ĠiÅĽÄĩ": 5283,
    "ĠwidaÄĩ": 5284,
    "Ġnajp": 5285,
    "Ġdroga": 5286,
    "tli": 5287,
    "noty": 5288,
    "Ġzaopa": 5289,
    "ĠdruÅ¼y": 5290,
    "Ġterminie": 5291,
    "ĠplacÃ³w": 5292,
    "gaÅ¼": 5293,
    "68": 5294,
    "ĠuzyskaÅĤ": 5295,
    "ĠdziesiÄĻ": 5296,
    "Å¼ek": 5297,
    "Ġglo": 5298,
    "Ġopisa": 5299,
    "Ġmas": 5300,
    "Ġwyje": 5301,
    "ĠmÄĻÅ¼a": 5302,
    "Ġ32": 5303,
    "Ġlit": 5304,
    "ĠPart": 5305,
    "Ġkonkre": 5306,
    "Ġaler": 5307,
    "Wsie": 5308,
    "towaÅĤ": 5309,
    "piÄĩ": 5310,
    "ĠcaÅĤego": 5311,
    "Ġdrzewa": 5312,
    "ĠznalazÅĤ": 5313,
    "zÄħ": 5314,
    "Ġpogo": 5315,
    "Ġoczeki": 5316,
    "Go": 5317,
    "ĠpojazdÃ³w": 5318,
    "gno": 5319,
    "Ġterro": 5320,
    "Ġliczb": 5321,
    "Ġ2007": 5322,
    "ĠnoÅ¼na": 5323,
    "ĠdÅºwiÄĻ": 5324,
    "rzeniu": 5325,
    "ĠnieruchomoÅĽci": 5326,
    "77": 5327,
    "Odznaczeni": 5328,
    "Ġy": 5329,
    "ĠniektÃ³re": 5330,
    "szone": 5331,
    "ĠAmery": 5332,
    "ĠproszÄĻ": 5333,
    "ĠwysÅĤa": 5334,
    "Ġprzypomina": 5335,
    "ĠBez": 5336,
    "nos": 5337,
    "ĠwarunkÃ³w": 5338,
    "mor": 5339,
    "ĠogÃ³lnego": 5340,
    "kracza": 5341,
    "Ġ90": 5342,
    "Ġuzasa": 5343,
    "dowanie": 5344,
    "sona": 5345,
    "ĠMaria": 5346,
    "Ġwyrzu": 5347,
    "Ġtrzeci": 5348,
    "Ġpytania": 5349,
    "Ġgroma": 5350,
    "dnÄħ": 5351,
    "Ġdrugiego": 5352,
    "Ġprzynajmniej": 5353,
    "ĠmoÅ¼emy": 5354,
    "Ġpublicznej": 5355,
    "ĠWydaw": 5356,
    "Ġzapytanie": 5357,
    "Ġjeno": 5358,
    "Ġtempera": 5359,
    "ĠTraktatu": 5360,
    "ĠInter": 5361,
    "Åį": 5362,
    "lsowie": 5363,
    "iÄĻkujÄĻ": 5364,
    "Ġblisko": 5365,
    "ĠwchodzÄħ": 5366,
    "Ġrozmawia": 5367,
    "Ġzamiast": 5368,
    "Ġinni": 5369,
    "ĠkrÃ³le": 5370,
    "Ġniewiel": 5371,
    "ĠwÅĤasne": 5372,
    "Ġkana": 5373,
    "bin": 5374,
    "Ġchro": 5375,
    "EC": 5376,
    "dol": 5377,
    "86": 5378,
    "ĠSena": 5379,
    "ĠodpowiedzialnoÅĽci": 5380,
    "ĠProkura": 5381,
    "Ġparla": 5382,
    "2024": 5383,
    "Ġscho": 5384,
    "Ġprawda": 5385,
    "Ġfe": 5386,
    "Ġgospo": 5387,
    "ĠÅĽrÃ³d": 5388,
    "ĠPolskiego": 5389,
    "lkoho": 5390,
    "ĠspoÅĤeczeÅĦstwa": 5391,
    "Ġwsi": 5392,
    "ĠmaÅĤy": 5393,
    "rabia": 5394,
    "ĠmaÅĤe": 5395,
    "Ġoku": 5396,
    "Ġsercu": 5397,
    "Ġskle": 5398,
    "ĠgÅĤa": 5399,
    "Ġznajo": 5400,
    "Ġinstru": 5401,
    "ĠnastÄĻpuje": 5402,
    "tacja": 5403,
    "ris": 5404,
    "zwa": 5405,
    "ĠwystÄħpie": 5406,
    "ĠSejmu": 5407,
    "media": 5408,
    "ĠAna": 5409,
    "Ġoficja": 5410,
    "Ġ1999": 5411,
    "ĠGeografia": 5412,
    "ĠdÄħ": 5413,
    "Ġutra": 5414,
    "ÅĤki": 5415,
    "ĠporzÄħdku": 5416,
    "ĠTam": 5417,
    "Ġporusza": 5418,
    "ĠprzeksztaÅĤ": 5419,
    "Au": 5420,
    "Ð¸": 5421,
    "Ġwez": 5422,
    "tÃ³Å¼": 5423,
    "podleg": 5424,
    "Ġzasadach": 5425,
    "sar": 5426,
    "ĠzarzÄħdza": 5427,
    "Å¼onego": 5428,
    "ĠumiejÄĻ": 5429,
    "ĠoÅĽrod": 5430,
    "ĠbadaÅĦ": 5431,
    "ĠprzysÅĤuguje": 5432,
    "ĠMan": 5433,
    "ĠKle": 5434,
    "sche": 5435,
    "Ġcodzie": 5436,
    "Ġcztere": 5437,
    "Kiedy": 5438,
    "Ġdodaje": 5439,
    "rzony": 5440,
    "Ġinnej": 5441,
    "cznik": 5442,
    "dowi": 5443,
    "ĠspytaÅĤ": 5444,
    "duk": 5445,
    "cyjnÄħ": 5446,
    "kwa": 5447,
    "ĠwschÃ³d": 5448,
    "Ġpowstania": 5449,
    "spÃ³l": 5450,
    "Ġinsta": 5451,
    "ceÅĦ": 5452,
    "79": 5453,
    "Ġtramwaj": 5454,
    "Ġubra": 5455,
    "Ġmro": 5456,
    "rzone": 5457,
    "ĠmiÅĤo": 5458,
    "ĠTra": 5459,
    "ĠQu": 5460,
    "grzy": 5461,
    "dziÅĤo": 5462,
    "Ġponi": 5463,
    "Ludzie": 5464,
    "gdyÅĽ": 5465,
    "rzego": 5466,
    "ĠokreÅĽli": 5467,
    "Sa": 5468,
    "staw": 5469,
    "ĠIV": 5470,
    "ĠSÄħdu": 5471,
    "nima": 5472,
    "Ġdobry": 5473,
    "ĠPodczas": 5474,
    "ĠmÃ³wiÄħ": 5475,
    "Ġchwy": 5476,
    "ĠmÃ³wiÅĤa": 5477,
    "ĠpieniÄħdze": 5478,
    "nÃ³": 5479,
    "pisz": 5480,
    "ĠdrogÄħ": 5481,
    "Ġbibliote": 5482,
    "Ġpola": 5483,
    "Ġpierwszych": 5484,
    "ĠMiÄĻdzy": 5485,
    "nin": 5486,
    "nieÅĦ": 5487,
    "ĠwskaÅº": 5488,
    "Ġkadencji": 5489,
    "Ġmedia": 5490,
    "Â°": 5491,
    "uth": 5492,
    "px": 5493,
    "ĠZdrowie": 5494,
    "ĠtytuÅĤ": 5495,
    "ĠOt": 5496,
    "ĠJuÅ¼": 5497,
    "Ġfar": 5498,
    "ĠstÄħd": 5499,
    "ĠwÅĤasnych": 5500,
    "Ã³dÅº": 5501,
    "ĠroÅĽlin": 5502,
    "owcy": 5503,
    "loka": 5504,
    "Ġprywaty": 5505,
    "ĠposzczegÃ³lnych": 5506,
    "ĠJadwi": 5507,
    "RR": 5508,
    "Ġ(...": 5509,
    "ĠKlimat": 5510,
    "Ġâĺı": 5511,
    "caÅĤ": 5512,
    "ĠkoÅĽcie": 5513,
    "Ġtyp": 5514,
    "rop": 5515,
    "Ġlekko": 5516,
    "Ġarchitek": 5517,
    "Ġobejmuje": 5518,
    "ĠmajÄħcych": 5519,
    "85": 5520,
    "43": 5521,
    "ĠBel": 5522,
    "ĠObrachunk": 5523,
    "ĠPort": 5524,
    "Ġwydaje": 5525,
    "ĠskÄħd": 5526,
    "szyÅĤa": 5527,
    "Ġpodda": 5528,
    "ĠwdziÄĻ": 5529,
    "ĠszczÄĻÅĽcie": 5530,
    "miu": 5531,
    "unki": 5532,
    "ĠkrÃ³tko": 5533,
    "Ġprzer": 5534,
    "stki": 5535,
    "ĠnarzÄĻ": 5536,
    "Ġalfa": 5537,
    "nera": 5538,
    "pow": 5539,
    "!Â»": 5540,
    "ĠTeat": 5541,
    "Ġcharakterze": 5542,
    "ĠudziaÅĤu": 5543,
    "ght": 5544,
    "Ġindywidu": 5545,
    "Ġteorii": 5546,
    "Ġprzebiega": 5547,
    "Ġrzad": 5548,
    "niÄĻty": 5549,
    "lon": 5550,
    "ĠwkrÃ³tce": 5551,
    "Ġspi": 5552,
    "Ġkrwi": 5553,
    "ĠzastÄĻp": 5554,
    "ĠprzesyÅĤa": 5555,
    "Ġteatra": 5556,
    "zdu": 5557,
    "Ġuchyla": 5558,
    "ono": 5559,
    "56": 5560,
    "ĠBI": 5561,
    "dt": 5562,
    "Nek": 5563,
    "lot": 5564,
    "mujÄħc": 5565,
    "leni": 5566,
    "mentem": 5567,
    "naÅĽcie": 5568,
    "strza": 5569,
    "ĠciaÅĤo": 5570,
    "Ġnadzwyczaj": 5571,
    "Ã³ki": 5572,
    "ĠRi": 5573,
    "pierw": 5574,
    "Ġprzyjem": 5575,
    "ÅĦczy": 5576,
    "tes": 5577,
    "miera": 5578,
    "red": 5579,
    "ĠogÃ³": 5580,
    "Ġ1982": 5581,
    "89": 5582,
    "Ġponownie": 5583,
    "Ġzmarli": 5584,
    "ĠNatomiast": 5585,
    "ĠĠĠĠĠĠĠ": 5586,
    "Nekrologi": 5587,
    "Ġow": 5588,
    "niejszym": 5589,
    "Ġzaku": 5590,
    "Å¼aÅĤa": 5591,
    "ĠpoÅĤudnie": 5592,
    "leniu": 5593,
    "niÄĻcie": 5594,
    "ĠskrzydÅĤa": 5595,
    "ĠnazwÄĻ": 5596,
    "ĠKan": 5597,
    "niona": 5598,
    "Ġinfor": 5599,
    "ĠCentra": 5600,
    "ĠPaÅĦstw": 5601,
    "Funk": 5602,
    "Ġurlopu": 5603,
    "ĠTransport": 5604,
    "ĠLin": 5605,
    "rozo": 5606,
    "Ġspyta": 5607,
    "ĠpatrzÄħc": 5608,
    "rodÄĻ": 5609,
    "Åºli": 5610,
    "tam": 5611,
    "ĠurzÄĻ": 5612,
    "ĠByÅĤa": 5613,
    "ĠsprzÄĻ": 5614,
    "toÅĽÄĩ": 5615,
    "Ġspotkania": 5616,
    "rena": 5617,
    "Ġtrakt": 5618,
    "Ġzapowie": 5619,
    "ÅĤÄĻd": 5620,
    "Ġwniosku": 5621,
    "ĠmateriaÅĤÃ³w": 5622,
    "Ġdeleg": 5623,
    "Ð½": 5624,
    "Ġdaje": 5625,
    "chÃ³w": 5626,
    "wedz": 5627,
    "snÄħÅĤ": 5628,
    "Ġchmu": 5629,
    "ĠbyÅĤem": 5630,
    "vo": 5631,
    "gier": 5632,
    "Ġodez": 5633,
    "szty": 5634,
    "Ġmuzyki": 5635,
    "Ġ190": 5636,
    "Ġwymiaru": 5637,
    "Ġbadania": 5638,
    "ĠAm": 5639,
    "Ġeli": 5640,
    "ĠIra": 5641,
    "PiÅĤka": 5642,
    "tÅĤu": 5643,
    "Ġkogo": 5644,
    "ĠÄĩ": 5645,
    "ĠmogÅĤy": 5646,
    "ĠliÅĽcie": 5647,
    "Ġzwyczaj": 5648,
    "mion": 5649,
    "ĠrÃ³": 5650,
    "Ġczemu": 5651,
    "Ġwyobra": 5652,
    ".),": 5653,
    "fel": 5654,
    "ĠmaÅĤÅ¼e": 5655,
    "Ġuposa": 5656,
    "Ġprojek": 5657,
    "Ġcentra": 5658,
    "ĠKomite": 5659,
    "Ġ2015": 5660,
    "ph": 5661,
    "Ġsielsowie": 5662,
    "Ġdyrektor": 5663,
    "ĠGar": 5664,
    "obi": 5665,
    "Ġpanem": 5666,
    "Ġwil": 5667,
    "Ġuwie": 5668,
    "Ġpotrafi": 5669,
    "Ġodej": 5670,
    "mowaÄĩ": 5671,
    "Ġtrwo": 5672,
    "towane": 5673,
    "AN": 5674,
    "owem": 5675,
    "owska": 5676,
    "Wa": 5677,
    "Ġkatego": 5678,
    "Ġterytorium": 5679,
    "ologi": 5680,
    "Ġapli": 5681,
    "Ġrejo": 5682,
    "ĠpoÅĤowie": 5683,
    "byÅĽ": 5684,
    "Ġpas": 5685,
    "ĠmyÅĽlÄħ": 5686,
    "Ġcha": 5687,
    "Ġnowej": 5688,
    "Ġgrzy": 5689,
    "Ġwiedzy": 5690,
    "Ġgatu": 5691,
    "ĠobowiÄħzkÃ³w": 5692,
    "ĠGrani": 5693,
    "tencja": 5694,
    "EJ": 5695,
    "ĠKatowi": 5696,
    "Ġmal": 5697,
    "ĠwidzÄĻ": 5698,
    "cina": 5699,
    "twiera": 5700,
    "Ġstoi": 5701,
    "Ġnazwy": 5702,
    "dowaÄĩ": 5703,
    "giÄĻ": 5704,
    "Ġburmi": 5705,
    "Ġ80": 5706,
    "Ġ34": 5707,
    "ĠAuto": 5708,
    "szczenie": 5709,
    "ĠStanisÅĤaw": 5710,
    "Ġprezesa": 5711,
    "erson": 5712,
    "RC": 5713,
    "lome": 5714,
    "âĨĳ": 5715,
    "ĠKsiÄĻÅ¼ycu": 5716,
    "dzona": 5717,
    "ĠgÃ³rÄĻ": 5718,
    "ĠstÃ³": 5719,
    "Ġuni": 5720,
    "Ġskierowa": 5721,
    "ĠwywoÅĤa": 5722,
    "tarzy": 5723,
    "Å¼on": 5724,
    "Ġzaby": 5725,
    "Ġpracowni": 5726,
    "Ġloty": 5727,
    "WedÅĤug": 5728,
    "QL": 5729,
    "ĠwyciÄħg": 5730,
    "Ġtrafi": 5731,
    "ĠTym": 5732,
    "ĠjakÄħÅĽ": 5733,
    "Ġrozpozna": 5734,
    "72": 5735,
    "genty": 5736,
    "Ġtryb": 5737,
    "kowania": 5738,
    "Ġproces": 5739,
    "Ġzasadni": 5740,
    "Ġorganu": 5741,
    "Ġuzu": 5742,
    "Ġalkoho": 5743,
    "Ġgrafi": 5744,
    "KrakÃ³w": 5745,
    "Ġabor": 5746,
    "ĠwzdÅĤuÅ¼": 5747,
    "unkÃ³w": 5748,
    "Ġpodobnie": 5749,
    "ĠTrzeba": 5750,
    "Ġdotk": 5751,
    "pach": 5752,
    "ium": 5753,
    "Ġwszech": 5754,
    "hel": 5755,
    "zowane": 5756,
    "Ġustawie": 5757,
    "Ġinteres": 5758,
    "Ġprezydent": 5759,
    "Ġrejonie": 5760,
    "ĠszkÃ³ÅĤ": 5761,
    "dÅĤem": 5762,
    "Ġjakich": 5763,
    "zeum": 5764,
    "rzÄħt": 5765,
    "cielem": 5766,
    "towany": 5767,
    "gni": 5768,
    "leÄĩ": 5769,
    "Ġmorze": 5770,
    "ĠTowarzy": 5771,
    "Ġste": 5772,
    "Ġredak": 5773,
    "ĠtreÅĽci": 5774,
    "51": 5775,
    "Ġkomple": 5776,
    "74": 5777,
    "lizm": 5778,
    "Ġargu": 5779,
    "ĠJam": 5780,
    "lecia": 5781,
    "Ġmoich": 5782,
    "rzeniem": 5783,
    "Ġwzrost": 5784,
    "ĠbÃ³": 5785,
    "Ġwst": 5786,
    "cier": 5787,
    "Ġdlaczego": 5788,
    "Ġzanie": 5789,
    "niÄĻcia": 5790,
    "ĠpieÅĽni": 5791,
    "fil": 5792,
    "Ry": 5793,
    "ĠEd": 5794,
    "ĠÅĽrodowiska": 5795,
    "ĠwyborÃ³w": 5796,
    "Ġskon": 5797,
    "ĠprawidÅĤ": 5798,
    "SS": 5799,
    "2018": 5800,
    "Ġczterech": 5801,
    "sÄħ": 5802,
    "zÄĻ": 5803,
    "Ġwojnie": 5804,
    "Ġramiona": 5805,
    "ĠzdobyÅĤ": 5806,
    "dnych": 5807,
    "Ã³c": 5808,
    "dziÅĤy": 5809,
    "ntu": 5810,
    "kreÅĽ": 5811,
    "Ġstre": 5812,
    "id": 5813,
    "52": 5814,
    "69": 5815,
    "wans": 5816,
    "ĠBole": 5817,
    "sztof": 5818,
    "Ġanarchi": 5819,
    "ĠpiÄħ": 5820,
    "ĠCieka": 5821,
    "ĠpieniÄĻdzy": 5822,
    "dan": 5823,
    "ĠsÄħsie": 5824,
    "Ġdum": 5825,
    "ĠkoÅĽcioÅĤa": 5826,
    "zosta": 5827,
    "ÅĽrod": 5828,
    "1989": 5829,
    "Ġmetody": 5830,
    "Ġchemi": 5831,
    "Ġinstruk": 5832,
    "Ġpojawia": 5833,
    "ĠFilm": 5834,
    "ĠWikidanych": 5835,
    "Â²": 5836,
    "Ġzapisa": 5837,
    "Ġnaszym": 5838,
    "Ġdzisiej": 5839,
    "ĠwziÄħÅĤ": 5840,
    "Ġzamieszka": 5841,
    "ĠÅĤÃ³Å¼": 5842,
    "ĠBru": 5843,
    "gli": 5844,
    "Å¼egna": 5845,
    "Ġbisku": 5846,
    "Ġzajmowa": 5847,
    "Ġgen": 5848,
    "Ġgwiazd": 5849,
    "dniesie": 5850,
    "Ġfirmy": 5851,
    "ÅĤoru": 5852,
    "ĠEin": 5853,
    "ĠSPAR": 5854,
    "chco": 5855,
    "ĠwieczÃ³r": 5856,
    "Ġbru": 5857,
    "Ġkrwa": 5858,
    "ĠwyrÃ³Å¼": 5859,
    "ĠrÄĻki": 5860,
    "ĠbyÅĤoby": 5861,
    "Ġlos": 5862,
    "Ġformy": 5863,
    "Prawo": 5864,
    "ĠBrytanii": 5865,
    "ÃŁ": 5866,
    "ĠSPARQL": 5867,
    "Ġzdaje": 5868,
    "gina": 5869,
    "Ġzaa": 5870,
    "ĠoglÄħda": 5871,
    "leÅ¼y": 5872,
    "mimo": 5873,
    "ĠposÅĤu": 5874,
    "kÅĤadnie": 5875,
    "Ġwojska": 5876,
    "kowanie": 5877,
    "Ġministra": 5878,
    "Ġdziedzinie": 5879,
    "rganiza": 5880,
    "Ġiden": 5881,
    "88": 5882,
    "zowany": 5883,
    "Ġ2021": 5884,
    "Ġx": 5885,
    "ĠOrder": 5886,
    "ĠÅĤy": 5887,
    "ĠudaÅĤo": 5888,
    "staÄĩ": 5889,
    "ĠCÃ³Å¼": 5890,
    "wiÅĤy": 5891,
    "ĠÅĤatwo": 5892,
    "ĠInstytu": 5893,
    "ĠinÅ¼ynie": 5894,
    "Ġrodzin": 5895,
    "Ġprawdopodobnie": 5896,
    "ĠsprawÄĻ": 5897,
    "EM": 5898,
    "Ġzmianie": 5899,
    "tyczna": 5900,
    "ĠurzÄħdzeÅĦ": 5901,
    "ĠKoÅĽcio": 5902,
    "Ġelektro": 5903,
    "100": 5904,
    "Ġkonstruk": 5905,
    "ĠTrybunaÅĤ": 5906,
    "âīĪâīĪ": 5907,
    "Ġwprost": 5908,
    "ĠÅĤzy": 5909,
    "owca": 5910,
    "Ġpozytyw": 5911,
    "ĠniegdyÅĽ": 5912,
    "Ġpoczu": 5913,
    "wnie": 5914,
    "ST": 5915,
    "Ġliczne": 5916,
    "dniÄħ": 5917,
    "Ge": 5918,
    "tysty": 5919,
    "Ġemis": 5920,
    "Ġbazy": 5921,
    "rosÅĤaw": 5922,
    "Ġfilmu": 5923,
    "Ġwzru": 5924,
    "Ġocho": 5925,
    "niejsza": 5926,
    "Ġkor": 5927,
    "ĠkÅĤa": 5928,
    "ĠtowarÃ³w": 5929,
    "Ġmocno": 5930,
    "skry": 5931,
    "ĠÅ¼Ã³ÅĤ": 5932,
    "Ġzdra": 5933,
    "ĠWyso": 5934,
    "Ġszpita": 5935,
    "Ġwskazu": 5936,
    "Ġcelem": 5937,
    "ine": 5938,
    "ĠkrÄħ": 5939,
    "Ġwynik": 5940,
    "ĠsprzedaÅ¼y": 5941,
    "tykuÅĤ": 5942,
    "staura": 5943,
    "ley": 5944,
    "AmerykaÅĦscy": 5945,
    "sna": 5946,
    "ĠtwÃ³j": 5947,
    "Ġniewi": 5948,
    "Jako": 5949,
    "piÅĤ": 5950,
    "Ġwysoko": 5951,
    "Ġzmu": 5952,
    "rzÄĻdzie": 5953,
    "Ġopiera": 5954,
    "chnia": 5955,
    "ĠzasiÄĻ": 5956,
    "Ġpowietrz": 5957,
    "Ġpoziomu": 5958,
    "Ġzakresu": 5959,
    "Ġprzyrody": 5960,
    "Lo": 5961,
    "Polityka": 5962,
    "ĠEmac": 5963,
    "ĠobojÄĻ": 5964,
    "Ġzielo": 5965,
    "kowÄħ": 5966,
    "Ġdyplo": 5967,
    "Ġpowietrze": 5968,
    "ĠÅ¼ona": 5969,
    "ĠÅ¼adnej": 5970,
    "ĠrozpoczÄħÅĤ": 5971,
    "jny": 5972,
    "lica": 5973,
    "Niech": 5974,
    "Ġzako": 5975,
    "danie": 5976,
    "ĠwystÄĻpuje": 5977,
    "chowy": 5978,
    "ĠWÄĻ": 5979,
    "ĠRP": 5980,
    "ĠFTP": 5981,
    "Ġludu": 5982,
    "Ġzobaczy": 5983,
    "Ġprosto": 5984,
    "Ġoczu": 5985,
    "dnej": 5986,
    "Ġnaraz": 5987,
    "Ġstraszli": 5988,
    "str": 5989,
    "ent": 5990,
    "ĠÅĽwiatÅĤa": 5991,
    "Dzien": 5992,
    "Ġobja": 5993,
    "ĠPara": 5994,
    "ĠAng": 5995,
    "kÅĤadem": 5996,
    "lta": 5997,
    "Ġnaci": 5998,
    "ĠzachÃ³d": 5999,
    "Ġplanu": 6000,
    "ĠRadzie": 6001,
    "Ġwice": 6002,
    "ĠrzÄħdu": 6003,
    "Ġprocedu": 6004,
    "ĠLondynie": 6005,
    "Ser": 6006,
    "ktor": 6007,
    "Ġobszar": 6008,
    "kowany": 6009,
    "trzeÄĩ": 6010,
    "Ze": 6011,
    "die": 6012,
    "nau": 6013,
    "nikami": 6014,
    "Ġdoskona": 6015,
    "Ġogar": 6016,
    "sno": 6017,
    "ĠdÅĤuÅ¼": 6018,
    "ĠRÃ³w": 6019,
    "Ġopro": 6020,
    "ĠpunktÃ³w": 6021,
    "ĠpoÅĤoÅ¼one": 6022,
    "ĠkosztÃ³w": 6023,
    "Ġindywidual": 6024,
    "Ġ1945": 6025,
    "Ġkos": 6026,
    "angaÅ¼": 6027,
    "ramach": 6028,
    "Ġfilmy": 6029,
    "ĠSam": 6030,
    "Ġtobie": 6031,
    "ĠgdzieÅĽ": 6032,
    "ĠÅĽwiatÅĤo": 6033,
    "twy": 6034,
    "Ġrazu": 6035,
    "skÄĻ": 6036,
    "tacza": 6037,
    "Ġstawia": 6038,
    "Ġpomie": 6039,
    "ĠwiÄĻzie": 6040,
    "Ġsame": 6041,
    "Przez": 6042,
    "KrÃ³": 6043,
    "faÅĤ": 6044,
    "ĠuÅ¼yÄĩ": 6045,
    "lowa": 6046,
    "ĠstaroÅ¼y": 6047,
    "ĠpaÅĦstwowych": 6048,
    "ĠsÄħdÃ³w": 6049,
    "ĠwÅĤaÅĽciwoÅĽci": 6050,
    "dukacji": 6051,
    "ĠKomisjÄĻ": 6052,
    "Ġtechno": 6053,
    "Ġpotencja": 6054,
    "Ġprezes": 6055,
    "spe": 6056,
    "goryt": 6057,
    "Ñģ": 6058,
    "ĠHitchco": 6059,
    "Ġtymi": 6060,
    "ĠktÃ³rymi": 6061,
    "Ġtabli": 6062,
    "piÄĻ": 6063,
    "ĠwokÃ³ÅĤ": 6064,
    "niaÅĤ": 6065,
    "Dla": 6066,
    "Ġasy": 6067,
    "czÄħce": 6068,
    "Ġmode": 6069,
    "dziaÅĤÃ³w": 6070,
    "ĠwrÄĻ": 6071,
    "Ġregular": 6072,
    "Ġmiesza": 6073,
    "ĠwÅĤasnoÅĽÄĩ": 6074,
    "Ġszereg": 6075,
    "ĠSztu": 6076,
    "nel": 6077,
    "lory": 6078,
    "Ġtygodni": 6079,
    "ĠEuropie": 6080,
    "ĠIr": 6081,
    "zowanych": 6082,
    "Ġgmin": 6083,
    "Ġpoziomie": 6084,
    "ĠzespÃ³ÅĤ": 6085,
    "ĠKazi": 6086,
    "tuga": 6087,
    "odniesie": 6088,
    "Ġbakte": 6089,
    "shi": 6090,
    "ĠpomyÅĽla": 6091,
    "Ġnogi": 6092,
    "De": 6093,
    "lepiej": 6094,
    "Ġfanta": 6095,
    "kimi": 6096,
    "ĠporÃ³wna": 6097,
    "mowania": 6098,
    "Ġnieba": 6099,
    "Ġpewnym": 6100,
    "Ġodzna": 6101,
    "ĠMoÅ¼na": 6102,
    "owu": 6103,
    "Ġpali": 6104,
    "tycznym": 6105,
    "Ġwychowaw": 6106,
    "Ġdokumenta": 6107,
    "ĠKontro": 6108,
    "Ġ()": 6109,
    "zek": 6110,
    "rÃ³ciÅĤa": 6111,
    "Ġwielkim": 6112,
    "Zmar": 6113,
    "ĠdrugÄħ": 6114,
    "Ġprzechodzi": 6115,
    "dania": 6116,
    "szeniu": 6117,
    "ĠwystÄħpi": 6118,
    "ctwem": 6119,
    "Ġpasa": 6120,
    "tycznÄħ": 6121,
    "ĠrÃ³wnowa": 6122,
    "Ġpolskim": 6123,
    "Ġprzepisach": 6124,
    "chrony": 6125,
    "Ġzwolnie": 6126,
    "ksyma": 6127,
    "ĠuÅ¼ytkownika": 6128,
    "ĠStraÅ¼y": 6129,
    "Ġmanda": 6130,
    "rÃ³wnowa": 6131,
    "ĠDi": 6132,
    "Ġnazywa": 6133,
    "kowaÅĤ": 6134,
    "ĠoÅĤ": 6135,
    "Ġznak": 6136,
    "trzeb": 6137,
    "mysÅĤu": 6138,
    "Ġchi": 6139,
    "ĠNastÄĻpnie": 6140,
    "gazy": 6141,
    "ĠwaÅ¼ne": 6142,
    "ĠwÅĤad": 6143,
    "58": 6144,
    "Ġwykonywania": 6145,
    "Ġpodstawowych": 6146,
    "Ġdystry": 6147,
    "odniesieniu": 6148,
    "ĠpoÅĤudniowo": 6149,
    "ĠrÄĻkÄħ": 6150,
    "tno": 6151,
    "ĠwszedÅĤ": 6152,
    "ĠprzyjaciÃ³ÅĤ": 6153,
    "Ġprzera": 6154,
    "Ġbrzegu": 6155,
    "Ġoby": 6156,
    "stoÅĽÄĩ": 6157,
    "mami": 6158,
    "PL": 6159,
    "Ġherba": 6160,
    "tyfika": 6161,
    "ĠgÅĤosowania": 6162,
    "czoÅĽÄĩ": 6163,
    "ĠRegu": 6164,
    "ezpieczeÅĦstwa": 6165,
    "ĠzaangaÅ¼": 6166,
    "ÑĢ": 6167,
    "Ġary": 6168,
    "gosÅĤa": 6169,
    "niÅĤo": 6170,
    "Ġstopni": 6171,
    "Ġpospoli": 6172,
    "ĠjesteÅĽmy": 6173,
    "Zna": 6174,
    "towanie": 6175,
    "Ġbraku": 6176,
    "Ġder": 6177,
    "ĠogÃ³lne": 6178,
    "Ġpublicznego": 6179,
    "ĠUrzÄĻdu": 6180,
    "ĠCentrum": 6181,
    "ĠBezpieczeÅĦstwa": 6182,
    "ML": 6183,
    "bla": 6184,
    "Pe": 6185,
    "Ġubo": 6186,
    "ĠnÄĻ": 6187,
    "ĠszczÄĻÅĽcia": 6188,
    "ĠzapÅĤa": 6189,
    "ĠÅ¼adnego": 6190,
    "Ġzaledwie": 6191,
    "Å¼ar": 6192,
    "niego": 6193,
    "ĠsÅĤod": 6194,
    "strzega": 6195,
    "Ġobywatel": 6196,
    "Ġspotyka": 6197,
    "ĠukÅĤada": 6198,
    "Ġserwe": 6199,
    "ĠKsiÄĻÅ¼yc": 6200,
    "Gra": 6201,
    "Ġemeryta": 6202,
    "Ġfunkcje": 6203,
    "ĠFundu": 6204,
    "ĠUrzÄĻd": 6205,
    "Ġstosowania": 6206,
    "tus": 6207,
    "ĠÅģo": 6208,
    "ĠnajczÄĻÅĽciej": 6209,
    "Ġ'": 6210,
    "ĠEn": 6211,
    "Ġrock": 6212,
    "Ġpil": 6213,
    "cymi": 6214,
    "ĠkawaÅĤ": 6215,
    "Ġlisty": 6216,
    "ĠobowiÄħzek": 6217,
    "Ġzwro": 6218,
    "Ġwydo": 6219,
    "Ġoperacji": 6220,
    "tnoÅĽÄĩ": 6221,
    "Bu": 6222,
    "Ġpropozy": 6223,
    "Ġniniejszego": 6224,
    "Ho": 6225,
    "Ġ417": 6226,
    "koju": 6227,
    "Ġserde": 6228,
    "Ġswym": 6229,
    "Ġszlachet": 6230,
    "ĠbÄĻdziesz": 6231,
    "Ġpozycji": 6232,
    "skimi": 6233,
    "Ġrzecze": 6234,
    "tual": 6235,
    "Ġwskazano": 6236,
    "ĠproÅĽ": 6237,
    "Ġram": 6238,
    "ĠczÄĻÅĽciÄħ": 6239,
    "fr": 6240,
    "deksu": 6241,
    "RozdziaÅĤ": 6242,
    "ĠFinans": 6243,
    "Ġdyspo": 6244,
    "Ġuprawnienia": 6245,
    "SKI": 6246,
    "Ġrezerwa": 6247,
    "Ġrela": 6248,
    "unt": 6249,
    "ecnie": 6250,
    "ĠgÅĤowie": 6251,
    "ĠspÄĻ": 6252,
    "czoraj": 6253,
    "ĠpowstaÅĤ": 6254,
    "iÅĤ": 6255,
    "Ten": 6256,
    "ĠÄ": 6257,
    "szar": 6258,
    "Ġkoro": 6259,
    "Ġchoroby": 6260,
    "ĠÅ¼adnych": 6261,
    "Ġzba": 6262,
    "groda": 6263,
    "ĠKur": 6264,
    "ĠMÅĤo": 6265,
    "Ġstudia": 6266,
    "Ġwspomnia": 6267,
    "Ġlikwi": 6268,
    "ĠspoÅĤecznych": 6269,
    "Ġaresz": 6270,
    "ĠspoÅĤecznego": 6271,
    "ĠRuch": 6272,
    "ĠBro": 6273,
    "ĠPark": 6274,
    "kumula": 6275,
    "ĠAndrze": 6276,
    "figu": 6277,
    "ĠczoÅĤ": 6278,
    "Ġtera": 6279,
    "Ġmacie": 6280,
    "Ġzap": 6281,
    "dnego": 6282,
    "ĠzresztÄħ": 6283,
    "ĠJako": 6284,
    "ĠkwiatÃ³w": 6285,
    "Ġuko": 6286,
    "Ġimieni": 6287,
    "niÄĻte": 6288,
    "Ġszeroko": 6289,
    "Ġzbudowa": 6290,
    "Ġobywateli": 6291,
    "Å¼aÅĤo": 6292,
    "JeÅĽli": 6293,
    "ĠwielkoÅĽci": 6294,
    "ĠobsÅĤugu": 6295,
    "//": 6296,
    "ĠOl": 6297,
    "Ġ1991": 6298,
    "Ġtrybie": 6299,
    "Ġ39": 6300,
    "ĠobsÅĤugi": 6301,
    "ĠMichaÅĤ": 6302,
    "don": 6303,
    "ĠNowa": 6304,
    "ĠFunda": 6305,
    "ĠHiszpanii": 6306,
    "ĠJerzy": 6307,
    "ĠmiaÅĤem": 6308,
    "ĠidÄħ": 6309,
    "Bie": 6310,
    "Ġpunkt": 6311,
    "ĠwidzieÄĩ": 6312,
    "Ġznajdowa": 6313,
    "ĠpÃ³Åº": 6314,
    "ĠmuszÄĻ": 6315,
    "ĠnaprzÃ³d": 6316,
    "Ġmart": 6317,
    "ĠzÅĤota": 6318,
    "ĠzaÅĤoÅ¼y": 6319,
    "Ġkata": 6320,
    "ĠbÅĤÄĻki": 6321,
    "Ġpowinno": 6322,
    "umer": 6323,
    "stek": 6324,
    "liny": 6325,
    "cert": 6326,
    "eli": 6327,
    "Ġtworzenia": 6328,
    "54": 6329,
    "Ġatmosfe": 6330,
    "ml": 6331,
    "Wiki": 6332,
    "ĠrobiÄĩ": 6333,
    "ĠzawoÅĤaÅĤ": 6334,
    "Ġhandlu": 6335,
    "Ġwybuch": 6336,
    "szyscy": 6337,
    "Ġokrop": 6338,
    "kaÅĤa": 6339,
    "ĠzwierzÄħt": 6340,
    "Ġkomi": 6341,
    "ĠdziaÅĤanie": 6342,
    "Ġpomaga": 6343,
    "Ġdziecka": 6344,
    "ĠgwaÅĤtow": 6345,
    "Ġczyta": 6346,
    "Ġsprowa": 6347,
    "wiaÅĤ": 6348,
    "Ġdzieje": 6349,
    "Ġczasach": 6350,
    "ĠkiedyÅĽ": 6351,
    "ĠgÅĤosu": 6352,
    "Ġpewien": 6353,
    "Ġogni": 6354,
    "jona": 6355,
    "Ġprzeby": 6356,
    "niÅĤy": 6357,
    "Ġstopniu": 6358,
    "Ġwyposa": 6359,
    "bÃ³r": 6360,
    "Ustawa": 6361,
    "ĠSkarbu": 6362,
    "Ġobszarze": 6363,
    "Ġpolityki": 6364,
    "Ġbogi": 6365,
    "Ġgene": 6366,
    "ĠWojcie": 6367,
    "ntropo": 6368,
    "ĠwÅĤaÅĽciwie": 6369,
    "wymi": 6370,
    "Ġpotrzeba": 6371,
    "Ġducha": 6372,
    "ÅĦce": 6373,
    "ĠtworzÄħ": 6374,
    "Ġstrona": 6375,
    "ssa": 6376,
    "kowaÄĩ": 6377,
    "Ġsena": 6378,
    "Ġkome": 6379,
    "ĠpowstaÅĤa": 6380,
    "lono": 6381,
    "Ġpoziom": 6382,
    "ĠFrank": 6383,
    "57": 6384,
    "porzÄħ": 6385,
    "Ġ1983": 6386,
    "Ġfunkcjonariuszy": 6387,
    "Ġdostos": 6388,
    "ĠrozwÃ³j": 6389,
    "ĠWscho": 6390,
    "wskim": 6391,
    "ĠczÅĤonkowskie": 6392,
    "tional": 6393,
    "limpi": 6394,
    "ĠPolityka": 6395,
    "ĠJerozo": 6396,
    "Ġbezpie": 6397,
    "Ġminu": 6398,
    "ĠdaÄĩ": 6399,
    "ĠszeÅĽÄĩ": 6400,
    "ĠdÅĤuÅ¼ej": 6401,
    "zur": 6402,
    "Ġbroni": 6403,
    "wÃ³w": 6404,
    "Ġfal": 6405,
    ".).": 6406,
    "Ġroli": 6407,
    "ema": 6408,
    "usze": 6409,
    "Aby": 6410,
    "ĠsporzÄħ": 6411,
    "Ġwyborach": 6412,
    "Funkcjonari": 6413,
    "ĠGenera": 6414,
    "ĠmoÅ¼liwe": 6415,
    "iera": 6416,
    "IN": 6417,
    "Ġdi": 6418,
    "owiat": 6419,
    "wers": 6420,
    "ĠSze": 6421,
    "Ġokna": 6422,
    "ĠTylko": 6423,
    "sznie": 6424,
    "Ġzle": 6425,
    "ĠÅĽpiewa": 6426,
    "wcy": 6427,
    "Ġnieprze": 6428,
    "ĠokolicznoÅĽci": 6429,
    "Ġzamku": 6430,
    "ownie": 6431,
    "PR": 6432,
    "ĠWor": 6433,
    "zacja": 6434,
    "ĠwysokoÅĽÄĩ": 6435,
    "zeku": 6436,
    "Ġprawnych": 6437,
    "zacjÄĻ": 6438,
    "Ġkultura": 6439,
    "ĠTele": 6440,
    "ĠpÃ³ÅĤnocno": 6441,
    "ĠStanÃ³w": 6442,
    "Ġ(\"": 6443,
    "kara": 6444,
    "Ġnieprzy": 6445,
    "ĠjÄĻ": 6446,
    "obraz": 6447,
    "Ġmodli": 6448,
    "ĠzdoÅĤa": 6449,
    "ĠsÅĤone": 6450,
    "jna": 6451,
    "ĠCzer": 6452,
    "ĠBal": 6453,
    "nionej": 6454,
    "ĠÅ¼ony": 6455,
    "Ġbudowy": 6456,
    "Ġpolskie": 6457,
    "Ġkonfli": 6458,
    "Ġrower": 6459,
    "ĠWspÃ³l": 6460,
    "Ġplatfor": 6461,
    "Ġodczy": 6462,
    "ĠpeÅĤne": 6463,
    "ĠspojrzaÅĤ": 6464,
    "czonÄħ": 6465,
    "Ġkwiaty": 6466,
    "ĠdzieciÄĻ": 6467,
    "Ġdar": 6468,
    "Ġbole": 6469,
    "nnÄħ": 6470,
    "szczone": 6471,
    "Ġwidok": 6472,
    "wziÄĻ": 6473,
    "ĠmogÅĤo": 6474,
    "ĠpowiÄħza": 6475,
    "Ġrodzaj": 6476,
    "Ġpokona": 6477,
    "gÃ³r": 6478,
    "Ġnazwie": 6479,
    "ĠSpoÅĤe": 6480,
    "Ġfinansowe": 6481,
    "Ġ130": 6482,
    "Ġmeta": 6483,
    "ĠKowa": 6484,
    "Ġkonsek": 6485,
    "ĠEUROP": 6486,
    "Ġserwi": 6487,
    "Ġpokaza": 6488,
    "czÄħÄĩ": 6489,
    "Ġsami": 6490,
    "Ġzbo": 6491,
    "ĠwÅĤasnej": 6492,
    "Ġostro": 6493,
    "zwyczaj": 6494,
    "ĠInd": 6495,
    "rodzenia": 6496,
    "kreÅĽli": 6497,
    "CZ": 6498,
    "ĠmaÅĤÅ¼on": 6499,
    "Ġ36": 6500,
    "ĠzakÅĤadÃ³w": 6501,
    "Ġekspo": 6502,
    "ĠZwiÄħzku": 6503,
    "ĠAnt": 6504,
    "Ġzachodniej": 6505,
    "ĠZwyciÄĻz": 6506,
    "dzieÅĦ": 6507,
    "Ġbram": 6508,
    "ĠÅ¼aden": 6509,
    "Ġotwiera": 6510,
    "nieniu": 6511,
    "Ġkontra": 6512,
    "ĠÅĽwiÄħtyni": 6513,
    "ies": 6514,
    "owanej": 6515,
    "Ġsamodzie": 6516,
    "ĠSejm": 6517,
    "ĠKontroli": 6518,
    "ĠwÅĤadz": 6519,
    "ĠRegi": 6520,
    "Ġedycji": 6521,
    "ĠCol": 6522,
    "Ġnikogo": 6523,
    "Ġznajdzie": 6524,
    "Ġwzajem": 6525,
    "myka": 6526,
    "ĠBogu": 6527,
    "Ġpogrze": 6528,
    "stre": 6529,
    "Ġzdu": 6530,
    "szan": 6531,
    "ĠmÄĻÅ¼czyzn": 6532,
    "miaÅĤa": 6533,
    "ĠDlatego": 6534,
    "twor": 6535,
    "ĠMal": 6536,
    "ĠSÅĤ": 6537,
    "Ġwszelkie": 6538,
    "Ġkomunikacji": 6539,
    "Wyso": 6540,
    "fan": 6541,
    "Ce": 6542,
    "Ġustanowi": 6543,
    "ĠTade": 6544,
    "Ġwykorzystu": 6545,
    "Ġprowadzenia": 6546,
    "Ġadministracyjnego": 6547,
    "ĠEUROPEJ": 6548,
    "ĠAzji": 6549,
    "ĠBIG": 6550,
    "kaÅ¼": 6551,
    "Ġszwedz": 6552,
    "Ã³ra": 6553,
    "Ġzwyk": 6554,
    "trywa": 6555,
    "ĠpoczÄĻ": 6556,
    "ĠdokÅĤadnie": 6557,
    "Ġstacji": 6558,
    "ktÃ³re": 6559,
    "ĠpoÅĽredni": 6560,
    "wnoÅĽci": 6561,
    "Ġostate": 6562,
    "ban": 6563,
    "Ġzastrze": 6564,
    "Ġpsycho": 6565,
    "61": 6566,
    "Ġkontynu": 6567,
    "ĠGospodarka": 6568,
    "ĠTar": 6569,
    "ĠdostÄĻpne": 6570,
    "krÄĻg": 6571,
    "Ġcicho": 6572,
    "Ġgaze": 6573,
    "Ġwiesz": 6574,
    "ĠKaÅ¼dy": 6575,
    "dam": 6576,
    "Ġrozmowy": 6577,
    "Ġznik": 6578,
    "Ġskaza": 6579,
    "jecha": 6580,
    "Ġofiar": 6581,
    "ĠmÄħÅ¼": 6582,
    "ĠAt": 6583,
    "Ġzazna": 6584,
    "Ġopo": 6585,
    "ĠPana": 6586,
    "ĠodbyÅĤa": 6587,
    "ĠZygfryd": 6588,
    "Ġkompe": 6589,
    "ĠsystemÃ³w": 6590,
    "dium": 6591,
    "kan": 6592,
    "ktÃ³rych": 6593,
    "Ġkultur": 6594,
    "Ġsiedziba": 6595,
    "RO": 6596,
    "ArtykuÅĤ": 6597,
    "ĠPonadto": 6598,
    "ture": 6599,
    "Ġmeczu": 6600,
    "ĠmyÅĽlaÅĤ": 6601,
    "ĠgÅĤoÅĽno": 6602,
    "Ġpowtarza": 6603,
    "wiÄĻcej": 6604,
    "Ġodrze": 6605,
    "ĠklÄĻ": 6606,
    "Ġzga": 6607,
    "ĠPy": 6608,
    "ĠstaÄĩ": 6609,
    "KtÃ³": 6610,
    "Ġpotrzebu": 6611,
    "Kto": 6612,
    "ĠRepubli": 6613,
    "Ġzo": 6614,
    "Ġobrony": 6615,
    "Ġcesarza": 6616,
    "ĠstopieÅĦ": 6617,
    "ĠDziÄĻki": 6618,
    "ĠsÄĻdziÃ³w": 6619,
    "ĠdoÅĤÄħ": 6620,
    "mierz": 6621,
    "ĠAugu": 6622,
    "ĠartykuÅĤÃ³w": 6623,
    "ĠrozwiÄħzania": 6624,
    "Ġsygna": 6625,
    "ĠsamorzÄħdu": 6626,
    "98": 6627,
    "eksy": 6628,
    "ĠCiekawe": 6629,
    "Ġpodoba": 6630,
    "ĠDru": 6631,
    "Ġimieniny": 6632,
    "Ġpowietrzu": 6633,
    "Ġzdzi": 6634,
    "Ġtrudno": 6635,
    "ĠMoÅ¼esz": 6636,
    "spa": 6637,
    "ĠCzas": 6638,
    "mowanie": 6639,
    "Ġstaje": 6640,
    "ĠZiemiÄĻ": 6641,
    "Ġegzeku": 6642,
    "ĠFinansÃ³w": 6643,
    "Ġroczne": 6644,
    "zes": 6645,
    "Ġabsolutorium": 6646,
    "pii": 6647,
    "cyklin": 6648,
    "ĠKe": 6649,
    "dÅºmi": 6650,
    "ĠWtedy": 6651,
    "amie": 6652,
    "Pan": 6653,
    "czami": 6654,
    "wale": 6655,
    "ĠOfi": 6656,
    "ĠwnÄĻ": 6657,
    "ĠJedno": 6658,
    "Ġfigu": 6659,
    "Ġprzesu": 6660,
    "Ġzamieszki": 6661,
    "ĠBur": 6662,
    "nina": 6663,
    "ĠcaÅĤkowicie": 6664,
    "Ġzatrudnienia": 6665,
    "ĠOchrony": 6666,
    "ĠBanku": 6667,
    "frastruk": 6668,
    "ĠzaleÅ¼noÅĽci": 6669,
    "ĠzgodnoÅĽci": 6670,
    "ĠprÄĻdkoÅĽci": 6671,
    "ĠczÅĤo": 6672,
    "Ġdostaw": 6673,
    "EL": 6674,
    "Ġwarsza": 6675,
    "ĠuchylajÄħce": 6676,
    "Ġ966": 6677,
    "cea": 6678,
    "Bryty": 6679,
    "dnym": 6680,
    "ĠEr": 6681,
    "ĠbÄĻdziemy": 6682,
    "pliwie": 6683,
    "Ġrach": 6684,
    "nionym": 6685,
    "Ġrycerzy": 6686,
    "bert": 6687,
    "pr": 6688,
    "ÄĻdziego": 6689,
    "wica": 6690,
    "Ġzaopatrze": 6691,
    "Ġzain": 6692,
    "ĠKomenda": 6693,
    "ĠKrzyÅ¼em": 6694,
    "ĠAnna": 6695,
    "ĠKie": 6696,
    "ĠpiÅĤka": 6697,
    "ĠleÅĽ": 6698,
    "ĠrÄĻka": 6699,
    "Ġwidzenia": 6700,
    "Ġpodobne": 6701,
    "Ġkary": 6702,
    "Ġzapomnia": 6703,
    "ĠByÅĤo": 6704,
    "daj": 6705,
    "Ġwnet": 6706,
    "Rze": 6707,
    "Ġemi": 6708,
    "rok": 6709,
    "ĠgÅĤÃ³wnym": 6710,
    "wald": 6711,
    "ĠwystÄĻpujÄħ": 6712,
    "Ġprzekazy": 6713,
    "ĠgranicÄħ": 6714,
    "ĠuprawnieÅĦ": 6715,
    "minu": 6716,
    "ĠiloÅĽci": 6717,
    "laminu": 6718,
    "ĠCha": 6719,
    "ĠzarzÄħdzania": 6720,
    "obil": 6721,
    "ĠPur": 6722,
    "Fil": 6723,
    "Ġalpi": 6724,
    "ĠmajÄħc": 6725,
    "ĠzdawaÅĤo": 6726,
    "bem": 6727,
    "ĠprÃ³Å¼": 6728,
    "Ġzarazem": 6729,
    "czar": 6730,
    "ĠgroÅº": 6731,
    "daÅĤ": 6732,
    "Ġokiem": 6733,
    "skoÅĦ": 6734,
    "tona": 6735,
    "ÅĤac": 6736,
    "ĠwzgÃ³rz": 6737,
    "ĠsÅĤabo": 6738,
    "Cze": 6739,
    "ĠogÃ³le": 6740,
    "ĠbÅĤÄĻd": 6741,
    "ĠurzÄĻdu": 6742,
    "owicz": 6743,
    "Ġzdaniem": 6744,
    "Ġjednoli": 6745,
    "mocy": 6746,
    "und": 6747,
    "Ġodniesieniu": 6748,
    "67": 6749,
    "niesienia": 6750,
    "ĠbÅĤÄħ": 6751,
    "Ġoskar": 6752,
    "wodniczÄħ": 6753,
    "ĠNajwyÅ¼szego": 6754,
    "Ġelementy": 6755,
    "rus": 6756,
    "strak": 6757,
    "ĠAK": 6758,
    "ĠTi": 6759,
    "Ġwsz": 6760,
    "ryw": 6761,
    "wajcar": 6762,
    "Ġumiera": 6763,
    "Ġkola": 6764,
    "owanego": 6765,
    "Ġpostanowie": 6766,
    "ÅĦcÃ³w": 6767,
    "Ġpiecho": 6768,
    "Ġdolinie": 6769,
    "Wszyst": 6770,
    "Ġpewne": 6771,
    "ĠkÅĤo": 6772,
    "ĠObro": 6773,
    "ĠcaÅĤoÅĽci": 6774,
    "ĠmetrÃ³w": 6775,
    "Ġmej": 6776,
    "ĠChri": 6777,
    "Ġfakt": 6778,
    "ĠbogÃ³w": 6779,
    "Ġzapewnienia": 6780,
    "Ġpracownika": 6781,
    "Ġrenty": 6782,
    "Ġprzekracza": 6783,
    "Ġprace": 6784,
    "samo": 6785,
    "Ġ1939": 6786,
    "lla": 6787,
    "Fa": 6788,
    "ĠĠĠĠĠ": 6789,
    "Ðº": 6790,
    "ĠAla": 6791,
    "à¤": 6792,
    "Ġutrzymy": 6793,
    "ĠodpowiedziaÅĤ": 6794,
    "jeÅ¼d": 6795,
    "jÄħco": 6796,
    "dzej": 6797,
    "mp": 6798,
    "orÄħc": 6799,
    "orÃ³w": 6800,
    "klÄĻ": 6801,
    "ĠprzyszÅĤoÅĽci": 6802,
    "Ġstanowisku": 6803,
    "ĠzostanÄħ": 6804,
    "ĠpÃ³ÅĤnocnej": 6805,
    "Ġzwal": 6806,
    "ENT": 6807,
    "ĠHele": 6808,
    "the": 6809,
    "Ġtekst": 6810,
    "ĠBank": 6811,
    "ĠGranicznej": 6812,
    "niania": 6813,
    "up": 6814,
    "nista": 6815,
    "vid": 6816,
    "Ġalgoryt": 6817,
    "ĠreÅ¼yserii": 6818,
    "ĠksiÄħÅ¼ki": 6819,
    "ĠpatrzyÅĤ": 6820,
    "Ġsali": 6821,
    "ĠpowiedziaÅĤa": 6822,
    "Ġzaprze": 6823,
    "Ġnapo": 6824,
    "ĠnowÄħ": 6825,
    "szoÅĽÄĩ": 6826,
    "zwy": 6827,
    "Ġbal": 6828,
    "czyzna": 6829,
    "ĠwyraÅºnie": 6830,
    "ĠPubli": 6831,
    "Ġpowietrza": 6832,
    "And": 6833,
    "ĠCzÄĻsto": 6834,
    "prÃ³cz": 6835,
    "Ġnar": 6836,
    "ĠoddziaÅĤy": 6837,
    "ĠskÅĤadni": 6838,
    "Ġ45": 6839,
    "87": 6840,
    "Ġ1944": 6841,
    "Ġwersja": 6842,
    "ĠWÅĤoszech": 6843,
    "ĠgÃ³rach": 6844,
    "Ġwielkiej": 6845,
    "lda": 6846,
    "Ġcmenta": 6847,
    "ĠchoÄĩby": 6848,
    "pienia": 6849,
    "Ġsma": 6850,
    "ĠwiÄħza": 6851,
    "mara": 6852,
    "Ġpobra": 6853,
    "dnikÃ³w": 6854,
    "Ġsprawa": 6855,
    "ĠStary": 6856,
    "Ġgwiazdy": 6857,
    "kta": 6858,
    "Su": 6859,
    "Ġvon": 6860,
    "Ġrolni": 6861,
    "nkÃ³w": 6862,
    "Ġstosu": 6863,
    "Ġzyska": 6864,
    "Ġ1985": 6865,
    "dzoru": 6866,
    "ĠuÅ¼ywany": 6867,
    "Ġdeparta": 6868,
    "Ġlubi": 6869,
    "Ġpocie": 6870,
    "ĠrÄĻku": 6871,
    "owaÅ¼": 6872,
    "torze": 6873,
    "ĠpoÅ¼egna": 6874,
    "ĠMart": 6875,
    "kien": 6876,
    "Ġsrebr": 6877,
    "ĠpracowaÅĤ": 6878,
    "trÄħ": 6879,
    "Ġstaran": 6880,
    "rzonych": 6881,
    "ÅĽciem": 6882,
    "Ġspowodowa": 6883,
    "gor": 6884,
    "Ġukaza": 6885,
    "stety": 6886,
    "Ġlogi": 6887,
    "Ġpodstawy": 6888,
    "Ġsej": 6889,
    "nden": 6890,
    "Ġgatun": 6891,
    "Ġpolityk": 6892,
    "sis": 6893,
    "ĠAlba": 6894,
    "ĠJor": 6895,
    "Zmarli": 6896,
    "ĠrzuciÅĤ": 6897,
    "Ġnajlepiej": 6898,
    "ĠPani": 6899,
    "ĠuÅĽmiechem": 6900,
    "laÅĤ": 6901,
    "cili": 6902,
    "ĠjakimÅĽ": 6903,
    "ĠJestem": 6904,
    "ĠpiÄĻkna": 6905,
    "ĠwydaÅĤ": 6906,
    "Ġprzysta": 6907,
    "Ġpewno": 6908,
    "Ġkara": 6909,
    "ryz": 6910,
    "Ġtrzecie": 6911,
    "Ġznany": 6912,
    "Ġwiek": 6913,
    "Ġgospoda": 6914,
    "ĠobowiÄħzku": 6915,
    "ĠpowieÅĽci": 6916,
    "gÅĤasza": 6917,
    "owskiej": 6918,
    "Ġzatrudnio": 6919,
    "Ġprzedstawio": 6920,
    "przypad": 6921,
    "Ġkryzy": 6922,
    "Ġrekon": 6923,
    "ĠZacho": 6924,
    "ciorys": 6925,
    "kerto": 6926,
    "sÄĻ": 6927,
    "ĠtrÃ³j": 6928,
    "Ġpochy": 6929,
    "Ġizby": 6930,
    "Ġnienawi": 6931,
    "Jest": 6932,
    "ĠwiedzieÄĩ": 6933,
    "cjo": 6934,
    "Ġprzeci": 6935,
    "cona": 6936,
    "ĠJul": 6937,
    "Ġunika": 6938,
    "czÄħcych": 6939,
    "Ġodebra": 6940,
    "ÄĻzy": 6941,
    "ĠosobÄĻ": 6942,
    "ĠAustrii": 6943,
    "kademii": 6944,
    "Ġwybrze": 6945,
    "Ġzajmu": 6946,
    "jskim": 6947,
    "Ġkoncert": 6948,
    "ĠGun": 6949,
    "ward": 6950,
    "Tre": 6951,
    "ĠzarzÄħdu": 6952,
    "Ġfinansowego": 6953,
    "ĠprzedsiÄĻbiorstw": 6954,
    "Ġmaksyma": 6955,
    "Ġdanego": 6956,
    "ĠPrezydenta": 6957,
    "ĠJakub": 6958,
    "ĠMickie": 6959,
    "met": 6960,
    "Ġ2022": 6961,
    "Ð¾Ð": 6962,
    "Ġfilmie": 6963,
    "Donald": 6964,
    "wokerto": 6965,
    "ĠwÅĤosy": 6966,
    "ĠprzyszedÅĤ": 6967,
    "Ġdruga": 6968,
    "ĠstanÄħÅĤ": 6969,
    "siadÅĤ": 6970,
    "ĠnajbliÅ¼": 6971,
    "ĠbiaÅĤe": 6972,
    "Ġspokojnie": 6973,
    "nowany": 6974,
    "Ġgeo": 6975,
    "ĠobowiÄħzki": 6976,
    "ÅĤom": 6977,
    "szonych": 6978,
    "Ġepo": 6979,
    "Ġsiedem": 6980,
    "jnej": 6981,
    "Ġniewia": 6982,
    "*,": 6983,
    "82": 6984,
    "Ġdzielnicy": 6985,
    "towarzy": 6986,
    "Ġkwali": 6987,
    "63": 6988,
    "ĠwytwÃ³r": 6989,
    "rowany": 6990,
    "Ġkampa": 6991,
    "ĠpoÅĤudniowej": 6992,
    "Warsza": 6993,
    "deo": 6994,
    "SD": 6995,
    "ill": 6996,
    "ĠzwiedziÄĩ": 6997,
    "Ġkarty": 6998,
    "Ġtedy": 6999,
    "ĠrodzicÃ³w": 7000,
    "ĠÅ¼em": 7001,
    "Ġwspom": 7002,
    "Ġpoto": 7003,
    "Ġhiszpa": 7004,
    "Ġpowoli": 7005,
    "ĠlÄĻ": 7006,
    "ĠpierwszÄħ": 7007,
    "ĠdokoÅĤa": 7008,
    "Ġpewnego": 7009,
    "Ca": 7010,
    "char": 7011,
    "dliwoÅĽÄĩ": 7012,
    "Ġmala": 7013,
    "wizji": 7014,
    "dnoÅĽÄĩ": 7015,
    "ĠJÃ³zef": 7016,
    "ĠpasaÅ¼e": 7017,
    "Ġprak": 7018,
    "Ġstolicy": 7019,
    "âĢľ,": 7020,
    "Ġprzedmiotem": 7021,
    "ĠposeÅĤ": 7022,
    "owemu": 7023,
    "Ġlikwida": 7024,
    "dzanie": 7025,
    "czba": 7026,
    "ĠwojewÃ³dzkiego": 7027,
    "ĠspoÅĤecznoÅĽci": 7028,
    "Ġrefor": 7029,
    "IP": 7030,
    "Ġunij": 7031,
    "Äį": 7032,
    "ĠTom": 7033,
    "Ġruchem": 7034,
    "ĠwÅĤaÅĽciwy": 7035,
    "Ġinteli": 7036,
    "niel": 7037,
    "Ġwczes": 7038,
    "ĠwÅĤosÃ³w": 7039,
    "Ġniezwy": 7040,
    "lom": 7041,
    "Ġskoro": 7042,
    "ĠSÅĤowa": 7043,
    "ĠreÅ¼yse": 7044,
    "ĠurzÄĻd": 7045,
    "Ġobrotu": 7046,
    "ĠprzewodniczÄħcego": 7047,
    "ĠJanina": 7048,
    "ĠgÅĤÃ³wnych": 7049,
    "mutow": 7050,
    "ĠJeszcze": 7051,
    "Ġspu": 7052,
    "ĠzapytaÅĤ": 7053,
    "rowaÅĤ": 7054,
    "ĠpeÅĤno": 7055,
    "Ġszla": 7056,
    "ĠwÅĤasnego": 7057,
    "sny": 7058,
    "ĠwiÄĻksze": 7059,
    "mala": 7060,
    "Ġkolor": 7061,
    "ĠfaÅĤ": 7062,
    "Ġdrew": 7063,
    "Ġpierwsza": 7064,
    "nder": 7065,
    "ĠÅ¼on": 7066,
    "Ġbaj": 7067,
    "ĠpoÅĤudniu": 7068,
    "ĠpiÄĻkne": 7069,
    "Ġobejmu": 7070,
    "Ġniebezpie": 7071,
    "Ġteo": 7072,
    "Jo": 7073,
    "wor": 7074,
    "Ġwydarzenia": 7075,
    "ĠPrawo": 7076,
    "Ġwyco": 7077,
    "%.": 7078,
    "ĠuÅ¼ytkownikÃ³w": 7079,
    "ĠKrakowa": 7080,
    "ĠEUROPEJSKI": 7081,
    "Ġfunkcjonowaniu": 7082,
    "ww": 7083,
    "ĠEx": 7084,
    "ĠJerozoli": 7085,
    "Ġwychodzi": 7086,
    "ĠÅĤaw": 7087,
    "Ġbym": 7088,
    "chach": 7089,
    "Ġszac": 7090,
    "Trze": 7091,
    "Ġhono": 7092,
    "szczÄĻd": 7093,
    "ografi": 7094,
    "dzonej": 7095,
    "Ġj": 7096,
    "Ġdniach": 7097,
    "ckÄħ": 7098,
    "Ġnarodowej": 7099,
    "ĠCon": 7100,
    "ĠHan": 7101,
    "!...": 7102,
    "owskim": 7103,
    "ĠMary": 7104,
    "gun": 7105,
    "Ġrozstrzy": 7106,
    "ĠpowyÅ¼ej": 7107,
    "przed": 7108,
    "Ġradi": 7109,
    "lekt": 7110,
    "Ġprotoko": 7111,
    "Ġkolejnych": 7112,
    "Fi": 7113,
    "Ġrejonu": 7114,
    "ĠNiemiec": 7115,
    "ĠPeter": 7116,
    "nis": 7117,
    "Ġstrategi": 7118,
    "kowskiego": 7119,
    "Ġpowiatu": 7120,
    "ĠWrocÅĤaw": 7121,
    "ĠAir": 7122,
    "usr": 7123,
    "pt": 7124,
    "Ġzdarzenia": 7125,
    "ĠMam": 7126,
    "Ġwielkich": 7127,
    "ĠzwrÃ³ciÅĤ": 7128,
    "Ġzdanie": 7129,
    "ĠwÃ³z": 7130,
    "Ġzajmuje": 7131,
    "szÄħc": 7132,
    "ByÅĤ": 7133,
    "ĠpociÄħg": 7134,
    "dob": 7135,
    "niejszÄħ": 7136,
    "Ġzapewne": 7137,
    "tanie": 7138,
    "ĠÅĽwiÄĻto": 7139,
    "Ġmuzyka": 7140,
    "lonej": 7141,
    "Pu": 7142,
    "ĠwraÅ¼enie": 7143,
    "ĠCzar": 7144,
    "finans": 7145,
    "Ġkategorii": 7146,
    "ĠAk": 7147,
    "retarz": 7148,
    "ÄĻdzia": 7149,
    "Ġspecy": 7150,
    "mir": 7151,
    "przypadku": 7152,
    "ĠzrÃ³wnowa": 7153,
    "ou": 7154,
    "Ġpolsko": 7155,
    "ĠwstÄĻp": 7156,
    "ĠLudwi": 7157,
    "ĠposzedÅĤ": 7158,
    "ĠodpowiedÅº": 7159,
    "Ġskarb": 7160,
    "rÄĻdzej": 7161,
    "Ġpraca": 7162,
    "Ġostatecznie": 7163,
    "Ġniepodleg": 7164,
    "ĠzaleÅ¼y": 7165,
    "Ġprzys": 7166,
    "Gdzie": 7167,
    "siu": 7168,
    "Ġwieczy": 7169,
    "ĠnieskoÅĦ": 7170,
    "ĠMimo": 7171,
    "Ãĵ": 7172,
    "mys": 7173,
    "lnymi": 7174,
    "Ġzreali": 7175,
    "ĠsÅĤuÅ¼y": 7176,
    "Ġkonkuren": 7177,
    "ĠPracy": 7178,
    "Ġporozumieniu": 7179,
    "ĠzakoÅĦczeniu": 7180,
    "ĠprogramÃ³w": 7181,
    "Ġrejon": 7182,
    "ĠdostÄĻpu": 7183,
    "sjo": 7184,
    "ĠwojewÃ³dztwa": 7185,
    "ĠdotyczÄħcego": 7186,
    "Ġlega": 7187,
    "ĠArmii": 7188,
    "jusz": 7189,
    "matyczne": 7190,
    "CH": 7191,
    "Fran": 7192,
    "cc": 7193,
    "Ġ(...)": 7194,
    "ĠwyÅĽwietla": 7195,
    "zz": 7196,
    "ĠOrderu": 7197,
    "ĠHeniu": 7198,
    "przeciw": 7199,
    "ĠchÅĤopiec": 7200,
    "ĠwyszedÅĤ": 7201,
    "ĠwiÄĻkszÄħ": 7202,
    "Ġsklep": 7203,
    "Ġfotogra": 7204,
    "ĠliÅĽci": 7205,
    "Ġmno": 7206,
    "Ġspod": 7207,
    "ĠZda": 7208,
    "ĠnieÅĽ": 7209,
    "ĠosÅĤa": 7210,
    "laty": 7211,
    "zuÅĤ": 7212,
    "ĠArgenty": 7213,
    "ĠRada": 7214,
    "ud": 7215,
    "ĠÅĽredniowie": 7216,
    "ĠuczestnikÃ³w": 7217,
    "dry": 7218,
    "Ġdanej": 7219,
    "cjonu": 7220,
    "ĠRobert": 7221,
    "Ġwzrostu": 7222,
    "Ġwyboru": 7223,
    "ĠsÄĻdziego": 7224,
    "Ġsukce": 7225,
    "ĠPawÅĤa": 7226,
    "Ġ(âĢŀ": 7227,
    "cyklingu": 7228,
    "ĠoferujÄħ": 7229,
    "ĠJohn": 7230,
    "MPP": 7231,
    "Ġznie": 7232,
    "ĠBardzo": 7233,
    "Ġprzyci": 7234,
    "kul": 7235,
    "ĠuÅĤat": 7236,
    "graf": 7237,
    "owaÅĦ": 7238,
    "Ġalfabe": 7239,
    "Ġznane": 7240,
    "rÃ³deÅĤ": 7241,
    "niono": 7242,
    "Ġdodatkowe": 7243,
    "Ġwyroku": 7244,
    "ĠbieÅ¼Äħ": 7245,
    "ĠRozdziaÅĤ": 7246,
    "Ġpodatk": 7247,
    "Ġcen": 7248,
    "ĠczÅĤonkiem": 7249,
    "Ġpublikacji": 7250,
    "].": 7251,
    "Ġregionu": 7252,
    "Ġwspinacz": 7253,
    "kowana": 7254,
    "ĠjakaÅĽ": 7255,
    "ĠsamÄħ": 7256,
    "mych": 7257,
    "Ġnarze": 7258,
    "ĠÅ¼ar": 7259,
    "ciera": 7260,
    "ĠmÅĤodo": 7261,
    "Ġspodzie": 7262,
    "ĠWene": 7263,
    "kru": 7264,
    "Ġwoda": 7265,
    "ĠnapisaÅĤ": 7266,
    "Ġdoj": 7267,
    "ĠprzesÅĤa": 7268,
    "ĠoprÃ³cz": 7269,
    "Ġwych": 7270,
    "Ġhar": 7271,
    "WÅĤo": 7272,
    "szymi": 7273,
    "Ġmiastem": 7274,
    "ĠPierwszy": 7275,
    "ĠdÅĤoÅĦ": 7276,
    "Ġtwe": 7277,
    "lera": 7278,
    "ĠukÅĤadÃ³w": 7279,
    "ĠSpe": 7280,
    "ĠuposaÅ¼enia": 7281,
    "Ġfunduszu": 7282,
    "Ġustanawia": 7283,
    "ĠpuÅĤkow": 7284,
    "nesa": 7285,
    "Ġgloba": 7286,
    "news": 7287,
    "ĠUkrai": 7288,
    "ĠMarta": 7289,
    "ĠjakiegoÅĽ": 7290,
    "My": 7291,
    "ÅĦcy": 7292,
    "Ġparty": 7293,
    "ela": 7294,
    "ĠrzeczywiÅĽcie": 7295,
    "Ġmomencie": 7296,
    "Ġwese": 7297,
    "ĠwyksztaÅĤ": 7298,
    "Ġradzie": 7299,
    "://": 7300,
    "ĠEgip": 7301,
    "Ġkryte": 7302,
    "Ġkolejne": 7303,
    "ĠgruntÃ³w": 7304,
    "Ġarche": 7305,
    "Ġitp": 7306,
    "ĠLinie": 7307,
    "ĠMÃ³wi": 7308,
    "ĠmiesiÄĻ": 7309,
    "Ġuczni": 7310,
    "Tym": 7311,
    "ĠtuÅ¼": 7312,
    "ĠktÃ³remu": 7313,
    "ĠspytaÅĤa": 7314,
    "jesz": 7315,
    "Ġblo": 7316,
    "unÄĻ": 7317,
    "karz": 7318,
    "ĠchciaÅĤem": 7319,
    "Ġsprawia": 7320,
    "ĠzapewniÄĩ": 7321,
    "Ġprzekro": 7322,
    "szona": 7323,
    "ĠChry": 7324,
    "styczne": 7325,
    "mana": 7326,
    "ĠOczy": 7327,
    "Ġwystarcza": 7328,
    "ĠWojs": 7329,
    "Ġwyniki": 7330,
    "Ġzawodowych": 7331,
    "ezer": 7332,
    "bytu": 7333,
    "ĠÅģÄħ": 7334,
    "Ġunie": 7335,
    "eme": 7336,
    "Ġnagra": 7337,
    "lacja": 7338,
    "MENT": 7339,
    "van": 7340,
    "czyÅĦski": 7341,
    "Ġhrab": 7342,
    "nowaÄĩ": 7343,
    "ĠchÅĤopca": 7344,
    "ĠgÅĤÄĻbi": 7345,
    "dziesiÄħt": 7346,
    "Ġprzychodzi": 7347,
    "szeni": 7348,
    "ĠzaczÄĻÅĤy": 7349,
    "ĠradoÅĽci": 7350,
    "grafi": 7351,
    "ĠogieÅĦ": 7352,
    "Ġzachodzie": 7353,
    "siÅĤa": 7354,
    "Ġowa": 7355,
    "Sza": 7356,
    "nastu": 7357,
    "ĠoczywiÅĽcie": 7358,
    "Ġbudyn": 7359,
    "Ġodczu": 7360,
    "rowie": 7361,
    "ĠoÅĽwiad": 7362,
    "lik": 7363,
    "ĠprzenoÅĽ": 7364,
    "Ġceny": 7365,
    "ĠuÅ¼ywaÄĩ": 7366,
    "ĠÃ³wczes": 7367,
    "Ġ75": 7368,
    "sady": 7369,
    "Ġujaw": 7370,
    "gatyw": 7371,
    "Å¹rÃ³d": 7372,
    "ET": 7373,
    "Ġodno": 7374,
    "Ġpt": 7375,
    "val": 7376,
    "Ne": 7377,
    "Ġkomputera": 7378,
    "ĠâĨ": 7379,
    "Ġwzrokiem": 7380,
    "ĠludÅºmi": 7381,
    "ĠKarol": 7382,
    "Ġwczoraj": 7383,
    "Ġrozum": 7384,
    "ĠWszystko": 7385,
    "ryte": 7386,
    "ĠCom": 7387,
    "liwie": 7388,
    "Ġwizy": 7389,
    "Ġzachodzi": 7390,
    "ĠÅ¼onÄħ": 7391,
    "telu": 7392,
    "Ġzostaje": 7393,
    "Du": 7394,
    "ĠNad": 7395,
    "kur": 7396,
    "gospodar": 7397,
    "ĠwÄħtp": 7398,
    "Ġniepra": 7399,
    "Ġgranicach": 7400,
    "ĠbezpÅĤa": 7401,
    "OW": 7402,
    "ĠuÅ¼yciu": 7403,
    "Se": 7404,
    "ĠMate": 7405,
    "Ġinterpre": 7406,
    "Ġurucho": 7407,
    "Ġoprogram": 7408,
    "Ġ1997": 7409,
    "ĠbÅĤa": 7410,
    "ĠczoÅĤo": 7411,
    "Ġziemia": 7412,
    "koma": 7413,
    "Ġkrajach": 7414,
    "ĠzbiÃ³r": 7415,
    "Ġwierzy": 7416,
    "Ġzdecydowa": 7417,
    "ĠFlo": 7418,
    "ĠkaÅ¼da": 7419,
    "ÅĤymi": 7420,
    "wiona": 7421,
    "legium": 7422,
    "ÅĤos": 7423,
    "ĠczeÅĽÄĩ": 7424,
    "Ġwschodzie": 7425,
    "towano": 7426,
    "ĠiloÅĽÄĩ": 7427,
    "ĠcaÅĤoÅĽÄĩ": 7428,
    "ER": 7429,
    "Ġliteratury": 7430,
    "ĠprowadziÄĩ": 7431,
    "95": 7432,
    "regu": 7433,
    "Ġcele": 7434,
    "Ġzakres": 7435,
    "Ġodpowiednich": 7436,
    "Ġproducenta": 7437,
    "one": 7438,
    "kowanych": 7439,
    "nan": 7440,
    "oli": 7441,
    "Ġaktorzy": 7442,
    "tri": 7443,
    "Å»yciorys": 7444,
    "ĠPurwokerto": 7445,
    "ĠHenry": 7446,
    "ĠjakoÅĽ": 7447,
    "Ġkapli": 7448,
    "rÄħg": 7449,
    "Ġnajstar": 7450,
    "trza": 7451,
    "Ġzbio": 7452,
    "szono": 7453,
    "ckiem": 7454,
    "waÅĤem": 7455,
    "Ġpoprawki": 7456,
    "Ġprzo": 7457,
    "bina": 7458,
    "ĠÅºrÃ³deÅĤ": 7459,
    "dujÄħ": 7460,
    "Ġmagazy": 7461,
    "IA": 7462,
    "karze": 7463,
    "rymhil": 7464,
    "ĠogÅĤoszenia": 7465,
    "Ġtekstu": 7466,
    "Ġuszko": 7467,
    "Ġprzetwarza": 7468,
    "ĠumiejÄĻtnoÅĽci": 7469,
    "Ġpoinformowa": 7470,
    "ĠpowyÅ¼": 7471,
    "zjÄĻ": 7472,
    "Ġryzyka": 7473,
    "ĠKali": 7474,
    "ĠAfry": 7475,
    "ĠMiÄĻdzynarod": 7476,
    "Ġrowerze": 7477,
    "ĠÎ": 7478,
    "Ġrobotni": 7479,
    "ĠchÅĤopa": 7480,
    "Ġniemu": 7481,
    "Ġnagrody": 7482,
    "tkami": 7483,
    "Ġstarego": 7484,
    "dali": 7485,
    "ĠpomyÅĽ": 7486,
    "ĠczÅĤowiekiem": 7487,
    "Ġwyga": 7488,
    "myÅĽli": 7489,
    "Å¼onym": 7490,
    "Ġory": 7491,
    "ĠwÅĤasnÄħ": 7492,
    "ĠwrÃ³ciÅĤ": 7493,
    "ĠmilionÃ³w": 7494,
    "Ġzawi": 7495,
    "metry": 7496,
    "ĠwyjÄħtkiem": 7497,
    "Ġtajemni": 7498,
    "tkach": 7499,
    "ĠznakÃ³w": 7500,
    "ĠprzedÅĤu": 7501,
    "ĠZiemia": 7502,
    "Ġokazji": 7503,
    "Ġprzyjmuje": 7504,
    "Ġflo": 7505,
    "que": 7506,
    "Ġtransport": 7507,
    "ĠprzewodniczÄħcy": 7508,
    "ĠPowsta": 7509,
    "ĠWale": 7510,
    "Ġzapropo": 7511,
    "ĠPÃ³ÅĤnocnej": 7512,
    "ĠAte": 7513,
    "Ġatei": 7514,
    "Ġaktorki": 7515,
    "jrzaÅĤa": 7516,
    "Ġpoca": 7517,
    "pelu": 7518,
    "Ġniezmier": 7519,
    "Ġprzestra": 7520,
    "Ġwieczorem": 7521,
    "ĠpiÄĻciu": 7522,
    "skach": 7523,
    "Ġmojego": 7524,
    "Ġchwila": 7525,
    "wsza": 7526,
    "Ġgrz": 7527,
    "Ġpolu": 7528,
    "Ġlinie": 7529,
    "Ġinstytucji": 7530,
    "Ġczaso": 7531,
    "Ġpowierzch": 7532,
    "Ġpunktu": 7533,
    "ĠprzeciÄĻ": 7534,
    "ĠAkademii": 7535,
    "Ġcio": 7536,
    "ĠÅĽlub": 7537,
    "ĠtoÅ¼": 7538,
    "ĠChar": 7539,
    "wro": 7540,
    "ĠKoÅĽcioÅĤa": 7541,
    "Ġkwestii": 7542,
    "Policja": 7543,
    "ĠAlk": 7544,
    "Ġkoncep": 7545,
    "ĠâĨĴ": 7546,
    "perium": 7547,
    "ĠmaÅĤych": 7548,
    "Ġbraci": 7549,
    "ini": 7550,
    "ĠFra": 7551,
    "ĠÅºle": 7552,
    "nkiem": 7553,
    "artÄħ": 7554,
    "ĠÅĽmierte": 7555,
    "conych": 7556,
    "Ġwiatr": 7557,
    "dzaÅĤ": 7558,
    "Ġminist": 7559,
    "Ġgrob": 7560,
    "sier": 7561,
    "Ġwaria": 7562,
    "Å¼aÄĩ": 7563,
    "mas": 7564,
    "prawdzie": 7565,
    "niak": 7566,
    "wÅĤo": 7567,
    "EG": 7568,
    "ĠRzecz": 7569,
    "ĠWilhel": 7570,
    "Ġsied": 7571,
    "Ġcesarz": 7572,
    "ĠukÅĤadu": 7573,
    "ustawy": 7574,
    "ĠokreÅĽlonym": 7575,
    "ĠuÅ¼ywane": 7576,
    "Ġlotnicze": 7577,
    "ĠKlemen": 7578,
    "LAMENT": 7579,
    "Ġscenariusz": 7580,
    "ĠEm": 7581,
    "ĠZS": 7582,
    "ĠBay": 7583,
    "Brytyjscy": 7584,
    "Ġszkole": 7585,
    "Ġrano": 7586,
    "Ġprzyjdzie": 7587,
    "czkÄħ": 7588,
    "Ġwsty": 7589,
    "Ġarmii": 7590,
    "tkÄĻ": 7591,
    "Ġtwar": 7592,
    "Ġdozna": 7593,
    "paÅĤ": 7594,
    "ĠszedÅĤ": 7595,
    "ĠmajÄħce": 7596,
    "nionego": 7597,
    "tary": 7598,
    "ĠwysiÅĤ": 7599,
    "stel": 7600,
    "pem": 7601,
    "dziel": 7602,
    "Ġodzyska": 7603,
    "ĠrzeÅº": 7604,
    "Ġobni": 7605,
    "Ġcudow": 7606,
    "Ġzadowo": 7607,
    "bÄĻdzie": 7608,
    "ĠLan": 7609,
    "ĠPiotra": 7610,
    "tos": 7611,
    "atem": 7612,
    "heim": 7613,
    "Dem": 7614,
    "ĠKultury": 7615,
    "jest": 7616,
    "LI": 7617,
    "Ġnomina": 7618,
    "ĠproduktÃ³w": 7619,
    "Antoni": 7620,
    "Ġkomite": 7621,
    "Ġdefini": 7622,
    "ĠVa": 7623,
    "Ġbrytyjski": 7624,
    "Ġ1998": 7625,
    "ĠXMPP": 7626,
    "âĢľ.": 7627,
    "ĠpowrÃ³ciÅĤ": 7628,
    "ĠduÅ¼ym": 7629,
    "ĠstÃ³p": 7630,
    "bki": 7631,
    "ĠpÅĤynÄħ": 7632,
    "Ġrozleg": 7633,
    "Å¼aÅĤy": 7634,
    "Ġpary": 7635,
    "run": 7636,
    "Ġdochodzi": 7637,
    "ĠzastÄħpi": 7638,
    "Ġprzebywa": 7639,
    "Ġopieku": 7640,
    "ĠpaÅĤacu": 7641,
    "Ġepi": 7642,
    "ĠHand": 7643,
    "Ġustawa": 7644,
    "Ġ48": 7645,
    "ĠdrÃ³g": 7646,
    "Ġbaterie": 7647,
    "Ġproblemy": 7648,
    "Ġautobus": 7649,
    "Gaze": 7650,
    "Ġurodzeni": 7651,
    "lonym": 7652,
    "ĠwszÄĻdzie": 7653,
    "owanym": 7654,
    "Ġjutro": 7655,
    "ĠTru": 7656,
    "ĠwewnÄħtrz": 7657,
    "duka": 7658,
    "ĠtobÄħ": 7659,
    "szuka": 7660,
    "Ġpowiem": 7661,
    "ĠpostanowiÅĤ": 7662,
    "Ġstrza": 7663,
    "Ġnasi": 7664,
    "ĠspoÅĽrÃ³d": 7665,
    "Ġkru": 7666,
    "mieÄĩ": 7667,
    "Ġzama": 7668,
    "Ġwalce": 7669,
    "obieÅĦstwo": 7670,
    "tujÄħ": 7671,
    "ĠduÅ¼ych": 7672,
    "Ġ1994": 7673,
    "Ġtermin": 7674,
    "ÅĤoÅ¼one": 7675,
    "ĠFr": 7676,
    "!âĢľ": 7677,
    "Oto": 7678,
    "Ġmelo": 7679,
    "Ġtle": 7680,
    "Ġgospodarczej": 7681,
    "Ġfunkcjonowania": 7682,
    "ĠurzÄħdzenia": 7683,
    "%,": 7684,
    "ĠTrybunaÅĤu": 7685,
    "ĠuzyskaÄĩ": 7686,
    "Wybory": 7687,
    "Ġmikro": 7688,
    "ĠÅļwiÄħ": 7689,
    "ĠKrÃ³lestwa": 7690,
    "ĠKrzysztof": 7691,
    "ĠEure": 7692,
    "dows": 7693,
    "ĠgÅĤowa": 7694,
    "Ġodde": 7695,
    "Ġodzie": 7696,
    "ĠrÃ³Å¼no": 7697,
    "dÅĤugo": 7698,
    "niaÄĩ": 7699,
    "taÅĤa": 7700,
    "Ġzawia": 7701,
    "Ġzazwyczaj": 7702,
    "nci": 7703,
    "jenia": 7704,
    "ĠksiÄĻÅ¼ni": 7705,
    "ncie": 7706,
    "Ġdekla": 7707,
    "Ġprzywi": 7708,
    "linie": 7709,
    "1990": 7710,
    "Ġodpowiednie": 7711,
    "taria": 7712,
    "Ġ180": 7713,
    "Ġ37": 7714,
    "Ġwykorzystania": 7715,
    "Ġstandar": 7716,
    "Ġszef": 7717,
    "Ġskom": 7718,
    "Ġagencji": 7719,
    "takÅ¼e": 7720,
    "ppe": 7721,
    "ion": 7722,
    "syw": 7723,
    "ĠzdolnoÅĽci": 7724,
    "ĠduÅ¼Äħ": 7725,
    "Ġmienia": 7726,
    "ĠzÄĻ": 7727,
    "ĠPodob": 7728,
    "ĠzawoÅĤaÅĤa": 7729,
    "ĠNic": 7730,
    "Ġposzuki": 7731,
    "ĠcieÅĦ": 7732,
    "ĠbiorÄħc": 7733,
    "gdzie": 7734,
    "baj": 7735,
    "ĠogÃ³lnej": 7736,
    "Ġzamia": 7737,
    "ĠksiÄħdz": 7738,
    "Ġnarodowych": 7739,
    "czko": 7740,
    "Ġboj": 7741,
    "ĠSur": 7742,
    "Ġzaufa": 7743,
    "Ġwyru": 7744,
    "ĠduÅ¼ej": 7745,
    "ĠÅĽwiadomo": 7746,
    "Ġprzypuszcza": 7747,
    "stal": 7748,
    "ĠObrony": 7749,
    "ĠwydatkÃ³w": 7750,
    "Ġ1988": 7751,
    "83": 7752,
    "Ġ1981": 7753,
    "ĠStro": 7754,
    "nizacji": 7755,
    "ĠelementÃ³w": 7756,
    "ĠStowarzy": 7757,
    "Ġmobil": 7758,
    "Ġekra": 7759,
    "ĠsiedziaÅĤ": 7760,
    "Ġwielka": 7761,
    "szeÅĦ": 7762,
    "ĠprzejÄĻ": 7763,
    "ĠCzÅĤowiek": 7764,
    "wajÄħc": 7765,
    "ĠkrajÃ³w": 7766,
    "padÅĤ": 7767,
    "Ġinwali": 7768,
    "Ġsystema": 7769,
    "biec": 7770,
    "ĠBla": 7771,
    "lus": 7772,
    "wicy": 7773,
    "Ġpacje": 7774,
    "ĠumÃ³w": 7775,
    "ĠpodwyÅ¼": 7776,
    "ĠoÅĽwia": 7777,
    "obÃ³w": 7778,
    "Ġulega": 7779,
    "ĠosiÄħgniÄĻcia": 7780,
    "ĠMinisterstwa": 7781,
    "Ġ57": 7782,
    "ĠkandydatÃ³w": 7783,
    "Ġner": 7784,
    "Ġkonferen": 7785,
    "Warszawa": 7786,
    "ĠFlorka": 7787,
    "ĠStanach": 7788,
    "ĠniechÄĻ": 7789,
    "Ġnasza": 7790,
    "Ġbrat": 7791,
    "Cza": 7792,
    "ĠkaÅ¼dÄħ": 7793,
    "ĠzrobiÅĤ": 7794,
    "kier": 7795,
    "szÃ³w": 7796,
    "Ġ49": 7797,
    "ĠKoÅĽciÃ³ÅĤ": 7798,
    "ÅĦstwem": 7799,
    "Ġzostali": 7800,
    "ĠMusi": 7801,
    "ĠdokÅĤad": 7802,
    "wice": 7803,
    "iar": 7804,
    "ĠobowiÄħza": 7805,
    "cena": 7806,
    "tÅĤuma": 7807,
    "Ġit": 7808,
    "Przepisy": 7809,
    "Ġustalenia": 7810,
    "ĠKomitetu": 7811,
    "ĠokreÅĽlony": 7812,
    "budowy": 7813,
    "Ġkodu": 7814,
    "ĠMor": 7815,
    "Ġodpowiedni": 7816,
    "zmem": 7817,
    "pidÃ³w": 7818,
    "ĠwydajnoÅĽci": 7819,
    "ĠBiaÅĤoru": 7820,
    "The": 7821,
    "MiejsowoÅĽÄĩ": 7822,
    "Ġczarne": 7823,
    "ĠPamiÄĻ": 7824,
    "ĠzmÄĻ": 7825,
    "Ġsro": 7826,
    "Ġwielkiego": 7827,
    "Ġniczego": 7828,
    "Ġrozmowa": 7829,
    "Ġspoczy": 7830,
    "Ġharmo": 7831,
    "Ġuprzej": 7832,
    "Ġpolecenia": 7833,
    "wiÄħzy": 7834,
    "ĠpoÅĤowy": 7835,
    "wiÅĤo": 7836,
    "Ġprzeprowadza": 7837,
    "ĠWoje": 7838,
    "ĠNowy": 7839,
    "ĠPR": 7840,
    "ĠpodwÃ³j": 7841,
    "Ġcharakterysty": 7842,
    "ĠskrÃ³": 7843,
    "Ġregula": 7844,
    "misja": 7845,
    "ĠwpÅĤywu": 7846,
    "ĠwÅĤadze": 7847,
    "rand": 7848,
    "pto": 7849,
    "Ġkilome": 7850,
    "ĠPoznaÅĦ": 7851,
    "ĠpoczÄħtkowo": 7852,
    "(\"": 7853,
    "Äĵi": 7854,
    "ĠkmÂ²": 7855,
    "Ġantropo": 7856,
    "syÄĩ": 7857,
    "Å¼yli": 7858,
    "ÅĤko": 7859,
    "ĠnoszÄħ": 7860,
    "Ġsamy": 7861,
    "ĠGdyby": 7862,
    "ĠwÄĻd": 7863,
    "dnicy": 7864,
    "bami": 7865,
    "wili": 7866,
    "Ġopieki": 7867,
    "ĠduszÄĻ": 7868,
    "ĠpiÄĻkny": 7869,
    "Ġotacza": 7870,
    "ĠbÅĤyszczÄħ": 7871,
    "Ġwzrok": 7872,
    "chÅĤo": 7873,
    "ĠpeÅĤniÄħ": 7874,
    "Ġdelika": 7875,
    "ĠkoÅĽciÃ³ÅĤ": 7876,
    "Å¼ono": 7877,
    "sÄħd": 7878,
    "Ġwszelkich": 7879,
    "ĠlÄħd": 7880,
    "ĠMaÅĤ": 7881,
    "Å¼by": 7882,
    "ĠWÄħ": 7883,
    "zowana": 7884,
    "iny": 7885,
    "Ġarcy": 7886,
    "Ġrol": 7887,
    "Ġrozpoczyna": 7888,
    "Ġnara": 7889,
    "ĠOber": 7890,
    "Ġuleg": 7891,
    "Ġ52": 7892,
    "Ġograniczenia": 7893,
    "ĠSocja": 7894,
    "ĠogÃ³lno": 7895,
    "ĠproblemÃ³w": 7896,
    "ĠobiektÃ³w": 7897,
    "zaleÅ¼": 7898,
    "94": 7899,
    "Ġwyznaczonej": 7900,
    "ĠsprawiedliwoÅĽci": 7901,
    "ĠSenatu": 7902,
    "ĠjakoÅĽci": 7903,
    "Ġformu": 7904,
    "ĠDziaÅĤa": 7905,
    "Ġ1980": 7906,
    "ĠwspÃ³ÅĤprac": 7907,
    "giello": 7908,
    "lti": 7909,
    "Ġmistrzo": 7910,
    "ĠEureko": 7911,
    "vel": 7912,
    "ĠAmi": 7913,
    "Ġkoleg": 7914,
    "ĠPotem": 7915,
    "Ġchu": 7916,
    "rzyÅĤo": 7917,
    "ĠpodÅĤo": 7918,
    "enu": 7919,
    "Ġwszystkiego": 7920,
    "Ġmagi": 7921,
    "Ġprzegra": 7922,
    "Ġnajpierw": 7923,
    "teÅ¼": 7924,
    "czce": 7925,
    "dziny": 7926,
    "Ġzachwy": 7927,
    "Ġzabi": 7928,
    "Ġnowym": 7929,
    "ĠogrÃ³d": 7930,
    "sjona": 7931,
    "ĠwodÄħ": 7932,
    "ĠÅĽladu": 7933,
    "Ġwyprawy": 7934,
    "ĠwÅĤasnoÅĽci": 7935,
    "Ġkochan": 7936,
    "lenda": 7937,
    "cyi": 7938,
    "ĠkapÅĤa": 7939,
    "Ġpozostaje": 7940,
    "padki": 7941,
    "Ġinfrastruk": 7942,
    "ĠniezbÄĻdne": 7943,
    "ĠstudiÃ³w": 7944,
    "ĠLotni": 7945,
    "Kar": 7946,
    "ĠGeor": 7947,
    "ĠZjednoczone": 7948,
    "ĠLOT": 7949,
    "ĠAustra": 7950,
    "bignie": 7951,
    "ĠDonald": 7952,
    "versi": 7953,
    "NajbliÅ¼sza": 7954,
    "Ġwolna": 7955,
    "ĠzaczÄĻli": 7956,
    "ĠwyjaÅĽnie": 7957,
    "ĠJej": 7958,
    "Ġokolicy": 7959,
    "Ġwstrzyma": 7960,
    "ĠnazwÄħ": 7961,
    "ĠsÅĤusz": 7962,
    "wiec": 7963,
    "Ġwycie": 7964,
    "Ġnareszcie": 7965,
    "ĠjednakÅ¼e": 7966,
    "ĠpoÅĽrednictwem": 7967,
    "Marek": 7968,
    "rans": 7969,
    "nota": 7970,
    "Ġlasu": 7971,
    "ĠwÅĤadzÄĻ": 7972,
    "Ġprzeja": 7973,
    "fal": 7974,
    "ĠZygmu": 7975,
    "Ġniemiecki": 7976,
    "kres": 7977,
    "ĠosiÄħga": 7978,
    "wentual": 7979,
    "czest": 7980,
    "Ġnaukowych": 7981,
    "Ġnegatyw": 7982,
    "Ġcm": 7983,
    "ĠAp": 7984,
    "âĢĿ)": 7985,
    "ĠZSRR": 7986,
    "lonego": 7987,
    "Ġspada": 7988,
    "ĠjakÅ¼e": 7989,
    "ĠKsiÄħ": 7990,
    "lizacja": 7991,
    "Ġchle": 7992,
    "dowych": 7993,
    "ĠwÄĻgla": 7994,
    "Ġprzeszko": 7995,
    "ĠpaniÄħ": 7996,
    "szaÅĤa": 7997,
    "Ġlegi": 7998,
    "rzona": 7999,
    "Ġwp": 8000,
    "niaÅĤa": 8001,
    "Ġludzkie": 8002,
    "Ġrewolu": 8003,
    "netu": 8004,
    "Ġludziom": 8005,
    "Ġnacze": 8006,
    "Ġrozmia": 8007,
    "ĠzwrÃ³ciÄĩ": 8008,
    "ÄĦ": 8009,
    "Ġosobom": 8010,
    "Ġfunkcjonariusza": 8011,
    "ĠspoÅĤeczne": 8012,
    "osob": 8013,
    "Ġkonkur": 8014,
    "niesienie": 8015,
    "Ġpropo": 8016,
    "JA": 8017,
    "ĠRegulaminu": 8018,
    "line": 8019,
    "ĠpodkreÅĽli": 8020,
    "ĠAndrzeja": 8021,
    "ĠJanusz": 8022,
    "zuÅĤma": 8023,
    "ĠXML": 8024,
    "ĠÅ¼al": 8025,
    "Å¼onej": 8026,
    "Ġnosi": 8027,
    "ĠNigdy": 8028,
    "ĠnieszczÄĻÅĽli": 8029,
    "ĠpewnoÅĽciÄħ": 8030,
    "bii": 8031,
    "szÅĤy": 8032,
    "Ġbohater": 8033,
    "Ġnazwisko": 8034,
    "Ġkrzyk": 8035,
    "Dy": 8036,
    "Ġzanim": 8037,
    "Ġwyspy": 8038,
    "Ġpozwoli": 8039,
    "Ġdopuszcza": 8040,
    "ĠmyÅĽleÄĩ": 8041,
    "Ġnume": 8042,
    "taty": 8043,
    "Ġzgody": 8044,
    "pali": 8045,
    "cono": 8046,
    "ĠspoÅ¼y": 8047,
    "ĠPia": 8048,
    "ĠwspÃ³lnego": 8049,
    "ccy": 8050,
    "ĠpopeÅĤ": 8051,
    "ĠwysyÅĤa": 8052,
    "Ġzaspo": 8053,
    "Ġintegra": 8054,
    "Ġsna": 8055,
    "Ġ99": 8056,
    "Ġ38": 8057,
    "ĠdochodÃ³w": 8058,
    "ĠrzÄħdowej": 8059,
    "ĠniezaleÅ¼nie": 8060,
    "ĠNarodowego": 8061,
    "ĠBud": 8062,
    "Ġanalizy": 8063,
    "Ġinwestycji": 8064,
    "Ġuzy": 8065,
    "ĠEdukacji": 8066,
    "bir": 8067,
    "Ġcyklu": 8068,
    "ĠpoÅĤoÅ¼ony": 8069,
    "ĠJapo": 8070,
    "ĠFestiwa": 8071,
    "Ġperku": 8072,
    "ĠbÅĤogosÅĤa": 8073,
    "ĠdziewczÄĻ": 8074,
    "Ã³rek": 8075,
    "Ġfla": 8076,
    "Ġbrata": 8077,
    "Ġwierzcho": 8078,
    "Ġsztuka": 8079,
    "ĠnajwiÄĻkszych": 8080,
    "lce": 8081,
    "ĠmÃ³wiÄĻ": 8082,
    "tch": 8083,
    "ĠprzyjÄħÄĩ": 8084,
    "Ġliter": 8085,
    "sten": 8086,
    "Ġreprezenta": 8087,
    "ĠFer": 8088,
    "Ġostatnim": 8089,
    "ĠRad": 8090,
    "Ġrycer": 8091,
    "ĠÅļwiat": 8092,
    "remo": 8093,
    "Ġfunda": 8094,
    "Ġlesie": 8095,
    "ĠwpÅĤywem": 8096,
    "leniem": 8097,
    "Ġsan": 8098,
    "ĠFry": 8099,
    "wskiej": 8100,
    "ĠcÃ³rki": 8101,
    "cal": 8102,
    "ĠwÅĤaÅĽciwego": 8103,
    "sam": 8104,
    "ustawie": 8105,
    "Ġ42": 8106,
    "ĠTer": 8107,
    "racja": 8108,
    "ts": 8109,
    "ĠStre": 8110,
    "done": 8111,
    "Ã¨": 8112,
    "ĠAri": 8113,
    "ĠzwrÃ³": 8114,
    "ĠuÅĽci": 8115,
    "nosiÅĤ": 8116,
    "Ġmio": 8117,
    "ĠmyÅĽlÄĻ": 8118,
    "Ġzby": 8119,
    "Ġdwudzie": 8120,
    "Ġgrozi": 8121,
    "Ġwest": 8122,
    "ĠwÄĻgl": 8123,
    "Ġocenia": 8124,
    "ĠkrÃ³lem": 8125,
    "Ġmusisz": 8126,
    "Ġwspomina": 8127,
    "ĠwÅĤÃ³": 8128,
    "Ġhra": 8129,
    "dzkiej": 8130,
    "Ġprofesor": 8131,
    "ĠprzepÅĤy": 8132,
    "rzono": 8133,
    "ĠprzeszÅĤoÅĽci": 8134,
    "ĠszepnÄĻÅĤa": 8135,
    "Ġpoeta": 8136,
    "Ġdokony": 8137,
    "Ġ1995": 8138,
    "ĠodlegÅĤoÅĽci": 8139,
    "ĠosiÄħgnÄħÄĩ": 8140,
    "Ġ1993": 8141,
    "Ġ1950": 8142,
    "ĠMedy": 8143,
    "ĠAdama": 8144,
    "Ġfilmowi": 8145,
    "tania": 8146,
    "Ġokrzy": 8147,
    "ĠpoczÄħÅĤ": 8148,
    "ĠtysiÄħc": 8149,
    "dzaÄĩ": 8150,
    "Ġstali": 8151,
    "ĠprzeszedÅĤ": 8152,
    "dzki": 8153,
    "ĠDlaczego": 8154,
    "Ġura": 8155,
    "ĠobÅĤo": 8156,
    "Ġnapa": 8157,
    "ĠpÅĤynie": 8158,
    "mnieÄĩ": 8159,
    "Ġwojskowej": 8160,
    "ĠMedio": 8161,
    "Ġdostarcza": 8162,
    "serw": 8163,
    "ĠistniejÄħ": 8164,
    "ĠChrystu": 8165,
    "Ġ1975": 8166,
    "Ġ41": 8167,
    "Ġwpisa": 8168,
    "nowania": 8169,
    "ĠpoÅĤÄħczenie": 8170,
    "Ġstruktury": 8171,
    "Ab": 8172,
    "Ġ1948": 8173,
    "ĠprzeglÄħd": 8174,
    "ĠHotel": 8175,
    "ĠKla": 8176,
    "Å¹rÃ³dÅĤo": 8177,
    "ĠKÅĤo": 8178,
    "ell": 8179,
    "ĠHitchcock": 8180,
    "szeÄĩ": 8181,
    "wiajÄħc": 8182,
    "Ġpakie": 8183,
    "Ġprzerwa": 8184,
    "Ġwdra": 8185,
    "Ġhonor": 8186,
    "ĠwÃ³d": 8187,
    "ĠnagrodÄĻ": 8188,
    "ĠodparÅĤ": 8189,
    "Ġratu": 8190,
    "Ġkwar": 8191,
    "Ġkoszty": 8192,
    "anu": 8193,
    "ĠÅģÃ³dÅº": 8194,
    "Bra": 8195,
    "gowie": 8196,
    "derem": 8197,
    "Dru": 8198,
    "ĠKrymhil": 8199,
    "wzglÄĻ": 8200,
    "Ġtymczas": 8201,
    "Ġinicjatywy": 8202,
    "ĠpoÅĤÄħczeÅĦ": 8203,
    "Ġpozbawienia": 8204,
    "Ġpolitycznych": 8205,
    "Ġnadzoru": 8206,
    "Ġstandard": 8207,
    "Ġrestaura": 8208,
    "ĠPal": 8209,
    "Jan": 8210,
    "udo": 8211,
    "Ġaspek": 8212,
    "Ġelektrycznych": 8213,
    "ËĿ": 8214,
    "wid": 8215,
    "ĠCam": 8216,
    "Ġdawna": 8217,
    "Ġtrzydzie": 8218,
    "biÄĻ": 8219,
    "ĠAmeryki": 8220,
    "ĠnajwiÄĻcej": 8221,
    "lonÄħ": 8222,
    "Ġkup": 8223,
    "Ġprzeczy": 8224,
    "ĠpatrzeÄĩ": 8225,
    "ĠprzywiÄħza": 8226,
    "ĠbÃ³l": 8227,
    "Ġporzu": 8228,
    "Ġmechani": 8229,
    "ĠbyÅĤby": 8230,
    "ĠHenryka": 8231,
    "Ġnadziei": 8232,
    "Ġokru": 8233,
    "szku": 8234,
    "Ġkoszy": 8235,
    "ĠksztaÅĤt": 8236,
    "ĠniesÅĤy": 8237,
    "Ġdwor": 8238,
    "ĠÅ¼onÄĻ": 8239,
    "Ġapo": 8240,
    "ĠrÃ³wni": 8241,
    "ĠodmÃ³wi": 8242,
    "Ġnieod": 8243,
    "ĠprzyjÄĻcia": 8244,
    "Ġplane": 8245,
    "Ġpisarz": 8246,
    "ĠudziaÅĤem": 8247,
    "Ġpowszechnie": 8248,
    "ĠÅĤÄħczÄħ": 8249,
    "ĠLudowej": 8250,
    "Ġ44": 8251,
    "Ġgwa": 8252,
    "ĠTek": 8253,
    "Ġpras": 8254,
    "Ġminima": 8255,
    "kcji": 8256,
    "Ġmody": 8257,
    "ĠMosk": 8258,
    "ĠLeo": 8259,
    "2002": 8260,
    "Â·": 8261,
    "xt": 8262,
    "lip": 8263,
    "ĠAf": 8264,
    "ĠIRC": 8265,
    "Ġ1941": 8266,
    "Ġaktorka": 8267,
    "imna": 8268,
    "Ġchcieli": 8269,
    "ĠdrÅ¼Äħ": 8270,
    "szeniem": 8271,
    "jechaÅĤ": 8272,
    "Ġzbu": 8273,
    "Å¼nÄħ": 8274,
    "ĠHenryk": 8275,
    "miot": 8276,
    "ĠnarzÄĻdzia": 8277,
    "dzien": 8278,
    "pty": 8279,
    "ĠwyÅ¼ej": 8280,
    "sÅĤucha": 8281,
    "Ġszczyt": 8282,
    "ĠÅĤÄħczy": 8283,
    "ĠPozosta": 8284,
    "ction": 8285,
    "ĠkazaÅĤ": 8286,
    "towanych": 8287,
    "93": 8288,
    "Ġwskazuje": 8289,
    "Ġlokalnym": 8290,
    "Ġnadzor": 8291,
    "Ġwytwarza": 8292,
    "Ġjednostka": 8293,
    "Ġzasadzie": 8294,
    "ĠprzestÄĻpstw": 8295,
    "lwen": 8296,
    "ktÃ³rym": 8297,
    "NI": 8298,
    "ĠAb": 8299,
    "06": 8300,
    "cs": 8301,
    "powiat": 8302,
    "Ġmecz": 8303,
    "Ġang": 8304,
    "ĠWindows": 8305,
    "ĪĴ": 8306,
    "Ġprzejrza": 8307,
    "ĠznaÄĩ": 8308,
    "chÄħ": 8309,
    "ÅĤama": 8310,
    "!âĢ¦": 8311,
    "Ġfrancuski": 8312,
    "ĠÅ¼elaz": 8313,
    "Ġwsparcia": 8314,
    "ciaÅĤbym": 8315,
    "ĠgÅĤÄĻboko": 8316,
    "Ġpodzi": 8317,
    "ĠbiegnÄħ": 8318,
    "Ġmus": 8319,
    "ĠkaÅ¼de": 8320,
    "ĠkoÅĦczy": 8321,
    "mÅĤo": 8322,
    "ĠpostÄĻpowanie": 8323,
    "Ġpowstanie": 8324,
    "inÄĻ": 8325,
    "ord": 8326,
    "Ġistotnie": 8327,
    "stian": 8328,
    "Ġkalenda": 8329,
    "jak": 8330,
    "Ġsprzy": 8331,
    "dziem": 8332,
    "Ġskutek": 8333,
    "ed": 8334,
    "Ġprzewidy": 8335,
    "ĠprzejÅĽci": 8336,
    "tencji": 8337,
    "Ġmieszkani": 8338,
    "ĠzagroÅ¼enia": 8339,
    "Ġzatwier": 8340,
    "ĠuÅ¼ytku": 8341,
    "ĠnieprawidÅĤ": 8342,
    "Ġefektyw": 8343,
    "Ġaktual": 8344,
    "wodniczÄħcy": 8345,
    "ĠKrajowej": 8346,
    "Ġgodz": 8347,
    "ĠOdrodzenia": 8348,
    "iz": 8349,
    "Ġsamolo": 8350,
    "Ġelektroni": 8351,
    "las": 8352,
    "ĠTh": 8353,
    "Ã¢": 8354,
    "ĠpiÅĤce": 8355,
    "share": 8356,
    "Ġaborcji": 8357,
    "pry": 8358,
    "ĠwrÃ³ci": 8359,
    "ĠczegoÅĽ": 8360,
    "nili": 8361,
    "ĠtysiÄħce": 8362,
    "Ġodmie": 8363,
    "Ġzech": 8364,
    "ĠszukaÄĩ": 8365,
    "wiera": 8366,
    "Ġzamyka": 8367,
    "Ġoddzie": 8368,
    "Ġresz": 8369,
    "mal": 8370,
    "wka": 8371,
    "ĠOtÃ³Å¼": 8372,
    "Ġprawem": 8373,
    "ĠopiniÄĻ": 8374,
    "Ġkonieczne": 8375,
    "skiemu": 8376,
    "rona": 8377,
    "OD": 8378,
    "bezpieczy": 8379,
    "anna": 8380,
    "Ġrycerze": 8381,
    "Ġkwoty": 8382,
    "ĠkoniecznoÅĽci": 8383,
    "ĠzarzÄħd": 8384,
    "Ġzapobiega": 8385,
    "ĠwewnÄĻtrznych": 8386,
    "Ġprywatyzacji": 8387,
    "Sek": 8388,
    "Ġkonstytu": 8389,
    "ĠodbyÅĤ": 8390,
    "ĠzuÅ¼ytych": 8391,
    "Ġekspe": 8392,
    "cjum": 8393,
    "Ġmodu": 8394,
    "Ġelement": 8395,
    "Ġautostra": 8396,
    "ĠTV": 8397,
    "Lau": 8398,
    "ĠnadziejÄĻ": 8399,
    "ĠzabraÄĩ": 8400,
    "ĠprzechodzÄħ": 8401,
    "!âĢĿ": 8402,
    "Ġpowinni": 8403,
    "Bar": 8404,
    "dki": 8405,
    "Ġus": 8406,
    "miÅĤ": 8407,
    "ĠNaleÅ¼y": 8408,
    "lÄħd": 8409,
    "dzisz": 8410,
    "ĠdomÃ³w": 8411,
    "ĠchwilÄħ": 8412,
    "Ġsch": 8413,
    "Ġbry": 8414,
    "ĠDroga": 8415,
    "Ġemerytury": 8416,
    "gÅĤy": 8417,
    "Ġwzmoc": 8418,
    "Ġwina": 8419,
    "ĠkoÅĤa": 8420,
    "ĠGrzego": 8421,
    "Ġwyzwo": 8422,
    "Ġdefi": 8423,
    "ĠCzu": 8424,
    "ĠszczegÃ³lne": 8425,
    "ĠTutaj": 8426,
    "Rady": 8427,
    "komunika": 8428,
    "Ġterytorialnego": 8429,
    "92": 8430,
    "Ġkonserwa": 8431,
    "dnienie": 8432,
    "logiczne": 8433,
    "Ġapara": 8434,
    "Ġklubu": 8435,
    "ĠPipidÃ³w": 8436,
    "Ġneu": 8437,
    "ĠBor": 8438,
    "ĠgatunkÃ³w": 8439,
    "Ġemo": 8440,
    "szczegÃ³lnoÅĽci": 8441,
    "formacji": 8442,
    "ĠMari": 8443,
    "()": 8444,
    "Ð»": 8445,
    "Geografia": 8446,
    "ĠwidzÄħc": 8447,
    "dziesiÄĻ": 8448,
    "imi": 8449,
    "celar": 8450,
    "Ġszta": 8451,
    "bÅĤa": 8452,
    "Å¼ki": 8453,
    "ĠdostaÄĩ": 8454,
    "ĠinnÄħ": 8455,
    "ÅĽwiÄĻ": 8456,
    "Ġpada": 8457,
    "nÄħÅĤem": 8458,
    "Ġkim": 8459,
    "zeÅĤ": 8460,
    "Ġreligii": 8461,
    "ruje": 8462,
    "ĠgÅĤÃ³wne": 8463,
    "ĠÅĽrodku": 8464,
    "Ġjaski": 8465,
    "ĠAnglii": 8466,
    "Ġspotkanie": 8467,
    "Ġ46": 8468,
    "pkt": 8469,
    "Ġporozumienia": 8470,
    "ĠuwzglÄĻ": 8471,
    "Ġ1984": 8472,
    "Ġ53": 8473,
    "Ġresor": 8474,
    "ĠzgÅĤasza": 8475,
    "Ġzatrzymania": 8476,
    "zowaÄĩ": 8477,
    "wery": 8478,
    "ĠAntoniego": 8479,
    "landia": 8480,
    "Ġdrogowe": 8481,
    "gres": 8482,
    "Autor": 8483,
    "cyna": 8484,
    "ux": 8485,
    "riofa": 8486,
    "Å¼ka": 8487,
    "Ġniczym": 8488,
    "ĠdosyÄĩ": 8489,
    "Ġsposobem": 8490,
    "biegÅĤ": 8491,
    "Ġzaro": 8492,
    "Ġszu": 8493,
    "Ġwysoka": 8494,
    "ĠpamiÄĻÄĩ": 8495,
    "Pow": 8496,
    "Ġorygina": 8497,
    "Ġpragnie": 8498,
    "lki": 8499,
    "ĠzbliÅ¼a": 8500,
    "Ġstatku": 8501,
    "Ġzdrowo": 8502,
    "Ġnade": 8503,
    "tko": 8504,
    "wionych": 8505,
    "Ġfu": 8506,
    "Ġprzedstawicieli": 8507,
    "ĠdÅºwiÄĻk": 8508,
    "tero": 8509,
    "Ġstowarzy": 8510,
    "ĠInne": 8511,
    "ÅĤowi": 8512,
    "ĠmÄĻskie": 8513,
    "ĠKry": 8514,
    "chÅĤa": 8515,
    "Pla": 8516,
    "matu": 8517,
    "Ġbywa": 8518,
    "84": 8519,
    "Ġcesar": 8520,
    "ĠVI": 8521,
    "Ġwybrany": 8522,
    "Ġosobie": 8523,
    "lizmu": 8524,
    "ĠokreÅĽlenie": 8525,
    "Ġbudowla": 8526,
    "Ġwykaza": 8527,
    "Ġklawi": 8528,
    "ast": 8529,
    "nus": 8530,
    "etro": 8531,
    "KS": 8532,
    "hn": 8533,
    "ĠVe": 8534,
    "iÄĻkszoÅĽÄĩ": 8535,
    "Ġzmiennej": 8536,
    "gz": 8537,
    "Ã¤nki": 8538,
    "ĠdodaÅĤ": 8539,
    "ĠjÄĻzykÃ³w": 8540,
    "dÅĤy": 8541,
    "Ġpewnie": 8542,
    "ĠWszystkie": 8543,
    "Ġokno": 8544,
    "Ġdrzewo": 8545,
    "ĠpodjÄħÅĤ": 8546,
    "Sie": 8547,
    "Ġpokrywa": 8548,
    "fu": 8549,
    "skami": 8550,
    "Ġnumer": 8551,
    "ĠÅĽwiÄĻta": 8552,
    "owuje": 8553,
    "terze": 8554,
    "Ġwysp": 8555,
    "ĠJuli": 8556,
    "ĠbudowÄĻ": 8557,
    "byÅĽmy": 8558,
    "Ġnorma": 8559,
    "ĠAleksandra": 8560,
    "ĠpoczÄħtek": 8561,
    "Ġprzyczyn": 8562,
    "Ġogranicza": 8563,
    "ĠczÅĤonkowskich": 8564,
    "ĠMag": 8565,
    "ĠDembi": 8566,
    "ida": 8567,
    "ĠKro": 8568,
    "ĠMuzeum": 8569,
    "Ã¤nkische": 8570,
    "ĠwesoÅĤo": 8571,
    "ĠÅĽciÄħ": 8572,
    "Ġpop": 8573,
    "Ġposa": 8574,
    "Ġszczerze": 8575,
    "ĠwstrzÄħ": 8576,
    "ĠgaÅĤÄĻ": 8577,
    "kiedy": 8578,
    "sjÄĻ": 8579,
    "sprawiedli": 8580,
    "Ġwzbu": 8581,
    "wek": 8582,
    "drze": 8583,
    "ĠScho": 8584,
    "lety": 8585,
    "ndy": 8586,
    "zÄħd": 8587,
    "uÅ¼y": 8588,
    "Ġwyspie": 8589,
    "towaÅĤa": 8590,
    "pur": 8591,
    "owanÄħ": 8592,
    "ĠFre": 8593,
    "Ġzwol": 8594,
    "ĠznaczÄħ": 8595,
    "Rada": 8596,
    "ĠÅĽlÄħ": 8597,
    "Ġ95": 8598,
    "ĠwÄħtpliwoÅĽci": 8599,
    "ĠFunduszu": 8600,
    "Ġkontakt": 8601,
    "Ġzabezpiecze": 8602,
    "szczeÅĦ": 8603,
    "twem": 8604,
    "Ġ1969": 8605,
    "Ġnego": 8606,
    "ĠArt": 8607,
    "ciÄħgiem": 8608,
    "Ġinten": 8609,
    "szewski": 8610,
    "ĠPolakÃ³w": 8611,
    "Ġgracz": 8612,
    "Ġfilozof": 8613,
    "Kla": 8614,
    "%)": 8615,
    "EU": 8616,
    "AC": 8617,
    "Ġzbierania": 8618,
    "dap": 8619,
    "],": 8620,
    "ĠSh": 8621,
    "Ġpremiera": 8622,
    "ther": 8623,
    "Wypadki": 8624,
    "reuth": 8625,
    "ĠrzÄĻdu": 8626,
    "kacje": 8627,
    "ĠpodniÃ³sÅĤ": 8628,
    "ĠJeden": 8629,
    "Ġgodzinie": 8630,
    "ĠWszyscy": 8631,
    "ĠjakiejÅĽ": 8632,
    "Ġniedzie": 8633,
    "Por": 8634,
    "Ġodwa": 8635,
    "ĠwidziaÅĤem": 8636,
    "ĠwodÄĻ": 8637,
    "ĠksiÄħÅ¼ek": 8638,
    "Ġzato": 8639,
    "ĠposÄħ": 8640,
    "Ġpory": 8641,
    "Ġwysu": 8642,
    "ĠksztaÅĤcie": 8643,
    "Ġistoty": 8644,
    "gaÄĩ": 8645,
    "Nad": 8646,
    "Ġcyfr": 8647,
    "Miasto": 8648,
    "ĠKonstytu": 8649,
    "ĠArchi": 8650,
    "ĠzmarÅĤ": 8651,
    "81": 8652,
    "Ġprobo": 8653,
    "Ġjeziora": 8654,
    "woÅĽÄĩ": 8655,
    "niÅ¼": 8656,
    "IS": 8657,
    "ĠTho": 8658,
    "ĠUsta": 8659,
    "Ġtj": 8660,
    "Ġczasami": 8661,
    "ĠkorzyÅĽci": 8662,
    "Ġwzo": 8663,
    "ĠuchwaÅĤy": 8664,
    "ĠParyÅ¼u": 8665,
    "Ġizo": 8666,
    "wark": 8667,
    "Ġprocesu": 8668,
    "cri": 8669,
    "con": 8670,
    "Ġmodel": 8671,
    "ĠSystem": 8672,
    "Ġkontyne": 8673,
    "ĠPri": 8674,
    "dorf": 8675,
    "ĠÅģom": 8676,
    "Ġmatematycz": 8677,
    "jczy": 8678,
    "Ġrzadko": 8679,
    "Ġsamych": 8680,
    "Ġpogar": 8681,
    "ĠprzyszÅĤo": 8682,
    "Ġprzecie": 8683,
    "Ġdam": 8684,
    "ĠWz": 8685,
    "Ach": 8686,
    "myÅĽlnie": 8687,
    "ĠrÄħk": 8688,
    "Ġczci": 8689,
    "Ġsnu": 8690,
    "Ġzabawy": 8691,
    "Ġunik": 8692,
    "ĠniesÅĤycha": 8693,
    "Ġjasne": 8694,
    "ĠÅ¼yciem": 8695,
    "ĠwypeÅĤ": 8696,
    "Ġnatury": 8697,
    "ĠFranciszek": 8698,
    "Ġgodzinach": 8699,
    "Ġrozkaz": 8700,
    "wÅĤaÅĽci": 8701,
    "Ha": 8702,
    "LE": 8703,
    "Ġmaszyn": 8704,
    "fur": 8705,
    "ĠÅ¼ydow": 8706,
    "korzy": 8707,
    "Ġemisji": 8708,
    "ĠniepeÅĤ": 8709,
    "ĠciÄħÅ¼y": 8710,
    "ĠwnioskÃ³w": 8711,
    "Ġeksplo": 8712,
    "widen": 8713,
    "paÅĦstw": 8714,
    "ĠskutkÃ³w": 8715,
    "Ġsystemie": 8716,
    "zycji": 8717,
    "Funkcjonariusz": 8718,
    "ĠpÅĤ": 8719,
    "ĠMc": 8720,
    "ĠPru": 8721,
    "Ġmulti": 8722,
    "Ġnotyfi": 8723,
    "Ġpremier": 8724,
    "Ġolimpi": 8725,
    "mand": 8726,
    "Ġjapo": 8727,
    "ĠczuÅĤ": 8728,
    "ĠdziewiÄĻ": 8729,
    "Ġponu": 8730,
    "ĠÄĩwi": 8731,
    "Ġpopro": 8732,
    "Ġskry": 8733,
    "ĠgodzinÄĻ": 8734,
    "ĠskÃ³ry": 8735,
    "Ġniepraw": 8736,
    "Ġpopra": 8737,
    "ĠchcÄħc": 8738,
    "ĠmusiaÅĤa": 8739,
    "gnÄħÅĤ": 8740,
    "Ġpobli": 8741,
    "waniem": 8742,
    "ĠbÅĤyska": 8743,
    "Ġwich": 8744,
    "ĠSko": 8745,
    "Ġzem": 8746,
    "ÅĽciÅĤa": 8747,
    "Ġniedaw": 8748,
    "liwe": 8749,
    "Ġdziwnie": 8750,
    "Ġnur": 8751,
    "ĠrzeczywistoÅĽci": 8752,
    "ĠÅĽrodka": 8753,
    "Ġagen": 8754,
    "Ġnowoczes": 8755,
    "Ġznaczenia": 8756,
    "ĠsÅĤuÅ¼bie": 8757,
    "Ġbudynku": 8758,
    "ĠTadeusz": 8759,
    "Ġwydanie": 8760,
    "Ġuwo": 8761,
    "ĠokreÅĽlonego": 8762,
    "ĠpodmiotÃ³w": 8763,
    "Ġkomisjo": 8764,
    "Ġuzasadnio": 8765,
    "Ġkorzystania": 8766,
    "ĠupowaÅ¼": 8767,
    "Ġ1947": 8768,
    "Ġprowadzenie": 8769,
    "Ġwnioski": 8770,
    "ĠbezpoÅĽrednie": 8771,
    "ĠtwÃ³rczoÅĽci": 8772,
    "ĠutworÃ³w": 8773,
    "ĠAbra": 8774,
    "ĠMala": 8775,
    "2023": 8776,
    "ĠObecnie": 8777,
    "Ġstruktura": 8778,
    "ĠWorld": 8779,
    "ĠmuzuÅĤma": 8780,
    "ĠFrÃ¤nkische": 8781,
    "Ġpanowie": 8782,
    "prowadziÅĤ": 8783,
    "ĠwÄħt": 8784,
    "ĠpoznaÄĩ": 8785,
    "Ġpatrz": 8786,
    "Ġukocha": 8787,
    "Ġjasno": 8788,
    "ĠZu": 8789,
    "ĠczymÅĽ": 8790,
    "ĠmieszkaÅĦcy": 8791,
    "ĠdÃ³ÅĤ": 8792,
    "Ġpowrotem": 8793,
    "biony": 8794,
    "ĠnajwiÄĻksze": 8795,
    "kcie": 8796,
    "ĠwyraÅ¼a": 8797,
    "Åºnia": 8798,
    "Ġwestch": 8799,
    "Podczas": 8800,
    "Pat": 8801,
    "Ġkoron": 8802,
    "ĠcaÅĤkiem": 8803,
    "Å¼onÄħ": 8804,
    "bierz": 8805,
    "wiar": 8806,
    "Ġuniwersyte": 8807,
    "ÅĽwie": 8808,
    "zny": 8809,
    "ĠIch": 8810,
    "ue": 8811,
    "Tam": 8812,
    "ĠoÅĤta": 8813,
    "nat": 8814,
    "jechaÄĩ": 8815,
    "mann": 8816,
    "ĠmÅĤodych": 8817,
    "ĠgranicÄĻ": 8818,
    "Ġburmistrz": 8819,
    "ĠsieÄĩ": 8820,
    "ĠAma": 8821,
    "ĠXVIII": 8822,
    "TreÅĽÄĩ": 8823,
    "Ġdrogowego": 8824,
    "ĠszczegÃ³ÅĤowe": 8825,
    "Ġobrach": 8826,
    "Ġdecyzje": 8827,
    "ĠprzestÄĻpstwa": 8828,
    "ĠWspÃ³ÅĤ": 8829,
    "Ġ1986": 8830,
    "portu": 8831,
    "Ġety": 8832,
    "ĠOgÃ³l": 8833,
    "Ġkrak": 8834,
    "czeÅĦstwo": 8835,
    "Ġopozy": 8836,
    "wÄħt": 8837,
    "....": 8838,
    "L_": 8839,
    "02": 8840,
    "bora": 8841,
    "nast": 8842,
    "Ġfestiwa": 8843,
    "Ġfilmowe": 8844,
    "Ġdrzwia": 8845,
    "Äĩmi": 8846,
    "bienia": 8847,
    "ĠOjciec": 8848,
    "Ġchwil": 8849,
    "Ġmle": 8850,
    "ĠchÄĻtnie": 8851,
    "Ġwidzia": 8852,
    "ĠÅ¼oÅĤnierz": 8853,
    "ĠMiaÅĤ": 8854,
    "Ġprzypomnia": 8855,
    "Ġzabezpie": 8856,
    "wiaÄĩ": 8857,
    "rzami": 8858,
    "ĠpomÃ³c": 8859,
    "ĠmÃ³z": 8860,
    "ĠsiÅĤÄħ": 8861,
    "Ġutru": 8862,
    "ĠponiÅ¼ej": 8863,
    "ĠMÄĻ": 8864,
    "Stra": 8865,
    "ĠAmeryka": 8866,
    "lanie": 8867,
    "ĠuÅ¼yte": 8868,
    "ĠHal": 8869,
    "SZ": 8870,
    "Ġczele": 8871,
    "Ġwojna": 8872,
    "moÅĽÄĩ": 8873,
    "ngu": 8874,
    "ĠpodstawÄĻ": 8875,
    "ĠzasiÅĤ": 8876,
    "ĠzasobÃ³w": 8877,
    "ĠpodjÄĻcia": 8878,
    "Ġpodleg": 8879,
    "Ġkonta": 8880,
    "Ġ1968": 8881,
    "kapi": 8882,
    "cyjnie": 8883,
    "ĠKolej": 8884,
    "ĠEinstein": 8885,
    "Sonda": 8886,
    "Ġserialu": 8887,
    "ÂłÂłÂłÂł": 8888,
    "Powie": 8889,
    "ĠpocaÅĤu": 8890,
    "ĠÅ¼aÅĤo": 8891,
    "Ġmasy": 8892,
    "pami": 8893,
    "Mat": 8894,
    "ĠgaÅĤÄħ": 8895,
    "bÃ³": 8896,
    "ĠzachÄĻ": 8897,
    "Ġznu": 8898,
    "ĠradoÅĽÄĩ": 8899,
    "Ġprzymu": 8900,
    "Ġskorzysta": 8901,
    "ÅĤoÅ¼y": 8902,
    "kam": 8903,
    "niajÄħ": 8904,
    "Ulica": 8905,
    "ĠtrudnoÅĽci": 8906,
    "Ġnieja": 8907,
    "owisko": 8908,
    "mÃ³wie": 8909,
    "Ġpromieni": 8910,
    "ĠWÅĽrÃ³d": 8911,
    "Ġuzbro": 8912,
    "Ġpoety": 8913,
    "mierza": 8914,
    "ĠkwotÄĻ": 8915,
    "pospolita": 8916,
    "ĠdokumentÃ³w": 8917,
    "Ġ500": 8918,
    "Ġcer": 8919,
    "ĠWyborcza": 8920,
    "ĠzwiÄħzek": 8921,
    "97": 8922,
    "ĠczÅĤonek": 8923,
    "Ġewentual": 8924,
    "Ġzachowania": 8925,
    "Ġsocjalisty": 8926,
    "Ġparlamentar": 8927,
    "Ġprint": 8928,
    "Ð¹": 8929,
    "ratia": 8930,
    "MPK": 8931,
    "grang": 8932,
    "ĠDolna": 8933,
    "ĠNagroda": 8934,
    "ĠPLL": 8935,
    "ĠumiaÅĤ": 8936,
    "Ġdyrektora": 8937,
    "Tymczasem": 8938,
    "ĠuczniÃ³w": 8939,
    "ĠnajpiÄĻk": 8940,
    "ĠsÄħsia": 8941,
    "ĠtwarzÄħ": 8942,
    "ĠAra": 8943,
    "Ġgorz": 8944,
    "ĠnÃ³g": 8945,
    "noszÄħc": 8946,
    "ĠmnÃ³": 8947,
    "ĠpÅĤaszczy": 8948,
    "Ġpodobny": 8949,
    "giej": 8950,
    "pÃ³ki": 8951,
    "ĠwÅĤasnym": 8952,
    "dnika": 8953,
    "kanie": 8954,
    "Ġadre": 8955,
    "ĠmiarÄĻ": 8956,
    "ĠzgoÅĤa": 8957,
    "ĠszepnÄħÅĤ": 8958,
    "Ġwzy": 8959,
    "ĠbroÅĦ": 8960,
    "bka": 8961,
    "Ġsumie": 8962,
    "gnÄĻ": 8963,
    "ĠprawdÄĻ": 8964,
    "Ġnabo": 8965,
    "komi": 8966,
    "ĠokreÅĽliÄĩ": 8967,
    "Ġjedynym": 8968,
    "lt": 8969,
    "tre": 8970,
    "Ġ1976": 8971,
    "Ġobrachunk": 8972,
    "ĠmÅĤodzieÅ¼y": 8973,
    "Ġpobytu": 8974,
    "Ġdokument": 8975,
    "Ġwypowiedzi": 8976,
    "ĠTomasza": 8977,
    "ĠPrzykÅĤad": 8978,
    "Ġklienta": 8979,
    "ĠMaciej": 8980,
    "Ġdystrybu": 8981,
    "ĠTem": 8982,
    "1046": 8983,
    "âĢĿ).": 8984,
    "ning": 8985,
    "ĠRysz": 8986,
    "ĠWydawnictwo": 8987,
    "Ġbakteriofa": 8988,
    "ĠMain": 8989,
    "Ġkurskim": 8990,
    "Ġspokoju": 8991,
    "ĠmÃ³wili": 8992,
    "Ġbr": 8993,
    "Ġojczyz": 8994,
    "Ġchor": 8995,
    "Ġniewiele": 8996,
    "ĠDobrze": 8997,
    "Ġpowiedz": 8998,
    "Ġdawno": 8999,
    "Ġkocham": 9000,
    "Ġdawniej": 9001,
    "rzeli": 9002,
    "ĠzÅĤote": 9003,
    "Ġset": 9004,
    "Ġpobo": 9005,
    "ĠpowiÄĻk": 9006,
    "ĠPierwsze": 9007,
    "Ġgor": 9008,
    "Ġodpo": 9009,
    "ĠgraÄĩ": 9010,
    "ĠnaszÄħ": 9011,
    "Åļwia": 9012,
    "ÅĦsku": 9013,
    "dowy": 9014,
    "ĠwyÅ¼y": 9015,
    "ĠniezwÅĤo": 9016,
    "Cie": 9017,
    "Ġtka": 9018,
    "ĠÅºrÃ³dÅĤa": 9019,
    "rowo": 9020,
    "ĠkoÅĦcowe": 9021,
    "nictwie": 9022,
    "ĠAgen": 9023,
    "Ġprzewiduje": 9024,
    "Ġwprowadzenia": 9025,
    "nowienia": 9026,
    "nianie": 9027,
    "ĠtoÅ¼samo": 9028,
    "ĠPartii": 9029,
    "Ġ1966": 9030,
    "ĠÅģodzi": 9031,
    "Ġataku": 9032,
    "zowaÅĤ": 9033,
    "ĠTowarzystwa": 9034,
    "eu": 9035,
    "2006": 9036,
    "seria": 9037,
    "ttps": 9038,
    "2021": 9039,
    "kumulatorÃ³w": 9040,
    "ĠIS": 9041,
    "Ġqu": 9042,
    "ĠStanisÅĤawa": 9043,
    "ĠWojciech": 9044,
    "BN": 9045,
    "Ġtorrent": 9046,
    "ĠSprawiedliwoÅĽÄĩ": 9047,
    "Ġsonda": 9048,
    "Filmy": 9049,
    "reaci": 9050,
    "ĠPostaÄĩ": 9051,
    "Dzi": 9052,
    "Ġpapier": 9053,
    "Ġsal": 9054,
    "ĠkoÅĽciele": 9055,
    "Ġnauczycieli": 9056,
    "liwy": 9057,
    "Ġlitery": 9058,
    "ĠhistoriÄĻ": 9059,
    "ĠMacie": 9060,
    "Ġinna": 9061,
    "Ġognia": 9062,
    "Ġalbum": 9063,
    "fla": 9064,
    "Ġoz": 9065,
    "Ġrodzina": 9066,
    "ĠzewnÄħtrz": 9067,
    "ĠwÄĻzeÅĤ": 9068,
    "ĠprzyjÄħÅĤ": 9069,
    "Ġniemi": 9070,
    "ciÅĤo": 9071,
    "Ġokolicach": 9072,
    "ĠTro": 9073,
    "Ġprzedmiot": 9074,
    "Ġdalsze": 9075,
    "ĠujÄĻ": 9076,
    "Ġhistoria": 9077,
    "larÃ³w": 9078,
    "Ġwynalaz": 9079,
    "wic": 9080,
    "Ġprzechowy": 9081,
    "Ġakt": 9082,
    "Or": 9083,
    "brew": 9084,
    "ĠpojÄĻcia": 9085,
    "Ġpisarze": 9086,
    "tologii": 9087,
    "Com": 9088,
    "Ġwydania": 9089,
    "ĠOrganiza": 9090,
    "warza": 9091,
    "ĠÅĽrodowisk": 9092,
    "Ġposiedzenia": 9093,
    "ĠUniwersytecie": 9094,
    "ĠGali": 9095,
    "2008": 9096,
    "Ġzablo": 9097,
    "ted": 9098,
    "Ġregion": 9099,
    "idy": 9100,
    "ĠmiÄĻdzynarodowy": 9101,
    "ĠUr": 9102,
    "ĠZbignie": 9103,
    "ĠfilmÃ³w": 9104,
    "cro": 9105,
    "twei": 9106,
    "dziÅĤem": 9107,
    "ĠmatkÄĻ": 9108,
    "ĠwyciÄħga": 9109,
    "Ġsynem": 9110,
    "JuÅ¼": 9111,
    "ÅĤku": 9112,
    "Ġupa": 9113,
    "ĠtreÅĽÄĩ": 9114,
    "ĠDziÄĻkujÄĻ": 9115,
    "wiu": 9116,
    "Ġostatniego": 9117,
    "ĠleÅ¼aÅĤ": 9118,
    "ĠMil": 9119,
    "niÄĻta": 9120,
    "szczu": 9121,
    "ĠsÅĤuÅ¼bÄĻ": 9122,
    "ĠsiÅĤÄĻ": 9123,
    "pienie": 9124,
    "wami": 9125,
    "Ġnarodu": 9126,
    "Ġbiegu": 9127,
    "ĠÅĽciany": 9128,
    "cznika": 9129,
    "Ġsfor": 9130,
    "Ġszk": 9131,
    "Ġwprawdzie": 9132,
    "Ġterminu": 9133,
    ".âĢĿ": 9134,
    "Ġanio": 9135,
    "ĠRado": 9136,
    "ĠgrupÄĻ": 9137,
    "Bez": 9138,
    "ĠZostaÅĤ": 9139,
    "Ġpou": 9140,
    "----": 9141,
    "ĠmajÄħtku": 9142,
    "Ġzrze": 9143,
    "org": 9144,
    "Ġdotar": 9145,
    "Ġkarie": 9146,
    "ĠIzra": 9147,
    "Ġex": 9148,
    "Ġkoncer": 9149,
    "Ġprzepisami": 9150,
    "ĠzwiÄĻksza": 9151,
    "Ġistotne": 9152,
    "ĠÅĤadu": 9153,
    "gminy": 9154,
    "Ġrodzaje": 9155,
    "dniÄĩ": 9156,
    "Ġpoparcia": 9157,
    "Ġstylu": 9158,
    "ĠNeu": 9159,
    "Ġkoncent": 9160,
    "He": 9161,
    "nowski": 9162,
    "lskiego": 9163,
    "ĠwdraÅ¼a": 9164,
    "ĠkilometrÃ³w": 9165,
    "Ġkod": 9166,
    "ĠWei": 9167,
    "cjalna": 9168,
    "use": 9169,
    "SC": 9170,
    "ford": 9171,
    "ciÅĤy": 9172,
    "ĠmaÅĤa": 9173,
    "Ġmilczeniu": 9174,
    "Ġostatniej": 9175,
    "ĠmÅĤod": 9176,
    "Ġspie": 9177,
    "Ġadres": 9178,
    "kÅĤÃ³": 9179,
    "wcze": 9180,
    "ĠprÄĻdko": 9181,
    "Ġprzedtem": 9182,
    "Ġrada": 9183,
    "pisuje": 9184,
    "ĠpokÃ³j": 9185,
    "ĠchciaÅĤbym": 9186,
    "Ġran": 9187,
    "ĠDopiero": 9188,
    "ĠspotkaÅĤ": 9189,
    "pom": 9190,
    "Ġzamek": 9191,
    "niejszej": 9192,
    "ĠrosnÄħ": 9193,
    "ĠsiÄĻga": 9194,
    "wieniu": 9195,
    "ĠnaÅĦ": 9196,
    "Ġdworze": 9197,
    "lf": 9198,
    "ĠCzerwo": 9199,
    "ĠdoÅĽwiadczenia": 9200,
    "On": 9201,
    "Ġwynikiem": 9202,
    "stanie": 9203,
    "Ġfol": 9204,
    "Ġrent": 9205,
    "zesa": 9206,
    "wencja": 9207,
    "ĠobsÅĤu": 9208,
    "Ġ1987": 9209,
    "Ġpobierania": 9210,
    "Ġorganizacje": 9211,
    "Ġwprowadzenie": 9212,
    "Ġzastosowania": 9213,
    "ĠskÅĤadzie": 9214,
    "sum": 9215,
    "Ġtrybu": 9216,
    "Ġ1946": 9217,
    "Ġmono": 9218,
    "ĠPoniewaÅ¼": 9219,
    "Ġmoni": 9220,
    "szyf": 9221,
    "ĠBrazy": 9222,
    "Pio": 9223,
    "Ġfragment": 9224,
    "Ġalge": 9225,
    "Ġ}": 9226,
    "ĠwzglÄĻdnoÅĽci": 9227,
    "Ġrowerem": 9228,
    "ezerwa": 9229,
    "mular": 9230,
    "Ġchomutow": 9231,
    "ĠBÄĻdzie": 9232,
    "ĠrÄĻkach": 9233,
    "Ġkapelu": 9234,
    "ĠspokÃ³j": 9235,
    "Ġwino": 9236,
    "SÅĤu": 9237,
    "Ġsposobu": 9238,
    "nios": 9239,
    "zdro": 9240,
    "Ġoficer": 9241,
    "ĠNawet": 9242,
    "Ġrzek": 9243,
    "ĠmaÅĤÄħ": 9244,
    "ĠÅ¼yÅĤ": 9245,
    "paÄĩ": 9246,
    "ĠzajÄĻcia": 9247,
    "Ġwpa": 9248,
    "kroÄĩ": 9249,
    "Ġustach": 9250,
    "ĠdÅĤoni": 9251,
    "zolu": 9252,
    "ĠByÅĤy": 9253,
    "ĠPrzeciw": 9254,
    "wna": 9255,
    "wiono": 9256,
    "ĠProszÄĻ": 9257,
    "ĠkÅĤopo": 9258,
    "Ġsum": 9259,
    "parcie": 9260,
    "Å¼nego": 9261,
    "ĠmateriaÅĤu": 9262,
    "pan": 9263,
    "ĠBiaÅĤy": 9264,
    "Ġznaczeniu": 9265,
    "ĠsÅĤowem": 9266,
    "ĠAlf": 9267,
    "tana": 9268,
    "owiska": 9269,
    "ĠEk": 9270,
    "burgu": 9271,
    "tytu": 9272,
    "ÅĤonkowie": 9273,
    "ĠZbro": 9274,
    "padÃ³w": 9275,
    "ĠZjednoczonego": 9276,
    "Ġzapisu": 9277,
    "znacza": 9278,
    "ĠMickiewicza": 9279,
    "sse": 9280,
    "bit": 9281,
    "ĠOczywiÅĽcie": 9282,
    "tekÅĽcie": 9283,
    "ĠSal": 9284,
    "chia": 9285,
    "ys": 9286,
    "ÄĹ": 9287,
    "Vi": 9288,
    "Ġgita": 9289,
    "Ġwznowi": 9290,
    "ĠNocleg": 9291,
    "Ġnauczyciela": 9292,
    "ĠkarÄĻ": 9293,
    "ĠÅ¼ycz": 9294,
    "Ġdwoma": 9295,
    "nti": 9296,
    "pki": 9297,
    "ĠciÄĻÅ¼ko": 9298,
    "ĠobecnoÅĽci": 9299,
    "szaÅĤem": 9300,
    "Ġzadanie": 9301,
    "Ġrys": 9302,
    "daleko": 9303,
    "Ġzapozna": 9304,
    "ĠoszczÄĻd": 9305,
    "Ġniecier": 9306,
    "ĠCor": 9307,
    "Ġstare": 9308,
    "dziemy": 9309,
    "ĠsiedzÄħ": 9310,
    "Ġchore": 9311,
    "Ġmetal": 9312,
    "Ġdoskonale": 9313,
    "dzajÄħc": 9314,
    "ĠÅĽcieÅ¼": 9315,
    "mili": 9316,
    "Ġgli": 9317,
    "Ġrozmai": 9318,
    "godne": 9319,
    "ĠkrÃ³lowa": 9320,
    "Ġhy": 9321,
    "Ġwul": 9322,
    "pole": 9323,
    "Ġarab": 9324,
    "Ġkomuna": 9325,
    "Ġkapi": 9326,
    "ÅĤow": 9327,
    "zowanej": 9328,
    "Ġlikwidacji": 9329,
    "Ġ150": 9330,
    "wodaw": 9331,
    "Ġ1933": 9332,
    "powo": 9333,
    "Komisja": 9334,
    "Ġzgromadzenia": 9335,
    "szoÅĽci": 9336,
    "Ġryzy": 9337,
    "Ġdelegowane": 9338,
    "seudo": 9339,
    "Hi": 9340,
    "ĠFundacja": 9341,
    "Äģi": 9342,
    "ĠHerba": 9343,
    "ĠWillia": 9344,
    "Laureaci": 9345,
    "ĠSek": 9346,
    "szedÅĤem": 9347,
    "dziesiÄĻciu": 9348,
    "Ġubieg": 9349,
    "ĠpeÅĤna": 9350,
    "Ġoca": 9351,
    "Ġstole": 9352,
    "Ġuczucia": 9353,
    "Ġosiem": 9354,
    "Ġodbiera": 9355,
    "Ġwozu": 9356,
    "Ġogo": 9357,
    "Ġdba": 9358,
    "Ġsznu": 9359,
    "Ġpies": 9360,
    "ĠMÃ³j": 9361,
    "nujÄħ": 9362,
    "MÃ³wi": 9363,
    "ĠprzedsiÄĻwziÄĻ": 9364,
    "ĠskÅĤo": 9365,
    "ĠwieÅ¼y": 9366,
    "nionÄħ": 9367,
    "Ġwid": 9368,
    "Ġpomi": 9369,
    "Jedno": 9370,
    "niejszego": 9371,
    "iach": 9372,
    "KaÅ¼": 9373,
    "godnoÅĽci": 9374,
    "ĠnapiÄĻ": 9375,
    "ĠwybÃ³r": 9376,
    "Ġsuper": 9377,
    "Ġpodaje": 9378,
    "Ġpierwia": 9379,
    "Ġ192": 9380,
    "Ġwojskowych": 9381,
    "Ġodszko": 9382,
    "Ġali": 9383,
    "ĠplacÃ³wek": 9384,
    "Ġplanowa": 9385,
    "niowej": 9386,
    "ĠobejmujÄħ": 9387,
    "Ġwojewo": 9388,
    "Ġdostar": 9389,
    "Ġpunkty": 9390,
    "porzÄħdzenie": 9391,
    "Ġtech": 9392,
    "ĠPen": 9393,
    "Ġprzygotowania": 9394,
    "Ġsytuacja": 9395,
    "tywi": 9396,
    "ĠObywatelska": 9397,
    "stokra": 9398,
    "ON": 9399,
    "non": 9400,
    "2009": 9401,
    "))": 9402,
    "WP": 9403,
    "ĠĠĠĠĠĠĠĠ": 9404,
    "ternatyw": 9405,
    "TA": 9406,
    "âĢĳ": 9407,
    "ÄĻzyk": 9408,
    "alicja": 9409,
    "ĠpoinformowaÅĤ": 9410,
    "ĠPortuga": 9411,
    "ĠBiaÅĤorusi": 9412,
    "file": 9413,
    "ming": 9414,
    "\":": 9415,
    "Jacek": 9416,
    "ĠAlex": 9417,
    "Ġmusie": 9418,
    "ĠdostaÅĤ": 9419,
    "ĠAni": 9420,
    "Ġsobo": 9421,
    "Ġbierze": 9422,
    "ĠkrzyknÄħÅĤ": 9423,
    "Ġnazwiska": 9424,
    "szczony": 9425,
    "twiej": 9426,
    "ĠMieszka": 9427,
    "ĠpracowaÄĩ": 9428,
    "Ġzapisy": 9429,
    "Ġnauk": 9430,
    "ĠmiesiÄħca": 9431,
    "Ġprzyro": 9432,
    "Ġwykro": 9433,
    "Ġzapra": 9434,
    "ĠpierÅĽcie": 9435,
    "Ġliczbie": 9436,
    "szne": 9437,
    "soli": 9438,
    "ĠwziÄħÄĩ": 9439,
    "miana": 9440,
    "ĠdÅĤugoÅĽÄĩ": 9441,
    "Ġpokrzy": 9442,
    "Ġjesie": 9443,
    "Ġprzypada": 9444,
    "kony": 9445,
    "ĠMyÅĽli": 9446,
    "ĠStefan": 9447,
    "wanego": 9448,
    "Ġdopu": 9449,
    "Ġustro": 9450,
    "Ġzmierza": 9451,
    "Ġorganizacyjnych": 9452,
    "Ġkompetencji": 9453,
    "ĠokreÅĽlonej": 9454,
    "Ġutworzenia": 9455,
    "ĠaktÃ³w": 9456,
    "cyjnymi": 9457,
    "Ġprawnej": 9458,
    "ĠrozdziaÅĤ": 9459,
    "polskie": 9460,
    "Ġ300": 9461,
    "beli": 9462,
    "ĠskÅĤadu": 9463,
    "Ġform": 9464,
    "Ġwielokro": 9465,
    "ĠKlemens": 9466,
    "Ġks": 9467,
    "ĠAry": 9468,
    "Ġkolejowym": 9469,
    "Ġfirma": 9470,
    "vad": 9471,
    "Å¾": 9472,
    "bet": 9473,
    "ĠSejmie": 9474,
    "Ġ1943": 9475,
    "Ġazo": 9476,
    "ĠWikinews": 9477,
    "ĠpeÅĤnÄħ": 9478,
    "Ġznam": 9479,
    "ĠChcia": 9480,
    "ĠWszak": 9481,
    "Ġpodz": 9482,
    "ĠPrzecieÅ¼": 9483,
    "?âĢ¦": 9484,
    "Ġpowraca": 9485,
    "Ġtwego": 9486,
    "ĠpoÅĽpie": 9487,
    "Ġodnosi": 9488,
    "jek": 9489,
    "Ġposu": 9490,
    "Ġprzykry": 9491,
    "ĠmogÅĤem": 9492,
    "Ġskrom": 9493,
    "Ġutrzy": 9494,
    "Ġdrewnia": 9495,
    "dzonego": 9496,
    "Ġkarze": 9497,
    "Ġboles": 9498,
    "Ġludzkiej": 9499,
    "ĠKobie": 9500,
    "ĠStrze": 9501,
    "Ġgrupie": 9502,
    "sper": 9503,
    "ĠBli": 9504,
    "Ġkrzyw": 9505,
    "jka": 9506,
    "Ġlasy": 9507,
    "Ġzdania": 9508,
    "Ġprzyda": 9509,
    "Ġwystar": 9510,
    "ĠEwa": 9511,
    "Ġwschodniej": 9512,
    "masz": 9513,
    "Ġlicznych": 9514,
    "Zgodnie": 9515,
    "Bia": 9516,
    "ĠwypÅĤaca": 9517,
    "ĠpostÄĻpowaniu": 9518,
    "Ġ1979": 9519,
    "ĠpeÅĤnienia": 9520,
    "ĠzwiÄħzki": 9521,
    "zwiÄħzku": 9522,
    "Ġobserwa": 9523,
    "top": 9524,
    "Ġuzyskania": 9525,
    "ĠZakÅĤad": 9526,
    "ĠpowoÅĤu": 9527,
    "ĠMarszaÅĤ": 9528,
    "Ġrejestru": 9529,
    "techni": 9530,
    "Ġpowoduje": 9531,
    "Ġprocent": 9532,
    "ĠwymogÃ³w": 9533,
    "ĠprzekazaÅĤ": 9534,
    "ĠPaw": 9535,
    "Ġtradycji": 9536,
    "kowska": 9537,
    "ĠAlkha": 9538,
    "Ġreakcji": 9539,
    "ĠJacka": 9540,
    "inga": 9541,
    "dion": 9542,
    "ĠHeniuÅĽ": 9543,
    "jeÅ¼dÅ¼a": 9544,
    "Ġjab": 9545,
    "Ġdusza": 9546,
    "ĠchorÄħ": 9547,
    "Ġrozryw": 9548,
    "ĠprzejÅĽÄĩ": 9549,
    "Ġost": 9550,
    "razu": 9551,
    "zar": 9552,
    "ĠPom": 9553,
    "ĠJeste": 9554,
    "ĠRzym": 9555,
    "Ġpoci": 9556,
    "Ġuprzejmie": 9557,
    "ĠsÅĤuÅ¼yÄĩ": 9558,
    "ĠObej": 9559,
    "ĠpewnÄħ": 9560,
    "ĠKot": 9561,
    "zje": 9562,
    "lary": 9563,
    "EGO": 9564,
    "sztor": 9565,
    "ĠobciÄħ": 9566,
    "ĠDan": 9567,
    "Ġszkody": 9568,
    "ĠpeÅĤniÅĤ": 9569,
    "Ġ74": 9570,
    "Ġudzielenia": 9571,
    "wczych": 9572,
    "kula": 9573,
    "Ġwykonuje": 9574,
    "Ġprzedstawiciel": 9575,
    "ĠspoÅĤeczno": 9576,
    "Ġwynagrodzenie": 9577,
    "Ġwybory": 9578,
    "Ġmani": 9579,
    "nistyczne": 9580,
    "ĠXVI": 9581,
    "lista": 9582,
    "Ġpowiatowe": 9583,
    "Ġprzypisa": 9584,
    "ĠTat": 9585,
    "ĠKamil": 9586,
    "ĠPoÅĤudniowej": 9587,
    "Ġmarcu": 9588,
    "put": 9589,
    "Ġ1938": 9590,
    "Ġ1942": 9591,
    "ĠzÅĤama": 9592,
    "lent": 9593,
    "ĠmiÄĻk": 9594,
    "ĠzÅĤoto": 9595,
    "Ġuczci": 9596,
    "ĠpeÅĤnym": 9597,
    "Ġmiejskiej": 9598,
    "Ġlas": 9599,
    "Posta": 9600,
    "Ġsiostry": 9601,
    "ĠpozostaÅĤ": 9602,
    "Ġdziennie": 9603,
    "Ġrezolu": 9604,
    "ĠprÃ³by": 9605,
    "ĠwiÄĻkszej": 9606,
    "Ġnieusta": 9607,
    "Ġozd": 9608,
    "Ġbadaw": 9609,
    "*.": 9610,
    "tnia": 9611,
    "dzam": 9612,
    "gorza": 9613,
    "Ġblasku": 9614,
    "ĠuwaÅ¼aÅĤ": 9615,
    "ĠniezwÅĤocznie": 9616,
    "ĠZdzi": 9617,
    "ĠpowstaÅĤy": 9618,
    "sarz": 9619,
    "jami": 9620,
    "Ġzalicza": 9621,
    "Ġlip": 9622,
    "Ġimion": 9623,
    "Ġwieki": 9624,
    "So": 9625,
    "ukasz": 9626,
    "jda": 9627,
    "ĠuwzglÄĻdnieniem": 9628,
    "tacje": 9629,
    "mes": 9630,
    "Ġkarnego": 9631,
    "Os": 9632,
    "Ġstwarza": 9633,
    "system": 9634,
    "Ġodwo": 9635,
    "ĠokreÅĽlenia": 9636,
    "Ġprzepis": 9637,
    "Ġaktuali": 9638,
    "Ġpolitycznej": 9639,
    "Ġistnienia": 9640,
    "ĠAdministra": 9641,
    "Ġkampanii": 9642,
    "Prezyden": 9643,
    "wÃ³d": 9644,
    "Ġszkolenia": 9645,
    "hen": 9646,
    "tum": 9647,
    "ĠJaniny": 9648,
    "Ġsymboli": 9649,
    "Ġdynami": 9650,
    "ĠJednoczeÅĽnie": 9651,
    "ĠÅļwiata": 9652,
    "ÑĤ": 9653,
    "Francu": 9654,
    "Ġglobalnie": 9655,
    "Ġdepartamencie": 9656,
    "tydzien": 9657,
    "ĠszeÅĽciu": 9658,
    "Ġprzeba": 9659,
    "Sze": 9660,
    "rone": 9661,
    "Ġmama": 9662,
    "Ġzapom": 9663,
    "Ġkwi": 9664,
    "ĠpoÅ¼Äħda": 9665,
    "ĠciÄĻÅ¼ar": 9666,
    "Ġzagranicznych": 9667,
    "czyÅĤem": 9668,
    "ĠurzÄħd": 9669,
    "Ġzabija": 9670,
    "Ġczasy": 9671,
    "niosÅĤy": 9672,
    "ĠzabÃ³j": 9673,
    "ĠzajÄħÅĤ": 9674,
    "Krzy": 9675,
    "kÅĤy": 9676,
    "Ġobaj": 9677,
    "Ġnowi": 9678,
    "Ġpomy": 9679,
    "Ġmacierzy": 9680,
    "ÅĽpie": 9681,
    "ĠdzieÅĤo": 9682,
    "ĠzakÅĤadu": 9683,
    "ben": 9684,
    "ĠksiÄĻdza": 9685,
    "Ġzbud": 9686,
    "ĠjÄĻzykiem": 9687,
    "Ġwyklu": 9688,
    "biu": 9689,
    "AD": 9690,
    "ĠprzewoÅº": 9691,
    "Ġzare": 9692,
    "Ġpopiera": 9693,
    "ĠkilkanaÅĽcie": 9694,
    "dru": 9695,
    "ĠIX": 9696,
    "Ġzysku": 9697,
    "ĠpoÅĽwiad": 9698,
    "Ġ55": 9699,
    "Ġcywilnego": 9700,
    "nospraw": 9701,
    "Ġanaliz": 9702,
    "Ġkontrol": 9703,
    "Ġponadto": 9704,
    "ĠksiÄħg": 9705,
    "stancji": 9706,
    "ĠczÅĤonkowie": 9707,
    "aria": 9708,
    "ĠuzupeÅĤ": 9709,
    "ĠDemokra": 9710,
    "Ġoferty": 9711,
    "rodnie": 9712,
    "Ġarystokra": 9713,
    "ĠJaro": 9714,
    "AP": 9715,
    "inde": 9716,
    "ĠpodkreÅĽla": 9717,
    "ĠZasÅĤugi": 9718,
    "Noclegi": 9719,
    "Ġukara": 9720,
    "Ġcof": 9721,
    "ĠrÄĻkami": 9722,
    "ĠNajwiÄĻk": 9723,
    "Ġboku": 9724,
    "Ġuczucie": 9725,
    "Ġwilgo": 9726,
    "ĠwojnÄĻ": 9727,
    "Ġkoni": 9728,
    "Ġrodzinie": 9729,
    "Ġwodzie": 9730,
    "ĠJakie": 9731,
    "ĠzauwaÅ¼yÅĤ": 9732,
    "ĠprzeÅ¼y": 9733,
    "owaÅĤem": 9734,
    "ĠLudzie": 9735,
    "ĠpieÅĽÅĦ": 9736,
    "ĠKil": 9737,
    "Ġusi": 9738,
    "ĠwiÄħÅ¼e": 9739,
    "ĠLecz": 9740,
    "ĠprzybyÅĤ": 9741,
    "towana": 9742,
    "Ġzmiana": 9743,
    "Å¼nym": 9744,
    "wczej": 9745,
    "Ġtematy": 9746,
    "Ġrezu": 9747,
    "ĠÅĽciÅĽle": 9748,
    "ĠrozwaÅ¼a": 9749,
    "ĠpodlegajÄħ": 9750,
    "Ġnieznany": 9751,
    "list": 9752,
    "ĠzmieniajÄħce": 9753,
    "ĠrÃ³wnoczeÅĽnie": 9754,
    "styczny": 9755,
    "Ġprawdy": 9756,
    "Å¼am": 9757,
    "ÄĻdr": 9758,
    "Ġitd": 9759,
    "pote": 9760,
    "ĠwynikajÄħce": 9761,
    "Ġdzier": 9762,
    "Ġ1972": 9763,
    "Ġdecyzja": 9764,
    "ĠKodeksu": 9765,
    "ĠsiedzibÄħ": 9766,
    "respo": 9767,
    "Ġ120": 9768,
    "ĠwynikÃ³w": 9769,
    "Ġprawne": 9770,
    "ĠsÅĤuÅ¼bowych": 9771,
    "Ġprofesora": 9772,
    "ĠProkuratury": 9773,
    "Ġekspery": 9774,
    "Ġlegen": 9775,
    "ĠAleksander": 9776,
    "Ġsaty": 9777,
    "ĠprzemysÅĤowych": 9778,
    "Ġschem": 9779,
    "vÃ¡": 9780,
    "wersji": 9781,
    "Ġkonsekwen": 9782,
    "pular": 9783,
    "pedia": 9784,
    "ĠÅģomÅ¼y": 9785,
    "Ġami": 9786,
    "Ġsielsowietu": 9787,
    "ĠpomyÅĽlaÅĤ": 9788,
    "ĠprzyszÅĤa": 9789,
    "Ġodro": 9790,
    "ĠWielko": 9791,
    "ĠkÃ³ÅĤ": 9792,
    "ĠTego": 9793,
    "Si": 9794,
    "Ġwym": 9795,
    "Ġoder": 9796,
    "wraca": 9797,
    "ĠwÅĤaÅĽciwe": 9798,
    "Ġboi": 9799,
    "Ġmych": 9800,
    "Ġsiostra": 9801,
    "Åºdzi": 9802,
    "Ġzdarza": 9803,
    "mentach": 9804,
    "ĠkoÅĤy": 9805,
    "ĠdÅĤonie": 9806,
    "ĠdzieÅĤa": 9807,
    "ĠlistÄĻ": 9808,
    "tele": 9809,
    "ĠmieÅĽci": 9810,
    "ĠIza": 9811,
    "ĠsiÅĤa": 9812,
    "ĠkoÅĦcÃ³w": 9813,
    "skutek": 9814,
    "ach": 9815,
    "ong": 9816,
    "ĠwzÃ³r": 9817,
    "Ġwymienionych": 9818,
    "lesty": 9819,
    "Ġ65": 9820,
    "1988": 9821,
    "Ġwycofa": 9822,
    "Ġkwalifika": 9823,
    "ĠZdrowia": 9824,
    "ĠIzby": 9825,
    "Ġbran": 9826,
    "Ġlista": 9827,
    "Ġsprzeciw": 9828,
    "ĠKrzyÅ¼": 9829,
    "zjo": 9830,
    "bate": 9831,
    "ĠKom": 9832,
    "ĠOpera": 9833,
    "ĠZgodnie": 9834,
    "Ġsynte": 9835,
    "mail": 9836,
    "ĠTalone": 9837,
    "soft": 9838,
    "ĠHora": 9839,
    "oling": 9840,
    "Ġteletydzien": 9841,
    "ĠstraÅ¼": 9842,
    "Ġzdrowie": 9843,
    "Ġlaty": 9844,
    "czku": 9845,
    "ĠpiÅĽmie": 9846,
    "niaÅĤy": 9847,
    "ĠMyÅĽ": 9848,
    "rodÄħ": 9849,
    "wemu": 9850,
    "Ġwyrazem": 9851,
    "ĠdodaÄĩ": 9852,
    "ĠzÅĤego": 9853,
    "ĠobjÄħÅĤ": 9854,
    "Ġinteligen": 9855,
    "Ġznaki": 9856,
    "Ġpapieru": 9857,
    "ĠwiedzÄħ": 9858,
    "Ġznanych": 9859,
    "Wal": 9860,
    "ĠzmianÄĻ": 9861,
    "ĠgÃ³ra": 9862,
    "ĠÅĽlu": 9863,
    "decy": 9864,
    "Ġnajwy": 9865,
    "Ġdziewczyna": 9866,
    "ĠÅĽrodek": 9867,
    "sn": 9868,
    "Ġopisy": 9869,
    "Im": 9870,
    "Äĺ": 9871,
    "ĠUÅ¼y": 9872,
    "han": 9873,
    "jnego": 9874,
    "fro": 9875,
    "czeÅĽni": 9876,
    "Ġproro": 9877,
    "Ġturnie": 9878,
    "Ġobszary": 9879,
    "ĠrealizacjÄĻ": 9880,
    "Ġfinansowej": 9881,
    "ĠprojektÃ³w": 9882,
    "Ġzezwolenia": 9883,
    "ĠinteresÃ³w": 9884,
    "Ġdelega": 9885,
    "Ġpion": 9886,
    "ĠVII": 9887,
    "ĠubezpieczeÅĦ": 9888,
    "Ġ1992": 9889,
    "Ġreformy": 9890,
    "ring": 9891,
    "Ġpraktyce": 9892,
    "ĠRzÄħd": 9893,
    "Ġbogini": 9894,
    "Ġprogramie": 9895,
    "!!": 9896,
    "YZ": 9897,
    "2022": 9898,
    "Transport": 9899,
    "ĠGlo": 9900,
    "nas": 9901,
    "ĠBad": 9902,
    "ake": 9903,
    "pf": 9904,
    "SondaÅ¼e": 9905,
    "zachodniej": 9906,
    "Ġdryto": 9907,
    "Ġdrytooling": 9908,
    "Ġponie": 9909,
    "ĠpoznaÅĤ": 9910,
    "ĠnajwiÄĻkszy": 9911,
    "ĠwrÃ³": 9912,
    "Ġolbrzymie": 9913,
    "ĠAmelka": 9914,
    "ĠdziesiÄĻÄĩ": 9915,
    "Ġilu": 9916,
    "Ġpodpo": 9917,
    "woka": 9918,
    "Ġpoczci": 9919,
    "ĠpoÅĽrÃ³d": 9920,
    "cku": 9921,
    "Gru": 9922,
    "ĠwejÅĽÄĩ": 9923,
    "ĠmÃ³gÅĤby": 9924,
    "Ġwydzie": 9925,
    "Ġodga": 9926,
    "ĠsprzedaÅ¼": 9927,
    "ĠwÅĤoski": 9928,
    "illa": 9929,
    "Ġwaha": 9930,
    "ĠzasÅĤo": 9931,
    "pat": 9932,
    "ÅĤugo": 9933,
    "Ġster": 9934,
    "ĠobrÄĻ": 9935,
    "dzÃ³w": 9936,
    "Ġmary": 9937,
    "Ġogromne": 9938,
    "letnie": 9939,
    "Ġroma": 9940,
    "Ġogrodu": 9941,
    "ĠzarzÄħdzenia": 9942,
    "ĠznalazÅĤa": 9943,
    "ĠjedynÄħ": 9944,
    "dowie": 9945,
    "Ġdykta": 9946,
    "powszech": 9947,
    "ĠpozostaÅĤych": 9948,
    "Ġobiek": 9949,
    "zmie": 9950,
    "Ġzawodowej": 9951,
    "ĠmiÄĻdzynarodowych": 9952,
    "Ġkierowane": 9953,
    "zyg": 9954,
    "Ġwywiad": 9955,
    "Ġadministracyjnych": 9956,
    "DziaÅĤa": 9957,
    "Ġprzekazania": 9958,
    "Ġpubliczne": 9959,
    "Ġwojsk": 9960,
    "Ġdie": 9961,
    "Ġpoparcie": 9962,
    "Ġ1962": 9963,
    "Ġproducen": 9964,
    "Ġmoder": 9965,
    "Ġterrory": 9966,
    "ĠMiasto": 9967,
    "Ġpatro": 9968,
    "ĠJagiello": 9969,
    "Ġbazyli": 9970,
    "ustria": 9971,
    "ag": 9972,
    "zowie": 9973,
    "ĠÅĽwiÄĻtokrzy": 9974,
    "Ġeuro": 9975,
    "rei": 9976,
    "ĠDomi": 9977,
    "ĠHitler": 9978,
    "Ġ)": 9979,
    "can": 9980,
    "Ġgeno": 9981,
    "ĠpiÅĤkarz": 9982,
    "Ġwokali": 9983,
    "Ġwspinacze": 9984,
    "ĠmiesiÄħce": 9985,
    "Ġuspoko": 9986,
    "nÄħwszy": 9987,
    "ĠJakÅ¼e": 9988,
    "ĠwidziaÅĤa": 9989,
    "ĠzobaczyÅĤ": 9990,
    "ĠodrzekÅĤ": 9991,
    "caÄĩ": 9992,
    "ĠprowadziÅĤ": 9993,
    "ĠzdjÄĻ": 9994,
    "waÅ¼nie": 9995,
    "ĠrÃ³wnie": 9996,
    "ziem": 9997,
    "ĠÅ¼ela": 9998,
    "ĠprzyjÄĻcie": 9999,
    "tnik": 10000,
    "Ġmowy": 10001,
    "ĠTakie": 10002,
    "ĠnajwiÄĻkszym": 10003,
    "ĠÅĤaska": 10004,
    "Ġjask": 10005,
    "jnie": 10006,
    "ĠDia": 10007,
    "rzyÅĤy": 10008,
    "stawia": 10009,
    "ĠpowaÅ¼nie": 10010,
    "Ġpotom": 10011,
    "zki": 10012,
    "ĠWyda": 10013,
    "ĠÅºrÃ³dÅĤo": 10014,
    "ĠutwÃ³r": 10015,
    "Ġwskazy": 10016,
    "ĠFryde": 10017,
    "ĠsklepÃ³w": 10018,
    "ĠwszczÄĻ": 10019,
    "Ġ43": 10020,
    "Ġzaopatrzeniu": 10021,
    "ĠwynikajÄħcych": 10022,
    "ĠopÅĤat": 10023,
    "Ġpodstawowe": 10024,
    "mowane": 10025,
    "ĠÅĤÄħcznie": 10026,
    "Gospodar": 10027,
    "ĠzaÅĤoÅ¼yciel": 10028,
    "dowane": 10029,
    "Ġsubstancji": 10030,
    "ĠNacze": 10031,
    "Ġreal": 10032,
    "ĠPÃ³Åºniej": 10033,
    "Ġrozgry": 10034,
    "Ġklub": 10035,
    "owice": 10036,
    "ĠWÅĤadysÅĤawa": 10037,
    "ĠPau": 10038,
    "ÅĤgar": 10039,
    "Ġscenariusza": 10040,
    "Ġproblemu": 10041,
    "Ġoprogramowania": 10042,
    "Ġ1996": 10043,
    "ffen": 10044,
    "Ġszyf": 10045,
    "ĠNagrody": 10046,
    "steina": 10047,
    "Ġ<<": 10048,
    "ĠEmacsa": 10049,
    "Ġlagrang": 10050,
    "hai": 10051,
    "ktÃ³rzy": 10052,
    "ĠukazaÅĤ": 10053,
    "Ġtwojej": 10054,
    "ĠpisaÅĤ": 10055,
    "warte": 10056,
    "Ġkali": 10057,
    "ĠkrokÃ³w": 10058,
    "ĠÅĽniegu": 10059,
    "ĠmÄħdro": 10060,
    "mierÄĩ": 10061,
    "szaÄĩ": 10062,
    "Ġpot": 10063,
    "ĠprzeÅĽli": 10064,
    "wieniem": 10065,
    "ĠwiedziaÅĤa": 10066,
    "ĠoÅĽwiet": 10067,
    "ĠZresztÄħ": 10068,
    "Ġwysokie": 10069,
    "Ġklaszto": 10070,
    "Ġkieli": 10071,
    "ĠNiektÃ³re": 10072,
    "ĠMarka": 10073,
    "ĠcÃ³rkÄĻ": 10074,
    "Ġnowa": 10075,
    "ÅĽniÄħ": 10076,
    "Ġzjawiska": 10077,
    "Ġimieniem": 10078,
    "obÃ³j": 10079,
    "Ġzali": 10080,
    "ĠsamorzÄħ": 10081,
    "ownych": 10082,
    "cjom": 10083,
    "ĠprzesyÅĤania": 10084,
    "Ġdokumentu": 10085,
    "deks": 10086,
    "wÃ³dztwo": 10087,
    "ĠbudynkÃ³w": 10088,
    "Ġmiejscem": 10089,
    "Ġkolejny": 10090,
    "Ġposiedzeniu": 10091,
    "poÅĽrednie": 10092,
    "Ġzwolen": 10093,
    "KA": 10094,
    "rin": 10095,
    "ĠVer": 10096,
    "ĠÅĤaciÅĦskiego": 10097,
    "Ġgreckiego": 10098,
    "ĠBam": 10099,
    "ĠUniversi": 10100,
    "ĠzmieniÄĩ": 10101,
    "Pierwszy": 10102,
    "dziesz": 10103,
    "Ġpanny": 10104,
    "Ġgdybym": 10105,
    "Rok": 10106,
    "padÅĤa": 10107,
    "Ġrana": 10108,
    "wczy": 10109,
    "Ġkwie": 10110,
    "Ġzmart": 10111,
    "Ġsilnie": 10112,
    "Ġopuszcza": 10113,
    "Ġkuli": 10114,
    "ĠdopÃ³ki": 10115,
    "ĠpowrÃ³t": 10116,
    "ĠbÃ³j": 10117,
    "ĠTwo": 10118,
    "miaÅĤy": 10119,
    "dzieÅĽcia": 10120,
    "Ġlekarz": 10121,
    "powiedzia": 10122,
    "ĠÅĽmierciÄħ": 10123,
    "nkach": 10124,
    "Osta": 10125,
    "Ġpewnej": 10126,
    "ĠprzyÅĤÄħ": 10127,
    "Ġkomenda": 10128,
    "Ġszeregu": 10129,
    "ĠwyÅ¼szych": 10130,
    "ĠÅ¼ywnoÅĽci": 10131,
    "ĠCzyÅ¼": 10132,
    "ĠkoniecznoÅĽÄĩ": 10133,
    "ĠVo": 10134,
    "ĠwolnoÅĽÄĩ": 10135,
    "ĠWia": 10136,
    "jenie": 10137,
    "ĠgÃ³rze": 10138,
    "Ġszaty": 10139,
    "ĠkorzystaÄĩ": 10140,
    "Ġzamierza": 10141,
    "ĠradÄĻ": 10142,
    "Ġzbie": 10143,
    "Ġkredy": 10144,
    "Ku": 10145,
    "glÄħdu": 10146,
    "necie": 10147,
    "Jego": 10148,
    "Ġprzygotowy": 10149,
    "dzonym": 10150,
    "nnoÅĽci": 10151,
    "niowych": 10152,
    "Ġmiejscach": 10153,
    "Ġuchwa": 10154,
    "Ġfunkcjonu": 10155,
    "ĠPAR": 10156,
    "sone": 10157,
    "ĠUrzÄĻdowym": 10158,
    "Ġ51": 10159,
    "Ġ1951": 10160,
    "Ġwery": 10161,
    "132": 10162,
    "Ġochronie": 10163,
    "Ġstosowane": 10164,
    "ĠwystÄħpienia": 10165,
    "ĠwspÃ³lnie": 10166,
    "ĠPiÅĤ": 10167,
    "ĠMikoÅĤa": 10168,
    "stanty": 10169,
    "ĠHelena": 10170,
    "Austria": 10171,
    "przestrze": 10172,
    "wschodniej": 10173,
    "end": 10174,
    "ĠBrze": 10175,
    "ĠMeksy": 10176,
    "ĠnoÅ¼nej": 10177,
    "ĠdolarÃ³w": 10178,
    "czÄħtkowo": 10179,
    "ĠWielkiego": 10180,
    "Ġmuzycy": 10181,
    "Ñı": 10182,
    "ĠâĪĴ": 10183,
    "Ġutwory": 10184,
    "strakla": 10185,
    "ichtel": 10186,
    "Ġtrzeciej": 10187,
    "Wtem": 10188,
    "Ġucieka": 10189,
    "ĠÅĽmiaÅĤ": 10190,
    "Ġuci": 10191,
    "Ġcom": 10192,
    "ĠuÅĽmiecha": 10193,
    "ĠuÅĽmiechnÄħÅĤ": 10194,
    "Ġnauka": 10195,
    "ĠzÅĤe": 10196,
[...]
