{
  "version": "1.0",
  "truncation": null,
  "padding": null,
  "added_tokens": [],
  "normalizer": null,
  "pre_tokenizer": {
    "type": "ByteLevel",
    "add_prefix_space": false,
    "trim_offsets": true,
    "use_regex": true
  },
  "post_processor": null,
  "decoder": {
    "type": "ByteLevel",
    "add_prefix_space": true,
    "trim_offsets": true,
    "use_regex": true
  },
  "model": {
    "type": "BPE",
    "dropout": null,
    "unk_token": null,
    "continuing_subword_prefix": null,
    "end_of_word_suffix": null,
    "fuse_unk": false,
    "byte_fallback": false,
    "ignore_merges": false,
    "vocab": {
      "Ā": 0,
      "ā": 1,
      "Ă": 2,
      "ă": 3,
      "Ą": 4,
      "ą": 5,
      "Ć": 6,
      "ć": 7,
      "Ĉ": 8,
      "ĉ": 9,
      "Ċ": 10,
      "ċ": 11,
      "Č": 12,
      "č": 13,
      "Ď": 14,
      "ď": 15,
      "Đ": 16,
      "đ": 17,
      "Ē": 18,
      "ē": 19,
      "Ĕ": 20,
      "ĕ": 21,
      "Ė": 22,
      "ė": 23,
      "Ę": 24,
      "ę": 25,
      "Ě": 26,
      "ě": 27,
      "Ĝ": 28,
      "ĝ": 29,
      "Ğ": 30,
      "ğ": 31,
      "Ġ": 32,
      "!": 33,
      "\"": 34,
      "#": 35,
      "$": 36,
      "%": 37,
      "&": 38,
      "'": 39,
      "(": 40,
      ")": 41,
      "*": 42,
      "+": 43,
      ",": 44,
      "-": 45,
      ".": 46,
      "/": 47,
      "0": 48,
      "1": 49,
      "2": 50,
      "3": 51,
      "4": 52,
      "5": 53,
      "6": 54,
      "7": 55,
      "8": 56,
      "9": 57,
      ":": 58,
      ";": 59,
      "<": 60,
      "=": 61,
      ">": 62,
      "?": 63,
      "@": 64,
      "A": 65,
      "B": 66,
      "C": 67,
      "D": 68,
      "E": 69,
      "F": 70,
      "G": 71,
      "H": 72,
      "I": 73,
      "J": 74,
      "K": 75,
      "L": 76,
      "M": 77,
      "N": 78,
      "O": 79,
      "P": 80,
      "Q": 81,
      "R": 82,
      "S": 83,
      "T": 84,
      "U": 85,
      "V": 86,
      "W": 87,
      "X": 88,
      "Y": 89,
      "Z": 90,
      "[": 91,
      "\\": 92,
      "]": 93,
      "^": 94,
      "_": 95,
      "`": 96,
      "a": 97,
      "b": 98,
      "c": 99,
      "d": 100,
      "e": 101,
      "f": 102,
      "g": 103,
      "h": 104,
      "i": 105,
      "j": 106,
      "k": 107,
      "l": 108,
      "m": 109,
      "n": 110,
      "o": 111,
      "p": 112,
      "q": 113,
      "r": 114,
      "s": 115,
      "t": 116,
      "u": 117,
      "v": 118,
      "w": 119,
      "x": 120,
      "y": 121,
      "z": 122,
      "{": 123,
      "|": 124,
      "}": 125,
      "~": 126,
      "ġ": 127,
      "Ģ": 128,
      "ģ": 129,
      "Ĥ": 130,
      "ĥ": 131,
      "Ħ": 132,
      "ħ": 133,
      "Ĩ": 134,
      "ĩ": 135,
      "Ī": 136,
      "ī": 137,
      "Ĭ": 138,
      "ĭ": 139,
      "Į": 140,
      "į": 141,
      "İ": 142,
      "ı": 143,
      "Ĳ": 144,
      "ĳ": 145,
      "Ĵ": 146,
      "ĵ": 147,
      "Ķ": 148,
      "ķ": 149,
      "ĸ": 150,
      "Ĺ": 151,
      "ĺ": 152,
      "Ļ": 153,
      "ļ": 154,
      "Ľ": 155,
      "ľ": 156,
      "Ŀ": 157,
      "ŀ": 158,
      "Ł": 159,
      "ł": 160,
      "¡": 161,
      "¢": 162,
      "£": 163,
      "¤": 164,
      "¥": 165,
      "¦": 166,
      "§": 167,
      "¨": 168,
      "©": 169,
      "ª": 170,
      "«": 171,
      "¬": 172,
      "Ń": 173,
      "®": 174,
      "¯": 175,
      "°": 176,
      "±": 177,
      "²": 178,
      "³": 179,
      "´": 180,
      "µ": 181,
      "¶": 182,
      "·": 183,
      "¸": 184,
      "¹": 185,
      "º": 186,
      "»": 187,
      "¼": 188,
      "½": 189,
      "¾": 190,
      "¿": 191,
      "À": 192,
      "Á": 193,
      "Â": 194,
      "Ã": 195,
      "Ä": 196,
      "Å": 197,
      "Æ": 198,
      "Ç": 199,
      "È": 200,
      "É": 201,
      "Ê": 202,
      "Ë": 203,
      "Ì": 204,
      "Í": 205,
      "Î": 206,
      "Ï": 207,
      "Ð": 208,
      "Ñ": 209,
      "Ò": 210,
      "Ó": 211,
      "Ô": 212,
      "Õ": 213,
      "Ö": 214,
      "×": 215,
      "Ø": 216,
      "Ù": 217,
      "Ú": 218,
      "Û": 219,
      "Ü": 220,
      "Ý": 221,
      "Þ": 222,
      "ß": 223,
      "à": 224,
      "á": 225,
      "â": 226,
      "ã": 227,
      "ä": 228,
      "å": 229,
      "æ": 230,
      "ç": 231,
      "è": 232,
      "é": 233,
      "ê": 234,
      "ë": 235,
      "ì": 236,
      "í": 237,
      "î": 238,
      "ï": 239,
      "ð": 240,
      "ñ": 241,
      "ò": 242,
      "ó": 243,
      "ô": 244,
      "õ": 245,
      "ö": 246,
      "÷": 247,
      "ø": 248,
      "ù": 249,
      "ú": 250,
      "û": 251,
      "ü": 252,
      "ý": 253,
      "þ": 254,
      "ÿ": 255,
      "ie": 256,
      "ÅĤ": 257,
      "Ġp": 258,
      "Ġw": 259,
      "st": 260,
      "ow": 261,
      "na": 262,
      "ni": 263,
      "cz": 264,
      "ch": 265,
      "Äħ": 266,
      "Ġz": 267,
      "ÄĻ": 268,
      "Ã³": 269,
      "rz": 270,
      "ra": 271,
      "Ġs": 272,
      "nie": 273,
      "Ġo": 274,
      "ro": 275,
      "Å¼": 276,
      "Ġd": 277,
      "ne": 278,
      "ny": 279,
      "Ġk": 280,
      "Ġt": 281,
      "li": 282,
      "ÅĽ": 283,
      "Ġi": 284,
      "Ġpo": 285,
      "sk": 286,
      "Ġm": 287,
      "ia": 288,
      "sz": 289,
      "go": 290,
      "Ġna": 291,
      "ar": 292,
      "je": 293,
      "rze": 294,
      "dz": 295,
      "âĢ": 296,
      "Ã³w": 297,
      "le": 298,
      "iÄĻ": 299,
      "re": 300,
      "ÅĤa": 301,
      "owa": 302,
      "wa": 303,
      "Ġ(": 304,
      "ci": 305,
      "no": 306,
      "ka": 307,
      "Ġb": 308,
      "la": 309,
      "er": 310,
      "nia": 311,
      "sta": 312,
      "or": 313,
      "Ġza": 314,
      "mi": 315,
      "Ġdo": 316,
      "ty": 317,
      "Ġ1": 318,
      "ĠP": 319,
      "ce": 320,
      "ĠâĢ": 321,
      "ja": 322,
      "Ġa": 323,
      "Ġje": 324,
      "Ġwy": 325,
      "ta": 326,
      "Ġu": 327,
      "ĠW": 328,
      "rzy": 329,
      "ko": 330,
      "jÄħ": 331,
      "ÅĤo": 332,
      "ki": 333,
      "Äĩ": 334,
      "ÅĦ": 335,
      "Ġprze": 336,
      "da": 337,
      "te": 338,
      "ku": 339,
      "cy": 340,
      "ry": 341,
      "ĠsiÄĻ": 342,
      "ĠS": 343,
      "Ġro": 344,
      "Ġg": 345,
      "nych": 346,
      "po": 347,
      "ĠâĢĵ": 348,
      "ÅĽci": 349,
      "tu": 350,
      "en": 351,
      "ma": 352,
      "wo": 353,
      "ski": 354,
      "Ġko": 355,
      "Ġnie": 356,
      "ĠK": 357,
      "cj": 358,
      "to": 359,
      "ĠM": 360,
      "lo": 361,
      "Ġcz": 362,
      "dy": 363,
      "Å¼e": 364,
      "ÅĤy": 365,
      "Ġod": 366,
      "skie": 367,
      "owe": 368,
      "zy": 369,
      "wi": 370,
      "owy": 371,
      "cze": 372,
      "ru": 373,
      "ĠA": 374,
      "lu": 375,
      "Ġ.": 376,
      "ca": 377,
      "cie": 378,
      "ĠB": 379,
      "Ġte": 380,
      "Ġf": 381,
      "wie": 382,
      "Ġ2": 383,
      "tÃ³": 384,
      "kie": 385,
      "mie": 386,
      "sa": 387,
      "Ġ19": 388,
      "za": 389,
      "cji": 390,
      "ĠN": 391,
      "em": 392,
      "czy": 393,
      "Ġst": 394,
      "du": 395,
      "ĠktÃ³": 396,
      "rÃ³": 397,
      "ĠR": 398,
      "Å¼y": 399,
      "ĠC": 400,
      "ga": 401,
      "nej": 402,
      "Ġjest": 403,
      "ĠPo": 404,
      "in": 405,
      "szy": 406,
      "Ġprzy": 407,
      "Ġma": 408,
      "on": 409,
      "pa": 410,
      "Ġby": 411,
      "ĠT": 412,
      "ĠJ": 413,
      "gi": 414,
      "Ġob": 415,
      "ob": 416,
      "nego": 417,
      "pi": 418,
      "ĠG": 419,
      "dzie": 420,
      "ÅĤu": 421,
      "raz": 422,
      "ĠZ": 423,
      "Ġja": 424,
      "ĠD": 425,
      "Ġpod": 426,
      "sy": 427,
      "sze": 428,
      "ÅĽÄĩ": 429,
      "Ġe": 430,
      "Ġty": 431,
      "mu": 432,
      "ĠI": 433,
      "ĠO": 434,
      "dzi": 435,
      "nÄħ": 436,
      "cza": 437,
      "Ġli": 438,
      "an": 439,
      "Ġmo": 440,
      "owie": 441,
      "cho": 442,
      "nym": 443,
      "ĠÅĽ": 444,
      "ĠL": 445,
      "âĢĿ": 446,
      "mo": 447,
      "Ġre": 448,
      "de": 449,
      "Ġin": 450,
      "ier": 451,
      "Ġsta": 452,
      "Ġta": 453,
      "Ġprzez": 454,
      "owo": 455,
      "00": 456,
      "ska": 457,
      "cja": 458,
      "si": 459,
      "ĠâĢŀ": 460,
      "Ġroz": 461,
      "wia": 462,
      "Ġdz": 463,
      "Ġpro": 464,
      "owi": 465,
      "pe": 466,
      "kÃ³w": 467,
      "wy": 468,
      "Ġwie": 469,
      "pu": 470,
      "),": 471,
      "Ġwo": 472,
      "osta": 473,
      "Ġpa": 474,
      "sty": 475,
      "Ġroku": 476,
      "niu": 477,
      "ĠH": 478,
      "Ġh": 479,
      "Ġr": 480,
      "jÄĻ": 481,
      "Ġlu": 482,
      "Ġto": 483,
      "su": 484,
      "fi": 485,
      "skiego": 486,
      "niej": 487,
      "do": 488,
      "sza": 489,
      "Åº": 490,
      "Ġjed": 491,
      "dni": 492,
      "sto": 493,
      "bi": 494,
      "ter": 495,
      "Ġoraz": 496,
      "Ġpra": 497,
      "Ġsz": 498,
      "co": 499,
      "by": 500,
      "Ã³ÅĤ": 501,
      "il": 502,
      "kÅĤa": 503,
      ").": 504,
      "gra": 505,
      "ĠE": 506,
      "cia": 507,
      "ĠF": 508,
      "ĠÅ¼e": 509,
      "my": 510,
      "ur": 511,
      "Ġmie": 512,
      "Ġzna": 513,
      "owych": 514,
      "Ġka": 515,
      "zna": 516,
      "ek": 517,
      "sp": 518,
      "owej": 519,
      "al": 520,
      "sie": 521,
      "ĠNa": 522,
      "stÄĻ": 523,
      "tycz": 524,
      "19": 525,
      "noÅĽci": 526,
      "Ġn": 527,
      "Ġzosta": 528,
      "men": 529,
      "io": 530,
      "mia": 531,
      "Ġch": 532,
      "un": 533,
      "Ġkon": 534,
      "Ġze": 535,
      "ĠsÄħ": 536,
      "Ġok": 537,
      "skiej": 538,
      "ran": 539,
      "Ġla": 540,
      "ĠU": 541,
      "tor": 542,
      "ĠktÃ³ry": 543,
      "jÄħcy": 544,
      "ona": 545,
      "bli": 546,
      "rowa": 547,
      "Ġmia": 548,
      "Ġpow": 549,
      "Ġni": 550,
      "me": 551,
      "tÃ³w": 552,
      "dze": 553,
      "ĠktÃ³re": 554,
      "we": 555,
      "Ġnaj": 556,
      "rod": 557,
      "pra": 558,
      "pie": 559,
      "ba": 560,
      "nd": 561,
      "âĢĵ": 562,
      "Ġjako": 563,
      "gu": 564,
      "ÅĤe": 565,
      "ii": 566,
      "ud": 567,
      "Ġsa": 568,
      "Ġ20": 569,
      "Ã³r": 570,
      "bo": 571,
      "czÄħ": 572,
      "Ġsy": 573,
      "ju": 574,
      "lski": 575,
      "Ġ3": 576,
      "ÅĦst": 577,
      "czne": 578,
      "Ġtak": 579,
      "ĠÅ": 580,
      "Å¼a": 581,
      "ĠKo": 582,
      "rzÄħ": 583,
      "ierw": 584,
      "ez": 585,
      "jÄħce": 586,
      "Ġce": 587,
      "ÅĦski": 588,
      "bie": 589,
      "ze": 590,
      "dzy": 591,
      "Ġdla": 592,
      "jÄħc": 593,
      "Ġczy": 594,
      "Ġdzie": 595,
      "Ġspo": 596,
      "um": 597,
      "czo": 598,
      "cyj": 599,
      "cki": 600,
      "rak": 601,
      "iÄĻk": 602,
      "nika": 603,
      "ÅĤÃ³w": 604,
      "wiÄħ": 605,
      "towa": 606,
      "Ġlub": 607,
      "dzia": 608,
      "owego": 609,
      "rza": 610,
      "ery": 611,
      "zm": 612,
      "Ġwz": 613,
      "ÅĤÄħ": 614,
      "nu": 615,
      "jÄĻzy": 616,
      "Ġsto": 617,
      "sÅĤa": 618,
      "ckie": 619,
      "Ġjego": 620,
      "Ġde": 621,
      "Ġcza": 622,
      "ĠczÄĻ": 623,
      "ist": 624,
      "kowa": 625,
      "cu": 626,
      "Ġda": 627,
      "Ġjak": 628,
      "zu": 629,
      "niem": 630,
      "ĠrÃ³w": 631,
      "Ġco": 632,
      "Ġ18": 633,
      "Ġtym": 634,
      "stÄĻp": 635,
      "ĠMa": 636,
      "rÃ³Å¼": 637,
      "ĠwÅĤa": 638,
      "Ġprzed": 639,
      "ĠX": 640,
      "cznych": 641,
      "ĠJe": 642,
      "lek": 643,
      "rÄĻ": 644,
      "noÅĽÄĩ": 645,
      "ĠKa": 646,
      "ĠjÄĻzy": 647,
      "Ġpierw": 648,
      "ĠZa": 649,
      "nÄĻ": 650,
      "Ġra": 651,
      "Ġokre": 652,
      "ĠtakÅ¼e": 653,
      "Ġgo": 654,
      "spo": 655,
      "se": 656,
      "Ġme": 657,
      "kiem": 658,
      "Ġwi": 659,
      "so": 660,
      "Ġba": 661,
      "kÅĤad": 662,
      "ul": 663,
      "Ġar": 664,
      "ĠCh": 665,
      "iÄĻdzy": 666,
      "mp": 667,
      "cha": 668,
      "lÄĻ": 669,
      "Ġwoj": 670,
      "siÄĻ": 671,
      "cjÄĻ": 672,
      "nik": 673,
      "Ġgru": 674,
      "Ġpi": 675,
      "nt": 676,
      "Ã³l": 677,
      "sko": 678,
      "dza": 679,
      "ri": 680,
      "Ġwe": 681,
      "Po": 682,
      "nak": 683,
      "Ġ4": 684,
      "Ġmi": 685,
      "ji": 686,
      "Ġsp": 687,
      "ory": 688,
      "wÃ³": 689,
      "Ġle": 690,
      "nymi": 691,
      "el": 692,
      "Ġ200": 693,
      "logi": 694,
      "owania": 695,
      "Ġ,": 696,
      "ĠbyÅĤ": 697,
      "iaÅĤa": 698,
      "tem": 699,
      "nic": 700,
      "II": 701,
      "ral": 702,
      "Ġfi": 703,
      "ÅĽcie": 704,
      "ng": 705,
      "war": 706,
      "owaÅĤ": 707,
      "Ġpoz": 708,
      "ĠteÅ¼": 709,
      "18": 710,
      "cÃ³w": 711,
      "ĠRo": 712,
      "ĠÅ¼y": 713,
      "bu": 714,
      "Ġmu": 715,
      "tach": 716,
      "kÄħ": 717,
      "iel": 718,
      "owÄħ": 719,
      "ĠPa": 720,
      "Ġmiej": 721,
      "lÄħ": 722,
      "owym": 723,
      "cje": 724,
      "ĠJa": 725,
      "dzo": 726,
      "uro": 727,
      "##": 728,
      "Å¼o": 729,
      "ĠPol": 730,
      "Ġpowsta": 731,
      "unk": 732,
      "Ġswo": 733,
      "nii": 734,
      "Ġor": 735,
      "Ġos": 736,
      "niÄĻ": 737,
      "Âł": 738,
      "czas": 739,
      "cznie": 740,
      "nieÅ¼": 741,
      "two": 742,
      "ary": 743,
      "ĠWy": 744,
      "ste": 745,
      "ec": 746,
      "skich": 747,
      "tro": 748,
      "Ġ5": 749,
      "nowi": 750,
      "Ġwsp": 751,
      "siÄħ": 752,
      "Ġso": 753,
      "Ġjednak": 754,
      "tr": 755,
      "for": 756,
      "ĠdziaÅĤa": 757,
      "ĠuÅ¼y": 758,
      "nio": 759,
      "ti": 760,
      "uk": 761,
      "ge": 762,
      "zo": 763,
      "Ġca": 764,
      "ĠzostaÅĤ": 765,
      "sce": 766,
      "cznej": 767,
      "Ġtego": 768,
      "ĠÅĽwia": 769,
      "Ġnaz": 770,
      "prowa": 771,
      "ĠmoÅ¼": 772,
      "owanie": 773,
      "ĠrÃ³wnieÅ¼": 774,
      "ĠNie": 775,
      "czny": 776,
      "lko": 777,
      "Ġbi": 778,
      "Ġwar": 779,
      "20": 780,
      "ĠÅļ": 781,
      "czÄĻ": 782,
      "Ġlicz": 783,
      "lej": 784,
      "lar": 785,
      "szych": 786,
      "ej": 787,
      "den": 788,
      "ĠBo": 789,
      "Ġich": 790,
      "tni": 791,
      "szyst": 792,
      "Ġkra": 793,
      "Ġop": 794,
      "ĠSta": 795,
      "sku": 796,
      "ak": 797,
      "gani": 798,
      "dob": 799,
      "tk": 800,
      "wiÄĻ": 801,
      "Ġdu": 802,
      "ĠMi": 803,
      "prze": 804,
      "Ġpre": 805,
      "ĠDo": 806,
      "Ġbo": 807,
      "Ġgra": 808,
      "Ġbez": 809,
      "Ġpol": 810,
      "ĠV": 811,
      "Ġdy": 812,
      "Ġpoli": 813,
      "wor": 814,
      "tego": 815,
      "Ġwieku": 816,
      "Ġfor": 817,
      "kich": 818,
      "rÃ³d": 819,
      "ĠzwiÄħ": 820,
      "ĠrÃ³Å¼": 821,
      "Ã³b": 822,
      "szo": 823,
      "ĠMar": 824,
      "Ġno": 825,
      "tek": 826,
      "Ġwyko": 827,
      "ha": 828,
      "twa": 829,
      "ĠLe": 830,
      "he": 831,
      "ĠWar": 832,
      "dÅĤu": 833,
      "jÄħcych": 834,
      "szÄħ": 835,
      "ciÄħ": 836,
      "pad": 837,
      "Ġ6": 838,
      "fa": 839,
      "Ġrze": 840,
      "stwa": 841,
      "dnie": 842,
      "ĠmiÄĻdzy": 843,
      "Ġak": 844,
      "ĠMo": 845,
      "ĠpaÅĦst": 846,
      "trz": 847,
      "Ġpe": 848,
      "szcze": 849,
      "Ġkom": 850,
      "stem": 851,
      "py": 852,
      "stÄĻpu": 853,
      "Ġbar": 854,
      "Ġjej": 855,
      "Ġnad": 856,
      "Ġpowie": 857,
      "gÅĤo": 858,
      "gÃ³l": 859,
      "Ġpar": 860,
      "iada": 861,
      "nÃ³w": 862,
      "Ġ199": 863,
      "tar": 864,
      "Ġau": 865,
      "Na": 866,
      "szka": 867,
      "ĠRa": 868,
      "skim": 869,
      "Ġpla": 870,
      "Ġwszyst": 871,
      "Ġwyda": 872,
      "trzy": 873,
      "res": 874,
      "ĠSz": 875,
      "ali": 876,
      "ĠgÅĤÃ³w": 877,
      "ÄĻd": 878,
      "cÄħ": 879,
      "tyw": 880,
      "Ġ201": 881,
      "Ġlo": 882,
      "leÅ¼": 883,
      "Ġznaj": 884,
      "dzÄħ": 885,
      "ÅĽli": 886,
      "Ġlatach": 887,
      "Ġlat": 888,
      "ok": 889,
      "rem": 890,
      "rÄħ": 891,
      "bra": 892,
      "Ġge": 893,
      "Ã³Åº": 894,
      "Ġdru": 895,
      "nty": 896,
      "Ġal": 897,
      "Ġjedno": 898,
      "dzenia": 899,
      "lne": 900,
      "cznego": 901,
      "fia": 902,
      "czna": 903,
      "dowa": 904,
      "Ġstanowi": 905,
      "is": 906,
      "Ġga": 907,
      "wier": 908,
      "pisa": 909,
      "gie": 910,
      "tera": 911,
      "pÅĤy": 912,
      "gro": 913,
      "Ġ194": 914,
      "glÄĻ": 915,
      "Ġ7": 916,
      "ĠwiÄĻk": 917,
      "âĢĿ,": 918,
      "dÃ³w": 919,
      "praw": 920,
      "kÄĻ": 921,
      "ĠbyÄĩ": 922,
      "us": 923,
      "Ġpraw": 924,
      "Ġpolski": 925,
      "ĠWarsza": 926,
      "Ġale": 927,
      "pisy": 928,
      "Ġsie": 929,
      "ĠbyÅĤa": 930,
      "od": 931,
      "mery": 932,
      "skÄħ": 933,
      "zie": 934,
      "tury": 935,
      "bar": 936,
      "ĠRe": 937,
      "Ġmar": 938,
      "ĠLi": 939,
      "stra": 940,
      "mier": 941,
      "ĠIn": 942,
      "dnia": 943,
      "dem": 944,
      "tra": 945,
      "dziaÅĤ": 946,
      "ÅĽnie": 947,
      "ĠmoÅ¼e": 948,
      "ÅĦskiego": 949,
      "Ġ17": 950,
      "sowa": 951,
      "wiÄĻk": 952,
      "Ġ8": 953,
      "kach": 954,
      "nek": 955,
      "ĠkrÃ³": 956,
      "nowa": 957,
      "log": 958,
      "Przy": 959,
      "ruk": 960,
      "szym": 961,
      "ĠBa": 962,
      "Ġsty": 963,
      "stnie": 964,
      "ĠWo": 965,
      "kry": 966,
      "th": 967,
      "pera": 968,
      "ner": 969,
      "Ġstro": 970,
      "fe": 971,
      "chi": 972,
      "âĢĻ": 973,
      "Ġten": 974,
      "ĠbyÅĤo": 975,
      "ers": 976,
      "Ġfunk": 977,
      "szta": 978,
      "Ġpowo": 979,
      "Ġhist": 980,
      "stÄħ": 981,
      "Ã³Åºniej": 982,
      "Ġ9": 983,
      "Ġ198": 984,
      "zowa": 985,
      "Ġ15": 986,
      "Ġpos": 987,
      "oru": 988,
      "waÅĤ": 989,
      "erw": 990,
      "Ġodp": 991,
      "ds": 992,
      "Ġoko": 993,
      "szcza": 994,
      "ĠII": 995,
      "ckiego": 996,
      "lem": 997,
      "czenie": 998,
      "Ġpocho": 999,
      "Ġc": 1000,
      "Ġtra": 1001,
      "ĠwzglÄĻ": 1002,
      "dÅĤug": 1003,
      "Ġkla": 1004,
      "try": 1005,
      "Ã³ÅĤno": 1006,
      "usz": 1007,
      "sÅĤaw": 1008,
      "Ġnp": 1009,
      "staw": 1010,
      "Ġru": 1011,
      "âĢĿ.": 1012,
      "pro": 1013,
      "czenia": 1014,
      "sÅĤ": 1015,
      "Ġkil": 1016,
      "stu": 1017,
      "sÃ³w": 1018,
      "Ġorgani": 1019,
      "Ġsk": 1020,
      "Ġwa": 1021,
      "ber": 1022,
      "ĠokreÅĽ": 1023,
      "dar": 1024,
      "Ġju": 1025,
      "be": 1026,
      "Ġgdy": 1027,
      "rzu": 1028,
      "nÄĻtrz": 1029,
      "Ġpu": 1030,
      "17": 1031,
      "chni": 1032,
      "tnie": 1033,
      "Ġtylko": 1034,
      "ĠEuro": 1035,
      "im": 1036,
      "Ġsu": 1037,
      "czes": 1038,
      "ĠSa": 1039,
      "Ġprzeci": 1040,
      "ĠczÄĻÅĽci": 1041,
      "ĠTa": 1042,
      "Ġbada": 1043,
      "nem": 1044,
      "Ġmiasta": 1045,
      "Ġ10": 1046,
      "dziÅĤ": 1047,
      "ĠbyÅĤy": 1048,
      "cjÄħ": 1049,
      "ĠpoczÄħ": 1050,
      "lik": 1051,
      "ĠktÃ³ra": 1052,
      "Ġry": 1053,
      "rzÄĻ": 1054,
      "Ġkul": 1055,
      "Ġ193": 1056,
      "ciu": 1057,
      "ĠwspÃ³ÅĤ": 1058,
      "gÄħ": 1059,
      "dziej": 1060,
      "Ġosob": 1061,
      "wnÄĻtrz": 1062,
      "ĠÅĤa": 1063,
      "RT": 1064,
      "ogra": 1065,
      "Ġznajdu": 1066,
      "Ġtwo": 1067,
      "duk": 1068,
      "IC": 1069,
      "ĠmoÅ¼na": 1070,
      "ĠktÃ³rych": 1071,
      "nikÃ³w": 1072,
      "lnych": 1073,
      "tw": 1074,
      "urce": 1075,
      "ĠAr": 1076,
      "stwo": 1077,
      "nku": 1078,
      "rzÄħd": 1079,
      "Ġkolej": 1080,
      "LE": 1081,
      "miÄĻ": 1082,
      "Ġposta": 1083,
      "ĠpÃ³Åºniej": 1084,
      "Ġcy": 1085,
      "ÅĤowie": 1086,
      "Ġinnych": 1087,
      "Ġtej": 1088,
      "redni": 1089,
      "Ġsource": 1090,
      "ĠOd": 1091,
      "Ġsamo": 1092,
      "ho": 1093,
      "sztaÅĤ": 1094,
      "zywa": 1095,
      "ĠWiel": 1096,
      "ĠPolski": 1097,
      "10": 1098,
      "wer": 1099,
      "ĠwiÄĻ": 1100,
      "Ġzie": 1101,
      "ÅĤÄĻ": 1102,
      "ĠART": 1103,
      "###": 1104,
      "words": 1105,
      "Ã³d": 1106,
      "ĠARTIC": 1107,
      "ĠARTICLE": 1108,
      "dump": 1109,
      "Ġ16": 1110,
      "dno": 1111,
      "kaza": 1112,
      "kÅĤada": 1113,
      "di": 1114,
      "tery": 1115,
      "Ġsystem": 1116,
      "Ġmiejs": 1117,
      "rzo": 1118,
      "ĠTe": 1119,
      "szej": 1120,
      "ĠKon": 1121,
      "bud": 1122,
      "nad": 1123,
      "Ġ12": 1124,
      "ktÃ³": 1125,
      "lemen": 1126,
      "Ġ197": 1127,
      "hi": 1128,
      "ĠspoÅĤe": 1129,
      "kim": 1130,
      "che": 1131,
      "15": 1132,
      "wiet": 1133,
      "ĠniÅ¼": 1134,
      "Ã³ÅĤnoc": 1135,
      "cznym": 1136,
      "strze": 1137,
      "ĠFran": 1138,
      "man": 1139,
      "scho": 1140,
      "Ġistnie": 1141,
      "Ġtere": 1142,
      "pej": 1143,
      "Ġsze": 1144,
      "tura": 1145,
      "owski": 1146,
      "Ġwoje": 1147,
      "mach": 1148,
      "Ġproce": 1149,
      "Ġniemie": 1150,
      "Ġtu": 1151,
      "zmu": 1152,
      "ĠPrze": 1153,
      "wania": 1154,
      "zi": 1155,
      "ĠWe": 1156,
      "tych": 1157,
      "gen": 1158,
      "mina": 1159,
      "Ġuwa": 1160,
      "ĠWa": 1161,
      "Ġrozpo": 1162,
      "forma": 1163,
      "Ġuzna": 1164,
      "ĠnastÄĻp": 1165,
      "tki": 1166,
      "Å¼Äħ": 1167,
      "tÄĻ": 1168,
      "Ġmieszka": 1169,
      "Ġspos": 1170,
      "sem": 1171,
      "zacji": 1172,
      "ĠWi": 1173,
      "Ġpozosta": 1174,
      "Ġprzeciw": 1175,
      "waÅ¼": 1176,
      "meryka": 1177,
      "cznÄħ": 1178,
      "ÅĤon": 1179,
      "szech": 1180,
      "Ġcie": 1181,
      "mowa": 1182,
      "stro": 1183,
      "Ġcha": 1184,
      "zw": 1185,
      "dzenie": 1186,
      "ĠuÅ¼ywa": 1187,
      "ĠzwiÄħz": 1188,
      "Ġkry": 1189,
      "trzyma": 1190,
      "sÅĤu": 1191,
      "Ġbud": 1192,
      "16": 1193,
      "ĠdÅĤu": 1194,
      "kami": 1195,
      "Ġswoje": 1196,
      "Ġgdzie": 1197,
      "lny": 1198,
      "Ġ202": 1199,
      "stytu": 1200,
      "Ġprzedsta": 1201,
      "mÃ³w": 1202,
      "rÃ³w": 1203,
      "Ġfa": 1204,
      "ÅĦskiej": 1205,
      "ĠCz": 1206,
      "Ġek": 1207,
      "kre": 1208,
      "Ġspe": 1209,
      "ĠÅĽwiat": 1210,
      "ĠzostaÅĤa": 1211,
      "Ġkie": 1212,
      "nicy": 1213,
      "miast": 1214,
      "Przypisy": 1215,
      "Å¼ej": 1216,
      "Ġozna": 1217,
      "Ġ196": 1218,
      "Ġczasie": 1219,
      "Ġcho": 1220,
      "ck": 1221,
      "tora": 1222,
      "14": 1223,
      "Ġnich": 1224,
      "rzenia": 1225,
      "kro": 1226,
      "ĠktÃ³rej": 1227,
      "kiej": 1228,
      "pada": 1229,
      "ĠPolsce": 1230,
      "at": 1231,
      "mienia": 1232,
      "pre": 1233,
      "Ġof": 1234,
      "ort": 1235,
      "koÅĦ": 1236,
      "wu": 1237,
      "Ġpodczas": 1238,
      "Ġprowa": 1239,
      "Ġfil": 1240,
      "ser": 1241,
      "mii": 1242,
      "Ġzwy": 1243,
      "ÅĤudni": 1244,
      "Ġsi": 1245,
      "Ġzach": 1246,
      "tÄħ": 1247,
      "ÅĽcia": 1248,
      "kiego": 1249,
      "Ġ14": 1250,
      "ĠPi": 1251,
      "ĠjuÅ¼": 1252,
      "dow": 1253,
      "12": 1254,
      "nach": 1255,
      "toli": 1256,
      "ler": 1257,
      "niku": 1258,
      "chy": 1259,
      "ĠwpÅĤy": 1260,
      "ÅĤowa": 1261,
      "oria": 1262,
      "cych": 1263,
      "Ġstycz": 1264,
      "chu": 1265,
      "lan": 1266,
      "ĠokoÅĤo": 1267,
      "ĠAl": 1268,
      "lnie": 1269,
      "kty": 1270,
      "ĠjÄħ": 1271,
      "szego": 1272,
      "ĠDa": 1273,
      "lega": 1274,
      "ÅĤk": 1275,
      "cej": 1276,
      "ĠAu": 1277,
      "oba": 1278,
      "jo": 1279,
      "Ġtych": 1280,
      "wiera": 1281,
      "ĠÅĽmier": 1282,
      "ol": 1283,
      "ÅĽrÃ³d": 1284,
      "tku": 1285,
      "Ġprzypad": 1286,
      "ÅĦska": 1287,
      "Ġelek": 1288,
      "Ġzbi": 1289,
      "Ġ13": 1290,
      "stÃ³w": 1291,
      "Ġcharak": 1292,
      "Ġ195": 1293,
      "syj": 1294,
      "ĠzÅĤo": 1295,
      "Ġobec": 1296,
      "Ġse": 1297,
      "Åºdzie": 1298,
      "Ġusta": 1299,
      "tur": 1300,
      "bro": 1301,
      "ĠwystÄĻpu": 1302,
      "Ġon": 1303,
      "liwo": 1304,
      "der": 1305,
      "ÅĦstwa": 1306,
      "mar": 1307,
      "nosi": 1308,
      "tej": 1309,
      "Ġpomo": 1310,
      "cka": 1311,
      "lnej": 1312,
      "Ġosta": 1313,
      "Ġ-": 1314,
      "Ġprogra": 1315,
      "Ġjedy": 1316,
      "tyczne": 1317,
      "cer": 1318,
      "ÅĦskie": 1319,
      "ium": 1320,
      "land": 1321,
      "ĠMe": 1322,
      "Ġodpowie": 1323,
      "stÄħpi": 1324,
      "ĠkoÅĦ": 1325,
      "zji": 1326,
      "mio": 1327,
      "ĠzaÅĤo": 1328,
      "mien": 1329,
      "ing": 1330,
      "niwer": 1331,
      "Ġim": 1332,
      "ckiej": 1333,
      "ibli": 1334,
      "ÄĻg": 1335,
      "nica": 1336,
      "ĠÅĽrod": 1337,
      "ĠwÅĤas": 1338,
      "13": 1339,
      "ĠczÄĻÅĽÄĩ": 1340,
      "Ġnau": 1341,
      "ĠktÃ³rym": 1342,
      "Ko": 1343,
      "Ġcze": 1344,
      "Ġzacho": 1345,
      "Ġobie": 1346,
      "Ġreli": 1347,
      "niÄħ": 1348,
      "ĠLa": 1349,
      "kra": 1350,
      "tka": 1351,
      "Ġpoprze": 1352,
      "ĠÅģ": 1353,
      "ĠPod": 1354,
      "ren": 1355,
      "orii": 1356,
      "Ġwprowa": 1357,
      "Ġv": 1358,
      "jÄħca": 1359,
      "ĠkaÅ¼": 1360,
      "ĠGe": 1361,
      "Ġpoja": 1362,
      "ÅĤych": 1363,
      "gii": 1364,
      "ckich": 1365,
      "dia": 1366,
      "Ġkar": 1367,
      "now": 1368,
      "ĠktÃ³rego": 1369,
      "ĠJo": 1370,
      "Ġszcze": 1371,
      "wÃ³dz": 1372,
      "000": 1373,
      "Ġpubli": 1374,
      "pnia": 1375,
      "spodar": 1376,
      "Za": 1377,
      "kona": 1378,
      "tyka": 1379,
      "Ġszy": 1380,
      "Ġwyso": 1381,
      "ten": 1382,
      "wiaz": 1383,
      "jedno": 1384,
      "lna": 1385,
      "Ġczerw": 1386,
      "ĠLu": 1387,
      "ĠSo": 1388,
      "ÅĽnia": 1389,
      "ĠHa": 1390,
      "ĠosÃ³b": 1391,
      "ĠczÄĻsto": 1392,
      "Ġbra": 1393,
      "dek": 1394,
      "Ġelemen": 1395,
      "Ġwal": 1396,
      "Ġwrze": 1397,
      "Ġposiada": 1398,
      "nami": 1399,
      "publi": 1400,
      "ĠRze": 1401,
      "sji": 1402,
      "zyden": 1403,
      "Ġwykorzy": 1404,
      "Ġszko": 1405,
      "tru": 1406,
      "wane": 1407,
      "grani": 1408,
      "ĠmajÄħ": 1409,
      "Ġproduk": 1410,
      "ĠKoÅĽci": 1411,
      "ĠzwiÄħza": 1412,
      ".,": 1413,
      "Åºdzier": 1414,
      "rach": 1415,
      "Ġbardzo": 1416,
      "Å¼enia": 1417,
      "ĠBy": 1418,
      "ĠzewnÄĻtrz": 1419,
      "ĠÅ»": 1420,
      "Ġstosu": 1421,
      "len": 1422,
      "ĠPar": 1423,
      "Ġpom": 1424,
      "Ġpier": 1425,
      "Ġtrze": 1426,
      "ĠGa": 1427,
      "lnego": 1428,
      "Ġraz": 1429,
      "lnoÅĽci": 1430,
      "Ġ192": 1431,
      "logii": 1432,
      "wen": 1433,
      "ĠXV": 1434,
      "ĠZie": 1435,
      "row": 1436,
      "Ġlip": 1437,
      "Ġzw": 1438,
      "ÅĦskich": 1439,
      "Ġlud": 1440,
      "Ġwyb": 1441,
      "ĠNe": 1442,
      "ĠpaÅºdzier": 1443,
      "Ġsob": 1444,
      "wÃ³j": 1445,
      "ĠsposÃ³b": 1446,
      "ĠPrzy": 1447,
      "ĠpeÅĤ": 1448,
      "lia": 1449,
      "jem": 1450,
      "menta": 1451,
      "Ġzasa": 1452,
      "stan": 1453,
      "iaÅĤ": 1454,
      "**": 1455,
      "Ġlisto": 1456,
      "Ġpowierz": 1457,
      "Ġwielu": 1458,
      "niki": 1459,
      "arÃ³w": 1460,
      "Ġmiejsce": 1461,
      "ĠGo": 1462,
      "ĠNaj": 1463,
      "Ġdro": 1464,
      "ĠTo": 1465,
      "Ġnauk": 1466,
      "Ġad": 1467,
      "Ġho": 1468,
      "Ġmniej": 1469,
      "ron": 1470,
      "Ġsztu": 1471,
      "Ġinter": 1472,
      "Ġsku": 1473,
      "Ġtys": 1474,
      "pol": 1475,
      "Å¼u": 1476,
      "ĠksiÄĻ": 1477,
      "wanie": 1478,
      "ĠHe": 1479,
      "ĠpaÅĦstwa": 1480,
      "syte": 1481,
      "Ġlitera": 1482,
      "ĠsÅĤu": 1483,
      "Ġzawiera": 1484,
      "ĠXI": 1485,
      "lozo": 1486,
      "Ġpierwszy": 1487,
      "ÅĦcÃ³w": 1488,
      "Ġponad": 1489,
      "mat": 1490,
      "ĠciÄħ": 1491,
      "ĠXX": 1492,
      "Ġska": 1493,
      "ĠmogÄħ": 1494,
      "Ġstycznia": 1495,
      "ich": 1496,
      "dÅº": 1497,
      "Ġsier": 1498,
      "trze": 1499,
      "ĠwiÄĻkszo": 1500,
      "tural": 1501,
      "Ġkwiet": 1502,
      "ĠDe": 1503,
      "niwersyte": 1504,
      "ÅĤow": 1505,
      "ĠBe": 1506,
      "Wy": 1507,
      "Ġku": 1508,
      "budowa": 1509,
      "Ġfran": 1510,
      "Ġpopu": 1511,
      "Ġbu": 1512,
      "ĠczÅĤon": 1513,
      "star": 1514,
      "daw": 1515,
      "Ġwojny": 1516,
      "ĠÅ¼ycia": 1517,
      "ĠAn": 1518,
      "czyÅĤ": 1519,
      "dniej": 1520,
      "podob": 1521,
      "ĠCo": 1522,
      "Ġdoda": 1523,
      "Ġtrak": 1524,
      "czej": 1525,
      "ria": 1526,
      "Ġzmia": 1527,
      "Ġser": 1528,
      "Ġgrudnia": 1529,
      "Å¼enie": 1530,
      "ĠÅĤÄħ": 1531,
      "Ã©": 1532,
      "Ġnale": 1533,
      "Ġzda": 1534,
      "np": 1535,
      "Ġczyli": 1536,
      "ĠksiÄħ": 1537,
      "czone": 1538,
      "Ġwiele": 1539,
      "muje": 1540,
      "tyj": 1541,
      "Ġana": 1542,
      "ÅĽniej": 1543,
      "tycznych": 1544,
      "Ġameryka": 1545,
      "ÅĤej": 1546,
      "onu": 1547,
      "obacz": 1548,
      "ÅĤem": 1549,
      "ĠoÅĽ": 1550,
      "peÅĤ": 1551,
      "glÄħ": 1552,
      "mniej": 1553,
      "ĠniektÃ³": 1554,
      "jek": 1555,
      "Ġtzw": 1556,
      "Ġne": 1557,
      "Ġter": 1558,
      "Ġtrzy": 1559,
      "mini": 1560,
      "Ġoznacza": 1561,
      "ĠpÃ³ÅĤnoc": 1562,
      "toÅĽci": 1563,
      "Ġliczb": 1564,
      "Ġ0": 1565,
      "czonych": 1566,
      "Ġgene": 1567,
      "pozy": 1568,
      "wÃ³r": 1569,
      "ĠrzÄħ": 1570,
      "czu": 1571,
      "jÄħcego": 1572,
      "sek": 1573,
      "Ġklasy": 1574,
      "ĠÅº": 1575,
      "rab": 1576,
      "Ġprac": 1577,
      "ÅĤego": 1578,
      "fika": 1579,
      "Ġmaja": 1580,
      "ografia": 1581,
      "Ġhi": 1582,
      "Ġpodob": 1583,
      "scy": 1584,
      "Ġpisa": 1585,
      "zen": 1586,
      "tami": 1587,
      "ĠHi": 1588,
      "ard": 1589,
      "ĠPro": 1590,
      "Ġkraju": 1591,
      "ksztaÅĤ": 1592,
      "Ġnazywa": 1593,
      "ĠnajwiÄĻk": 1594,
      "ut": 1595,
      "ĠmiaÅĤ": 1596,
      "ĠSy": 1597,
      "tomiast": 1598,
      "11": 1599,
      "Ġuzy": 1600,
      "owiada": 1601,
      "ÅĤoÅĽci": 1602,
      "Ġkilka": 1603,
      "sÅĤawa": 1604,
      "Ġarty": 1605,
      "ĠPra": 1606,
      "ĠCa": 1607,
      "owiÄħ": 1608,
      "Ġutwo": 1609,
      "maty": 1610,
      "Ġ[": 1611,
      "Ġodby": 1612,
      "ĠOr": 1613,
      "Ġkwa": 1614,
      "koÅĽci": 1615,
      "Ġwojsk": 1616,
      "Ġczerwca": 1617,
      "Ġwraz": 1618,
      "lenia": 1619,
      "ĠgÅĤo": 1620,
      "par": 1621,
      "ĠpaÅĦstw": 1622,
      "Ġznajduje": 1623,
      "Ġdwa": 1624,
      "Ġokresie": 1625,
      "Ġpoda": 1626,
      "lenie": 1627,
      "Ġtran": 1628,
      "ns": 1629,
      "Ġhistory": 1630,
      "Ġzaj": 1631,
      "Ġmarca": 1632,
      "200": 1633,
      "ment": 1634,
      "wÃ³ch": 1635,
      "lnoÅĽÄĩ": 1636,
      "jÄħcÄħ": 1637,
      "logia": 1638,
      "Ġsamy": 1639,
      "Zobacz": 1640,
      "cep": 1641,
      "ĠNarod": 1642,
      "doby": 1643,
      "Ġgwiaz": 1644,
      "Ġwiel": 1645,
      "tom": 1646,
      "jÄħcej": 1647,
      "kon": 1648,
      "ĠKra": 1649,
      "mieni": 1650,
      "ĠdwÃ³ch": 1651,
      "Ġsil": 1652,
      "ĠMu": 1653,
      "wio": 1654,
      "Ġfilozo": 1655,
      "Ġjednost": 1656,
      "ciÄĻ": 1657,
      "Ġ=": 1658,
      "Ġkwietnia": 1659,
      "dÄħ": 1660,
      "Ġkonie": 1661,
      "ster": 1662,
      "ĠjÄĻzyka": 1663,
      "Ġwers": 1664,
      "dopodob": 1665,
      "Ġrodza": 1666,
      "ĠwzglÄĻdu": 1667,
      "rom": 1668,
      "Ġfrancu": 1669,
      "Ġpodstaw": 1670,
      "Ġwia": 1671,
      "gna": 1672,
      "czych": 1673,
      "ĠwrzeÅĽnia": 1674,
      "Ġlipca": 1675,
      "czeÅĽnie": 1676,
      "fo": 1677,
      "ĠÅĽwie": 1678,
      "iÄĻki": 1679,
      "ĠgÅĤÃ³wnie": 1680,
      "ĠuwaÅ¼a": 1681,
      "Lin": 1682,
      "net": 1683,
      "cen": 1684,
      "ĠMie": 1685,
      "ĠWie": 1686,
      "ĠJu": 1687,
      "Ġnada": 1688,
      "Ġrodzi": 1689,
      "narod": 1690,
      "zja": 1691,
      "struk": 1692,
      "wet": 1693,
      "ĠTy": 1694,
      "ÄĻdÄħ": 1695,
      "wany": 1696,
      "ĠpaÅºdziernika": 1697,
      "Ġpan": 1698,
      "leg": 1699,
      "czeÅĽniej": 1700,
      "Ġsek": 1701,
      "tkowo": 1702,
      "Ġgospodar": 1703,
      "Ġat": 1704,
      "Ġmuzy": 1705,
      "orÃ³w": 1706,
      "Ġpie": 1707,
      "ckim": 1708,
      "ĠSe": 1709,
      "Ġdzi": 1710,
      "usza": 1711,
      "Ġzgo": 1712,
      "tali": 1713,
      "Ġpart": 1714,
      "spÃ³ÅĤ": 1715,
      "rzeÅĽci": 1716,
      "ĠokrÄĻ": 1717,
      "Ġpolity": 1718,
      "moÅ¼": 1719,
      "Ġhe": 1720,
      "Ġpara": 1721,
      "Je": 1722,
      "rzym": 1723,
      "Ġpew": 1724,
      "ĠjÄĻzyk": 1725,
      "Ġwszystkich": 1726,
      "ĠzewnÄĻtrzne": 1727,
      "ĠprÃ³": 1728,
      "owarzy": 1729,
      "Ġha": 1730,
      "ĠwojewÃ³dz": 1731,
      "Ġspraw": 1732,
      "cyjne": 1733,
      "Ġpor": 1734,
      "gÄĻ": 1735,
      "50": 1736,
      "prac": 1737,
      "ĠpoÅĽ": 1738,
      "rzeÅĽcija": 1739,
      "cach": 1740,
      "Ġfizy": 1741,
      "Ġwyra": 1742,
      "199": 1743,
      "Ġotrzyma": 1744,
      "ĠzostaÅĤy": 1745,
      "lacji": 1746,
      "obec": 1747,
      "dÄĻ": 1748,
      "Ġwyniku": 1749,
      "Ġml": 1750,
      "ÅĦskim": 1751,
      "czeniu": 1752,
      "Ġ30": 1753,
      "szu": 1754,
      "Ġmeto": 1755,
      "ĠOb": 1756,
      "Ġul": 1757,
      "lnym": 1758,
      "ĠpoÅĤudni": 1759,
      "ĠIII": 1760,
      "roni": 1761,
      "mbo": 1762,
      "ve": 1763,
      "tory": 1764,
      "emi": 1765,
      "dra": 1766,
      "rwa": 1767,
      "Ġczas": 1768,
      "Ġcelu": 1769,
      "Ġtem": 1770,
      "Ġobsz": 1771,
      "Ġstosowa": 1772,
      "ĠBer": 1773,
      "tel": 1774,
      "ĠRu": 1775,
      "Ġprezyden": 1776,
      "ĠczÅĤowie": 1777,
      "bur": 1778,
      "ĠwspÃ³l": 1779,
      "ĠHo": 1780,
      "pisu": 1781,
      "ĠzaÅĽ": 1782,
      "Ġpowodu": 1783,
      "III": 1784,
      "Ġtrady": 1785,
      "Ġwscho": 1786,
      "Ġrozwi": 1787,
      "Ġlistopada": 1788,
      "Ġsierpnia": 1789,
      "twie": 1790,
      "30": 1791,
      "mor": 1792,
      "ĠÅĽw": 1793,
      "lowa": 1794,
      ".)": 1795,
      "ton": 1796,
      "sti": 1797,
      "niach": 1798,
      "Ġwywo": 1799,
      "Linki": 1800,
      "Plik": 1801,
      "ĠBry": 1802,
      "min": 1803,
      "lin": 1804,
      "Do": 1805,
      "ian": 1806,
      "Ġauto": 1807,
      "per": 1808,
      "rek": 1809,
      "nar": 1810,
      "Ġodkry": 1811,
      "stw": 1812,
      "ĠZjedno": 1813,
      "Ġmater": 1814,
      "Ġcent": 1815,
      "ĠpÅĤy": 1816,
      "ĠKrÃ³": 1817,
      "Ġnazw": 1818,
      "szpa": 1819,
      "Ġ:": 1820,
      "ĠdÅĤugo": 1821,
      "maga": 1822,
      "ĠJan": 1823,
      "cyjnych": 1824,
      "tion": 1825,
      "wolu": 1826,
      "ciÅĤ": 1827,
      "Ġgro": 1828,
      "tne": 1829,
      "Ġwyzna": 1830,
      "wiÄħza": 1831,
      "Ġspra": 1832,
      "ĠbÄĻdÄħ": 1833,
      "Ġwynosi": 1834,
      "Ġnawet": 1835,
      "owymi": 1836,
      "jÄħcym": 1837,
      "ÅĤym": 1838,
      "ĠÅĽmierci": 1839,
      "nictwo": 1840,
      "ĠokreÅĽla": 1841,
      "Ġaby": 1842,
      "owskiego": 1843,
      "Ġpunk": 1844,
      "legÅĤo": 1845,
      "Ġstra": 1846,
      "Ġinne": 1847,
      "Ġener": 1848,
      "Ġang": 1849,
      "lub": 1850,
      "Ġprawa": 1851,
      "rywa": 1852,
      "Ġcia": 1853,
      "onÄħ": 1854,
      "ĠrÃ³Å¼nych": 1855,
      "ĠmÄĻ": 1856,
      "nk": 1857,
      "Ġtam": 1858,
      "jÃ³w": 1859,
      "Ġmili": 1860,
      "and": 1861,
      "fini": 1862,
      "Ġuzyska": 1863,
      "ĠszczegÃ³l": 1864,
      "lii": 1865,
      "ĠNi": 1866,
      "Ġsamym": 1867,
      "Ġnim": 1868,
      "Ġnarod": 1869,
      "Ġkomu": 1870,
      "dzin": 1871,
      "Bibli": 1872,
      "Ġpowierzchni": 1873,
      "zuje": 1874,
      "Ġsam": 1875,
      "les": 1876,
      "ĠÅĽredni": 1877,
      "Ġlutego": 1878,
      "rzenie": 1879,
      "stawie": 1880,
      "wodni": 1881,
      "ĠnastÄĻpnie": 1882,
      "ĠmÅĤo": 1883,
      "Ġtek": 1884,
      "Ġgrupy": 1885,
      "sar": 1886,
      "ir": 1887,
      "nki": 1888,
      "km": 1889,
      "Ġsame": 1890,
      "Ġdrugie": 1891,
      "laz": 1892,
      "ĠWoj": 1893,
      "uropej": 1894,
      "szczy": 1895,
      "Ġdowo": 1896,
      "ĠpoÅĤÄħ": 1897,
      "Ġinforma": 1898,
      "ft": 1899,
      "ĠwÅĤaÅĽci": 1900,
      "ĠskÅĤada": 1901,
      "kÅĤadu": 1902,
      "ĠwedÅĤug": 1903,
      "ĠksiÄħÅ¼": 1904,
      "cjona": 1905,
      "ĠwpÅĤyw": 1906,
      "Ġnowo": 1907,
      "zeum": 1908,
      "cego": 1909,
      "Ġnatomiast": 1910,
      "nta": 1911,
      "ĠmieszkaÅĦcÃ³w": 1912,
      "pli": 1913,
      "mysÅĤ": 1914,
      "Ġpozy": 1915,
      "Ġprzypadku": 1916,
      "lew": 1917,
      "Ġzamie": 1918,
      "fii": 1919,
      "Ġmy": 1920,
      "Ġsza": 1921,
      "lnÄħ": 1922,
      "ĠWarszawa": 1923,
      "ÅĦstwo": 1924,
      "Ġjeden": 1925,
      "Ġwykona": 1926,
      "Ġrzeczy": 1927,
      "wyÅ¼": 1928,
      "ĠLo": 1929,
      "Ġtempera": 1930,
      "czaj": 1931,
      "Ma": 1932,
      "moÅ¼li": 1933,
      "Ġzwie": 1934,
      "kar": 1935,
      "jÄħÅĤ": 1936,
      "waÄĩ": 1937,
      "ĠwÄĻg": 1938,
      "Ġpozio": 1939,
      "dro": 1940,
      "ĠXIX": 1941,
      "Ġdaw": 1942,
      "cznoÅĽci": 1943,
      "Ġkompu": 1944,
      "czony": 1945,
      "Ġfo": 1946,
      "vi": 1947,
      "Ġdanych": 1948,
      "Ġdwu": 1949,
      "ĠRzy": 1950,
      "Ġkilku": 1951,
      "Ġjedynie": 1952,
      "Ġzde": 1953,
      "Ro": 1954,
      "Ġtakie": 1955,
      "ĠSÅĤo": 1956,
      "25": 1957,
      "fek": 1958,
      "ĠWil": 1959,
      "kle": 1960,
      "Ġbie": 1961,
      "Ġprawo": 1962,
      "In": 1963,
      "Ġ)": 1964,
      "ĠpomiÄĻdzy": 1965,
      "tua": 1966,
      "Ġuro": 1967,
      "owaÄĩ": 1968,
      "niewaÅ¼": 1969,
      "Ġbardziej": 1970,
      "ĠtwÃ³r": 1971,
      "gij": 1972,
      "dnio": 1973,
      "Ġdob": 1974,
      "Ġâ": 1975,
      "Ġmiejsc": 1976,
      "Ġdia": 1977,
      "jp": 1978,
      "Ġwska": 1979,
      "pis": 1980,
      "Ġliczby": 1981,
      "Ġwielo": 1982,
      "chodzi": 1983,
      "ĠPe": 1984,
      "Ġstanu": 1985,
      "ĠpoczÄħtku": 1986,
      "zaleÅ¼": 1987,
      "Ġlecz": 1988,
      "Ġopera": 1989,
      "Ġstop": 1990,
      "matycz": 1991,
      "ĠzostaÅĤo": 1992,
      "ĠZe": 1993,
      "Ġstud": 1994,
      "Ġstaro": 1995,
      "owane": 1996,
      "ĠÅ¼a": 1997,
      "Ka": 1998,
      "leÅ¼Äħ": 1999,
      "Ġstruk": 2000,
      "ĠÅ¼": 2001,
      "Ġone": 2002,
      "ĠosiÄħ": 2003,
      "lor": 2004,
      "Ġregi": 2005,
      "Ġzdoby": 2006,
      "ĠzakoÅĦ": 2007,
      "ill": 2008,
      "Ġona": 2009,
      "ciem": 2010,
      "ĠWÅĤa": 2011,
      "Ġ25": 2012,
      "ÅĽciej": 2013,
      "onÃ³w": 2014,
      "rÃ³j": 2015,
      "Ġpracy": 2016,
      "ÅĦca": 2017,
      "Ġpostaci": 2018,
      "ĠJed": 2019,
      "Ã³wczas": 2020,
      "bardziej": 2021,
      "Li": 2022,
      "Ġterenie": 2023,
      "Ġstar": 2024,
      "nictwa": 2025,
      "Ġofi": 2026,
      "qu": 2027,
      "Ġelektro": 2028,
      "ĠUniwersyte": 2029,
      "Ġgatu": 2030,
      "Ã³j": 2031,
      "gÃ³w": 2032,
      "kom": 2033,
      "cyjny": 2034,
      "ĠktÃ³rzy": 2035,
      "ĠskÅĤad": 2036,
      "194": 2037,
      "Ġszyb": 2038,
      "Ġrozwo": 2039,
      "ĠprzykÅĤad": 2040,
      "Ġucze": 2041,
      "Ġmln": 2042,
      "Pa": 2043,
      "eru": 2044,
      "sen": 2045,
      "ĠpoÅĤo": 2046,
      "Ġmor": 2047,
      "ministra": 2048,
      "torÃ³w": 2049,
      "istoria": 2050,
      "ÅĽwia": 2051,
      "erytor": 2052,
      "Ġoddzia": 2053,
      "pod": 2054,
      "Ġstrony": 2055,
      "jpg": 2056,
      "ĠgÃ³r": 2057,
      "Ġpoprzez": 2058,
      "Ġsprze": 2059,
      "liwoÅĽci": 2060,
      "Ġpsy": 2061,
      "ĠwiÄĻc": 2062,
      "Ġumie": 2063,
      "sja": 2064,
      "ĠprzyjÄĻ": 2065,
      "Ġilo": 2066,
      "ĠKar": 2067,
      "ĠÅºrÃ³d": 2068,
      "ĠwczeÅĽniej": 2069,
      "ĠczÄħ": 2070,
      "biera": 2071,
      "cenia": 2072,
      "jski": 2073,
      "ĠÅ¼o": 2074,
      "zacja": 2075,
      "arÃ³wno": 2076,
      "ĠtÅĤu": 2077,
      "rych": 2078,
      "Ġmiasto": 2079,
      "Ġbry": 2080,
      "owoÅĽci": 2081,
      "lni": 2082,
      "Ġjeszcze": 2083,
      "Ġcesa": 2084,
      "Ġzawar": 2085,
      "ote": 2086,
      "rami": 2087,
      "ĠCy": 2088,
      "âĢŀ": 2089,
      "Ġforma": 2090,
      "Ġtakich": 2091,
      "ĠAnd": 2092,
      "Ġjednym": 2093,
      "Ã³g": 2094,
      "ang": 2095,
      "zio": 2096,
      "por": 2097,
      "Ġplane": 2098,
      "sach": 2099,
      "Ġobej": 2100,
      "Bibliografia": 2101,
      "nienia": 2102,
      "nisty": 2103,
      "Ġnazwa": 2104,
      "Ġwszystkie": 2105,
      "Ġinte": 2106,
      "ĠY": 2107,
      "ĠRy": 2108,
      "ÅĤkowi": 2109,
      "ke": 2110,
      "Ġprzeprowa": 2111,
      "Ġdziedzi": 2112,
      "gar": 2113,
      "turze": 2114,
      "Ġczasu": 2115,
      "ĠJest": 2116,
      "ĠrozpoczÄĻ": 2117,
      "Ġregu": 2118,
      "24": 2119,
      "Ġkieru": 2120,
      "Ġ100": 2121,
      "racji": 2122,
      "ĠFi": 2123,
      "SA": 2124,
      "kÃ³ÅĤ": 2125,
      "ĠBar": 2126,
      "ÅĽni": 2127,
      "listy": 2128,
      "Ġstwo": 2129,
      "ĠCe": 2130,
      "ĠNiem": 2131,
      "Prze": 2132,
      "mentu": 2133,
      "Ġludzi": 2134,
      "Ġkobie": 2135,
      "ĠÅĽwiecie": 2136,
      "ĠchrzeÅĽcija": 2137,
      "Ġprzedstawi": 2138,
      "gne": 2139,
      "ĠwÅĽrÃ³d": 2140,
      "Ġoj": 2141,
      "ĠkoÅĽci": 2142,
      "Ġ11": 2143,
      "Ġpolitycz": 2144,
      "Ġnatural": 2145,
      "Ġ190": 2146,
      "Ġprojek": 2147,
      "Ġwod": 2148,
      "Ġchemi": 2149,
      "ĠÅĽwiata": 2150,
      "ĠnaleÅ¼y": 2151,
      ");": 2152,
      "spoli": 2153,
      "Ġobiek": 2154,
      "Ġliczba": 2155,
      "zwy": 2156,
      "tym": 2157,
      "Ġtypu": 2158,
      "Ġreak": 2159,
      "Ġrzym": 2160,
      "wala": 2161,
      "ĠnastÄĻpu": 2162,
      "va": 2163,
      "Ġpoe": 2164,
      "Ġograni": 2165,
      "toÅĽÄĩ": 2166,
      "ĠÅļwiÄĻ": 2167,
      "tan": 2168,
      "::": 2169,
      "Ġprzyczy": 2170,
      "Ġkatoli": 2171,
      "Ġot": 2172,
      "Ġpowszech": 2173,
      "Ġtele": 2174,
      "czyÄĩ": 2175,
      "mpa": 2176,
      "Ġsymbo": 2177,
      "..": 2178,
      "Ġwielko": 2179,
      "Ã³ze": 2180,
      "ĠSu": 2181,
      "nomi": 2182,
      "prezen": 2183,
      "koÅĤa": 2184,
      "Ġopar": 2185,
      "ĠLud": 2186,
      "Ġog": 2187,
      "Ġide": 2188,
      "cÅĤa": 2189,
      "Ġmate": 2190,
      "iÄħ": 2191,
      "Ġgrup": 2192,
      "23": 2193,
      "Ġprawdopodob": 2194,
      "Od": 2195,
      "Ġinnymi": 2196,
      "ÄĻdzie": 2197,
      "dÅĤ": 2198,
      "bia": 2199,
      "ĠJego": 2200,
      "ĠThe": 2201,
      "Ġprob": 2202,
      "Ġdwie": 2203,
      "puszcza": 2204,
      "Å¼one": 2205,
      "serwa": 2206,
      "Nie": 2207,
      "ĠdziÄĻki": 2208,
      "nkÃ³w": 2209,
      "Ġani": 2210,
      "ĠEuropej": 2211,
      "poÅĽ": 2212,
      "Ġspecja": 2213,
      "ĠwiÄħ": 2214,
      "sch": 2215,
      "Ġobraz": 2216,
      "ĠDu": 2217,
      "ĠjÄĻzyku": 2218,
      "Ġniego": 2219,
      "Ġnr": 2220,
      "ĠludnoÅĽci": 2221,
      "oÅĤa": 2222,
      "Ġtwier": 2223,
      "Ġwarun": 2224,
      "ksy": 2225,
      "stwie": 2226,
      "niÅĤ": 2227,
      "ĠudziaÅĤ": 2228,
      "Ġterytor": 2229,
      "22": 2230,
      "Ġpoza": 2231,
      "lei": 2232,
      "Ġloka": 2233,
      "Ġgre": 2234,
      "jawi": 2235,
      "ĠogÃ³l": 2236,
      "ĠKsiÄĻ": 2237,
      "licy": 2238,
      "ĠnaleÅ¼Äħ": 2239,
      "rÃ³t": 2240,
      "twier": 2241,
      "czÄħÅĤ": 2242,
      "ĠpÅĤa": 2243,
      "ĠCho": 2244,
      "wskiego": 2245,
      "ĠzaczÄĻ": 2246,
      "Ġ+": 2247,
      "Ġosa": 2248,
      "80": 2249,
      "dio": 2250,
      "ĠKrzy": 2251,
      "Ġanty": 2252,
      "owany": 2253,
      "ĠZiemi": 2254,
      "Ġeksp": 2255,
      "193": 2256,
      "Ġwzro": 2257,
      "wski": 2258,
      "tedy": 2259,
      "Ġkonty": 2260,
      "nÄħÅĤ": 2261,
      "gia": 2262,
      "czego": 2263,
      "siÅĤ": 2264,
      "ĠCen": 2265,
      "Ġrzeczywi": 2266,
      "naj": 2267,
      "Ġ24": 2268,
      "Ġzasto": 2269,
      "Ġpolskich": 2270,
      "ĠpiÄĻ": 2271,
      "Ġrosyj": 2272,
      "wali": 2273,
      "ĠcaÅĤkowi": 2274,
      "tnych": 2275,
      "sand": 2276,
      "ĠwÃ³wczas": 2277,
      "Ġen": 2278,
      "twÃ³r": 2279,
      "ĠzarÃ³wno": 2280,
      "Ġkiedy": 2281,
      "We": 2282,
      "ina": 2283,
      "ĠmÃ³w": 2284,
      "ĠpomocÄħ": 2285,
      "ĠwartoÅĽci": 2286,
      "ĠÅ»y": 2287,
      "tacji": 2288,
      "Ġtrwa": 2289,
      "Ġczyn": 2290,
      "ĠÅĽwiÄĻ": 2291,
      "Ġtytu": 2292,
      "Ġnor": 2293,
      "Ġpopular": 2294,
      "ĠMia": 2295,
      "ĠFe": 2296,
      "ĠHen": 2297,
      "nikiem": 2298,
      "ĠwzglÄĻdem": 2299,
      "del": 2300,
      "dr": 2301,
      "Ġcharaktery": 2302,
      "ĠÅĽwiatowej": 2303,
      "ĠKrak": 2304,
      "ver": 2305,
      "ÅĤnie": 2306,
      "Ã¼": 2307,
      "bor": 2308,
      "lina": 2309,
      "Ġreligij": 2310,
      "szenie": 2311,
      "metr": 2312,
      "dziÄĩ": 2313,
      "tak": 2314,
      "Ġoby": 2315,
      "ĠroÅĽli": 2316,
      "Ġadministra": 2317,
      "Ġtru": 2318,
      "sual": 2319,
      "stru": 2320,
      "Ġzam": 2321,
      "ĠstanowiÄħ": 2322,
      "szÅĤo": 2323,
      "ĠniektÃ³rych": 2324,
      "wicz": 2325,
      "Ġwysp": 2326,
      "pÅĤa": 2327,
      "ĠzwiÄħzku": 2328,
      "60": 2329,
      "Ġbio": 2330,
      "Ġdow": 2331,
      "Ġkoniec": 2332,
      "leksand": 2333,
      "Ġnapisa": 2334,
      "ĠStani": 2335,
      "usa": 2336,
      "ĠKomi": 2337,
      "cent": 2338,
      "tal": 2339,
      "erwo": 2340,
      "Ġprzestrze": 2341,
      "ĠPu": 2342,
      "rii": 2343,
      "ĠSi": 2344,
      "Ġobro": 2345,
      "rea": 2346,
      "pia": 2347,
      "Ġniewie": 2348,
      "ĠJÃ³ze": 2349,
      "Ġsobie": 2350,
      "szko": 2351,
      "Ġhistorii": 2352,
      "Ġwobec": 2353,
      "ĠWarszawie": 2354,
      "Ġbrytyj": 2355,
      "Ġczym": 2356,
      "ĠtworzÄħ": 2357,
      "Ġpierwsze": 2358,
      "ĠWin": 2359,
      "wana": 2360,
      "Ġwier": 2361,
      "czÄĻÅĽciej": 2362,
      "Ġwszystkim": 2363,
      "Ġswoich": 2364,
      "fry": 2365,
      "Re": 2366,
      "Ã¶": 2367,
      "wiÄħz": 2368,
      "ÅĤka": 2369,
      "26": 2370,
      "Ġdoku": 2371,
      "ĠPozna": 2372,
      "wal": 2373,
      "gh": 2374,
      "ĠmiaÅĤa": 2375,
      "lona": 2376,
      "Å¼yÅĤ": 2377,
      "piero": 2378,
      "27": 2379,
      "tkÃ³w": 2380,
      "ĠwÅĤo": 2381,
      "Ġpodstawie": 2382,
      "Ġwojen": 2383,
      "ĠJoh": 2384,
      "ĠZjednoczonych": 2385,
      "ĠRoz": 2386,
      "Pod": 2387,
      "ĠGu": 2388,
      "Ġstanie": 2389,
      "dli": 2390,
      "ĠczÅĤowieka": 2391,
      "ĠÅļlÄħ": 2392,
      "siÄĻcy": 2393,
      "chro": 2394,
      "Ġsko": 2395,
      "przy": 2396,
      "197": 2397,
      "lone": 2398,
      "Ã¡": 2399,
      "tyczÄħ": 2400,
      "let": 2401,
      "szcz": 2402,
      "pospoli": 2403,
      "Ġdecy": 2404,
      "lach": 2405,
      "xt": 2406,
      "Ġ50": 2407,
      "Ġbyli": 2408,
      "Ġkm": 2409,
      "Naj": 2410,
      "ĠBu": 2411,
      "ĠzaleÅ¼": 2412,
      "Ġsub": 2413,
      "zra": 2414,
      "21": 2415,
      "ĠBi": 2416,
      "ĠwyrÃ³Å¼": 2417,
      "rzÄĻd": 2418,
      "Ġkan": 2419,
      "Ġfak": 2420,
      "rew": 2421,
      "powie": 2422,
      "ĠwspÃ³ÅĤczes": 2423,
      "ÅĽla": 2424,
      "Ġbli": 2425,
      "wych": 2426,
      "Ġlek": 2427,
      "ĠwaÅ¼": 2428,
      "Ġsyn": 2429,
      "ony": 2430,
      "spe": 2431,
      "Ġopie": 2432,
      "Ġbisku": 2433,
      "Ġniej": 2434,
      "ros": 2435,
      "tio": 2436,
      "Ġtyp": 2437,
      "Ġkraj": 2438,
      "Ġautor": 2439,
      "ĠJana": 2440,
      "ĠksztaÅĤ": 2441,
      "rie": 2442,
      "ĠwiÄĻcej": 2443,
      "Ġzespo": 2444,
      "ĠSte": 2445,
      "ĠÐ": 2446,
      "Â°": 2447,
      "ĠrÄĻ": 2448,
      "Historia": 2449,
      "ĠWedÅĤug": 2450,
      "Å¼ony": 2451,
      "Ġzapo": 2452,
      "Ġlata": 2453,
      "tow": 2454,
      "Ġfilm": 2455,
      "ĠPierw": 2456,
      "ĠGda": 2457,
      "cjach": 2458,
      "ĠdziaÅĤania": 2459,
      "ĠrolÄĻ": 2460,
      "Ġarchi": 2461,
      "ĠpojÄĻ": 2462,
      "28": 2463,
      "Ġotwar": 2464,
      "Ġmaszy": 2465,
      "Ġnajbardziej": 2466,
      "nice": 2467,
      "lep": 2468,
      "Åļ": 2469,
      "raca": 2470,
      "ĠwyÅĤÄħ": 2471,
      "Ġci": 2472,
      "bior": 2473,
      "ĠKu": 2474,
      "rum": 2475,
      "pew": 2476,
      "ya": 2477,
      "ĠdotyczÄħ": 2478,
      "nizm": 2479,
      "ĠPow": 2480,
      "Ġziem": 2481,
      "ĠÅĽrodowi": 2482,
      "ĠwiÄĻkszoÅĽÄĩ": 2483,
      "fikowa": 2484,
      "Ġobecnie": 2485,
      "ĠwystÄĻpuje": 2486,
      "ĠFa": 2487,
      "ĠbezpoÅĽ": 2488,
      "cenie": 2489,
      "Ġpodzie": 2490,
      "stoÅĽci": 2491,
      "ĠwÅĤadz": 2492,
      "jach": 2493,
      "dach": 2494,
      "lizowa": 2495,
      "Ġsiedzi": 2496,
      "sf": 2497,
      "cÄĻ": 2498,
      "Ġrozwoju": 2499,
      "bÄĻ": 2500,
      "ces": 2501,
      "Ġnazwy": 2502,
      "domo": 2503,
      "ĠtÄĻ": 2504,
      "ĠchoÄĩ": 2505,
      "dzono": 2506,
      "twor": 2507,
      "tt": 2508,
      "cjo": 2509,
      "Ġludz": 2510,
      "Ġdzieci": 2511,
      "tny": 2512,
      "Ġniez": 2513,
      "Ġspowo": 2514,
      "Ġuda": 2515,
      "ĠBra": 2516,
      "ĠDzie": 2517,
      "Ġ23": 2518,
      "tecznie": 2519,
      "wej": 2520,
      "ĠsÅĤowa": 2521,
      "ĠBryta": 2522,
      "Ġemi": 2523,
      "ĠobowiÄħ": 2524,
      "ÅĤaszcza": 2525,
      "ĠduÅ¼y": 2526,
      "rzysta": 2527,
      "ĠwiÄĻkszoÅĽci": 2528,
      "Ġosoby": 2529,
      "ciel": 2530,
      "chodzÄħ": 2531,
      "nienie": 2532,
      "Ġwybra": 2533,
      "Ġdokona": 2534,
      "ph": 2535,
      "kÅĤady": 2536,
      "Ġteorii": 2537,
      "ĠÅ¼oÅĤnie": 2538,
      "Ġzale": 2539,
      "dnich": 2540,
      "sh": 2541,
      "Ġpotrze": 2542,
      "Ġjednego": 2543,
      "Ġisto": 2544,
      "tz": 2545,
      "iera": 2546,
      "Ġgeo": 2547,
      "pow": 2548,
      "Ġsytua": 2549,
      "Ġsystemu": 2550,
      "lony": 2551,
      "Ġ189": 2552,
      "ĠwÅĤadzy": 2553,
      "dyn": 2554,
      "Ġpowstania": 2555,
      "Ġpoko": 2556,
      "okra": 2557,
      "ĠsÅĤo": 2558,
      "dami": 2559,
      "czki": 2560,
      "polski": 2561,
      "ĠumoÅ¼li": 2562,
      "cyjnego": 2563,
      "Ġprogram": 2564,
      "cym": 2565,
      "Ġalbo": 2566,
      "Ġmateria": 2567,
      "29": 2568,
      "ĠjÄĻzykÃ³w": 2569,
      "licza": 2570,
      "legÅĤoÅĽci": 2571,
      "Ġprzyro": 2572,
      "ĠosiÄħg": 2573,
      "spa": 2574,
      "szenia": 2575,
      "Ġwtedy": 2576,
      "ĠdostÄĻp": 2577,
      "zÄĻ": 2578,
      "Ġobszar": 2579,
      "ÅĦstw": 2580,
      "Ġpowia": 2581,
      "Ġpojawi": 2582,
      "Ġdrugiej": 2583,
      "tual": 2584,
      "os": 2585,
      "turÄĻ": 2586,
      "Ġbibli": 2587,
      "ĠmiÄĻdzynarod": 2588,
      "Ġpis": 2589,
      "kla": 2590,
      "kade": 2591,
      "dziaÅĤu": 2592,
      "Ġmecha": 2593,
      "ĠgdyÅ¼": 2594,
      "czeÅĦstwa": 2595,
      "ĠCze": 2596,
      "Ġzjawi": 2597,
      "mian": 2598,
      "gru": 2599,
      "dne": 2600,
      "ĠDz": 2601,
      "waÅ¼niej": 2602,
      "son": 2603,
      "ortu": 2604,
      "ĠponiewaÅ¼": 2605,
      "Ġfunkcji": 2606,
      "Ġokres": 2607,
      "Ġtworzy": 2608,
      "ĠWÅĤady": 2609,
      "Ġefek": 2610,
      "waÅĤy": 2611,
      "Ġpierwo": 2612,
      "ĠAleksand": 2613,
      "Ġodda": 2614,
      "szczegÃ³l": 2615,
      "Ġstand": 2616,
      "ĠwystÄĻp": 2617,
      "ĠpamiÄĻ": 2618,
      "Mar": 2619,
      "Ġtill": 2620,
      "ĠbÄĻdzie": 2621,
      "niesie": 2622,
      "cami": 2623,
      "ĠSej": 2624,
      "ĠmieÅĽcie": 2625,
      "Ġprodu": 2626,
      "pla": 2627,
      "Ġpochodzenia": 2628,
      "Ġdni": 2629,
      "Ġ28": 2630,
      "ĠsÅĤa": 2631,
      "ĠktÃ³rÄħ": 2632,
      "kÅĤadzie": 2633,
      "syw": 2634,
      "Ġpozwala": 2635,
      "Ġ27": 2636,
      "Ġimp": 2637,
      "Ġwojska": 2638,
      "Ġwynika": 2639,
      "Ġform": 2640,
      "car": 2641,
      "bry": 2642,
      "Ġdnia": 2643,
      "koÅĽÄĩ": 2644,
      "ĠiÅ¼": 2645,
      "rozu": 2646,
      "jaz": 2647,
      "Ġpolskiego": 2648,
      "ĠSan": 2649,
      "Ġreprezen": 2650,
      "Ġprzede": 2651,
      "198": 2652,
      "ĠHenry": 2653,
      "waÅĤa": 2654,
      "ĠGre": 2655,
      "rag": 2656,
      "dyj": 2657,
      "ĠWÅĤo": 2658,
      "spi": 2659,
      "Ġrzecz": 2660,
      "Äħd": 2661,
      "Ġfrom": 2662,
      "ĠUSA": 2663,
      "noÅĽciÄħ": 2664,
      "Ġdoprowa": 2665,
      "Ġramach": 2666,
      "Ġszero": 2667,
      "rysty": 2668,
      "Ġoprac": 2669,
      "Ġtrzech": 2670,
      "Ġthe": 2671,
      "Ġoficja": 2672,
      "rzem": 2673,
      "mal": 2674,
      "Ġwymaga": 2675,
      "dostÄĻp": 2676,
      "ĠpÃ³ÅĤ": 2677,
      "Ġopa": 2678,
      "Ã³ry": 2679,
      "Ġstwier": 2680,
      "Ġtext": 2681,
      "twarza": 2682,
      "ĠaÅ¼": 2683,
      "ĠSt": 2684,
      "liwoÅĽÄĩ": 2685,
      "gin": 2686,
      "czyna": 2687,
      "dziÅĤa": 2688,
      "dom": 2689,
      "ĠJez": 2690,
      "ĠciÄħgu": 2691,
      "ine": 2692,
      "ÄĻzy": 2693,
      "Ġwyraz": 2694,
      "Ġ26": 2695,
      "Ġanali": 2696,
      "wod": 2697,
      "organi": 2698,
      "wÄħ": 2699,
      "gip": 2700,
      "stry": 2701,
      "towaÅĤ": 2702,
      "ĠkaÅ¼de": 2703,
      "gram": 2704,
      "ĠwyÅ¼": 2705,
      "Ġponow": 2706,
      "ego": 2707,
      "Ġostatni": 2708,
      "Ġnap": 2709,
      "czyÅĤa": 2710,
      "gre": 2711,
      "Ġsiebie": 2712,
      "Ġfe": 2713,
      "Ġ29": 2714,
      "Ġ;": 2715,
      "tkiem": 2716,
      "sia": 2717,
      "czni": 2718,
      "Ġpozna": 2719,
      "ĠkaÅ¼dy": 2720,
      "ld": 2721,
      "195": 2722,
      "tna": 2723,
      "logiczne": 2724,
      "Ġlinii": 2725,
      "Ġpolskiej": 2726,
      "kowej": 2727,
      "Ġspa": 2728,
      "nor": 2729,
      "ĠkrÃ³t": 2730,
      "ĠwewnÄĻtrz": 2731,
      "miany": 2732,
      "Ġreali": 2733,
      "bez": 2734,
      "196": 2735,
      "miar": 2736,
      "Mu": 2737,
      "ĠSto": 2738,
      "ĠogÅĤo": 2739,
      "Ġdem": 2740,
      "ĠPÃ³ÅĤnoc": 2741,
      "Ġcharakter": 2742,
      "ĠChi": 2743,
      "Ġbia": 2744,
      "Ġzwo": 2745,
      "Ġzaw": 2746,
      "Ġwody": 2747,
      "towy": 2748,
      "waÅ¼a": 2749,
      "Ġpapie": 2750,
      "ĠzwiÄĻk": 2751,
      "ĠpochodzÄħ": 2752,
      "Ġ186": 2753,
      "Ġkrzy": 2754,
      "Ġprodukcji": 2755,
      "czka": 2756,
      "dniu": 2757,
      "menty": 2758,
      "ĠBole": 2759,
      "Ġper": 2760,
      "kaz": 2761,
      "Ġkier": 2762,
      "ĠJednak": 2763,
      "Ġwspo": 2764,
      "Ġzmar": 2765,
      "Ġ\"": 2766,
      "kowie": 2767,
      "ÅĤach": 2768,
      "Ġmini": 2769,
      "cyjnej": 2770,
      "Ġzada": 2771,
      "Ġkonstruk": 2772,
      "40": 2773,
      "Ġtech": 2774,
      "ĠGdy": 2775,
      "Ġkomp": 2776,
      "czono": 2777,
      "zimie": 2778,
      "Ġfir": 2779,
      "Ġdrugi": 2780,
      "Ġistnieje": 2781,
      "ĠmiaÅĤy": 2782,
      "kazu": 2783,
      "Ġproces": 2784,
      "tnej": 2785,
      "ĠukÅĤad": 2786,
      "dzone": 2787,
      "tle": 2788,
      "waj": 2789,
      "cznymi": 2790,
      "wego": 2791,
      "ÅĤowy": 2792,
      "Ġkompozy": 2793,
      "Ġprzedstawia": 2794,
      "Ġkomputer": 2795,
      "Ġmas": 2796,
      "ĠrzÄħd": 2797,
      "ĠHu": 2798,
      "Ġniewiel": 2799,
      "dyna": 2800,
      "ĠZacho": 2801,
      "ĠZwiÄħz": 2802,
      "mer": 2803,
      "rzeÅĦ": 2804,
      "ĠEuropy": 2805,
      "czeÅĦ": 2806,
      "Ġeko": 2807,
      "ĠCzÄĻ": 2808,
      "landii": 2809,
      "Ġdziel": 2810,
      "tus": 2811,
      "sied": 2812,
      "torem": 2813,
      "gÅĤa": 2814,
      "Ġpolska": 2815,
      "Ġzre": 2816,
      "ĠAng": 2817,
      "ĠoddziaÅĤy": 2818,
      "togra": 2819,
      "cko": 2820,
      "ĠrozwiÄħza": 2821,
      "Ġaktyw": 2822,
      "ÅĽciach": 2823,
      "Ġchi": 2824,
      "Ġczar": 2825,
      "ĠjednÄħ": 2826,
      "sowanie": 2827,
      "Mo": 2828,
      ".:": 2829,
      "Ġdom": 2830,
      "inte": 2831,
      "serw": 2832,
      "Ġmeta": 2833,
      "cieli": 2834,
      "Ġswojej": 2835,
      "Ġprzygo": 2836,
      "stÄħpiÅĤ": 2837,
      "Ġstan": 2838,
      "toni": 2839,
      "ĠmoÅ¼li": 2840,
      "ĠPio": 2841,
      "ĠkrÃ³l": 2842,
      "Å»": 2843,
      "publikowa": 2844,
      "minu": 2845,
      "rÃ³cz": 2846,
      "Ġklu": 2847,
      "Ġznaczenie": 2848,
      "ĠÃ": 2849,
      "ĠEuropie": 2850,
      "Ġ40": 2851,
      "ĠPola": 2852,
      "ger": 2853,
      "towane": 2854,
      "Ġpodej": 2855,
      "Ġwykorzysta": 2856,
      "ĠswojÄħ": 2857,
      "ĠRzeczy": 2858,
      "nowie": 2859,
      "Ġjednej": 2860,
      "iar": 2861,
      "Ġ60": 2862,
      "Sz": 2863,
      "Ã³dz": 2864,
      "chow": 2865,
      "kow": 2866,
      "Ġparla": 2867,
      "ĠznajdujÄħ": 2868,
      "ly": 2869,
      "Ġodpowiada": 2870,
      "Ġtechni": 2871,
      "Ġkontro": 2872,
      "ĠTar": 2873,
      "ĠniezaleÅ¼": 2874,
      "Ġkolo": 2875,
      "Sta": 2876,
      "Ġzwykle": 2877,
      "ografi": 2878,
      "Ja": 2879,
      "Ġrok": 2880,
      "jen": 2881,
      "Ġkana": 2882,
      "ĠÅĽci": 2883,
      "tycznej": 2884,
      "nes": 2885,
      "Ġwalki": 2886,
      "ĠFrancji": 2887,
      "Ġsyste": 2888,
      "zyj": 2889,
      "ĠMaria": 2890,
      "Åºnie": 2891,
      "Ġdefini": 2892,
      "Ġ1939": 2893,
      "cem": 2894,
      "Ġwykorzysty": 2895,
      "Ġteo": 2896,
      "niesi": 2897,
      "towany": 2898,
      "ĠGru": 2899,
      "Ġznacznie": 2900,
      "sÅĤo": 2901,
      "wz": 2902,
      "Ġwybu": 2903,
      "ĠÅ¼ycie": 2904,
      "Ġspotka": 2905,
      "Ġkomi": 2906,
      "ff": 2907,
      "Pro": 2908,
      "ĠzwÅĤaszcza": 2909,
      "Ġfunkcj": 2910,
      "Ġzbro": 2911,
      "ĠInter": 2912,
      "Ġenergii": 2913,
      "Ġlotni": 2914,
      "Ġdra": 2915,
      "Ġobywa": 2916,
      "Ġpartii": 2917,
      "Ġzapew": 2918,
      "pospolitej": 2919,
      "Ġnowe": 2920,
      "Ġkolei": 2921,
      "ĠÅĤaci": 2922,
      "roz": 2923,
      "twem": 2924,
      "ĠRP": 2925,
      "Ġprzej": 2926,
      "rocÅĤa": 2927,
      "ĠnajczÄĻÅĽciej": 2928,
      "Ġkultury": 2929,
      "ĠSie": 2930,
      "niÄĩ": 2931,
      "Ġobo": 2932,
      "ĠchÅĤo": 2933,
      "ĠstaÅĤ": 2934,
      "Ġruchu": 2935,
      "Ġzapro": 2936,
      "rÄĻb": 2937,
      "eli": 2938,
      "poli": 2939,
      "ĠkrÃ³la": 2940,
      "Ġl": 2941,
      "Ġrozwija": 2942,
      "kÅĤadni": 2943,
      "suniÄĻ": 2944,
      "Ġbadania": 2945,
      "ĠLon": 2946,
      "ĠÅ¼ydow": 2947,
      "ÅĦczy": 2948,
      "Ġeuropej": 2949,
      "Ġkli": 2950,
      "rzyÅĤ": 2951,
      "Ġokoli": 2952,
      "Ġpochodzi": 2953,
      "Ġab": 2954,
      "Ġprzeciwko": 2955,
      "ĠRzeczypospolitej": 2956,
      "tyki": 2957,
      "ÅĦskÄħ": 2958,
      "czona": 2959,
      "bÄħ": 2960,
      "Ġbudow": 2961,
      "ĠÅ¼ad": 2962,
      "ownikÃ³w": 2963,
      "ĠstaroÅ¼y": 2964,
      "sami": 2965,
      "Ġtry": 2966,
      "trzymy": 2967,
      "Ġprzyj": 2968,
      "ĠroÅĽlin": 2969,
      "ĠPla": 2970,
      "Ġuczest": 2971,
      "ĠKazimie": 2972,
      "stria": 2973,
      "Ġsamego": 2974,
      "SD": 2975,
      "Ġhand": 2976,
      "nione": 2977,
      "ĠwÄħ": 2978,
      "rzej": 2979,
      "ĠwojewÃ³dztwa": 2980,
      "31": 2981,
      "Ġzdo": 2982,
      "Ġspowodowa": 2983,
      "Ġwybo": 2984,
      "ĠPolskiego": 2985,
      "Ġczego": 2986,
      "Ġtemat": 2987,
      "owcÃ³w": 2988,
      "lum": 2989,
      "Ġboga": 2990,
      "Ġ/": 2991,
      "nda": 2992,
      "Ġruch": 2993,
      "ĠzwyciÄĻ": 2994,
      "ĠzajÄĻ": 2995,
      "Ġpierwszych": 2996,
      "Ġwykony": 2997,
      "ĠposzczegÃ³l": 2998,
      "Ġzm": 2999,
      "SR": 3000,
      "Ġ188": 3001,
      "kowe": 3002,
      "ĠBibli": 3003,
      "trum": 3004,
      "ĠamerykaÅĦski": 3005,
      "owano": 3006,
      "Ġpierwszej": 3007,
      "ĠwystÄĻpujÄħ": 3008,
      "ĠbadaÅĦ": 3009,
      "70": 3010,
      "Ġzakre": 3011,
      "Te": 3012,
      "âĢĿ)": 3013,
      "Ġfina": 3014,
      "styczne": 3015,
      "Ġpojawia": 3016,
      "gÃ³": 3017,
      "Ra": 3018,
      "smi": 3019,
      "ĠKoÅĽcioÅĤa": 3020,
      "ĠczÄħste": 3021,
      "ĠnazwÄĻ": 3022,
      "Mi": 3023,
      "ĠPolska": 3024,
      "towe": 3025,
      "Ġgrupa": 3026,
      "ĠrÃ³Å¼ne": 3027,
      "Ġ80": 3028,
      "nom": 3029,
      "Ġobsza": 3030,
      "Ġprawdopodobnie": 3031,
      "stych": 3032,
      "ĠotrzymaÅĤ": 3033,
      "giem": 3034,
      "Ġeg": 3035,
      "owaÅĤa": 3036,
      "Ġ22": 3037,
      "ref": 3038,
      "De": 3039,
      "ĠzwiÄħzane": 3040,
      "ĠpoÅĤowie": 3041,
      "Ba": 3042,
      "rowin": 3043,
      "Ġopublikowa": 3044,
      "cio": 3045,
      "czek": 3046,
      "kacji": 3047,
      "ĠPary": 3048,
      "ĠtÅĤuma": 3049,
      "Ġaktor": 3050,
      "lono": 3051,
      "Ġzni": 3052,
      "szty": 3053,
      "ĠPoÅĤudni": 3054,
      "ckÄħ": 3055,
      "Ġprzewodni": 3056,
      "ĠbezpoÅĽredni": 3057,
      "ĠNor": 3058,
      "Ġziemi": 3059,
      "Ġprawie": 3060,
      "sowania": 3061,
      "cznoÅĽÄĩ": 3062,
      "owana": 3063,
      "Ġwojnie": 3064,
      "Le": 3065,
      "ll": 3066,
      "ĠGÅĤÃ³w": 3067,
      "ĠoÅĽrod": 3068,
      "Â²": 3069,
      "Ġtro": 3070,
      "ĠAmery": 3071,
      "ĠjeÅĽli": 3072,
      "ĠprÄĻ": 3073,
      "Ġprywa": 3074,
      "ĠRady": 3075,
      "lacja": 3076,
      "Ġobu": 3077,
      "unda": 3078,
      "Ġtre": 3079,
      "ĠwyÅĤÄħcznie": 3080,
      "Ġfrag": 3081,
      "mentÃ³w": 3082,
      "Ġdopiero": 3083,
      "Ġmagne": 3084,
      "ĠciÄĻ": 3085,
      "Ġznalaz": 3086,
      "szedÅĤ": 3087,
      "mon": 3088,
      "Ġsuk": 3089,
      "Ġnajmniej": 3090,
      "dziela": 3091,
      "Ġmedy": 3092,
      "Ġit": 3093,
      "Ġkoncep": 3094,
      "Ġdal": 3095,
      "ĠlÄħ": 3096,
      "ĠwiÄħza": 3097,
      "Ġokresu": 3098,
      "tkowa": 3099,
      "ĠTu": 3100,
      "Ġrodziny": 3101,
      "Ġ1945": 3102,
      "Ġwersji": 3103,
      "tycznego": 3104,
      "Ġple": 3105,
      "ĠstaÅĤa": 3106,
      "Ġpole": 3107,
      "Pierw": 3108,
      "ĠTra": 3109,
      "are": 3110,
      "Ġelektry": 3111,
      "Ġprakty": 3112,
      "bio": 3113,
      "Ġnauki": 3114,
      "ĠHiszpa": 3115,
      "Ġkonf": 3116,
      "au": 3117,
      "Ġand": 3118,
      "ĠciaÅĤa": 3119,
      "wiast": 3120,
      "ĠurzÄħ": 3121,
      "Ġzbudowa": 3122,
      "wÅĤa": 3123,
      "lb": 3124,
      "ĠRepubli": 3125,
      "Ġpolskie": 3126,
      "Ġzmien": 3127,
      "ĠPre": 3128,
      "sÅĤugi": 3129,
      "WedÅĤug": 3130,
      "Ġ21": 3131,
      "Ġprzyzna": 3132,
      "ĠrozwÃ³j": 3133,
      "czym": 3134,
      "tyczny": 3135,
      "ĠPoli": 3136,
      "):": 3137,
      "int": 3138,
      "Ġato": 3139,
      "Ġcyk": 3140,
      "Ġprote": 3141,
      "ĠDy": 3142,
      "ĠpoÅĤu": 3143,
      "ĠdoszÅĤo": 3144,
      "ÅĽwiad": 3145,
      "ĠTowarzy": 3146,
      "ĠNiemie": 3147,
      "Ġastro": 3148,
      "ĠwÅĤad": 3149,
      "ĠWscho": 3150,
      "Ġcentrum": 3151,
      "ĠâĨ": 3152,
      "zwyczaj": 3153,
      "ryt": 3154,
      "ĠHer": 3155,
      "gdy": 3156,
      "ĠIV": 3157,
      "Ġnaro": 3158,
      "Ġbudy": 3159,
      "ĠnajwyÅ¼": 3160,
      "ĠprzeÅĤo": 3161,
      "Ġpsycho": 3162,
      "raÅĤ": 3163,
      "ecnie": 3164,
      "ciela": 3165,
      "onar": 3166,
      "Ġ2000": 3167,
      "pen": 3168,
      "Ġsieci": 3169,
      "ĠporÃ³w": 3170,
      "Ġpoje": 3171,
      "Ġtrakcie": 3172,
      "stytucji": 3173,
      "ĠGÃ³r": 3174,
      "towi": 3175,
      "ĠEu": 3176,
      "ĠKaro": 3177,
      "ĠpoglÄħ": 3178,
      "Å¼ona": 3179,
      "Ġprzedmio": 3180,
      "ĠprÃ³b": 3181,
      "ĠpoÅĽwiÄĻ": 3182,
      "Ġem": 3183,
      "Ġpierwszym": 3184,
      "Ġkro": 3185,
      "pote": 3186,
      "ono": 3187,
      "Ġzapa": 3188,
      "kol": 3189,
      "Ġoce": 3190,
      ".),": 3191,
      "towania": 3192,
      "35": 3193,
      "Ġ2006": 3194,
      "ĠsÅĤow": 3195,
      "Ġpolityk": 3196,
      "uje": 3197,
      "Ġdzien": 3198,
      "ÅĽle": 3199,
      "dowaÅĤ": 3200,
      "biega": 3201,
      "ĠTur": 3202,
      "ĠWielkiej": 3203,
      "czyn": 3204,
      "para": 3205,
      "Ġzajmu": 3206,
      "ĠczÅĤonkÃ³w": 3207,
      "Ġhomo": 3208,
      "ĠMicha": 3209,
      "ĠmiaÅĤo": 3210,
      "ĠSpo": 3211,
      "ĠdÅĤugoÅĽci": 3212,
      "wano": 3213,
      "Da": 3214,
      "sla": 3215,
      "Ġorganizacji": 3216,
      "dzony": 3217,
      "Ġjapo": 3218,
      "Ġopisa": 3219,
      "zwo": 3220,
      "Ġcel": 3221,
      "ĠobjÄĻ": 3222,
      "Ġpolega": 3223,
      "noszÄħ": 3224,
      "ĠczasÃ³w": 3225,
      "Ġniepod": 3226,
      "Ġdialek": 3227,
      "krai": 3228,
      "ĠKrÃ³le": 3229,
      "kazaÅĤ": 3230,
      "tycznie": 3231,
      "ĠBia": 3232,
      "pÃ³w": 3233,
      "ĠMiÄĻdzy": 3234,
      "Ġsen": 3235,
      "ĠGra": 3236,
      "Ġran": 3237,
      "ĠprzemysÅĤ": 3238,
      "SRR": 3239,
      "Ġ70": 3240,
      "Ġdrze": 3241,
      "Ð°": 3242,
      "id": 3243,
      "ĠAda": 3244,
      "ĠpowoÅĤa": 3245,
      "ĠbÄħ": 3246,
      "Ġszere": 3247,
      "ĠÅļwia": 3248,
      "sud": 3249,
      "Ġrodzaju": 3250,
      "masz": 3251,
      "ĠrÃ³wno": 3252,
      "Ch": 3253,
      "ĠUnii": 3254,
      "Ġnieu": 3255,
      "wili": 3256,
      "ĠRob": 3257,
      "nowaÅĤ": 3258,
      "Ġzd": 3259,
      "sob": 3260,
      "krotnie": 3261,
      "ÃŃ": 3262,
      "Ġsztuki": 3263,
      "nin": 3264,
      "Ġterytorium": 3265,
      "rona": 3266,
      "Ġzmiany": 3267,
      "ĠInd": 3268,
      "mb": 3269,
      "ĠiloÅĽci": 3270,
      "siÄĻbior": 3271,
      "ĠtysiÄĻcy": 3272,
      "Ġkomunika": 3273,
      "szki": 3274,
      "Ġobserwa": 3275,
      "Ã³z": 3276,
      "towych": 3277,
      "wym": 3278,
      "Ġprzyby": 3279,
      "Ġponownie": 3280,
      "Ġopi": 3281,
      "zer": 3282,
      "Ġczasem": 3283,
      "ĠkoÅĦca": 3284,
      "stanty": 3285,
      "ĠumoÅ¼liwia": 3286,
      "Sy": 3287,
      "it": 3288,
      "ĠwÄĻgla": 3289,
      "szoÅĽÄĩ": 3290,
      "ĠMuzeum": 3291,
      "Å¼czy": 3292,
      "ÅĤsud": 3293,
      "Ġmiejscu": 3294,
      "ĠOk": 3295,
      "owanych": 3296,
      "Ġorganiza": 3297,
      "Ġchoro": 3298,
      "et": 3299,
      "ĠAugu": 3300,
      "west": 3301,
      "tuje": 3302,
      "Ar": 3303,
      "Ob": 3304,
      "Ġj": 3305,
      "Ġoku": 3306,
      "ĠsiÅĤy": 3307,
      "mienie": 3308,
      "ĠNauk": 3309,
      "Ġshi": 3310,
      "Ã³sÅĤ": 3311,
      "ĠGene": 3312,
      "90": 3313,
      "ĠPolskiej": 3314,
      "ĠdowÃ³d": 3315,
      "Ð¾": 3316,
      "ĠbÄħdÅº": 3317,
      "strzy": 3318,
      "czno": 3319,
      "owiec": 3320,
      "Wo": 3321,
      "Ġ2007": 3322,
      "Ġniemiecki": 3323,
      "dniego": 3324,
      "dzeÅĦ": 3325,
      "Ġ(âĢŀ": 3326,
      "Ġprzezna": 3327,
      "ĠgÅĤÄĻ": 3328,
      "ĠsÅĤuÅ¼": 3329,
      "Ã¤": 3330,
      "ĠprzeksztaÅĤ": 3331,
      "Ġswojego": 3332,
      "Me": 3333,
      "Ġjas": 3334,
      "ĠKoÅĽciÃ³ÅĤ": 3335,
      "ãģ": 3336,
      "ĠUni": 3337,
      "Ġrozu": 3338,
      "ĠuÅ¼ytk": 3339,
      "ĠszczegÃ³lnie": 3340,
      "ĠDla": 3341,
      "rzÄĻdu": 3342,
      "owiÄħza": 3343,
      "Ġproto": 3344,
      "Ġpowy": 3345,
      "brze": 3346,
      "cyjna": 3347,
      "ÅĤÃ³": 3348,
      "ÅĤoÅĽÄĩ": 3349,
      "Ġorbi": 3350,
      "kowy": 3351,
      "grody": 3352,
      "Ġkryty": 3353,
      "Ġsubstan": 3354,
      "skry": 3355,
      "mem": 3356,
      "gan": 3357,
      "moc": 3358,
      "ĠByÅĤ": 3359,
      "Ġsce": 3360,
      "Ã³gÅĤ": 3361,
      "Ġformie": 3362,
      "Ġpodpisa": 3363,
      "Ġopowiada": 3364,
      "Ġswoim": 3365,
      "Ġmode": 3366,
      "Ġkierunku": 3367,
      "ĠciÄĻÅ¼": 3368,
      "Ġczte": 3369,
      "ielski": 3370,
      "Ġhiszpa": 3371,
      "ĠwyjÄħ": 3372,
      "Ġtransp": 3373,
      "kwi": 3374,
      "ĠjÄĻzyki": 3375,
      "wnÄħ": 3376,
      "Ġepo": 3377,
      "Å¼eli": 3378,
      "ĠkomÃ³r": 3379,
      "Ġformy": 3380,
      "mencie": 3381,
      "nÄħÄĩ": 3382,
      "tnego": 3383,
      "wicza": 3384,
      "Ġsprzeda": 3385,
      "trza": 3386,
      "Ġmocy": 3387,
      "ĠAfry": 3388,
      "rÃ³ciÅĤ": 3389,
      "Ġsposob": 3390,
      "Ġpierwszego": 3391,
      "nicÄĻ": 3392,
      "Åį": 3393,
      "dzeniu": 3394,
      "ĠnajwaÅ¼niej": 3395,
      "groma": 3396,
      "Ġprowin": 3397,
      "ĠâĨĴ": 3398,
      "Ġbe": 3399,
      "Ge": 3400,
      "ĠNew": 3401,
      "ĠreÅ¼y": 3402,
      "ĠPonad": 3403,
      "byt": 3404,
      "Ġzu": 3405,
      "pita": 3406,
      "ĠsobÄħ": 3407,
      "Ġ()": 3408,
      "ower": 3409,
      "ĠciÄħg": 3410,
      "Ġki": 3411,
      "ĠZSRR": 3412,
      "ĠIzra": 3413,
      "NA": 3414,
      "jÄħcymi": 3415,
      "Ġ31": 3416,
      "33": 3417,
      "Ġuch": 3418,
      "ĠChry": 3419,
      "Ġmusi": 3420,
      "ĠNo": 3421,
      "Ġatmo": 3422,
      "Ġgrafi": 3423,
      "ank": 3424,
      "ĠPiÅĤsud": 3425,
      "ĠprÄĻd": 3426,
      "Ġhy": 3427,
      "Ġ2010": 3428,
      "ĠBrytanii": 3429,
      "ĠukÅĤadu": 3430,
      "45": 3431,
      "Ġizo": 3432,
      "niÃ³sÅĤ": 3433,
      "tyczna": 3434,
      "Ġgen": 3435,
      "ĠliczbÄĻ": 3436,
      "Ġpierwiast": 3437,
      "ĠÅĽredniowie": 3438,
      "Ġwido": 3439,
      "szek": 3440,
      "Kon": 3441,
      "zwa": 3442,
      "ĠpowstaÅĤa": 3443,
      "ĠpowstaÅĤ": 3444,
      "Ġarchitek": 3445,
      "ĠPart": 3446,
      "ĠwysokoÅĽci": 3447,
      "ĠSÅĤoÅĦca": 3448,
      "Ġznale": 3449,
      "Ġkatego": 3450,
      "ntÃ³w": 3451,
      "Ġstronie": 3452,
      "skiem": 3453,
      "landz": 3454,
      "ĠposÅĤu": 3455,
      "ĠwÅĤÄħ": 3456,
      "Ġpotwier": 3457,
      "Ġgwiazd": 3458,
      "Ġmatematy": 3459,
      "wiek": 3460,
      "ĠjednoczeÅĽnie": 3461,
      "jaw": 3462,
      "ÅĤami": 3463,
      "ĠSÄħ": 3464,
      "owali": 3465,
      "czÄħcy": 3466,
      "Ġdek": 3467,
      "ĠXVIII": 3468,
      "tnoÅĽci": 3469,
      "ĠwokÃ³ÅĤ": 3470,
      "art": 3471,
      "Ġshift": 3472,
      "Å»y": 3473,
      "ĠdÅº": 3474,
      "stÄħpie": 3475,
      "ĠKana": 3476,
      "The": 3477,
      "Ġtowarzy": 3478,
      "La": 3479,
      "ĠksiÄħÅ¼ÄĻ": 3480,
      "ÅĦcu": 3481,
      "Ġliczne": 3482,
      "Ga": 3483,
      "zÃ³w": 3484,
      "ĠWydaw": 3485,
      "ĠSzko": 3486,
      "ĠpierwszÄħ": 3487,
      "ĠmaÅĤ": 3488,
      "Ġopisu": 3489,
      "Ġdwo": 3490,
      "Ġoba": 3491,
      "Ġrazem": 3492,
      ":(": 3493,
      "Ġutworzo": 3494,
      "interes": 3495,
      "tona": 3496,
      "Ġprzesz": 3497,
      "Ġ*": 3498,
      "om": 3499,
      "48": 3500,
      "ĠStar": 3501,
      "starcza": 3502,
      "ĠSch": 3503,
      "metry": 3504,
      "twy": 3505,
      "ownik": 3506,
      "zÄħ": 3507,
      "Ġrza": 3508,
      "Ġwyd": 3509,
      "Ġkonflik": 3510,
      "Ġrobo": 3511,
      "nal": 3512,
      "Ġodrzu": 3513,
      "wang": 3514,
      "niÄĻcia": 3515,
      "fikacji": 3516,
      "Ġzdecy": 3517,
      "ĠPie": 3518,
      "ĠGali": 3519,
      "ÅĤowo": 3520,
      "Ġwid": 3521,
      "kolwiek": 3522,
      "ĠdziÅĽ": 3523,
      "Ġrozsze": 3524,
      "dal": 3525,
      "mana": 3526,
      "Ġwybrze": 3527,
      "ĠPru": 3528,
      "ĠwartoÅĽÄĩ": 3529,
      "Ġzgodnie": 3530,
      "Ġkultur": 3531,
      "miny": 3532,
      "ĠÅ¼oÅĤnierzy": 3533,
      "Ġpli": 3534,
      "ĪĴ": 3535,
      "ĠspÃ³ÅĤ": 3536,
      "ĠWal": 3537,
      "ĠzarzÄħ": 3538,
      "ĠWielko": 3539,
      "Ġ187": 3540,
      "Ġproblem": 3541,
      "niony": 3542,
      "rech": 3543,
      "Ġodw": 3544,
      "zn": 3545,
      "ĠEd": 3546,
      "rucho": 3547,
      "ĠduÅ¼e": 3548,
      "ĠGÃ³": 3549,
      "owaÅĤy": 3550,
      "Ġ2004": 3551,
      "feren": 3552,
      "uka": 3553,
      "ĠrzÄħdu": 3554,
      "Ġmiast": 3555,
      "Å¼onych": 3556,
      "mieniu": 3557,
      "Ġhu": 3558,
      "wan": 3559,
      "dania": 3560,
      "Ġ2005": 3561,
      "ĠrozpoczÄħÅĤ": 3562,
      "Ġpowin": 3563,
      "ĠdokÅĤad": 3564,
      "ĠRÃ³w": 3565,
      "Ġbrak": 3566,
      "Ġprowadzi": 3567,
      "Ġpy": 3568,
      "Ġpolskim": 3569,
      "Ġrewolu": 3570,
      "dyda": 3571,
      "Ġinformacji": 3572,
      "Ġwyborach": 3573,
      "dii": 3574,
      "Ġzmienia": 3575,
      "ĠtrÃ³j": 3576,
      "niczy": 3577,
      "bezpie": 3578,
      "rÃ³ci": 3579,
      "Ġzawsze": 3580,
      "jest": 3581,
      "ĠmÃ³wi": 3582,
      "cyjnym": 3583,
      "ĠPrzed": 3584,
      "ĠmÄĻÅ¼czy": 3585,
      "ÅĤac": 3586,
      "ÅĦstwie": 3587,
      "ĠAkade": 3588,
      "ĠTade": 3589,
      "ĠwielkoÅĽci": 3590,
      "ĠCha": 3591,
      "owoÅĽÄĩ": 3592,
      "lla": 3593,
      "95": 3594,
      "mawia": 3595,
      "lizm": 3596,
      "Ġobli": 3597,
      "fabe": 3598,
      "kowych": 3599,
      "Ġpopar": 3600,
      "ĠÃ³w": 3601,
      "ĠskÅĤadni": 3602,
      "ĠFre": 3603,
      "wedz": 3604,
      "Ġ).": 3605,
      "Ġnag": 3606,
      "dak": 3607,
      "Ġradzie": 3608,
      "woÅĽci": 3609,
      "Ġmiejsca": 3610,
      "ĠdziaÅĤalnoÅĽci": 3611,
      "ĠStanÃ³w": 3612,
      "Ġ90": 3613,
      "ĠJor": 3614,
      "Ġpio": 3615,
      "lon": 3616,
      "kt": 3617,
      "Ġpobli": 3618,
      "nicja": 3619,
      "kuje": 3620,
      "dera": 3621,
      "Ġreligii": 3622,
      "wiÅĤ": 3623,
      "Ġnowych": 3624,
      "Ġ2001": 3625,
      "ret": 3626,
      "Ġuli": 3627,
      "Ġkorzysta": 3628,
      "34": 3629,
      "ĠCar": 3630,
      "Ġata": 3631,
      "ĠRosji": 3632,
      "wÄĻ": 3633,
      "ĠStanisÅĤaw": 3634,
      "ownika": 3635,
      "Ġochro": 3636,
      "lim": 3637,
      "Ġwczes": 3638,
      "Ġartyku": 3639,
      "towanie": 3640,
      "Ġszla": 3641,
      "ĠFor": 3642,
      "Ġchro": 3643,
      "Ġszczy": 3644,
      "Ġdok": 3645,
      "ĠKul": 3646,
      "Ġtygo": 3647,
      "sÅĤy": 3648,
      "europej": 3649,
      "Ġpromieni": 3650,
      "Ġrodzin": 3651,
      "ĠmoÅ¼liwoÅĽci": 3652,
      "chÃ³w": 3653,
      "Ġkonku": 3654,
      "wanych": 3655,
      ":(-": 3656,
      "Ġsprawie": 3657,
      "cyjnÄħ": 3658,
      "cjami": 3659,
      "siej": 3660,
      "sca": 3661,
      "plo": 3662,
      "Ġangielski": 3663,
      "rego": 3664,
      "Ġopu": 3665,
      "Ġinterpre": 3666,
      "logicznych": 3667,
      "ĠcÃ³r": 3668,
      "ĠokreÅĽlo": 3669,
      "ĠdoÅĽwiad": 3670,
      "Ġvon": 3671,
      "ĠmÃ³gÅĤ": 3672,
      "ĠUniwersytetu": 3673,
      "ĠSp": 3674,
      "ĠtwÃ³rczo": 3675,
      "ĠEgip": 3676,
      "Å¼eniu": 3677,
      "niami": 3678,
      "stnia": 3679,
      "ĠKraj": 3680,
      "Ġobra": 3681,
      "lian": 3682,
      "gno": 3683,
      "ĠPonadto": 3684,
      "Å¼yÄĩ": 3685,
      "com": 3686,
      "erma": 3687,
      "br": 3688,
      "Sa": 3689,
      "ela": 3690,
      "ted": 3691,
      "ÅĤowi": 3692,
      "ĠpeÅĤni": 3693,
      "gnie": 3694,
      "Ġsyna": 3695,
      "porzÄħd": 3696,
      "wnÄħtrz": 3697,
      "Ġpodobnie": 3698,
      "Ġprawdzi": 3699,
      "05": 3700,
      "Ġzy": 3701,
      "ĠGeor": 3702,
      "Ġtemu": 3703,
      "ĠniektÃ³re": 3704,
      "ĠKali": 3705,
      "ĠKrakowie": 3706,
      "Ġofia": 3707,
      "ĠMon": 3708,
      "one": 3709,
      "ĠFranci": 3710,
      "lf": 3711,
      "ĠZy": 3712,
      "Ġzbli": 3713,
      "gli": 3714,
      "Ġogro": 3715,
      "ĠJÃ³zef": 3716,
      "Ġzazwyczaj": 3717,
      "Ġan": 3718,
      "gina": 3719,
      "padku": 3720,
      "ĠPan": 3721,
      "ĠMan": 3722,
      "64": 3723,
      "aru": 3724,
      "lot": 3725,
      "Ġwypo": 3726,
      "hu": 3727,
      "Ġstopniu": 3728,
      "Ġmiesza": 3729,
      "ĠCzar": 3730,
      "dnoÅĽci": 3731,
      "ĠszkoÅĤy": 3732,
      "Ġzaa": 3733,
      "ss": 3734,
      "Ġkontyne": 3735,
      "Ġcech": 3736,
      "cyfi": 3737,
      "tnym": 3738,
      "wagi": 3739,
      "Ġuz": 3740,
      "Ġtar": 3741,
      "Ġmasy": 3742,
      "ĠNastÄĻp": 3743,
      "ĠWrocÅĤa": 3744,
      "jusz": 3745,
      "ĠzaleÅ¼noÅĽci": 3746,
      "Ġpremie": 3747,
      "Ġwyna": 3748,
      "Ġzbroj": 3749,
      "Ġwyja": 3750,
      "ĠwyrÃ³Å¼nia": 3751,
      "Ðµ": 3752,
      "Ġmone": 3753,
      "liza": 3754,
      "ĠEn": 3755,
      "Ġzainteres": 3756,
      "%,": 3757,
      "ĠcaÅĤej": 3758,
      "Ġtaki": 3759,
      "emu": 3760,
      "Ġwiek": 3761,
      "ĠpamiÄĻci": 3762,
      "owaÅĤo": 3763,
      "Ġprezydenta": 3764,
      "ĠpowieÅĽci": 3765,
      "dna": 3766,
      "ĠprzedsiÄĻbior": 3767,
      "ĠfunkcjÄĻ": 3768,
      "Ġwnio": 3769,
      "zowie": 3770,
      "ĠOsta": 3771,
      "Ġjednostki": 3772,
      "Ġbroni": 3773,
      "wajÄħ": 3774,
      "ĠmiesiÄħ": 3775,
      "miana": 3776,
      "Ġkur": 3777,
      "Ġprzemy": 3778,
      "Ġwio": 3779,
      "Ġ2009": 3780,
      "mimo": 3781,
      "miu": 3782,
      "Ġnajstar": 3783,
      "Ġcentral": 3784,
      "Ġ2024": 3785,
      "Ġprzysz": 3786,
      "Ġpojedyn": 3787,
      "Or": 3788,
      "ctwa": 3789,
      "izm": 3790,
      "ĠLeonar": 3791,
      "ĠÎ": 3792,
      "Ġzbior": 3793,
      "ĠpaÅĦstwo": 3794,
      "Ġewolu": 3795,
      "Ġtelewi": 3796,
      "KoÅĽci": 3797,
      "jskiego": 3798,
      "ktÃ³re": 3799,
      "Ġfrancuski": 3800,
      "ĠXVI": 3801,
      "Ġhipote": 3802,
      "Ġproble": 3803,
      "55": 3804,
      "ĠJapo": 3805,
      "prawy": 3806,
      "ĠdzieÅĤa": 3807,
      "Ġoka": 3808,
      "Ġzmniej": 3809,
      "Ġcoraz": 3810,
      "Ġjedna": 3811,
      "ĠKrakÃ³w": 3812,
      "towano": 3813,
      "don": 3814,
      "Ġ2002": 3815,
      "wencji": 3816,
      "lie": 3817,
      "ble": 3818,
      "Ġskrzy": 3819,
      "Ġepi": 3820,
      "ĠSza": 3821,
      "szczenia": 3822,
      "Ġzako": 3823,
      "tywne": 3824,
      "ĠmoÅ¼liwoÅĽÄĩ": 3825,
      "deÅĤ": 3826,
      "lno": 3827,
      "Ġgranica": 3828,
      "Ġteor": 3829,
      "Ġ2023": 3830,
      "ĠDem": 3831,
      "].": 3832,
      "Ġpowstanie": 3833,
      "ana": 3834,
      "Ġblo": 3835,
      "stego": 3836,
      "Ġ2011": 3837,
      "ks": 3838,
      "ĠpotÄĻ": 3839,
      "Ġbezpie": 3840,
      "Ġ2008": 3841,
      "Ġoto": 3842,
      "ĠBel": 3843,
      "99": 3844,
      "Ġzalicza": 3845,
      "ĠksiÄĻcia": 3846,
      "Ġkome": 3847,
      "kowane": 3848,
      "ÅĽciu": 3849,
      "Ġnajlep": 3850,
      "Ġzorgani": 3851,
      "krÃ³t": 3852,
      "ĠzbiÃ³r": 3853,
      "Ġkontynu": 3854,
      "rodek": 3855,
      "Ġczo": 3856,
      "ĠpowstaÅĤy": 3857,
      "37": 3858,
      "ĠBoga": 3859,
      "ÅĽwiÄĻ": 3860,
      "ĠwywoÅĤa": 3861,
      "sfery": 3862,
      "Ġplanety": 3863,
      "Ġkrajach": 3864,
      "Å¼na": 3865,
      "tÄħd": 3866,
      "ĠrÃ³wna": 3867,
      "stycznych": 3868,
      "Ġnar": 3869,
      "ĠQ": 3870,
      "ĠpoczÄħtkowo": 3871,
      "Ġ1944": 3872,
      "wiÄħty": 3873,
      "Ġpomoc": 3874,
      "jska": 3875,
      "Ġstref": 3876,
      "Ġsport": 3877,
      "Ġznajdowa": 3878,
      "bel": 3879,
      "Ġutwor": 3880,
      "ĠPodczas": 3881,
      "ĠswÃ³j": 3882,
      "tnÄħ": 3883,
      "que": 3884,
      "dÅĤuÅ¼": 3885,
      "Ġstopni": 3886,
      "Ġfla": 3887,
      "rzego": 3888,
      "36": 3889,
      "ĠwÄĻ": 3890,
      "Ġmist": 3891,
      "ĠIs": 3892,
      "Ġpierwsza": 3893,
      "niejszych": 3894,
      "liny": 3895,
      "wienia": 3896,
      "ĠdziaÅĤaÅĦ": 3897,
      "wÃ³d": 3898,
      "Ġdie": 3899,
      "ĠuwagÄĻ": 3900,
      "cznik": 3901,
      "ciÄħga": 3902,
      "ĠGro": 3903,
      "Ġpomocy": 3904,
      "Ġzau": 3905,
      "zach": 3906,
      "dnim": 3907,
      "ĠÅģo": 3908,
      "Ġarmii": 3909,
      "ĠciÅĽnie": 3910,
      "ĠelementÃ³w": 3911,
      "86": 3912,
      "skÄĻ": 3913,
      "sbur": 3914,
      "Ġcesarza": 3915,
      "Ġdlatego": 3916,
      "koÅĤo": 3917,
      "niejsze": 3918,
      "Ġkrak": 3919,
      "mowy": 3920,
      "ĠzwiÄħzkÃ³w": 3921,
      "ĠdziaÅĤalnoÅĽÄĩ": 3922,
      "Ġbrze": 3923,
      "Ġcztery": 3924,
      "Ġcu": 3925,
      "ĠczÄħst": 3926,
      "ntro": 3927,
      "tet": 3928,
      "Ġwybor": 3929,
      "39": 3930,
      "ĠnaleÅ¼a": 3931,
      "anta": 3932,
      "lip": 3933,
      "Ġ2015": 3934,
      "ssi": 3935,
      "ĠCzÄĻsto": 3936,
      "ura": 3937,
      "ĠMini": 3938,
      "Ġwej": 3939,
      "zujÄħ": 3940,
      "miÄħ": 3941,
      "zjÄĻ": 3942,
      "Ġreakcji": 3943,
      "Bo": 3944,
      "Ġprofe": 3945,
      "lecia": 3946,
      "owskiej": 3947,
      "Ġliteratury": 3948,
      "ĠSer": 3949,
      "cin": 3950,
      "tacja": 3951,
      "pl": 3952,
      "ĠDi": 3953,
      "nast": 3954,
      "ĠwÅĤaÅĽnie": 3955,
      "Ġkandyda": 3956,
      "erium": 3957,
      "Ġkr": 3958,
      "Ġtur": 3959,
      "znaw": 3960,
      "liÄĩ": 3961,
      "czyli": 3962,
      "Ġrej": 3963,
      "rzÄħt": 3964,
      "Ġher": 3965,
      "seksual": 3966,
      "iÄĻkszoÅĽÄĩ": 3967,
      "grafi": 3968,
      "szel": 3969,
      "mowaÅĤ": 3970,
      "Ġczasach": 3971,
      "Ġtrakta": 3972,
      "Ġ2012": 3973,
      "So": 3974,
      "ĠGdaÅĦ": 3975,
      "Ġzak": 3976,
      "ĠVi": 3977,
      "Ġbibliote": 3978,
      "Ġ2014": 3979,
      "nera": 3980,
      "owaniu": 3981,
      "Al": 3982,
      "czyÅĤy": 3983,
      "Ġkata": 3984,
      "czeniem": 3985,
      "Ġprzestrzeni": 3986,
      "Ġtle": 3987,
      "tnia": 3988,
      "skona": 3989,
      "46": 3990,
      "Ġ),": 3991,
      "peÅĤnia": 3992,
      "ciej": 3993,
      "ĠzwierzÄħt": 3994,
      "Wi": 3995,
      "Ġostatecznie": 3996,
      "tychczas": 3997,
      "ĠXVII": 3998,
      "matu": 3999,
      "noni": 4000,
      "ĠPowsta": 4001,
      "Ġeta": 4002,
      "Ġsocja": 4003,
      "ĠwÅĤadzÄĻ": 4004,
      "ĠdzieÅĦ": 4005,
      "Ġwiadomo": 4006,
      "Ġporu": 4007,
      "ĠSzcze": 4008,
      "ĠgatunkÃ³w": 4009,
      "ĠKor": 4010,
      "ĠreÅ¼yser": 4011,
      "noty": 4012,
      "Ġcesar": 4013,
      "--": 4014,
      "Ġmikro": 4015,
      "snÄħ": 4016,
      "Ġmin": 4017,
      "linie": 4018,
      "Ġbitwie": 4019,
      "Ze": 4020,
      "Ġpotem": 4021,
      "Ġznane": 4022,
      "Ġobejmu": 4023,
      "smo": 4024,
      "dziÅĤo": 4025,
      "ĠKi": 4026,
      "mienio": 4027,
      "vo": 4028,
      "ĠCentrum": 4029,
      "wajcar": 4030,
      "OS": 4031,
      "Roz": 4032,
      "szymi": 4033,
      "teli": 4034,
      "Ġodz": 4035,
      "ĠNiemiec": 4036,
      "ĠnapisaÅĤ": 4037,
      "waÅĤo": 4038,
      "Ġzakresie": 4039,
      "ĠpodjÄĻ": 4040,
      "ĠWÄĻg": 4041,
      "Ġszwedz": 4042,
      "jskie": 4043,
      "Muzeum": 4044,
      "Ġobszarze": 4045,
      "ĠtytuÅĤ": 4046,
      "Ġstron": 4047,
      "Å¼sa": 4048,
      "Ġprzyja": 4049,
      "kowi": 4050,
      "Ġniebie": 4051,
      "ĠObecnie": 4052,
      "Ġkwest": 4053,
      "ĠEuropejskiej": 4054,
      "ĠWarszawy": 4055,
      "ĠWÅĤadysÅĤaw": 4056,
      "Ġspi": 4057,
      "Ġ000": 4058,
      "Ġistnia": 4059,
      "Ġlogi": 4060,
      "Ġode": 4061,
      "niec": 4062,
      "tla": 4063,
      "Ð¸": 4064,
      "Ġfilozofii": 4065,
      "Ġkobiet": 4066,
      "Ġzagrani": 4067,
      "ĠPer": 4068,
      "Ġzagro": 4069,
      "ĠInstytu": 4070,
      "Ġkoncer": 4071,
      "Ġdomu": 4072,
      "lizacji": 4073,
      "SL": 4074,
      "Ġkolejnych": 4075,
      "ciaÅ¼": 4076,
      "Ġ2018": 4077,
      "ĠukoÅĦ": 4078,
      "ĠOl": 4079,
      "Ġprogramu": 4080,
      "ct": 4081,
      "Ġiden": 4082,
      "PR": 4083,
      "ad": 4084,
      "jskiej": 4085,
      "Ġpowierzch": 4086,
      "dzeniem": 4087,
      "Ġfilozof": 4088,
      "Ġfilozofi": 4089,
      "ĠMiÄĻdzynarod": 4090,
      "duje": 4091,
      "ĠHar": 4092,
      "goryt": 4093,
      "Pol": 4094,
      "sÅĤow": 4095,
      "ĠLin": 4096,
      "godnie": 4097,
      "zem": 4098,
      "nuje": 4099,
      "Ġstosunku": 4100,
      "dowo": 4101,
      "ĠNob": 4102,
      "ĠcaÅĤy": 4103,
      "ĠporÃ³wna": 4104,
      "kniÄĻ": 4105,
      "Ġangiel": 4106,
      "ĠniÄħ": 4107,
      "Ġszybko": 4108,
      "Ġmoc": 4109,
      "skar": 4110,
      "ĠpodziaÅĤ": 4111,
      "Ġseksual": 4112,
      "ĠmieÄĩ": 4113,
      "Ġrela": 4114,
      "die": 4115,
      "strzega": 4116,
      "owiem": 4117,
      "Ġpodda": 4118,
      "Ġ1999": 4119,
      "ĠobowiÄħz": 4120,
      "Ġturysty": 4121,
      "Ġwojna": 4122,
      "gres": 4123,
      "ley": 4124,
      "gÅĤy": 4125,
      "powszech": 4126,
      "ĠStu": 4127,
      "ĠAkademii": 4128,
      "Ġ1918": 4129,
      "ĠposzczegÃ³lnych": 4130,
      "wzglÄĻ": 4131,
      "Ġ1990": 4132,
      "Ġet": 4133,
      "pamiÄĻ": 4134,
      "ĠKonstanty": 4135,
      "Ġzastosowa": 4136,
      "Ġsukce": 4137,
      "Åºni": 4138,
      "ezo": 4139,
      "Ġklasz": 4140,
      "Uwagi": 4141,
      "Ġpia": 4142,
      "lkoho": 4143,
      "ĠÅĽwiad": 4144,
      "ĠMary": 4145,
      "ciele": 4146,
      "ĠbÅĤo": 4147,
      "szuki": 4148,
      "38": 4149,
      "ĠspeÅĤ": 4150,
      "Ġrefor": 4151,
      "ĠznakÃ³w": 4152,
      "stej": 4153,
      "lera": 4154,
      "bal": 4155,
      "Ta": 4156,
      "65": 4157,
      "pierw": 4158,
      "grup": 4159,
      "ĠwspÃ³ÅĤpra": 4160,
      "czÄħtkowo": 4161,
      "Ġniemal": 4162,
      "prawia": 4163,
      "ĠwÅĤadze": 4164,
      "Ġ1989": 4165,
      "terze": 4166,
      "Ġtradycji": 4167,
      "lta": 4168,
      "gry": 4169,
      "ĠÃ³wczes": 4170,
      "Ġvan": 4171,
      "krzy": 4172,
      "fr": 4173,
      "Dzie": 4174,
      "Ġmetody": 4175,
      "ling": 4176,
      "ĠJÃ³zefa": 4177,
      "Ġgranicy": 4178,
      "matyczne": 4179,
      "32": 4180,
      "Ġstoli": 4181,
      "lidar": 4182,
      "Ġzgin": 4183,
      "bin": 4184,
      "ĠÅĽre": 4185,
      "dzona": 4186,
      "Ġnigdy": 4187,
      "katoli": 4188,
      "Ġ2003": 4189,
      "leo": 4190,
      "szczenie": 4191,
      "Ġwspom": 4192,
      "ou": 4193,
      "Ġpokry": 4194,
      "Ġgeografi": 4195,
      "ĠkoÅĦcu": 4196,
      "Ġjaki": 4197,
      "taj": 4198,
      "lowe": 4199,
      "ĠpracÄĻ": 4200,
      "cyk": 4201,
      "Ġzasady": 4202,
      "dows": 4203,
      "Ġmono": 4204,
      "JÄĻzy": 4205,
      "ĠjÄĻzykiem": 4206,
      "Ġdodatk": 4207,
      "ĠgÅĤÃ³wnych": 4208,
      "mÄĻ": 4209,
      "Ġsur": 4210,
      "ĠnastÄħpi": 4211,
      "wienie": 4212,
      "waniu": 4213,
      "tron": 4214,
      "Ġpoch": 4215,
      "pÅĤyw": 4216,
      "Ġtor": 4217,
      "mami": 4218,
      "pedia": 4219,
      "Ġnadal": 4220,
      "ciec": 4221,
      "ĠzespÃ³ÅĤ": 4222,
      "Ġelementy": 4223,
      "stka": 4224,
      "ĠzwierzÄĻ": 4225,
      "ĠSzy": 4226,
      "Ġwykorzystu": 4227,
      "ĠkÄħ": 4228,
      "nizmu": 4229,
      "mes": 4230,
      "WÅĤa": 4231,
      "Ġimi": 4232,
      "75": 4233,
      "kiewicz": 4234,
      "Ġutra": 4235,
      "groda": 4236,
      "ĠmyÅĽli": 4237,
      "nne": 4238,
      "Ġzim": 4239,
      "Ġnowego": 4240,
      "ÅĦcy": 4241,
      "Ġczerwo": 4242,
      "Ġprace": 4243,
      "98": 4244,
      "Ġwszel": 4245,
      "Ã³ÅĤnocy": 4246,
      "Ġmoral": 4247,
      "Ġmm": 4248,
      "Ġjakie": 4249,
      "Ġleka": 4250,
      "towaÄĩ": 4251,
      "ĠrzeczywistoÅĽci": 4252,
      "tycznÄħ": 4253,
      "Ġekonomi": 4254,
      "Ġare": 4255,
      "twory": 4256,
      "Å¼er": 4257,
      "Ġklub": 4258,
      "Ġdi": 4259,
      "ĠczÄĻÅĽciÄħ": 4260,
      "ĠodrÄĻb": 4261,
      "red": 4262,
      "ĠbezpoÅĽrednio": 4263,
      "ĠgÄĻ": 4264,
      "sor": 4265,
      "ĠprowadzÄħ": 4266,
      "Å¼ne": 4267,
      "ĠFil": 4268,
      "Ġcesarz": 4269,
      "kor": 4270,
      "hel": 4271,
      "Ġdzisiej": 4272,
      "ĠspoÅ¼y": 4273,
      "Ġsytuacji": 4274,
      "Ġdobrze": 4275,
      "Ġ2016": 4276,
      "Ġsymboli": 4277,
      "owaniem": 4278,
      "ĠÅģa": 4279,
      "ĠMor": 4280,
      "ĠzaczÄħÅĤ": 4281,
      "Ġwysta": 4282,
      "gni": 4283,
      "obraz": 4284,
      "jskich": 4285,
      "Ġstandard": 4286,
      "Ġalfabe": 4287,
      "ĠduÅ¼ej": 4288,
      "Ġodpowiedzia": 4289,
      "76": 4290,
      "ĠkoÅĽcie": 4291,
      "Ġdysku": 4292,
      "Ġobok": 4293,
      "cyjnie": 4294,
      "85": 4295,
      "ĠsprzÄĻ": 4296,
      "eksy": 4297,
      "44": 4298,
      "ĠPark": 4299,
      "Ġstopnia": 4300,
      "Ġgry": 4301,
      "ĠSzwe": 4302,
      "ĠnazwÄħ": 4303,
      "bywa": 4304,
      "ĠOs": 4305,
      "rich": 4306,
      "Ġmimo": 4307,
      "nÄĻÅĤa": 4308,
      "KoÅĽciÃ³ÅĤ": 4309,
      "ĠSamo": 4310,
      "dowania": 4311,
      "Ġalkoho": 4312,
      "Ġpowro": 4313,
      "ĠOp": 4314,
      "ĠpostaÄĩ": 4315,
      "krÃ³tce": 4316,
      "ĠuÅ¼ywane": 4317,
      "zowane": 4318,
      "dzonych": 4319,
      "ĠmiejscowoÅĽci": 4320,
      "ĠÅĽmierÄĩ": 4321,
      "chowy": 4322,
      "Ġargu": 4323,
      "tycznym": 4324,
      "ĠbiaÅĤ": 4325,
      "Ġarab": 4326,
      "Ġkolejne": 4327,
      "Ġpopulacji": 4328,
      "Ġ2020": 4329,
      "Ty": 4330,
      "Ġinicja": 4331,
      "Ġstu": 4332,
      "ĠCon": 4333,
      "liÅĤ": 4334,
      "Ġwarsza": 4335,
      "niÅ¼ej": 4336,
      "Ġwzrost": 4337,
      "Ġpt": 4338,
      "ĠrzeÅº": 4339,
      "Ġ2021": 4340,
      "styczny": 4341,
      "Ġczele": 4342,
      "Ġzwa": 4343,
      "ĠÅļrod": 4344,
      "Ġsena": 4345,
      "Ð½": 4346,
      "Ġobserw": 4347,
      "grywa": 4348,
      "ĠzakÅĤada": 4349,
      "cone": 4350,
      "ĠwysÅĤa": 4351,
      "ĠpobliÅ¼u": 4352,
      "Ġ2019": 4353,
      "ĠwyraÅ¼a": 4354,
      "brzy": 4355,
      "rzone": 4356,
      "Ġstosuje": 4357,
      "Ġopiera": 4358,
      "Ġrzad": 4359,
      "Ġwyro": 4360,
      "Ġwsi": 4361,
      "ĠRzesz": 4362,
      "jewÃ³dz": 4363,
      "ĠWojcie": 4364,
      "ĠÂ": 4365,
      "Ġniepo": 4366,
      "Ġutrzyma": 4367,
      "mentar": 4368,
      "Ġpisarz": 4369,
      "legÅĤoÅĽÄĩ": 4370,
      "Ġznany": 4371,
      "ĠAnto": 4372,
      "01": 4373,
      "Ġrzeki": 4374,
      "Ġdane": 4375,
      "Ġprak": 4376,
      "zny": 4377,
      "ĠmaÅĤÅ¼e": 4378,
      "ĠsÅĤone": 4379,
      "Ġrazy": 4380,
      "ĠstaÅĤy": 4381,
      "Ġkonsu": 4382,
      "Ġono": 4383,
      "Ġbowiem": 4384,
      "ĠmaÅĤo": 4385,
      "towana": 4386,
      "Å¼eÅĦ": 4387,
      "ĠZosta": 4388,
      "Ġprezydent": 4389,
      "Ġ35": 4390,
      "Ġzb": 4391,
      "ĠgÅĤosÃ³w": 4392,
      "gach": 4393,
      "Ġzajmuje": 4394,
      "str": 4395,
      "prawa": 4396,
      "ĠStanisÅĤawa": 4397,
      "Ġitp": 4398,
      "Ġprzewi": 4399,
      "Ġtechno": 4400,
      "Ġprzekona": 4401,
      "lend": 4402,
      "Ġgu": 4403,
      "Ġnimi": 4404,
      "ĠistniejÄħ": 4405,
      "biÃ³r": 4406,
      "Ġdotychczas": 4407,
      "dla": 4408,
      "kan": 4409,
      "Ġpolsko": 4410,
      "Ġpasa": 4411,
      "ĠLw": 4412,
      "Ġciep": 4413,
      "Ġwprowadza": 4414,
      "ĠzostaÄĩ": 4415,
      "zosta": 4416,
      "ĠRzymu": 4417,
      "Ġ1991": 4418,
      "ĠArmii": 4419,
      "stwem": 4420,
      "Ġwytwarza": 4421,
      "Ġgwiazdy": 4422,
      "iÃ³w": 4423,
      "Ġaustria": 4424,
      "ĠBru": 4425,
      "ĠmoÅ¼liwe": 4426,
      "ĠÅĽwiatÅĤa": 4427,
      "dowe": 4428,
      "ĠsiÅĤ": 4429,
      "cony": 4430,
      "ĠpÃ³ÅĤnocy": 4431,
      "Ġstosowane": 4432,
      "hy": 4433,
      "ĠStra": 4434,
      "kazywa": 4435,
      "wska": 4436,
      "Ġpowszechnie": 4437,
      "niowe": 4438,
      "Dz": 4439,
      "mas": 4440,
      "chan": 4441,
      "ĠTen": 4442,
      "Pra": 4443,
      "rÃ³Å¼nia": 4444,
      "Ġpta": 4445,
      "ĠpÅĤ": 4446,
      "dan": 4447,
      "grze": 4448,
      "kowany": 4449,
      "ĠstaÅĤo": 4450,
      "ĠcaÅĤkowicie": 4451,
      "dziÅĤy": 4452,
      "ĠpoczÄħtek": 4453,
      "Å¼ynie": 4454,
      "Ġinstytu": 4455,
      "ĠAd": 4456,
      "Ġboha": 4457,
      "Ġdrew": 4458,
      "dzili": 4459,
      "win": 4460,
      "giÄĻ": 4461,
      "Wiel": 4462,
      "Ġpozba": 4463,
      "ĠTi": 4464,
      "ĠÅĤu": 4465,
      "Ġ1940": 4466,
      "formu": 4467,
      "nis": 4468,
      "Ġbro": 4469,
      "Ġsej": 4470,
      "IV": 4471,
      "ĠSztu": 4472,
      "Ġmaszyn": 4473,
      "mieÅĦ": 4474,
      "ĠCi": 4475,
      "kowania": 4476,
      "ĠAndrzej": 4477,
      "Ġpowiatu": 4478,
      "ÑĢ": 4479,
      "ÅĤek": 4480,
      "Ġsamej": 4481,
      "Ġroli": 4482,
      "istory": 4483,
      "Ġ185": 4484,
      "ĠkaÅ¼dego": 4485,
      "iach": 4486,
      "ĠmilionÃ³w": 4487,
      "pii": 4488,
      "Ġzwyczaj": 4489,
      "rad": 4490,
      "Ġwil": 4491,
      "ĠMikoÅĤa": 4492,
      "stoÅĽÄĩ": 4493,
      "bÃ³w": 4494,
      "Ġedy": 4495,
      "ĠLubli": 4496,
      "Ġzapisa": 4497,
      "obie": 4498,
      "ĠNobla": 4499,
      "doeuropej": 4500,
      "ĠMiasta": 4501,
      "kierowa": 4502,
      "ĠznaczÄħ": 4503,
      "Ġmuzyki": 4504,
      "ĠprzejÄĻ": 4505,
      "nina": 4506,
      "ssa": 4507,
      "Ġ1992": 4508,
      "Ġzmieni": 4509,
      "ĠBie": 4510,
      "ĠHiszpanii": 4511,
      "zmie": 4512,
      "Ġregiona": 4513,
      "Ġdziedzinie": 4514,
      "Ġam": 4515,
      "78": 4516,
      "Ġkampa": 4517,
      "kul": 4518,
      "gmu": 4519,
      "Ġmala": 4520,
      "ĠimiÄĻ": 4521,
      "ĠJohn": 4522,
      "Ġwybuch": 4523,
      "ĠwspÃ³ÅĤprac": 4524,
      "rÃ³deÅĤ": 4525,
      "Ġzaby": 4526,
      "ĠWito": 4527,
      "ÅĤty": 4528,
      "Ġnazwi": 4529,
      "Ġdefi": 4530,
      "Ġnowy": 4531,
      "ciÄħg": 4532,
      "ĠKolej": 4533,
      "gene": 4534,
      "ven": 4535,
      "ĠLudwi": 4536,
      "ĠczoÅĤ": 4537,
      "Ġkor": 4538,
      "letni": 4539,
      "68": 4540,
      "jecha": 4541,
      "mody": 4542,
      "Ġobejmuje": 4543,
      "ĠodlegÅĤoÅĽci": 4544,
      "dowych": 4545,
      "Ġopozy": 4546,
      "ĠParyÅ¼u": 4547,
      "rzeniu": 4548,
      "stym": 4549,
      "kowo": 4550,
      "ĠKsiÄĻÅ¼y": 4551,
      "niczne": 4552,
      "Ġpopraw": 4553,
      "ĠgÅĤÃ³wnym": 4554,
      "ĠDru": 4555,
      "ĠgÅĤÄĻbo": 4556,
      "Ġuniwersyte": 4557,
      "Ġ1995": 4558,
      "ĠPK": 4559,
      "wki": 4560,
      "kowego": 4561,
      "ĠpoÅĽredni": 4562,
      "ĠdÄħ": 4563,
      "Ġzaka": 4564,
      "minowa": 4565,
      "Ġinternet": 4566,
      "...": 4567,
      "nikami": 4568,
      "towej": 4569,
      "ĠÅºrÃ³deÅĤ": 4570,
      "Ġbiskup": 4571,
      "ĠWysp": 4572,
      "ĠWydawnictwo": 4573,
      "schÃ³d": 4574,
      "trÃ³w": 4575,
      "47": 4576,
      "ĠHan": 4577,
      "Ġtemperatury": 4578,
      "owska": 4579,
      "Ġdolar": 4580,
      "Ġzbyt": 4581,
      "Ġszereg": 4582,
      "ĠmiÄĻ": 4583,
      "bina": 4584,
      "ĠLondy": 4585,
      "ham": 4586,
      "ĠWojsk": 4587,
      "Ġwyposa": 4588,
      "ĠÅĽwiet": 4589,
      "ĠudaÅĤo": 4590,
      "Ġbudowy": 4591,
      "09": 4592,
      "Ġstuden": 4593,
      "ĠTrze": 4594,
      "ĠOrgani": 4595,
      "Ġnur": 4596,
      "orÄħ": 4597,
      "ĠChrystu": 4598,
      "Ġ1997": 4599,
      "Ġmito": 4600,
      "Ġ2022": 4601,
      "ĠâĪĴ": 4602,
      "ĠBro": 4603,
      "ĠNastÄĻpnie": 4604,
      "ĠzaÅĤoÅ¼y": 4605,
      "ĠSÅĤu": 4606,
      "orys": 4607,
      "RL": 4608,
      "ĠcaÅĤego": 4609,
      "hr": 4610,
      "Ġkonsek": 4611,
      "ĠGeneral": 4612,
      "Ġsynte": 4613,
      "ransp": 4614,
      "Ġzabi": 4615,
      "rozo": 4616,
      "bert": 4617,
      "ĠrÃ³wnowa": 4618,
      "ĠJej": 4619,
      "ĠCza": 4620,
      "Ġkonstytu": 4621,
      "ĠPia": 4622,
      "Ġprojektu": 4623,
      "Ġkol": 4624,
      "ĠcaÅĤym": 4625,
      "owni": 4626,
      "Ġdanego": 4627,
      "ĠPodob": 4628,
      "Ġulega": 4629,
      "Ġpoziomie": 4630,
      "ĠwpÅĤywem": 4631,
      "syn": 4632,
      "wszy": 4633,
      "Ne": 4634,
      "ĠkrajÃ³w": 4635,
      "Ġcelem": 4636,
      "ntropo": 4637,
      "syÅĤa": 4638,
      "kowski": 4639,
      "Ġ2017": 4640,
      "Ġporozu": 4641,
      "Ġpowa": 4642,
      "ĠpÃ³ÅĤnocnej": 4643,
      "czycy": 4644,
      "Ġpola": 4645,
      "Ġnum": 4646,
      "ple": 4647,
      "ĠobrÄĻ": 4648,
      "sjÄĻ": 4649,
      "niosÅĤa": 4650,
      "Ġinten": 4651,
      "tes": 4652,
      "Ġzamiast": 4653,
      "ĠÅĽrodowiska": 4654,
      "Ġfar": 4655,
      "ĠÅ»ydÃ³w": 4656,
      "ĠBibliote": 4657,
      "tzw": 4658,
      "ĠksiÄĻÅ¼y": 4659,
      "Ġwersja": 4660,
      "pieÅĦ": 4661,
      "Ġpary": 4662,
      "ĠâĢĺ": 4663,
      "Ġhar": 4664,
      "dry": 4665,
      "ĠKrÃ³lestwa": 4666,
      "ĠÅĽlÄħ": 4667,
      "Ġczterech": 4668,
      "zajem": 4669,
      "Ġ1996": 4670,
      "Ġzatru": 4671,
      "Ġoni": 4672,
      "ĠCzerwo": 4673,
      "Ġtj": 4674,
      "Ġkoali": 4675,
      "Ġkaden": 4676,
      "Ġregular": 4677,
      "Ġgrawi": 4678,
      "des": 4679,
      "Å¼Äħda": 4680,
      "Ġpolitycznych": 4681,
      "ĠNiemcy": 4682,
      "Ġredak": 4683,
      "ĠOrder": 4684,
      "ĠurzÄĻd": 4685,
      "dnik": 4686,
      "Ġpodkre": 4687,
      "Ġdotar": 4688,
      "ĠPaÅĦstw": 4689,
      "ĠKrÃ³lew": 4690,
      "96": 4691,
      "Ġ2013": 4692,
      "ght": 4693,
      "ĠWillia": 4694,
      "ĠpowiÄħza": 4695,
      "ĠTak": 4696,
      "Ġgenera": 4697,
      "Ġzmu": 4698,
      "Ġude": 4699,
      "ĠRi": 4700,
      "Ġsio": 4701,
      "Ġfinans": 4702,
      "szyÅĤ": 4703,
      "Ġkosz": 4704,
      "Ġzmian": 4705,
      "pres": 4706,
      "43": 4707,
      "ĠpiÅĤka": 4708,
      "czba": 4709,
      "Tu": 4710,
      "ĠTomasz": 4711,
      "Ġniezna": 4712,
      "Ġurucho": 4713,
      "Ġmacie": 4714,
      "fer": 4715,
      "Ġniewo": 4716,
      "ĠJako": 4717,
      "ĠBolesÅĤawa": 4718,
      "ĠIch": 4719,
      "ĠPrzykÅĤad": 4720,
      "Ġpotrzeb": 4721,
      "ctwo": 4722,
      "Ġojca": 4723,
      "pÄĻ": 4724,
      "tetu": 4725,
      "ĠjÄĻzykach": 4726,
      "ĠZna": 4727,
      "sona": 4728,
      "Ġznaczeniu": 4729,
      "Ġ2025": 4730,
      "Ġetni": 4731,
      "ĠPolakÃ³w": 4732,
      "ĠJezusa": 4733,
      "terna": 4734,
      "Ġdoty": 4735,
      "ĠpowyÅ¼ej": 4736,
      "Ġ1998": 4737,
      "lesty": 4738,
      "ĠHit": 4739,
      "fan": 4740,
      "Ġistnienia": 4741,
      "Ġsre": 4742,
      "ĠmyÅĽ": 4743,
      "Ġpisma": 4744,
      "zowaÅĤ": 4745,
      "niego": 4746,
      "wic": 4747,
      "line": 4748,
      "ĠÅĤo": 4749,
      "ĠEl": 4750,
      "ĠsamogÅĤo": 4751,
      "wskiej": 4752,
      "ĠAmeryki": 4753,
      "Ġmno": 4754,
      "ĠpostÄĻp": 4755,
      "klu": 4756,
      "Ġkapi": 4757,
      "gÃ³r": 4758,
      "czykÃ³w": 4759,
      "rzyÄĩ": 4760,
      "ĠuÅ¼ywany": 4761,
      "Ġspotyka": 4762,
      "nesa": 4763,
      "ĠZwiÄħzku": 4764,
      "Ġodwie": 4765,
      "szto": 4766,
      "ĠsystemÃ³w": 4767,
      "Ġliter": 4768,
      "dniÄħ": 4769,
      "Ġzapisu": 4770,
      "Ġzwolen": 4771,
      "Ġzostali": 4772,
      "Å¼ono": 4773,
      "Ġnorma": 4774,
      "Ġpokona": 4775,
      "lasy": 4776,
      "dyka": 4777,
      "ĠmÅĤodzie": 4778,
      "Ġ1980": 4779,
      "Ġskutek": 4780,
      "ĠWielkiego": 4781,
      "Ġogrom": 4782,
      "Ġulicy": 4783,
      "sse": 4784,
      "ĠrozwiniÄĻ": 4785,
      "Ġuroczy": 4786,
      "Wa": 4787,
      "ĠWindows": 4788,
      "cheo": 4789,
      "fy": 4790,
      "Ġwiary": 4791,
      "Ġwyspy": 4792,
      "tral": 4793,
      "wangeli": 4794,
      "Ġosie": 4795,
      "Ġpowoduje": 4796,
      "Wie": 4797,
      "ĠFo": 4798,
      "Ġsamodzie": 4799,
      "Par": 4800,
      "72": 4801,
      "ĠgÃ³": 4802,
      "ĠsÅĤuÅ¼Äħ": 4803,
      "Ġnowej": 4804,
      "kracza": 4805,
      "ĠprÄħ": 4806,
      "lakty": 4807,
      "Ġorga": 4808,
      "ĠWÅĤadysÅĤawa": 4809,
      "ĠÅĤÄħczÄħ": 4810,
      "lami": 4811,
      "ĠwyksztaÅĤ": 4812,
      "ĠspoÅĤeczeÅĦstwa": 4813,
      "Ġhistor": 4814,
      "ĠczÅĤonkiem": 4815,
      "ĠbÃ³": 4816,
      "tional": 4817,
      "Ġfoto": 4818,
      "Ġstruktury": 4819,
      "Ġwybiera": 4820,
      "92": 4821,
      "Ġport": 4822,
      "Ġokaza": 4823,
      "Ġdzieli": 4824,
      "Mie": 4825,
      "dziÄħ": 4826,
      "van": 4827,
      "ĠzarzÄħdza": 4828,
      "bus": 4829,
      "lenda": 4830,
      "Ġtereny": 4831,
      "Ġprzewo": 4832,
      "Ġfilmu": 4833,
      "Ġkre": 4834,
      "mow": 4835,
      "rÃ³b": 4836,
      "ML": 4837,
      "Ġwro": 4838,
      "Ġsygna": 4839,
      "lonych": 4840,
      "ĠobrÄĻbie": 4841,
      "08": 4842,
      "Ġpodlega": 4843,
      "szony": 4844,
      "dor": 4845,
      "Ġodwo": 4846,
      "ĠdotyczÄħce": 4847,
      "Ġstara": 4848,
      "ĠstÄĻ": 4849,
      "ĠSÅĤowa": 4850,
      "ĠKie": 4851,
      "Ġstandar": 4852,
      "sfe": 4853,
      "gaÅ¼": 4854,
      "ĠUr": 4855,
      "Ġpozycji": 4856,
      "Ġatom": 4857,
      "Ġjo": 4858,
      "Ġwiedzy": 4859,
      "ponowa": 4860,
      "42": 4861,
      "Ġfunkcjon": 4862,
      "ĠUkrai": 4863,
      "nce": 4864,
      "kazuje": 4865,
      "Å¼eniem": 4866,
      "stein": 4867,
      "Ġtemperatura": 4868,
      "gami": 4869,
      "chia": 4870,
      "Ġosied": 4871,
      "ita": 4872,
      "Ġupraw": 4873,
      "ÅĤama": 4874,
      "ĠÅļwiÄĻtego": 4875,
      "ĠDziÄĻki": 4876,
      "ĠnastÄĻpujÄħce": 4877,
      "kiedy": 4878,
      "ĠAnglii": 4879,
      "ĠJÄĻzy": 4880,
      "Ġsamocho": 4881,
      "ĠMÅĤo": 4882,
      "Ġtabli": 4883,
      "Ġwspiera": 4884,
      "Ġfunkcjonu": 4885,
      "dery": 4886,
      "97": 4887,
      "ĠCie": 4888,
      "Ġy": 4889,
      "66": 4890,
      "ĠduÅ¼Äħ": 4891,
      "ĠAzji": 4892,
      "wicy": 4893,
      "ĠkoÅĽciÃ³ÅĤ": 4894,
      "wiad": 4895,
      "Ġkatolicki": 4896,
      "guje": 4897,
      "fra": 4898,
      "Ġdosta": 4899,
      "Ġczwar": 4900,
      "Ġteat": 4901,
      "Ġhrab": 4902,
      "Au": 4903,
      "towego": 4904,
      "Ġcechy": 4905,
      "Ġdanej": 4906,
      "Ġnauczy": 4907,
      "bieg": 4908,
      "88": 4909,
      "Ġgroma": 4910,
      "Ġodci": 4911,
      "leko": 4912,
      "ĠtysiÄħ": 4913,
      "ĠzwiÄħzanych": 4914,
      "mus": 4915,
      "owca": 4916,
      "06": 4917,
      "Ġwyco": 4918,
      "Go": 4919,
      "berg": 4920,
      "Ġkontak": 4921,
      "myÅĽ": 4922,
      "Ġpoto": 4923,
      "Ġwarunkach": 4924,
      "gÅĤÄĻ": 4925,
      "Ġrodzaj": 4926,
      "mino": 4927,
      "Ġdynast": 4928,
      "Ġprezen": 4929,
      "ĠMiasto": 4930,
      "doz": 4931,
      "dnych": 4932,
      "ĠobiektÃ³w": 4933,
      "Ġsiar": 4934,
      "ĠKe": 4935,
      "ĠChar": 4936,
      "To": 4937,
      "mm": 4938,
      "ĠpierÅĽcie": 4939,
      "ĠpoÅĤowy": 4940,
      "ĠAmeryka": 4941,
      "fu": 4942,
      "ĠMimo": 4943,
      "Ġpozwo": 4944,
      "matycznych": 4945,
      "ĠRober": 4946,
      "Ġistnienie": 4947,
      "Ġzbioru": 4948,
      "Ġjednostek": 4949,
      "wach": 4950,
      "Ġzamieszka": 4951,
      "ĠÅĽpie": 4952,
      "ĠÅĽwiÄħty": 4953,
      "ĠIr": 4954,
      "ĠprzyÅĤÄħ": 4955,
      "kowaÅĤ": 4956,
      "rygina": 4957,
      "ĠduÅ¼ych": 4958,
      "ĠBolesÅĤaw": 4959,
      "Ġsamolo": 4960,
      "ĠAustra": 4961,
      "zar": 4962,
      "skimi": 4963,
      "ĠdziesiÄĻ": 4964,
      "rasta": 4965,
      "wiony": 4966,
      "owskie": 4967,
      "Ġzebra": 4968,
      "jnych": 4969,
      "Ġ1993": 4970,
      "ille": 4971,
      "ĠKazimierz": 4972,
      "ĠpÅĤci": 4973,
      "zowany": 4974,
      "Ġskierowa": 4975,
      "dziale": 4976,
      "Ġrocz": 4977,
      "ĠON": 4978,
      "jazd": 4979,
      "posto": 4980,
      "ÅĽciami": 4981,
      "lista": 4982,
      "fikacja": 4983,
      "Ġniemieckiego": 4984,
      "Ġ1994": 4985,
      "atle": 4986,
      "%)": 4987,
      "ĠpiÄĻÄĩ": 4988,
      "tywy": 4989,
      "Ġopro": 4990,
      "07": 4991,
      "ĠnarzÄĻ": 4992,
      "ĠdzieÅĤ": 4993,
      "Ġpoez": 4994,
      "czyÅĤo": 4995,
      "ĠChrystusa": 4996,
      "ĠnajwiÄĻkszych": 4997,
      "ĠuzyskaÅĤ": 4998,
      "ĠwydaÅĤ": 4999,
      "nig": 5000,
      "St": 5001,
      "LD": 5002,
      "Ġalgoryt": 5003,
      "spie": 5004,
      "Ġfunkcje": 5005,
      "Ġprzypo": 5006,
      "ĠzwiÄħzek": 5007,
      "ĠFry": 5008,
      "iusz": 5009,
      "ĠwÅĤaÅĽciwoÅĽci": 5010,
      "ĠszczegÃ³lnoÅĽci": 5011,
      "ĠobsÅĤu": 5012,
      "Ġpotra": 5013,
      "Ġprzekaza": 5014,
      "lli": 5015,
      "ĠMer": 5016,
      "ĠBez": 5017,
      "ĠrzÄħdÃ³w": 5018,
      "ĠWielka": 5019,
      "ĠTho": 5020,
      "Ġzbio": 5021,
      "styka": 5022,
      "ĠBrytyj": 5023,
      "Inne": 5024,
      "Ġstylu": 5025,
      "Ġ1981": 5026,
      "leria": 5027,
      "Ġucie": 5028,
      "ĠSejm": 5029,
      "ĠwchodzÄħ": 5030,
      "ksyma": 5031,
      "ĠPrzez": 5032,
      "niom": 5033,
      "Ġzab": 5034,
      "ĠpoÅĤudniowo": 5035,
      "anu": 5036,
      "ĠzwiÄĻksza": 5037,
      "ÅĦce": 5038,
      "ciorys": 5039,
      "Ġdzielnicy": 5040,
      "obra": 5041,
      "ĠXIV": 5042,
      "rowia": 5043,
      "ĠKry": 5044,
      "owaÅĦ": 5045,
      "prawie": 5046,
      "dnienia": 5047,
      "ux": 5048,
      "ĠIstnie": 5049,
      "Ġporusza": 5050,
      "ÅĤowe": 5051,
      "Ġswego": 5052,
      "Ġokupa": 5053,
      "jskim": 5054,
      "pt": 5055,
      "dziny": 5056,
      "ĠdoÅĽÄĩ": 5057,
      "77": 5058,
      "gosÅĤa": 5059,
      "reta": 5060,
      "ĠkrÃ³lew": 5061,
      "Ġostatnie": 5062,
      "szystkie": 5063,
      "Ġekspery": 5064,
      "ĠporzÄħd": 5065,
      "Ġznaczenia": 5066,
      "dziesiÄħ": 5067,
      "ĠStanach": 5068,
      "Ġhomoseksual": 5069,
      "Ġmieli": 5070,
      "ĠtwÃ³rczoÅĽci": 5071,
      "Ġodzy": 5072,
      "ĠFer": 5073,
      "ĠNA": 5074,
      "wscho": 5075,
      "Ġmanda": 5076,
      "Ġur": 5077,
      "Ġnomina": 5078,
      "teria": 5079,
      "Ġstabi": 5080,
      "Ġ1919": 5081,
      "Ġkosmi": 5082,
      "Ġtworzenia": 5083,
      "Ġoczy": 5084,
      "trzymuje": 5085,
      "Ġ1000": 5086,
      "Jo": 5087,
      "Ġradi": 5088,
      "Ġ45": 5089,
      "zuÅĤ": 5090,
      "Ġdrugim": 5091,
      "sc": 5092,
      "ĠAna": 5093,
      "Ġpoeta": 5094,
      "port": 5095,
      "ĠsÅĤowo": 5096,
      "Ġwspar": 5097,
      "Ġkonkre": 5098,
      "ĠwewnÄħtrz": 5099,
      "rodÄĻ": 5100,
      "cro": 5101,
      "Ġduchow": 5102,
      "Ġ1920": 5103,
      "versi": 5104,
      "ĠdziaÅĤ": 5105,
      "Ġpunktu": 5106,
      "Ġdominu": 5107,
      "ĠWielki": 5108,
      "ĠIgna": 5109,
      "ĠuÅĤa": 5110,
      "Ġrozpuszcza": 5111,
      "Ġgranic": 5112,
      "nkowo": 5113,
      "ĠzamkniÄĻ": 5114,
      "logiczny": 5115,
      "Ġkontr": 5116,
      "rÃ³Å¼nic": 5117,
      "wojen": 5118,
      "ĠSena": 5119,
      "Å¼ar": 5120,
      "nale": 5121,
      "ĠGi": 5122,
      "Ġdyplo": 5123,
      "Ġskon": 5124,
      "Ġindy": 5125,
      "Ġprocesu": 5126,
      "Å»yciorys": 5127,
      "ulka": 5128,
      "Ġflo": 5129,
      "69": 5130,
      "lus": 5131,
      "landia": 5132,
      "czonego": 5133,
      "zuÅĤma": 5134,
      "Ġtekstu": 5135,
      "Ġumiesz": 5136,
      "pto": 5137,
      "Ġblisko": 5138,
      "the": 5139,
      "lowych": 5140,
      "Ġcen": 5141,
      "pole": 5142,
      "ĠÅĤaÅĦcu": 5143,
      "ĠsÅĤÃ³w": 5144,
      "ĠpozostaÅĤych": 5145,
      "nden": 5146,
      "%),": 5147,
      "munika": 5148,
      "Ġrynku": 5149,
      "Ġbru": 5150,
      "gla": 5151,
      "rob": 5152,
      "ward": 5153,
      "czania": 5154,
      "ĠokreÅĽlenie": 5155,
      "dwi": 5156,
      "War": 5157,
      "Ġstanowisko": 5158,
      "cielem": 5159,
      "ĠGeorge": 5160,
      "turÄħ": 5161,
      "ĠÅºrÃ³dÅĤa": 5162,
      "ĠsiÄĻga": 5163,
      "ĠJerzy": 5164,
      "ĠprÄĻdkoÅĽci": 5165,
      "89": 5166,
      "Ġsubstancji": 5167,
      "spÃ³l": 5168,
      "Ġstrona": 5169,
      "ĠAdam": 5170,
      "Ġnosi": 5171,
      "ĠkrÄĻ": 5172,
      "ĠpoÅĤudniowej": 5173,
      "Ġpewne": 5174,
      "ĠÅ¼yciu": 5175,
      "ĠniepodlegÅĤoÅĽci": 5176,
      "ĠNowy": 5177,
      "Ġportu": 5178,
      "zmy": 5179,
      "ĠSejmu": 5180,
      "ĠpÃ³ÅĤnocno": 5181,
      "ĠwzdÅĤuÅ¼": 5182,
      "dowanie": 5183,
      "Ġspek": 5184,
      "tencja": 5185,
      "zacjÄĻ": 5186,
      "Ġaresz": 5187,
      "ĠPiotr": 5188,
      "Ġpanowania": 5189,
      "Ġdniu": 5190,
      "ĠTowarzystwo": 5191,
      "ĠChe": 5192,
      "ĠdolarÃ³w": 5193,
      "har": 5194,
      "dium": 5195,
      "niÅ¼": 5196,
      "biÅĤ": 5197,
      "ficja": 5198,
      "mera": 5199,
      "ÅĤki": 5200,
      "Ġzamach": 5201,
      "iny": 5202,
      "Ġodczy": 5203,
      "ĠpÄĻ": 5204,
      "piej": 5205,
      "Ġ300": 5206,
      "ĠWiÄĻkszoÅĽÄĩ": 5207,
      "ĠspoÅĽrÃ³d": 5208,
      "pular": 5209,
      "ĠdÅĤugoÅĽÄĩ": 5210,
      "stki": 5211,
      "79": 5212,
      "ĠNarodowy": 5213,
      "ĠopuÅĽci": 5214,
      "rzch": 5215,
      "Ġzaczyna": 5216,
      "Ġlisty": 5217,
      "ĠzastÄħpi": 5218,
      "ĠwiÄĻkszÄħ": 5219,
      "ĠrÃ³Å¼ni": 5220,
      "lnia": 5221,
      "Ġedu": 5222,
      "rzony": 5223,
      "ĠXIII": 5224,
      "mann": 5225,
      "Ġary": 5226,
      "Ġprzeciwie": 5227,
      "ĠKro": 5228,
      "Ġkomunisty": 5229,
      "ĠWielkopolski": 5230,
      "Ġjezio": 5231,
      "ĠTry": 5232,
      "dny": 5233,
      "tto": 5234,
      "siada": 5235,
      "Ġczaso": 5236,
      "chÄĻ": 5237,
      "Ġseria": 5238,
      "Ġzwro": 5239,
      "Ġniemieckich": 5240,
      "ĠAk": 5241,
      "ĠdziaÅĤanie": 5242,
      "cal": 5243,
      "Co": 5244,
      "piera": 5245,
      "wione": 5246,
      "ĠWspÃ³ÅĤ": 5247,
      "tta": 5248,
      "ĠPraw": 5249,
      "ĠpasaÅ¼er": 5250,
      "chem": 5251,
      "Ġkodu": 5252,
      "Ġzachodniej": 5253,
      "ĠPier": 5254,
      "ĠosiÄħga": 5255,
      "Ġatmosfery": 5256,
      "ĠpojÄĻcia": 5257,
      "Ġwice": 5258,
      "ĠMal": 5259,
      "siÄħÅ¼": 5260,
      "Ġmalar": 5261,
      "mfo": 5262,
      "41": 5263,
      "Ġteore": 5264,
      "towanych": 5265,
      "nka": 5266,
      "ĠpodwÃ³j": 5267,
      "Ġuwagi": 5268,
      "ĠczÄĻÅĽciowo": 5269,
      "Ġparlamentar": 5270,
      "âĢĿ).": 5271,
      "ue": 5272,
      "Ġprzyw": 5273,
      "graÅĤ": 5274,
      "Ġpocz": 5275,
      "Ġwybi": 5276,
      "Ġzasad": 5277,
      "Å¼d": 5278,
      "ĠutworÃ³w": 5279,
      "unt": 5280,
      "49": 5281,
      "indu": 5282,
      "Ġtekst": 5283,
      "pty": 5284,
      "ciw": 5285,
      "ĠkoÅĽcioÅĤa": 5286,
      "niusz": 5287,
      "Ġostatnich": 5288,
      "Ġ32": 5289,
      "ĠTym": 5290,
      "Ġskali": 5291,
      "Ġzawod": 5292,
      "Åģ": 5293,
      "dÅĤa": 5294,
      "skutek": 5295,
      "Ġpolityki": 5296,
      "Ġgminy": 5297,
      "zacho": 5298,
      "83": 5299,
      "Ġ1975": 5300,
      "Ġantropo": 5301,
      "ĠpoÅĤÄħczenia": 5302,
      "Ġcharakterze": 5303,
      "ĠmiesiÄĻcy": 5304,
      "ĠOce": 5305,
      "wczy": 5306,
      "widu": 5307,
      "iÅĤ": 5308,
      "ĠJedno": 5309,
      "ĠpodrÃ³Å¼": 5310,
      "lesa": 5311,
      "ĠPawÅĤa": 5312,
      "Ġpotom": 5313,
      "Ġterytoria": 5314,
      "metrÃ³w": 5315,
      "Ġzapewnia": 5316,
      "Ġswobo": 5317,
      "Ġfunda": 5318,
      "Mia": 5319,
      "Ġ1982": 5320,
      "ĠRadzie": 5321,
      "ĠdowÃ³dz": 5322,
      "Ġkobiety": 5323,
      "ĠVI": 5324,
      "ĠzwiÄħzki": 5325,
      "Ġodpowiednio": 5326,
      "04": 5327,
      "ciÄĩ": 5328,
      "noÅĽ": 5329,
      "Ġrol": 5330,
      "Ġwypowie": 5331,
      "ÅĦsko": 5332,
      "ĠWis": 5333,
      "pus": 5334,
      "ÅºÄĩ": 5335,
      "67": 5336,
      "ĠcaÅĤoÅĽci": 5337,
      "Ġoskar": 5338,
      "Ġbur": 5339,
      "ĠMy": 5340,
      "ĠCyce": 5341,
      "ĠAnt": 5342,
      "Ġpoety": 5343,
      "Ġpiosen": 5344,
      ".).": 5345,
      "Ġrejo": 5346,
      "imna": 5347,
      "Ġdoko": 5348,
      "Ġgaz": 5349,
      "padzie": 5350,
      "glÄħda": 5351,
      "sÄħ": 5352,
      "Ġdrzew": 5353,
      "lio": 5354,
      "ĠCesar": 5355,
      "ĠZygmu": 5356,
      "Pi": 5357,
      "Ñģ": 5358,
      "ĠTadeusz": 5359,
      "ĠAlf": 5360,
      "Ġzdefini": 5361,
      "lika": 5362,
      "Ġprowincji": 5363,
      "ĠzmarÅĤ": 5364,
      "Ġdrodze": 5365,
      "ĠJerozo": 5366,
      "Ġkompozytor": 5367,
      "es": 5368,
      "ĠbÅĤ": 5369,
      "pier": 5370,
      "Ġzatem": 5371,
      "PG": 5372,
      "typ": 5373,
      "Ġzawo": 5374,
      "Ġpsychi": 5375,
      "Ġpowi": 5376,
      "Ġprzebiega": 5377,
      "Ġnowoczes": 5378,
      "Ġuleg": 5379,
      "jÄĻcie": 5380,
      "WspÃ³ÅĤ": 5381,
      "nieniu": 5382,
      "Å¼em": 5383,
      "ĠMarii": 5384,
      "ĠÅ¼Ã³ÅĤ": 5385,
      "ĠEr": 5386,
      "Ġfal": 5387,
      "jÄħÄĩ": 5388,
      "Ġukaza": 5389,
      "Ġniemieckiej": 5390,
      "Ġton": 5391,
      "ĠBud": 5392,
      "lec": 5393,
      "ĠspeÅĤnia": 5394,
      "dge": 5395,
      "towarzy": 5396,
      "Ġziemia": 5397,
      "ĠCol": 5398,
      "dowi": 5399,
      "Ġdoj": 5400,
      "Ġuzu": 5401,
      "Ġdalej": 5402,
      "owcy": 5403,
      "strÃ³w": 5404,
      "ĠPÃ³ÅĤnocnej": 5405,
      "Ġrepubli": 5406,
      "Ġprzeby": 5407,
      "Ġwek": 5408,
      "Ġtrans": 5409,
      "ĠnapiÄĻ": 5410,
      "sten": 5411,
      "Ġorygina": 5412,
      "ĠUniwersytet": 5413,
      "nau": 5414,
      "dok": 5415,
      "Ġklasztor": 5416,
      "kowanie": 5417,
      "Ġche": 5418,
      "03": 5419,
      "Ġznanych": 5420,
      "ĠrozpoczÄĻÅĤa": 5421,
      "Ġfakt": 5422,
      "Ġprzypomina": 5423,
      "fie": 5424,
      "Ġson": 5425,
      "ĠDemokra": 5426,
      "ĠFesti": 5427,
      "ĠusuniÄĻ": 5428,
      "ĠzasiÄĻ": 5429,
      "ĠleÅ¼y": 5430,
      "lopedia": 5431,
      "Ġ500": 5432,
      "Ġpogo": 5433,
      "ĠsÅĤy": 5434,
      "rzuca": 5435,
      "Ġintensyw": 5436,
      "Ġkategorii": 5437,
      "ĠpÅĤo": 5438,
      "weÅĤ": 5439,
      "ts": 5440,
      "Ġdwor": 5441,
      "ĠJeÅĽli": 5442,
      "rotnie": 5443,
      "ĠponiÅ¼ej": 5444,
      "ĠskoÅĦ": 5445,
      "Ġnega": 5446,
      "Ġrezu": 5447,
      "ĠBal": 5448,
      "Ġzamiesz": 5449,
      "tlanty": 5450,
      "choty": 5451,
      "Ġinnego": 5452,
      "Ġmus": 5453,
      "Ġmodel": 5454,
      "Ġwzajem": 5455,
      "Ġdr": 5456,
      "kin": 5457,
      "cona": 5458,
      "rony": 5459,
      "spek": 5460,
      "02": 5461,
      "Ġnieza": 5462,
      "Ġodbywa": 5463,
      "ĠMieszka": 5464,
      "Ġx": 5465,
      "czer": 5466,
      "Äģ": 5467,
      "Ġcywi": 5468,
      "ransport": 5469,
      "ĠHenryk": 5470,
      "By": 5471,
      "ĠKultury": 5472,
      "wiÄĩ": 5473,
      "nicznych": 5474,
      "ĠWÅĽrÃ³d": 5475,
      "matyka": 5476,
      "ĠleÅ¼Äħ": 5477,
      "ĠzrÃ³Å¼nic": 5478,
      "tnikÃ³w": 5479,
      "giel": 5480,
      "ĠSka": 5481,
      "71": 5482,
      "PodziaÅĤ": 5483,
      "czonej": 5484,
      "ĠspoÅĤecznoÅĽci": 5485,
      "Ġdoskona": 5486,
      "lizmu": 5487,
      "zje": 5488,
      "leÅĦ": 5489,
      "Ġtr": 5490,
      "ĠRzym": 5491,
      "Ġlegen": 5492,
      "dwie": 5493,
      "63": 5494,
      "Ġeuro": 5495,
      "ĠtreÅĽci": 5496,
      "wskim": 5497,
      "ÑĤ": 5498,
      "Ġsformu": 5499,
      "Ġzawie": 5500,
      "Ġzyska": 5501,
      "Ġponadto": 5502,
      "ĠNiemcze": 5503,
      "Ġgrudniu": 5504,
      "Lu": 5505,
      "Ġpyta": 5506,
      "84": 5507,
      "Krzy": 5508,
      "Ġartysty": 5509,
      "ĠSLD": 5510,
      "Ġkomputera": 5511,
      "towaÅĤa": 5512,
      "ĠOgÃ³l": 5513,
      "ĠwiÄĻksze": 5514,
      "ĠNiemczech": 5515,
      "93": 5516,
      "rysto": 5517,
      "ĠPomo": 5518,
      "ĠPSL": 5519,
      "mand": 5520,
      "Ġliczbie": 5521,
      "Ġzdr": 5522,
      "87": 5523,
      "gracji": 5524,
      "Jan": 5525,
      "uda": 5526,
      "Ġprzyrody": 5527,
      "ĠGal": 5528,
      "Ġnazwie": 5529,
      "ĠSpe": 5530,
      "Ġniewy": 5531,
      "Ġwycofa": 5532,
      "Ġfirmy": 5533,
      "Ġstatu": 5534,
      "lsze": 5535,
      "Ġdrogi": 5536,
      "Ġautorstwa": 5537,
      "Ġmiastem": 5538,
      "ury": 5539,
      "rin": 5540,
      "ĠtworzÄħc": 5541,
      "ĠkrÄħ": 5542,
      "Ġpodstawowych": 5543,
      "ĠwÅĤasnoÅĽci": 5544,
      "skryp": 5545,
      "kwa": 5546,
      "Ġrezulta": 5547,
      "szone": 5548,
      "Ġkrwi": 5549,
      "uri": 5550,
      "ĠsiedzibÄħ": 5551,
      "ctwem": 5552,
      "Ġzakon": 5553,
      "Ġczerwcu": 5554,
      "ĠinÅ¼ynie": 5555,
      "ĠFrancu": 5556,
      "udo": 5557,
      "Ã¨": 5558,
      "ĠOrderu": 5559,
      "ĠzespoÅĤu": 5560,
      "ĠHenryka": 5561,
      "torium": 5562,
      "jona": 5563,
      "Ġpostanowi": 5564,
      "czeÅĦstwo": 5565,
      "Ġwin": 5566,
      "ciÄħÅ¼": 5567,
      "Ġkoncent": 5568,
      "scypli": 5569,
      "Ġodno": 5570,
      "dgo": 5571,
      "Ġdochodzi": 5572,
      "Ġkryzy": 5573,
      "Ð¾Ð": 5574,
      "Ġmaju": 5575,
      "Ġstosunkowo": 5576,
      "logiÄĻ": 5577,
      "ĠWilhel": 5578,
      "ĠgÅĤÃ³wne": 5579,
      "Ġuni": 5580,
      "Ġkali": 5581,
      "ĠBur": 5582,
      "Ġzabu": 5583,
      "Ġduch": 5584,
      "Ġodniesie": 5585,
      "set": 5586,
      "Ġstaty": 5587,
      "Ġodbi": 5588,
      "Ġinnym": 5589,
      "ĠbudowÄĻ": 5590,
      "ĠwolnoÅĽci": 5591,
      "ĠwspÃ³ÅĤpracy": 5592,
      "ĠPolskich": 5593,
      "Ġsierp": 5594,
      "bum": 5595,
      "sche": 5596,
      "limpi": 5597,
      "lblÄħ": 5598,
      "Ġadres": 5599,
      "Ġteoria": 5600,
      "ther": 5601,
      "piÄĻ": 5602,
      "ĠSystem": 5603,
      "Ġodzyska": 5604,
      "Ġwulka": 5605,
      "ĠNarodowego": 5606,
      "ĠKazimierza": 5607,
      "Ġodnosi": 5608,
      "Ġwyj": 5609,
      "stawy": 5610,
      "ienta": 5611,
      "jestrowa": 5612,
      "Ġwchodzi": 5613,
      "ĠAla": 5614,
      "mai": 5615,
      "berna": 5616,
      "gal": 5617,
      "ĠVer": 5618,
      "atr": 5619,
      "ĠzÅĤ": 5620,
      "Ġklucz": 5621,
      "Ġopisy": 5622,
      "Ġpotencja": 5623,
      "Ġzer": 5624,
      "ĠrÃ³Å¼no": 5625,
      "ĠwÅĤoski": 5626,
      "ĠpowstaÅĤo": 5627,
      "wami": 5628,
      "ĠzginÄĻ": 5629,
      "skoÅĦ": 5630,
      "Ġdaje": 5631,
      "tniej": 5632,
      "lowej": 5633,
      "ĠspoÅĤecznych": 5634,
      "zon": 5635,
      "tin": 5636,
      "Ġban": 5637,
      "Ġ1941": 5638,
      "mieniem": 5639,
      "ĠRzeszy": 5640,
      "Ġwybudowa": 5641,
      "gio": 5642,
      "ĠLan": 5643,
      "ĠNatomiast": 5644,
      "Ġwydaw": 5645,
      "izmu": 5646,
      "angaÅ¼": 5647,
      "gÃ³ÅĤ": 5648,
      "ĠszkÃ³ÅĤ": 5649,
      "Ġoprogram": 5650,
      "Ġkolek": 5651,
      "Ġkopa": 5652,
      "Ġowo": 5653,
      "Ġkultural": 5654,
      "Ġkomplek": 5655,
      "%.": 5656,
      "Ġsan": 5657,
      "ĠPoczÄħtkowo": 5658,
      "Ġkwar": 5659,
      "Ġelement": 5660,
      "Ġlipcu": 5661,
      "ĠUniwersytecie": 5662,
      "ĠPoznaÅĦ": 5663,
      "Ġopowie": 5664,
      "Ġder": 5665,
      "tero": 5666,
      "stanie": 5667,
      "91": 5668,
      "Ġparafia": 5669,
      "ried": 5670,
      "ĠRada": 5671,
      "ĠpiÅĤkarz": 5672,
      "ĠmogÅĤy": 5673,
      "niÄĻcie": 5674,
      "szoÅĽci": 5675,
      "strybu": 5676,
      "skÃ³w": 5677,
      "ĠPolskie": 5678,
      "ĠdoÅĤÄħ": 5679,
      "ĠodbyÅĤ": 5680,
      "zyka": 5681,
      "naÅĽcie": 5682,
      "lerii": 5683,
      "owskim": 5684,
      "Ġludzie": 5685,
      "Ġutrzymy": 5686,
      "Å¼ek": 5687,
      "Ġchoroby": 5688,
      "Ġ1983": 5689,
      "82": 5690,
      "Ġwino": 5691,
      "Ġregionu": 5692,
      "ĠklÄĻ": 5693,
      "ĠwspÃ³ÅĤczesnych": 5694,
      "znacza": 5695,
      "ĠmÃ³wiÄħ": 5696,
      "Ġpojaz": 5697,
      "ĠludnoÅĽÄĩ": 5698,
      "nowany": 5699,
      "Ġ1942": 5700,
      "Å¡": 5701,
      "nien": 5702,
      "ĠjÄħdra": 5703,
      "Ġnieco": 5704,
      "Pow": 5705,
      "Ġzjawiska": 5706,
      "Ġpunkt": 5707,
      "Ġpropa": 5708,
      "Ġdynastii": 5709,
      "Ġstudia": 5710,
      "ĠwojewÃ³dztwie": 5711,
      "Ġ1946": 5712,
      "broje": 5713,
      "Ġwir": 5714,
      "ĠPubli": 5715,
      "ĠFin": 5716,
      "rzec": 5717,
      "Ġakcji": 5718,
      "SC": 5719,
      "ĠEin": 5720,
      "ÅĤania": 5721,
      "ĠoprÃ³cz": 5722,
      "ien": 5723,
      "Ġprojekt": 5724,
      "ĠpodziaÅĤu": 5725,
      "rzÃ³w": 5726,
      "Ġosadni": 5727,
      "ĠmÅĤody": 5728,
      "nicznej": 5729,
      "Ġizra": 5730,
      "Ġnapo": 5731,
      "raktery": 5732,
      "Ġsystemie": 5733,
      "ĠJak": 5734,
      "tywi": 5735,
      "jna": 5736,
      "ĠsÅĤowia": 5737,
      "pela": 5738,
      "Ġ1968": 5739,
      "Ġmaksyma": 5740,
      "Ġindywidu": 5741,
      "ĠDar": 5742,
      "ĠBiel": 5743,
      "ĠKoÅĽcio": 5744,
      "ĠKrzyÅ¼a": 5745,
      "ĠImp": 5746,
      "tana": 5747,
      "cim": 5748,
      "ĠGÃ³ra": 5749,
      "lak": 5750,
      "ĠGor": 5751,
      "Ġserwi": 5752,
      "ĠpojÄĻcie": 5753,
      "miona": 5754,
      "ĠgÃ³ry": 5755,
      "nionych": 5756,
      "Ġobrazu": 5757,
      "ĠprÃ³by": 5758,
      "Ġzorganizowa": 5759,
      "owicz": 5760,
      "Ġarcheo": 5761,
      "ĠmÄĻÅ¼czyzn": 5762,
      "Ġzajmowa": 5763,
      "ĠpÃ³Åº": 5764,
      "PS": 5765,
      "ĠplikÃ³w": 5766,
      "rzona": 5767,
      "ponowaÅĤ": 5768,
      "ĠArchi": 5769,
      "ĠAndrze": 5770,
      "Ġskra": 5771,
      "dziem": 5772,
      "Ġpru": 5773,
      "jne": 5774,
      "Ġodzna": 5775,
      "Ġinstru": 5776,
      "ĠkaÅ¼dym": 5777,
      "danie": 5778,
      "niowych": 5779,
      "Ġfabry": 5780,
      "Fi": 5781,
      "***": 5782,
      "ĠKrzyszto": 5783,
      "ĠCor": 5784,
      "orwa": 5785,
      "Ġnacze": 5786,
      "Ġlekko": 5787,
      "ĠwprowadziÅĤ": 5788,
      "trwa": 5789,
      "Ġserii": 5790,
      "ĠwziÄĻ": 5791,
      "Ġtermin": 5792,
      "Ġ1976": 5793,
      "ĠRepubliki": 5794,
      "Ġ1970": 5795,
      "1939": 5796,
      "Ġrejonie": 5797,
      "ĠâĢ¢": 5798,
      "Ġfunkcjona": 5799,
      "leniu": 5800,
      "moÅĽci": 5801,
      "Ġboj": 5802,
      "kÅĤadÃ³w": 5803,
      "Ġzaga": 5804,
      "owskich": 5805,
      "Ġ1943": 5806,
      "Ġpose": 5807,
      "Ġrower": 5808,
      "ĠÅĤadu": 5809,
      "drze": 5810,
      "Ġmatematycz": 5811,
      "jÄħco": 5812,
      "ĠSam": 5813,
      "Ġpers": 5814,
      "zywaÅĤ": 5815,
      "Ġbiskupa": 5816,
      "ĠSzkoÅĤa": 5817,
      "Ġstolicy": 5818,
      "wskie": 5819,
      "::::": 5820,
      "gdzie": 5821,
      "Ġnu": 5822,
      "Ã³Å¼": 5823,
      "ĠSÅĤone": 5824,
      "sora": 5825,
      "ris": 5826,
      "Ġkolor": 5827,
      "tho": 5828,
      "ĠBor": 5829,
      "Ġoficjalnie": 5830,
      "Ġzastosowanie": 5831,
      "szÅĤa": 5832,
      "Ġ1938": 5833,
      "81": 5834,
      "Ġzasob": 5835,
      "nim": 5836,
      "Ġuczestni": 5837,
      "logicznej": 5838,
      "ĠprzemysÅĤu": 5839,
      "ĠKoÅĽciusz": 5840,
      "ĠzaleÅ¼y": 5841,
      "kowym": 5842,
      "lonej": 5843,
      "nikach": 5844,
      "chii": 5845,
      "ĠnajwiÄĻkszym": 5846,
      "strak": 5847,
      "Ġ1956": 5848,
      "Ġnaukowych": 5849,
      "cono": 5850,
      "ĠuÅ¼yciu": 5851,
      "trona": 5852,
      "ĠzaczÄĻÅĤy": 5853,
      "ĠRich": 5854,
      "czÄħtkowa": 5855,
      "Ġzamor": 5856,
      "Ġcharakterysty": 5857,
      "Ġzao": 5858,
      "Ġwina": 5859,
      "Ġpancer": 5860,
      "ĠJerzego": 5861,
      "ĠpapieÅ¼a": 5862,
      "ĠLeonardo": 5863,
      "Ġwzor": 5864,
      "Ġdefinicji": 5865,
      "ica": 5866,
      "ĠdÅĤugi": 5867,
      "ĠformÄĻ": 5868,
      "ĠprzywÃ³d": 5869,
      "Ġgrze": 5870,
      "ĠczÅĤowiek": 5871,
      "Ġpowietrza": 5872,
      "Ġunie": 5873,
      "Hz": 5874,
      "Ġscena": 5875,
      "modynami": 5876,
      "61": 5877,
      "tywny": 5878,
      "Ġtyle": 5879,
      "Ġobywatel": 5880,
      "Ġswej": 5881,
      "Ġzanie": 5882,
      "ĠprzeÅĤomie": 5883,
      "val": 5884,
      "ligen": 5885,
      "Ġarcy": 5886,
      "ĠmuzuÅĤma": 5887,
      "ĠPO": 5888,
      "ĠwrzeÅĽ": 5889,
      "Ġlistopadzie": 5890,
      "zan": 5891,
      "ĠwiÄĻzie": 5892,
      "Ġzdecydowa": 5893,
      "ĠPoznaniu": 5894,
      "glÄħd": 5895,
      "Ġradio": 5896,
      "Ġrozpa": 5897,
      "mÄħ": 5898,
      "dnÄħ": 5899,
      "ĠsÅĤuÅ¼by": 5900,
      "ĠdÅºwiÄĻ": 5901,
      "ĠkoÅĤo": 5902,
      "Ġ'": 5903,
      "rzeniem": 5904,
      "Ġ1986": 5905,
      "Ġnaci": 5906,
      "Ġnieo": 5907,
      "ptu": 5908,
      "czonym": 5909,
      "tyzm": 5910,
      "ĠSh": 5911,
      "Ġwydarzenia": 5912,
      "lender": 5913,
      "Ġstyczniu": 5914,
      "ÅĽmie": 5915,
      "ĠnajwaÅ¼niejszych": 5916,
      "Ġgranicach": 5917,
      "Ġpremiera": 5918,
      "Ġbraku": 5919,
      "ĠNowym": 5920,
      "Ġpokoj": 5921,
      "Ġsprzy": 5922,
      "ĠAleksandra": 5923,
      "Ġnadz": 5924,
      "Ġ1988": 5925,
      "Ġobrony": 5926,
      "Ġdyrek": 5927,
      "ĠRosja": 5928,
      "ĠPRL": 5929,
      "Ġwykaza": 5930,
      "ĠCentral": 5931,
      "Ġobja": 5932,
      "ĠKaÅ¼": 5933,
      "pr": 5934,
      "Ġnaturalnych": 5935,
      "ĠNajwiÄĻk": 5936,
      "bora": 5937,
      "ĠkrÃ³tko": 5938,
      "Ġzasadni": 5939,
      "ĠAle": 5940,
      "dÅĤo": 5941,
      "Ġojciec": 5942,
      "ĠRzymie": 5943,
      "loka": 5944,
      "Ġchcia": 5945,
      "62": 5946,
      "Ġakade": 5947,
      "grafia": 5948,
      "sis": 5949,
      "ĠbÅĤÄĻd": 5950,
      "GÅĤÃ³w": 5951,
      "ĠokreÅĽli": 5952,
      "ĠzupeÅĤ": 5953,
      "morfi": 5954,
      "Ġrozpowszech": 5955,
      "Ġsztuk": 5956,
      "Ġsprowa": 5957,
      "torzy": 5958,
      "Ġposzuki": 5959,
      "Ġlicznych": 5960,
      "Ġproducen": 5961,
      "Ġkalenda": 5962,
      "ĠuwzglÄĻ": 5963,
      "tacza": 5964,
      "nizacji": 5965,
      "Ġrozpozna": 5966,
      "Bu": 5967,
      "tnik": 5968,
      "ĠprzeciwieÅĦstwie": 5969,
      "Ġwoli": 5970,
      "Ġosobi": 5971,
      "Ġosoba": 5972,
      "ĠzaangaÅ¼": 5973,
      "ĠpowieÅĽÄĩ": 5974,
      "Ġzi": 5975,
      "ĠwschÃ³d": 5976,
      "Ġrozpoczyna": 5977,
      "ĠwrzeÅĽniu": 5978,
      "arda": 5979,
      "ĠciaÅĤo": 5980,
      "ĠHal": 5981,
      "KS": 5982,
      "Ġdrugiego": 5983,
      "ĠnowÄħ": 5984,
      "âĢĿ),": 5985,
      "ĠwÅĤasne": 5986,
      "94": 5987,
      "Ġinspi": 5988,
      "Ġbohater": 5989,
      "owce": 5990,
      "budowy": 5991,
      "rÃ³g": 5992,
      "ĠPiÅĤsudskiego": 5993,
      "Ġzapisy": 5994,
      "ĠWiki": 5995,
      "ĠkaÅ¼dej": 5996,
      "Ġ1967": 5997,
      "prawdopodob": 5998,
      "Ġgospodarki": 5999,
      "Ġate": 6000,
      "glo": 6001,
      "ĠogÃ³lno": 6002,
      "Ġmarcu": 6003,
      "ĠdzieÅĤo": 6004,
      "Ġneu": 6005,
      "lis": 6006,
      "Ġpodmio": 6007,
      "Ġ1984": 6008,
      "ĠWen": 6009,
      "bach": 6010,
      "Ġcmenta": 6011,
      "chowa": 6012,
      "Ġoficer": 6013,
      "ĠMosk": 6014,
      "ĠwiÄĻkszej": 6015,
      "ÅĽwiet": 6016,
      "kimi": 6017,
      "Ġcywili": 6018,
      "Ġpoziom": 6019,
      "Ġpozostaje": 6020,
      "Ġdemokra": 6021,
      "mierza": 6022,
      "ĠwywodzÄħ": 6023,
      "ĠAm": 6024,
      "Ġmedycy": 6025,
      "ÅĤbrzy": 6026,
      "Ġczyta": 6027,
      "ĠWor": 6028,
      "ĠPara": 6029,
      "Ġrozmia": 6030,
      "lowy": 6031,
      "Ġobiekty": 6032,
      "Ġpowstaje": 6033,
      "kowana": 6034,
      "ĠpaÅºdzierniku": 6035,
      "lania": 6036,
      "ĠSze": 6037,
      "ĠPau": 6038,
      "ĠFlo": 6039,
      "An": 6040,
      "Przed": 6041,
      "lskich": 6042,
      "Ġoddzie": 6043,
      "Ġucz": 6044,
      "Ġ1950": 6045,
      "Ġtakiej": 6046,
      "Ġinny": 6047,
      "ĠÅĽla": 6048,
      "Ġisla": 6049,
      "Ġwidzenia": 6050,
      "ĠksiÄħÅ¼ki": 6051,
      "ĠskrÃ³": 6052,
      "Ġprzedstawicieli": 6053,
      "Ġniemieckie": 6054,
      "ĠZÅĤo": 6055,
      "ĠCom": 6056,
      "Ġdynami": 6057,
      "Ġkontek": 6058,
      "obi": 6059,
      "ĠjÄħdr": 6060,
      "ĠÅ¼ela": 6061,
      "Ġniedo": 6062,
      "Ġprocesie": 6063,
      "Ġanar": 6064,
      "trak": 6065,
      "zasa": 6066,
      "ĠTer": 6067,
      "nÄĻÅĤy": 6068,
      "ĠMazowie": 6069,
      "Ġwynalaz": 6070,
      "Ġbrytyjski": 6071,
      "ĠnieskoÅĦ": 6072,
      "Ġkoncepcji": 6073,
      "Ġodgrywa": 6074,
      "ĠgrupÄĻ": 6075,
      "ĠusÅĤu": 6076,
      "Ġpotrzeby": 6077,
      "ĠAb": 6078,
      "73": 6079,
      "Ġ1987": 6080,
      "Ġste": 6081,
      "cina": 6082,
      "Ġmary": 6083,
      "bignie": 6084,
      "Ġzachowania": 6085,
      "Ġhydro": 6086,
      "nomii": 6087,
      "Ġzgroma": 6088,
      "Ġepoki": 6089,
      "netu": 6090,
      "Ġ1921": 6091,
      "Ġszyf": 6092,
      "ure": 6093,
      "cyzm": 6094,
      "ĠbrÄħ": 6095,
      "Ġbieg": 6096,
      "Ġkadencji": 6097,
      "ĠPortu": 6098,
      "zju": 6099,
      "Ġkonstrukcji": 6100,
      "ĠEx": 6101,
      "Ġtermi": 6102,
      "ĠMen": 6103,
      "Ġobszaru": 6104,
      "Ġdniach": 6105,
      "Ġkonserwa": 6106,
      "ĠDÄħ": 6107,
      "Ġ1973": 6108,
      "Ġprzekro": 6109,
      "ĠpojawiÅĤy": 6110,
      "dap": 6111,
      "Ġokazji": 6112,
      "Ġzdania": 6113,
      "ĠchociaÅ¼": 6114,
      "tnoÅĽÄĩ": 6115,
      "czÄħc": 6116,
      "ralny": 6117,
      "ĠZwiÄħzek": 6118,
      "ĠFilm": 6119,
      "Ġstatus": 6120,
      "centy": 6121,
      "zyg": 6122,
      "ĠKan": 6123,
      "ĠobsÅĤugi": 6124,
      "lnymi": 6125,
      "ĠrÃ³Å¼norod": 6126,
      "Ca": 6127,
      "Ġorganizm": 6128,
      "Transport": 6129,
      "ĠpracowaÅĤ": 6130,
      "ĠnawiÄħ": 6131,
      "ĠAust": 6132,
      "ĠzastÄĻp": 6133,
      "Ġzwraca": 6134,
      "Ġcyfr": 6135,
      "Ġskupi": 6136,
      "Ġazo": 6137,
      "Ġneo": 6138,
      "dzien": 6139,
      "ĠurzÄĻ": 6140,
      "Ġpatr": 6141,
      "kta": 6142,
      "Ġoperacji": 6143,
      "Ġimienia": 6144,
      "Ġ1948": 6145,
      "ĠGar": 6146,
      "Ġlite": 6147,
      "Ġrozbi": 6148,
      "Ġlitery": 6149,
      "Ġzba": 6150,
      "Ġodmien": 6151,
      "Ġwymia": 6152,
      "stawia": 6153,
      "Ġterenach": 6154,
      "ĠVin": 6155,
      "ĠTeo": 6156,
      "Ġdzia": 6157,
      "ĠprzyjÄħÅĤ": 6158,
      "ĠobjÄħÅĤ": 6159,
      "Ġplanet": 6160,
      "ĠTh": 6161,
      "AN": 6162,
      "100": 6163,
      "tywnych": 6164,
      "Ġformu": 6165,
      "ĠTowarzystwa": 6166,
      "Ġrelacji": 6167,
      "Ġpali": 6168,
      "ĠPiotra": 6169,
      "Ġkorzy": 6170,
      "ĠZo": 6171,
      "ĠzdjÄĻ": 6172,
      "Ġstanowiska": 6173,
      "Ġzob": 6174,
      "MP": 6175,
      "Ġpowietrz": 6176,
      "Ġwidth": 6177,
      "Ġpas": 6178,
      "ĠAntoni": 6179,
      "Ġbitwa": 6180,
      "ĠmiÅĤoÅĽci": 6181,
      "ĠStron": 6182,
      "ĠpodkreÅĽla": 6183,
      "Ġfer": 6184,
      "strza": 6185,
      "Ġ1947": 6186,
      "ĠPodstaw": 6187,
      "Ġsilnie": 6188,
      "ĠSzwajcar": 6189,
      "Ġdrob": 6190,
      "ĠVa": 6191,
      "54": 6192,
      "wii": 6193,
      "Si": 6194,
      "Ġmarsza": 6195,
      "demia": 6196,
      "ĠwyjÄħtkiem": 6197,
      "ĠJose": 6198,
      "Ġorienta": 6199,
      "Ġpraktyce": 6200,
      "tic": 6201,
      "nictwie": 6202,
      "Ġpostrzega": 6203,
      "Ġraczej": 6204,
      "czyk": 6205,
      "tte": 6206,
      "ĠNarodowej": 6207,
      "ĠdziaÅĤacz": 6208,
      "ĠJaponii": 6209,
      "Ġustanowi": 6210,
      "Ġnagra": 6211,
      "Ġstopniowo": 6212,
      "padek": 6213,
      "ĠpoÅĤoÅ¼one": 6214,
      "ĠwÄĻgier": 6215,
      "szono": 6216,
      "Ġ[]": 6217,
      "Ġile": 6218,
      "ĠKla": 6219,
      "Ġpracu": 6220,
      "Ġpolityczne": 6221,
      "JÄĻzyk": 6222,
      "Ġasy": 6223,
      "ĠNagrody": 6224,
      "zjo": 6225,
      "wek": 6226,
      "gÅĤÃ³w": 6227,
      "ĠXII": 6228,
      "ĠBogu": 6229,
      "lit": 6230,
      "Ġbrz": 6231
    },
    "merges": [
      "i e",
      "Å Ĥ",
      "Ġ p",
      "Ġ w",
      "s t",
      "o w",
      "n a",
      "n i",
      "c z",
      "c h",
      "Ä ħ",
      "Ġ z",
      "Ä Ļ",
      "Ã ³",
      "r z",
      "r a",
      "Ġ s",
      "n ie",
      "Ġ o",
      "r o",
      "Å ¼",
      "Ġ d",
      "n e",
      "n y",
      "Ġ k",
      "Ġ t",
      "l i",
      "Å Ľ",
      "Ġ i",
      "Ġp o",
      "s k",
      "Ġ m",
      "i a",
      "s z",
      "g o",
      "Ġ na",
      "a r",
      "j e",
      "rz e",
      "d z",
      "â Ģ",
      "Ã³ w",
      "l e",
      "i ÄĻ",
      "r e",
      "ÅĤ a",
      "ow a",
      "w a",
      "Ġ (",
      "c i",
      "n o",
      "k a",
      "Ġ b",
      "l a",
      "e r",
      "ni a",
      "st a",
      "o r",
      "Ġz a",
      "m i",
      "Ġd o",
      "t y",
      "Ġ 1",
      "Ġ P",
      "c e",
      "Ġ âĢ",
      "j a",
      "Ġ a",
      "Ġ je",
      "Ġw y",
      "t a",
      "Ġ u",
      "Ġ W",
      "rz y",
      "k o",
      "j Äħ",
      "ÅĤ o",
      "k i",
      "Ä ĩ",
      "Å Ħ",
      "Ġp rze",
      "d a",
      "t e",
      "k u",
      "c y",
      "r y",
      "Ġs iÄĻ",
      "Ġ S",
      "Ġ ro",
      "Ġ g",
      "ny ch",
      "p o",
      "ĠâĢ ĵ",
      "ÅĽ ci",
      "t u",
      "e n",
      "m a",
      "w o",
      "sk i",
      "Ġk o",
      "Ġ nie",
      "Ġ K",
      "c j",
      "t o",
      "Ġ M",
      "l o",
      "Ġ cz",
      "d y",
      "Å¼ e",
      "ÅĤ y",
      "Ġo d",
      "sk ie",
      "ow e",
      "z y",
      "w i",
      "ow y",
      "cz e",
      "r u",
      "Ġ A",
      "l u",
      "Ġ .",
      "c a",
      "c ie",
      "Ġ B",
      "Ġt e",
      "Ġ f",
      "w ie",
      "Ġ 2",
      "t Ã³",
      "k ie",
      "m ie",
      "s a",
      "Ġ1 9",
      "z a",
      "cj i",
      "Ġ N",
      "e m",
      "cz y",
      "Ġ st",
      "d u",
      "Ġk tÃ³",
      "r Ã³",
      "Ġ R",
      "Å¼ y",
      "Ġ C",
      "g a",
      "ne j",
      "Ġje st",
      "ĠP o",
      "i n",
      "sz y",
      "Ġp rzy",
      "Ġm a",
      "o n",
      "p a",
      "Ġb y",
      "Ġ T",
      "Ġ J",
      "g i",
      "Ġo b",
      "o b",
      "ne go",
      "p i",
      "Ġ G",
      "dz ie",
      "ÅĤ u",
      "ra z",
      "Ġ Z",
      "Ġ ja",
      "Ġ D",
      "Ġpo d",
      "s y",
      "sz e",
      "ÅĽ Äĩ",
      "Ġ e",
      "Ġt y",
      "m u",
      "Ġ I",
      "Ġ O",
      "dz i",
      "n Äħ",
      "cz a",
      "Ġ li",
      "a n",
      "Ġm o",
      "ow ie",
      "ch o",
      "ny m",
      "Ġ ÅĽ",
      "Ġ L",
      "âĢ Ŀ",
      "m o",
      "Ġ re",
      "d e",
      "Ġi n",
      "ie r",
      "Ġ sta",
      "Ġt a",
      "Ġprze z",
      "ow o",
      "0 0",
      "sk a",
      "c ja",
      "s i",
      "ĠâĢ ŀ",
      "Ġro z",
      "w ia",
      "Ġd z",
      "Ġp ro",
      "ow i",
      "p e",
      "k Ã³w",
      "w y",
      "Ġw ie",
      "p u",
      ") ,",
      "Ġw o",
      "o sta",
      "Ġp a",
      "st y",
      "Ġro ku",
      "ni u",
      "Ġ H",
      "Ġ h",
      "Ġ r",
      "j ÄĻ",
      "Ġ lu",
      "Ġt o",
      "s u",
      "f i",
      "skie go",
      "nie j",
      "d o",
      "sz a",
      "Å º",
      "Ġje d",
      "d ni",
      "st o",
      "b i",
      "t er",
      "Ġo raz",
      "Ġp ra",
      "Ġs z",
      "c o",
      "b y",
      "Ã³ ÅĤ",
      "i l",
      "k ÅĤa",
      ") .",
      "g ra",
      "Ġ E",
      "c ia",
      "Ġ F",
      "Ġ Å¼e",
      "m y",
      "u r",
      "Ġm ie",
      "Ġz na",
      "owy ch",
      "Ġk a",
      "z na",
      "e k",
      "s p",
      "owe j",
      "a l",
      "s ie",
      "ĠN a",
      "st ÄĻ",
      "ty cz",
      "1 9",
      "no ÅĽci",
      "Ġ n",
      "Ġz osta",
      "m en",
      "i o",
      "m ia",
      "Ġ ch",
      "u n",
      "Ġko n",
      "Ġz e",
      "Ġs Äħ",
      "Ġo k",
      "skie j",
      "ra n",
      "Ġ la",
      "Ġ U",
      "t or",
      "ĠktÃ³ ry",
      "jÄħ cy",
      "o na",
      "b li",
      "r owa",
      "Ġm ia",
      "Ġp ow",
      "Ġ ni",
      "m e",
      "t Ã³w",
      "dz e",
      "ĠktÃ³ re",
      "w e",
      "Ġna j",
      "ro d",
      "p ra",
      "p ie",
      "b a",
      "n d",
      "âĢ ĵ",
      "Ġja ko",
      "g u",
      "ÅĤ e",
      "i i",
      "u d",
      "Ġs a",
      "Ġ2 0",
      "Ã³ r",
      "b o",
      "cz Äħ",
      "Ġs y",
      "j u",
      "l ski",
      "Ġ 3",
      "ÅĦ st",
      "cz ne",
      "Ġta k",
      "Ġ Å",
      "Å¼ a",
      "ĠK o",
      "rz Äħ",
      "ier w",
      "e z",
      "jÄħ ce",
      "Ġ ce",
      "ÅĦ ski",
      "b ie",
      "z e",
      "dz y",
      "Ġd la",
      "jÄħ c",
      "Ġcz y",
      "Ġdz ie",
      "Ġs po",
      "u m",
      "cz o",
      "cy j",
      "c ki",
      "ra k",
      "iÄĻ k",
      "ni ka",
      "ÅĤ Ã³w",
      "wi Äħ",
      "t owa",
      "Ġlu b",
      "dz ia",
      "owe go",
      "rz a",
      "er y",
      "z m",
      "Ġw z",
      "ÅĤ Äħ",
      "n u",
      "jÄĻ zy",
      "Ġst o",
      "s ÅĤa",
      "c kie",
      "Ġje go",
      "Ġd e",
      "Ġcz a",
      "Ġcz ÄĻ",
      "i st",
      "k owa",
      "c u",
      "Ġd a",
      "Ġja k",
      "z u",
      "nie m",
      "Ġr Ã³w",
      "Ġ co",
      "Ġ1 8",
      "Ġty m",
      "stÄĻ p",
      "ĠM a",
      "rÃ³ Å¼",
      "Ġw ÅĤa",
      "Ġprze d",
      "Ġ X",
      "cz nych",
      "ĠJ e",
      "le k",
      "r ÄĻ",
      "no ÅĽÄĩ",
      "ĠK a",
      "Ġ jÄĻzy",
      "Ġp ierw",
      "ĠZ a",
      "n ÄĻ",
      "Ġ ra",
      "Ġok re",
      "Ġtak Å¼e",
      "Ġ go",
      "s po",
      "s e",
      "Ġm e",
      "kie m",
      "Ġw i",
      "s o",
      "Ġb a",
      "kÅĤa d",
      "u l",
      "Ġ ar",
      "ĠC h",
      "iÄĻ dzy",
      "m p",
      "ch a",
      "l ÄĻ",
      "Ġwo j",
      "s iÄĻ",
      "cj ÄĻ",
      "ni k",
      "Ġg ru",
      "Ġp i",
      "n t",
      "Ã³ l",
      "sk o",
      "dz a",
      "r i",
      "Ġw e",
      "P o",
      "na k",
      "Ġ 4",
      "Ġm i",
      "j i",
      "Ġs p",
      "or y",
      "w Ã³",
      "Ġ le",
      "ny mi",
      "e l",
      "Ġ2 00",
      "lo gi",
      "owa nia",
      "Ġ ,",
      "Ġby ÅĤ",
      "ia ÅĤa",
      "te m",
      "ni c",
      "I I",
      "ra l",
      "Ġf i",
      "ÅĽ cie",
      "n g",
      "w ar",
      "owa ÅĤ",
      "Ġpo z",
      "Ġte Å¼",
      "1 8",
      "c Ã³w",
      "ĠR o",
      "Ġ Å¼y",
      "b u",
      "Ġm u",
      "ta ch",
      "k Äħ",
      "ie l",
      "ow Äħ",
      "ĠP a",
      "Ġmie j",
      "l Äħ",
      "owy m",
      "c je",
      "ĠJ a",
      "dz o",
      "u ro",
      "# #",
      "Å¼ o",
      "ĠPo l",
      "Ġpow sta",
      "un k",
      "Ġs wo",
      "ni i",
      "Ġo r",
      "Ġo s",
      "ni ÄĻ",
      "Â ł",
      "cza s",
      "cz nie",
      "nie Å¼",
      "t wo",
      "ar y",
      "ĠW y",
      "st e",
      "e c",
      "ski ch",
      "t ro",
      "Ġ 5",
      "n owi",
      "Ġw sp",
      "si Äħ",
      "Ġs o",
      "Ġjed nak",
      "t r",
      "f or",
      "Ġdz iaÅĤa",
      "Ġu Å¼y",
      "ni o",
      "t i",
      "u k",
      "g e",
      "z o",
      "Ġ ca",
      "Ġzosta ÅĤ",
      "s ce",
      "cz nej",
      "Ġte go",
      "ĠÅĽ wia",
      "Ġna z",
      "p rowa",
      "Ġmo Å¼",
      "owa nie",
      "ĠrÃ³w nieÅ¼",
      "ĠN ie",
      "cz ny",
      "l ko",
      "Ġb i",
      "Ġw ar",
      "2 0",
      "ĠÅ ļ",
      "cz ÄĻ",
      "Ġli cz",
      "le j",
      "l ar",
      "szy ch",
      "e j",
      "d en",
      "ĠB o",
      "Ġi ch",
      "t ni",
      "szy st",
      "Ġk ra",
      "Ġo p",
      "ĠS ta",
      "sk u",
      "a k",
      "ga ni",
      "d ob",
      "t k",
      "w iÄĻ",
      "Ġd u",
      "ĠM i",
      "p rze",
      "Ġp re",
      "ĠD o",
      "Ġb o",
      "Ġg ra",
      "Ġb ez",
      "Ġpo l",
      "Ġ V",
      "Ġd y",
      "Ġpo li",
      "w or",
      "te go",
      "Ġwie ku",
      "Ġf or",
      "ki ch",
      "rÃ³ d",
      "Ġz wiÄħ",
      "Ġ rÃ³Å¼",
      "Ã³ b",
      "sz o",
      "ĠM ar",
      "Ġ no",
      "te k",
      "Ġwy ko",
      "h a",
      "t wa",
      "ĠL e",
      "h e",
      "ĠW ar",
      "d ÅĤu",
      "jÄħcy ch",
      "sz Äħ",
      "ci Äħ",
      "pa d",
      "Ġ 6",
      "f a",
      "Ġ rze",
      "st wa",
      "d nie",
      "Ġm iÄĻdzy",
      "Ġa k",
      "ĠM o",
      "Ġpa ÅĦst",
      "t rz",
      "Ġp e",
      "sz cze",
      "Ġko m",
      "st em",
      "p y",
      "stÄĻ pu",
      "Ġb ar",
      "Ġje j",
      "Ġna d",
      "Ġp owie",
      "g ÅĤo",
      "g Ã³l",
      "Ġp ar",
      "ia da",
      "n Ã³w",
      "Ġ19 9",
      "t ar",
      "Ġa u",
      "N a",
      "sz ka",
      "ĠR a",
      "ski m",
      "Ġp la",
      "Ġw szyst",
      "Ġwy da",
      "t rzy",
      "re s",
      "ĠS z",
      "a li",
      "Ġg ÅĤÃ³w",
      "ÄĻ d",
      "c Äħ",
      "ty w",
      "Ġ20 1",
      "Ġ lo",
      "le Å¼",
      "Ġzna j",
      "dz Äħ",
      "ÅĽ li",
      "Ġla tach",
      "Ġla t",
      "o k",
      "re m",
      "r Äħ",
      "b ra",
      "Ġg e",
      "Ã³ Åº",
      "Ġd ru",
      "n ty",
      "Ġa l",
      "Ġjed no",
      "dze nia",
      "l ne",
      "cz nego",
      "f ia",
      "cz na",
      "d owa",
      "Ġsta nowi",
      "i s",
      "Ġg a",
      "wie r",
      "pi sa",
      "g ie",
      "te ra",
      "p ÅĤy",
      "g ro",
      "Ġ19 4",
      "g lÄĻ",
      "Ġ 7",
      "Ġw iÄĻk",
      "âĢĿ ,",
      "d Ã³w",
      "pra w",
      "k ÄĻ",
      "Ġby Äĩ",
      "u s",
      "Ġpra w",
      "Ġpo lski",
      "ĠWar sza",
      "Ġa le",
      "pi sy",
      "Ġs ie",
      "Ġby ÅĤa",
      "o d",
      "m ery",
      "sk Äħ",
      "z ie",
      "tu ry",
      "b ar",
      "ĠR e",
      "Ġm ar",
      "ĠL i",
      "st ra",
      "mie r",
      "ĠI n",
      "d nia",
      "d em",
      "t ra",
      "dzia ÅĤ",
      "ÅĽ nie",
      "Ġmo Å¼e",
      "ÅĦ skiego",
      "Ġ1 7",
      "s owa",
      "w iÄĻk",
      "Ġ 8",
      "ka ch",
      "ne k",
      "Ġk rÃ³",
      "n owa",
      "lo g",
      "P rzy",
      "ru k",
      "szy m",
      "ĠB a",
      "Ġst y",
      "st nie",
      "ĠW o",
      "k ry",
      "t h",
      "pe ra",
      "ne r",
      "Ġst ro",
      "f e",
      "ch i",
      "âĢ Ļ",
      "Ġt en",
      "Ġby ÅĤo",
      "er s",
      "Ġf unk",
      "sz ta",
      "Ġp owo",
      "Ġh ist",
      "st Äħ",
      "Ã³Åº niej",
      "Ġ 9",
      "Ġ19 8",
      "z owa",
      "Ġ1 5",
      "Ġpo s",
      "or u",
      "wa ÅĤ",
      "er w",
      "Ġod p",
      "d s",
      "Ġo ko",
      "sz cza",
      "ĠI I",
      "ckie go",
      "le m",
      "cze nie",
      "Ġpo cho",
      "Ġ c",
      "Ġt ra",
      "Ġwz glÄĻ",
      "dÅĤu g",
      "Ġk la",
      "t ry",
      "Ã³ÅĤ no",
      "u sz",
      "sÅĤa w",
      "Ġn p",
      "sta w",
      "Ġ ru",
      "âĢĿ .",
      "p ro",
      "cze nia",
      "s ÅĤ",
      "Ġk il",
      "st u",
      "s Ã³w",
      "Ġor gani",
      "Ġs k",
      "Ġw a",
      "b er",
      "Ġokre ÅĽ",
      "d ar",
      "Ġ ju",
      "b e",
      "Ġg dy",
      "rz u",
      "nÄĻ trz",
      "Ġp u",
      "1 7",
      "ch ni",
      "t nie",
      "Ġty lko",
      "ĠE uro",
      "i m",
      "Ġs u",
      "cze s",
      "ĠS a",
      "Ġprze ci",
      "ĠczÄĻ ÅĽci",
      "ĠT a",
      "Ġba da",
      "ne m",
      "Ġmia sta",
      "Ġ1 0",
      "dzi ÅĤ",
      "Ġby ÅĤy",
      "c jÄħ",
      "Ġpo czÄħ",
      "li k",
      "ĠktÃ³ ra",
      "Ġ ry",
      "rz ÄĻ",
      "Ġk ul",
      "Ġ19 3",
      "ci u",
      "Ġwsp Ã³ÅĤ",
      "g Äħ",
      "dzie j",
      "Ġos ob",
      "w nÄĻtrz",
      "Ġ ÅĤa",
      "R T",
      "o gra",
      "Ġznaj du",
      "Ġt wo",
      "du k",
      "I C",
      "ĠmoÅ¼ na",
      "ĠktÃ³ry ch",
      "ni kÃ³w",
      "l nych",
      "t w",
      "ur ce",
      "ĠA r",
      "st wo",
      "n ku",
      "rzÄħ d",
      "Ġko lej",
      "L E",
      "m iÄĻ",
      "Ġpo sta",
      "Ġp Ã³Åºniej",
      "Ġ cy",
      "ÅĤ owie",
      "Ġin nych",
      "Ġte j",
      "re dni",
      "Ġso urce",
      "ĠO d",
      "Ġsa mo",
      "h o",
      "szta ÅĤ",
      "zy wa",
      "ĠW iel",
      "ĠPo lski",
      "1 0",
      "w er",
      "Ġw iÄĻ",
      "Ġz ie",
      "ÅĤ ÄĻ",
      "ĠA RT",
      "## #",
      "wor ds",
      "Ã³ d",
      "ĠART IC",
      "ĠARTIC LE",
      "du mp",
      "Ġ1 6",
      "d no",
      "ka za",
      "kÅĤa da",
      "d i",
      "ter y",
      "Ġsy stem",
      "Ġmiej s",
      "rz o",
      "ĠT e",
      "sze j",
      "ĠK on",
      "b ud",
      "na d",
      "Ġ1 2",
      "k tÃ³",
      "le men",
      "Ġ19 7",
      "h i",
      "Ġspo ÅĤe",
      "ki m",
      "ch e",
      "1 5",
      "wie t",
      "Ġni Å¼",
      "Ã³ÅĤno c",
      "cz nym",
      "st rze",
      "ĠF ran",
      "ma n",
      "s cho",
      "Ġi stnie",
      "Ġte re",
      "pe j",
      "Ġsz e",
      "tu ra",
      "ow ski",
      "Ġwo je",
      "ma ch",
      "Ġpro ce",
      "Ġnie mie",
      "Ġt u",
      "z mu",
      "ĠP rze",
      "wa nia",
      "z i",
      "ĠW e",
      "ty ch",
      "g en",
      "mi na",
      "Ġu wa",
      "ĠW a",
      "Ġroz po",
      "for ma",
      "Ġu zna",
      "Ġna stÄĻp",
      "t ki",
      "Å¼ Äħ",
      "t ÄĻ",
      "Ġmie szka",
      "Ġspo s",
      "s em",
      "za cji",
      "ĠW i",
      "Ġpoz osta",
      "Ġprzeci w",
      "wa Å¼",
      "mery ka",
      "cz nÄħ",
      "ÅĤo n",
      "sze ch",
      "Ġ cie",
      "m owa",
      "st ro",
      "Ġch a",
      "z w",
      "dze nie",
      "ĠuÅ¼y wa",
      "ĠzwiÄħ z",
      "Ġk ry",
      "trzy ma",
      "s ÅĤu",
      "Ġb ud",
      "1 6",
      "Ġd ÅĤu",
      "ka mi",
      "Ġswo je",
      "Ġg dzie",
      "l ny",
      "Ġ20 2",
      "sty tu",
      "Ġprzed sta",
      "m Ã³w",
      "r Ã³w",
      "Ġf a",
      "ÅĦ skiej",
      "ĠC z",
      "Ġe k",
      "k re",
      "Ġs pe",
      "ĠÅĽwia t",
      "Ġzosta ÅĤa",
      "Ġk ie",
      "ni cy",
      "mia st",
      "Przy pisy",
      "Å¼e j",
      "Ġo zna",
      "Ġ19 6",
      "Ġcza sie",
      "Ġ cho",
      "c k",
      "to ra",
      "1 4",
      "Ġni ch",
      "rze nia",
      "k ro",
      "ĠktÃ³re j",
      "kie j",
      "pa da",
      "ĠPol sce",
      "a t",
      "mie nia",
      "p re",
      "Ġo f",
      "or t",
      "ko ÅĦ",
      "w u",
      "Ġpod czas",
      "Ġp rowa",
      "Ġf il",
      "s er",
      "mi i",
      "Ġz wy",
      "ÅĤu dni",
      "Ġs i",
      "Ġza ch",
      "t Äħ",
      "ÅĽ cia",
      "kie go",
      "Ġ1 4",
      "ĠP i",
      "Ġju Å¼",
      "d ow",
      "1 2",
      "na ch",
      "to li",
      "le r",
      "ni ku",
      "ch y",
      "Ġw pÅĤy",
      "ÅĤ owa",
      "or ia",
      "cy ch",
      "Ġsty cz",
      "ch u",
      "la n",
      "Ġoko ÅĤo",
      "ĠA l",
      "l nie",
      "k ty",
      "Ġ jÄħ",
      "sze go",
      "ĠD a",
      "le ga",
      "ÅĤ k",
      "ce j",
      "ĠA u",
      "ob a",
      "j o",
      "Ġty ch",
      "wie ra",
      "ĠÅĽ mier",
      "o l",
      "ÅĽ rÃ³d",
      "t ku",
      "Ġprzy pad",
      "ÅĦ ska",
      "Ġe lek",
      "Ġz bi",
      "Ġ1 3",
      "st Ã³w",
      "Ġcha rak",
      "Ġ19 5",
      "sy j",
      "Ġz ÅĤo",
      "Ġob ec",
      "Ġs e",
      "Åº dzie",
      "Ġu sta",
      "tu r",
      "b ro",
      "Ġwy stÄĻpu",
      "Ġo n",
      "li wo",
      "d er",
      "ÅĦst wa",
      "m ar",
      "no si",
      "te j",
      "Ġpo mo",
      "c ka",
      "l nej",
      "Ġo sta",
      "Ġ -",
      "Ġpro gra",
      "Ġje dy",
      "tycz ne",
      "c er",
      "ÅĦ skie",
      "i um",
      "la nd",
      "ĠM e",
      "Ġodp owie",
      "stÄħ pi",
      "Ġko ÅĦ",
      "z ji",
      "mi o",
      "Ġza ÅĤo",
      "mie n",
      "in g",
      "ni wer",
      "Ġi m",
      "ckie j",
      "i bli",
      "ÄĻ g",
      "ni ca",
      "ĠÅĽ rod",
      "ĠwÅĤa s",
      "1 3",
      "ĠczÄĻ ÅĽÄĩ",
      "Ġna u",
      "ĠktÃ³ry m",
      "K o",
      "Ġcz e",
      "Ġza cho",
      "Ġob ie",
      "Ġre li",
      "ni Äħ",
      "ĠL a",
      "k ra",
      "t ka",
      "Ġpo prze",
      "ĠÅ ģ",
      "ĠPo d",
      "re n",
      "or ii",
      "Ġw prowa",
      "Ġ v",
      "jÄħ ca",
      "Ġka Å¼",
      "ĠG e",
      "Ġpo ja",
      "ÅĤy ch",
      "gi i",
      "cki ch",
      "d ia",
      "Ġk ar",
      "n ow",
      "ĠktÃ³re go",
      "ĠJ o",
      "Ġsz cze",
      "wÃ³ dz",
      "00 0",
      "Ġpu bli",
      "p nia",
      "spo dar",
      "Z a",
      "ko na",
      "ty ka",
      "Ġs zy",
      "Ġwy so",
      "te n",
      "wia z",
      "je dno",
      "l na",
      "Ġcz erw",
      "ĠL u",
      "ĠS o",
      "ÅĽ nia",
      "ĠH a",
      "Ġos Ã³b",
      "ĠczÄĻ sto",
      "Ġb ra",
      "de k",
      "Ġe lemen",
      "Ġw al",
      "Ġw rze",
      "Ġpos iada",
      "na mi",
      "pu bli",
      "ĠR ze",
      "s ji",
      "zy den",
      "Ġwyko rzy",
      "Ġsz ko",
      "t ru",
      "wa ne",
      "gra ni",
      "Ġma jÄħ",
      "Ġpro duk",
      "ĠKo ÅĽci",
      "ĠzwiÄħ za",
      ". ,",
      "Åºdzie r",
      "ra ch",
      "Ġbar dzo",
      "Å¼e nia",
      "ĠB y",
      "Ġze wnÄĻtrz",
      "ĠÅ »",
      "Ġsto su",
      "le n",
      "ĠP ar",
      "Ġpo m",
      "Ġp ier",
      "Ġt rze",
      "ĠG a",
      "l nego",
      "Ġ raz",
      "l noÅĽci",
      "Ġ19 2",
      "logi i",
      "w en",
      "ĠX V",
      "ĠZ ie",
      "r ow",
      "Ġli p",
      "Ġz w",
      "ÅĦski ch",
      "Ġlu d",
      "Ġwy b",
      "ĠN e",
      "Ġpa Åºdzier",
      "Ġs ob",
      "wÃ³ j",
      "Ġspos Ã³b",
      "ĠP rzy",
      "Ġpe ÅĤ",
      "li a",
      "je m",
      "men ta",
      "Ġza sa",
      "sta n",
      "ia ÅĤ",
      "* *",
      "Ġli sto",
      "Ġpowie rz",
      "Ġwie lu",
      "ni ki",
      "ar Ã³w",
      "Ġmiej sce",
      "ĠG o",
      "ĠNa j",
      "Ġd ro",
      "ĠT o",
      "Ġna uk",
      "Ġa d",
      "Ġh o",
      "Ġm niej",
      "ro n",
      "Ġsz tu",
      "Ġin ter",
      "Ġs ku",
      "Ġty s",
      "po l",
      "Å¼ u",
      "Ġk siÄĻ",
      "wa nie",
      "ĠH e",
      "ĠpaÅĦst wa",
      "sy te",
      "Ġli tera",
      "Ġs ÅĤu",
      "Ġza wiera",
      "ĠX I",
      "lo zo",
      "Ġpierw szy",
      "ÅĦ cÃ³w",
      "Ġpo nad",
      "ma t",
      "Ġ ciÄħ",
      "ĠX X",
      "Ġs ka",
      "Ġmo gÄħ",
      "Ġstycz nia",
      "i ch",
      "d Åº",
      "Ġs ier",
      "t rze",
      "ĠwiÄĻk szo",
      "tu ral",
      "Ġk wiet",
      "ĠD e",
      "niwer syte",
      "ÅĤ ow",
      "ĠB e",
      "W y",
      "Ġk u",
      "bud owa",
      "Ġf ran",
      "Ġpo pu",
      "Ġb u",
      "Ġcz ÅĤon",
      "st ar",
      "da w",
      "Ġwoj ny",
      "ĠÅ¼y cia",
      "ĠA n",
      "czy ÅĤ",
      "d niej",
      "po dob",
      "ĠC o",
      "Ġdo da",
      "Ġt rak",
      "cze j",
      "r ia",
      "Ġz mia",
      "Ġs er",
      "Ġgru dnia",
      "Å¼e nie",
      "Ġ ÅĤÄħ",
      "Ã ©",
      "Ġna le",
      "Ġz da",
      "n p",
      "Ġczy li",
      "Ġk siÄħ",
      "czo ne",
      "Ġwie le",
      "mu je",
      "ty j",
      "Ġa na",
      "ÅĽ niej",
      "tycz nych",
      "Ġa meryka",
      "ÅĤe j",
      "on u",
      "oba cz",
      "ÅĤ em",
      "Ġo ÅĽ",
      "pe ÅĤ",
      "g lÄħ",
      "m niej",
      "Ġnie ktÃ³",
      "je k",
      "Ġt zw",
      "Ġ ne",
      "Ġt er",
      "Ġt rzy",
      "mi ni",
      "Ġozna cza",
      "Ġp Ã³ÅĤnoc",
      "to ÅĽci",
      "Ġlicz b",
      "Ġ 0",
      "czo nych",
      "Ġge ne",
      "po zy",
      "w Ã³r",
      "Ġ rzÄħ",
      "cz u",
      "jÄħce go",
      "s ek",
      "Ġkla sy",
      "Ġ Åº",
      "ra b",
      "Ġpra c",
      "ÅĤe go",
      "fi ka",
      "Ġma ja",
      "ogra fia",
      "Ġh i",
      "Ġpod ob",
      "s cy",
      "Ġpi sa",
      "z en",
      "ta mi",
      "ĠH i",
      "ar d",
      "ĠP ro",
      "Ġkra ju",
      "k sztaÅĤ",
      "Ġna zywa",
      "Ġnaj wiÄĻk",
      "u t",
      "Ġmia ÅĤ",
      "ĠS y",
      "to miast",
      "1 1",
      "Ġu zy",
      "ow iada",
      "ÅĤo ÅĽci",
      "Ġkil ka",
      "sÅĤa wa",
      "Ġar ty",
      "ĠP ra",
      "ĠC a",
      "owi Äħ",
      "Ġu two",
      "ma ty",
      "Ġ [",
      "Ġod by",
      "ĠO r",
      "Ġk wa",
      "ko ÅĽci",
      "Ġwoj sk",
      "Ġczerw ca",
      "Ġw raz",
      "le nia",
      "Ġg ÅĤo",
      "p ar",
      "ĠpaÅĦst w",
      "Ġznajdu je",
      "Ġd wa",
      "Ġokre sie",
      "Ġpo da",
      "le nie",
      "Ġt ran",
      "n s",
      "Ġhist ory",
      "Ġza j",
      "Ġmar ca",
      "2 00",
      "men t",
      "wÃ³ ch",
      "l noÅĽÄĩ",
      "jÄħc Äħ",
      "log ia",
      "Ġsa my",
      "Z obacz",
      "ce p",
      "ĠNa rod",
      "dob y",
      "Ġg wiaz",
      "Ġwie l",
      "to m",
      "jÄħce j",
      "ko n",
      "ĠK ra",
      "mie ni",
      "Ġd wÃ³ch",
      "Ġs il",
      "ĠM u",
      "wi o",
      "Ġfi lozo",
      "Ġjedno st",
      "c iÄĻ",
      "Ġ =",
      "Ġkwiet nia",
      "d Äħ",
      "Ġko nie",
      "st er",
      "ĠjÄĻzy ka",
      "Ġw ers",
      "do podob",
      "Ġro dza",
      "ĠwzglÄĻ du",
      "ro m",
      "Ġfran cu",
      "Ġpod staw",
      "Ġw ia",
      "g na",
      "czy ch",
      "Ġwrze ÅĽnia",
      "Ġlip ca",
      "cze ÅĽnie",
      "f o",
      "ĠÅĽ wie",
      "iÄĻ ki",
      "ĠgÅĤÃ³w nie",
      "Ġuwa Å¼a",
      "L in",
      "ne t",
      "ce n",
      "ĠM ie",
      "ĠW ie",
      "ĠJ u",
      "Ġna da",
      "Ġro dzi",
      "na rod",
      "z ja",
      "st ruk",
      "we t",
      "ĠT y",
      "ÄĻd Äħ",
      "wa ny",
      "ĠpaÅºdzier nika",
      "Ġp an",
      "le g",
      "cze ÅĽniej",
      "Ġs ek",
      "tk owo",
      "Ġgo spodar",
      "Ġa t",
      "Ġmu zy",
      "or Ã³w",
      "Ġp ie",
      "cki m",
      "ĠS e",
      "Ġdz i",
      "u sza",
      "Ġz go",
      "ta li",
      "Ġpar t",
      "sp Ã³ÅĤ",
      "rze ÅĽci",
      "Ġok rÄĻ",
      "Ġpoli ty",
      "mo Å¼",
      "Ġh e",
      "Ġpa ra",
      "J e",
      "rzy m",
      "Ġpe w",
      "ĠjÄĻzy k",
      "Ġwszyst kich",
      "ĠzewnÄĻtrz ne",
      "Ġp rÃ³",
      "owa rzy",
      "Ġh a",
      "Ġwoje wÃ³dz",
      "Ġs praw",
      "cyj ne",
      "Ġpo r",
      "g ÄĻ",
      "5 0",
      "pra c",
      "Ġpo ÅĽ",
      "rzeÅĽci ja",
      "ca ch",
      "Ġfi zy",
      "Ġwy ra",
      "19 9",
      "Ġo trzyma",
      "Ġzosta ÅĤy",
      "la cji",
      "ob ec",
      "d ÄĻ",
      "Ġwy niku",
      "Ġm l",
      "ÅĦski m",
      "cze niu",
      "Ġ3 0",
      "sz u",
      "Ġme to",
      "ĠO b",
      "Ġu l",
      "l nym",
      "Ġpo ÅĤudni",
      "ĠI II",
      "ro ni",
      "m bo",
      "v e",
      "tor y",
      "e mi",
      "d ra",
      "r wa",
      "Ġcza s",
      "Ġce lu",
      "Ġte m",
      "Ġob sz",
      "Ġsto sowa",
      "ĠB er",
      "te l",
      "ĠR u",
      "Ġpre zyden",
      "Ġcz ÅĤowie",
      "b ur",
      "Ġwsp Ã³l",
      "ĠH o",
      "pi su",
      "Ġza ÅĽ",
      "Ġpowo du",
      "II I",
      "Ġtra dy",
      "Ġw scho",
      "Ġroz wi",
      "Ġlisto pada",
      "Ġsier pnia",
      "t wie",
      "3 0",
      "m or",
      "ĠÅĽ w",
      "l owa",
      ". )",
      "to n",
      "st i",
      "nia ch",
      "Ġwy wo",
      "Lin ki",
      "P lik",
      "ĠB ry",
      "mi n",
      "li n",
      "D o",
      "ia n",
      "Ġau to",
      "p er",
      "re k",
      "na r",
      "Ġod kry",
      "st w",
      "ĠZ jedno",
      "Ġma ter",
      "Ġce nt",
      "Ġp ÅĤy",
      "ĠK rÃ³",
      "Ġnaz w",
      "sz pa",
      "Ġ :",
      "ĠdÅĤu go",
      "ma ga",
      "ĠJ an",
      "cyj nych",
      "ti on",
      "wo lu",
      "ci ÅĤ",
      "Ġg ro",
      "t ne",
      "Ġwy zna",
      "wiÄħ za",
      "Ġs pra",
      "Ġb ÄĻdÄħ",
      "Ġwy nosi",
      "Ġna wet",
      "owy mi",
      "jÄħcy m",
      "ÅĤy m",
      "ĠÅĽmier ci",
      "nic two",
      "ĠokreÅĽ la",
      "Ġa by",
      "ow skiego",
      "Ġp unk",
      "le gÅĤo",
      "Ġst ra",
      "Ġin ne",
      "Ġe ner",
      "Ġa ng",
      "lu b",
      "Ġpra wa",
      "ry wa",
      "Ġ cia",
      "on Äħ",
      "ĠrÃ³Å¼ nych",
      "Ġm ÄĻ",
      "n k",
      "Ġta m",
      "j Ã³w",
      "Ġmi li",
      "an d",
      "fi ni",
      "Ġuzy ska",
      "Ġszcze gÃ³l",
      "li i",
      "ĠN i",
      "Ġsamy m",
      "Ġni m",
      "Ġna rod",
      "Ġko mu",
      "dz in",
      "B ibli",
      "Ġpowierz chni",
      "zu je",
      "Ġsa m",
      "le s",
      "ĠÅĽ redni",
      "Ġlu tego",
      "rze nie",
      "sta wie",
      "wo dni",
      "ĠnastÄĻp nie",
      "Ġm ÅĤo",
      "Ġte k",
      "Ġgru py",
      "s ar",
      "i r",
      "n ki",
      "k m",
      "Ġsa me",
      "Ġdru gie",
      "la z",
      "ĠWo j",
      "uro pej",
      "sz czy",
      "Ġd owo",
      "Ġpo ÅĤÄħ",
      "Ġin forma",
      "f t",
      "ĠwÅĤa ÅĽci",
      "Ġs kÅĤada",
      "kÅĤa du",
      "Ġwe dÅĤug",
      "ĠksiÄħ Å¼",
      "cj ona",
      "ĠwpÅĤy w",
      "Ġn owo",
      "ze um",
      "ce go",
      "Ġna tomiast",
      "n ta",
      "Ġmieszka ÅĦcÃ³w",
      "p li",
      "my sÅĤ",
      "Ġpo zy",
      "Ġprzypad ku",
      "le w",
      "Ġza mie",
      "fi i",
      "Ġm y",
      "Ġs za",
      "l nÄħ",
      "ĠWarsza wa",
      "ÅĦst wo",
      "Ġjed en",
      "Ġwyko na",
      "Ġrze czy",
      "wy Å¼",
      "ĠL o",
      "Ġtem pera",
      "cza j",
      "M a",
      "moÅ¼ li",
      "Ġz wie",
      "k ar",
      "jÄħ ÅĤ",
      "wa Äĩ",
      "Ġw ÄĻg",
      "Ġpoz io",
      "d ro",
      "ĠXI X",
      "Ġda w",
      "cz noÅĽci",
      "Ġkom pu",
      "czo ny",
      "Ġf o",
      "v i",
      "Ġda nych",
      "Ġd wu",
      "ĠR zy",
      "Ġkil ku",
      "Ġjedy nie",
      "Ġz de",
      "R o",
      "Ġta kie",
      "ĠS ÅĤo",
      "2 5",
      "f ek",
      "ĠW il",
      "k le",
      "Ġb ie",
      "Ġpra wo",
      "I n",
      "Ġ )",
      "Ġpom iÄĻdzy",
      "tu a",
      "Ġu ro",
      "owa Äĩ",
      "nie waÅ¼",
      "Ġbar dziej",
      "Ġt wÃ³r",
      "gi j",
      "dni o",
      "Ġdo b",
      "Ġ â",
      "Ġmiejs c",
      "Ġd ia",
      "j p",
      "Ġw ska",
      "pi s",
      "Ġlicz by",
      "Ġwie lo",
      "cho dzi",
      "ĠP e",
      "Ġsta nu",
      "ĠpoczÄħ tku",
      "za leÅ¼",
      "Ġle cz",
      "Ġo pera",
      "Ġsto p",
      "ma tycz",
      "Ġzosta ÅĤo",
      "ĠZ e",
      "Ġst ud",
      "Ġsta ro",
      "owa ne",
      "Ġ Å¼a",
      "K a",
      "leÅ¼ Äħ",
      "Ġst ruk",
      "Ġ Å¼",
      "Ġo ne",
      "Ġo siÄħ",
      "l or",
      "Ġre gi",
      "Ġz doby",
      "Ġza koÅĦ",
      "il l",
      "Ġo na",
      "cie m",
      "ĠW ÅĤa",
      "Ġ2 5",
      "ÅĽcie j",
      "on Ã³w",
      "rÃ³ j",
      "Ġpra cy",
      "ÅĦ ca",
      "Ġposta ci",
      "ĠJe d",
      "Ã³w czas",
      "bar dziej",
      "L i",
      "Ġtere nie",
      "Ġst ar",
      "nic twa",
      "Ġo fi",
      "q u",
      "Ġelek tro",
      "ĠU niwersyte",
      "Ġga tu",
      "Ã³ j",
      "g Ã³w",
      "ko m",
      "cyj ny",
      "ĠktÃ³ rzy",
      "Ġs kÅĤad",
      "19 4",
      "Ġszy b",
      "Ġroz wo",
      "Ġprzy kÅĤad",
      "Ġu cze",
      "Ġml n",
      "P a",
      "er u",
      "s en",
      "Ġpo ÅĤo",
      "Ġm or",
      "mini stra",
      "tor Ã³w",
      "ist oria",
      "ÅĽ wia",
      "ery tor",
      "Ġod dzia",
      "po d",
      "Ġstro ny",
      "jp g",
      "Ġg Ã³r",
      "Ġpoprze z",
      "Ġsp rze",
      "liwo ÅĽci",
      "Ġp sy",
      "ĠwiÄĻ c",
      "Ġu mie",
      "s ja",
      "Ġprzy jÄĻ",
      "Ġi lo",
      "ĠK ar",
      "ĠÅº rÃ³d",
      "Ġw czeÅĽniej",
      "Ġcz Äħ",
      "bie ra",
      "ce nia",
      "j ski",
      "Ġ Å¼o",
      "za cja",
      "arÃ³w no",
      "Ġt ÅĤu",
      "ry ch",
      "Ġmia sto",
      "Ġb ry",
      "owo ÅĽci",
      "l ni",
      "Ġje szcze",
      "Ġce sa",
      "Ġza war",
      "o te",
      "ra mi",
      "ĠC y",
      "âĢ ŀ",
      "Ġfor ma",
      "Ġta kich",
      "ĠA nd",
      "Ġjed nym",
      "Ã³ g",
      "an g",
      "z io",
      "p or",
      "Ġpla ne",
      "sa ch",
      "Ġob ej",
      "Bibli ografia",
      "nie nia",
      "ni sty",
      "Ġnaz wa",
      "Ġwszyst kie",
      "Ġin te",
      "Ġ Y",
      "ĠR y",
      "ÅĤk owi",
      "k e",
      "Ġprze prowa",
      "Ġdzie dzi",
      "g ar",
      "tu rze",
      "Ġcza su",
      "ĠJe st",
      "Ġrozpo czÄĻ",
      "Ġre gu",
      "2 4",
      "Ġkie ru",
      "Ġ1 00",
      "ra cji",
      "ĠF i",
      "S A",
      "k Ã³ÅĤ",
      "ĠB ar",
      "ÅĽ ni",
      "li sty",
      "Ġst wo",
      "ĠC e",
      "ĠNie m",
      "P rze",
      "men tu",
      "Ġlu dzi",
      "Ġko bie",
      "ĠÅĽwie cie",
      "Ġch rzeÅĽcija",
      "Ġprzedsta wi",
      "g ne",
      "Ġw ÅĽrÃ³d",
      "Ġo j",
      "Ġko ÅĽci",
      "Ġ1 1",
      "Ġpoli tycz",
      "Ġna tural",
      "Ġ19 0",
      "Ġpro jek",
      "Ġwo d",
      "Ġch emi",
      "ĠÅĽwia ta",
      "Ġnale Å¼y",
      ") ;",
      "spo li",
      "Ġobie k",
      "Ġlicz ba",
      "z wy",
      "ty m",
      "Ġty pu",
      "Ġre ak",
      "Ġ rzym",
      "wa la",
      "Ġna stÄĻpu",
      "v a",
      "Ġpo e",
      "Ġo grani",
      "to ÅĽÄĩ",
      "ĠÅļ wiÄĻ",
      "ta n",
      ": :",
      "Ġprzy czy",
      "Ġka toli",
      "Ġo t",
      "Ġpow szech",
      "Ġte le",
      "czy Äĩ",
      "m pa",
      "Ġsy mbo",
      ". .",
      "Ġwie lko",
      "Ã³ ze",
      "ĠS u",
      "no mi",
      "pre zen",
      "ko ÅĤa",
      "Ġop ar",
      "ĠL ud",
      "Ġo g",
      "Ġi de",
      "c ÅĤa",
      "Ġma te",
      "i Äħ",
      "Ġgru p",
      "2 3",
      "Ġpraw dopodob",
      "O d",
      "Ġin nymi",
      "ÄĻ dzie",
      "d ÅĤ",
      "b ia",
      "ĠJe go",
      "ĠT he",
      "Ġpro b",
      "Ġd wie",
      "pu szcza",
      "Å¼o ne",
      "ser wa",
      "N ie",
      "Ġdz iÄĻki",
      "n kÃ³w",
      "Ġa ni",
      "ĠEuro pej",
      "po ÅĽ",
      "Ġspe cja",
      "Ġwi Äħ",
      "s ch",
      "Ġob raz",
      "ĠD u",
      "ĠjÄĻzy ku",
      "Ġnie go",
      "Ġn r",
      "Ġlud noÅĽci",
      "o ÅĤa",
      "Ġt wier",
      "Ġwar un",
      "k sy",
      "st wie",
      "ni ÅĤ",
      "Ġu dziaÅĤ",
      "Ġt erytor",
      "2 2",
      "Ġpo za",
      "le i",
      "Ġlo ka",
      "Ġg re",
      "ja wi",
      "Ġo gÃ³l",
      "ĠK siÄĻ",
      "li cy",
      "Ġna leÅ¼Äħ",
      "rÃ³ t",
      "t wier",
      "czÄħ ÅĤ",
      "Ġp ÅĤa",
      "ĠCh o",
      "w skiego",
      "Ġza czÄĻ",
      "Ġ +",
      "Ġo sa",
      "8 0",
      "d io",
      "ĠK rzy",
      "Ġa nty",
      "owa ny",
      "ĠZie mi",
      "Ġek sp",
      "19 3",
      "Ġwz ro",
      "w ski",
      "te dy",
      "Ġkon ty",
      "nÄħ ÅĤ",
      "g ia",
      "cze go",
      "si ÅĤ",
      "ĠC en",
      "Ġrzeczy wi",
      "na j",
      "Ġ2 4",
      "Ġza sto",
      "Ġpolski ch",
      "Ġp iÄĻ",
      "Ġro syj",
      "wa li",
      "Ġca ÅĤkowi",
      "t nych",
      "sa nd",
      "Ġw Ã³wczas",
      "Ġ en",
      "tw Ã³r",
      "Ġz arÃ³wno",
      "Ġkie dy",
      "W e",
      "i na",
      "Ġm Ã³w",
      "Ġpomo cÄħ",
      "Ġwar toÅĽci",
      "ĠÅ» y",
      "ta cji",
      "Ġt rwa",
      "Ġczy n",
      "ĠÅĽ wiÄĻ",
      "Ġty tu",
      "Ġno r",
      "Ġpopu lar",
      "ĠM ia",
      "ĠF e",
      "ĠH en",
      "ni kiem",
      "ĠwzglÄĻ dem",
      "de l",
      "d r",
      "Ġcharak tery",
      "ĠÅĽwiat owej",
      "ĠK rak",
      "v er",
      "ÅĤ nie",
      "Ã ¼",
      "b or",
      "li na",
      "Ġreli gij",
      "sze nie",
      "me tr",
      "dzi Äĩ",
      "ta k",
      "Ġob y",
      "Ġro ÅĽli",
      "Ġad ministra",
      "Ġt ru",
      "su al",
      "st ru",
      "Ġza m",
      "Ġstanowi Äħ",
      "sz ÅĤo",
      "ĠniektÃ³ rych",
      "wi cz",
      "Ġwy sp",
      "p ÅĤa",
      "ĠzwiÄħz ku",
      "6 0",
      "Ġb io",
      "Ġd ow",
      "Ġkonie c",
      "lek sand",
      "Ġna pisa",
      "ĠSta ni",
      "u sa",
      "ĠKo mi",
      "ce nt",
      "ta l",
      "er wo",
      "Ġprze strze",
      "ĠP u",
      "r ii",
      "ĠS i",
      "Ġob ro",
      "re a",
      "p ia",
      "Ġnie wie",
      "ĠJ Ã³ze",
      "Ġsob ie",
      "sz ko",
      "Ġhist orii",
      "Ġw obec",
      "ĠWarsza wie",
      "Ġbry tyj",
      "Ġczy m",
      "Ġtwo rzÄħ",
      "Ġpierw sze",
      "ĠW in",
      "wa na",
      "Ġw ier",
      "czÄĻ ÅĽciej",
      "Ġwszyst kim",
      "Ġswo ich",
      "f ry",
      "R e",
      "Ã ¶",
      "wiÄħ z",
      "ÅĤ ka",
      "2 6",
      "Ġdo ku",
      "ĠPo zna",
      "wa l",
      "g h",
      "Ġmia ÅĤa",
      "lo na",
      "Å¼y ÅĤ",
      "pie ro",
      "2 7",
      "t kÃ³w",
      "Ġw ÅĤo",
      "Ġpod stawie",
      "Ġwoje n",
      "ĠJo h",
      "ĠZjedno czonych",
      "ĠRo z",
      "Po d",
      "ĠG u",
      "Ġsta nie",
      "d li",
      "ĠczÅĤowie ka",
      "ĠÅļ lÄħ",
      "siÄĻ cy",
      "ch ro",
      "Ġs ko",
      "p rzy",
      "19 7",
      "lo ne",
      "Ã ¡",
      "tycz Äħ",
      "le t",
      "sz cz",
      "po spoli",
      "Ġde cy",
      "la ch",
      "x t",
      "Ġ5 0",
      "Ġby li",
      "Ġk m",
      "Na j",
      "ĠB u",
      "Ġza leÅ¼",
      "Ġsu b",
      "z ra",
      "2 1",
      "ĠB i",
      "Ġwy rÃ³Å¼",
      "rz ÄĻd",
      "Ġk an",
      "Ġf ak",
      "re w",
      "p owie",
      "ĠwspÃ³ÅĤ czes",
      "ÅĽ la",
      "Ġb li",
      "wy ch",
      "Ġ lek",
      "Ġwa Å¼",
      "Ġsy n",
      "o ny",
      "s pe",
      "Ġo pie",
      "Ġbi sku",
      "Ġnie j",
      "ro s",
      "t io",
      "Ġty p",
      "Ġkra j",
      "Ġau tor",
      "ĠJa na",
      "Ġk sztaÅĤ",
      "r ie",
      "ĠwiÄĻ cej",
      "Ġze spo",
      "ĠS te",
      "Ġ Ð",
      "Â °",
      "Ġr ÄĻ",
      "H istoria",
      "ĠWe dÅĤug",
      "Å¼o ny",
      "Ġza po",
      "Ġla ta",
      "t ow",
      "Ġfil m",
      "ĠP ierw",
      "ĠG da",
      "cja ch",
      "ĠdziaÅĤa nia",
      "Ġro lÄĻ",
      "Ġar chi",
      "Ġpo jÄĻ",
      "2 8",
      "Ġot war",
      "Ġma szy",
      "Ġnaj bardziej",
      "ni ce",
      "le p",
      "Å ļ",
      "ra ca",
      "Ġwy ÅĤÄħ",
      "Ġ ci",
      "bi or",
      "ĠK u",
      "ru m",
      "pe w",
      "y a",
      "Ġdo tyczÄħ",
      "ni zm",
      "ĠP ow",
      "Ġzie m",
      "ĠÅĽrod owi",
      "ĠwiÄĻkszo ÅĽÄĩ",
      "fi kowa",
      "Ġobec nie",
      "ĠwystÄĻpu je",
      "ĠF a",
      "Ġbez poÅĽ",
      "ce nie",
      "Ġpo dzie",
      "sto ÅĽci",
      "ĠwÅĤa dz",
      "ja ch",
      "da ch",
      "li zowa",
      "Ġsie dzi",
      "s f",
      "c ÄĻ",
      "Ġrozwo ju",
      "b ÄĻ",
      "ce s",
      "Ġnaz wy",
      "do mo",
      "Ġt ÄĻ",
      "Ġcho Äĩ",
      "dzo no",
      "t wor",
      "t t",
      "cj o",
      "Ġlu dz",
      "Ġdzie ci",
      "t ny",
      "Ġnie z",
      "Ġsp owo",
      "Ġu da",
      "ĠB ra",
      "ĠD zie",
      "Ġ2 3",
      "te cznie",
      "we j",
      "Ġs ÅĤowa",
      "ĠBry ta",
      "Ġe mi",
      "Ġob owiÄħ",
      "ÅĤa szcza",
      "Ġdu Å¼y",
      "rzy sta",
      "ĠwiÄĻkszo ÅĽci",
      "Ġosob y",
      "cie l",
      "cho dzÄħ",
      "nie nie",
      "Ġwy bra",
      "Ġdo kona",
      "p h",
      "kÅĤa dy",
      "Ġte orii",
      "ĠÅ¼o ÅĤnie",
      "Ġza le",
      "dni ch",
      "s h",
      "Ġpo trze",
      "Ġjed nego",
      "Ġi sto",
      "t z",
      "ie ra",
      "Ġge o",
      "p ow",
      "Ġsy tua",
      "Ġsystem u",
      "lo ny",
      "Ġ18 9",
      "ĠwÅĤa dzy",
      "dy n",
      "Ġpowsta nia",
      "Ġpo ko",
      "ok ra",
      "Ġs ÅĤo",
      "da mi",
      "cz ki",
      "po lski",
      "Ġu moÅ¼li",
      "cyj nego",
      "Ġprogra m",
      "cy m",
      "Ġal bo",
      "Ġmater ia",
      "2 9",
      "ĠjÄĻzy kÃ³w",
      "li cza",
      "legÅĤo ÅĽci",
      "Ġprzy ro",
      "ĠosiÄħ g",
      "s pa",
      "sze nia",
      "Ġw tedy",
      "Ġdo stÄĻp",
      "z ÄĻ",
      "Ġobsz ar",
      "ÅĦst w",
      "Ġpow ia",
      "Ġpoja wi",
      "Ġdrugie j",
      "tu al",
      "o s",
      "tu rÄĻ",
      "Ġbi bli",
      "ĠmiÄĻdzy narod",
      "Ġpi s",
      "k la",
      "ka de",
      "dzia ÅĤu",
      "Ġme cha",
      "Ġgdy Å¼",
      "cze ÅĦstwa",
      "ĠC ze",
      "Ġz jawi",
      "mia n",
      "g ru",
      "d ne",
      "ĠD z",
      "waÅ¼ niej",
      "s on",
      "or tu",
      "Ġpo niewaÅ¼",
      "Ġfunk cji",
      "Ġokre s",
      "Ġtwo rzy",
      "ĠWÅĤa dy",
      "Ġe fek",
      "wa ÅĤy",
      "Ġpier wo",
      "ĠA leksand",
      "Ġod da",
      "szcze gÃ³l",
      "Ġsta nd",
      "Ġwy stÄĻp",
      "Ġpa miÄĻ",
      "M ar",
      "Ġt ill",
      "Ġb ÄĻdzie",
      "nie sie",
      "ca mi",
      "ĠS ej",
      "Ġmie ÅĽcie",
      "Ġpro du",
      "p la",
      "Ġpocho dzenia",
      "Ġd ni",
      "Ġ2 8",
      "Ġs ÅĤa",
      "ĠktÃ³ rÄħ",
      "kÅĤa dzie",
      "sy w",
      "Ġpoz wala",
      "Ġ2 7",
      "Ġi mp",
      "Ġwoj ska",
      "Ġwy nika",
      "Ġfor m",
      "c ar",
      "b ry",
      "Ġd nia",
      "ko ÅĽÄĩ",
      "Ġi Å¼",
      "ro zu",
      "ja z",
      "Ġpol skiego",
      "ĠS an",
      "Ġre prezen",
      "Ġprze de",
      "19 8",
      "ĠHen ry",
      "wa ÅĤa",
      "ĠG re",
      "ra g",
      "dy j",
      "ĠW ÅĤo",
      "s pi",
      "Ġrze cz",
      "Äħ d",
      "Ġf rom",
      "ĠU SA",
      "noÅĽci Äħ",
      "Ġdo prowa",
      "Ġra mach",
      "Ġsze ro",
      "ry sty",
      "Ġo prac",
      "Ġtrze ch",
      "Ġt he",
      "Ġofi cja",
      "rze m",
      "ma l",
      "Ġwy maga",
      "do stÄĻp",
      "Ġp Ã³ÅĤ",
      "Ġo pa",
      "Ã³ ry",
      "Ġst wier",
      "Ġte xt",
      "twa rza",
      "Ġa Å¼",
      "ĠS t",
      "liwo ÅĽÄĩ",
      "g in",
      "czy na",
      "dzi ÅĤa",
      "do m",
      "ĠJ ez",
      "ĠciÄħ gu",
      "i ne",
      "ÄĻ zy",
      "Ġwy raz",
      "Ġ2 6",
      "Ġana li",
      "wo d",
      "or gani",
      "w Äħ",
      "gi p",
      "st ry",
      "towa ÅĤ",
      "ĠkaÅ¼ de",
      "gra m",
      "Ġwy Å¼",
      "Ġpo now",
      "e go",
      "Ġosta tni",
      "Ġna p",
      "czy ÅĤa",
      "g re",
      "Ġsie bie",
      "Ġf e",
      "Ġ2 9",
      "Ġ ;",
      "t kiem",
      "s ia",
      "cz ni",
      "Ġpo zna",
      "ĠkaÅ¼ dy",
      "l d",
      "19 5",
      "t na",
      "logi czne",
      "Ġli nii",
      "Ġpol skiej",
      "k owej",
      "Ġs pa",
      "no r",
      "ĠkrÃ³ t",
      "Ġwe wnÄĻtrz",
      "mia ny",
      "Ġre ali",
      "b ez",
      "19 6",
      "mia r",
      "M u",
      "ĠS to",
      "Ġo gÅĤo",
      "Ġd em",
      "ĠP Ã³ÅĤnoc",
      "Ġcharak ter",
      "ĠCh i",
      "Ġb ia",
      "Ġz wo",
      "Ġza w",
      "Ġwo dy",
      "t owy",
      "wa Å¼a",
      "Ġpa pie",
      "Ġz wiÄĻk",
      "Ġpocho dzÄħ",
      "Ġ18 6",
      "Ġk rzy",
      "Ġproduk cji",
      "cz ka",
      "d niu",
      "men ty",
      "ĠBo le",
      "Ġp er",
      "ka z",
      "Ġk ier",
      "ĠJed nak",
      "Ġw spo",
      "Ġz mar",
      "Ġ \"",
      "k owie",
      "ÅĤa ch",
      "Ġmi ni",
      "cyj nej",
      "Ġza da",
      "Ġkon struk",
      "4 0",
      "Ġte ch",
      "ĠG dy",
      "Ġko mp",
      "czo no",
      "zi mie",
      "Ġfi r",
      "Ġdru gi",
      "Ġistnie je",
      "Ġmia ÅĤy",
      "ka zu",
      "Ġproce s",
      "t nej",
      "Ġu kÅĤad",
      "dzo ne",
      "t le",
      "wa j",
      "cz nymi",
      "we go",
      "ÅĤ owy",
      "Ġkom pozy",
      "Ġprzedsta wia",
      "Ġkompu ter",
      "Ġma s",
      "Ġ rzÄħd",
      "ĠH u",
      "Ġniewie l",
      "dy na",
      "ĠZa cho",
      "ĠZ wiÄħz",
      "m er",
      "rze ÅĦ",
      "ĠEuro py",
      "cze ÅĦ",
      "Ġe ko",
      "ĠCz ÄĻ",
      "land ii",
      "Ġdzie l",
      "tu s",
      "sie d",
      "to rem",
      "g ÅĤa",
      "Ġpol ska",
      "Ġz re",
      "ĠA ng",
      "Ġoddzia ÅĤy",
      "to gra",
      "c ko",
      "Ġroz wiÄħza",
      "Ġak tyw",
      "ÅĽcia ch",
      "Ġch i",
      "Ġcz ar",
      "Ġjed nÄħ",
      "s owanie",
      "M o",
      ". :",
      "Ġdo m",
      "in te",
      "s erw",
      "Ġme ta",
      "cie li",
      "Ġswoje j",
      "Ġprzy go",
      "stÄħpi ÅĤ",
      "Ġsta n",
      "to ni",
      "ĠmoÅ¼ li",
      "ĠP io",
      "ĠkrÃ³ l",
      "Å »",
      "publi kowa",
      "mi nu",
      "rÃ³ cz",
      "Ġk lu",
      "Ġzna czenie",
      "Ġ Ã",
      "ĠEuro pie",
      "Ġ4 0",
      "ĠPo la",
      "g er",
      "towa ne",
      "Ġpod ej",
      "Ġwykorzy sta",
      "Ġswo jÄħ",
      "ĠRze czy",
      "n owie",
      "Ġjed nej",
      "ia r",
      "Ġ6 0",
      "S z",
      "Ã³ dz",
      "ch ow",
      "k ow",
      "Ġpar la",
      "Ġznajdu jÄħ",
      "l y",
      "Ġodp owiada",
      "Ġte chni",
      "Ġkon tro",
      "ĠT ar",
      "Ġnie zaleÅ¼",
      "Ġko lo",
      "S ta",
      "Ġzwy kle",
      "ogra fi",
      "J a",
      "Ġro k",
      "je n",
      "Ġka na",
      "Ġ ÅĽci",
      "tycz nej",
      "ne s",
      "Ġwal ki",
      "ĠFran cji",
      "Ġsy ste",
      "zy j",
      "ĠMar ia",
      "Åº nie",
      "Ġde fini",
      "Ġ193 9",
      "ce m",
      "Ġwykorzy sty",
      "Ġte o",
      "nie si",
      "towa ny",
      "ĠG ru",
      "Ġzna cznie",
      "s ÅĤo",
      "w z",
      "Ġwy bu",
      "ĠÅ¼y cie",
      "Ġspo tka",
      "Ġko mi",
      "f f",
      "P ro",
      "Ġzw ÅĤaszcza",
      "Ġfunk cj",
      "Ġz bro",
      "ĠIn ter",
      "Ġener gii",
      "Ġlo tni",
      "Ġd ra",
      "Ġoby wa",
      "Ġpart ii",
      "Ġza pew",
      "pospoli tej",
      "Ġn owe",
      "Ġko lei",
      "ĠÅĤa ci",
      "ro z",
      "tw em",
      "ĠR P",
      "Ġprze j",
      "ro cÅĤa",
      "Ġnaj czÄĻÅĽciej",
      "Ġkul tury",
      "ĠS ie",
      "ni Äĩ",
      "Ġob o",
      "Ġch ÅĤo",
      "Ġsta ÅĤ",
      "Ġru chu",
      "Ġza pro",
      "rÄĻ b",
      "e li",
      "po li",
      "ĠkrÃ³ la",
      "Ġ l",
      "Ġrozwi ja",
      "kÅĤa dni",
      "su niÄĻ",
      "Ġbada nia",
      "ĠL on",
      "ĠÅ¼y dow",
      "ÅĦ czy",
      "Ġe uropej",
      "Ġk li",
      "rzy ÅĤ",
      "Ġoko li",
      "Ġpocho dzi",
      "Ġa b",
      "Ġprzeciw ko",
      "ĠRzeczy pospolitej",
      "ty ki",
      "ÅĦ skÄħ",
      "cz ona",
      "b Äħ",
      "Ġbud ow",
      "ĠÅ¼a d",
      "ow nikÃ³w",
      "Ġstaro Å¼y",
      "sa mi",
      "Ġt ry",
      "trzy my",
      "Ġprzy j",
      "ĠroÅĽli n",
      "ĠP la",
      "Ġucze st",
      "ĠKa zimie",
      "st ria",
      "Ġsame go",
      "S D",
      "Ġh and",
      "nio ne",
      "Ġw Äħ",
      "rze j",
      "ĠwojewÃ³dz twa",
      "3 1",
      "Ġz do",
      "Ġspowo dowa",
      "Ġwy bo",
      "ĠPol skiego",
      "Ġcze go",
      "Ġte mat",
      "ow cÃ³w",
      "lu m",
      "Ġbo ga",
      "Ġ /",
      "n da",
      "Ġru ch",
      "Ġzwy ciÄĻ",
      "Ġza jÄĻ",
      "Ġpierw szych",
      "Ġwyko ny",
      "Ġpo szczegÃ³l",
      "Ġz m",
      "S R",
      "Ġ18 8",
      "k owe",
      "ĠB ibli",
      "tru m",
      "Ġameryka ÅĦski",
      "owa no",
      "Ġpierw szej",
      "ĠwystÄĻpu jÄħ",
      "Ġbada ÅĦ",
      "7 0",
      "Ġza kre",
      "T e",
      "âĢĿ )",
      "Ġfi na",
      "sty czne",
      "Ġpoja wia",
      "g Ã³",
      "R a",
      "s mi",
      "ĠKoÅĽci oÅĤa",
      "ĠczÄħ ste",
      "Ġnazw ÄĻ",
      "M i",
      "ĠPol ska",
      "t owe",
      "Ġgru pa",
      "ĠrÃ³Å¼ ne",
      "Ġ8 0",
      "no m",
      "Ġob sza",
      "Ġprawdopodob nie",
      "sty ch",
      "Ġotrzyma ÅĤ",
      "gie m",
      "Ġe g",
      "owa ÅĤa",
      "Ġ2 2",
      "re f",
      "D e",
      "ĠzwiÄħza ne",
      "Ġpo ÅĤowie",
      "B a",
      "row in",
      "Ġo publikowa",
      "ci o",
      "cze k",
      "ka cji",
      "ĠP ary",
      "ĠtÅĤu ma",
      "Ġak tor",
      "lo no",
      "Ġz ni",
      "sz ty",
      "ĠPo ÅĤudni",
      "c kÄħ",
      "Ġprze wodni",
      "ĠbezpoÅĽ redni",
      "ĠN or",
      "Ġzie mi",
      "Ġpra wie",
      "s owania",
      "cz noÅĽÄĩ",
      "owa na",
      "Ġwoj nie",
      "L e",
      "l l",
      "ĠG ÅĤÃ³w",
      "ĠoÅĽ rod",
      "Â ²",
      "Ġt ro",
      "ĠA mery",
      "Ġje ÅĽli",
      "Ġp rÄĻ",
      "Ġp rywa",
      "ĠRa dy",
      "la cja",
      "Ġob u",
      "un da",
      "Ġt re",
      "ĠwyÅĤÄħ cznie",
      "Ġf rag",
      "men tÃ³w",
      "Ġdo piero",
      "Ġma gne",
      "Ġc iÄĻ",
      "Ġzna laz",
      "sze dÅĤ",
      "m on",
      "Ġs uk",
      "Ġnaj mniej",
      "dzie la",
      "Ġme dy",
      "Ġi t",
      "Ġkon cep",
      "Ġd al",
      "Ġ lÄħ",
      "ĠwiÄħ za",
      "Ġokre su",
      "t kowa",
      "ĠT u",
      "Ġrodzi ny",
      "Ġ194 5",
      "Ġwers ji",
      "tycz nego",
      "Ġp le",
      "Ġsta ÅĤa",
      "Ġpo le",
      "P ierw",
      "ĠT ra",
      "ar e",
      "Ġelek try",
      "Ġpra kty",
      "bi o",
      "Ġnau ki",
      "ĠHi szpa",
      "Ġkon f",
      "a u",
      "Ġa nd",
      "Ġcia ÅĤa",
      "wia st",
      "Ġu rzÄħ",
      "Ġz budowa",
      "w ÅĤa",
      "l b",
      "ĠRe publi",
      "Ġpol skie",
      "Ġz mien",
      "ĠP re",
      "sÅĤu gi",
      "We dÅĤug",
      "Ġ2 1",
      "Ġprzy zna",
      "Ġroz wÃ³j",
      "czy m",
      "tycz ny",
      "ĠPo li",
      ") :",
      "in t",
      "Ġa to",
      "Ġcy k",
      "Ġpro te",
      "ĠD y",
      "Ġpo ÅĤu",
      "Ġdo szÅĤo",
      "ÅĽwia d",
      "ĠT owarzy",
      "ĠNie mie",
      "Ġa stro",
      "ĠwÅĤa d",
      "ĠW scho",
      "Ġcent rum",
      "Ġâ Ĩ",
      "zwy czaj",
      "ry t",
      "ĠH er",
      "g dy",
      "ĠI V",
      "Ġna ro",
      "Ġbu dy",
      "Ġnaj wyÅ¼",
      "Ġprze ÅĤo",
      "Ġpsy cho",
      "ra ÅĤ",
      "ec nie",
      "cie la",
      "ona r",
      "Ġ200 0",
      "p en",
      "Ġsie ci",
      "Ġpo rÃ³w",
      "Ġpo je",
      "Ġtrak cie",
      "stytu cji",
      "ĠG Ã³r",
      "t owi",
      "ĠE u",
      "ĠKa ro",
      "Ġpo glÄħ",
      "Å¼ ona",
      "Ġprzed mio",
      "ĠprÃ³ b",
      "ĠpoÅĽ wiÄĻ",
      "Ġ em",
      "Ġpierw szym",
      "Ġk ro",
      "po te",
      "o no",
      "Ġza pa",
      "ko l",
      "Ġo ce",
      ". ),",
      "towa nia",
      "3 5",
      "Ġ200 6",
      "Ġs ÅĤow",
      "Ġpolity k",
      "u je",
      "Ġdzie n",
      "ÅĽ le",
      "d owaÅĤ",
      "bie ga",
      "ĠT ur",
      "ĠWiel kiej",
      "czy n",
      "pa ra",
      "Ġzaj mu",
      "ĠczÅĤon kÃ³w",
      "Ġho mo",
      "ĠMi cha",
      "Ġmia ÅĤo",
      "ĠS po",
      "ĠdÅĤugo ÅĽci",
      "wa no",
      "D a",
      "s la",
      "Ġorgani zacji",
      "dzo ny",
      "Ġja po",
      "Ġo pisa",
      "z wo",
      "Ġce l",
      "Ġob jÄĻ",
      "Ġpo lega",
      "no szÄħ",
      "Ġcza sÃ³w",
      "Ġnie pod",
      "Ġdia lek",
      "kra i",
      "ĠKrÃ³ le",
      "kaza ÅĤ",
      "tycz nie",
      "ĠB ia",
      "p Ã³w",
      "ĠM iÄĻdzy",
      "Ġs en",
      "ĠG ra",
      "Ġ ran",
      "Ġprze mysÅĤ",
      "SR R",
      "Ġ7 0",
      "Ġd rze",
      "Ð °",
      "i d",
      "ĠA da",
      "Ġpowo ÅĤa",
      "Ġb Äħ",
      "Ġsze re",
      "ĠÅļ wia",
      "su d",
      "Ġrodza ju",
      "ma sz",
      "ĠrÃ³w no",
      "C h",
      "ĠU nii",
      "Ġnie u",
      "wi li",
      "ĠR ob",
      "n owaÅĤ",
      "Ġz d",
      "s ob",
      "kro tnie",
      "Ã Ń",
      "Ġsztu ki",
      "ni n",
      "Ġterytor ium",
      "ro na",
      "Ġzmia ny",
      "ĠI nd",
      "m b",
      "Ġilo ÅĽci",
      "siÄĻ bior",
      "Ġty siÄĻcy",
      "Ġkomu nika",
      "sz ki",
      "Ġob serwa",
      "Ã³ z",
      "t owych",
      "wy m",
      "Ġprzy by",
      "Ġponow nie",
      "Ġo pi",
      "z er",
      "Ġcza sem",
      "ĠkoÅĦ ca",
      "sta nty",
      "ĠumoÅ¼li wia",
      "S y",
      "i t",
      "ĠwÄĻg la",
      "szo ÅĽÄĩ",
      "ĠMu zeum",
      "Å¼ czy",
      "ÅĤ sud",
      "Ġmiejs cu",
      "ĠO k",
      "owa nych",
      "Ġorgani za",
      "Ġcho ro",
      "e t",
      "ĠAu gu",
      "we st",
      "tu je",
      "A r",
      "O b",
      "Ġ j",
      "Ġo ku",
      "Ġsi ÅĤy",
      "mie nie",
      "ĠNa uk",
      "Ġs hi",
      "Ã³ sÅĤ",
      "ĠGe ne",
      "9 0",
      "ĠPol skiej",
      "Ġdow Ã³d",
      "Ð ¾",
      "ĠbÄħ dÅº",
      "st rzy",
      "cz no",
      "owie c",
      "W o",
      "Ġ200 7",
      "Ġniemie cki",
      "dnie go",
      "dze ÅĦ",
      "Ġ( âĢŀ",
      "Ġprzez na",
      "Ġg ÅĤÄĻ",
      "ĠsÅĤu Å¼",
      "Ã ¤",
      "Ġprze ksztaÅĤ",
      "Ġswoje go",
      "M e",
      "Ġja s",
      "ĠKoÅĽci Ã³ÅĤ",
      "ã ģ",
      "ĠU ni",
      "Ġroz u",
      "ĠuÅ¼y tk",
      "ĠszczegÃ³l nie",
      "ĠD la",
      "rzÄĻ du",
      "owiÄħ za",
      "Ġpro to",
      "Ġp owy",
      "b rze",
      "cyj na",
      "ÅĤ Ã³",
      "ÅĤo ÅĽÄĩ",
      "Ġor bi",
      "k owy",
      "gro dy",
      "Ġkry ty",
      "Ġsub stan",
      "sk ry",
      "m em",
      "ga n",
      "mo c",
      "ĠBy ÅĤ",
      "Ġs ce",
      "Ã³g ÅĤ",
      "Ġfor mie",
      "Ġpod pisa",
      "Ġop owiada",
      "Ġswo im",
      "Ġmo de",
      "Ġkieru nku",
      "ĠciÄĻ Å¼",
      "Ġcz te",
      "ie lski",
      "Ġhi szpa",
      "Ġwy jÄħ",
      "Ġtran sp",
      "k wi",
      "ĠjÄĻzy ki",
      "w nÄħ",
      "Ġe po",
      "Å¼e li",
      "Ġkom Ã³r",
      "Ġfor my",
      "men cie",
      "nÄħ Äĩ",
      "t nego",
      "wi cza",
      "Ġsprze da",
      "t rza",
      "Ġmo cy",
      "ĠA fry",
      "rÃ³ ciÅĤ",
      "Ġspos ob",
      "Ġpierw szego",
      "nic ÄĻ",
      "Å į",
      "dze niu",
      "Ġnaj waÅ¼niej",
      "gro ma",
      "Ġp rowin",
      "ĠâĨ Ĵ",
      "Ġb e",
      "G e",
      "ĠNe w",
      "Ġre Å¼y",
      "ĠPo nad",
      "by t",
      "Ġz u",
      "pi ta",
      "Ġsob Äħ",
      "Ġ( )",
      "ow er",
      "ĠciÄħ g",
      "Ġk i",
      "ĠZ SRR",
      "ĠI zra",
      "N A",
      "jÄħcy mi",
      "Ġ3 1",
      "3 3",
      "Ġu ch",
      "ĠCh ry",
      "Ġmu si",
      "ĠN o",
      "Ġat mo",
      "Ġgra fi",
      "an k",
      "ĠPi ÅĤsud",
      "ĠprÄĻ d",
      "Ġh y",
      "Ġ201 0",
      "ĠBryta nii",
      "Ġu kÅĤadu",
      "4 5",
      "Ġi zo",
      "ni Ã³sÅĤ",
      "tycz na",
      "Ġg en",
      "Ġliczb ÄĻ",
      "Ġpier wiast",
      "ĠÅĽredni owie",
      "Ġwi do",
      "sze k",
      "K on",
      "z wa",
      "Ġpowsta ÅĤa",
      "Ġpowsta ÅĤ",
      "Ġarchi tek",
      "ĠPar t",
      "Ġwyso koÅĽci",
      "ĠSÅĤo ÅĦca",
      "Ġzna le",
      "Ġka tego",
      "n tÃ³w",
      "Ġstro nie",
      "skie m",
      "lan dz",
      "Ġpos ÅĤu",
      "Ġw ÅĤÄħ",
      "Ġpo twier",
      "Ġgwiaz d",
      "Ġmate maty",
      "wie k",
      "Ġjedno czeÅĽnie",
      "ja w",
      "ÅĤa mi",
      "ĠS Äħ",
      "owa li",
      "czÄħ cy",
      "Ġd ek",
      "ĠXV III",
      "t noÅĽci",
      "Ġwo kÃ³ÅĤ",
      "ar t",
      "Ġshi ft",
      "Å» y",
      "Ġd Åº",
      "stÄħ pie",
      "ĠKa na",
      "T he",
      "Ġt owarzy",
      "L a",
      "ĠksiÄħÅ¼ ÄĻ",
      "ÅĦ cu",
      "Ġli czne",
      "G a",
      "z Ã³w",
      "ĠWy daw",
      "ĠSz ko",
      "Ġpierw szÄħ",
      "Ġma ÅĤ",
      "Ġo pisu",
      "Ġd wo",
      "Ġob a",
      "Ġraz em",
      ": (",
      "Ġutwo rzo",
      "inte res",
      "to na",
      "Ġprze sz",
      "Ġ *",
      "o m",
      "4 8",
      "ĠS tar",
      "star cza",
      "ĠS ch",
      "me try",
      "t wy",
      "ow nik",
      "z Äħ",
      "Ġ rza",
      "Ġwy d",
      "Ġkonf lik",
      "Ġro bo",
      "na l",
      "Ġod rzu",
      "wa ng",
      "niÄĻ cia",
      "fika cji",
      "Ġzde cy",
      "ĠP ie",
      "ĠG ali",
      "ÅĤ owo",
      "Ġwi d",
      "kol wiek",
      "Ġdzi ÅĽ",
      "Ġroz sze",
      "da l",
      "ma na",
      "Ġwyb rze",
      "ĠP ru",
      "Ġwar toÅĽÄĩ",
      "Ġzgo dnie",
      "Ġkul tur",
      "mi ny",
      "ĠÅ¼oÅĤnie rzy",
      "Ġp li",
      "Ī Ĵ",
      "Ġsp Ã³ÅĤ",
      "ĠW al",
      "Ġza rzÄħ",
      "ĠWiel ko",
      "Ġ18 7",
      "Ġprob lem",
      "nio ny",
      "re ch",
      "Ġod w",
      "z n",
      "ĠE d",
      "ru cho",
      "Ġdu Å¼e",
      "ĠG Ã³",
      "owa ÅĤy",
      "Ġ200 4",
      "fe ren",
      "u ka",
      "ĠrzÄħ du",
      "Ġmia st",
      "Å¼o nych",
      "mie niu",
      "Ġh u",
      "wa n",
      "da nia",
      "Ġ200 5",
      "Ġrozpo czÄħÅĤ",
      "Ġpow in",
      "Ġdo kÅĤad",
      "ĠR Ã³w",
      "Ġb rak",
      "Ġprowa dzi",
      "Ġp y",
      "Ġpolski m",
      "Ġre wolu",
      "dy da",
      "Ġinforma cji",
      "Ġwybo rach",
      "d ii",
      "Ġz mienia",
      "Ġt rÃ³j",
      "ni czy",
      "bez pie",
      "rÃ³ ci",
      "Ġzaw sze",
      "je st",
      "ĠmÃ³w i",
      "cyj nym",
      "ĠPrze d",
      "ĠmÄĻ Å¼czy",
      "ÅĤa c",
      "ÅĦst wie",
      "ĠA kade",
      "ĠTa de",
      "Ġwielko ÅĽci",
      "ĠCh a",
      "owo ÅĽÄĩ",
      "l la",
      "9 5",
      "ma wia",
      "li zm",
      "Ġob li",
      "fa be",
      "k owych",
      "Ġpo par",
      "Ġ Ã³w",
      "Ġs kÅĤadni",
      "ĠF re",
      "we dz",
      "Ġ ).",
      "Ġna g",
      "da k",
      "Ġra dzie",
      "wo ÅĽci",
      "Ġmiejs ca",
      "ĠdziaÅĤa lnoÅĽci",
      "ĠSta nÃ³w",
      "Ġ9 0",
      "ĠJ or",
      "Ġp io",
      "lo n",
      "k t",
      "Ġpo bli",
      "ni cja",
      "ku je",
      "de ra",
      "Ġreli gii",
      "wi ÅĤ",
      "Ġn owych",
      "Ġ200 1",
      "re t",
      "Ġu li",
      "Ġko rzysta",
      "3 4",
      "ĠC ar",
      "Ġa ta",
      "ĠRo sji",
      "w ÄĻ",
      "ĠStani sÅĤaw",
      "ow nika",
      "Ġo chro",
      "li m",
      "Ġw czes",
      "Ġarty ku",
      "towa nie",
      "Ġsz la",
      "ĠF or",
      "Ġch ro",
      "Ġsz czy",
      "Ġdo k",
      "ĠK ul",
      "Ġty go",
      "s ÅĤy",
      "e uropej",
      "Ġpro mieni",
      "Ġro dzin",
      "ĠmoÅ¼ liwoÅĽci",
      "ch Ã³w",
      "Ġkon ku",
      "wa nych",
      ":( -",
      "Ġspra wie",
      "cyj nÄħ",
      "cja mi",
      "sie j",
      "s ca",
      "p lo",
      "Ġang ielski",
      "re go",
      "Ġo pu",
      "Ġinter pre",
      "logi cznych",
      "Ġc Ã³r",
      "ĠokreÅĽ lo",
      "Ġdo ÅĽwiad",
      "Ġv on",
      "Ġm Ã³gÅĤ",
      "ĠUniwersyte tu",
      "ĠS p",
      "ĠtwÃ³r czo",
      "ĠE gip",
      "Å¼e niu",
      "nia mi",
      "st nia",
      "ĠKra j",
      "Ġob ra",
      "li an",
      "g no",
      "ĠPonad to",
      "Å¼y Äĩ",
      "co m",
      "er ma",
      "b r",
      "S a",
      "e la",
      "te d",
      "ÅĤ owi",
      "ĠpeÅĤ ni",
      "g nie",
      "Ġsy na",
      "po rzÄħd",
      "wnÄħ trz",
      "Ġpodob nie",
      "Ġpraw dzi",
      "0 5",
      "Ġz y",
      "ĠGe or",
      "Ġte mu",
      "ĠniektÃ³ re",
      "ĠKa li",
      "ĠKrak owie",
      "Ġo fia",
      "ĠM on",
      "o ne",
      "ĠFran ci",
      "l f",
      "ĠZ y",
      "Ġz bli",
      "g li",
      "Ġo gro",
      "ĠJÃ³ze f",
      "Ġza zwyczaj",
      "Ġa n",
      "gi na",
      "pad ku",
      "ĠP an",
      "ĠM an",
      "6 4",
      "ar u",
      "lo t",
      "Ġwy po",
      "h u",
      "Ġstop niu",
      "Ġmie sza",
      "ĠCz ar",
      "d noÅĽci",
      "Ġszko ÅĤy",
      "Ġza a",
      "s s",
      "Ġkonty ne",
      "Ġce ch",
      "cy fi",
      "t nym",
      "wa gi",
      "Ġu z",
      "Ġt ar",
      "Ġma sy",
      "ĠNa stÄĻp",
      "ĠW rocÅĤa",
      "ju sz",
      "ĠzaleÅ¼ noÅĽci",
      "Ġpre mie",
      "Ġwy na",
      "Ġzbro j",
      "Ġwy ja",
      "ĠwyrÃ³Å¼ nia",
      "Ð µ",
      "Ġmo ne",
      "li za",
      "ĠE n",
      "Ġza interes",
      "% ,",
      "Ġca ÅĤej",
      "Ġta ki",
      "em u",
      "Ġwie k",
      "ĠpamiÄĻ ci",
      "owa ÅĤo",
      "Ġprezyden ta",
      "Ġpowie ÅĽci",
      "d na",
      "Ġprzed siÄĻbior",
      "Ġfunk cjÄĻ",
      "Ġw nio",
      "z owie",
      "ĠO sta",
      "Ġjednost ki",
      "Ġb roni",
      "wa jÄħ",
      "Ġmie siÄħ",
      "mia na",
      "Ġk ur",
      "Ġprze my",
      "Ġw io",
      "Ġ200 9",
      "mi mo",
      "mi u",
      "Ġnaj star",
      "Ġcent ral",
      "Ġ202 4",
      "Ġprzy sz",
      "Ġpoje dyn",
      "O r",
      "c twa",
      "i zm",
      "ĠLe onar",
      "Ġ Î",
      "Ġzbi or",
      "ĠpaÅĦst wo",
      "Ġe wolu",
      "Ġtele wi",
      "Ko ÅĽci",
      "j skiego",
      "ktÃ³ re",
      "Ġfrancu ski",
      "ĠXV I",
      "Ġhi pote",
      "Ġprob le",
      "5 5",
      "ĠJa po",
      "pra wy",
      "Ġdzie ÅĤa",
      "Ġo ka",
      "Ġz mniej",
      "Ġco raz",
      "Ġjed na",
      "ĠKra kÃ³w",
      "towa no",
      "d on",
      "Ġ200 2",
      "wen cji",
      "l ie",
      "b le",
      "Ġsk rzy",
      "Ġe pi",
      "ĠS za",
      "szcze nia",
      "Ġza ko",
      "tyw ne",
      "ĠmoÅ¼ liwoÅĽÄĩ",
      "de ÅĤ",
      "l no",
      "Ġgra nica",
      "Ġte or",
      "Ġ202 3",
      "ĠD em",
      "] .",
      "Ġpowsta nie",
      "a na",
      "Ġb lo",
      "ste go",
      "Ġ201 1",
      "k s",
      "Ġpo tÄĻ",
      "Ġbez pie",
      "Ġ200 8",
      "Ġo to",
      "ĠB el",
      "9 9",
      "Ġza licza",
      "ĠksiÄĻ cia",
      "Ġko me",
      "kowa ne",
      "ÅĽci u",
      "Ġnaj lep",
      "Ġz organi",
      "k rÃ³t",
      "Ġzbi Ã³r",
      "Ġkonty nu",
      "ro dek",
      "Ġcz o",
      "Ġpowsta ÅĤy",
      "3 7",
      "ĠBo ga",
      "ÅĽ wiÄĻ",
      "Ġwywo ÅĤa",
      "sf ery",
      "Ġplane ty",
      "Ġkra jach",
      "Å¼ na",
      "tÄħ d",
      "ĠrÃ³w na",
      "sty cznych",
      "Ġna r",
      "Ġ Q",
      "ĠpoczÄħ tkowo",
      "Ġ194 4",
      "wiÄħ ty",
      "Ġpomo c",
      "j ska",
      "Ġst ref",
      "Ġsp ort",
      "Ġznaj dowa",
      "b el",
      "Ġu twor",
      "ĠPod czas",
      "Ġs wÃ³j",
      "t nÄħ",
      "qu e",
      "dÅĤu Å¼",
      "Ġstop ni",
      "Ġf la",
      "rze go",
      "3 6",
      "Ġw ÄĻ",
      "Ġm ist",
      "ĠI s",
      "Ġpierw sza",
      "niej szych",
      "li ny",
      "wie nia",
      "ĠdziaÅĤa ÅĦ",
      "wÃ³ d",
      "Ġd ie",
      "Ġuwa gÄĻ",
      "cz nik",
      "ciÄħ ga",
      "ĠG ro",
      "Ġpomo cy",
      "Ġza u",
      "za ch",
      "dni m",
      "ĠÅģ o",
      "Ġar mii",
      "Ġci ÅĽnie",
      "Ġelemen tÃ³w",
      "8 6",
      "sk ÄĻ",
      "s bur",
      "Ġcesa rza",
      "Ġdla tego",
      "ko ÅĤo",
      "niej sze",
      "Ġk rak",
      "m owy",
      "ĠzwiÄħz kÃ³w",
      "ĠdziaÅĤa lnoÅĽÄĩ",
      "Ġb rze",
      "Ġcz tery",
      "Ġ cu",
      "ĠczÄħ st",
      "nt ro",
      "te t",
      "Ġwyb or",
      "3 9",
      "Ġnale Å¼a",
      "an ta",
      "li p",
      "Ġ201 5",
      "s si",
      "ĠCzÄĻ sto",
      "u ra",
      "ĠMi ni",
      "Ġwe j",
      "zu jÄħ",
      "mi Äħ",
      "z jÄĻ",
      "Ġreak cji",
      "B o",
      "Ġpro fe",
      "le cia",
      "ow skiej",
      "Ġlitera tury",
      "ĠS er",
      "ci n",
      "ta cja",
      "p l",
      "ĠD i",
      "na st",
      "ĠwÅĤa ÅĽnie",
      "Ġkan dyda",
      "er ium",
      "Ġk r",
      "Ġt ur",
      "zna w",
      "li Äĩ",
      "czy li",
      "Ġre j",
      "rzÄħ t",
      "Ġh er",
      "sek sual",
      "iÄĻk szoÅĽÄĩ",
      "gra fi",
      "sze l",
      "m owaÅĤ",
      "Ġcza sach",
      "Ġtrak ta",
      "Ġ201 2",
      "S o",
      "ĠGda ÅĦ",
      "Ġza k",
      "ĠV i",
      "Ġbibli ote",
      "Ġ201 4",
      "ne ra",
      "owa niu",
      "A l",
      "czy ÅĤy",
      "Ġka ta",
      "cze niem",
      "Ġprzestrze ni",
      "Ġt le",
      "t nia",
      "sk ona",
      "4 6",
      "Ġ ),",
      "peÅĤ nia",
      "cie j",
      "Ġzwie rzÄħt",
      "W i",
      "Ġosta tecznie",
      "tych czas",
      "ĠXV II",
      "ma tu",
      "no ni",
      "ĠPow sta",
      "Ġe ta",
      "Ġso cja",
      "ĠwÅĤadz ÄĻ",
      "Ġdzie ÅĦ",
      "Ġwia domo",
      "Ġpo ru",
      "ĠSz cze",
      "Ġgatu nkÃ³w",
      "ĠK or",
      "ĠreÅ¼y ser",
      "no ty",
      "Ġce sar",
      "- -",
      "Ġmi kro",
      "s nÄħ",
      "Ġm in",
      "li nie",
      "Ġbi twie",
      "Z e",
      "Ġpo tem",
      "Ġzna ne",
      "Ġobej mu",
      "s mo",
      "dzi ÅĤo",
      "ĠK i",
      "mie nio",
      "v o",
      "ĠCen trum",
      "waj car",
      "O S",
      "Ro z",
      "szy mi",
      "te li",
      "Ġo dz",
      "ĠNiemie c",
      "Ġnapisa ÅĤ",
      "wa ÅĤo",
      "Ġzakre sie",
      "Ġpod jÄĻ",
      "ĠW ÄĻg",
      "Ġsz wedz",
      "j skie",
      "Mu zeum",
      "Ġobsza rze",
      "Ġtytu ÅĤ",
      "Ġstro n",
      "Å¼ sa",
      "Ġprzy ja",
      "k owi",
      "Ġnie bie",
      "ĠOb ecnie",
      "Ġk west",
      "ĠEuropej skiej",
      "ĠWarsza wy",
      "ĠWÅĤady sÅĤaw",
      "Ġs pi",
      "Ġ 000",
      "Ġi stnia",
      "Ġ logi",
      "Ġod e",
      "nie c",
      "t la",
      "Ð ¸",
      "Ġfilozo fii",
      "Ġkobie t",
      "Ġza grani",
      "ĠP er",
      "Ġza gro",
      "ĠIn stytu",
      "Ġkon cer",
      "Ġdo mu",
      "li zacji",
      "S L",
      "Ġkolej nych",
      "cia Å¼",
      "Ġ20 18",
      "Ġu koÅĦ",
      "ĠO l",
      "Ġprogra mu",
      "c t",
      "Ġi den",
      "P R",
      "a d",
      "j skiej",
      "Ġpowierz ch",
      "dze niem",
      "Ġfilozo f",
      "Ġfilozo fi",
      "ĠMiÄĻdzy narod",
      "du je",
      "ĠH ar",
      "go ryt",
      "Po l",
      "sÅĤ ow",
      "ĠL in",
      "go dnie",
      "z em",
      "nu je",
      "Ġstosu nku",
      "d owo",
      "ĠN ob",
      "Ġca ÅĤy",
      "ĠporÃ³w na",
      "k niÄĻ",
      "Ġang iel",
      "Ġni Äħ",
      "Ġszyb ko",
      "Ġmo c",
      "sk ar",
      "Ġpo dziaÅĤ",
      "Ġsek sual",
      "Ġmie Äĩ",
      "Ġre la",
      "d ie",
      "strze ga",
      "owie m",
      "Ġpod da",
      "Ġ199 9",
      "ĠobowiÄħ z",
      "Ġtu rysty",
      "Ġwoj na",
      "g res",
      "le y",
      "g ÅĤy",
      "pow szech",
      "ĠS tu",
      "ĠAkade mii",
      "Ġ19 18",
      "ĠposzczegÃ³l nych",
      "wz glÄĻ",
      "Ġ199 0",
      "Ġe t",
      "pa miÄĻ",
      "ĠKon stanty",
      "Ġzasto sowa",
      "Ġsuk ce",
      "Åº ni",
      "ez o",
      "Ġkla sz",
      "U wagi",
      "Ġp ia",
      "lko ho",
      "ĠÅĽwia d",
      "ĠM ary",
      "cie le",
      "Ġb ÅĤo",
      "szu ki",
      "3 8",
      "Ġspe ÅĤ",
      "Ġre for",
      "Ġzna kÃ³w",
      "ste j",
      "le ra",
      "b al",
      "T a",
      "6 5",
      "p ierw",
      "gru p",
      "ĠwspÃ³ÅĤ pra",
      "czÄħ tkowo",
      "Ġnie mal",
      "pra wia",
      "ĠwÅĤa dze",
      "Ġ198 9",
      "te rze",
      "Ġtrady cji",
      "l ta",
      "g ry",
      "ĠÃ³w czes",
      "Ġv an",
      "k rzy",
      "f r",
      "D zie",
      "Ġmeto dy",
      "li ng",
      "ĠJÃ³ze fa",
      "Ġgra nicy",
      "ma tyczne",
      "3 2",
      "Ġsto li",
      "li dar",
      "Ġz gin",
      "b in",
      "ĠÅĽ re",
      "dz ona",
      "Ġni gdy",
      "ka toli",
      "Ġ200 3",
      "le o",
      "szcze nie",
      "Ġwspo m",
      "o u",
      "Ġpo kry",
      "Ġge ografi",
      "ĠkoÅĦ cu",
      "Ġja ki",
      "ta j",
      "l owe",
      "Ġprac ÄĻ",
      "cy k",
      "Ġzasa dy",
      "dow s",
      "Ġmo no",
      "J ÄĻzy",
      "ĠjÄĻzy kiem",
      "Ġdoda tk",
      "ĠgÅĤÃ³w nych",
      "m ÄĻ",
      "Ġs ur",
      "Ġna stÄħpi",
      "wie nie",
      "wa niu",
      "tro n",
      "Ġpo ch",
      "pÅĤy w",
      "Ġt or",
      "ma mi",
      "pe dia",
      "Ġnada l",
      "cie c",
      "Ġze spÃ³ÅĤ",
      "Ġelemen ty",
      "st ka",
      "Ġzwie rzÄĻ",
      "ĠS zy",
      "Ġwykorzy stu",
      "Ġk Äħ",
      "ni zmu",
      "me s",
      "W ÅĤa",
      "Ġi mi",
      "7 5",
      "kie wicz",
      "Ġu tra",
      "gro da",
      "Ġmy ÅĽli",
      "n ne",
      "Ġz im",
      "Ġn owego",
      "ÅĦ cy",
      "Ġcz erwo",
      "Ġpra ce",
      "9 8",
      "Ġw szel",
      "Ã³ÅĤno cy",
      "Ġmo ral",
      "Ġm m",
      "Ġja kie",
      "Ġle ka",
      "towa Äĩ",
      "Ġrzeczywi stoÅĽci",
      "tycz nÄħ",
      "Ġeko nomi",
      "Ġar e",
      "tw ory",
      "Å¼ er",
      "Ġk lub",
      "Ġd i",
      "ĠczÄĻÅĽci Äħ",
      "Ġod rÄĻb",
      "re d",
      "ĠbezpoÅĽredni o",
      "Ġg ÄĻ",
      "s or",
      "Ġprowa dzÄħ",
      "Å¼ ne",
      "ĠF il",
      "Ġcesa rz",
      "k or",
      "h el",
      "Ġdzi siej",
      "Ġspo Å¼y",
      "Ġsytua cji",
      "Ġdob rze",
      "Ġ201 6",
      "Ġsymbo li",
      "owa niem",
      "ĠÅģ a",
      "ĠM or",
      "Ġza czÄħÅĤ",
      "Ġwy sta",
      "g ni",
      "ob raz",
      "j skich",
      "Ġstand ard",
      "Ġal fabe",
      "Ġdu Å¼ej",
      "Ġodpowie dzia",
      "7 6",
      "Ġko ÅĽcie",
      "Ġdy sku",
      "Ġob ok",
      "cyj nie",
      "8 5",
      "Ġsp rzÄĻ",
      "ek sy",
      "4 4",
      "ĠPar k",
      "Ġsto pnia",
      "Ġg ry",
      "ĠSz we",
      "Ġnazw Äħ",
      "by wa",
      "ĠO s",
      "ri ch",
      "Ġmi mo",
      "nÄĻ ÅĤa",
      "KoÅĽci Ã³ÅĤ",
      "ĠSa mo",
      "d owania",
      "Ġa lkoho",
      "Ġpow ro",
      "ĠO p",
      "Ġposta Äĩ",
      "krÃ³t ce",
      "ĠuÅ¼ywa ne",
      "zowa ne",
      "dzo nych",
      "Ġmiejsc owoÅĽci",
      "ĠÅĽmier Äĩ",
      "ch owy",
      "Ġar gu",
      "tycz nym",
      "Ġb iaÅĤ",
      "Ġa rab",
      "Ġkolej ne",
      "Ġpopu lacji",
      "Ġ20 20",
      "T y",
      "Ġi nicja",
      "Ġst u",
      "ĠC on",
      "li ÅĤ",
      "Ġwar sza",
      "ni Å¼ej",
      "Ġwzro st",
      "Ġp t",
      "Ġrze Åº",
      "Ġ202 1",
      "sty czny",
      "Ġcze le",
      "Ġz wa",
      "ĠÅļ rod",
      "Ġse na",
      "Ð ½",
      "Ġob serw",
      "g rywa",
      "Ġza kÅĤada",
      "co ne",
      "Ġwy sÅĤa",
      "Ġpobli Å¼u",
      "Ġ20 19",
      "Ġwyra Å¼a",
      "b rzy",
      "rzo ne",
      "Ġstosu je",
      "Ġopie ra",
      "Ġrza d",
      "Ġwy ro",
      "Ġw si",
      "ĠRze sz",
      "je wÃ³dz",
      "ĠWoj cie",
      "Ġ Â",
      "Ġnie po",
      "Ġu trzyma",
      "men tar",
      "Ġpisa rz",
      "legÅĤo ÅĽÄĩ",
      "Ġzna ny",
      "ĠAn to",
      "0 1",
      "Ġrze ki",
      "Ġda ne",
      "Ġpra k",
      "z ny",
      "ĠmaÅĤ Å¼e",
      "ĠsÅĤo ne",
      "Ġra zy",
      "Ġsta ÅĤy",
      "Ġkon su",
      "Ġo no",
      "Ġb owiem",
      "Ġma ÅĤo",
      "towa na",
      "Å¼e ÅĦ",
      "ĠZ osta",
      "Ġprezyden t",
      "Ġ3 5",
      "Ġz b",
      "ĠgÅĤo sÃ³w",
      "ga ch",
      "Ġzaj muje",
      "st r",
      "pra wa",
      "ĠStani sÅĤawa",
      "Ġit p",
      "Ġprze wi",
      "Ġtech no",
      "Ġprze kona",
      "le nd",
      "Ġg u",
      "Ġni mi",
      "Ġistnie jÄħ",
      "bi Ã³r",
      "Ġdo tychczas",
      "d la",
      "ka n",
      "Ġpol sko",
      "Ġpa sa",
      "ĠL w",
      "Ġcie p",
      "Ġwprowa dza",
      "Ġzosta Äĩ",
      "z osta",
      "ĠRzy mu",
      "Ġ199 1",
      "ĠAr mii",
      "stw em",
      "Ġwy twarza",
      "Ġgwiaz dy",
      "i Ã³w",
      "Ġau stria",
      "ĠB ru",
      "ĠmoÅ¼li we",
      "ĠÅĽwiat ÅĤa",
      "d owe",
      "Ġsi ÅĤ",
      "co ny",
      "Ġp Ã³ÅĤnocy",
      "Ġstosowa ne",
      "h y",
      "ĠS tra",
      "ka zywa",
      "w ska",
      "Ġpowszech nie",
      "ni owe",
      "D z",
      "ma s",
      "ch an",
      "ĠT en",
      "P ra",
      "rÃ³Å¼ nia",
      "Ġp ta",
      "Ġp ÅĤ",
      "da n",
      "g rze",
      "kowa ny",
      "Ġsta ÅĤo",
      "ĠcaÅĤkowi cie",
      "dzi ÅĤy",
      "ĠpoczÄħ tek",
      "Å¼y nie",
      "Ġin stytu",
      "ĠA d",
      "Ġbo ha",
      "Ġd rew",
      "dzi li",
      "wi n",
      "g iÄĻ",
      "W iel",
      "Ġpoz ba",
      "ĠT i",
      "Ġ ÅĤu",
      "Ġ194 0",
      "for mu",
      "ni s",
      "Ġb ro",
      "Ġs ej",
      "I V",
      "ĠSz tu",
      "Ġmaszy n",
      "mie ÅĦ",
      "ĠC i",
      "kowa nia",
      "ĠAnd rzej",
      "Ġpowia tu",
      "Ñ Ģ",
      "ÅĤ ek",
      "Ġsame j",
      "Ġro li",
      "ist ory",
      "Ġ18 5",
      "ĠkaÅ¼de go",
      "ia ch",
      "Ġmili onÃ³w",
      "pi i",
      "Ġzwy czaj",
      "ra d",
      "Ġw il",
      "ĠMi koÅĤa",
      "sto ÅĽÄĩ",
      "b Ã³w",
      "Ġe dy",
      "ĠLu bli",
      "Ġza pisa",
      "ob ie",
      "ĠNob la",
      "do europej",
      "ĠMia sta",
      "kie rowa",
      "Ġzna czÄħ",
      "Ġmuzy ki",
      "Ġprze jÄĻ",
      "ni na",
      "s sa",
      "Ġ199 2",
      "Ġz mieni",
      "ĠB ie",
      "ĠHiszpa nii",
      "z mie",
      "Ġregi ona",
      "Ġdziedzi nie",
      "Ġa m",
      "7 8",
      "Ġka mpa",
      "ku l",
      "g mu",
      "Ġma la",
      "Ġi miÄĻ",
      "ĠJoh n",
      "Ġwybu ch",
      "ĠwspÃ³ÅĤ prac",
      "rÃ³ deÅĤ",
      "Ġza by",
      "ĠWi to",
      "ÅĤ ty",
      "Ġnaz wi",
      "Ġde fi",
      "Ġn owy",
      "ciÄħ g",
      "ĠKo lej",
      "ge ne",
      "v en",
      "ĠLud wi",
      "Ġczo ÅĤ",
      "Ġk or",
      "le tni",
      "6 8",
      "je cha",
      "mo dy",
      "Ġobej muje",
      "Ġod legÅĤoÅĽci",
      "d owych",
      "Ġo pozy",
      "ĠPary Å¼u",
      "rze niu",
      "sty m",
      "k owo",
      "ĠKsiÄĻ Å¼y",
      "ni czne",
      "Ġpo praw",
      "ĠgÅĤÃ³w nym",
      "ĠD ru",
      "ĠgÅĤÄĻ bo",
      "Ġu niwersyte",
      "Ġ199 5",
      "ĠP K",
      "w ki",
      "k owego",
      "ĠpoÅĽ redni",
      "Ġd Äħ",
      "Ġza ka",
      "mi nowa",
      "Ġinter net",
      ".. .",
      "nika mi",
      "t owej",
      "ĠÅº rÃ³deÅĤ",
      "Ġbisku p",
      "ĠWy sp",
      "ĠWydaw nictwo",
[...]
