{
  "version": "1.0",
  "truncation": null,
  "padding": null,
  "added_tokens": [],
  "normalizer": null,
  "pre_tokenizer": {
    "type": "ByteLevel",
    "add_prefix_space": false,
    "trim_offsets": true,
    "use_regex": true
  },
  "post_processor": null,
  "decoder": {
    "type": "ByteLevel",
    "add_prefix_space": true,
    "trim_offsets": true,
    "use_regex": true
  },
  "model": {
    "type": "BPE",
    "dropout": null,
    "unk_token": null,
    "continuing_subword_prefix": null,
    "end_of_word_suffix": null,
    "fuse_unk": false,
    "byte_fallback": false,
    "ignore_merges": false,
    "vocab": {
      "Ā": 0,
      "ā": 1,
      "Ă": 2,
      "ă": 3,
      "Ą": 4,
      "ą": 5,
      "Ć": 6,
      "ć": 7,
      "Ĉ": 8,
      "ĉ": 9,
      "Ċ": 10,
      "ċ": 11,
      "Č": 12,
      "č": 13,
      "Ď": 14,
      "ď": 15,
      "Đ": 16,
      "đ": 17,
      "Ē": 18,
      "ē": 19,
      "Ĕ": 20,
      "ĕ": 21,
      "Ė": 22,
      "ė": 23,
      "Ę": 24,
      "ę": 25,
      "Ě": 26,
      "ě": 27,
      "Ĝ": 28,
      "ĝ": 29,
      "Ğ": 30,
      "ğ": 31,
      "Ġ": 32,
      "!": 33,
      "\"": 34,
      "#": 35,
      "$": 36,
      "%": 37,
      "&": 38,
      "'": 39,
      "(": 40,
      ")": 41,
      "*": 42,
      "+": 43,
      ",": 44,
      "-": 45,
      ".": 46,
      "/": 47,
      "0": 48,
      "1": 49,
      "2": 50,
      "3": 51,
      "4": 52,
      "5": 53,
      "6": 54,
      "7": 55,
      "8": 56,
      "9": 57,
      ":": 58,
      ";": 59,
      "<": 60,
      "=": 61,
      ">": 62,
      "?": 63,
      "@": 64,
      "A": 65,
      "B": 66,
      "C": 67,
      "D": 68,
      "E": 69,
      "F": 70,
      "G": 71,
      "H": 72,
      "I": 73,
      "J": 74,
      "K": 75,
      "L": 76,
      "M": 77,
      "N": 78,
      "O": 79,
      "P": 80,
      "Q": 81,
      "R": 82,
      "S": 83,
      "T": 84,
      "U": 85,
      "V": 86,
      "W": 87,
      "X": 88,
      "Y": 89,
      "Z": 90,
      "[": 91,
      "\\": 92,
      "]": 93,
      "^": 94,
      "_": 95,
      "`": 96,
      "a": 97,
      "b": 98,
      "c": 99,
      "d": 100,
      "e": 101,
      "f": 102,
      "g": 103,
      "h": 104,
      "i": 105,
      "j": 106,
      "k": 107,
      "l": 108,
      "m": 109,
      "n": 110,
      "o": 111,
      "p": 112,
      "q": 113,
      "r": 114,
      "s": 115,
      "t": 116,
      "u": 117,
      "v": 118,
      "w": 119,
      "x": 120,
      "y": 121,
      "z": 122,
      "{": 123,
      "|": 124,
      "}": 125,
      "~": 126,
      "ġ": 127,
      "Ģ": 128,
      "ģ": 129,
      "Ĥ": 130,
      "ĥ": 131,
      "Ħ": 132,
      "ħ": 133,
      "Ĩ": 134,
      "ĩ": 135,
      "Ī": 136,
      "ī": 137,
      "Ĭ": 138,
      "ĭ": 139,
      "Į": 140,
      "į": 141,
      "İ": 142,
      "ı": 143,
      "Ĳ": 144,
      "ĳ": 145,
      "Ĵ": 146,
      "ĵ": 147,
      "Ķ": 148,
      "ķ": 149,
      "ĸ": 150,
      "Ĺ": 151,
      "ĺ": 152,
      "Ļ": 153,
      "ļ": 154,
      "Ľ": 155,
      "ľ": 156,
      "Ŀ": 157,
      "ŀ": 158,
      "Ł": 159,
      "ł": 160,
      "¡": 161,
      "¢": 162,
      "£": 163,
      "¤": 164,
      "¥": 165,
      "¦": 166,
      "§": 167,
      "¨": 168,
      "©": 169,
      "ª": 170,
      "«": 171,
      "¬": 172,
      "Ń": 173,
      "®": 174,
      "¯": 175,
      "°": 176,
      "±": 177,
      "²": 178,
      "³": 179,
      "´": 180,
      "µ": 181,
      "¶": 182,
      "·": 183,
      "¸": 184,
      "¹": 185,
      "º": 186,
      "»": 187,
      "¼": 188,
      "½": 189,
      "¾": 190,
      "¿": 191,
      "À": 192,
      "Á": 193,
      "Â": 194,
      "Ã": 195,
      "Ä": 196,
      "Å": 197,
      "Æ": 198,
      "Ç": 199,
      "È": 200,
      "É": 201,
      "Ê": 202,
      "Ë": 203,
      "Ì": 204,
      "Í": 205,
      "Î": 206,
      "Ï": 207,
      "Ð": 208,
      "Ñ": 209,
      "Ò": 210,
      "Ó": 211,
      "Ô": 212,
      "Õ": 213,
      "Ö": 214,
      "×": 215,
      "Ø": 216,
      "Ù": 217,
      "Ú": 218,
      "Û": 219,
      "Ü": 220,
      "Ý": 221,
      "Þ": 222,
      "ß": 223,
      "à": 224,
      "á": 225,
      "â": 226,
      "ã": 227,
      "ä": 228,
      "å": 229,
      "æ": 230,
      "ç": 231,
      "è": 232,
      "é": 233,
      "ê": 234,
      "ë": 235,
      "ì": 236,
      "í": 237,
      "î": 238,
      "ï": 239,
      "ð": 240,
      "ñ": 241,
      "ò": 242,
      "ó": 243,
      "ô": 244,
      "õ": 245,
      "ö": 246,
      "÷": 247,
      "ø": 248,
      "ù": 249,
      "ú": 250,
      "û": 251,
      "ü": 252,
      "ý": 253,
      "þ": 254,
      "ÿ": 255,
      "ie": 256,
      "ÅĤ": 257,
      "Ġp": 258,
      "Ġw": 259,
      "ow": 260,
      "st": 261,
      "an": 262,
      "cz": 263,
      "ch": 264,
      "rz": 265,
      "na": 266,
      "Ġz": 267,
      "sk": 268,
      "ÄĻ": 269,
      "Äħ": 270,
      "Ã³": 271,
      "ni": 272,
      "ra": 273,
      "Ġs": 274,
      "Ġo": 275,
      "ro": 276,
      "Ġd": 277,
      "Ġpo": 278,
      "li": 279,
      "Ġk": 280,
      "Å¼": 281,
      "nie": 282,
      "ar": 283,
      "ia": 284,
      "er": 285,
      "Ġi": 286,
      "ÅĽ": 287,
      "Ġt": 288,
      "Ġm": 289,
      "go": 290,
      "sz": 291,
      "ne": 292,
      "ka": 293,
      "Ġna": 294,
      "ny": 295,
      "rze": 296,
      "dz": 297,
      "le": 298,
      "or": 299,
      "ÅĤa": 300,
      "ski": 301,
      "Ã³w": 302,
      "je": 303,
      "iÄĻ": 304,
      "re": 305,
      "Ġb": 306,
      "at": 307,
      "ĊĊ": 308,
      "19": 309,
      "mi": 310,
      "ĠP": 311,
      "ci": 312,
      "ÅĦ": 313,
      "ki": 314,
      "on": 315,
      "ĠW": 316,
      "aÅĤ": 317,
      "en": 318,
      "ty": 319,
      "Ġa": 320,
      "Ġdo": 321,
      "ĠS": 322,
      "rzy": 323,
      "Ġza": 324,
      "cj": 325,
      "Ġwy": 326,
      "Ġu": 327,
      "ce": 328,
      "ry": 329,
      "la": 330,
      "ko": 331,
      "wa": 332,
      "Ġprze": 333,
      "ku": 334,
      "cy": 335,
      "Ġje": 336,
      "nia": 337,
      "ĠM": 338,
      "ĠK": 339,
      ".ĊĊ": 340,
      "no": 341,
      "Ġg": 342,
      "Äĩ": 343,
      "Ġro": 344,
      ")Ċ": 345,
      "jÄħ": 346,
      "ÅĤo": 347,
      "po": 348,
      "ĠsiÄĻ": 349,
      "em": 350,
      "sta": 351,
      "ta": 352,
      "ĠB": 353,
      "wo": 354,
      "da": 355,
      "ej": 356,
      "skie": 357,
      "lo": 358,
      "ĠA": 359,
      "dy": 360,
      "ja": 361,
      "owy": 362,
      "wi": 363,
      "ÅĽci": 364,
      "ur": 365,
      "owan": 366,
      "Ġst": 367,
      "Ġnie": 368,
      "Ġcz": 369,
      "ru": 370,
      "zy": 371,
      "20": 372,
      "Ġf": 373,
      "owa": 374,
      "Ġod": 375,
      "ier": 376,
      "tu": 377,
      "te": 378,
      "lu": 379,
      "ca": 380,
      "ĠR": 381,
      "Ġko": 382,
      "ĠC": 383,
      "cie": 384,
      "nych": 385,
      "in": 386,
      "cze": 387,
      "ĠN": 388,
      "ska": 389,
      "mie": 390,
      "to": 391,
      "is": 392,
      "Å¼e": 393,
      "ĠJ": 394,
      "czy": 395,
      "kie": 396,
      "ĠD": 397,
      "ĠT": 398,
      "ĠG": 399,
      "ego": 400,
      "ĠPo": 401,
      "wie": 402,
      "as": 403,
      "cji": 404,
      "Å¼y": 405,
      "ÅĤy": 406,
      "al": 407,
      "ĠL": 408,
      "zm": 409,
      "rÃ³": 410,
      "ĠI": 411,
      "tÃ³": 412,
      "ob": 413,
      "ran": 414,
      "âĢ": 415,
      "am": 416,
      "ĠZ": 417,
      "szy": 418,
      "ÅĤu": 419,
      "ĠO": 420,
      "18": 421,
      "ek": 422,
      ".Ċ": 423,
      "Ġpod": 424,
      "Ġpol": 425,
      "ÅĦski": 426,
      "ĠktÃ³": 427,
      "gi": 428,
      "du": 429,
      "Ġby": 430,
      "cho": 431,
      "dzie": 432,
      "Ġprzy": 433,
      "nej": 434,
      "ĠH": 435,
      "Ġob": 436,
      "raz": 437,
      "ma": 438,
      "kt": 439,
      ":Ċ": 440,
      "Ġli": 441,
      "cki": 442,
      "il": 443,
      "dzi": 444,
      "owie": 445,
      "ĠÅĽ": 446,
      "ĠF": 447,
      "Ġre": 448,
      "Ġja": 449,
      "pa": 450,
      "si": 451,
      "Ġdz": 452,
      "ery": 453,
      "Ġsz": 454,
      "Ġjest": 455,
      "(zm": 456,
      "Ġty": 457,
      "os": 458,
      "Ġh": 459,
      "ÅĽÄĩ": 460,
      "de": 461,
      "ani": 462,
      "owi": 463,
      "(ur": 464,
      "skiego": 465,
      "nego": 466,
      "Ġwo": 467,
      "sy": 468,
      "Ġprzez": 469,
      "âĢŀ": 470,
      "owo": 471,
      "Ġc": 472,
      "ost": 473,
      "om": 474,
      "un": 475,
      "wy": 476,
      "za": 477,
      "bi": 478,
      "Ġpro": 479,
      "Ġin": 480,
      "Ġroku": 481,
      "nik": 482,
      "ak": 483,
      "anie": 484,
      "el": 485,
      "ga": 486,
      "Åº": 487,
      "Ġroz": 488,
      "ĠE": 489,
      "any": 490,
      "sty": 491,
      "es": 492,
      "ania": 493,
      "nym": 494,
      "Ġpolski": 495,
      "Ġwie": 496,
      "Ġte": 497,
      "ana": 498,
      "Ġmo": 499,
      "wia": 500,
      "pu": 501,
      "ent": 502,
      "Ġma": 503,
      "Ġe": 504,
      "nÄħ": 505,
      "mu": 506,
      "fi": 507,
      "Ġr": 508,
      "Ġlu": 509,
      "dni": 510,
      "Ã³ÅĤ": 511,
      "Ġmie": 512,
      "Ġpra": 513,
      "sto": 514,
      "200": 515,
      "niej": 516,
      "sze": 517,
      "owe": 518,
      "sa": 519,
      "Ġjed": 520,
      "Ġsp": 521,
      "cja": 522,
      "by": 523,
      "ud": 524,
      "Ġpi": 525,
      "sp": 526,
      "owej": 527,
      "sza": 528,
      "ona": 529,
      "lat": 530,
      "Ġoraz": 531,
      "ostaÅĤ": 532,
      "Ġn": 533,
      "et": 534,
      "Ġpa": 535,
      "Ġto": 536,
      "ri": 537,
      "um": 538,
      "pi": 539,
      "gra": 540,
      "ĠNa": 541,
      "karz": 542,
      "skiej": 543,
      "ĠÅ": 544,
      "Ġpoli": 545,
      "bli": 546,
      "dze": 547,
      "owych": 548,
      "Ġkon": 549,
      "ĠU": 550,
      "owaÅĤ": 551,
      "iaÅĤ": 552,
      "and": 553,
      "Ġsk": 554,
      "mery": 555,
      "jÄĻ": 556,
      "jski": 557,
      "ol": 558,
      "tor": 559,
      "Ġ.ĊĊ": 560,
      "kÃ³w": 561,
      "201": 562,
      "stÄĻ": 563,
      "pie": 564,
      "cu": 565,
      "ĠzostaÅĤ": 566,
      "Ġpolity": 567,
      "Ġch": 568,
      "pis": 569,
      "cia": 570,
      "rod": 571,
      "199": 572,
      "mo": 573,
      "gu": 574,
      "ĠÅ¼e": 575,
      "Ġok": 576,
      "ist": 577,
      "meryka": 578,
      "ach": 579,
      "ez": 580,
      "czÄħ": 581,
      "Ġameryka": 582,
      "ed": 583,
      "ÅĤad": 584,
      "Ġlat": 585,
      "noÅĽci": 586,
      "Ġle": 587,
      "Ġze": 588,
      "ii": 589,
      "ĠktÃ³ry": 590,
      "Ġpow": 591,
      "ĠPol": 592,
      "Ã³r": 593,
      "ierw": 594,
      "ane": 595,
      "owany": 596,
      "jÄħcy": 597,
      "ono": 598,
      "cza": 599,
      "Äħd": 600,
      "io": 601,
      "Ġar": 602,
      "17": 603,
      "194": 604,
      "do": 605,
      "Ġwoj": 606,
      "iel": 607,
      "Ġjako": 608,
      "ter": 609,
      "niu": 610,
      "bo": 611,
      "Ġzna": 612,
      "my": 613,
      "czne": 614,
      "ba": 615,
      "ckie": 616,
      "Ġnaj": 617,
      "iaÅĤa": 618,
      "jÄħc": 619,
      "ĠktÃ³re": 620,
      "ju": 621,
      "sie": 622,
      "bie": 623,
      "Äħz": 624,
      "ad": 625,
      "owego": 626,
      "nika": 627,
      "ktor": 628,
      "aÅĤo": 629,
      "aty": 630,
      "Ġsam": 631,
      "ony": 632,
      "dzy": 633,
      "Ġni": 634,
      "zna": 635,
      "ĠCh": 636,
      "Ġpolityk": 637,
      "cyj": 638,
      "Ġsy": 639,
      "Ġdzie": 640,
      "ze": 641,
      "ul": 642,
      "ÅĦst": 643,
      "198": 644,
      "wiÄĻ": 645,
      "ĠpiÅĤ": 646,
      "ĠsÄħ": 647,
      "193": 648,
      "ory": 649,
      "oli": 650,
      "jÄħce": 651,
      "Ġspo": 652,
      "pe": 653,
      "Ġtak": 654,
      "us": 655,
      "one": 656,
      "ĠKo": 657,
      "Ġra": 658,
      "rowa": 659,
      "197": 660,
      "we": 661,
      "ÅĤaw": 662,
      "ĠSt": 663,
      "Ġka": 664,
      "II": 665,
      "ĠX": 666,
      "Ġpierw": 667,
      "uch": 668,
      "czny": 669,
      "siÄĻ": 670,
      "Ġlub": 671,
      "Ġmia": 672,
      "16": 673,
      "cznych": 674,
      "it": 675,
      "Ġdla": 676,
      "Ġpre": 677,
      "Ġprzed": 678,
      "ĠV": 679,
      "Ġjego": 680,
      "15": 681,
      "Ġgru": 682,
      "sku": 683,
      "Ġde": 684,
      "sko": 685,
      "ĠczÄĻ": 686,
      "ĠamerykaÅĦski": 687,
      "ary": 688,
      "Ġmiej": 689,
      "ÅĤÃ³w": 690,
      "ji": 691,
      "192": 692,
      "Ġwz": 693,
      "stÄĻp": 694,
      "ano": 695,
      "nÄĻ": 696,
      "war": 697,
      "10": 698,
      "ĠbyÅĤ": 699,
      "od": 700,
      "Ġkom": 701,
      "Ġtym": 702,
      "ĠpiÅĤkarz": 703,
      "Ġczy": 704,
      "Ġczas": 705,
      "Ġmi": 706,
      "pra": 707,
      "196": 708,
      "ÅĤÄħ": 709,
      "Ġfi": 710,
      "Ġgo": 711,
      "owski": 712,
      "ali": 713,
      "Ġmu": 714,
      "kiem": 715,
      "aÅĤy": 716,
      "su": 717,
      "202": 718,
      "owania": 719,
      "ĠrÃ³w": 720,
      "uk": 721,
      "nd": 722,
      "Ġniemie": 723,
      "Ġwi": 724,
      "ok": 725,
      "ene": 726,
      "195": 727,
      "siÄħ": 728,
      "Ġta": 729,
      "rÄĻ": 730,
      "cjÄĻ": 731,
      "iÄĻdzy": 732,
      "Ġdy": 733,
      "wiÄħz": 734,
      "Ġce": 735,
      "ct": 736,
      "ÅĦska": 737,
      "owym": 738,
      "Ġaktor": 739,
      "wÃ³": 740,
      "lem": 741,
      "ĠSz": 742,
      "ryty": 743,
      "kÅĤad": 744,
      "Ġmiejs": 745,
      "ut": 746,
      "191": 747,
      "Ġos": 748,
      "art": 749,
      "ĠWy": 750,
      "osta": 751,
      "noÅĽÄĩ": 752,
      "dzenia": 753,
      "rÃ³Å¼": 754,
      "czas": 755,
      "ral": 756,
      "ĠtakÅ¼e": 757,
      "ĠwÅĤa": 758,
      "ĠMa": 759,
      "ÅĽcie": 760,
      "zu": 761,
      "cÃ³w": 762,
      "Ġkat": 763,
      "Ġme": 764,
      "ĠKa": 765,
      "ĠÅļ": 766,
      "owanie": 767,
      "ĠMi": 768,
      "ĠdziaÅĤa": 769,
      "im": 770,
      "erw": 771,
      "ĠteÅ¼": 772,
      "ĠPa": 773,
      "nak": 774,
      "Ġokre": 775,
      "Ġjak": 776,
      "cznej": 777,
      "owÄħ": 778,
      "ĠÅ¼y": 779,
      "rza": 780,
      "olo": 781,
      "ĠkrÃ³": 782,
      "he": 783,
      "lÄĻ": 784,
      "Ġau": 785,
      "Ġstan": 786,
      "Ġco": 787,
      "Å¼a": 788,
      "ĠNie": 789,
      "ck": 790,
      "arsza": 791,
      "ge": 792,
      "ron": 793,
      "Ġpoz": 794,
      "ĠwiÄĻ": 795,
      "Ġsta": 796,
      "cznie": 797,
      "tÃ³w": 798,
      "for": 799,
      "arka": 800,
      "unk": 801,
      "usz": 802,
      "rancu": 803,
      "Ġbi": 804,
      "Ġwsp": 805,
      "14": 806,
      "rak": 807,
      "Ã³l": 808,
      "Ġpocho": 809,
      "rzÄħ": 810,
      "Ġnad": 811,
      "Ġswo": 812,
      "uro": 813,
      "lej": 814,
      "tk": 815,
      "dob": 816,
      "niÄĻ": 817,
      "ers": 818,
      "cje": 819,
      ",Ċ": 820,
      "12": 821,
      "Ġor": 822,
      "ĠMar": 823,
      "ec": 824,
      "czÄĻ": 825,
      "owane": 826,
      "ĠZa": 827,
      "Ġlatach": 828,
      "ĠÅĽwia": 829,
      "13": 830,
      "bu": 831,
      "Przy": 832,
      "ber": 833,
      "trz": 834,
      "Ġop": 835,
      "pisy": 836,
      "co": 837,
      "nieÅ¼": 838,
      "Ġlo": 839,
      "ĠJa": 840,
      "lan": 841,
      "ĠÅ¼": 842,
      "ĠLe": 843,
      "190": 844,
      "Ġmar": 845,
      "Ġjednak": 846,
      "pad": 847,
      "Ġog": 848,
      "ksz": 849,
      "stra": 850,
      "Ġnaz": 851,
      "rani": 852,
      "ĠAn": 853,
      "ĠBo": 854,
      "ĠII": 855,
      "Ġrze": 856,
      "so": 857,
      "Ġpis": 858,
      "ang": 859,
      "eÅĤ": 860,
      "Ġsty": 861,
      "ĠWarsza": 862,
      "enta": 863,
      "skich": 864,
      "Ġpos": 865,
      "gani": 866,
      "Ġpraw": 867,
      "Ġfrancu": 868,
      "Ġut": 869,
      "ort": 870,
      "Ġtego": 871,
      "prowa": 872,
      "czna": 873,
      "stwa": 874,
      "graf": 875,
      "mier": 876,
      "Ġfil": 877,
      "Ġdru": 878,
      "ĠrÃ³wnieÅ¼": 879,
      "Ã³b": 880,
      "Ġhist": 881,
      "spo": 882,
      "rzÄħd": 883,
      "py": 884,
      "Ġwyb": 885,
      "kÄħ": 886,
      "kon": 887,
      "Ġpu": 888,
      "]]": 889,
      "Ġal": 890,
      "anych": 891,
      "skim": 892,
      "ĠMo": 893,
      "zi": 894,
      "dziaÅĤ": 895,
      "stan": 896,
      "Ġzosta": 897,
      "ata": 898,
      "daw": 899,
      "Ã©": 900,
      "cÄħ": 901,
      "cznego": 902,
      "prze": 903,
      "Ġwe": 904,
      "Ġter": 905,
      "ÅĦskiego": 906,
      "jÄĻzy": 907,
      "Ġbez": 908,
      "Ġwieku": 909,
      "ĠJe": 910,
      "rzÄĻ": 911,
      "ĠRa": 912,
      "Ġniemiecki": 913,
      "szych": 914,
      "Ġba": 915,
      "Ġtra": 916,
      "Ġkra": 917,
      "ÅĤe": 918,
      "Âł": 919,
      "ĠAr": 920,
      "ot": 921,
      "dza": 922,
      "czo": 923,
      "szcze": 924,
      "00": 925,
      "cka": 926,
      "lek": 927,
      "zie": 928,
      "Po": 929,
      "Ġpowie": 930,
      "Przypisy": 931,
      "tego": 932,
      "dnia": 933,
      "ĠRe": 934,
      "leg": 935,
      "nek": 936,
      "ĠFran": 937,
      "chi": 938,
      "ard": 939,
      "ciÄħ": 940,
      "Ġkatoli": 941,
      "Ġich": 942,
      "rÃ³d": 943,
      "ĠIn": 944,
      "Ġru": 945,
      "zyd": 946,
      "wiet": 947,
      "rzym": 948,
      "ĠmoÅ¼": 949,
      "Ġpolska": 950,
      "nii": 951,
      "Na": 952,
      "ĠuÅ¼y": 953,
      "nikÃ³w": 954,
      "szyst": 955,
      "ĠLi": 956,
      "gie": 957,
      "ĠWo": 958,
      "skÄħ": 959,
      "oru": 960,
      "kÄĻ": 961,
      "ser": 962,
      "stem": 963,
      "Ġot": 964,
      "dzia": 965,
      "leÅ¼": 966,
      "ĠmiÄĻdzy": 967,
      "Ġim": 968,
      "cha": 969,
      "kich": 970,
      "lko": 971,
      "man": 972,
      ").ĊĊ": 973,
      "Ġbryty": 974,
      "dnie": 975,
      "Ġfor": 976,
      "nÄĻtrz": 977,
      "lar": 978,
      "jÄħcych": 979,
      "mia": 980,
      "189": 981,
      "sÅĤaw": 982,
      "ckiego": 983,
      "dzÄħ": 984,
      "ner": 985,
      "niem": 986,
      "Ġjej": 987,
      "cer": 988,
      "Ġbra": 989,
      "ti": 990,
      "Ġznaj": 991,
      "gro": 992,
      "Ã³Åº": 993,
      "Ġdu": 994,
      "pre": 995,
      "ĠwÅĤo": 996,
      "szka": 997,
      "Ġduch": 998,
      "âĢĻ": 999,
      "Ġwar": 1000,
      "wnÄĻtrz": 1001,
      "ĠzwiÄħz": 1002,
      "kty": 1003,
      "Ġjedno": 1004,
      "ĠRo": 1005,
      "Ã³d": 1006,
      "der": 1007,
      "Ġsie": 1008,
      "stÄħ": 1009,
      "ĠCz": 1010,
      "ĠDo": 1011,
      "ÅĽli": 1012,
      "Ġbo": 1013,
      "Ġbar": 1014,
      "nict": 1015,
      "ha": 1016,
      "ĠpaÅĦst": 1017,
      "ĠjÄĻzy": 1018,
      "stÄĻpu": 1019,
      "ĠOd": 1020,
      "Ġpowst": 1021,
      "sÅĤ": 1022,
      "skup": 1023,
      "ir": 1024,
      "ĠgÅĤÃ³w": 1025,
      "aniu": 1026,
      "Ġno": 1027,
      "stwo": 1028,
      "rzeÅĽ": 1029,
      "ĠbyÅĤa": 1030,
      "stat": 1031,
      "ler": 1032,
      "let": 1033,
      "Ġek": 1034,
      "tek": 1035,
      "lÄħ": 1036,
      "blio": 1037,
      "ĠpÃ³ÅĤ": 1038,
      "kÅĤa": 1039,
      "Ġstycz": 1040,
      "wier": 1041,
      ".in": 1042,
      "ĠrÃ³Å¼": 1043,
      "ĠwrzeÅĽ": 1044,
      "op": 1045,
      "Ġwszyst": 1046,
      "log": 1047,
      "Ġstanowi": 1048,
      "ing": 1049,
      "oÅĤ": 1050,
      "nymi": 1051,
      "owano": 1052,
      "gii": 1053,
      "zo": 1054,
      "tera": 1055,
      "czka": 1056,
      "ĠÅģ": 1057,
      "Ġpochodzenia": 1058,
      "ara": 1059,
      "tem": 1060,
      "szÄħ": 1061,
      "Ġrosy": 1062,
      "wan": 1063,
      "ĠczÅĤ": 1064,
      "kaz": 1065,
      "fa": 1066,
      "oba": 1067,
      "Ġkla": 1068,
      "ÅĤug": 1069,
      "ĠAl": 1070,
      "min": 1071,
      "Ġkolej": 1072,
      "staw": 1073,
      "str": 1074,
      "Ġczerw": 1075,
      "Ġkatolicki": 1076,
      "Ġmat": 1077,
      "zn": 1078,
      "Ġstos": 1079,
      "owana": 1080,
      "gen": 1081,
      "szcz": 1082,
      "tury": 1083,
      "Ġrozpo": 1084,
      "Ã³Åºniej": 1085,
      "ciw": 1086,
      "Ġzes": 1087,
      "Ġprodu": 1088,
      "owny": 1089,
      "ĠWiel": 1090,
      "kach": 1091,
      "dziÅĤ": 1092,
      "ster": 1093,
      "waÅĤ": 1094,
      "dem": 1095,
      "Ġpowo": 1096,
      "Ġspra": 1097,
      "szym": 1098,
      "pozy": 1099,
      "188": 1100,
      "se": 1101,
      "Ġmiasta": 1102,
      "Ġkwiet": 1103,
      "jska": 1104,
      "hi": 1105,
      "Ġfunk": 1106,
      "pÅĤy": 1107,
      "sce": 1108,
      "czenia": 1109,
      "]]Ċ": 1110,
      "pada": 1111,
      "noc": 1112,
      "owaÄĩ": 1113,
      "Ġlek": 1114,
      "dzier": 1115,
      "Ġmuzy": 1116,
      "kra": 1117,
      "waÅ¼": 1118,
      "stru": 1119,
      "Ġry": 1120,
      "Ġsier": 1121,
      "grafia": 1122,
      "Ġoko": 1123,
      "wski": 1124,
      "ĠbyÅĤo": 1125,
      "Ġtu": 1126,
      "Åºdzier": 1127,
      "Ġwyko": 1128,
      "ĠPrze": 1129,
      "roni": 1130,
      "mina": 1131,
      "taÅĤ": 1132,
      "Ġlisto": 1133,
      "ÄĻg": 1134,
      "Ġwyd": 1135,
      "rÄħ": 1136,
      "Ġduchowny": 1137,
      "Ġlicz": 1138,
      "Ġlip": 1139,
      "ÅĽnie": 1140,
      "owia": 1141,
      "ĠbyÅĤy": 1142,
      "Ã¡": 1143,
      "ĠpaÅºdzier": 1144,
      "Ġale": 1145,
      "sÅĤa": 1146,
      "ĠKon": 1147,
      "Ġten": 1148,
      "Ġkil": 1149,
      "ĠczÄĻÅĽci": 1150,
      "Ġzwy": 1151,
      "ĠwspÃ³ÅĤ": 1152,
      "di": 1153,
      "dÃ³w": 1154,
      "ym": 1155,
      "ĠwrzeÅĽnia": 1156,
      "ĠzostaÅĤa": 1157,
      "Ġorgani": 1158,
      "(w": 1159,
      "Ġda": 1160,
      "ste": 1161,
      "koÅĦ": 1162,
      "Ġkar": 1163,
      "Ġju": 1164,
      "chni": 1165,
      "Ġof": 1166,
      "ĠbyÄĩ": 1167,
      "ĠPolski": 1168,
      "Ġprezyd": 1169,
      "ich": 1170,
      "cjal": 1171,
      "Ġsierp": 1172,
      "Ġmaja": 1173,
      "strze": 1174,
      "ÅĤudni": 1175,
      "Ġgene": 1176,
      "pol": 1177,
      "larz": 1178,
      "Ġmarca": 1179,
      "Ġfilm": 1180,
      "cznym": 1181,
      "Ġmiejsce": 1182,
      "oh": 1183,
      "Ġstro": 1184,
      "Ġwojsk": 1185,
      "powie": 1186,
      "raÅĤ": 1187,
      "siÄħÅ¼": 1188,
      "owskiego": 1189,
      "ĠnastÄĻp": 1190,
      "ab": 1191,
      "Ġwoje": 1192,
      "isz": 1193,
      "me": 1194,
      "glÄĻ": 1195,
      "dzo": 1196,
      "Ġstycznia": 1197,
      "Ġkwietnia": 1198,
      "Ġsi": 1199,
      "ĠpoczÄħ": 1200,
      "pro": 1201,
      "wer": 1202,
      "ÅĤuÅ¼": 1203,
      "ĠAu": 1204,
      "30": 1205,
      "uje": 1206,
      "Ġsamo": 1207,
      "dÄħ": 1208,
      "cjÄħ": 1209,
      "Ġprzeciw": 1210,
      "ÅĦskiej": 1211,
      "ciu": 1212,
      "Ġbud": 1213,
      "th": 1214,
      "mii": 1215,
      "mar": 1216,
      "iblio": 1217,
      "Ġczerwca": 1218,
      "cznÄħ": 1219,
      "bud": 1220,
      "ciÄĻ": 1221,
      "ĠspoÅĤe": 1222,
      "wÃ³r": 1223,
      "ĠEuro": 1224,
      "ĠpÃ³Åºniej": 1225,
      "stro": 1226,
      "lin": 1227,
      "ĠktÃ³ra": 1228,
      "Ġfrancuski": 1229,
      "Ġznajdu": 1230,
      "11": 1231,
      "per": 1232,
      "pera": 1233,
      "Ġgrudnia": 1234,
      "edÅĤug": 1235,
      "doby": 1236,
      "be": 1237,
      "rzu": 1238,
      "owca": 1239,
      "ĠzewnÄĻtrz": 1240,
      "Ġan": 1241,
      "bur": 1242,
      "mat": 1243,
      "ĠPolsce": 1244,
      "tr": 1245,
      "Ġtre": 1246,
      "Ġhistory": 1247,
      "Ġtej": 1248,
      "tar": 1249,
      "Ġgdy": 1250,
      "187": 1251,
      "Ġlipca": 1252,
      "mieni": 1253,
      "ĠBa": 1254,
      ")ĊĊ": 1255,
      "Ġosob": 1256,
      "ĠOr": 1257,
      "redni": 1258,
      "ĠmoÅ¼e": 1259,
      "men": 1260,
      "Ġpubli": 1261,
      "Ġzie": 1262,
      "czenie": 1263,
      "scho": 1264,
      "len": 1265,
      "gÃ³l": 1266,
      "tni": 1267,
      "ĠÅ»": 1268,
      "Ġpot": 1269,
      "Ġgdzie": 1270,
      "Mar": 1271,
      "Ġpisa": 1272,
      "owaÅĤa": 1273,
      "ĠÅĽwiat": 1274,
      ";Ċ": 1275,
      "ĠpaÅºdziernika": 1276,
      "ckiej": 1277,
      "res": 1278,
      "ĠPod": 1279,
      "ment": 1280,
      "Ġpodczas": 1281,
      "sti": 1282,
      "bior": 1283,
      "Ġsystem": 1284,
      "Ġaktorka": 1285,
      "ore": 1286,
      "Ġpar": 1287,
      "ĠzaÅĤo": 1288,
      "Ġtylko": 1289,
      "rot": 1290,
      "nad": 1291,
      "czes": 1292,
      "mach": 1293,
      "vi": 1294,
      "Wy": 1295,
      "szej": 1296,
      "rach": 1297,
      "Ġbrytyjski": 1298,
      "ĠTe": 1299,
      "czyÅĤ": 1300,
      "Ġsierpnia": 1301,
      "Ġczasie": 1302,
      "zji": 1303,
      "obacz": 1304,
      "dziej": 1305,
      "186": 1306,
      "Ġpor": 1307,
      "kade": 1308,
      "Ġpe": 1309,
      "Ġtem": 1310,
      "zacji": 1311,
      "ĠLu": 1312,
      "iu": 1313,
      "25": 1314,
      "Ġlistopada": 1315,
      "Ġkie": 1316,
      "stawi": 1317,
      "Ġostat": 1318,
      "stka": 1319,
      "ĠksiÄĻ": 1320,
      "kiej": 1321,
      "Ġkul": 1322,
      "ÅĤÄĻ": 1323,
      "Ġcy": 1324,
      "Ġzw": 1325,
      "rzenia": 1326,
      "ĠStan": 1327,
      "Ġraz": 1328,
      "stÄħpi": 1329,
      "Ġwyni": 1330,
      "dar": 1331,
      "Ġbiskup": 1332,
      "Ġser": 1333,
      "kim": 1334,
      "Ġwal": 1335,
      "tro": 1336,
      "stÃ³w": 1337,
      "ĠBy": 1338,
      "lekt": 1339,
      "Ġlekko": 1340,
      "Ġszko": 1341,
      "ĠwzglÄĻ": 1342,
      "gÄħ": 1343,
      "tych": 1344,
      "dzt": 1345,
      "ĠktÃ³rych": 1346,
      "Ġswoje": 1347,
      "Ġla": 1348,
      "ĠcaÅĤ": 1349,
      "tan": 1350,
      "kry": 1351,
      "ĠJan": 1352,
      "zw": 1353,
      "ium": 1354,
      "kiego": 1355,
      "Ġlutego": 1356,
      "ĠÅĤa": 1357,
      "stu": 1358,
      "Ġprowa": 1359,
      "bro": 1360,
      "wem": 1361,
      "ces": 1362,
      "ĠokreÅĽ": 1363,
      "stnie": 1364,
      "ĠwÅĤoski": 1365,
      "onu": 1366,
      "âĢĿ": 1367,
      "Ġad": 1368,
      "Ġv": 1369,
      "Lin": 1370,
      "Ġpierwszy": 1371,
      "mian": 1372,
      "Ġwa": 1373,
      "ejm": 1374,
      "owiec": 1375,
      "Zobacz": 1376,
      "Biblio": 1377,
      "owanych": 1378,
      "ĠosÃ³b": 1379,
      "Ġwojny": 1380,
      "ÅĤoÅ¼": 1381,
      "anii": 1382,
      "den": 1383,
      "Ġlekkoat": 1384,
      "au": 1385,
      "Ġzespo": 1386,
      "Ġmieszka": 1387,
      "ĠzewnÄĻtrzne": 1388,
      "wu": 1389,
      "rab": 1390,
      "ĠksiÄħÅ¼": 1391,
      "ĠWil": 1392,
      "ans": 1393,
      "che": 1394,
      "Å¼yser": 1395,
      "Ġzdoby": 1396,
      "ĠktÃ³rej": 1397,
      "Ġsu": 1398,
      "ĠÅĽmier": 1399,
      "mal": 1400,
      "mini": 1401,
      "Ġkompozy": 1402,
      "ĠjuÅ¼": 1403,
      "ĠTa": 1404,
      "Bibliografia": 1405,
      "eta": 1406,
      "Ġpisarz": 1407,
      "kami": 1408,
      "wiÄĻk": 1409,
      "lne": 1410,
      "Ġinnych": 1411,
      "son": 1412,
      "ĠmoÅ¼na": 1413,
      "Linki": 1414,
      "cÄĻ": 1415,
      "dno": 1416,
      "oÅĽci": 1417,
      "wat": 1418,
      "Ġtrze": 1419,
      "Ġpomo": 1420,
      "ĠPi": 1421,
      "Ġcze": 1422,
      "Ġofi": 1423,
      "les": 1424,
      "Ġzd": 1425,
      "ĠIII": 1426,
      ".e": 1427,
      "Ġsze": 1428,
      "stytu": 1429,
      "ĠamerykaÅĦska": 1430,
      "lii": 1431,
      "ĠreÅ¼yser": 1432,
      "kar": 1433,
      "ina": 1434,
      "oria": 1435,
      "Ġpom": 1436,
      "leks": 1437,
      "Ġgra": 1438,
      "ĠXV": 1439,
      "ĠktÃ³rym": 1440,
      "Ġbu": 1441,
      "ĠWi": 1442,
      "ĠÅĽrod": 1443,
      "ktÃ³": 1444,
      "dyn": 1445,
      "publi": 1446,
      "ĠdÅĤu": 1447,
      "ĠTo": 1448,
      "ÅĦstwa": 1449,
      "ĠkoÅĦ": 1450,
      "ktu": 1451,
      "ena": 1452,
      "ĠbÄĻ": 1453,
      "Ġtwo": 1454,
      "Ġszy": 1455,
      "ĠczÅĤon": 1456,
      "naÅĤ": 1457,
      "dzenie": 1458,
      "ĠRos": 1459,
      "ĠczÄĻÅĽÄĩ": 1460,
      "ĠKra": 1461,
      "pej": 1462,
      "cach": 1463,
      "szego": 1464,
      "ĠpoÅĤudni": 1465,
      "Ġdzien": 1466,
      "Ġbit": 1467,
      "24": 1468,
      "Ġnp": 1469,
      "ĠSa": 1470,
      "jÄħca": 1471,
      "cych": 1472,
      "Ġzach": 1473,
      "ĠpÅĤy": 1474,
      "owarzy": 1475,
      "ĠUni": 1476,
      "cent": 1477,
      "arÃ³w": 1478,
      "ton": 1479,
      "dzki": 1480,
      "aniem": 1481,
      "ĠmÄĻ": 1482,
      "dal": 1483,
      "ĠsÅĤ": 1484,
      "ng": 1485,
      "Ġdro": 1486,
      "wÄĻ": 1487,
      "ĠkrÃ³l": 1488,
      "Ġodby": 1489,
      "land": 1490,
      "osen": 1491,
      "ÅĦskie": 1492,
      "ĠpÃ³ÅĤnoc": 1493,
      "ei": 1494,
      "Ġrosyjski": 1495,
      "ĠniÅ¼": 1496,
      "Ġtrener": 1497,
      "ord": 1498,
      "eli": 1499,
      "ĠwiÄĻksz": 1500,
      "Ġarty": 1501,
      "liwo": 1502,
      "Ġcho": 1503,
      "tra": 1504,
      "kow": 1505,
      "Ġgrani": 1506,
      "Ġposta": 1507,
      "ÅĽcia": 1508,
      "kre": 1509,
      "rÃ³w": 1510,
      "kademi": 1511,
      "Je": 1512,
      "Ġautor": 1513,
      "Ġposia": 1514,
      "ĠJu": 1515,
      "ĠWa": 1516,
      "par": 1517,
      "nu": 1518,
      "Ã³ze": 1519,
      "Ġat": 1520,
      "Ġpoja": 1521,
      "ÅĦcÃ³w": 1522,
      "mienia": 1523,
      "Ġnau": 1524,
      "wania": 1525,
      "ĠXI": 1526,
      "Ġzn": 1527,
      "onal": 1528,
      "czu": 1529,
      "qu": 1530,
      "22": 1531,
      "onÄħ": 1532,
      "Ġpie": 1533,
      "mien": 1534,
      "ĠokoÅĤo": 1535,
      "olog": 1536,
      "cej": 1537,
      "kcji": 1538,
      "wicz": 1539,
      "185": 1540,
      "ĠktÃ³rego": 1541,
      "ĠBer": 1542,
      "orii": 1543,
      "niÄħ": 1544,
      "Ġspos": 1545,
      "jedno": 1546,
      "Ġcie": 1547,
      "ĠdziaÅĤacz": 1548,
      "ĠPra": 1549,
      "184": 1550,
      "Ġelekt": 1551,
      "fe": 1552,
      "Ġon": 1553,
      "ĠWie": 1554,
      "ÅĤoÅĽci": 1555,
      "orÃ³w": 1556,
      "tej": 1557,
      "tur": 1558,
      "Ġkompozytor": 1559,
      "bar": 1560,
      "ÅĽrÃ³d": 1561,
      "ĠDe": 1562,
      "wersy": 1563,
      "Ġzam": 1564,
      "tora": 1565,
      "lub": 1566,
      "zmu": 1567,
      "Ġnich": 1568,
      "Ġozna": 1569,
      "ole": 1570,
      "Ġodpowie": 1571,
      "ĠwÅĤas": 1572,
      "ve": 1573,
      "rzysta": 1574,
      "mis": 1575,
      "ĠWarszawa": 1576,
      "Ġmiasto": 1577,
      "Ġku": 1578,
      "Ġprzypad": 1579,
      "grafi": 1580,
      "row": 1581,
      "Ġakademi": 1582,
      ".n": 1583,
      "sÅĤu": 1584,
      "dniej": 1585,
      "Ġtrzy": 1586,
      "Ġang": 1587,
      "wersyte": 1588,
      "isÅĤaw": 1589,
      "tku": 1590,
      "gin": 1591,
      "enry": 1592,
      "ĠWoj": 1593,
      "Ġzacho": 1594,
      "wÃ³j": 1595,
      "Ġpoprze": 1596,
      "menta": 1597,
      "Ġwyso": 1598,
      "23": 1599,
      "Ġlitera": 1600,
      "Ġso": 1601,
      "Ġklasy": 1602,
      "ĠwykÅĤad": 1603,
      "Ġwiel": 1604,
      "Ġinter": 1605,
      "ĠNaj": 1606,
      "Ġistnie": 1607,
      "asa": 1608,
      "III": 1609,
      "ĠpeÅĤ": 1610,
      "ĠSy": 1611,
      "Ġobec": 1612,
      "chy": 1613,
      "pod": 1614,
      "zd": 1615,
      "Ġzm": 1616,
      "wod": 1617,
      "ĠSta": 1618,
      "Ġszcze": 1619,
      "Ġbie": 1620,
      "jem": 1621,
      "ĠPrzy": 1622,
      "Å¼ej": 1623,
      "prez": 1624,
      "nem": 1625,
      "ĠSo": 1626,
      "atu": 1627,
      "szech": 1628,
      "ĠPro": 1629,
      "ckich": 1630,
      "czej": 1631,
      "Ġsztu": 1632,
      "wal": 1633,
      "Ġnauk": 1634,
      "Ġfilo": 1635,
      "Ġtych": 1636,
      "koÅĽci": 1637,
      "28": 1638,
      "jÄħÅĤ": 1639,
      "Ġjedy": 1640,
      "Ġwraz": 1641,
      "wane": 1642,
      "Å¼enia": 1643,
      "Ġen": 1644,
      "ĠzakoÅĦ": 1645,
      "26": 1646,
      "ĠBar": 1647,
      "ĠNi": 1648,
      "ĠNarod": 1649,
      "ĠwpÅĤy": 1650,
      "ĠKrÃ³": 1651,
      "Ġpiosen": 1652,
      "bra": 1653,
      "ĠÅĽw": 1654,
      "arakt": 1655,
      "ĠNe": 1656,
      "ĠczÄĻsto": 1657,
      "27": 1658,
      "nicy": 1659,
      "ĠoÅĽ": 1660,
      "iszpa": 1661,
      "anu": 1662,
      "leksand": 1663,
      "ĠHa": 1664,
      "183": 1665,
      "kowi": 1666,
      "An": 1667,
      "ĠLud": 1668,
      "ĠDa": 1669,
      "praw": 1670,
      "ciel": 1671,
      "forma": 1672,
      "nar": 1673,
      "Ġdwa": 1674,
      "ĠAnd": 1675,
      "Å¼u": 1676,
      "ĠwystÄĻpu": 1677,
      "ant": 1678,
      "ĠmiaÅĤ": 1679,
      "ĠMu": 1680,
      "ho": 1681,
      "Ġprogra": 1682,
      "lny": 1683,
      "lim": 1684,
      "dat": 1685,
      "ĠÅĤÄħ": 1686,
      "wany": 1687,
      "owali": 1688,
      "Ġmini": 1689,
      "ĠdziaÅĤ": 1690,
      "Ġprezydent": 1691,
      "logi": 1692,
      "(z": 1693,
      "Ġzat": 1694,
      "gar": 1695,
      "Ġwyniku": 1696,
      "ĠRP": 1697,
      "jÄħcego": 1698,
      "narod": 1699,
      "ĠskÅĤad": 1700,
      "miast": 1701,
      "ÅĦskich": 1702,
      "fika": 1703,
      "ĠY": 1704,
      "ĠHe": 1705,
      "Ġponad": 1706,
      "ĠRze": 1707,
      "ĠThe": 1708,
      "ĠokrÄĻ": 1709,
      "onych": 1710,
      "ĠLa": 1711,
      "Ġkoszy": 1712,
      "pli": 1713,
      "istrz": 1714,
      "Ġuzy": 1715,
      "now": 1716,
      "bÄĻ": 1717,
      "Ġdow": 1718,
      "ĠkaÅ¼": 1719,
      "Ġutwo": 1720,
      "Ġhiszpa": 1721,
      "Ġnr": 1722,
      "Ġtere": 1723,
      "50": 1724,
      "obie": 1725,
      "Ġrodzi": 1726,
      "lÄħd": 1727,
      "Ġwprowa": 1728,
      "wÃ³ch": 1729,
      "Å¼enie": 1730,
      "lom": 1731,
      "stria": 1732,
      "wÄħ": 1733,
      "ĠjÄħ": 1734,
      "Ġokresie": 1735,
      "Ġmiejsc": 1736,
      "ph": 1737,
      "oni": 1738,
      "ÅĽcio": 1739,
      "Ġobie": 1740,
      "wen": 1741,
      "181": 1742,
      "krai": 1743,
      "karka": 1744,
      "Ã¼": 1745,
      "ĠXX": 1746,
      "21": 1747,
      "Ġbardzo": 1748,
      "ĠMe": 1749,
      "Ġcharakt": 1750,
      "ĠzwyciÄĻ": 1751,
      "Ġucze": 1752,
      "wodni": 1753,
      "ere": 1754,
      "lnych": 1755,
      "Ġtytu": 1756,
      "ĠNiem": 1757,
      "Ġzawie": 1758,
      "ÅĽniej": 1759,
      "Za": 1760,
      "Ġpart": 1761,
      "ĠdwÃ³ch": 1762,
      "cen": 1763,
      "ÅĦskim": 1764,
      "Ġelem": 1765,
      "mierz": 1766,
      "Ġlud": 1767,
      "oÅĤnie": 1768,
      "Ġpopu": 1769,
      "szczy": 1770,
      "Ġspe": 1771,
      "gry": 1772,
      "Ġtran": 1773,
      "czonych": 1774,
      "nku": 1775,
      "Ġ.Ċ": 1776,
      "ĠJed": 1777,
      "Ġsil": 1778,
      "owaÅĤy": 1779,
      "ĠpoÅĽ": 1780,
      "180": 1781,
      "wiÄħ": 1782,
      "nosi": 1783,
      "fer": 1784,
      "ĠwÄĻg": 1785,
      "Ġstra": 1786,
      "niczy": 1787,
      "lista": 1788,
      "Ġfa": 1789,
      "Ġarchi": 1790,
      "car": 1791,
      "ksztaÅĤ": 1792,
      "ĠmÅĤo": 1793,
      "ÅĤady": 1794,
      "Ja": 1795,
      "ĠzostaÅĤo": 1796,
      "wali": 1797,
      "ĠKu": 1798,
      "Ġakademicki": 1799,
      "Ã¶": 1800,
      "Ġgospo": 1801,
      "Ġwielu": 1802,
      "ĠzÅĤo": 1803,
      "ĠFi": 1804,
      "Ġkier": 1805,
      "koÅĤa": 1806,
      "stawie": 1807,
      "ĠgÅĤo": 1808,
      "Ka": 1809,
      "Ġfilozo": 1810,
      "onie": 1811,
      "ÃŃ": 1812,
      "Ġwykorzy": 1813,
      "Mi": 1814,
      "Ġpowierz": 1815,
      "oÅĽÄĩ": 1816,
      "rum": 1817,
      "Ġgro": 1818,
      "ĠzostaÅĤy": 1819,
      "ĠBe": 1820,
      "Ġtzw": 1821,
      "ĠtÅĤu": 1822,
      "ĠciÄħ": 1823,
      "szcza": 1824,
      "29": 1825,
      "ks": 1826,
      "Ġpan": 1827,
      "ĠmajÄħ": 1828,
      "chu": 1829,
      "Ġsek": 1830,
      "del": 1831,
      "ÅĽni": 1832,
      "ĠÅĽwiÄĻ": 1833,
      "ĠÅĽmierci": 1834,
      "daÅĦ": 1835,
      "100": 1836,
      "ĠrozpoczÄĻ": 1837,
      "ion": 1838,
      "ĠnastÄĻpnie": 1839,
      "Ġsko": 1840,
      "ĠÅ¼ycia": 1841,
      "ckim": 1842,
      "dom": 1843,
      "jÄħcÄħ": 1844,
      "ĠdÅĤugo": 1845,
      "Ġstop": 1846,
      "Ġsce": 1847,
      "Ġtele": 1848,
      "Ġkomu": 1849,
      "gh": 1850,
      "nictwo": 1851,
      "por": 1852,
      "ver": 1853,
      "ĠpoÅĤ": 1854,
      "scy": 1855,
      "jÄħcej": 1856,
      "zja": 1857,
      "Ġska": 1858,
      "Ġznajduje": 1859,
      ":ĊĊ": 1860,
      "ĠUS": 1861,
      "lew": 1862,
      "Ã³j": 1863,
      "Ġpoeta": 1864,
      "Jan": 1865,
      "gna": 1866,
      "ĠWe": 1867,
      "peÅĤ": 1868,
      "lega": 1869,
      "rzyÅ¼": 1870,
      "dow": 1871,
      "ĠÅĽwie": 1872,
      "lenia": 1873,
      "Ġne": 1874,
      "Ma": 1875,
      "pÃ³ÅĤ": 1876,
      "rie": 1877,
      "Ġge": 1878,
      "ĠMie": 1879,
      "ĠSejm": 1880,
      "Ġwers": 1881,
      "Ġkraju": 1882,
      "Ġmy": 1883,
      "Ġzaj": 1884,
      "ĠskÅĤa": 1885,
      "wÃ³dzt": 1886,
      "toni": 1887,
      "ciÅĤ": 1888,
      "onomi": 1889,
      "(n": 1890,
      "czeÅĽniej": 1891,
      "nienia": 1892,
      "nica": 1893,
      "ĠwykÅĤadowca": 1894,
      "ĠJoh": 1895,
      "Ch": 1896,
      "ĠPar": 1897,
      "Ro": 1898,
      "ministra": 1899,
      "laz": 1900,
      "Ġtys": 1901,
      "rami": 1902,
      "Ġkonie": 1903,
      "ĠÅ¼oÅĤnie": 1904,
      "Å»": 1905,
      "ĠBry": 1906,
      "Ġtam": 1907,
      "nictwa": 1908,
      "anady": 1909,
      "szu": 1910,
      "182": 1911,
      "Ġhistoryk": 1912,
      "Ġprawo": 1913,
      "ger": 1914,
      "Ġstar": 1915,
      "ĠnaleÅ¼": 1916,
      "Ġkan": 1917,
      "ĠsposÃ³b": 1918,
      "Ġpowsta": 1919,
      "tyw": 1920,
      "rii": 1921,
      "Ġdrugie": 1922,
      "ĠSte": 1923,
      "Ġsport": 1924,
      "ĠpaÅĦstwa": 1925,
      "obec": 1926,
      "tki": 1927,
      "ten": 1928,
      ").Ċ": 1929,
      "Od": 1930,
      "waj": 1931,
      "rem": 1932,
      "iÄĻki": 1933,
      "ĠSe": 1934,
      "wet": 1935,
      "podob": 1936,
      "Ġsto": 1937,
      "star": 1938,
      "Ġnor": 1939,
      "Ġrodza": 1940,
      "ĠprÃ³": 1941,
      "ren": 1942,
      "Å¼Äħ": 1943,
      "waÄĩ": 1944,
      "Ġprac": 1945,
      "ĠpaÅĦstw": 1946,
      "dzin": 1947,
      "stos": 1948,
      "ian": 1949,
      "Ġfizy": 1950,
      "rzej": 1951,
      "ĠBu": 1952,
      "muje": 1953,
      "owoÅĽci": 1954,
      "Ġtek": 1955,
      "Ġzasa": 1956,
      "ĠpoÅĤÄħ": 1957,
      "Ġstud": 1958,
      "jskiego": 1959,
      "ĠOb": 1960,
      "Ġangiel": 1961,
      "amiÄĻ": 1962,
      "ĠGe": 1963,
      "ĠudziaÅĤ": 1964,
      "Ġjeden": 1965,
      "ĠKar": 1966,
      "Ġwiele": 1967,
      "lenie": 1968,
      "ĠpiÄĻ": 1969,
      "Ġczyli": 1970,
      "Ġmniej": 1971,
      "cyjne": 1972,
      "ros": 1973,
      "niki": 1974,
      "Ġkilka": 1975,
      "Ġul": 1976,
      "ĠWarszawie": 1977,
      "ou": 1978,
      "ĠÅĽwiata": 1979,
      "czeniu": 1980,
      "gÃ³w": 1981,
      "ĠSi": 1982,
      "Ġga": 1983,
      "rony": 1984,
      "tÄĻ": 1985,
      "Ġpoko": 1986,
      "Ġcelu": 1987,
      "ĠÅĽredni": 1988,
      "Ġszwe": 1989,
      "wyÅ¼": 1990,
      "Ġreli": 1991,
      "Ġnazy": 1992,
      "dÅĤ": 1993,
      "rom": 1994,
      "Ġjednost": 1995,
      "tal": 1996,
      "ĠmogÄħ": 1997,
      "czeÅĽnie": 1998,
      "ĠgeneraÅĤ": 1999,
      "Ġszyb": 2000,
      "czone": 2001,
      "179": 2002,
      "Ġfilmowy": 2003,
      "Ġprzedstawi": 2004,
      "Ġproje": 2005,
      "lia": 2006,
      "Ġzgin": 2007,
      "ĠgÃ³r": 2008,
      "Ġspraw": 2009,
      "tÄħ": 2010,
      "Ġmalarz": 2011,
      "kowski": 2012,
      "sÃ³w": 2013,
      "istoria": 2014,
      "Ã³zef": 2015,
      "ita": 2016,
      "Ġwscho": 2017,
      "Ġnowo": 2018,
      "Pa": 2019,
      "Ġprawnik": 2020,
      "ĠgÅĤÃ³wnie": 2021,
      "emi": 2022,
      "ĠHenry": 2023,
      "ien": 2024,
      "lijski": 2025,
      "ĠksiÄħÅ¼ÄĻ": 2026,
      "Ġwszystkich": 2027,
      "owaÅĤo": 2028,
      "ĠZjedno": 2029,
      "tach": 2030,
      "Ġcent": 2031,
      "Ġdowo": 2032,
      "cego": 2033,
      "Ġgospodar": 2034,
      "stwie": 2035,
      "ĠFrancji": 2036,
      "Ġprawa": 2037,
      "kan": 2038,
      "cin": 2039,
      "Ġpowodu": 2040,
      "ĠRy": 2041,
      "Ġuzna": 2042,
      "ĠzespoÅĤu": 2043,
      "ematy": 2044,
      "owaniu": 2045,
      "cyjny": 2046,
      "gan": 2047,
      "ĠniektÃ³": 2048,
      "ĠrÄĻ": 2049,
      "ĠkrÃ³la": 2050,
      "Ġradzie": 2051,
      "tom": 2052,
      "ĠUniwersyte": 2053,
      "Ġsym": 2054,
      "Ġpier": 2055,
      "Ã³wczas": 2056,
      "kom": 2057,
      "ĠWÅĤo": 2058,
      "eria": 2059,
      "ke": 2060,
      "Ġpozy": 2061,
      "Ġgrupy": 2062,
      "Ġnim": 2063,
      "tura": 2064,
      "ĠRu": 2065,
      "liz": 2066,
      "Ġjapo": 2067,
      "ĠMat": 2068,
      "ĠÅº": 2069,
      "In": 2070,
      "gÄĻ": 2071,
      "Ġpara": 2072,
      "ĠpoczÄħtku": 2073,
      "Ġwarto": 2074,
      "Prze": 2075,
      "ĠSu": 2076,
      "(p": 2077,
      "ĠGu": 2078,
      "czony": 2079,
      "Ġzgo": 2080,
      "nes": 2081,
      "wanie": 2082,
      "owymi": 2083,
      "leÅ¼y": 2084,
      "gÅĤo": 2085,
      "lacji": 2086,
      "kro": 2087,
      "chodzi": 2088,
      "Åļ": 2089,
      "lach": 2090,
      "jÄħcym": 2091,
      "ĠCo": 2092,
      "Ġsamolo": 2093,
      "Ar": 2094,
      "Ġwielo": 2095,
      "Le": 2096,
      "Ġterenie": 2097,
      "ĠzaÅĽ": 2098,
      "ert": 2099,
      "ĠmieszkaÅĦcÃ³w": 2100,
      "Ġkilku": 2101,
      "Ġran": 2102,
      "Ġsia": 2103,
      "Ġmas": 2104,
      "Do": 2105,
      "dopodob": 2106,
      "czÄħÅĤ": 2107,
      "lnoÅĽÄĩ": 2108,
      "rzenie": 2109,
      "(np": 2110,
      "prac": 2111,
      "ĠosiÄħ": 2112,
      "wskiego": 2113,
      "dÄĻ": 2114,
      "ĠRzy": 2115,
      "Ġsamym": 2116,
      "jÃ³w": 2117,
      "ĠrzÄħd": 2118,
      "Ġnar": 2119,
      "And": 2120,
      "moÅ¼": 2121,
      "anej": 2122,
      "Ġposiada": 2123,
      "Ġcesa": 2124,
      "ĠJana": 2125,
      "Ġuro": 2126,
      "usza": 2127,
      "jskiej": 2128,
      "Ġwyda": 2129,
      "fik": 2130,
      "ĠstaÅĤ": 2131,
      "onÃ³w": 2132,
      "sch": 2133,
      "ĠwzglÄĻdu": 2134,
      "anego": 2135,
      "bor": 2136,
      "lep": 2137,
      "racji": 2138,
      "owiÄħz": 2139,
      "ĠZie": 2140,
      "Ġthe": 2141,
      "Ġotrzym": 2142,
      "ĠsÅĤuÅ¼": 2143,
      "Ġrzym": 2144,
      "ĠwojewÃ³dzt": 2145,
      "Ġaustria": 2146,
      "Ġtr": 2147,
      "Ġanty": 2148,
      "aru": 2149,
      "wolu": 2150,
      "rÃ³j": 2151,
      "Ġkieru": 2152,
      "ĠrzÄħ": 2153,
      "Ġpsy": 2154,
      "Li": 2155,
      "Ġadministra": 2156,
      "Ġdyp": 2157,
      "mysÅĤ": 2158,
      "ff": 2159,
      "Ġper": 2160,
      "ĠDy": 2161,
      "ĠbÄĻdÄħ": 2162,
      "Ġeksp": 2163,
      "Ġumie": 2164,
      "Ġgre": 2165,
      "Å¼yÅĤ": 2166,
      "rol": 2167,
      "ĠpomiÄĻdzy": 2168,
      "Ġpodstaw": 2169,
      "ĠGre": 2170,
      "ĠposeÅĤ": 2171,
      "Ġdaw": 2172,
      "ĠÅļwiÄĻ": 2173,
      "lnoÅĽci": 2174,
      "Ġdzienni": 2175,
      "Ġmor": 2176,
      "ĠKom": 2177,
      "ĠCa": 2178,
      "czni": 2179,
      "cyjnych": 2180,
      "tami": 2181,
      "Ġopis": 2182,
      "br": 2183,
      "Ġdnia": 2184,
      "nder": 2185,
      "Ġnarod": 2186,
      "ciem": 2187,
      "mÃ³w": 2188,
      "iÄħ": 2189,
      "Ġwojska": 2190,
      "Ġopera": 2191,
      "dach": 2192,
      "ĠSch": 2193,
      "Ġzawiera": 2194,
      "ktÃ³w": 2195,
      "Ġkry": 2196,
      "Ġkryty": 2197,
      "tym": 2198,
      "Ġzwie": 2199,
      "ĠÅĽwiatowej": 2200,
      "inter": 2201,
      "31": 2202,
      "Ġvon": 2203,
      "Ġpapie": 2204,
      "czyk": 2205,
      "zj": 2206,
      "ÅĽcioÅĤa": 2207,
      "ĠKrak": 2208,
      "Ġsyn": 2209,
      "ĠwedÅĤug": 2210,
      "Ġobsz": 2211,
      "Ġdziennikarz": 2212,
      "niÅĤ": 2213,
      "ÅĤem": 2214,
      "Ġsku": 2215,
      "zyj": 2216,
      "Ġstaro": 2217,
      "lnej": 2218,
      "ĠGa": 2219,
      "Å¼ynie": 2220,
      "limpi": 2221,
      "atun": 2222,
      "ĠXIX": 2223,
      "Ġreprez": 2224,
      "Ġse": 2225,
      "Ġusta": 2226,
      "anym": 2227,
      "siÅĤ": 2228,
      "Ġzamie": 2229,
      "ÅĤonek": 2230,
      "Ġpozosta": 2231,
      "listy": 2232,
      "]]ĊĊ": 2233,
      "ont": 2234,
      "sztaÅĤ": 2235,
      "fry": 2236,
      "lina": 2237,
      "siÄĻbior": 2238,
      "Pod": 2239,
      "form": 2240,
      "Ġpracy": 2241,
      "Ġgmi": 2242,
      "Ġlekkoatle": 2243,
      "grani": 2244,
      "40": 2245,
      "tural": 2246,
      "Ġpodob": 2247,
      "Ġstru": 2248,
      "lor": 2249,
      "czaj": 2250,
      "tomiast": 2251,
      "rew": 2252,
      "Ġkobie": 2253,
      "ĠTh": 2254,
      "Nie": 2255,
      "Ġnatomiast": 2256,
      "Ġnawet": 2257,
      "Ġhistorii": 2258,
      "ly": 2259,
      "Ġak": 2260,
      "Ġaby": 2261,
      "ĠwspÃ³l": 2262,
      "czÄħcy": 2263,
      "Ġpat": 2264,
      "Ġud": 2265,
      "Ġjednym": 2266,
      "Ġarcy": 2267,
      "ĠTy": 2268,
      "Ġkm": 2269,
      "Ġscena": 2270,
      "ĠwczeÅĽniej": 2271,
      "ĠktÃ³rzy": 2272,
      "pÄĻ": 2273,
      "ĠtwÃ³r": 2274,
      "ĠSam": 2275,
      "dam": 2276,
      "Ġkoszykarz": 2277,
      "Ġstanie": 2278,
      "Ġoj": 2279,
      "cznoÅĽci": 2280,
      "âĢĻa": 2281,
      "ĠÐ": 2282,
      "sÅĤawa": 2283,
      "(od": 2284,
      "Ġstat": 2285,
      "und": 2286,
      "ĠJego": 2287,
      "owicz": 2288,
      "Ġuczest": 2289,
      "ĠÅ»y": 2290,
      "va": 2291,
      "Ġprez": 2292,
      "cÅĤaw": 2293,
      "gran": 2294,
      "tka": 2295,
      "Ġprof": 2296,
      "Ġjeszcze": 2297,
      "Al": 2298,
      "zacja": 2299,
      "kwi": 2300,
      "lnego": 2301,
      "erytor": 2302,
      "ĠDu": 2303,
      "cep": 2304,
      "(S": 2305,
      "Ġuwa": 2306,
      "ĠwÅĤaÅĽci": 2307,
      "fek": 2308,
      "ĠÅĽci": 2309,
      "Ġdoty": 2310,
      "ator": 2311,
      "waÅĤa": 2312,
      "ĠAleksand": 2313,
      "60": 2314,
      "Ġrozwi": 2315,
      "ÅĦstwo": 2316,
      "ĠBi": 2317,
      "Ġlecz": 2318,
      "ĠdowÃ³d": 2319,
      "nisty": 2320,
      "Ġwykon": 2321,
      "Ġwywo": 2322,
      "Ġprzeprowa": 2323,
      "ĠPÃ³ÅĤ": 2324,
      "Ġpew": 2325,
      "Ġregi": 2326,
      "Ġloka": 2327,
      "Ġtrady": 2328,
      "Ġsprze": 2329,
      "ld": 2330,
      "ĠczÅĤowie": 2331,
      "rotnie": 2332,
      "ĠÅ¼yd": 2333,
      "kle": 2334,
      "ÅĽciej": 2335,
      "ĠwÃ³wczas": 2336,
      "ĠIV": 2337,
      "gnie": 2338,
      "ĠÅĽwiecie": 2339,
      "Ġzde": 2340,
      "ĠzginÄĻ": 2341,
      "Ġotwar": 2342,
      "liwoÅĽci": 2343,
      "wiad": 2344,
      "czego": 2345,
      "Ġmet": 2346,
      "ĠszczegÃ³l": 2347,
      "ĠPie": 2348,
      "ĠurzÄĻ": 2349,
      "bia": 2350,
      "Ġbudow": 2351,
      "rzeÅĽci": 2352,
      "ĠGo": 2353,
      "ley": 2354,
      "wor": 2355,
      "Ġmatematy": 2356,
      "miany": 2357,
      "rzem": 2358,
      "Ġchi": 2359,
      "ĠUSA": 2360,
      "80": 2361,
      "olender": 2362,
      "wana": 2363,
      "nami": 2364,
      "iotr": 2365,
      "roz": 2366,
      "ĠtÅĤuma": 2367,
      "Ġgen": 2368,
      "tel": 2369,
      "Ġpremie": 2370,
      "ĠczÅĤonek": 2371,
      "czki": 2372,
      "RR": 2373,
      "Ġprzestrze": 2374,
      "moÅ¼li": 2375,
      "Ġpla": 2376,
      "ĠRob": 2377,
      "Ġregu": 2378,
      "rÃ³t": 2379,
      "Ġkanady": 2380,
      "letka": 2381,
      "ĠBra": 2382,
      "sem": 2383,
      "ĠmaÅĤ": 2384,
      "ĠPre": 2385,
      "âĢŀS": 2386,
      "rysty": 2387,
      "ĠpozostaÅĤ": 2388,
      "ĠCar": 2389,
      "gÅĤ": 2390,
      "ĠÅļlÄħ": 2391,
      "tnie": 2392,
      "logii": 2393,
      "Ġinne": 2394,
      "Historia": 2395,
      "Ġlekkoatletka": 2396,
      "Ġukrai": 2397,
      "Ġj": 2398,
      "ĠprzedsiÄĻbior": 2399,
      "ĠPu": 2400,
      "lot": 2401,
      "Ġeuro": 2402,
      "net": 2403,
      "bardziej": 2404,
      "ĠDzie": 2405,
      "Ġmili": 2406,
      "Ġstanu": 2407,
      "owanej": 2408,
      "Å»y": 2409,
      "Fran": 2410,
      "ĠpoÅĤoÅ¼": 2411,
      "kowe": 2412,
      "Ġdwu": 2413,
      "gn": 2414,
      "Ġkonstru": 2415,
      "istrzost": 2416,
      "poli": 2417,
      "ora": 2418,
      "ward": 2419,
      "sia": 2420,
      "ĠJest": 2421,
      "got": 2422,
      "ĠpuÅĤ": 2423,
      "ĠSto": 2424,
      "czek": 2425,
      "lei": 2426,
      "ÅĤych": 2427,
      "tua": 2428,
      "tkowo": 2429,
      "Ġwojen": 2430,
      "ell": 2431,
      "chani": 2432,
      "Ġdob": 2433,
      "Ġprzypadku": 2434,
      "szek": 2435,
      "czych": 2436,
      "Ġosa": 2437,
      "jskie": 2438,
      "dziaÅĤu": 2439,
      "ĠEd": 2440,
      "Ġpostaci": 2441,
      "Ġjedynie": 2442,
      "rych": 2443,
      "erwo": 2444,
      "serw": 2445,
      "Ġoznacza": 2446,
      "Ġstrony": 2447,
      "szko": 2448,
      "Ġtypu": 2449,
      "Ġzawar": 2450,
      "ĠrÃ³Å¼nych": 2451,
      "ologi": 2452,
      "szÅĤo": 2453,
      "zra": 2454,
      "Ġzbi": 2455,
      "ĠhiszpaÅĦski": 2456,
      "Ġwielko": 2457,
      "ate": 2458,
      "szt": 2459,
      "ownik": 2460,
      "Ġteni": 2461,
      "Ġekonomi": 2462,
      "Ġpremier": 2463,
      "ĠpÅĤa": 2464,
      "czyn": 2465,
      "fia": 2466,
      "Ġlekkoatleta": 2467,
      "Ġwysp": 2468,
      "Ġdecy": 2469,
      "Ġpowierzchni": 2470,
      "ĠPow": 2471,
      "lum": 2472,
      "eru": 2473,
      "Ġdwie": 2474,
      "szenie": 2475,
      "Ġgatun": 2476,
      "dziel": 2477,
      "Ġplan": 2478,
      "(P": 2479,
      "Ġinforma": 2480,
      "cko": 2481,
      "lip": 2482,
      "Ġpowia": 2483,
      "jskich": 2484,
      "esa": 2485,
      "kÃ³ÅĤ": 2486,
      "Ġfunkcj": 2487,
      "wajcar": 2488,
      "ĠmiaÅĤa": 2489,
      "Ġsiedzi": 2490,
      "Ġrzeczy": 2491,
      "Ġokoli": 2492,
      "ĠAng": 2493,
      "Ġlata": 2494,
      "ĠwiÄĻc": 2495,
      "ĠWal": 2496,
      "znaw": 2497,
      "Ġmeto": 2498,
      "edia": 2499,
      "ĠCze": 2500,
      "unt": 2501,
      "Ġdyplom": 2502,
      "ĠPolskiego": 2503,
      "ĠinÅ¼ynie": 2504,
      "sied": 2505,
      "ĠPe": 2506,
      "ĠnajwiÄĻk": 2507,
      "Ġgwia": 2508,
      "Ġkiedy": 2509,
      "Ġrej": 2510,
      "cenia": 2511,
      "Ġdra": 2512,
      "owod": 2513,
      "Ġdziedzi": 2514,
      "Ġpierwsze": 2515,
      "gm": 2516,
      "Ġpowstania": 2517,
      "ĠRoz": 2518,
      "kazu": 2519,
      "podleg": 2520,
      "Ġkomp": 2521,
      "ham": 2522,
      "ĠsamorzÄħd": 2523,
      "Ġdzieci": 2524,
      "owanego": 2525,
      "ĠprzyjÄĻ": 2526,
      "mniej": 2527,
      "Ġdodat": 2528,
      "cami": 2529,
      "ĠnastÄĻpu": 2530,
      "178": 2531,
      "Ġholender": 2532,
      "Ġzapa": 2533,
      "ĠKor": 2534,
      "Ġpolskich": 2535,
      "(po": 2536,
      "ĠwÄĻgier": 2537,
      "Ġwyra": 2538,
      "Ġczyn": 2539,
      "ĠKsiÄĻ": 2540,
      "Ġbardziej": 2541,
      "zeum": 2542,
      "Ġrozwo": 2543,
      "ĠZwiÄħz": 2544,
      "tory": 2545,
      "Ġsa": 2546,
      "zaleÅ¼": 2547,
      "Ġarcybi": 2548,
      "-S": 2549,
      "Ġelement": 2550,
      "ĠukÅĤa": 2551,
      "stÄħpiÅĤ": 2552,
      "Ġani": 2553,
      "anta": 2554,
      "Ġuzysk": 2555,
      "Ġone": 2556,
      "Ġpoprzez": 2557,
      "naj": 2558,
      "ĠKazi": 2559,
      "Ġtur": 2560,
      "czyÅĤa": 2561,
      "Ġbitwie": 2562,
      "ĠdziÄĻki": 2563,
      "powia": 2564,
      "ĠwystÄĻp": 2565,
      "rona": 2566,
      "ine": 2567,
      "lona": 2568,
      "las": 2569,
      "ĠwÅĽrÃ³d": 2570,
      "dÅº": 2571,
      "ĠRady": 2572,
      "raty": 2573,
      "Ġproducent": 2574,
      "Ġpry": 2575,
      "ĠDz": 2576,
      "dami": 2577,
      "niewaÅ¼": 2578,
      "waÅĤy": 2579,
      "ĠEl": 2580,
      "eksy": 2581,
      "ĠTu": 2582,
      "ĠMia": 2583,
      "ĠFe": 2584,
      "dago": 2585,
      "ĠnaleÅ¼Äħ": 2586,
      "ater": 2587,
      "zio": 2588,
      "arÃ³wno": 2589,
      "Ġbyli": 2590,
      "Ġdanych": 2591,
      "chodzÄħ": 2592,
      "Ġcharaktery": 2593,
      "ĠksztaÅĤ": 2594,
      "Ġkoniec": 2595,
      "Ġodkry": 2596,
      "Ġdom": 2597,
      "Ġterytor": 2598,
      "ĠFranci": 2599,
      "Ġwynosi": 2600,
      "gal": 2601,
      "Ġniego": 2602,
      "czyÄĩ": 2603,
      "ĠGÃ³r": 2604,
      "Ġbad": 2605,
      "Ġwydaw": 2606,
      "ĠmieÅĽcie": 2607,
      "SRR": 2608,
      "Ġkad": 2609,
      "Ġand": 2610,
      "dne": 2611,
      "siÄĻcy": 2612,
      "Ġdrugi": 2613,
      "ortu": 2614,
      "Ġwyt": 2615,
      "dziaÅĤy": 2616,
      "Ġtelewi": 2617,
      "Ġinnymi": 2618,
      "ÅĤawa": 2619,
      "ĠWÅĤady": 2620,
      "ĠOs": 2621,
      "zwy": 2622,
      "lony": 2623,
      "tery": 2624,
      "gip": 2625,
      "bÄħ": 2626,
      "ĠPart": 2627,
      "szenia": 2628,
      "lni": 2629,
      "dzna": 2630,
      "ĠSie": 2631,
      "ĠosiÄħg": 2632,
      "ĠCent": 2633,
      "ĠOrder": 2634,
      "Ġlotni": 2635,
      "ĠsÅĤowa": 2636,
      "Cz": 2637,
      "Ġbio": 2638,
      "owska": 2639,
      "ic": 2640,
      "Ġtrak": 2641,
      "Ġczasu": 2642,
      "ĠHu": 2643,
      "Ġener": 2644,
      "Ġona": 2645,
      "tedy": 2646,
      "ĠPierw": 2647,
      "Ġpolskiego": 2648,
      "ĠzajÄĻ": 2649,
      "Ġbram": 2650,
      "nienie": 2651,
      "177": 2652,
      "Ġwska": 2653,
      "oj": 2654,
      "Ġchemi": 2655,
      "bert": 2656,
      "Ġograni": 2657,
      "ĠLon": 2658,
      "Ġolimpi": 2659,
      "sen": 2660,
      "ĠbiaÅĤ": 2661,
      "Ġwszystkie": 2662,
      "kowej": 2663,
      "pew": 2664,
      "Ġponow": 2665,
      "ĠBryt": 2666,
      "km": 2667,
      "ĠzaczÄĻ": 2668,
      "Ġludzi": 2669,
      "Ġstwo": 2670,
      "jach": 2671,
      "czen": 2672,
      "encji": 2673,
      "liam": 2674,
      "70": 2675,
      "Ġwarun": 2676,
      "Ġostatni": 2677,
      "Ġdoku": 2678,
      "oto": 2679,
      "kaÅĦski": 2680,
      "yd": 2681,
      "Ġtakie": 2682,
      "owanym": 2683,
      "poÅĽ": 2684,
      "Ġdziel": 2685,
      "czÄĻÅĽciej": 2686,
      "Ġdzi": 2687,
      "Re": 2688,
      "ĠRepubli": 2689,
      "ÄĻp": 2690,
      "kowa": 2691,
      "bran": 2692,
      "ĠsÅĤu": 2693,
      "ĠwiÄĻk": 2694,
      "Ġniewie": 2695,
      "),Ċ": 2696,
      "ĠNiemie": 2697,
      "Ġosoby": 2698,
      "ĠKrzy": 2699,
      "Ġnapis": 2700,
      "niesi": 2701,
      "ĠwÅĤadz": 2702,
      "ĠdziaÅĤania": 2703,
      "stanowi": 2704,
      "Ġpopular": 2705,
      "Ġpublicy": 2706,
      "ik": 2707,
      "Ġprzewodni": 2708,
      "nikiem": 2709,
      "ĠTur": 2710,
      "ĠÅºrÃ³d": 2711,
      "pen": 2712,
      "ĠWar": 2713,
      "kowy": 2714,
      "nen": 2715,
      "Ġprakty": 2716,
      "grody": 2717,
      "Ġzni": 2718,
      "Ġprob": 2719,
      "Ġuli": 2720,
      "Ġzap": 2721,
      "Ġszach": 2722,
      "ĠZjednoczonych": 2723,
      "ĠotrzymaÅĤ": 2724,
      "Ġczym": 2725,
      "Ġoch": 2726,
      "Stan": 2727,
      "Ġzbud": 2728,
      "Ġproce": 2729,
      "Ġsobie": 2730,
      "ĠciÄĻ": 2731,
      "piero": 2732,
      "ĠAd": 2733,
      "cjach": 2734,
      "ĠogÅĤo": 2735,
      "Ġdrugiej": 2736,
      "ĠSzko": 2737,
      "rad": 2738,
      "ejmu": 2739,
      "Ġastro": 2740,
      "gij": 2741,
      "Ġpog": 2742,
      "ĠskÅĤada": 2743,
      "Ġwoka": 2744,
      "mite": 2745,
      "Ġkonty": 2746,
      "Ġproces": 2747,
      "dziÄĩ": 2748,
      "ĠQ": 2749,
      "ĠWydaw": 2750,
      "Ġzmar": 2751,
      "Sz": 2752,
      "lian": 2753,
      "-B": 2754,
      "Ġzbior": 2755,
      "ĠbÅĤo": 2756,
      "ĠnaleÅ¼y": 2757,
      "nach": 2758,
      "Ġkraj": 2759,
      "ĠGru": 2760,
      "choty": 2761,
      "fini": 2762,
      "Ġtrzech": 2763,
      "Ġniej": 2764,
      "ĠAugu": 2765,
      "koÅĽÄĩ": 2766,
      "Ġtakich": 2767,
      "Ġsez": 2768,
      "Ġtenisi": 2769,
      "niesie": 2770,
      "ktyw": 2771,
      "rzego": 2772,
      "Ġramach": 2773,
      "Ġspecjal": 2774,
      "dzono": 2775,
      "mentu": 2776,
      "Ġobraz": 2777,
      "ĠzaleÅ¼": 2778,
      "ĠEuropy": 2779,
      "ĠZSRR": 2780,
      "Ġnarci": 2781,
      "The": 2782,
      "gosÅĤa": 2783,
      "(ang": 2784,
      "czeÅĦstwa": 2785,
      "onor": 2786,
      "ĠÅļwia": 2787,
      "Ġarcybiskup": 2788,
      "ĠCy": 2789,
      "mer": 2790,
      "entu": 2791,
      "Ġwobec": 2792,
      "Åį": 2793,
      "Ġkor": 2794,
      "ĠByÅĤ": 2795,
      "ĠHer": 2796,
      "cznik": 2797,
      "ĠzwiÄħzku": 2798,
      "Ġlinii": 2799,
      "Ġsytua": 2800,
      "Ġpedago": 2801,
      "Ġskrzy": 2802,
      "ill": 2803,
      "jen": 2804,
      "Ġkardy": 2805,
      "Ġteat": 2806,
      "Ġotrzy": 2807,
      "ose": 2808,
      "broj": 2809,
      "ĠPÃ³ÅĤnoc": 2810,
      "Ko": 2811,
      "mor": 2812,
      "Naj": 2813,
      "ĠPary": 2814,
      "kiewicz": 2815,
      "cznymi": 2816,
      "graÅĤ": 2817,
      "ĠÅ¼ydowskiego": 2818,
      "spoli": 2819,
      "Ġkoncer": 2820,
      "wano": 2821,
      "Ġprz": 2822,
      "Ġha": 2823,
      "ĠcaÅĤkowi": 2824,
      "deusz": 2825,
      "ĠzarÃ³wno": 2826,
      "Ġwice": 2827,
      "wej": 2828,
      "Ġobecnie": 2829,
      "ezpie": 2830,
      "Ġminister": 2831,
      "lone": 2832,
      "Ġl": 2833,
      "Ġziem": 2834,
      "Ġfilozof": 2835,
      "pon": 2836,
      "Ġpodpis": 2837,
      "Ġkolo": 2838,
      "ĠtÄĻ": 2839,
      "emo": 2840,
      "ych": 2841,
      "ĠRad": 2842,
      "Ġproduk": 2843,
      "Ġprzeciwko": 2844,
      "ĠcaÅĤy": 2845,
      "Ġswoich": 2846,
      "hel": 2847,
      "Ġkapi": 2848,
      "urg": 2849,
      "Ġprawdopodob": 2850,
      "Ġtwier": 2851,
      "rag": 2852,
      "ĠAmery": 2853,
      "ĠMini": 2854,
      "ĠprzykÅĤad": 2855,
      "cyjnego": 2856,
      "Ġhand": 2857,
      "Ġoficjal": 2858,
      "Ġana": 2859,
      "zan": 2860,
      "nic": 2861,
      "ÅĦskÄħ": 2862,
      "port": 2863,
      "ĠKat": 2864,
      "organi": 2865,
      "Ġwojna": 2866,
      "dziÅĤa": 2867,
      "Ġsuk": 2868,
      "Ġpunk": 2869,
      "ĠWin": 2870,
      "ĠwÅĤad": 2871,
      "wych": 2872,
      "ĠinÅ¼ynier": 2873,
      "ĠmÃ³": 2874,
      "pospoli": 2875,
      "Ġpomoc": 2876,
      "Ġpoza": 2877,
      "Å¼yt": 2878,
      "ĠzginÄĻÅĤo": 2879,
      "Ta": 2880,
      "ĠmiÄĻdzynarod": 2881,
      "Ġprofes": 2882,
      "rek": 2883,
      "cyjnej": 2884,
      "ĠktÃ³rÄħ": 2885,
      "Ġzad": 2886,
      "enty": 2887,
      "rowin": 2888,
      "ÅĦca": 2889,
      "amp": 2890,
      "Ġwybuch": 2891,
      "Ġpodzie": 2892,
      "Ġklu": 2893,
      "ĠWol": 2894,
      "ĠLo": 2895,
      "ĠMiÄĻdzy": 2896,
      "pia": 2897,
      "ft": 2898,
      "ÅĤÃ³": 2899,
      "ecznie": 2900,
      "ĠroÅĽli": 2901,
      "ckÄħ": 2902,
      "omu": 2903,
      "Ġfir": 2904,
      "owcÃ³w": 2905,
      "sh": 2906,
      "Ġstoli": 2907,
      "ĠwartoÅĽci": 2908,
      "ĠwyrÃ³Å¼": 2909,
      "Ġtrakt": 2910,
      "kowo": 2911,
      "Ġtor": 2912,
      "emok": 2913,
      "szaÅĤ": 2914,
      ".p": 2915,
      "dnich": 2916,
      "ĠaÅ¼": 2917,
      "Ġczar": 2918,
      "ĠPru": 2919,
      "Ġindy": 2920,
      "gru": 2921,
      "Ju": 2922,
      "Ra": 2923,
      "Ġpodstawie": 2924,
      "Ġide": 2925,
      "czno": 2926,
      "ris": 2927,
      "Ġziemi": 2928,
      "Ġnajbardziej": 2929,
      "Ġauto": 2930,
      "Ġnauczy": 2931,
      "ĠogÃ³l": 2932,
      "Ġzre": 2933,
      "Ġkonku": 2934,
      "szedÅĤ": 2935,
      "Ð°": 2936,
      "Ġszwedzki": 2937,
      "Ġpierwszym": 2938,
      "rzeÅĽcija": 2939,
      "nale": 2940,
      "ĠHar": 2941,
      "Ġdal": 2942,
      "Ġtempera": 2943,
      "Ġrzeczywi": 2944,
      "rat": 2945,
      "rzyÅĤ": 2946,
      "szto": 2947,
      "ĠPoli": 2948,
      "Ġmaszy": 2949,
      "Ġilo": 2950,
      "Joh": 2951,
      "Ġnazwa": 2952,
      "ĠWro": 2953,
      "ĠLudwi": 2954,
      "Lu": 2955,
      "Ġkompu": 2956,
      "Ã¤": 2957,
      "cem": 2958,
      "Ġdoprowa": 2959,
      "Ġwybran": 2960,
      "ĠpowstaÅĤ": 2961,
      "Ġwier": 2962,
      "orys": 2963,
      "Ġmal": 2964,
      "ĠswojÄħ": 2965,
      "ĠSÅĤ": 2966,
      "ĠoÅĽrod": 2967,
      "kowie": 2968,
      "maga": 2969,
      "Ġjednego": 2970,
      "ĠciÄĻÅ¼": 2971,
      "Ġpun": 2972,
      "ĠJÃ³zef": 2973,
      "Ġpiosenkarka": 2974,
      "Ġsztuki": 2975,
      "ĠukÅĤad": 2976,
      "ĠwaÅ¼": 2977,
      "tz": 2978,
      "ĠniektÃ³rych": 2979,
      "Ġszero": 2980,
      "byt": 2981,
      "gia": 2982,
      "Ġzakon": 2983,
      "Ġbli": 2984,
      "ĠPan": 2985,
      "turze": 2986,
      "win": 2987,
      "Ġwojnie": 2988,
      "ÅĽl": 2989,
      "tyk": 2990,
      "ĠWielkiej": 2991,
      "Âłkm": 2992,
      "Ġpierwszej": 2993,
      "ÅĦczy": 2994,
      "ÅĽciÃ³ÅĤ": 2995,
      "Ġzastos": 2996,
      "Ġpotrze": 2997,
      "iszp": 2998,
      "ĠtytuÅĤ": 2999,
      "ela": 3000,
      "ĠbezpoÅĽ": 3001,
      "Ġwod": 3002,
      "ĠStanisÅĤaw": 3003,
      "Or": 3004,
      "ĠwÄĻ": 3005,
      "Ġniepodleg": 3006,
      "Ġwspo": 3007,
      "ĠrzeÅº": 3008,
      "mir": 3009,
      "pat": 3010,
      "ralny": 3011,
      "Ġzwo": 3012,
      "jawi": 3013,
      "ĠrolÄĻ": 3014,
      "omb": 3015,
      "lnym": 3016,
      "176": 3017,
      "Ġokaz": 3018,
      "Ġdni": 3019,
      "ĠjÄĻzyka": 3020,
      "cenie": 3021,
      "Ġpojawi": 3022,
      "Ġbroni": 3023,
      "Ġzamiesz": 3024,
      "are": 3025,
      "czona": 3026,
      "Ġci": 3027,
      "bal": 3028,
      "Ġliczby": 3029,
      "ĠStu": 3030,
      "nast": 3031,
      "anÄħ": 3032,
      "emu": 3033,
      "owanÄħ": 3034,
      "ista": 3035,
      "Ġparla": 3036,
      "ĠMor": 3037,
      "onego": 3038,
      "Ġmiejscu": 3039,
      "czyni": 3040,
      "ĠMaria": 3041,
      "90": 3042,
      "Ġdia": 3043,
      "Ġopie": 3044,
      "ĠJo": 3045,
      "fan": 3046,
      "ĠSan": 3047,
      "Ġkontro": 3048,
      "Ġhok": 3049,
      "ĠwÅĤadzy": 3050,
      "eista": 3051,
      "wego": 3052,
      "Ġpolskiej": 3053,
      "Ġfe": 3054,
      "âĢŀP": 3055,
      "raÅ¼": 3056,
      "ĠwewnÄĻtrz": 3057,
      "logia": 3058,
      "Ġspowod": 3059,
      "mio": 3060,
      "ĠKrÃ³le": 3061,
      "Ġobo": 3062,
      "nios": 3063,
      "ĠduÅ¼y": 3064,
      "gne": 3065,
      "rich": 3066,
      "sek": 3067,
      "Ġkultury": 3068,
      "ĠÅĽrodowi": 3069,
      "Ġlekarz": 3070,
      "noÅĽciÄħ": 3071,
      "stw": 3072,
      "Ġwtedy": 3073,
      "ĠÅ¼ad": 3074,
      "rob": 3075,
      "Ġruchu": 3076,
      "Ġscenarzysta": 3077,
      "Ġoby": 3078,
      "Kon": 3079,
      "Ġponownie": 3080,
      "Ġwia": 3081,
      "Ġsiebie": 3082,
      "czono": 3083,
      "ĠwzglÄĻdem": 3084,
      "owaniem": 3085,
      "ĠChi": 3086,
      "ryd": 3087,
      "ostÄĻp": 3088,
      "wach": 3089,
      "Ġwzro": 3090,
      "Ġpas": 3091,
      "Ġreali": 3092,
      "ĠJohn": 3093,
      "giem": 3094,
      "Ġswojej": 3095,
      "wala": 3096,
      "150": 3097,
      "ĠHo": 3098,
      "Ġstosun": 3099,
      "Ġzawod": 3100,
      "bum": 3101,
      "orem": 3102,
      "dzony": 3103,
      "nÄħÅĤ": 3104,
      "end": 3105,
      "Ġrok": 3106,
      "tyka": 3107,
      "Ġtru": 3108,
      "Ġpowszech": 3109,
      "Ġutw": 3110,
      "ĠpomocÄħ": 3111,
      "Ġwszystkim": 3112,
      "ĠPola": 3113,
      "ĠÅ¼oÅĤnierzy": 3114,
      "Da": 3115,
      "ĠInd": 3116,
      "Ġutworz": 3117,
      "Ġtrakcie": 3118,
      "Ġhrab": 3119,
      "Ġznajd": 3120,
      "kowych": 3121,
      "cyd": 3122,
      "Ġdoko": 3123,
      "ĠtworzÄħ": 3124,
      "Ġrzecz": 3125,
      "ĠrozpoczÄħÅĤ": 3126,
      "iera": 3127,
      "ĠNo": 3128,
      "Ġrodziny": 3129,
      "Ġopar": 3130,
      "ĠMon": 3131,
      "ĠDi": 3132,
      "Ġwsi": 3133,
      "gosÅĤawi": 3134,
      "Ġpedagog": 3135,
      "Ġmiesz": 3136,
      "ya": 3137,
      "dzone": 3138,
      "ĠmyÅĽli": 3139,
      "ĠgdyÅ¼": 3140,
      "ĠzespÃ³ÅĤ": 3141,
      "ĠTar": 3142,
      "Ġpl": 3143,
      "ĠchÅĤo": 3144,
      "onej": 3145,
      "ĠmÃ³w": 3146,
      "era": 3147,
      "ÅĤoÅĽÄĩ": 3148,
      "red": 3149,
      "ĠcÃ³r": 3150,
      "Ġrez": 3151,
      "chaÅĤ": 3152,
      "lna": 3153,
      "iej": 3154,
      "Ġoku": 3155,
      "Ġinstru": 3156,
      "bel": 3157,
      "arski": 3158,
      "gowy": 3159,
      "Ġple": 3160,
      "ĠwyÅĤÄħ": 3161,
      "Ġteren": 3162,
      "Ġwojskowy": 3163,
      "Ð¾": 3164,
      "Ġnorwe": 3165,
      "ĠzaÅĤoÅ¼": 3166,
      "ĠCzar": 3167,
      "Ġwalki": 3168,
      "Ġtyp": 3169,
      "ĠJez": 3170,
      "Ġgita": 3171,
      "000": 3172,
      "ciorys": 3173,
      "ĠWÄĻg": 3174,
      "stoÅĽci": 3175,
      "Ġsob": 3176,
      "cieli": 3177,
      "Ġaustra": 3178,
      "ĠFer": 3179,
      "Ġchor": 3180,
      "ure": 3181,
      "Ġuni": 3182,
      "Ġniewiel": 3183,
      "(m": 3184,
      "Ġzapew": 3185,
      "ĠNor": 3186,
      "ĠSer": 3187,
      "tyczne": 3188,
      "ĠEuropej": 3189,
      "ĠprÄĻ": 3190,
      "Ġczego": 3191,
      "ria": 3192,
      "ĠmiaÅĤy": 3193,
      "bit": 3194,
      "Ġsymbo": 3195,
      "Ġfunkcji": 3196,
      "ĠKoÅĽcioÅĤa": 3197,
      "(na": 3198,
      "mist": 3199,
      "ln": 3200,
      "wÃ³d": 3201,
      "Ġreligij": 3202,
      "Ġuzn": 3203,
      "ĠwpÅĤyw": 3204,
      "ari": 3205,
      "Ġtechni": 3206,
      "Ġkolarz": 3207,
      "Ġsena": 3208,
      "ĠczÅĤowieka": 3209,
      "Ġpublicysta": 3210,
      "ÅĤac": 3211,
      "anach": 3212,
      "ÅĤon": 3213,
      "ĠumoÅ¼li": 3214,
      "genty": 3215,
      "Ġzapo": 3216,
      "stawia": 3217,
      "Ġsiatk": 3218,
      "dzili": 3219,
      "ato": 3220,
      "ÅĤach": 3221,
      "(t": 3222,
      "ĠHiszp": 3223,
      "Ġmian": 3224,
      "Ġzab": 3225,
      "ĠkrÃ³t": 3226,
      "ĠpoÅĤudniowo": 3227,
      "Å»yciorys": 3228,
      "Ġbrazy": 3229,
      "liwoÅĽÄĩ": 3230,
      "ens": 3231,
      "ĠArmii": 3232,
      "Ġhi": 3233,
      "Ġmechani": 3234,
      "toli": 3235,
      "Åºnie": 3236,
      "mon": 3237,
      "Ġeg": 3238,
      "ĠGra": 3239,
      "ÅĦstw": 3240,
      "miar": 3241,
      "dli": 3242,
      "gÃ³": 3243,
      "ĠÃ": 3244,
      "dnio": 3245,
      "Ġtelewizyj": 3246,
      "Andrzej": 3247,
      "rybu": 3248,
      "gent": 3249,
      "ĠOl": 3250,
      "ĠwspÃ³ÅĤczes": 3251,
      "Ġnatural": 3252,
      "ĠWedÅĤug": 3253,
      "masz": 3254,
      "ĠstanowiÄħ": 3255,
      "wad": 3256,
      "Ġkos": 3257,
      "ĠGÅĤÃ³w": 3258,
      "iaÅĤo": 3259,
      "ĠimiÄĻ": 3260,
      "ĠbÄĻdzie": 3261,
      "Ġefek": 3262,
      "Ġliczba": 3263,
      "ĠTowarzy": 3264,
      "dzka": 3265,
      "Wi": 3266,
      "ygm": 3267,
      "ĠPaw": 3268,
      "Ġwody": 3269,
      "ĠciaÅĤa": 3270,
      "fii": 3271,
      "Me": 3272,
      "Ġczeski": 3273,
      "Ġpisarka": 3274,
      "ĠwiÄĻkszoÅĽÄĩ": 3275,
      "ĠMan": 3276,
      "Ġrozwoju": 3277,
      "ÅĤaszcza": 3278,
      "Ġradziecki": 3279,
      "ĠPet": 3280,
      "Ġszere": 3281,
      "ĠÅĽpie": 3282,
      "Ġuz": 3283,
      "weÅĤ": 3284,
      "ĠOrderu": 3285,
      "Ġrozm": 3286,
      "Ġniez": 3287,
      "Ġbudyn": 3288,
      "Ġwykorzyst": 3289,
      "ĠZe": 3290,
      "Ġnazwy": 3291,
      "Ġznalaz": 3292,
      "ĠpoÅĤowie": 3293,
      "(C": 3294,
      "met": 3295,
      "ĠCon": 3296,
      "ĠRosji": 3297,
      "Ġpsycho": 3298,
      "Ġprowin": 3299,
      "Ġzapis": 3300,
      "ĠwyÅĽci": 3301,
      "StanisÅĤaw": 3302,
      "groma": 3303,
      "duk": 3304,
      "ĠFa": 3305,
      "inans": 3306,
      "Ġaustriacki": 3307,
      "Ġpozi": 3308,
      "Ġopu": 3309,
      "Ġdywi": 3310,
      "âĢĿ.ĊĊ": 3311,
      "niejszych": 3312,
      "Ġarmii": 3313,
      "uka": 3314,
      "niÄĻcia": 3315,
      "Ġher": 3316,
      "ĠobowiÄħz": 3317,
      "misji": 3318,
      "Ġsportowy": 3319,
      "piÄĻ": 3320,
      "czyna": 3321,
      "kin": 3322,
      "ĠWscho": 3323,
      "Ġstrze": 3324,
      "ciela": 3325,
      "Ġpartii": 3326,
      "ĠTra": 3327,
      "grzy": 3328,
      "ĠpochodzÄħ": 3329,
      "kla": 3330,
      "id": 3331,
      "ĠludnoÅĽci": 3332,
      "Ge": 3333,
      "sport": 3334,
      "ĠmÄĻÅ¼": 3335,
      "ret": 3336,
      "usa": 3337,
      "ĠwiÄĻcej": 3338,
      "fie": 3339,
      "ĠdoszÅĤo": 3340,
      "ĠZacho": 3341,
      "Ġniemiecka": 3342,
      "Ġprezydenta": 3343,
      "niego": 3344,
      "ĠuwaÅ¼": 3345,
      "Ġet": 3346,
      "ÅĤgar": 3347,
      "sach": 3348,
      "ĠchoÄĩ": 3349,
      "Ġkierunku": 3350,
      "âĢĵ": 3351,
      "ech": 3352,
      "ĠnazwÄĻ": 3353,
      "ĠwystÄĻpuje": 3354,
      "Ġwyzna": 3355,
      "Ġjednej": 3356,
      "ĠiÅ¼": 3357,
      "ĠPoÅĤudni": 3358,
      "Ġgrup": 3359,
      "ĠkardynaÅĤ": 3360,
      "Ġzmieni": 3361,
      "ĠCho": 3362,
      "175": 3363,
      "ĠjÄĻzyku": 3364,
      "Å¡": 3365,
      "owskiej": 3366,
      "Ġzaw": 3367,
      "St": 3368,
      "nowa": 3369,
      "publik": 3370,
      "mit": 3371,
      "Ġgeo": 3372,
      "Ġdyplomata": 3373,
      "Ġtech": 3374,
      "ĠJednak": 3375,
      "Ġokres": 3376,
      "fikacji": 3377,
      "ĠInter": 3378,
      "ĠHol": 3379,
      "burg": 3380,
      "licz": 3381,
      "Ġoprac": 3382,
      "ĠSh": 3383,
      "ĠSzcze": 3384,
      "ĠRzeczy": 3385,
      "ĠsamorzÄħdowiec": 3386,
      "(d": 3387,
      "zrael": 3388,
      "wym": 3389,
      "Ġprogram": 3390,
      "onym": 3391,
      "Ġtrans": 3392,
      "Ġelektry": 3393,
      "Ã³sÅĤ": 3394,
      "ĠGÃ³": 3395,
      "âĢĿĊ": 3396,
      "mienie": 3397,
      "Ġbas": 3398,
      "ille": 3399,
      "menty": 3400,
      "ĠjapoÅĦski": 3401,
      "ĠciÄħgu": 3402,
      "Ġform": 3403,
      "ĠRom": 3404,
      "ĠwyÅ¼": 3405,
      "Ġpoje": 3406,
      "jan": 3407,
      "Ġangielski": 3408,
      "lerii": 3409,
      "krotnie": 3410,
      "ownikÃ³w": 3411,
      "ong": 3412,
      "Ġisto": 3413,
      "spÃ³ÅĤ": 3414,
      "Ġsystemu": 3415,
      "ÅĽnik": 3416,
      "Ġrozgry": 3417,
      "berg": 3418,
      "czeÅĦ": 3419,
      "Ġalbo": 3420,
      "Åºni": 3421,
      "Ġholenderski": 3422,
      "fli": 3423,
      "Ġprzygot": 3424,
      "ĠnajczÄĻÅĽciej": 3425,
      "ĠgÅĤ": 3426,
      "ĠdotyczÄħ": 3427,
      "szczegÃ³l": 3428,
      "Ġprzej": 3429,
      "van": 3430,
      "owoÅĽÄĩ": 3431,
      "Ġmln": 3432,
      "Ġki": 3433,
      "Ġwypo": 3434,
      "imna": 3435,
      "ĠjednÄħ": 3436,
      "zdy": 3437,
      "pospolitej": 3438,
      "Ġorganizacji": 3439,
      "orge": 3440,
      "Ġdopiero": 3441,
      "ele": 3442,
      "ĠoddziaÅĤy": 3443,
      "Ġoficer": 3444,
      "gÅĤa": 3445,
      "ĠwysokoÅĽci": 3446,
      "Ġgry": 3447,
      "gre": 3448,
      "ĠdostÄĻp": 3449,
      "Ġmis": 3450,
      "Ġprodukcji": 3451,
      "wajÄħ": 3452,
      "Ġprojekt": 3453,
      "woli": 3454,
      "anÃ³w": 3455,
      "ĠwiÄĻkszoÅĽci": 3456,
      "ĠznajdujÄħ": 3457,
      "darzenia": 3458,
      "ĠmÄĻczen": 3459,
      "styczne": 3460,
      "unda": 3461,
      "ĠwspÃ³ÅĤpra": 3462,
      "Ġnajlep": 3463,
      "ĠCzÄĻ": 3464,
      "Ġporu": 3465,
      "RL": 3466,
      "Ġkrzy": 3467,
      "Å¼na": 3468,
      "Å¼er": 3469,
      "(A": 3470,
      "ĠBel": 3471,
      "ĠrozwiÄħz": 3472,
      "ama": 3473,
      "ĠpoÅĽwiÄĻ": 3474,
      "Ġarchite": 3475,
      "Ġkanadyjski": 3476,
      "Ġszos": 3477,
      "Ġklub": 3478,
      "Ġposiad": 3479,
      "Ġreak": 3480,
      "Ġfoto": 3481,
      "rÃ³ciÅĤ": 3482,
      "ĠkaÅ¼dy": 3483,
      "Ġswojego": 3484,
      "Ġdw": 3485,
      "ĠEn": 3486,
      "ĠdruÅ¼y": 3487,
      "ĠurzÄħ": 3488,
      "Ġmater": 3489,
      "ĠprzemysÅĤ": 3490,
      "ĠKrakowie": 3491,
      "rÃ³cz": 3492,
      "jÄĻcia": 3493,
      "Ġpierwo": 3494,
      "ĠOt": 3495,
      "gram": 3496,
      "ĠukoÅĦ": 3497,
      "cyjna": 3498,
      "ĠkoÅĦca": 3499,
      "Ġmuzyk": 3500,
      "mierza": 3501,
      "35": 3502,
      "ĠNiemiec": 3503,
      "krÄĻ": 3504,
      "Ġrazem": 3505,
      "Rob": 3506,
      "ĠMc": 3507,
      "ĠdziaÅĤalnoÅĽÄĩ": 3508,
      "Ġkata": 3509,
      "(B": 3510,
      "Ã³dzt": 3511,
      "ĠÅ¼ycie": 3512,
      "Ġgrupa": 3513,
      "Ġprote": 3514,
      "Ġstronie": 3515,
      "lec": 3516,
      "01": 3517,
      "Ġbok": 3518,
      "Ġwarsza": 3519,
      "tna": 3520,
      "ĠRzeczypospolitej": 3521,
      "kacji": 3522,
      "Pro": 3523,
      "Ob": 3524,
      "dera": 3525,
      "organiz": 3526,
      "Ġwykony": 3527,
      "Pierw": 3528,
      "wnÄħ": 3529,
      "ĠAt": 3530,
      "Jerzy": 3531,
      "ĠEuropie": 3532,
      "Ġab": 3533,
      "Ġbrze": 3534,
      "ĠPolskiej": 3535,
      "Â²": 3536,
      "ĠKi": 3537,
      "atali": 3538,
      "wiÄħty": 3539,
      "ĠFor": 3540,
      "fo": 3541,
      "Ġobu": 3542,
      "dzkiego": 3543,
      "Ð¸": 3544,
      "rozu": 3545,
      "ĠpamiÄĻ": 3546,
      "Ġszwajcar": 3547,
      "ĠzÅĤoÅ¼": 3548,
      "Ġprzyby": 3549,
      "miana": 3550,
      "ĠÅģa": 3551,
      "Ðµ": 3552,
      "Ġokresu": 3553,
      "ĠBrytanii": 3554,
      "wska": 3555,
      "tacji": 3556,
      "Ġpierwszego": 3557,
      "Ġzapro": 3558,
      "ĠczÅĤonkÃ³w": 3559,
      "Wiel": 3560,
      "Ġruch": 3561,
      "ĠWilliam": 3562,
      "Ġpochodzi": 3563,
      "Ġodleg": 3564,
      "ĠukraiÅĦski": 3565,
      "Ġprzede": 3566,
      "ĠtysiÄĻcy": 3567,
      "iaÅĤy": 3568,
      "Ġwybo": 3569,
      "ĠmiejscowoÅĽci": 3570,
      "160": 3571,
      "Ġary": 3572,
      "Ġpierwszych": 3573,
      "De": 3574,
      "ĠmiaÅĤo": 3575,
      "Ġfilmu": 3576,
      "Ġprywat": 3577,
      "Ġtemat": 3578,
      "landii": 3579,
      "Ġmocy": 3580,
      "Ġlite": 3581,
      "ĠChar": 3582,
      "Ġpobli": 3583,
      "ĠponiewaÅ¼": 3584,
      "Ġzakre": 3585,
      "kazaÅĤ": 3586,
      "ĠXVIII": 3587,
      "ĠZam": 3588,
      "wz": 3589,
      "Ġobro": 3590,
      "ĠKrakÃ³w": 3591,
      "Ġarchitekt": 3592,
      "Ġdrze": 3593,
      "isÅĤawa": 3594,
      "ĠJapo": 3595,
      "rzeÅĦ": 3596,
      "dnik": 3597,
      "ĠGi": 3598,
      "brze": 3599,
      "ĠNauk": 3600,
      "ĠwÅĤÄħ": 3601,
      "ĠksiÄĻcia": 3602,
      "mann": 3603,
      "ĠniezaleÅ¼": 3604,
      "Ġsiatkarka": 3605,
      "ÅĽciach": 3606,
      "Ġkre": 3607,
      "ĠwÄħ": 3608,
      "Ġpolskie": 3609,
      "Ġeuropej": 3610,
      "John": 3611,
      "niejsze": 3612,
      "miÄħ": 3613,
      "Ġam": 3614,
      "Ġinte": 3615,
      "ĠQu": 3616,
      "ĠKaro": 3617,
      "ĠPolska": 3618,
      "przy": 3619,
      "ĠczasÃ³w": 3620,
      "Ġobywat": 3621,
      "ĠbÅĤogosÅĤawi": 3622,
      "ĠKomite": 3623,
      "Ġrewolu": 3624,
      "ĠwojewÃ³dztwa": 3625,
      "Ġczter": 3626,
      "Ġsub": 3627,
      "ĠSpo": 3628,
      "Ni": 3629,
      "Ġtar": 3630,
      "ĠBole": 3631,
      "Ġzwykle": 3632,
      "ĠdÅº": 3633,
      "gdy": 3634,
      "Ġpiosenkarz": 3635,
      "Ġpolsko": 3636,
      "ĠBiaÅĤ": 3637,
      "ĠGdy": 3638,
      "ĠczÄħ": 3639,
      "Ġspr": 3640,
      "des": 3641,
      "Ġsprawie": 3642,
      "Ġastrono": 3643,
      "Ġbel": 3644,
      "Ġsza": 3645,
      "reta": 3646,
      "Ġtowarzy": 3647,
      "ĠgÃ³": 3648,
      "ĠÅĤo": 3649,
      "ĠNob": 3650,
      "Ġbiblio": 3651,
      "Ġcentrum": 3652,
      "syj": 3653,
      "pow": 3654,
      "alne": 3655,
      "liza": 3656,
      "ĠGene": 3657,
      "ĠLw": 3658,
      "Ġca": 3659,
      "two": 3660,
      "niku": 3661,
      "ĠBru": 3662,
      "ĠkomÃ³r": 3663,
      "174": 3664,
      "Åģ": 3665,
      "ĠzarzÄħ": 3666,
      "Ġzagrani": 3667,
      "ciech": 3668,
      "Ġmodel": 3669,
      "ĠZak": 3670,
      "ĠdÅĤugoÅĽci": 3671,
      "zÃ³w": 3672,
      "Ġbramkarz": 3673,
      "gli": 3674,
      "ĠsiÅĤy": 3675,
      "wiÄĻksz": 3676,
      "ĠprÄĻd": 3677,
      "Ġpojawia": 3678,
      "posto": 3679,
      "szty": 3680,
      "ĠAfry": 3681,
      "ĠpÅĤ": 3682,
      "Ġpoch": 3683,
      "lski": 3684,
      "pt": 3685,
      "Ġprzyro": 3686,
      "stych": 3687,
      "miÄĻ": 3688,
      "ĠPer": 3689,
      "all": 3690,
      "Ġcel": 3691,
      "Ġkolei": 3692,
      "raca": 3693,
      "Ġprzezna": 3694,
      "ĠPodczas": 3695,
      "Ġwersji": 3696,
      "ĠPiotr": 3697,
      "ĠroÅĽlin": 3698,
      "ĠchrzeÅĽcija": 3699,
      "ĠStar": 3700,
      "Ġsamego": 3701,
      "Ġgminy": 3702,
      "Ġszczy": 3703,
      "Ġnajmniej": 3704,
      "dale": 3705,
      "ĠVI": 3706,
      "ciej": 3707,
      "(M": 3708,
      "ĠMicha": 3709,
      "wicza": 3710,
      "âĢŀB": 3711,
      "ĠbezpoÅĽredni": 3712,
      "ĠzwÅĤaszcza": 3713,
      "int": 3714,
      "Ġaktyw": 3715,
      "Ġwykorzysty": 3716,
      "oby": 3717,
      "anna": 3718,
      "skiem": 3719,
      "ĠwieÅĽ": 3720,
      "Ġhe": 3721,
      "ĠSÄħ": 3722,
      "Ġrodzin": 3723,
      "Ġwio": 3724,
      "Ġprzebie": 3725,
      "Ġhokeista": 3726,
      "Ġmiejsca": 3727,
      "mieniu": 3728,
      "ĠfunkcjÄĻ": 3729,
      "Ste": 3730,
      "cyk": 3731,
      "Ġprawie": 3732,
      "Ġwyco": 3733,
      "-W": 3734,
      "Ġrad": 3735,
      "Ġwynika": 3736,
      "ĠBie": 3737,
      "ĠzwyciÄĻstwo": 3738,
      "ĠNat": 3739,
      "ĠWydawnictwo": 3740,
      "olf": 3741,
      "ĠkaÅ¼d": 3742,
      "ons": 3743,
      "ĠpowstaÅĤa": 3744,
      "owÄĻ": 3745,
      "165": 3746,
      "zuje": 3747,
      "Ed": 3748,
      "ĠKul": 3749,
      "com": 3750,
      "ĠXVI": 3751,
      "Ġcesarz": 3752,
      "Ġkur": 3753,
      "ĠtrÃ³j": 3754,
      "Ġmateria": 3755,
      "atyw": 3756,
      "ÅĽla": 3757,
      "ura": 3758,
      "ÄħÅĤ": 3759,
      "ciÄħg": 3760,
      "her": 3761,
      "ank": 3762,
      "rydery": 3763,
      "zwyczaj": 3764,
      "sÅĤugi": 3765,
      "lop": 3766,
      "Ġit": 3767,
      "jczy": 3768,
      "ames": 3769,
      "Ġfinans": 3770,
      "ami": 3771,
      "ĠstaÅĤy": 3772,
      "Å¼eli": 3773,
      "Ġnauczyciel": 3774,
      "Ġswoim": 3775,
      "ĠMiÄĻdzynarod": 3776,
      "niÄĩ": 3777,
      "miot": 3778,
      "ĠmÄĻÅ¼czy": 3779,
      "cyjnym": 3780,
      "Ġfrag": 3781,
      "nicj": 3782,
      "zach": 3783,
      "mos": 3784,
      "Ġspa": 3785,
      "ĠUniwersytetu": 3786,
      "Ġmistrzost": 3787,
      "Ġnowe": 3788,
      "Ġzjawi": 3789,
      "ĠprÃ³b": 3790,
      "Ġbrytyjska": 3791,
      "jÄĻcie": 3792,
      "cjona": 3793,
      "Ġorganiz": 3794,
      "To": 3795,
      "dniego": 3796,
      "Ġwro": 3797,
      "Ġbrazylijski": 3798,
      "Ġstwier": 3799,
      "cznoÅĽÄĩ": 3800,
      "Ġwyraz": 3801,
      "Ġdramat": 3802,
      "Ġportu": 3803,
      "pÅĤa": 3804,
      "ĠdziaÅĤalnoÅĽci": 3805,
      "Ġseria": 3806,
      "ecnie": 3807,
      "ss": 3808,
      "Ġforma": 3809,
      "ĠstaroÅ¼yt": 3810,
      "dr": 3811,
      "Ġznacznie": 3812,
      "Ġzmian": 3813,
      "uri": 3814,
      "Ġekonomista": 3815,
      "Ġopublik": 3816,
      "ĠzaÅĤoÅ¼y": 3817,
      "owskim": 3818,
      "ĠsÅĤo": 3819,
      "Ġbur": 3820,
      "ĠsÅĤa": 3821,
      "Ġsyna": 3822,
      "Ġcyk": 3823,
      "45": 3824,
      "aksy": 3825,
      "ĠNastÄĻp": 3826,
      "Ġzas": 3827,
      "wange": 3828,
      "iÅĤ": 3829,
      "(K": 3830,
      "Ġobsza": 3831,
      "ĠÅĤu": 3832,
      "ĠZiemi": 3833,
      "Ġmom": 3834,
      "ĠprawosÅĤaw": 3835,
      "ĠczÅĤonkiem": 3836,
      "ĠWojsk": 3837,
      "ujÄħc": 3838,
      "ĠpiÅĤkar": 3839,
      "ĠnajwyÅ¼": 3840,
      "bignie": 3841,
      "ann": 3842,
      "ĠMary": 3843,
      "ĠpierwszÄħ": 3844,
      "niach": 3845,
      "Ġtro": 3846,
      "Mu": 3847,
      "ĠEgip": 3848,
      "Ġsprinter": 3849,
      "kazy": 3850,
      "sztof": 3851,
      "powiada": 3852,
      "Ġsenator": 3853,
      "spek": 3854,
      "ĠAdam": 3855,
      "fy": 3856,
      "ĠrÃ³wno": 3857,
      "ĠÅ¼eg": 3858,
      "Ġuru": 3859,
      "Ġkrytyk": 3860,
      "dniu": 3861,
      "nice": 3862,
      "krÃ³t": 3863,
      "Ġbry": 3864,
      "Ġstand": 3865,
      "ĠjednoczeÅĽnie": 3866,
      "ĠAnglii": 3867,
      "Ġkr": 3868,
      "ĠmoÅ¼li": 3869,
      "Ġuch": 3870,
      "ÅĽwiad": 3871,
      "Ġoba": 3872,
      "ĠHi": 3873,
      "Ġznale": 3874,
      "Ġpozwala": 3875,
      "ĠDywi": 3876,
      "tne": 3877,
      "rÃ³ci": 3878,
      "ĠAm": 3879,
      "lizacji": 3880,
      "WedÅĤug": 3881,
      "Ġmin": 3882,
      "ĠInstytu": 3883,
      "Ġzdecyd": 3884,
      "tak": 3885,
      "niÃ³sÅĤ": 3886,
      "aÅĤu": 3887,
      "ĠGro": 3888,
      "kÅĤady": 3889,
      "Ġare": 3890,
      "ĠKonstan": 3891,
      "ĠWilhel": 3892,
      "ĠswÃ³j": 3893,
      "katoli": 3894,
      "Ġwybrze": 3895,
      "bin": 3896,
      "ĠokreÅĽla": 3897,
      "ĠSzwe": 3898,
      "âĢŀK": 3899,
      "deÅĤ": 3900,
      "Ġcztery": 3901,
      "Ġdwo": 3902,
      "ĠRi": 3903,
      "zer": 3904,
      "Ġpierwsza": 3905,
      "gina": 3906,
      "ĠkrÃ³lew": 3907,
      "Ġturniej": 3908,
      "-P": 3909,
      "ĠNew": 3910,
      "Ġrol": 3911,
      "Ġbadania": 3912,
      "giel": 3913,
      "rok": 3914,
      "latego": 3915,
      "ĠprzeksztaÅĤ": 3916,
      "Ġkatego": 3917,
      "ÅĦsko": 3918,
      "Ġpiechoty": 3919,
      "ĠMy": 3920,
      "iast": 3921,
      "Ġzajm": 3922,
      "Ġgu": 3923,
      "ctwa": 3924,
      "Ġcywi": 3925,
      "ĠOstat": 3926,
      "org": 3927,
      "nÃ³w": 3928,
      "ĠwÄĻgierski": 3929,
      "cjalisty": 3930,
      "ĠPrzed": 3931,
      "Ġodzna": 3932,
      "Ġczasem": 3933,
      "ĠszkoÅĤy": 3934,
      "ĠzwiÄħzane": 3935,
      "Ġfrancuska": 3936,
      "ĠNiemcy": 3937,
      "Ġprawdopodobnie": 3938,
      "biera": 3939,
      "Ġrobo": 3940,
      "stÄħpie": 3941,
      "Ġmedy": 3942,
      "ĠKraj": 3943,
      "Ð½": 3944,
      "jaw": 3945,
      "owice": 3946,
      "gur": 3947,
      "ĠSÅĤo": 3948,
      "Ġsamocho": 3949,
      "Sy": 3950,
      "ĠstaÅĤa": 3951,
      "Ġdynast": 3952,
      "ĠzmarÅĤ": 3953,
      "Ġjednostki": 3954,
      "bus": 3955,
      "Ġalbum": 3956,
      "ĠPRL": 3957,
      "Aleksand": 3958,
      "Ġsieci": 3959,
      "warz": 3960,
      "skar": 3961,
      "prawi": 3962,
      "ĠBur": 3963,
      "mistrz": 3964,
      "ĠjÄĻzyk": 3965,
      "ĠStanisÅĤawa": 3966,
      "Mo": 3967,
      "Ġkomputer": 3968,
      "ĠNobla": 3969,
      "Ġbokser": 3970,
      "Ġpojedyn": 3971,
      "âĢŀW": 3972,
      "sar": 3973,
      "ĠrzÄħdu": 3974,
      "ĠAb": 3975,
      "suniÄĻ": 3976,
      "ĠtekstÃ³w": 3977,
      "Ġtworzy": 3978,
      "sam": 3979,
      "Ġoto": 3980,
      "pla": 3981,
      "ĠÅĽredniowie": 3982,
      "Ġata": 3983,
      "ĠzapaÅĽnik": 3984,
      "ĠposzczegÃ³l": 3985,
      "use": 3986,
      "Ġkomunisty": 3987,
      "hu": 3988,
      "led": 3989,
      "jskim": 3990,
      "ĠpÅĤywa": 3991,
      "Ġkol": 3992,
      "Ġzamach": 3993,
      "ĠÅĤaci": 3994,
      "ĠChry": 3995,
      "ÅĽciu": 3996,
      "162": 3997,
      "Ġrodzaju": 3998,
      "ĠsiÅĤ": 3999,
      "Ġzim": 4000,
      "JÃ³zef": 4001,
      "Ġmiast": 4002,
      "ĠMuzeum": 4003,
      "ĠEu": 4004,
      "Ġmatematyk": 4005,
      "-w": 4006,
      "ĠAntoni": 4007,
      "ĠczoÅĤ": 4008,
      "Ġteorii": 4009,
      "Ġkonfli": 4010,
      "ĠIs": 4011,
      "(W": 4012,
      "ĠwystÄĻpujÄħ": 4013,
      "ĠMikoÅĤa": 4014,
      "(wy": 4015,
      "Ġprzedstawia": 4016,
      "Ġprzestrzeni": 4017,
      "ÅĤami": 4018,
      "Ġzb": 4019,
      "Te": 4020,
      "gres": 4021,
      "pÅĤ": 4022,
      "Ġproza": 4023,
      "ralnego": 4024,
      "Ġkomunika": 4025,
      "tow": 4026,
      "Ġturysty": 4027,
      "170": 4028,
      "Ġprzyj": 4029,
      "ĠKarol": 4030,
      "ĠZwiÄħzku": 4031,
      "Ġosied": 4032,
      "Ġmeta": 4033,
      "Ã¨": 4034,
      "Ġorganiza": 4035,
      "Ġspotka": 4036,
      "zwa": 4037,
      "Ġzabi": 4038,
      "owaÅĦ": 4039,
      "ralnej": 4040,
      "czyÅĤy": 4041,
      "Ġistnieje": 4042,
      "Ġwyposa": 4043,
      "dnim": 4044,
      "mil": 4045,
      "lex": 4046,
      "Ġzajmu": 4047,
      "Ġterytorium": 4048,
      "lera": 4049,
      "Ġdzis": 4050,
      "ĠSk": 4051,
      "orea": 4052,
      "dyna": 4053,
      "33": 4054,
      "Ġrzeki": 4055,
      "ĠokreÅĽl": 4056,
      "Ġumieszcz": 4057,
      "Ã¡n": 4058,
      "ĠÃ³w": 4059,
      "Ġarysto": 4060,
      "ĠzdobyÅĤ": 4061,
      "ĠpowoÅĤ": 4062,
      "rzyst": 4063,
      "que": 4064,
      "(do": 4065,
      "Ġboh": 4066,
      "owskich": 4067,
      "ĠJÃ³ze": 4068,
      "Ġmm": 4069,
      "pal": 4070,
      "ĠÅģo": 4071,
      "bliÅ¼": 4072,
      "czym": 4073,
      "Ġtygo": 4074,
      "ĠprzeÅĤo": 4075,
      "Ġzorganiz": 4076,
      "Ġbomb": 4077,
      "Ġpremiera": 4078,
      "ĠprzedsiÄĻbiorca": 4079,
      "lis": 4080,
      "jÄħcymi": 4081,
      "Ġbezpie": 4082,
      "Ġnum": 4083,
      "Ġstre": 4084,
      "ĠSzy": 4085,
      "daje": 4086,
      "ÄħdÅº": 4087,
      "wajÄħc": 4088,
      "gÅĤy": 4089,
      "cym": 4090,
      "ĠgÅĤÄĻ": 4091,
      "syw": 4092,
      "Ġmusi": 4093,
      "lnÄħ": 4094,
      "Ġpolega": 4095,
      "ĠLit": 4096,
      "Jo": 4097,
      "widu": 4098,
      "ĠHenryk": 4099,
      "ĠCie": 4100,
      "tycznych": 4101,
      "ĠuÅ¼ytk": 4102,
      "Ġostatecznie": 4103,
      "ĠukÅĤadu": 4104,
      "padku": 4105,
      "abry": 4106,
      "eter": 4107,
      "Ġwido": 4108,
      "ĠCom": 4109,
      "Ġpole": 4110,
      "Ġszla": 4111,
      "ĠTer": 4112,
      "Ġbelgi": 4113,
      "dÅĤuÅ¼": 4114,
      "Ġdomu": 4115,
      "kaza": 4116,
      "Ġkontynu": 4117,
      "Ġwyborach": 4118,
      "ĠUkrai": 4119,
      "Ġdrew": 4120,
      "ÑĢ": 4121,
      "ĠcaÅĤo": 4122,
      "Ġzmiany": 4123,
      "omas": 4124,
      "nio": 4125,
      "dzeniu": 4126,
      "Ġprzemy": 4127,
      "ÅĤam": 4128,
      "gat": 4129,
      "ÅĦcu": 4130,
      "Ġopowia": 4131,
      "pieÅĦ": 4132,
      "173": 4133,
      "ance": 4134,
      "ĠumoÅ¼liwia": 4135,
      "Ġszlach": 4136,
      "rÄĻb": 4137,
      "Ġreprezenta": 4138,
      "Ġszosowy": 4139,
      "ĠMaz": 4140,
      "Ġobszar": 4141,
      "mag": 4142,
      "Ġcharakter": 4143,
      "Ġkrak": 4144,
      "vid": 4145,
      "ĠCor": 4146,
      "ĠBor": 4147,
      "ĠWÅĤadysÅĤaw": 4148,
      "szczenia": 4149,
      "noszÄħ": 4150,
      "(o": 4151,
      "Ġzawo": 4152,
      "Ġhar": 4153,
      "Ġwokalista": 4154,
      "Ġzmien": 4155,
      "waÅĤo": 4156,
      "jor": 4157,
      "Ġkierowca": 4158,
      "Ġutrzy": 4159,
      "Ġrosyjska": 4160,
      "kademii": 4161,
      "ĠZygm": 4162,
      "ĠMÅĤo": 4163,
      "166": 4164,
      "Ġarystokra": 4165,
      "ĠoddziaÅĤ": 4166,
      "zjÄĻ": 4167,
      "Ġpowiatu": 4168,
      "Ġmuzyki": 4169,
      "Ġdokon": 4170,
      "kol": 4171,
      "emokraty": 4172,
      "ĠJÃ³zefa": 4173,
      "ĠduÅ¼e": 4174,
      "Woj": 4175,
      "ĠrozwÃ³j": 4176,
      "pole": 4177,
      "ĠobjÄĻ": 4178,
      "stytucji": 4179,
      "ling": 4180,
      "ĠNagrody": 4181,
      "Âłm": 4182,
      "Wydarzenia": 4183,
      "Ġdie": 4184,
      "ĠpoÅĤu": 4185,
      "Ġlot": 4186,
      "Ġzdr": 4187,
      "ĠWarszawy": 4188,
      "spi": 4189,
      "omet": 4190,
      "ĠGar": 4191,
      "Ġpomi": 4192,
      "Ġpotem": 4193,
      "ĠwyjÄħ": 4194,
      "ciec": 4195,
      "Ġprozaik": 4196,
      "prawy": 4197,
      "para": 4198,
      "Ġpozna": 4199,
      "raj": 4200,
      "dali": 4201,
      "grafii": 4202,
      "glÄħd": 4203,
      "ĠwyÅĤÄħcznie": 4204,
      "Ġkolejnych": 4205,
      "ĠLin": 4206,
      "Ġsukces": 4207,
      "Roz": 4208,
      "ĠMart": 4209,
      "ĠFrydery": 4210,
      "ĠCzerwo": 4211,
      "bina": 4212,
      "ower": 4213,
      "asy": 4214,
      "Ġhandl": 4215,
      "ĠkoÅĽcie": 4216,
      "Ġznaczenie": 4217,
      "tt": 4218,
      "nin": 4219,
      "Ry": 4220,
      "ĠKali": 4221,
      "ĠEr": 4222,
      "Uro": 4223,
      "los": 4224,
      "ÅĽwiÄĻ": 4225,
      "Ġcech": 4226,
      "Ġliczne": 4227,
      "Ġproblem": 4228,
      "Ġtry": 4229,
      "Ġlaure": 4230,
      "fr": 4231,
      "ght": 4232,
      "ĠFrancu": 4233,
      "daÅĤ": 4234,
      "ĠpowieÅĽci": 4235,
      "Ġjedna": 4236,
      "164": 4237,
      "Ġspotk": 4238,
      "ĠKazimierz": 4239,
      "ĠpodrÃ³Å¼": 4240,
      "161": 4241,
      "Ġpopar": 4242,
      "Ġdek": 4243,
      "ĠJerzy": 4244,
      "ĠmiÄĻ": 4245,
      "sztor": 4246,
      "Ġrumu": 4247,
      "zem": 4248,
      "cio": 4249,
      "Ġemi": 4250,
      "Ġnag": 4251,
      "groda": 4252,
      "ĠpÃ³ÅĤnocno": 4253,
      "styczny": 4254,
      "Ġodw": 4255,
      "trze": 4256,
      "ĠspÃ³ÅĤ": 4257,
      "cal": 4258,
      "ĠDob": 4259,
      "stycznych": 4260,
      "Bo": 4261,
      "163": 4262,
      "ĠsobÄħ": 4263,
      "Wil": 4264,
      "Ġwej": 4265,
      "Ġfunkcjon": 4266,
      "Ġpilot": 4267,
      "ĠnajwaÅ¼": 4268,
      "ĠszczegÃ³lnie": 4269,
      "moc": 4270,
      "ĠmiesiÄħ": 4271,
      "ĠdowÃ³dzt": 4272,
      "ĠDru": 4273,
      "lonych": 4274,
      "krÃ³tce": 4275,
      "kniÄĻ": 4276,
      "towy": 4277,
      "34": 4278,
      "Ġkandy": 4279,
      "dia": 4280,
      "wnÄħtrz": 4281,
      "Ġnorweski": 4282,
      "ĠStanÃ³w": 4283,
      "Ġfizyk": 4284,
      "Ġprzyja": 4285,
      "rÄħz": 4286,
      "ĠPonad": 4287,
      "raÅĤa": 4288,
      "ĠWielkiego": 4289,
      "lacja": 4290,
      "ĠMosk": 4291,
      "ĠbÄħdÅº": 4292,
      "Ġliteratury": 4293,
      "ÅĽle": 4294,
      "ĠrÃ³Å¼ne": 4295,
      "Ġrz": 4296,
      "ĠkÄħ": 4297,
      "ĠPozna": 4298,
      "nikami": 4299,
      "Ġpotwier": 4300,
      "Ġnazwi": 4301,
      "PR": 4302,
      "(D": 4303,
      "ĠBro": 4304,
      "Ġmeksy": 4305,
      "(g": 4306,
      "Å¼eniu": 4307,
      "czyli": 4308,
      "ĠzwiÄĻk": 4309,
      "ĠWis": 4310,
      "Ġczwar": 4311,
      "szÅĤa": 4312,
      "vo": 4313,
      "ĠdziaÅĤaczka": 4314,
      "cle": 4315,
      "linie": 4316,
      "36": 4317,
      "ĠpoczÄħtkowo": 4318,
      "ĠtÅĤumacz": 4319,
      "dostÄĻp": 4320,
      "-K": 4321,
      "tychczas": 4322,
      "Ġaustralijski": 4323,
      "asi": 4324,
      "ĠmÄĻczennik": 4325,
      "cyjnÄħ": 4326,
      "iego": 4327,
      "ĠlÄħd": 4328,
      "Ġpru": 4329,
      "Äį": 4330,
      "Ġpta": 4331,
      "puszcz": 4332,
      "Ġum": 4333,
      "kowego": 4334,
      "Ġbisku": 4335,
      "Ġzostali": 4336,
      "Ġpomocy": 4337,
      "Ġsekreta": 4338,
      "Ġpoziom": 4339,
      "Ġargenty": 4340,
      "ĠAkademii": 4341,
      "Ġpowstanie": 4342,
      "Ġnauki": 4343,
      "Ġkultur": 4344,
      "Ġoce": 4345,
      "Ġreda": 4346,
      "ĠpÅĤo": 4347,
      "ucha": 4348,
      "ĠmÃ³gÅĤ": 4349,
      "kownik": 4350,
      "ĠJaku": 4351,
      "Ġbrak": 4352,
      "ĠjeÅĽli": 4353,
      "dek": 4354,
      "Ġkobiet": 4355,
      "37": 4356,
      "ĠWielki": 4357,
      "Ġmode": 4358,
      "32": 4359,
      "ĠpowstaÅĤy": 4360,
      "Ġlaureat": 4361,
      "mentÃ³w": 4362,
      "ĠPaÅĦstw": 4363,
      "ĠSp": 4364,
      "300": 4365,
      "Ġprzeby": 4366,
      "rlan": 4367,
      "raw": 4368,
      "ĠdziÅĽ": 4369,
      "biÅĤ": 4370,
      "wagi": 4371,
      "Ġnowych": 4372,
      "skach": 4373,
      "ĠVi": 4374,
      "ÅĤugo": 4375,
      "owni": 4376,
      "iÃ³w": 4377,
      "ĠpobliÅ¼u": 4378,
      "Ġchoro": 4379,
      "-A": 4380,
      "ven": 4381,
      "Ġzmu": 4382,
      "172": 4383,
      "--": 4384,
      "Ġzagro": 4385,
      "ĠMal": 4386,
      "ĠbadaÅĦ": 4387,
      "ĠFil": 4388,
      "ĠJor": 4389,
      "ĠIm": 4390,
      "Pol": 4391,
      "ĠXVII": 4392,
      "tion": 4393,
      "polski": 4394,
      "risti": 4395,
      "ĠÅĽwiÄħty": 4396,
      "ĠporÃ³w": 4397,
      "Ġcesarza": 4398,
      "Ġrek": 4399,
      "Ġbibliote": 4400,
      "Ġpremierem": 4401,
      "hr": 4402,
      "pp": 4403,
      "daÄĩ": 4404,
      "Ġpolskim": 4405,
      "liÅĤ": 4406,
      "Ġformie": 4407,
      "bach": 4408,
      "-C": 4409,
      "Ġkomi": 4410,
      "Ġniemieckiego": 4411,
      "jny": 4412,
      "Ġizrael": 4413,
      "lno": 4414,
      "rebr": 4415,
      "ĠSza": 4416,
      "jusz": 4417,
      "ĠÅĤy": 4418,
      "Ġparlament": 4419,
      "152": 4420,
      "ÅĤugi": 4421,
      "ĠFre": 4422,
      "tual": 4423,
      "Ġzawsze": 4424,
      "bigniew": 4425,
      "Ġbiega": 4426,
      "ĠPozn": 4427,
      "ĠCol": 4428,
      "38": 4429,
      "ĠsÄħd": 4430,
      "ĠwyÅĽcigowy": 4431,
      "anista": 4432,
      "167": 4433,
      "Ġzy": 4434,
      "niz": 4435,
      "ĠFo": 4436,
      "kuje": 4437,
      "Ġstanowisko": 4438,
      "Ġdynastii": 4439,
      "ĠBryty": 4440,
      "Ġparty": 4441,
      "Ġnajstar": 4442,
      "Ġtenisistka": 4443,
      "wans": 4444,
      "wanych": 4445,
      "KrzyÅ¼": 4446,
      "Ġepo": 4447,
      "ĠRÃ³w": 4448,
      "iusz": 4449,
      "Ġzbroj": 4450,
      "ÅĦstwie": 4451,
      "espÃ³ÅĤ": 4452,
      "Ġpt": 4453,
      "dynie": 4454,
      "Ġreprezent": 4455,
      "ĠwokÃ³ÅĤ": 4456,
      "perium": 4457,
      "interes": 4458,
      "ĠgatunkÃ³w": 4459,
      "Dzie": 4460,
      "Ġture": 4461,
      "ĠCe": 4462,
      "ĠKrÃ³lestwa": 4463,
      "ĠspoÅĤeczny": 4464,
      "ĠAustra": 4465,
      "ult": 4466,
      "ĠnazwÄħ": 4467,
      "Ġzazwyczaj": 4468,
      "ĠdziaÅĤaÅĦ": 4469,
      "ĠpostaÄĩ": 4470,
      "ĠHiszpanii": 4471,
      "500": 4472,
      "anda": 4473,
      "dro": 4474,
      "Ġkli": 4475,
      "Ġenergii": 4476,
      "ĠCi": 4477,
      "ĠHenryka": 4478,
      "(b": 4479,
      "Å¼ek": 4480,
      "Ġobli": 4481,
      "dzeÅĦ": 4482,
      "isa": 4483,
      "Anna": 4484,
      "Ġwycof": 4485,
      "Henry": 4486,
      "stwem": 4487,
      "gady": 4488,
      "Robert": 4489,
      "ĠdowÃ³dca": 4490,
      "Piotr": 4491,
      "toÅĽci": 4492,
      "Ġmoc": 4493,
      "ĠÅļwiata": 4494,
      "ĠkoÅĽcioÅĤa": 4495,
      "ĠRadzie": 4496,
      "Ġtemu": 4497,
      "ujÄħ": 4498,
      "nÄħÄĩ": 4499,
      "ĠtwÃ³rczo": 4500,
      "âĢĻego": 4501,
      "lam": 4502,
      ".m": 4503,
      "168": 4504,
      "cony": 4505,
      "171": 4506,
      "Ġbudowy": 4507,
      "KoÅĽci": 4508,
      "ĠwielkoÅĽci": 4509,
      "Ġblo": 4510,
      "ĠprzywÃ³d": 4511,
      "Ġproto": 4512,
      "wienia": 4513,
      "Ġdi": 4514,
      "ĠRich": 4515,
      "czeniem": 4516,
      "Ġodpowiada": 4517,
      "Ġpowin": 4518,
      "Mich": 4519,
      "cjami": 4520,
      "Ġzgodnie": 4521,
      "Kar": 4522,
      "âĢŀG": 4523,
      "nis": 4524,
      "rzÄĻdu": 4525,
      "entÃ³w": 4526,
      "ĠdoÅĽwiad": 4527,
      "Tadeusz": 4528,
      "Ġopozy": 4529,
      "Ġgminie": 4530,
      "Ġpasa": 4531,
      "Ġszwajcarski": 4532,
      "dor": 4533,
      "tkiem": 4534,
      "Ġsytuacji": 4535,
      "Ġpowy": 4536,
      "Ġprzyczy": 4537,
      "naw": 4538,
      "Ġkoncep": 4539,
      "ĠzaleÅ¼noÅĽci": 4540,
      "cel": 4541,
      "ĠAndrzej": 4542,
      "ĠÃ³wczes": 4543,
      "ĠBal": 4544,
      "Ġwczes": 4545,
      "Ġstopni": 4546,
      "kres": 4547,
      "ĠPawÅĤa": 4548,
      "Ġserb": 4549,
      "ĠcaÅĤej": 4550,
      "Ġgmina": 4551,
      "ĠkoÅĽciÃ³ÅĤ": 4552,
      "ĠPio": 4553,
      "ĠmoÅ¼liwoÅĽci": 4554,
      "Ġepi": 4555,
      "ĠniepodlegÅĤoÅĽci": 4556,
      "ĠPat": 4557,
      "ologii": 4558,
      "Ġwspom": 4559,
      "strÃ³w": 4560,
      "ĠrozpoczÄĻÅĤa": 4561,
      "Ġdefini": 4562,
      "Ġbada": 4563,
      "ĠÅĽre": 4564,
      "dziale": 4565,
      "Ġnaro": 4566,
      "ĠZÅĤo": 4567,
      "dzina": 4568,
      "156": 4569,
      "put": 4570,
      "anga": 4571,
      "Ġarchitek": 4572,
      "ung": 4573,
      "(ok": 4574,
      "Ġprofesor": 4575,
      "zÄĻ": 4576,
      "dziÅĤo": 4577,
      "ĠkoÅĤo": 4578,
      "ryt": 4579,
      "Ġstu": 4580,
      "Ġes": 4581,
      "iÄĻksz": 4582,
      "zwo": 4583,
      "pan": 4584,
      "ĠuzyskaÅĤ": 4585,
      "stki": 4586,
      "ÅĽwia": 4587,
      "gon": 4588,
      "ĠKrzyÅ¼": 4589,
      "Ġ:Ċ": 4590,
      "west": 4591,
      "Å¼yÄĩ": 4592,
      "Ġodrzu": 4593,
      "stanie": 4594,
      "Ġrys": 4595,
      "Ġirlan": 4596,
      "ĠParyÅ¼u": 4597,
      "ried": 4598,
      "ĠwÅĤadzÄĻ": 4599,
      "Ġnowego": 4600,
      "ĠMaÅĤ": 4601,
      "dzona": 4602,
      "120": 4603,
      "ĠpeÅĤni": 4604,
      "maty": 4605,
      "Ġprogramu": 4606,
      "Ġarche": 4607,
      "Å¼bie": 4608,
      "Ġobserw": 4609,
      "Ġkolum": 4610,
      "Ġczele": 4611,
      "Ġwsz": 4612,
      "ĠRepubliki": 4613,
      "Ġuleg": 4614,
      "159": 4615,
      "Ġelektro": 4616,
      "Ġpunkt": 4617,
      "Ġmuzyczny": 4618,
      "ĠprowadzÄħ": 4619,
      "ĠMer": 4620,
      "ĠTeat": 4621,
      "szaÅĤek": 4622,
      "ĠmaÅĤÅ¼e": 4623,
      "ĠÅļwiÄĻtego": 4624,
      "ĠÅ»ydÃ³w": 4625,
      "ĠKan": 4626,
      "tyczny": 4627,
      "(L": 4628,
      "schÃ³d": 4629,
      "Ġgimna": 4630,
      "zÄħ": 4631,
      "Ġucie": 4632,
      "158": 4633,
      "Ġoper": 4634,
      "Ġotrzyma": 4635,
      "Ġdotar": 4636,
      "wencji": 4637,
      "owaÅ¼": 4638,
      "Ġmus": 4639,
      "ĠIr": 4640,
      "atarzy": 4641,
      "Â°": 4642,
      "Wie": 4643,
      "ĠksiÄħ": 4644,
      "Ġznany": 4645,
      "Ġur": 4646,
      "cek": 4647,
      "Ġsch": 4648,
      "ĠdokÅĤad": 4649,
      "rand": 4650,
      "ĠVII": 4651,
      "Ġpozba": 4652,
      "Ġkro": 4653,
      "ĠJako": 4654,
      "ĠHan": 4655,
      "gni": 4656,
      "157": 4657,
      "pamiÄĻ": 4658,
      "ĠwydaÅĤ": 4659,
      "Ġkonkur": 4660,
      "Ġsiat": 4661,
      "ĠKie": 4662,
      "zny": 4663,
      "Ġinformacji": 4664,
      "ĠKur": 4665,
      "jazd": 4666,
      "tona": 4667,
      "ĠPonadto": 4668,
      "ÅĦcy": 4669,
      "ame": 4670,
      "ĠPiÅĤ": 4671,
      "Ġgroma": 4672,
      "ĠÅĤyÅ¼": 4673,
      "ĠNastÄĻpnie": 4674,
      "Ġcer": 4675,
      "NA": 4676,
      "Ġliczb": 4677,
      "towe": 4678,
      "By": 4679,
      "stans": 4680,
      "Ġstudia": 4681,
      "Ġszybko": 4682,
      "Ġzu": 4683,
      "cyfi": 4684,
      "ĠmateriaÅĤ": 4685,
      "ĠspeÅĤ": 4686,
      "ĠPartii": 4687,
      "ĠbÅĤÄĻ": 4688,
      "ĠudaÅĤo": 4689,
      "ÅĤowie": 4690,
      "porzÄħd": 4691,
      "Ġcoraz": 4692,
      "jekt": 4693,
      "ĠZas": 4694,
      "lewski": 4695,
      "Ġludz": 4696,
      "ĠKarola": 4697,
      "Ġwyna": 4698,
      "Ġpoet": 4699,
      "Ġdotychczas": 4700,
      "Ġude": 4701,
      "Ġskie": 4702,
      "ficjal": 4703,
      "zz": 4704,
      "Ġpowiecie": 4705,
      "Ġradi": 4706,
      "ĠzastÄĻp": 4707,
      "Ġustanowi": 4708,
      "dnoÅĽci": 4709,
      "Ġcha": 4710,
      "ĠnastÄħpi": 4711,
      "(I": 4712,
      "ĠDol": 4713,
      "skÄĻ": 4714,
      "Ty": 4715,
      "Ġodci": 4716,
      "ktÃ³re": 4717,
      "wol": 4718,
      "ĠPal": 4719,
      "Ġprowincji": 4720,
      "ĠzajÄħÅĤ": 4721,
      "ĠbuÅĤgar": 4722,
      "anka": 4723,
      "ĠmoÅ¼liwoÅĽÄĩ": 4724,
      "Ġkolejne": 4725,
      "prawa": 4726,
      "ĠwiÄĻzie": 4727,
      "Ġstron": 4728,
      "ejmuje": 4729,
      "ĠprzewodniczÄħcy": 4730,
      "szewski": 4731,
      "ĠBiblio": 4732,
      "Ġzdol": 4733,
      "ĠliczbÄĻ": 4734,
      "tyki": 4735,
      "ĠsÄĻ": 4736,
      "wiek": 4737,
      "czÄħtkowo": 4738,
      "ĠHist": 4739,
      "Ġtron": 4740,
      "Ġczterech": 4741,
      "ĠXIV": 4742,
      "Ġis": 4743,
      "sÅĤo": 4744,
      "ĠTen": 4745,
      "ĠRobert": 4746,
      "szczenie": 4747,
      "Ġpokry": 4748,
      "Ġstopnia": 4749,
      "Ġkonstruk": 4750,
      "Ġwymaga": 4751,
      "udo": 4752,
      "Ġkwa": 4753,
      "ĠÎ": 4754,
      "ĠodbyÅĤ": 4755,
      "Ġedy": 4756,
      "dzeniem": 4757,
      "ĠwojewÃ³dztwie": 4758,
      "ĠpapieÅ¼": 4759,
      "ĠGal": 4760,
      "dynek": 4761,
      "Ġnowy": 4762,
      "169": 4763,
      "dgo": 4764,
      "Ġmaszyn": 4765,
      "-M": 4766,
      "(za": 4767,
      "lasy": 4768,
      "Ġ?": 4769,
      "Ġgwiazd": 4770,
      "Ġzakresie": 4771,
      "ĠÅĽwiÄĻty": 4772,
      "Ġzainteres": 4773,
      "ĠbrÄħz": 4774,
      "Ġpowierzch": 4775,
      "cÅĤa": 4776,
      "Ġspad": 4777,
      "ĠdzieÅĦ": 4778,
      "-G": 4779,
      "Ġwybud": 4780,
      "Ġserii": 4781,
      "-D": 4782,
      "ĠDÄħ": 4783,
      "atÃ³w": 4784,
      "ĠGdaÅĦ": 4785,
      "letni": 4786,
      "Ġgranicy": 4787,
      "Ġgitarzysta": 4788,
      "ĠwÅĤaÅĽnie": 4789,
      "Ġzmniej": 4790,
      "koÅĤo": 4791,
      "feren": 4792,
      "stry": 4793,
      "Ġobok": 4794,
      "Ġigrzy": 4795,
      "gach": 4796,
      "Ã§": 4797,
      "spa": 4798,
      "ĠniÄħ": 4799,
      "orÄħ": 4800,
      "bol": 4801,
      "ĠczÄĻÅĽciÄħ": 4802,
      "lie": 4803,
      "Ġcen": 4804,
      "Ġprzysz": 4805,
      "ĠciÄħg": 4806,
      "ts": 4807,
      "grup": 4808,
      "ĠwÅĤoska": 4809,
      "Ġkoron": 4810,
      ");Ċ": 4811,
      "Ġist": 4812,
      "Ġport": 4813,
      "rid": 4814,
      "Ġdysk": 4815,
      "ĠAK": 4816,
      "Ġwymieni": 4817,
      "Ġteore": 4818,
      "ĠOrgani": 4819,
      "(nie": 4820,
      "lus": 4821,
      "Ġcmenta": 4822,
      "Ġszereg": 4823,
      "05": 4824,
      "taj": 4825,
      "Å¼ni": 4826,
      "Ñģ": 4827,
      "Ġwzm": 4828,
      "(prze": 4829,
      "pres": 4830,
      "ĠSztu": 4831,
      "Ġboj": 4832,
      "czak": 4833,
      "hy": 4834,
      "ĠwÅĤadze": 4835,
      "cien": 4836,
      "ĠkoÅĦcu": 4837,
      "mieÅĦ": 4838,
      "75": 4839,
      "Ã³g": 4840,
      "rator": 4841,
      "Ġinicj": 4842,
      "ĠmÅĤodzie": 4843,
      "ĠpapieÅ¼a": 4844,
      "ĠuwaÅ¼a": 4845,
      "dra": 4846,
      "szony": 4847,
      "Ġinternet": 4848,
      "amy": 4849,
      "ĠWojska": 4850,
      "Ġmecz": 4851,
      "Ġkonta": 4852,
      "(G": 4853,
      "Ġtaki": 4854,
      "Ġjas": 4855,
      "KoÅĽciÃ³ÅĤ": 4856,
      "Wa": 4857,
      "ĠOp": 4858,
      "Ġwielki": 4859,
      "Ġportugal": 4860,
      "kolwiek": 4861,
      "Dz": 4862,
      "ĠpoÅĤÄħczenia": 4863,
      "Ġem": 4864,
      "Ġreje": 4865,
      "ĠduÅĦski": 4866,
      "Ġrejonie": 4867,
      "liny": 4868,
      "Ġbohater": 4869,
      "Ġareszt": 4870,
      "szyÅĤ": 4871,
      "szard": 4872,
      "Ġojca": 4873,
      "Ġfla": 4874,
      "ĠWor": 4875,
      "ĠUnii": 4876,
      "Ġjezio": 4877,
      "urÄĻ": 4878,
      "Ġszpi": 4879,
      "ralne": 4880,
      "dania": 4881,
      "ĠelementÃ³w": 4882,
      "hol": 4883,
      "tycznego": 4884,
      "wiÅĤ": 4885,
      "pÃ³w": 4886,
      "ĠKe": 4887,
      "Ġgrze": 4888,
      "trza": 4889,
      "ĠStra": 4890,
      "ĠZostaÅĤ": 4891,
      "ownika": 4892,
      "ĠCzech": 4893,
      "Ġchwi": 4894,
      "har": 4895,
      "graÅĤa": 4896,
      "Ã³z": 4897,
      "zel": 4898,
      "ĠNowym": 4899,
      "Ġeli": 4900,
      "Ġfron": 4901,
      "ĠSS": 4902,
      "Åºdzie": 4903,
      "mem": 4904,
      "ĠpracÄĻ": 4905,
      "ĠEk": 4906,
      "sc": 4907,
      "155": 4908,
      "ĠMad": 4909,
      "ĠbÅĤogosÅĤawiony": 4910,
      "Ġmistrz": 4911,
      "ĠTak": 4912,
      "rzeniu": 4913,
      "[dostÄĻp": 4914,
      "loty": 4915,
      "ĠBud": 4916,
      "lnie": 4917,
      "ĠNowa": 4918,
      "rosÅĤaw": 4919,
      "Ġpozycji": 4920,
      "nera": 4921,
      "Ġroli": 4922,
      "rzÄħt": 4923,
      "39": 4924,
      "ĠÅļrod": 4925,
      "miu": 4926,
      "wskiej": 4927,
      "ĠBibliote": 4928,
      "ĠzakÅĤad": 4929,
      "dÅĤa": 4930,
      "ĠÄĩ": 4931,
      "towej": 4932,
      "dniÄħ": 4933,
      "ĠzaczÄħÅĤ": 4934,
      "Ġmist": 4935,
      "czyÅĤo": 4936,
      "ĠKry": 4937,
      "kowym": 4938,
      "Ġdr": 4939,
      "ĠUr": 4940,
      "ĠNarodowej": 4941,
      "ĠBen": 4942,
      "dan": 4943,
      "ĠÅĽlÄħ": 4944,
      "Ġformy": 4945,
      "ĠmÅĤod": 4946,
      "ĠWielko": 4947,
      "cyjnie": 4948,
      "Ġobrony": 4949,
      "kÅĤ": 4950,
      "dnych": 4951,
      "ĠzbiÃ³r": 4952,
      "ĠÅĽpiewa": 4953,
      "fra": 4954,
      "Ġmimo": 4955,
      "ll": 4956,
      "ĠsiedzibÄħ": 4957,
      "cjon": 4958,
      "Ġwybrany": 4959,
      "Ġbrz": 4960,
      "Ġprzewo": 4961,
      "broje": 4962,
      "Ġklasztor": 4963,
      "rektor": 4964,
      "serwa": 4965,
      "styka": 4966,
      "ĠKrÃ³l": 4967,
      "Ġprojektu": 4968,
      "ĠpiÅĤkarski": 4969,
      "Ġeta": 4970,
      "niczych": 4971,
      "Ġsur": 4972,
      "amery": 4973,
      "Ġobejmu": 4974,
      "Ġswego": 4975,
      "Ġpodobnie": 4976,
      "nocy": 4977,
      "miera": 4978,
      "Ġartyku": 4979,
      "ĠGali": 4980,
      "ktury": 4981,
      "ciele": 4982,
      "ĠmaÅĤo": 4983,
      "ĠpoÅĤo": 4984,
      "Ġfar": 4985,
      "Ġczasach": 4986,
      "Ġpowro": 4987,
      "Ġdes": 4988,
      "cjonal": 4989,
      "ĠiloÅĽci": 4990,
      "ĠdzieÅĤa": 4991,
      "ĠObecnie": 4992,
      "ĠPier": 4993,
      "Ġpromieni": 4994,
      "ĠJej": 4995,
      "berna": 4996,
      "kÅĤada": 4997,
      "ĠreÅ¼yserii": 4998,
      "Ġmiejskie": 4999,
      "illa": 5000,
      "miona": 5001,
      "mion": 5002,
      "fery": 5003,
      "Ġbelgijski": 5004,
      "rin": 5005,
      "48": 5006,
      "wienie": 5007,
      "Ġkatastro": 5008,
      "tok": 5009,
      "Ġpli": 5010,
      "Ġmon": 5011,
      "ĠbudowÄĻ": 5012,
      "Ġkadencji": 5013,
      "Ġkamp": 5014,
      "toÅĽÄĩ": 5015,
      "dziÅĤy": 5016,
      "Mia": 5017,
      "ĠnapÄĻ": 5018,
      "staÅĤ": 5019,
      "ĠÅ¼oÅĤnierz": 5020,
      "ety": 5021,
      "ĠnawiÄħz": 5022,
      "vel": 5023,
      "ĠksztaÅĤt": 5024,
      "Ġrannych": 5025,
      "oseph": 5026,
      "Ġobszarze": 5027,
      "szuki": 5028,
      "chia": 5029,
      "ĠSal": 5030,
      "ÑĤ": 5031,
      "naÅĤu": 5032,
      "ĠMinister": 5033,
      "Ġszachista": 5034,
      "rzch": 5035,
      "ĠpodziaÅĤ": 5036,
      "ĠPor": 5037,
      "Ġniemal": 5038,
      "Å¼nej": 5039,
      "zda": 5040,
      "Ġperku": 5041,
      "55": 5042,
      "130": 5043,
      "ĠsprzÄĻ": 5044,
      "ĠWÅĤadysÅĤawa": 5045,
      "Ġwspar": 5046,
      "rÃ©": 5047,
      "lak": 5048,
      "val": 5049,
      "ĠÅ¼ona": 5050,
      "Ġutra": 5051,
      "Ġdniu": 5052,
      "-H": 5053,
      "tycznej": 5054,
      "Ġskier": 5055,
      "ĠJagiel": 5056,
      "wskim": 5057,
      ")]]Ċ": 5058,
      "ĠXIII": 5059,
      "szymi": 5060,
      "âĢĻs": 5061,
      "dziaÅĤa": 5062,
      "Ġ?)Ċ": 5063,
      "ction": 5064,
      "Ġrazy": 5065,
      "153": 5066,
      "Ġitp": 5067,
      "iÄĻk": 5068,
      "Ġnosi": 5069,
      "ĠkrÄĻ": 5070,
      "Ġprzet": 5071,
      "Ġindywidu": 5072,
      "Ġtermin": 5073,
      "ĠpoÅĤowy": 5074,
      "ctwo": 5075,
      "Ġpancer": 5076,
      "Ġmeczu": 5077,
      "Ġnazywa": 5078,
      "Ġteolog": 5079,
      "ĠbezpoÅĽrednio": 5080,
      "Ġsiost": 5081,
      "aÅĤÄĻ": 5082,
      "Ġprace": 5083,
      "ĠWrocÅĤaw": 5084,
      "Ġastronom": 5085,
      "cina": 5086,
      "Ġuzyska": 5087,
      "Ġnadal": 5088,
      "Ġbitwa": 5089,
      "Ġnimi": 5090,
      "kÅĤadzie": 5091,
      "ĠUniwersytecie": 5092,
      "opis": 5093,
      "Ġdel": 5094,
      "tus": 5095,
      "Ġhonor": 5096,
      "lami": 5097,
      "ĠodbyÅĤa": 5098,
      "sami": 5099,
      "ĠPrezyd": 5100,
      "pÅĤyw": 5101,
      "duje": 5102,
      "Ġprezyden": 5103,
      "danie": 5104,
      "Å¼ony": 5105,
      "Ġatak": 5106,
      "ĠsÅĤuÅ¼by": 5107,
      "Å¼ar": 5108,
      "Ġstopniu": 5109,
      "Ġrodzaj": 5110,
      "Ġnigdy": 5111,
      "Ġsezonie": 5112,
      "Ġpy": 5113,
      "ĠGda": 5114,
      "Ġbatali": 5115,
      "Ġzi": 5116,
      "ĠAust": 5117,
      "ĠWit": 5118,
      "jczyk": 5119,
      "lon": 5120,
      "ĠIX": 5121,
      "ĠÅĽwiad": 5122,
      "ĠÅĽmierÄĩ": 5123,
      "Ġcesar": 5124,
      "ĠwartoÅĽÄĩ": 5125,
      "Ġfran": 5126,
      "dziela": 5127,
      "Mie": 5128,
      "ĠPuch": 5129,
      "Ġchorwa": 5130,
      "Ġprzyzna": 5131,
      "154": 5132,
      "ĠbiaÅĤoru": 5133,
      "Ġsymboli": 5134,
      "Bar": 5135,
      "Au": 5136,
      "ĠrzeÅºbia": 5137,
      "pier": 5138,
      "niec": 5139,
      "Ġtechno": 5140,
      "ĠzwierzÄĻ": 5141,
      "Ġmetro": 5142,
      "dystans": 5143,
      "Ġkrajach": 5144,
      "ĠkrÄħ": 5145,
      "czech": 5146,
      "Ġvan": 5147,
      "owiem": 5148,
      "Ġode": 5149,
      "Ð¾Ð": 5150,
      "Ġrozbi": 5151,
      "cjali": 5152,
      "ĠMiasto": 5153,
      "ĠLot": 5154,
      "sbur": 5155,
      "baÅĦski": 5156,
      "orski": 5157,
      "Uwagi": 5158,
      "ÅĽrod": 5159,
      "151": 5160,
      "ĠNiemczech": 5161,
      "Ġpary": 5162,
      "Ġformal": 5163,
      "owani": 5164,
      "ander": 5165,
      "stym": 5166,
      "ns": 5167,
      "Ġnarciarski": 5168,
      "Ġpodat": 5169,
      "loni": 5170,
      "ouis": 5171,
      "ĠKos": 5172,
      "Ġmikro": 5173,
      "Ġfak": 5174,
      "lecia": 5175,
      "ĠpÃ³ÅĤnocnej": 5176,
      "ĠVIII": 5177,
      "ĠzwierzÄħt": 5178,
      "Ġjednostek": 5179,
      "ÅĤyn": 5180,
      "Ġdziennik": 5181,
      "atunek": 5182,
      "Ġdyry": 5183,
      "godnie": 5184,
      "Ġlini": 5185,
      "ĠLondynie": 5186,
      "Ġdzisiej": 5187,
      "bat": 5188,
      "ĠWysp": 5189,
      "ĠAlf": 5190,
      "Ġstandard": 5191,
      "wzglÄĻ": 5192,
      "ĠcaÅĤkowicie": 5193,
      "Ġcelem": 5194,
      "Ne": 5195,
      "44": 5196,
      "alnych": 5197,
      "ĠPrzez": 5198,
      "Ġodcin": 5199,
      "ĠCzÄĻsto": 5200,
      "ĠmaÅĤy": 5201,
      "strzy": 5202,
      "ble": 5203,
      "wangeli": 5204,
      "ĠKazimierza": 5205,
      "lopedia": 5206,
      "edi": 5207,
      "ĠCentrum": 5208,
      "kÅĤadu": 5209,
      "Ġniepo": 5210,
      "Antoni": 5211,
      "ĠKonstanty": 5212,
      "dzonych": 5213,
      "Ġnomina": 5214,
      "Ġodzy": 5215,
      "(E": 5216,
      "czyÅĦski": 5217,
      "Ġuroczy": 5218,
      "(H": 5219,
      "ĠMimo": 5220,
      "ĠuwagÄĻ": 5221,
      "ĠKomitetu": 5222,
      "porzÄħdk": 5223,
      "Ġskoczek": 5224,
      "liÄĩ": 5225,
      "mÄĻ": 5226,
      "Ġpatri": 5227,
      "ĠpodjÄĻ": 5228,
      "ĠPolskich": 5229,
      "wki": 5230,
      "ĠMichaÅĤ": 5231,
      "ĠPÃ³ÅĤnocnej": 5232,
      "Ġmono": 5233,
      "Ġsamolotu": 5234,
      "ĠAleksandra": 5235,
      "ÅĽnia": 5236,
      "Ġniemieckich": 5237,
      "Maria": 5238,
      "Ġstylu": 5239,
      "onar": 5240,
      "Ġrozsze": 5241,
      "leni": 5242,
      "tio": 5243,
      "Ġuniwersyte": 5244,
      "fu": 5245,
      "ĠpÄĻ": 5246,
      "ĠMil": 5247,
      "ĠposzczegÃ³lnych": 5248,
      "Ġataku": 5249,
      "gor": 5250,
      "ĠXII": 5251,
      "Zmar": 5252,
      "ĠgÄĻ": 5253,
      "skona": 5254,
      "Ġbitwy": 5255,
      "nania": 5256,
      "mana": 5257,
      "gÃ³r": 5258,
      "Ġdlatego": 5259,
      "Ġnieu": 5260,
      "ĠsÅĤuÅ¼Äħ": 5261,
      "cone": 5262,
      "peÅĤni": 5263,
      "Ġmasy": 5264,
      "ĠstaÅĤo": 5265,
      "Ġznane": 5266,
      "Ġtrwa": 5267,
      "ĠgÅĤos": 5268,
      "Ġodwo": 5269,
      "pii": 5270,
      "rium": 5271,
      "Ġprezydentem": 5272,
      "Ġkawa": 5273,
      "ĠFin": 5274,
      "ĠwziÄĻ": 5275,
      "han": 5276,
      "Ġzau": 5277,
      "(T": 5278,
      "ĠRol": 5279,
      "ĠobjÄħÅĤ": 5280,
      "Ġwiek": 5281,
      "versi": 5282,
      "zyli": 5283,
      "Ġmost": 5284,
      "ĠVer": 5285,
      "Ġrozu": 5286,
      "cielem": 5287,
      "orze": 5288,
      "Ġkated": 5289,
      "Ġniemieckiej": 5290,
      "Ġopi": 5291,
      "bet": 5292,
      "Ġodpowiedzia": 5293,
      "chÃ³w": 5294,
      "tes": 5295,
      "Ġkoszykarka": 5296,
      "Ġwyja": 5297,
      "Ġwybor": 5298,
      "tny": 5299,
      "Ġrzad": 5300,
      "erem": 5301,
      "Ġelementy": 5302,
      "(a": 5303,
      "Ġdobrze": 5304,
      "Ġwych": 5305,
      "Â°C": 5306,
      "Car": 5307,
      "ĠpÃ³ÅĤnocy": 5308,
      "Ġniezn": 5309,
      "ĠargentyÅĦski": 5310,
      "ÅĽciÅĤ": 5311,
      "sÅĤowa": 5312,
      "aniel": 5313,
      "ĠniektÃ³re": 5314,
      "ĠJaponii": 5315,
      "02": 5316,
      "Ġtenisista": 5317,
      "andii": 5318,
      "Ġmary": 5319,
      "ĠMarii": 5320,
      "ÅĤat": 5321,
      "domoÅĽci": 5322,
      "Ġmagne": 5323,
      "Ġprzesz": 5324,
      "Ġkontra": 5325,
      "rea": 5326,
      "ĠpaÅĦstwo": 5327,
      "niusz": 5328,
      "ĠHit": 5329,
      "ÅĤaÅĤ": 5330,
      "ĠprÄĻdkoÅĽci": 5331,
      "of": 5332,
      "gami": 5333,
      "terze": 5334,
      "iss": 5335,
      "Ġroze": 5336,
      "âĢŀZ": 5337,
      "Ġdrogi": 5338,
      "ĠTadeusz": 5339,
      "rodzenia": 5340,
      "towych": 5341,
      "ĠCha": 5342,
      "bii": 5343,
      "Ġproble": 5344,
      "bÃ³w": 5345,
      "Ġtereny": 5346,
      "Ġzamord": 5347,
      "ĠfiÅĦski": 5348,
      "Ġdokumenta": 5349,
      "ĠzostaÄĩ": 5350,
      "ĠPomo": 5351,
      "Ġpanowania": 5352,
      "400": 5353,
      "ciaÅ¼": 5354,
      "Kazi": 5355,
      "deracji": 5356,
      "ĠAnto": 5357,
      "ĠGeorge": 5358,
      "Adam": 5359,
      "ĠEdward": 5360,
      "pierw": 5361,
      "ĠpiÄĻÄĩ": 5362,
      "03": 5363,
      "65": 5364,
      "stawy": 5365,
      "owskie": 5366,
      "âĢŀM": 5367,
      "Ġofiar": 5368,
      "ĠFranciszek": 5369,
      "tnych": 5370,
      "Ġszef": 5371,
      "Ġturnieju": 5372,
      "ĠprawosÅĤawny": 5373,
      "Ġus": 5374,
      "Ġory": 5375,
      "ĠLubli": 5376,
      "Krzy": 5377,
      "WÅĤady": 5378,
      "Ġstrona": 5379,
      "towa": 5380,
      "Ġporozu": 5381,
      "ĠmÃ³wi": 5382,
      "ĠWilhelm": 5383,
      "ĠTowarzystwa": 5384,
      "Ġsubstan": 5385,
      "Ġokupa": 5386,
      "Ġder": 5387,
      "parta": 5388,
      "ies": 5389,
      "ĠdÄħ": 5390,
      "64": 5391,
      "ĠSÅĤu": 5392,
      "ation": 5393,
      "Ġpal": 5394,
      "viÄĩ": 5395,
      "ĠPark": 5396,
      "dziesiÄħ": 5397,
      "ĠÅģu": 5398,
      "oc": 5399,
      "riusz": 5400,
      "KS": 5401,
      "ĠPolakÃ³w": 5402,
      "tero": 5403,
      "Ġpopulacji": 5404,
      "ĠgÅĤÄĻbo": 5405,
      "Ġmieli": 5406,
      "ĠPortu": 5407,
      "Ġwyspy": 5408,
      "Micha": 5409,
      "nÄĻÅĤa": 5410,
      "leÅĦ": 5411,
      "(F": 5412,
      "skry": 5413,
      "ĠPaweÅĤ": 5414,
      "rzut": 5415,
      "ĠPZ": 5416,
      "ĠPla": 5417,
      "ĠkrzyÅ¼": 5418,
      "Ġczerwo": 5419,
      "ĠgÅĤosÃ³w": 5420,
      "Ġmedal": 5421,
      "Wal": 5422,
      "denty": 5423,
      "ĠwrzeÅĽniu": 5424,
      "(lub": 5425,
      "ric": 5426,
      "ĠduÅ¼ej": 5427,
      "Ġtransp": 5428,
      "wami": 5429,
      "ĠpotÄĻ": 5430,
      "ĠPodstaw": 5431,
      "Ġpotrzeb": 5432,
      "Ġzmienia": 5433,
      "stein": 5434,
      "ĠmÄĻÅ¼czyzn": 5435,
      "ĠwzdÅĤuÅ¼": 5436,
      "149": 5437,
      "Ġsocj": 5438,
      "ĠNowy": 5439,
      "Ġdostar": 5440,
      "alnie": 5441,
      "Ġdyrygent": 5442,
      "ÅĤym": 5443,
      "ĠMistrzost": 5444,
      "Ġobwo": 5445,
      "140": 5446,
      "ĠOgÃ³l": 5447,
      "Ġtrzeci": 5448,
      "ĠpoÅĤudniowej": 5449,
      "ĠklÄĻ": 5450,
      "Franci": 5451,
      "-za": 5452,
      "ĠBla": 5453,
      "not": 5454,
      "Ġpostanowi": 5455,
      "ĠPas": 5456,
      "Henryk": 5457,
      "gene": 5458,
      "Jed": 5459,
      "esar": 5460,
      "mianie": 5461,
      "ĠWÄĻgier": 5462,
      "ĠcaÅĤym": 5463,
      "Ġatom": 5464,
      "Ġskut": 5465,
      "ps": 5466,
      "ĠRzymie": 5467,
      "stej": 5468,
      "misja": 5469,
      "tali": 5470,
      "Ġskutek": 5471,
      "Ġprzekaz": 5472,
      "ĠtysiÄħ": 5473,
      "Ġanali": 5474,
      "Ġhum": 5475,
      "Ġmaju": 5476,
      "padzie": 5477,
      "ĠJuli": 5478,
      "(R": 5479,
      "ĠnastÄĻpujÄħce": 5480,
      "Ġster": 5481,
      "ĠIch": 5482,
      "ĠgÅĤÃ³wnym": 5483,
      "ĠpowaÅ¼": 5484,
      "ĠprzyÅĤÄħ": 5485,
      "Ġnowej": 5486,
      "ĠprzyjÄħÅĤ": 5487,
      "Ġjakie": 5488,
      "Pre": 5489,
      "bezpie": 5490,
      "Ġulicy": 5491,
      "Ġdrugim": 5492,
      "Ġwek": 5493,
      "rzyÄĩ": 5494,
      "vis": 5495,
      "ĠpracowaÅĤ": 5496,
      "Ġobra": 5497,
      "Ġkierow": 5498,
      "ĠodlegÅĤoÅĽci": 5499,
      "47": 5500,
      "Ġwywia": 5501,
      "iÄĻkszoÅĽÄĩ": 5502,
      "Ġsamej": 5503,
      "typ": 5504,
      "ĠNarodowego": 5505,
      "Ġstyczniu": 5506,
      "Order": 5507,
      "dzania": 5508,
      "âĢĿ.Ċ": 5509,
      "Ġoni": 5510,
      "Ġsprzeda": 5511,
      "ĠpoÅĤudnie": 5512,
      "ĠMas": 5513,
      "zmem": 5514,
      "ĠnapiÄĻ": 5515,
      "Ġdokona": 5516,
      "ĠBydgo": 5517,
      "Ġbowiem": 5518,
      "ĠpamiÄĻci": 5519,
      "tos": 5520,
      "tolog": 5521,
      "ĠrzeÅºbiarz": 5522,
      "WÅĤadysÅĤaw": 5523,
      "Ġstosowane": 5524,
      "ond": 5525,
      "Ġimienia": 5526,
      "Ġzali": 5527,
      "owce": 5528,
      "Ġtabli": 5529,
      "stek": 5530,
      "ĠwiÄħ": 5531,
      "ys": 5532,
      "Ġkarie": 5533,
      "Ġdrodze": 5534,
      "ĠWene": 5535,
      "Ġsiatkarz": 5536,
      "bieg": 5537,
      "ĠJerzego": 5538,
      "ĠPri": 5539,
      "ĠAleksander": 5540,
      "ban": 5541,
      "komu": 5542,
      "waniu": 5543,
      "(tzw": 5544,
      "Ġstosunku": 5545,
      "ĠdziesiÄĻ": 5546,
      "Ġjaki": 5547,
      "ĠWrocÅĤa": 5548,
      "kul": 5549,
      "Ġczerwcu": 5550,
      "iz": 5551,
      "Å¼ono": 5552,
      "Ġpola": 5553,
      "Ġhipo": 5554,
      "Ġdat": 5555,
      "dows": 5556,
      "Ġoskar": 5557,
      "tuÅĤ": 5558,
      "ĠMiasta": 5559,
      "iach": 5560,
      "rodÄĻ": 5561,
      "Ġlogi": 5562,
      "ĠTrze": 5563,
      "Ġtradycji": 5564,
      "anami": 5565,
      "ĠDziÄĻki": 5566,
      "ford": 5567,
      "ĠMeksy": 5568,
      "rzegorz": 5569,
      "âĢŀT": 5570,
      "spÃ³l": 5571,
      "ĠpodwÃ³j": 5572,
      "dziny": 5573,
      "ĠmieÄĩ": 5574,
      "Ġwszel": 5575,
      "ĠSze": 5576,
      "ĠwspÃ³ÅĤpracy": 5577,
      "eri": 5578,
      "racja": 5579,
      "-wscho": 5580,
      "lesty": 5581,
      "Ġstatus": 5582,
      "Ġdramaturg": 5583,
      "ĠKolej": 5584,
      "Ġkategorii": 5585,
      "eld": 5586,
      "Ġakcji": 5587,
      "Ġnadaw": 5588,
      "(O": 5589,
      "ĠEx": 5590,
      "ĠrÃ³Å¼ni": 5591,
      "wers": 5592,
      "wic": 5593,
      "ĠBoga": 5594,
      "rus": 5595,
      "ĠmeksykaÅĦski": 5596,
      "ĠcaÅĤego": 5597,
      "rali": 5598,
      "ĠpasaÅ¼er": 5599,
      "arda": 5600,
      "Sa": 5601,
      "kowÄħ": 5602,
      "wiu": 5603,
      "atem": 5604,
      "Ġurucho": 5605,
      "ĠgÅĤÃ³wnych": 5606,
      "rÃ³b": 5607,
      "Kazimierz": 5608,
      "Ġplane": 5609,
      "Ġkons": 5610,
      "gorz": 5611,
      "vÃ¡": 5612,
      "pty": 5613,
      "ĠDla": 5614,
      "jona": 5615,
      "ĠzamkniÄĻ": 5616,
      "gno": 5617,
      "Ġkali": 5618,
      "Ad": 5619,
      "yn": 5620,
      "ĠAnna": 5621,
      "SA": 5622,
      "urt": 5623,
      "ĠurzÄħd": 5624,
      "brzy": 5625,
      "Ġkonstrukcji": 5626,
      "niÅ¼ej": 5627,
      "Ġrozbud": 5628,
      "obi": 5629,
      "ĠkrajÃ³w": 5630,
      "ĠTomasz": 5631,
      "ĠAda": 5632,
      "Ġobron": 5633,
      "Ġwersja": 5634,
      "Ġszta": 5635,
      "Ġarab": 5636,
      "Ġniebie": 5637,
      "yer": 5638,
      "ĠlÄĻ": 5639,
      "Ġcm": 5640,
      "Ġgrafi": 5641,
      "jsko": 5642,
      "Ãº": 5643,
      "osÃ©": 5644,
      "Ġwyro": 5645,
      "ĠwygraÅĤ": 5646,
      "chan": 5647,
      "145": 5648,
      "Ġkonsek": 5649,
      "Å¼d": 5650,
      "âĢŀD": 5651,
      "ĠduÅ¼Äħ": 5652,
      "(ja": 5653,
      "czania": 5654,
      "Ġprzyw": 5655,
      "ĠdoÅĤÄħ": 5656,
      "eni": 5657,
      "Ġpomocniczy": 5658,
      "czer": 5659,
      "Lud": 5660,
      "(k": 5661,
      "ĠnajwiÄĻksz": 5662,
      "Ġrady": 5663,
      "ĠAugust": 5664,
      "ĠwschÃ³d": 5665,
      "kat": 5666,
      "Fi": 5667,
      "obraz": 5668,
      "Ġmarcu": 5669,
      "bil": 5670,
      ".pl": 5671,
      "Ġpokoj": 5672,
      "Tu": 5673,
      "Ġstanowiska": 5674,
      "chosÅĤowa": 5675,
      "ĠPaÅĦstwa": 5676,
      "ĠdÅºwiÄĻ": 5677,
      "Ġprawdzi": 5678,
      "noty": 5679,
      "Ġchemik": 5680,
      "Ġuczestni": 5681,
      "ĠKultury": 5682,
      "ĠciÅĽnie": 5683,
      "Ġutrzym": 5684,
      "ĠHab": 5685,
      "ĠpoczÄħtek": 5686,
      "Ġono": 5687,
      "ĠSzwecji": 5688,
      "Å¼eÅĦ": 5689,
      "glÄħ": 5690,
      "kazuje": 5691,
      "leb": 5692,
      "gazy": 5693,
      "Ġfabry": 5694,
      "Ġinterpre": 5695,
      "ralnych": 5696,
      "ĠHel": 5697,
      "ĠpunktÃ³w": 5698,
      "Ġlitewski": 5699,
      "ĠTym": 5700,
      "Ġstaty": 5701,
      "Ġsygna": 5702,
      "formaty": 5703,
      "Ġmonar": 5704,
      "ĠRoman": 5705,
      "Ġwynalaz": 5706,
      "akso": 5707,
      "Ġstosuje": 5708,
      "aliz": 5709,
      "Ġinten": 5710,
      "Sam": 5711,
      "-zacho": 5712,
      "âĢŀC": 5713,
      "Ġrzymsko": 5714,
      "cedo": 5715,
      "ĠÅĽrednio": 5716,
      "ĠwyrÃ³Å¼nia": 5717,
      "czonej": 5718,
      "Ġpolityki": 5719,
      "Ġpianista": 5720,
      "Ġrefor": 5721,
      "Ġfigur": 5722,
      "ĠDom": 5723,
      "try": 5724,
      "ĠRzymu": 5725,
      "Ġdiece": 5726,
      "ĠFesti": 5727,
      "ĠkaÅ¼dego": 5728,
      "ĠKoÅĽciÃ³ÅĤ": 5729,
      "chii": 5730,
      "Ġprowadzi": 5731,
      "Ġaut": 5732,
      "Ġzasady": 5733,
      "Ġwybuchu": 5734,
      "Ġzbyt": 5735,
      "Ġzwolen": 5736,
      "mencie": 5737,
      "ĠPubli": 5738,
      "ĠwiÄħz": 5739,
      "ĠprzejÄĻ": 5740,
      "kani": 5741,
      "wojen": 5742,
      "gwa": 5743,
      "ĠÅĽwiet": 5744,
      "ĠIgna": 5745,
      "Ġzatru": 5746,
      "ĠStanach": 5747,
      "lav": 5748,
      "Ġgrudniu": 5749,
      "Ġartylerii": 5750,
      "giÄĻ": 5751,
      "Ġdomin": 5752,
      "ĠPiotra": 5753,
      "ĠjÄĻzykÃ³w": 5754,
      "49": 5755,
      "ĠPoznaniu": 5756,
      "ĠAzji": 5757,
      "Ġkosmi": 5758,
      "(obec": 5759,
      "ĠÅ¼Ã³ÅĤ": 5760,
      "ĠTV": 5761,
      "ĠRzeszy": 5762,
      "ĠKrÃ³lew": 5763,
      "Krzysztof": 5764,
      "tacja": 5765,
      "ati": 5766,
      "ĠÅĽrodowiska": 5767,
      "Ġogrom": 5768,
      "ĠokrÄĻtÃ³w": 5769,
      "Ġskaz": 5770,
      "ĠpoÅĽredni": 5771,
      "ĠnapisaÅĤ": 5772,
      "dzkiej": 5773,
      "Ġgrun": 5774,
      "prawie": 5775,
      ".)Ċ": 5776,
      "czysÅĤaw": 5777,
      "Ġedu": 5778,
      "ando": 5779,
      "Jean": 5780,
      "Ġzdo": 5781,
      "ning": 5782,
      "Ġkontynen": 5783,
      "Ġpozio": 5784,
      "Ġpokon": 5785,
      "ĠLudwik": 5786,
      "ĠWojna": 5787,
      "ĠTi": 5788,
      "Ġkoali": 5789,
      "biut": 5790,
      "Marek": 5791,
      "niÅ¼": 5792,
      "La": 5793,
      "uta": 5794,
      "unta": 5795,
      "itwa": 5796,
      "ĠSpe": 5797,
      "cjusz": 5798,
      "rzone": 5799,
      "ĠJak": 5800,
      "Ġnacze": 5801,
      "ĠPraw": 5802,
      "ÄĻzy": 5803,
      "(s": 5804,
      "znawca": 5805,
      "ĠPrus": 5806,
      "ĠMont": 5807,
      "Ġhrabstwie": 5808,
      "Dy": 5809,
      "ĠAtlan": 5810,
      "ĠHam": 5811,
      "ĠÅĤÄħczÄħ": 5812,
      "enach": 5813,
      "kowska": 5814,
      "osa": 5815,
      "Ġnarciar": 5816,
      "ĠOkrÄĻ": 5817,
      "bili": 5818,
      "ĠCam": 5819,
      "ĠStefan": 5820,
      "ĠSejmu": 5821,
      "ĠNowej": 5822,
      "Ġzamachu": 5823,
      "ĠJedno": 5824,
      "ĠSzwajcar": 5825,
      "ĠPrzemy": 5826,
      "rozoli": 5827,
      "szki": 5828,
      "ĠogÅĤosiÅĤ": 5829,
      "dae": 5830,
      "ĠAndrze": 5831,
      "Ġniemieckie": 5832,
      "ĠdoÅĽÄĩ": 5833,
      "techni": 5834,
      "Ġdziedzinie": 5835,
      "Ġskute": 5836,
      "ĠuÅ¼ywane": 5837,
      "Ġlisty": 5838,
      "uel": 5839,
      "czeb": 5840,
      "Ġdniach": 5841,
      "Ġaposto": 5842,
      "jne": 5843,
      "Ġprzeniesi": 5844,
      "Ġtorowy": 5845,
      "lonej": 5846,
      "Ġpunktu": 5847,
      "ĠkrÃ³lem": 5848,
      "Ġodwie": 5849,
      "Ġpolitycznych": 5850,
      "lau": 5851,
      "Ġlegen": 5852,
      "Ġojciec": 5853,
      "mus": 5854,
      "Ġterytoria": 5855,
      "cono": 5856,
      "Ġdwuk": 5857,
      "ĠMona": 5858,
      "Ġds": 5859,
      "ĠrzeczywistoÅĽci": 5860,
      "Ġstruktu": 5861,
      "ĠleÅ¼Äħ": 5862,
      "cona": 5863,
      "Ġfilmie": 5864,
      "ÅĽlÄħ": 5865,
      "Ġwchodzi": 5866,
      "gier": 5867,
      "wory": 5868,
      "niÄĻcie": 5869,
      "Ġprezent": 5870,
      "ĠÅ¼a": 5871,
      "ĠzakoÅĦczeniu": 5872,
      "ĠIzra": 5873,
      "Ġkonkuren": 5874,
      "Ġdrewni": 5875,
      "Ã³Å¼": 5876,
      "cus": 5877,
      "lijska": 5878,
      "kowskiego": 5879,
      "die": 5880,
      "Ġpowi": 5881,
      "twÃ³r": 5882,
      "ey": 5883,
      "Ġnocy": 5884,
      "ÅĤow": 5885,
      "Ba": 5886,
      "Ġatmos": 5887,
      "ĠWÅĤoch": 5888,
      "ĠfilmÃ³w": 5889,
      "Inne": 5890,
      "ĠZo": 5891,
      "Ġpartner": 5892,
      "Ġnadz": 5893,
      "Ġprezes": 5894,
      "Ġdem": 5895,
      "ĠpaÅºdzierniku": 5896,
      "ĠBaÅĤ": 5897,
      "Ġrakie": 5898,
      "Ġmajor": 5899,
      "gum": 5900,
      "ĠpostÄĻp": 5901,
      "stre": 5902,
      "Ġtelewizyjny": 5903,
      "Ġzda": 5904,
      "ĠKrzyÅ¼a": 5905,
      "god": 5906,
      "pus": 5907,
      "ĠSamo": 5908,
      "kiedy": 5909,
      "ÅĤania": 5910,
      "spie": 5911,
      "ransport": 5912,
      "46": 5913,
      "ĠKas": 5914,
      "Ġilu": 5915,
      "mp": 5916,
      "ĠkrzyÅ¼a": 5917,
      "ĠAna": 5918,
      "ĠNajwyÅ¼": 5919,
      "Ġarystokrata": 5920,
      "Ġegip": 5921,
      "uss": 5922,
      "ĠÅ¼ydow": 5923,
      "Ġkwest": 5924,
      "wanego": 5925,
      "ĠBri": 5926,
      "ĠAlb": 5927,
      "Ġtransport": 5928,
      "zacjÄĻ": 5929,
      "jskÄħ": 5930,
      "sud": 5931,
      "ĠwyksztaÅĤ": 5932,
      "ess": 5933,
      "ÅĽciami": 5934,
      "ĠpoÅĤoÅ¼one": 5935,
      "ĠFilip": 5936,
      "szewi": 5937,
      "Ġmetody": 5938,
      "Ġobserwa": 5939,
      "ĠKomu": 5940,
      "ĠwchodzÄħ": 5941,
      "gl": 5942,
      "Ġbia": 5943,
      "ĠspoÅĽrÃ³d": 5944,
      "Ġhistor": 5945,
      "Ġklasyfikacji": 5946,
      "Ġfilozofii": 5947,
      "wszy": 5948,
      "ĠzastÄħpi": 5949,
      "Ġutworzono": 5950,
      "Ġmiastem": 5951,
      "ĠzespoÅĤÃ³w": 5952,
      "ĠtwÃ³rczoÅĽci": 5953,
      "stoÅĽÄĩ": 5954,
      "ĠJean": 5955,
      "ĠKsiÄħÅ¼": 5956,
      "ĠmetrÃ³w": 5957,
      "Ġpodej": 5958,
      "rÃ³deÅĤ": 5959,
      "Ġobejmuje": 5960,
      "ĠmoÅ¼liwe": 5961,
      "Ġparlamentar": 5962,
      "Ġkoncent": 5963,
      "Ġnowoczes": 5964,
      "lli": 5965,
      "alny": 5966,
      "ologia": 5967,
      "waÅ¼a": 5968,
      "Ġartysty": 5969,
      "ĠKoÅĽcie": 5970,
      "ÅĽw": 5971,
      "torÃ³w": 5972,
      "Ġneuro": 5973,
      "Ġupraw": 5974,
      "Zbigniew": 5975,
      "Ġzachodniej": 5976,
      "Ġpocz": 5977,
      "Ġpoetka": 5978,
      "Ġrozwija": 5979,
      "Ðº": 5980,
      "ktora": 5981,
      "ĠFrank": 5982,
      "ĠreÅ¼": 5983,
      "Å¼eniem": 5984,
      "ĠwpÅĤywem": 5985,
      "Ġprosto": 5986,
      "Ġskar": 5987,
      "ĠStef": 5988,
      "147": 5989,
      "ĠPoz": 5990,
      "Ġmand": 5991,
      "Ġpowietrz": 5992,
      "Ġawans": 5993,
      "ĠbezpieczeÅĦstwa": 5994,
      "Ġkrwi": 5995,
      "ĠwspÃ³ÅĤprac": 5996,
      "ĠChrystu": 5997,
      "Ġbru": 5998,
      "dych": 5999,
      "Ġzamku": 6000,
      "ĠPoznaÅĦ": 6001,
      "tnej": 6002,
      "Ġsierpniu": 6003,
      "ĠPia": 6004,
      "Ġsied": 6005,
      "Ġfirmy": 6006,
      "(N": 6007,
      "Ġust": 6008,
      "Ġtj": 6009,
      "ĠrÃ³wnowa": 6010,
      "ĠOpen": 6011,
      "ĠwojnÄĻ": 6012,
      "ĠczÄĻÅĽciowo": 6013,
      "Ġpodwod": 6014,
      "Ġbiegu": 6015,
      "Ġkultural": 6016,
      "Ġbrygady": 6017,
      "vin": 6018,
      "ĠJagiello": 6019,
      "ero": 6020,
      "Ġochrony": 6021,
      "Ġfunkcje": 6022,
      "Ġrynku": 6023,
      "ĠpowrÃ³ciÅĤ": 6024,
      "pel": 6025,
      "nieniu": 6026,
      "ĠkrÃ³le": 6027,
      "ĠElÅ¼bie": 6028,
      "ĠmiesiÄĻcy": 6029,
      "ĠrzÄħdÃ³w": 6030,
      "ĠLan": 6031,
      "Ġskom": 6032,
      "ĠRzym": 6033,
      "Ġspis": 6034,
      "Ġtrafi": 6035,
      "Ġopan": 6036,
      "wanej": 6037,
      "Ġsen": 6038,
      "Ġstolicy": 6039,
      "ĠobrÄĻ": 6040,
      "ĠÅºrÃ³deÅĤ": 6041,
      "Ġmito": 6042,
      "opat": 6043,
      "Ġuczestnik": 6044,
      "Char": 6045,
      "zuÅĤ": 6046,
      "Ġgrafik": 6047,
      "Pra": 6048,
      "ĠkanaÅĤ": 6049,
      "pieÅ¼": 6050,
      "ĠodrÃ³Å¼": 6051,
      "Ġsposob": 6052,
      "dÅĤo": 6053,
      "czonego": 6054,
      "ĠKana": 6055,
      "aksymal": 6056,
      "Ġzabu": 6057,
      "dio": 6058,
      "125": 6059,
      "ĠTat": 6060,
      "ĠÅļwi": 6061,
      "Ġkonstytu": 6062,
      "ĠWojciech": 6063,
      "ĠKanady": 6064,
      "Przed": 6065,
      "piej": 6066,
      "ac": 6067,
      "fikacja": 6068,
      "ĠprÃ³by": 6069,
      "ĠFilm": 6070,
      "Ġorygina": 6071,
      "zanty": 6072,
      "ĠJorku": 6073,
      "ĠkoÅĽci": 6074,
      "ĠWorld": 6075,
      "ĠpuÅĤkownik": 6076,
      "rzony": 6077,
      "Ġfal": 6078,
      "ĠCharles": 6079,
      "ĠBogu": 6080,
      "ĠStowarzy": 6081,
      "Ġzwyczaj": 6082,
      "Ġdolar": 6083,
      "ĠON": 6084,
      "Ġhrabia": 6085,
      "ĠutworÃ³w": 6086,
      "skÃ³w": 6087,
      "zar": 6088,
      "wek": 6089,
      "Ġmacie": 6090,
      "Ġbiskupa": 6091,
      "Ġwydanie": 6092,
      "ĠUniversi": 6093,
      "ĠTro": 6094,
      "Ġregular": 6095,
      "lacje": 6096,
      "obÃ³j": 6097,
      "ĠDar": 6098,
      "Ã¸": 6099,
      "woÅĽci": 6100,
      "ĠuÅ¼ywany": 6101,
      "ĠliÅĽcie": 6102,
      "angaÅ¼": 6103,
      "ino": 6104,
      "Ġprzekro": 6105,
      "niony": 6106,
      "kur": 6107,
      "ĠGer": 6108,
      "Ġtom": 6109,
      "miny": 6110,
      "ĠzasiÄĻ": 6111,
      "(U": 6112,
      "ath": 6113,
      "ĠchiÅĦski": 6114,
      "bru": 6115,
      "zjum": 6116,
      "El": 6117,
      "ĠPodob": 6118,
      "ĠPoÅĤudniowej": 6119,
      "Ġseksu": 6120,
      "Ġdyrektor": 6121,
      "Ġkosz": 6122,
      "Paul": 6123,
      "Ġlistopadzie": 6124,
      "Ġwyje": 6125,
      "ĠzÅĤ": 6126,
      "tuje": 6127,
      "Ġkontr": 6128,
      "Ġliteracki": 6129,
      "Th": 6130,
      "ĠÄ": 6131,
      "ralna": 6132,
      "polita": 6133,
      "dano": 6134,
      "ĠSÅĤowa": 6135,
      "ĠnajwiÄĻkszych": 6136,
      "ĠTom": 6137,
      "ĠKomisji": 6138,
      "146": 6139,
      "kazaÅĤa": 6140,
      "ĠDow": 6141,
      "Ġalpej": 6142,
      "berta": 6143,
      "ire": 6144,
      "atych": 6145,
      "Ġwil": 6146,
      "ĠBre": 6147,
      "ĠWindows": 6148,
      "Ġdywizji": 6149,
      "Ġwybory": 6150,
      "Ġlipcu": 6151,
      "OS": 6152,
      "Ġzabud": 6153,
      "Ġklubu": 6154,
      "ĠMin": 6155,
      "Ġas": 6156,
      "ĠNorwe": 6157,
      "ĠwystÄħpi": 6158,
      "Ġfakt": 6159,
      "Ġkwietniu": 6160,
      "ĠzachÃ³d": 6161,
      "ĠStrze": 6162,
      "Ġprzewi": 6163,
      "(obecnie": 6164,
      "(re": 6165,
      "Medal": 6166,
      "Ġdzielnicy": 6167,
      "ĠCu": 6168,
      "ĠJezusa": 6169,
      "Ġrzymskokatoli": 6170,
      "Ġobywatel": 6171,
      "zdu": 6172,
      "68": 6173,
      "Ġpokona": 6174,
      "logiczne": 6175,
      "Ġblisko": 6176,
      "Ġsprzy": 6177,
      "Ġcharakterysty": 6178,
      "Ġprzypo": 6179,
      "bara": 6180,
      "owem": 6181,
      "ĠAmeryki": 6182,
      "ĠJerozoli": 6183,
      "niesienia": 6184,
      "cm": 6185,
      "ĠRuch": 6186,
      "ĠCesar": 6187,
      "niaÅĤ": 6188,
      "Ġkolek": 6189,
      "ĠKoÅĽci": 6190,
      "Ġnieco": 6191,
      "Ġzgroma": 6192,
      "burgu": 6193,
      "ĠrumuÅĦski": 6194,
      "zujÄħ": 6195,
      "ĠpiÄħ": 6196,
      "Ġkapli": 6197,
      "tÄħd": 6198,
      "dnika": 6199,
      "ĠporzÄħd": 6200,
      "mieniem": 6201,
      "ĠLitera": 6202,
      "czÄħcego": 6203,
      "Ġprzeci": 6204,
      "ĠLip": 6205,
      "ĠdÅĤugoÅĽÄĩ": 6206,
      "ĠAustrii": 6207,
      "Ġelektroni": 6208,
      "ĠAra": 6209,
      "Ġodbi": 6210,
      "zajem": 6211,
      "Ġmur": 6212,
      "rzaÅĤ": 6213,
      "Ġcharak": 6214,
      "ĠGrecji": 6215,
      "ciÄĩ": 6216,
      "Ġprzebud": 6217,
      "ĠnowÄħ": 6218,
      "Ġdalej": 6219,
      "Ġira": 6220,
      "ĠuÅ¼ywa": 6221,
      "atyczne": 6222,
      "Ġspi": 6223,
      "cjoni": 6224,
      "rowi": 6225,
      "ĠDro": 6226,
      "ĠodrÄĻb": 6227,
      "Ġhom": 6228,
      "ĠczÄħste": 6229,
      "jÄħÄĩ": 6230,
      "stego": 6231,
      "atak": 6232,
      "Ġpolityczny": 6233,
      "Ġoficjalnie": 6234,
      "Ġinstytu": 6235,
      "ĠSar": 6236,
      "Ġzob": 6237,
      "ĠSka": 6238,
      "Ġzajmuje": 6239,
      "ĠduÅ¼ych": 6240,
      "Ġmagazy": 6241,
      "ĠsamolotÃ³w": 6242,
      "uth": 6243,
      "ĠÅ¼u": 6244,
      "skimi": 6245,
      "Janusz": 6246,
      "Ġiz": 6247,
      "dziem": 6248,
      "onem": 6249,
      "ĠprzemysÅĤu": 6250,
      "Ġcharakterze": 6251,
      "AT": 6252,
      "Ġmetal": 6253,
      "Ġokazji": 6254,
      "ĠdzieÅĤ": 6255,
      "ĠNad": 6256,
      "ĠPoczÄħtkowo": 6257,
      "Tomasz": 6258,
      "rakt": 6259,
      "-wie": 6260,
      "Ġimieniu": 6261,
      "ĠAugusta": 6262,
      "Ġskon": 6263,
      "Å¼one": 6264,
      "âĢŀO": 6265,
      "stawa": 6266,
      "istka": 6267,
      "99": 6268,
      "Ġeksplo": 6269,
      "ĠprowadziÅĤ": 6270,
      "czeni": 6271,
      "osob": 6272,
      "Ġsrebr": 6273,
      "ux": 6274,
      "Ġniewy": 6275,
      "Ġrepubli": 6276,
      "owicach": 6277,
      "ĠokrÄĻt": 6278,
      "ĠPau": 6279,
      "ĠmilionÃ³w": 6280,
      "ĠZwiÄħzek": 6281,
      "ĠoblÄĻ": 6282,
      "omiast": 6283,
      "tyku": 6284,
      "ĠprzeÅĤomie": 6285,
      "ĠPlan": 6286,
      "Ġzamiast": 6287,
      "bier": 6288,
      "mator": 6289,
      "Ġbe": 6290,
      "ĠwewnÄħtrz": 6291,
      "anymi": 6292,
      "ĠMag": 6293,
      "148": 6294,
      "Odzna": 6295,
      "giej": 6296,
      "ĠwÄĻgla": 6297,
      "Ġewolu": 6298,
      "pular": 6299,
      "Ġautorstwa": 6300,
      "mami": 6301,
      "(u": 6302,
      "Ġjednostka": 6303,
      "ĠpÅĤci": 6304,
      "dt": 6305,
      "Ġgatunek": 6306,
      "Ġdziennikarka": 6307,
      "ĠEuropejskiej": 6308,
      "Ġkryzy": 6309,
      "Ġwyj": 6310,
      "ston": 6311,
      "ĠWspÃ³ÅĤ": 6312,
      "ralnym": 6313,
      "ĠJames": 6314,
      "ĠÅļlÄħska": 6315,
      "Ġpok": 6316,
      "Ġpropa": 6317,
      "Ġolimpijczyk": 6318,
      "ĠnarzÄĻ": 6319,
      "don": 6320,
      "att": 6321,
      "nard": 6322,
      "piec": 6323,
      "Å¼o": 6324,
      "ĠwolnoÅĽci": 6325,
      "polu": 6326,
      "PS": 6327,
      "Ġkierun": 6328,
      "ĠBolesÅĤaw": 6329,
      "Ġorgan": 6330,
      "Ġzato": 6331,
      "inga": 6332,
      "ciaÅĤ": 6333,
      "Ġbieg": 6334,
      "Ġterro": 6335,
      "Ġgaz": 6336,
      "Ġoczy": 6337,
      "Ġdrugiego": 6338,
      "ensy": 6339,
      "ras": 6340,
      "loka": 6341,
      "ograf": 6342,
      "Ġbudynku": 6343,
      "burga": 6344,
      "sor": 6345,
      "ĠdÅĤugi": 6346,
      "Ġpracu": 6347,
      "kien": 6348,
      "ime": 6349,
      "terna": 6350,
      "tyczna": 6351,
      "Ġprzebiega": 6352,
      "ĠIz": 6353,
      "Ġnazwie": 6354,
      "ĠkrÃ³lowa": 6355,
      "ls": 6356,
      "ville": 6357,
      "ĠTele": 6358,
      "David": 6359,
      "mas": 6360,
      "skutek": 6361,
      "ĠÅºrÃ³dÅĤa": 6362,
      "ĠKro": 6363,
      "chÄĻ": 6364,
      "jew": 6365,
      "Ġistnienia": 6366,
      "Ġkorzysta": 6367,
      "ĠLuk": 6368,
      "Ġodbud": 6369,
      "Ġjudo": 6370,
      "ĠÅĽwiatÅĤa": 6371,
      "Ġkandydat": 6372,
      "ĠcaÅĤoÅĽci": 6373,
      "Ġjezu": 6374,
      "Ġuwagi": 6375,
      "Ġteatralny": 6376,
      "dowy": 6377,
      "ĠSport": 6378,
      "ĠSob": 6379,
      "Ġprotestan": 6380,
      "Ġwpis": 6381,
      "torem": 6382,
      "zygn": 6383,
      "Ġstacji": 6384,
      "ĠstopieÅĦ": 6385,
      "anik": 6386,
      "Ter": 6387,
      "nowi": 6388,
      "jÄĻt": 6389,
      "ĠPhi": 6390,
      "Ġasy": 6391,
      "czÄħc": 6392,
      "ĠPiechoty": 6393,
      "Ġemigra": 6394,
      "ĠÅĽwiÄĻta": 6395,
      "Ġgeografi": 6396,
      "Ġrun": 6397,
      "ury": 6398,
      "Ġtow": 6399,
      "Ġpali": 6400,
      "ĠSena": 6401,
      "jnych": 6402,
      "mimo": 6403,
      "ĠChrystusa": 6404,
      "Ġzagranicznych": 6405,
      "ĠrzÄĻdu": 6406,
      "ĠPiÅĤsud": 6407,
      "Ġpoto": 6408,
      "Ġlutym": 6409,
      "ĠprÄħ": 6410,
      "nt": 6411,
      "ques": 6412,
      "Ġjazz": 6413,
      "ĠzakoÅĦczyÅĤ": 6414,
      "lok": 6415,
      "ĠdolarÃ³w": 6416,
      "Ġsukce": 6417,
      "Ġwizy": 6418,
      "Ġostatnich": 6419,
      "nastu": 6420,
      "szystkie": 6421,
      "unkowo": 6422,
      "eno": 6423,
      "ug": 6424,
      "cku": 6425,
      "Ġlep": 6426,
      "bry": 6427,
      "Ġswej": 6428,
      "sÅĤugu": 6429,
      "Ġwzrost": 6430,
      "Podczas": 6431,
      "ĠCan": 6432,
      "arÄĻ": 6433,
      "Ġpowoduje": 6434,
      "We": 6435,
      "ĠCzy": 6436,
      "Ġsami": 6437,
      "szono": 6438,
      "dyk": 6439,
      "ciÄħÅ¼": 6440,
      "ĠpuÅĤku": 6441,
      "Ġhyd": 6442,
      "bow": 6443,
      "04": 6444,
      "Ã³rek": 6445,
      "Ġdoj": 6446,
      "ĠGol": 6447,
      "ĠLudowej": 6448,
      "ĠMur": 6449,
      "ĠobrÄĻbie": 6450,
      "ByÅĤ": 6451,
      "ĠgeneraÅĤa": 6452,
      "ĠCzer": 6453,
      "Ġfotograf": 6454,
      "ĠTrybu": 6455,
      "minik": 6456,
      "ĠksiÄĻÅ¼ni": 6457,
      "ficer": 6458,
      "(je": 6459,
      "Ġwalk": 6460,
      "Gu": 6461,
      "ĠÅĤadu": 6462,
      "(ÅĤac": 6463,
      "niejszym": 6464,
      "Ġaktu": 6465,
      "lla": 6466,
      "ĠdotyczÄħce": 6467,
      "ĠpeÅĤniÅĤ": 6468,
      "Ġponadto": 6469,
      "Ġwarunkach": 6470,
      "ema": 6471,
      "ĠmiejscowoÅĽÄĩ": 6472,
      "Ġteor": 6473,
      "MichaÅĤ": 6474,
      "ker": 6475,
      "ppe": 6476,
      "-Z": 6477,
      "âĢŀA": 6478,
      "SS": 6479,
      "Ġreakcji": 6480,
      "ĠpozostaÅĤych": 6481,
      "ĠFried": 6482,
      "ĠspÄĻ": 6483,
      "ĠAnge": 6484,
      "Ġobozu": 6485,
      "chowy": 6486,
      "ĠAir": 6487,
      "niami": 6488,
      "Ġswobo": 6489,
      "wyciÄĻ": 6490,
      "eks": 6491,
      "ĠbuÅĤgarski": 6492,
      "owcy": 6493,
      "Ġciep": 6494,
      "Ġscen": 6495,
      "ĠAf": 6496,
      "ĠDemokraty": 6497,
      "Ġkano": 6498,
      "Ġstrukt": 6499,
      "Ġopowie": 6500,
      "Ġwypowie": 6501,
      "Ð»": 6502,
      "ĠÅ¼eglarz": 6503,
      "Ġfunkcjona": 6504,
      "Ġorbi": 6505,
      "ĠZgroma": 6506,
      "zdo": 6507,
      "bÃ³r": 6508,
      "Ġkobiety": 6509,
      "Ġdzieli": 6510,
      "Ġdrob": 6511,
      "Ġpozwoli": 6512,
      "ĠdÅĤuÅ¼": 6513,
      "ĠszczegÃ³lnoÅĽci": 6514,
      "Ġzostaje": 6515,
      "Ġutrzymy": 6516,
      "dna": 6517,
      "141": 6518,
      "ĠToru": 6519,
      "Ġreligii": 6520,
      "Ġguberna": 6521,
      "ĠLudwika": 6522,
      "Ġdanego": 6523,
      "ĠpowstaÅĤo": 6524,
      "risto": 6525,
      "ĠPartia": 6526,
      "ĠÅ¼yciu": 6527,
      "ĠzwiÄħzanych": 6528,
      "king": 6529,
      "Ġzamieszki": 6530,
      "ĠTre": 6531,
      "ĠPortuga": 6532,
      "Ġunie": 6533,
      ".]]Ċ": 6534,
      "ĠcaÅĤÄħ": 6535,
      "Ġgranicach": 6536,
      "-R": 6537,
      "Ġgodzin": 6538,
      "Edward": 6539,
      "ĠukoÅĦczyÅĤ": 6540,
      "ĠpodjÄħÅĤ": 6541,
      "ĠwioÅĽ": 6542,
      "ctwem": 6543,
      "szechni": 6544,
      "ĠCas": 6545,
      "Ġochro": 6546,
      "hard": 6547,
      "ĠKrakowa": 6548,
      "stron": 6549,
      "ĠKatarzy": 6550,
      "bas": 6551,
      "42": 6552,
      "ĠUniwersytet": 6553,
      "Ġserbski": 6554,
      "ĠznalazÅĤ": 6555,
      "Ġterenach": 6556,
      "Ġprzyrody": 6557,
      "kcja": 6558,
      "pach": 6559,
      "ĠBan": 6560,
      "tycznie": 6561,
      "kacje": 6562,
      "Ġpoziomie": 6563,
      "Ġpozbawi": 6564,
      "tru": 6565,
      "Ġmaksymal": 6566,
      "ĠRod": 6567,
      "58": 6568,
      "Ã½": 6569,
      "ĠgÃ³ry": 6570,
      "czajÄħc": 6571,
      "ĠobiektÃ³w": 6572,
      "fil": 6573,
      "Ġban": 6574,
      "Ġwyk": 6575,
      "rena": 6576,
      "Ġpoten": 6577,
      "ĠÅģodzi": 6578,
      "Ġministra": 6579,
      "ĠZasÅĤugi": 6580,
      "turÄĻ": 6581,
      "ÅĤowa": 6582,
      "ĠstronÄĻ": 6583,
      "tropo": 6584,
      "Ġkapitan": 6585,
      "ĠzaangaÅ¼": 6586,
      "Ġprzedmio": 6587,
      "rian": 6588,
      "ai": 6589,
      "polskim": 6590,
      "ĠzwiÄħzek": 6591,
      "ĠprzestÄĻp": 6592,
      "koÅĤaj": 6593,
      "nione": 6594,
      "Ġuzu": 6595,
      "Her": 6596,
      "Ġkonserw": 6597,
      "Ġprocesu": 6598,
      "ĠCza": 6599,
      "Ġodbywa": 6600,
      "leniu": 6601,
      "ĠspoÅĤecznych": 6602,
      "ĠHor": 6603,
      "Ġdwor": 6604,
      "lik": 6605,
      "ĠspoÅ¼y": 6606,
      "enz": 6607,
      "dzkie": 6608,
      "ĠchÅĤop": 6609,
      "wca": 6610,
      "ĠHal": 6611,
      "Ġdanej": 6612,
      "Ġkl": 6613,
      "ĠuÅ¼ytku": 6614,
      "ĠPlat": 6615,
      "ĠObro": 6616,
      "Ġoznacz": 6617,
      "Ġcechy": 6618,
      "ĠGos": 6619,
      "liÅĦski": 6620,
      "Ġuj": 6621,
      "ĠBran": 6622,
      "Ġsum": 6623,
      "ĠDel": 6624,
      "Ġpory": 6625,
      "ĠupamiÄĻ": 6626,
      "jo": 6627,
      "set": 6628,
      "kwid": 6629,
      "ĠRada": 6630,
      "Ġinicjaty": 6631,
      "nanie": 6632,
      "Wojciech": 6633,
      "ĠBolesÅĤawa": 6634,
      "ĠleÅ¼y": 6635,
      "ĠspoÅĤeczeÅĦstwa": 6636,
      "nictwie": 6637,
      "Âłcm": 6638,
      "ĠMuzy": 6639,
      "Ġrekord": 6640,
      "ksztaÅĤt": 6641,
      "ĠPaul": 6642,
      "Ġutwory": 6643,
      "ĠFeli": 6644,
      "Ã¶r": 6645,
      "Stefan": 6646,
      "biÃ³r": 6647,
      "Ġpotom": 6648,
      "Ġnur": 6649,
      "Ġwyzn": 6650,
      "ÅĤanie": 6651,
      "ĠNiemcÃ³w": 6652,
      "06": 6653,
      "Ġwynikiem": 6654,
      "Ġustaw": 6655,
      "ĠzakoÅĦczyÅĤa": 6656,
      "ĠWarszawskiego": 6657,
      "puÅĤ": 6658,
      "Ġrock": 6659,
      "ĠposÅĤu": 6660,
      "ĠHen": 6661,
      "ĠurzÄĻdnik": 6662,
      "ĠdowÃ³dcy": 6663,
      "korea": 6664,
      "stanowie": 6665,
      "Å¼yÅĤa": 6666,
      "Ġzaatak": 6667,
      "ÅĤta": 6668,
      "czonym": 6669,
      "PaweÅĤ": 6670,
      "Ġrzu": 6671,
      "narki": 6672,
      "132": 6673,
      "kaÅĦska": 6674,
      "Ġwyspie": 6675,
      "deput": 6676,
      "Ġotwarto": 6677,
      "Ġbro": 6678,
      "cro": 6679,
      "ĠPolskie": 6680,
      "Ġgrecki": 6681,
      "rego": 6682,
      "ĠRam": 6683,
      "Ġzaraz": 6684,
      "ĠzaÅĤoÅ¼yÅĤ": 6685,
      "ĠwrÄĻ": 6686,
      "ĠsiÄĻga": 6687,
      "ĠAli": 6688,
      "czar": 6689,
      "Os": 6690,
      "styk": 6691,
      "ÅĤos": 6692,
      "Ġregionu": 6693,
      "ronÃ³w": 6694,
      "Ġfunda": 6695,
      "Ġoperacji": 6696,
      "dzkim": 6697,
      "Ze": 6698,
      "encie": 6699,
      "czeÅĦstwo": 6700,
      "woje": 6701,
      "Ġrewolucji": 6702,
      "wicy": 6703,
      "wanÄħ": 6704,
      "Ġnieo": 6705,
      "Ġciem": 6706,
      "ĠKru": 6707,
      "ĠsÅĤowacki": 6708,
      "Ġbiegaczka": 6709,
      "Ġsprinterka": 6710,
      "ĠThomas": 6711,
      "cyna": 6712,
      "ĠZygmunt": 6713,
      "Ġgar": 6714,
      "Ġol": 6715,
      "Ġprzypomina": 6716,
      "ES": 6717,
      "ĠBene": 6718,
      "Ġorganizm": 6719,
      "rÃ³g": 6720,
      "cjan": 6721,
      "powszechni": 6722,
      "Ġtemperatury": 6723,
      "padÅĤ": 6724,
      "Ġfrancuskiego": 6725,
      "Ġsing": 6726,
      "Ġodpowiednio": 6727,
      "Zmarli": 6728,
      "Ġnale": 6729,
      "ĠMorza": 6730,
      "jna": 6731,
      "Ġmodelka": 6732,
      "ig": 6733,
      "ĠwkrÃ³tce": 6734,
      "kl": 6735,
      "Ġfilozofi": 6736,
      "Ġsiedziba": 6737,
      "Ġkolor": 6738,
      "Ġokolicach": 6739,
      "Ġeurodeput": 6740,
      "Ġwykonaw": 6741,
      "ĠWielka": 6742,
      "ĠKawa": 6743,
      "Ġwiedzy": 6744,
      "ĠTowarzystwo": 6745,
      "siem": 6746,
      "ĠwiÄĻksze": 6747,
      "told": 6748,
      "134": 6749,
      "prawdopodob": 6750,
      "ĠpoÅĤoÅ¼ona": 6751,
      "Ġnieza": 6752,
      "Nazwa": 6753,
      "ĠBrze": 6754,
      "czÄħtk": 6755,
      "Ġpowietrza": 6756,
      "gdzie": 6757,
      "nim": 6758,
      "128": 6759,
      "mili": 6760,
      "Ġchroni": 6761,
      "124": 6762,
      "Ġstruktury": 6763,
      "rzec": 6764,
      "Ġhipote": 6765,
      "Ġprzywi": 6766,
      "ĠmÃ³z": 6767,
      "polskiego": 6768,
      "ciÄħga": 6769,
      "ĠFlor": 6770,
      "Ġneut": 6771,
      "ĠwysÅĤ": 6772,
      "dzimierz": 6773,
      "ĠokreÅĽlenie": 6774,
      "ĠJakub": 6775,
      "Ġpowszechnie": 6776,
      "ĠBiaÅĤy": 6777,
      "sÄĻ": 6778,
      "cznika": 6779,
      "Ġportugalski": 6780,
      "Ġosoba": 6781,
      "produk": 6782,
      "ÅļwiÄĻ": 6783,
      "trzy": 6784,
      "irgi": 6785,
      "Ġwios": 6786,
      "Ġopozycji": 6787,
      "Ġalko": 6788,
      "ĠKowa": 6789,
      "ye": 6790,
      "Ġtan": 6791,
      "ĠkaÅ¼dej": 6792,
      "aria": 6793,
      "WspÃ³ÅĤ": 6794,
      "Ġkorzyst": 6795,
      "ĠksiÄħÅ¼ki": 6796,
      "ĠdowÃ³dztwem": 6797,
      "gio": 6798,
      "ĠMili": 6799,
      "Ġradio": 6800,
      "Ġpodkre": 6801,
      "Ġsuper": 6802,
      "Ġszer": 6803,
      "07": 6804,
      "ĠurzÄĻd": 6805,
      "ĠMinistrÃ³w": 6806,
      "ĠZaÅĤo": 6807,
      "Ġniedo": 6808,
      "ois": 6809,
      "scypli": 6810,
      "Ġwschodniej": 6811,
      "piÅĤ": 6812,
      "ĠNarodÃ³w": 6813,
      "ĠONZ": 6814,
      "ĠNatomiast": 6815,
      "ĠBad": 6816,
      "szÃ³w": 6817,
      "ĠRumu": 6818,
      "ceum": 6819,
      "56": 6820,
      "ologiczne": 6821,
      "ĠWÅĽrÃ³d": 6822,
      "ĠRud": 6823,
      "Ġobiekt": 6824,
      "Ġzo": 6825,
      "Ġuszko": 6826,
      "ĠJaro": 6827,
      "Ġswych": 6828,
      "ĠrÄĻko": 6829,
      "Ġskali": 6830,
      "ĠpÃ³Åº": 6831,
      "ĠPW": 6832,
      "129": 6833,
      "Pow": 6834,
      "ĠleÅĽ": 6835,
      "ĠSzkoÅĤa": 6836,
      "faÅĤ": 6837,
      "ĠwÄĻz": 6838,
      "Ġzbioru": 6839,
      "mith": 6840,
      "ĠNowo": 6841,
      "czkini": 6842,
      "ĠSim": 6843,
      "ĠVal": 6844,
      "zÄħd": 6845,
      "Ġustawy": 6846,
      "ĠYou": 6847,
      "Ġks": 6848,
      "KW": 6849,
      "edii": 6850,
      "Ġwydarzenia": 6851,
      "ÅĽwiÄĻt": 6852,
      "ĠSÅĤoÅĦca": 6853,
      "Ġgatunku": 6854,
      "ĠkaÅ¼dym": 6855,
      "zje": 6856,
      "Ġkara": 6857,
      "staÅĤa": 6858,
      "ĠszkÃ³ÅĤ": 6859,
      "olidar": 6860,
      "Ġchwili": 6861,
      "ĠwÅĤÃ³": 6862,
      "ĠSil": 6863,
      "ĠAs": 6864,
      "Ã³n": 6865,
      "Ġmianowany": 6866,
      "Ġhandlu": 6867,
      "AN": 6868,
      "Ġchorwacki": 6869,
      "Ġpr": 6870,
      "ĠczÄĻstot": 6871,
      "ĠwspÃ³lnie": 6872,
      "ĠNag": 6873,
      "Ġposzuki": 6874,
      "ciÅĤa": 6875,
      "ĠwziÄħ": 6876,
      "Ġbog": 6877,
      "Ġplat": 6878,
      "bio": 6879,
      "ĠNarodowy": 6880,
      "Ġzost": 6881,
      "ith": 6882,
      "ĠMen": 6883,
      "ĠkrÃ³tko": 6884,
      "ÃŃa": 6885,
      "sista": 6886,
      "Ġdecyzji": 6887,
      "erson": 6888,
      "ĠpiÄĻciu": 6889,
      "ĠznaleÅº": 6890,
      "Ġdoskona": 6891,
      "ĠznaczÄħ": 6892,
      "gÃ³ÅĤ": 6893,
      "110": 6894,
      "Ġstrate": 6895,
      "98": 6896,
      "ĠPÃ³Åºniej": 6897,
      "ĠgÅĤÃ³wne": 6898,
      "ĠVa": 6899,
      "Ġkwan": 6900,
      "ĠdrugÄħ": 6901,
      "spira": 6902,
      "143": 6903,
      "Ġroman": 6904,
      "cher": 6905,
      "ĠoprÃ³cz": 6906,
      "Ġpotra": 6907,
      "138": 6908,
      "Ġros": 6909,
      "Ġbraku": 6910,
      "ĠmogÅĤy": 6911,
      "Ġosi": 6912,
      "ĠChin": 6913,
      "ĠRosy": 6914,
      "142": 6915,
      "ĠAposto": 6916,
      "Ġkonkre": 6917,
      "Ġinteres": 6918,
      "Ġpw": 6919,
      "ĠjÄĻzyko": 6920,
      "ĠAndrzeja": 6921,
      "Ġwzmian": 6922,
      "ĠrozwiniÄĻ": 6923,
      "78": 6924,
      "Ġsztuk": 6925,
      "ĠamerykaÅĦskiego": 6926,
      "dzisÅĤaw": 6927,
      "Ġwystawi": 6928,
      "Ġresz": 6929,
      "Ġpodlega": 6930,
      "kÅĤadem": 6931,
      "lena": 6932,
      "Ġsamolot": 6933,
      "Å¼aÅĤa": 6934,
      "akÃ³w": 6935,
      "ĠGor": 6936,
      "43": 6937,
      "ĠsÄħsie": 6938,
      "Ġdane": 6939,
      "Ġserwi": 6940,
      "ĠDie": 6941,
      "Jest": 6942,
      "PodziaÅĤ": 6943,
      "emat": 6944,
      "wiÄħza": 6945,
      "Ġpoez": 6946,
      "135": 6947,
      "ĠokrÄĻgu": 6948,
      "Ġirlandzki": 6949,
      "ĠFryderyk": 6950,
      "Ġinformacje": 6951,
      "Ġho": 6952,
      "niczej": 6953,
      "Ġbot": 6954,
      "Ġwarunki": 6955,
      "ĠponiÅ¼ej": 6956,
      "Ġpowstaw": 6957,
      "owanymi": 6958,
      "ĠwiÄĻkszÄħ": 6959,
      "Ġfanta": 6960,
      "bytki": 6961,
      "Ġzdrowia": 6962,
      "walu": 6963,
      "ield": 6964,
      "ĠPom": 6965,
      "ĠNapole": 6966,
      "Ġsprowa": 6967,
      "-L": 6968,
      "52": 6969,
      "styki": 6970,
      "ĠDanii": 6971,
      "Ber": 6972,
      "Ġtekst": 6973,
      "jka": 6974,
      "Ana": 6975,
      "ĠIstnie": 6976,
      "ĠpowyÅ¼ej": 6977,
      "ĠHistory": 6978,
      "foni": 6979,
      "peÅĤnia": 6980,
      "Ġwszech": 6981,
      "Ġzaczyna": 6982,
      "ĠmuzuÅĤ": 6983,
      "Ġkampanii": 6984,
      "ÅĽmie": 6985,
      "ĠAustralii": 6986,
      "41": 6987,
      "ĠDod": 6988,
      "ĠurzÄħdzenia": 6989,
      "anin": 6990,
      "Å¼ne": 6991,
      "Ġporucznik": 6992,
      "Ġkwad": 6993,
      "rzÄħdu": 6994,
      "ferencji": 6995,
      "ĠTam": 6996,
      "adwi": 6997,
      "Ġorganizacja": 6998,
      "wiec": 6999,
      "Ġizraelski": 7000,
      "Ġprzeciwie": 7001,
      "Ġzabyt": 7002,
      "144": 7003,
      "ĠFranciszka": 7004,
      "ĠÅ»e": 7005,
      "ziono": 7006,
      "Ġdrzew": 7007,
      "Ġliczeb": 7008,
      "ĠpoczÄħtk": 7009,
      "ĠOlimpi": 7010,
      "ĠpaÅĤa": 7011,
      "Stro": 7012,
      "niosÅĤa": 7013,
      "deusza": 7014,
      "Ġklucz": 7015,
      "ujÄħce": 7016,
      "tari": 7017,
      "ted": 7018,
      "wiaÅĤ": 7019,
      "ĠArchi": 7020,
      "wien": 7021,
      "âĢŀH": 7022,
      "Rom": 7023,
      "Ġosobi": 7024,
      "Ġtematy": 7025,
      "ĠrozpoczÄĻto": 7026,
      "niemie": 7027,
      "Ġy": 7028,
      "ĠPierwszy": 7029,
      "Ġmody": 7030,
      "66": 7031,
      "Ġbazie": 7032,
      "ĠpowiÄħz": 7033,
      "ĠspoÅĤeczna": 7034,
      "Ġznaczeniu": 7035,
      "Ġpisma": 7036,
      "ridge": 7037,
      "kano": 7038,
      "Ġmone": 7039,
      "Ġszkocki": 7040,
      "ĠzwiÄħzany": 7041,
      "ĠAdama": 7042,
      "Ġdocho": 7043,
      "ĠbÃ³": 7044,
      "ĠDra": 7045,
      "likwid": 7046,
      "imi": 7047,
      "ristian": 7048,
      "131": 7049,
      "ĠpozycjÄĻ": 7050,
      "ĠMel": 7051,
      "dzien": 7052,
      "Ġzwany": 7053,
      "rzono": 7054,
      "Ġgran": 7055,
      "ĠRozpo": 7056,
      "Ġmalar": 7057,
      "Ġgrupie": 7058,
      "ĠÅĽla": 7059,
      "ĠJac": 7060,
      "Ġfol": 7061,
      "Ġgospodarki": 7062,
      "Ġkopal": 7063,
      "Ġmeda": 7064,
      "ĠjapoÅĦska": 7065,
      "szone": 7066,
      "Se": 7067,
      "Sta": 7068,
      "prezent": 7069,
      "Ġsojusz": 7070,
      "ĠzaÅĤoÅ¼yciel": 7071,
      "Ġczasopis": 7072,
      "ish": 7073,
      "ĠskÅĤadzie": 7074,
      "lonego": 7075,
      "Ġznaczenia": 7076,
      "Å«": 7077,
      "Ġrozkaz": 7078,
      "sona": 7079,
      "mino": 7080,
      "ĠMac": 7081,
      "ĠporaÅ¼": 7082,
      "Ġstart": 7083,
      "Michael": 7084,
      "133": 7085,
      "Ġodgry": 7086,
      "iÄĩ": 7087,
      "ĠpowieÅĽÄĩ": 7088,
      "Ġinnym": 7089,
      "ĠwÅĤasnoÅĽci": 7090,
      "Ġzag": 7091,
      "(Z": 7092,
      "Aleksander": 7093,
      "ĠOgÃ³lno": 7094,
      "ĠPoto": 7095,
      "opol": 7096,
      "dajÄħ": 7097,
      "ĠsystemÃ³w": 7098,
      "ĠistniejÄħ": 7099,
      "obra": 7100,
      "Ġzatwier": 7101,
      "nowie": 7102,
      "Ġgeomet": 7103,
      "Er": 7104,
      "ĠNowego": 7105,
      "ĠParla": 7106,
      "ciÃ³ÅĤ": 7107,
      "Ġpia": 7108,
      "Ġobiekty": 7109,
      "rans": 7110,
      "Ġstrzel": 7111,
      "ple": 7112,
      "muÅĤ": 7113,
      "ĠszeÅĽÄĩ": 7114,
      "MS": 7115,
      "kolog": 7116,
      "fizy": 7117,
      "ĠChina": 7118,
      "Si": 7119,
      "Ġekspery": 7120,
      "Ġadministracji": 7121,
      "ĠWiktor": 7122,
      "stal": 7123,
      "Oficjal": 7124,
      "ĠzwiÄħzkÃ³w": 7125,
      "Peter": 7126,
      "Ġmaz": 7127,
      "tomaty": 7128,
      "ĠwÅĤasne": 7129,
      "Ġmoty": 7130,
      "ĠmusiaÅĤ": 7131,
      "ĠSpraw": 7132,
      "139": 7133,
      "Ã¼r": 7134,
      "Ġpokoju": 7135,
      "dium": 7136,
      "ĠKla": 7137,
      "ÅĤowi": 7138,
      "ĠMikoÅĤaja": 7139,
      "ĠByÅĤa": 7140,
      "ĠImperium": 7141,
      "Ġziemia": 7142,
      "XV": 7143,
      "Ġwiary": 7144,
      "ĠUniversity": 7145,
      "ĠgrupÄĻ": 7146,
      "ĠWiÄĻkszoÅĽÄĩ": 7147,
      "Ġznanych": 7148,
      "Äģ": 7149,
      "ĠNacze": 7150,
      "Marian": 7151,
      "ĠWrocÅĤawiu": 7152,
      "127": 7153,
      "uropej": 7154,
      "ĠInstytut": 7155,
      "ÅĤod": 7156,
      "(The": 7157,
      "dzajÄħc": 7158,
      "Ġodpowiedzi": 7159,
      "Ġzalicz": 7160,
      "Ġnormal": 7161,
      "ĠWojen": 7162,
      "Ġpolityczne": 7163,
      "sco": 7164,
      "mund": 7165,
      "ĠzbliÅ¼": 7166,
      "ori": 7167,
      "Ġlicznych": 7168,
      "Ġpolu": 7169,
      "ĠÅĽrodkÃ³w": 7170,
      "Ġspotkania": 7171,
      "rzeniem": 7172,
      "ĠOdrodzenia": 7173,
      "Ã±": 7174,
      "Ġegzem": 7175,
      "OP": 7176,
      "Ġzniszcz": 7177,
      "ĠkomÃ³rki": 7178,
      "Ġchoroby": 7179,
      "tnÄħ": 7180,
      "Ġbizanty": 7181,
      "kadem": 7182,
      "Ġkomunistyczny": 7183,
      "ĠSystem": 7184,
      "tkÃ³w": 7185,
      "Ġwicepre": 7186,
      "Ġkamien": 7187,
      "Ġopiera": 7188,
      "lota": 7189,
      "Ġobja": 7190,
      "seud": 7191,
      "ĠksiÄħÅ¼ek": 7192,
      "ĠSaint": 7193,
      "Ġnaci": 7194,
      "ĠKam": 7195,
      "Ġparafia": 7196,
      "niak": 7197,
      "erii": 7198,
      "kana": 7199,
      "caÅĤ": 7200,
      "col": 7201,
      "ĠFron": 7202,
      "ĠKlub": 7203,
      "Ġodnosi": 7204,
      "Ġzapropon": 7205,
      "Ġtyle": 7206,
      "ÅĽwiet": 7207,
      "Ġzatem": 7208,
      "ĠsamobÃ³j": 7209,
      "Ġele": 7210,
      "ĠwÅĤadcy": 7211,
      "Ġprzetr": 7212,
      "rio": 7213,
      "ĠludnoÅĽÄĩ": 7214,
      "Ġwarst": 7215,
      "ĠKlu": 7216,
      "ĠamerykaÅĦskich": 7217,
      "Ġprzemian": 7218,
      "unku": 7219,
      "Ġkatastrofie": 7220,
      "kanin": 7221,
      "Ġwydania": 7222,
      "Å¾": 7223,
      "rady": 7224,
      "Ġpotrzeby": 7225,
      "Ġodzysk": 7226,
      "Ġdochodzi": 7227,
      "Ġupadku": 7228,
      "Ġparamet": 7229,
      "kanie": 7230,
      "ĠotrzymaÅĤa": 7231,
      "lomet": 7232,
      "dajÄħc": 7233,
      "ĠpierÅĽcie": 7234,
      "ĠzajmowaÅĤ": 7235,
      "ÅĤego": 7236,
      "Ġ,Ċ": 7237,
      "Ġrozpoczyna": 7238,
      "og": 7239,
      "ĠodsÅĤo": 7240,
      "Ġinnego": 7241,
      "ĠDoli": 7242,
      "woda": 7243,
      "Ġtronu": 7244,
      "lini": 7245,
      "Ġfun": 7246,
      "Ġbudynek": 7247,
      "Ġzawodni": 7248,
      "Ġprzer": 7249,
      "ÅĦscy": 7250,
      "-T": 7251,
      "janie": 7252,
      "czanie": 7253,
      "Ġbran": 7254,
      "Ġnoc": 7255,
      "ĠmieÅĽci": 7256,
      "ĠWyso": 7257,
      "ĠPers": 7258,
      "ĠCzerwonej": 7259,
      "ĠStefana": 7260,
      "Å¼sam": 7261,
      "Ġuzbroje": 7262,
      "pusu": 7263,
      "ĠsÅĤowia": 7264,
      "Ġczu": 7265,
      "iovan": 7266,
      "Pat": 7267,
      "ĠspeÅĤnia": 7268,
      "ĠgÅĤÃ³wny": 7269,
      "anem": 7270,
      "esÅĤaw": 7271,
      "Ġcyklu": 7272,
      "Ġprywatne": 7273,
      "cs": 7274,
      "ryk": 7275,
      "Ġszczyt": 7276,
      "Ġkapitu": 7277,
      "ĠPowie": 7278,
      "Ġzrezygn": 7279,
      "iana": 7280,
      "Ġpopraw": 7281,
      "Ġsocjalisty": 7282,
      "ĠterenÃ³w": 7283,
      "Ġwprowadzono": 7284,
      "ĠudziaÅĤu": 7285,
      "Ġwielkiego": 7286,
      "tnym": 7287,
      "Ġczer": 7288,
      "ĠniepodlegÅĤoÅĽÄĩ": 7289,
      "zjÄħ": 7290,
      "ĠtytuÅĤu": 7291,
      "Ġprzedstawicieli": 7292,
      "Ġnajpierw": 7293,
      "ake": 7294,
      "warza": 7295,
      "lakty": 7296,
      "ĠEgiptu": 7297,
      "William": 7298,
      "ĠpodziaÅĤu": 7299,
      "ĠOby": 7300,
      "ĠurzÄĻdu": 7301,
      "rick": 7302,
      "Ġreprezentacji": 7303,
      "):Ċ": 7304,
      "Ġszpita": 7305,
      "MP": 7306,
      "rÃ³l": 7307,
      "wskie": 7308,
      "pienia": 7309,
      "lary": 7310,
      "ĠtworzÄħc": 7311,
      "rzyli": 7312,
      "afry": 7313,
      "ĠBiaÅĤoru": 7314,
      "enne": 7315,
      "Ġkanadyjska": 7316,
      "Ġtraktat": 7317,
      "dnienia": 7318,
      "James": 7319,
      "ĠZach": 7320,
      "Ġbase": 7321,
      "Ġwierz": 7322,
      "Ġadwo": 7323,
      "Ġsezonu": 7324,
      "Ġlos": 7325,
      "Ġpatriar": 7326,
      "rd": 7327,
      "Ġburmistrz": 7328,
      "nati": 7329,
      "ktry": 7330,
      "ĠkoÅĽciele": 7331,
      "kracza": 7332,
      "51": 7333,
      "ĠutwÃ³r": 7334,
      "Ġdruga": 7335,
      "ĠLegi": 7336,
      "ĠÅĤyÅ¼wi": 7337,
      "Ġalbu": 7338,
      "Ġulega": 7339,
      "ĠobsÅĤugi": 7340,
      "57": 7341,
      "âĢŀR": 7342,
      "Ġwzmoc": 7343,
      "ĠjÄĻzykiem": 7344,
      "(V": 7345,
      "ĠKrzysztof": 7346,
      "ĠMatki": 7347,
      "Ġwojennych": 7348,
      "ĠsÄĻdzia": 7349,
      "ĠWz": 7350,
      "Ġobcho": 7351,
      "nieÅĦ": 7352,
      "Ġgnia": 7353,
      "Ġtakiej": 7354,
      "Ġsat": 7355,
      "ĠObo": 7356,
      "ĠÅĤaÅĦcu": 7357,
      "ĠPy": 7358,
      "Ġidenty": 7359,
      "nien": 7360,
      "126": 7361,
      "Ġautobus": 7362,
      "ĠMarek": 7363,
      "ĠHonor": 7364,
      "ĠbiaÅĤoruski": 7365,
      "ise": 7366,
      "wiajÄħc": 7367,
      "ĠciaÅĤo": 7368,
      "Ġwzajem": 7369,
      "ksy": 7370,
      "Ġzak": 7371,
      "iem": 7372,
      "ĠsÅĤowe": 7373,
      "ĠPuÅĤ": 7374,
      "TP": 7375,
      "Wielki": 7376,
      "Ġzabezpie": 7377,
      "ĠAlex": 7378,
      "Ġwzor": 7379,
      "Ġpolitycznej": 7380,
      "Ġintensyw": 7381,
      "ĠtytuÅĤem": 7382,
      "ĠwyjÄħtkiem": 7383,
      "122": 7384,
      "ĠPort": 7385,
      "Ġzbie": 7386,
      "skop": 7387,
      "Pier": 7388,
      "Ġdwoma": 7389,
      "600": 7390,
      "ĠÅ¼uÅ¼": 7391,
      "Ġpewne": 7392,
      "Ġtransportu": 7393,
      "ĠKost": 7394,
      "ĠBerlinie": 7395,
      "ĠPolo": 7396,
      "ĠdziewiÄĻ": 7397,
      "Ġnowym": 7398,
      "Ġserialu": 7399,
      "jewski": 7400,
      "nikach": 7401,
      "Ġzakonu": 7402,
      "vy": 7403,
      "pek": 7404,
      "ÄĻd": 7405,
      "jnej": 7406,
      "Âłmm": 7407,
      "iny": 7408,
      "uki": 7409,
      "Ryszard": 7410,
      "Ġdale": 7411,
      "Ġtutaj": 7412,
      "ĠwÅĤoskiego": 7413,
      "Ġewangeli": 7414,
      "Ġstosunkowo": 7415,
      "ĠoddziaÅĤÃ³w": 7416,
      "Ġprzerw": 7417,
      "ĠwystÄħpiÅĤ": 7418,
      "Ġkoncert": 7419,
      "Ġniewoli": 7420,
      "ĠÅĤÄħcznie": 7421,
      "dliwoÅĽci": 7422,
      "250": 7423,
      "Ġkod": 7424,
      "ture": 7425,
      "Ġzapewnia": 7426,
      "Ġszac": 7427,
      "ĠoficerÃ³w": 7428,
      "ĠosiÄħga": 7429,
      "ĠWÅĤa": 7430,
      "boli": 7431,
      "ĠMis": 7432,
      "Urodzili": 7433,
      "wiera": 7434,
      "Ġprzypis": 7435,
      "88": 7436,
      "tnia": 7437,
      "Ġwynik": 7438,
      "ĠMax": 7439,
      "Cha": 7440,
      "westy": 7441,
      "sten": 7442,
      "ĠBat": 7443,
      "Ġpers": 7444,
      "Ġwez": 7445,
      "ĠHein": 7446,
      "alnej": 7447,
      "ĠprzepÅĤy": 7448,
      "enu": 7449,
      "ĠOstatecznie": 7450,
      "ĠBiel": 7451,
      "Ġsekretarz": 7452,
      "Ġpokar": 7453,
      "Ġzbo": 7454,
      "Äħg": 7455,
      "ĠFili": 7456,
      "Ġostate": 7457,
      "Ġsiedem": 7458,
      "ĠdziaÅĤanie": 7459,
      "ick": 7460,
      "goryt": 7461,
      "ĠkrÄħÅ¼": 7462,
      "ĠSzkocji": 7463,
      "line": 7464,
      "ĠGdaÅĦsku": 7465,
      "ĠokrÄħ": 7466,
      "Ġdynami": 7467,
      "Ġzasad": 7468,
      "Ġbuddy": 7469,
      "ĠhiszpaÅĦska": 7470,
      "gorzata": 7471,
      "Ġpoety": 7472,
      "ĠVan": 7473,
      "Ġartysta": 7474,
      "unek": 7475,
      "Ġwzniesi": 7476,
      "nicze": 7477,
      "lenda": 7478,
      "ĠRichard": 7479,
      "ĠHum": 7480,
      "ĠksiÄĻÅ¼na": 7481,
      "Ġstyl": 7482,
      "gby": 7483,
      "Ġton": 7484,
      "Ġwin": 7485,
      "Ġsynem": 7486,
      "bis": 7487,
      "Ġrelacji": 7488,
      "strak": 7489,
      "GÅĤÃ³w": 7490,
      "ÅĤowski": 7491,
      "onach": 7492,
      "136": 7493,
      "ĠPalesty": 7494,
      "Ġwyru": 7495,
      "ĠLos": 7496,
      "ĠOce": 7497,
      "ĠwioÅĽlarz": 7498,
      "Kom": 7499,
      "Ġzaku": 7500,
      "Ġkolejny": 7501,
      "ĠstolicÄħ": 7502,
      "odor": 7503,
      "legi": 7504,
      "przestrze": 7505,
      "ĠBrazy": 7506,
      "Ã§ois": 7507,
      "ĠDre": 7508,
      "Ġrodu": 7509,
      "ĠTadeusza": 7510,
      "Par": 7511,
      "cht": 7512,
      "cience": 7513,
      "ĠdokonaÅĤ": 7514,
      "Ġbrat": 7515,
      "Ġprzyzn": 7516,
      "miÅĦski": 7517,
      "(przy": 7518,
      "Ġpomie": 7519,
      "Ġzaga": 7520,
      "dzieÅĦ": 7521,
      "via": 7522,
      "ÅĤom": 7523,
      "ella": 7524,
      "Ġboga": 7525,
      "rzeni": 7526,
      "ĠwzgÃ³": 7527,
      "Miej": 7528,
      "Ġsan": 7529,
      "czeki": 7530,
      "ĠrzekÄħ": 7531,
      "din": 7532,
      "ĠukÅĤadzie": 7533,
      "sion": 7534,
      "Ġwarszawskiego": 7535,
      "ĠLouis": 7536,
      "137": 7537,
      "Ġmomencie": 7538,
      "Ġpiel": 7539,
      "ĠAfryki": 7540,
      "Ġczemu": 7541,
      "Ġprzedstawie": 7542,
      "Ġowo": 7543,
      "Ġwskutek": 7544,
      "ĠDzieÅĦ": 7545,
      "ves": 7546,
      "ĠPucharu": 7547,
      "Strona": 7548,
      "syn": 7549,
      "ĠnajwaÅ¼niejszych": 7550,
      "Ġpomy": 7551,
      "Ġrezerw": 7552,
      "wik": 7553,
      "deo": 7554,
      "ĠCal": 7555,
      "ĠBoh": 7556,
      "Ġpierwia": 7557,
      "gg": 7558,
      "ĠWyÅ¼": 7559,
      "miraÅĤ": 7560,
      "ĠWÅĤoszech": 7561,
      "Äħt": 7562,
      "ĠmateriaÅĤÃ³w": 7563,
      "Ġkonfe": 7564,
      "ĠzaczÄĻÅĤa": 7565,
      "Alf": 7566,
      "stÄĻpuje": 7567,
      "Ġniep": 7568,
      "Ġwkro": 7569,
      "denbur": 7570,
      "ĠzaleÅ¼y": 7571,
      "Ġnumer": 7572,
      "rogram": 7573,
      "szyn": 7574,
      "ĠrozpoczÄĻÅĤy": 7575,
      "Ġobszaru": 7576,
      "Ġmagi": 7577,
      "Ġwystar": 7578,
      "tana": 7579,
      "Ġjesie": 7580,
      "szczÄĻ": 7581,
      "Ġopa": 7582,
      "ĠAngli": 7583,
      "RP": 7584,
      "Ġukaz": 7585,
      "Ġzjedno": 7586,
      "Ð²": 7587,
      "ĠstaÅĤe": 7588,
      "niejszy": 7589,
      "ĠKing": 7590,
      "Ġwalce": 7591,
      "kwida": 7592,
      "Muzeum": 7593,
      "ĠKara": 7594,
      "puszcza": 7595,
      "rÃ³Å¼nic": 7596,
      "Wielka": 7597,
      "ĠskrÃ³": 7598,
      "ĠPracy": 7599,
      "ĠKal": 7600,
      "ĠcÃ³rka": 7601,
      "Ġherb": 7602,
      "stor": 7603,
      "Ġszwedzka": 7604,
      "Ġodczy": 7605,
      "Ġargum": 7606,
      "zydent": 7607,
      "szyÅĤa": 7608,
      "ĠJeÅĽli": 7609,
      "Ġkomuni": 7610,
      "Ġautorka": 7611,
      "ĠGab": 7612,
      "jÄĻzyk": 7613,
      "Ġzanie": 7614,
      "ĠÅĤote": 7615,
      "ĠBezpie": 7616,
      "ĠZygmunta": 7617,
      "ĠOprÃ³cz": 7618,
      "gatyw": 7619,
      "ledwie": 7620,
      "ĠMoskwie": 7621,
      "ĠLuksem": 7622,
      "ĠczÅĤonkowie": 7623,
      "Ġ:ĊĊ": 7624,
      "gencji": 7625,
      "Ġtrzecie": 7626,
      "ĠjÄĻzykach": 7627,
      "Ġzachowania": 7628,
      "lacjÄĻ": 7629,
      "ĠzginÄħÅĤ": 7630,
      "Ġlinia": 7631,
      "Gra": 7632,
      "ĠKsiÄĻÅ¼y": 7633,
      "wiÄĻcej": 7634,
      "Eu": 7635,
      "Ġkamieni": 7636,
      "ĠÅĽcie": 7637,
      "ĠJas": 7638,
      "Ġwul": 7639,
      "Ġcyfr": 7640,
      "szÅĤy": 7641,
      "ĠchociaÅ¼": 7642,
      "Ġznana": 7643,
      "Ġosiem": 7644,
      "Jacek": 7645,
      "krot": 7646,
      "ular": 7647,
      "âĢŀF": 7648,
      "styn": 7649,
      "Ġgmin": 7650,
      "Ġzasadni": 7651,
      "Ha": 7652,
      "ĠmarszaÅĤek": 7653,
      "ĠpÅĤyty": 7654,
      "niesieniu": 7655,
      "ĠSkar": 7656,
      "Ostat": 7657,
      "ĠpojawiÅĤy": 7658,
      "ĠCzÄĻÅĽÄĩ": 7659,
      "ĠspoÅĤecznej": 7660,
      "ĠtwÃ³rca": 7661,
      "ĠwÃ³d": 7662,
      "tnego": 7663,
      "ĠBob": 7664,
      "tycznym": 7665,
      "ĠTor": 7666,
      "ĠYor": 7667,
      "ĠPolona": 7668,
      "Ġgnie": 7669,
      "Ġprzedmiot": 7670,
      "ĠBli": 7671,
      "ÅĦczykÃ³w": 7672,
      "Ġwojskowych": 7673,
      "zelan": 7674,
      "ĠspoÅĤecznoÅĽci": 7675,
      "ĠciaÅĤ": 7676,
      "ĠWer": 7677,
      "rzbie": 7678,
      "dowi": 7679,
      "ĠEdu": 7680,
      "Karol": 7681,
      "towego": 7682,
      "naleÅ¼": 7683,
      "Ġina": 7684,
      "ĠczÅĤowiek": 7685,
      "ĠMikoÅĤaj": 7686,
      "ĠIrlandii": 7687,
      "Ġkrze": 7688,
      "54": 7689,
      "ĠzupeÅĤ": 7690,
      "Ġliteraturze": 7691,
      "ĠmogÅĤa": 7692,
      "Ġbakt": 7693,
      "ĠBir": 7694,
      "Ġpsychi": 7695,
      "Ġdysp": 7696,
      "ĠÅĽwiatowa": 7697,
      "Ġwokali": 7698,
      "bek": 7699,
      "Ġprzekon": 7700,
      "ĠÅģuka": 7701,
      "Ġfali": 7702,
      "Ġsystemie": 7703,
      "Ġstowarzy": 7704,
      "dzÄĻ": 7705,
      "Ġtle": 7706,
      "ĠwÅĤasnych": 7707,
      "bami": 7708,
      "Ġrealiz": 7709,
      "Ġlider": 7710,
      "ĠstÄħd": 7711,
      "ĠMich": 7712,
      "ĠodbyÅĤy": 7713,
      "Ġzakaz": 7714,
      "stycznej": 7715,
      "Ġelimina": 7716,
      "ĠGot": 7717,
      "ĠdecyzjÄĻ": 7718,
      "800": 7719,
      "ĠLau": 7720,
      "ĠpodrÃ³": 7721,
      "ĠpoglÄħ": 7722,
      "Ġwielokrotnie": 7723,
      "Ġfrancuskiej": 7724,
      "Ġniekiedy": 7725,
      "ĠÅ¼ony": 7726,
      "piÄħ": 7727,
      "ZÅĤo": 7728,
      "nel": 7729,
      "ĠpÅĤaszczy": 7730,
      "ÅĽciÄħ": 7731,
      "Ġstudi": 7732,
      "Ġfinale": 7733,
      "grali": 7734,
      "ĠÅ¼uÅ¼l": 7735,
      "67": 7736,
      "ĠpoÅĤudniu": 7737,
      "Ġarmia": 7738,
      "Ġdwukrotnie": 7739,
      "ĠrozwiÄħzania": 7740,
      "wica": 7741,
      "szyscy": 7742,
      "Ġhra": 7743,
      "ĠogÃ³lno": 7744,
      "ĠrÃ³wnoleg": 7745,
      "Ġnazist": 7746,
      "Ġkwar": 7747,
      "Ġepoki": 7748,
      "chemi": 7749,
      "tyn": 7750,
      "Ġbrata": 7751,
      "Ã«": 7752,
      "ĠwytwÃ³r": 7753,
      "ujÄħcy": 7754,
      "Ġmno": 7755,
      "Ġzaprojekt": 7756,
      "ĠAustria": 7757,
      "ĠwÄĻd": 7758,
      "Ġryb": 7759,
      "ĠwspÃ³ÅĤczesnych": 7760,
      "Jego": 7761,
      "Ġuczelni": 7762,
      "ĠpoÅĽlu": 7763,
      "szcie": 7764,
      "unki": 7765,
      "Rich": 7766,
      "ĠuwzglÄĻ": 7767,
      "Ġkaja": 7768,
      "Ġindyjski": 7769,
      "phy": 7770,
      "poru": 7771,
      "hl": 7772,
      "Ġrywali": 7773,
      "Ġalfa": 7774,
      "Ġgwiazdy": 7775,
      "Ġrodzinie": 7776,
      "Ġnazywany": 7777,
      "Ġzani": 7778,
      "onomii": 7779,
      "Franciszek": 7780,
      "Ġwymag": 7781,
      "miesz": 7782,
      "ĠkomÃ³rek": 7783,
      "ÄħÅ¼": 7784,
      "ped": 7785,
      "ĠwiÄĻkszych": 7786,
      "Ġdodatkowo": 7787,
      "logicznych": 7788,
      "ĠBrytania": 7789,
      "Ġjeziora": 7790,
      "ĠszczÄĻ": 7791,
      "Ġsocjolog": 7792,
      "ĠpuÅĤk": 7793,
      "chem": 7794,
      "ĠMedi": 7795,
      "ĠAmeryce": 7796,
      "Wo": 7797,
      "ĠMazowie": 7798,
      "zon": 7799,
      "ĠgÅĤÃ³wnego": 7800,
      "kacja": 7801,
      "Ġwidzenia": 7802,
      "Ġtera": 7803,
      "ĠpociÄħ": 7804,
      "Alex": 7805,
      "ĠmÃ³wiÄħ": 7806,
      "ĠToma": 7807,
      "Transport": 7808,
      "Ġwiadom": 7809,
      "Ġpsychia": 7810,
      "ĠdÅĤugodystans": 7811,
      "chami": 7812,
      "ĠzaczÄĻÅĤy": 7813,
      "najmniej": 7814,
      "He": 7815,
      "Ġostatnie": 7816,
      "Ġhumani": 7817,
      "ĠJoseph": 7818,
      "Ġcza": 7819,
      "Przez": 7820,
      "Ġinformaty": 7821,
      "08": 7822,
      "ĠDia": 7823,
      "Ġraj": 7824,
      "Ġigrzysk": 7825,
      "lement": 7826,
      "Ġpodstawowych": 7827,
      "ĠgÅĤÃ³wnej": 7828,
      "ĠQue": 7829,
      "Ġantropo": 7830,
      "ĠZjednoczone": 7831,
      "Ġkru": 7832,
      "rzona": 7833,
      "ĠwarunkÃ³w": 7834,
      "ĠksiÄĻÅ¼y": 7835,
      "ĠzaÅĤogi": 7836,
      "Ġskoczkini": 7837,
      "ĠodkryÅĤ": 7838,
      "matu": 7839,
      "sis": 7840,
      "Ġwir": 7841,
      "ĠSakso": 7842,
      "Å»ycie": 7843,
      "tania": 7844,
      "rasta": 7845,
      "ĠSol": 7846,
      "Ġfranci": 7847,
      "ĠpolskÄħ": 7848,
      "ĠNajÅĽwiÄĻt": 7849,
      "ĠBol": 7850,
      "ĠLondyn": 7851,
      "ĠnoszÄħ": 7852,
      "ash": 7853,
      "ĠzabytkÃ³w": 7854,
      "spozy": 7855,
      "zdÃ³w": 7856,
      "123": 7857,
      "Ġzare": 7858,
      "elle": 7859,
      "ĠScho": 7860,
      "Ġsynte": 7861,
      "Ġzlikwid": 7862,
      "Ġzastosowanie": 7863,
      "ĠHistoria": 7864,
      "padek": 7865,
      "Ġtworzenia": 7866,
      "jami": 7867,
      "ĠBibli": 7868,
      "skryp": 7869,
      "ĠAfryce": 7870,
      "ĠDÄħbr": 7871,
      "ĠwiÄĻkszej": 7872,
      "ĠrÃ³wna": 7873,
      "ĠOn": 7874,
      "orth": 7875,
      "biny": 7876,
      "Su": 7877,
      "Ġmodu": 7878,
      "Be": 7879,
      "ĠDywizja": 7880,
      "dzieli": 7881,
      "Ġpomnik": 7882,
      "ĠSpi": 7883,
      "Ġzaledwie": 7884,
      "ĠPortugalii": 7885,
      "Ġnowozelan": 7886,
      "Ġpost": 7887,
      "dla": 7888,
      "59": 7889,
      "ĠptakÃ³w": 7890,
      "Ġzmiana": 7891,
      "choÅĤ": 7892,
      "Ġzro": 7893,
      "Ġliczbie": 7894,
      "ĠwyÅ¼ej": 7895,
      "Ġbibli": 7896,
      "ĠYo": 7897,
      "].ĊĊ": 7898,
      "Ġpodejm": 7899,
      "laty": 7900,
      "ĠOj": 7901,
      "ĠKre": 7902,
      "ĠKle": 7903,
      "Ġzdobyli": 7904,
      "Ġterenu": 7905,
      "Ġuruchomi": 7906,
      "ĠMak": 7907,
      "ĠprzeciwieÅĦstwie": 7908,
      "ĠpoÅĤÄħczenie": 7909,
      "Ġmiejskich": 7910,
      "ĠsÅĤÃ³w": 7911,
      "ĠwprowadziÅĤ": 7912,
      "cyc": 7913,
      "tymi": 7914,
      "ĠprzeszedÅĤ": 7915,
      "etro": 7916,
      "ĠÅ¼onÄħ": 7917,
      "ĠpodporzÄħdk": 7918,
      "prost": 7919,
      "niesienie": 7920,
      "Ġdaje": 7921,
      "ĠrÃ³Å¼no": 7922,
      "ast": 7923,
      "nicza": 7924,
      "Ġpoziomu": 7925,
      "mody": 7926,
      "daÅĤa": 7927,
      "ram": 7928,
      "ĠzdobyÅĤa": 7929,
      "ĠpokonaÅĤ": 7930,
      "enek": 7931,
      "ĠBiblioteka": 7932,
      "ĠBezpieczeÅĦstwa": 7933,
      "Ġzez": 7934,
      "ĠGil": 7935,
      "dent": 7936,
      "Tom": 7937,
      "Ġceremo": 7938,
      "Ġporusza": 7939,
      "Ġlist": 7940,
      "ĠCzechosÅĤowa": 7941,
      "Ġhu": 7942,
      "ĠPeters": 7943,
      "owicza": 7944,
      "Ã³dÅº": 7945,
      "Ġetno": 7946,
      "ĠRepublika": 7947,
      "ĠBuÅĤgar": 7948,
      "Ġreform": 7949,
      "mara": 7950,
      "(niem": 7951,
      "Ġhod": 7952,
      "En": 7953,
      "Ġbank": 7954,
      "ĠGwia": 7955,
      "ĠcelÃ³w": 7956,
      "ĠOch": 7957,
      "Ġuczni": 7958,
      "Ġdywizj": 7959,
      "Ġtekstu": 7960,
      "ĠuÅ¼yciu": 7961,
      "ĠwywodzÄħ": 7962,
      "ownie": 7963,
      "pni": 7964,
      "dora": 7965,
      "tech": 7966,
      "Ġukry": 7967,
      "Ġosadni": 7968,
      "âĢŀN": 7969,
      "ĠprÄĻdkoÅĽÄĩ": 7970,
      "dzanie": 7971,
      "ĠFrancja": 7972,
      "kiewicza": 7973,
      "ĠPK": 7974,
      "ariusz": 7975,
      "leje": 7976,
      "Ġludzie": 7977,
      "Ġinicjatywy": 7978,
      "Ġinwa": 7979,
      "dny": 7980,
      "jestr": 7981,
      "ĠduÅ¼ym": 7982,
      "czÄħtki": 7983,
      "Ġcuk": 7984,
      "ĠKsiÄĻstwa": 7985,
      "Ġpotrafi": 7986,
      "chium": 7987,
      "Charles": 7988,
      "Ġrozwij": 7989,
      "ĠTour": 7990,
      "ĠChor": 7991,
      "Ġnacjona": 7992,
      "ĠAte": 7993,
      "ÅĻ": 7994,
      "ĠJord": 7995,
      "miÄħtk": 7996,
      "ĠStre": 7997,
      "Ġlinie": 7998,
      "Ġwytwarz": 7999,
      "ĠpoglÄħd": 8000,
      "ĠLor": 8001,
      "ĠRegi": 8002,
      "ĠTow": 8003,
      "ica": 8004,
      "Ġtakiego": 8005,
      "kanÃ³w": 8006,
      "pas": 8007,
      "stycznego": 8008,
      "Ġzbudowany": 8009,
      "Ġopisy": 8010,
      "Ġsaty": 8011,
      "anina": 8012,
      "nÄĻÅĤy": 8013,
      "ĠBoÅ¼e": 8014,
      "ĠGran": 8015,
      "ĠEm": 8016,
      "Ġcmentarzu": 8017,
      "ĠpoÅĤoÅ¼ony": 8018,
      "Ġperkusista": 8019,
      "Ġpseud": 8020,
      "ĠusuniÄĻ": 8021,
      "ĠTru": 8022,
      "Ġlotniczy": 8023,
      "Ġsowie": 8024,
      "ĠskoÅĦ": 8025,
      "ins": 8026,
      "(i": 8027,
      "ĠRober": 8028,
      "Pu": 8029,
      "ben": 8030,
      "aniÄħ": 8031,
      "IV": 8032,
      "ĠbÄĻdÄħcy": 8033,
      "Ġkreowany": 8034,
      "ĠpÅĤywaczka": 8035,
      "ĠÅģÄħ": 8036,
      "kimi": 8037,
      "raku": 8038,
      "AS": 8039,
      "Ġtymczas": 8040,
      "ĠpÃ³Åºniejszych": 8041,
      "Ġzamieszku": 8042,
      "Ġpropozy": 8043,
      "kor": 8044,
      "ĠpaÅĦstwowy": 8045,
      "Ġsprawy": 8046,
      "Ġnajwy": 8047,
      "ĠFryderyka": 8048,
      "ĠliniÄĻ": 8049,
      "ĠformÄĻ": 8050,
      "Ġsol": 8051,
      "wne": 8052,
      "ĠgwaÅĤ": 8053,
      "Ġdwudzie": 8054,
      "Ġgatunki": 8055,
      "ĠudziaÅĤem": 8056,
      "ÅĦstwem": 8057,
      "naniu": 8058,
      "Ġpogrze": 8059,
      "ÃŁ": 8060,
      "Ġfilmowa": 8061,
      "lonym": 8062,
      "ĠCD": 8063,
      "Ġautora": 8064,
      "Ġrugby": 8065,
      "Ġgwar": 8066,
      "Ġwykorzystu": 8067,
      "Ġkam": 8068,
      "Ġugrup": 8069,
      "onald": 8070,
      "Ġprzyczyni": 8071,
      "Ġmistrzostw": 8072,
      "Ġniezwy": 8073,
      "ĠDywizji": 8074,
      "Ġoprogram": 8075,
      "Ġmorder": 8076,
      "ĠjeÅ¼eli": 8077,
      "podar": 8078,
      "Ġwnio": 8079,
      "Ġlibe": 8080,
      "rucho": 8081,
      "Ġson": 8082,
      "muni": 8083,
      "ĠBrytyjczy": 8084,
      "Pierwsze": 8085,
      "indu": 8086,
      "Miasto": 8087,
      "ĠLwowie": 8088,
      "MiÄĻdzy": 8089,
      "ĠMarian": 8090,
      "landia": 8091,
      "ĠmateriaÅĤu": 8092,
      "Ġniemieckim": 8093,
      "ĠdruÅ¼yny": 8094,
      "ĠpÅĤywak": 8095,
      "Ġtakim": 8096,
      "ĠpojÄĻcia": 8097,
      "tanie": 8098,
      "ĠAla": 8099,
      "skami": 8100,
      "ĠwojewÃ³": 8101,
      "kaÅĦskiego": 8102,
      "ĠLas": 8103,
      "Ġorien": 8104,
      "Gru": 8105,
      "wierÄĩ": 8106,
      "ĠKrajowej": 8107,
      "ĠKaÅ¼": 8108,
      "ĠPolskÄĻ": 8109,
      "ida": 8110,
      "ĠMach": 8111,
      "Nagroda": 8112,
      "pora": 8113,
      "ÅĽciÄĩ": 8114,
      "ĠObywat": 8115,
      "ĠIgrzy": 8116,
      "fin": 8117,
      "czajÄħ": 8118,
      "formacji": 8119,
      "ĠkoÅĦc": 8120,
      "ĠPis": 8121,
      "szczeniu": 8122,
      "101": 8123,
      "tum": 8124,
      "ktura": 8125,
      "Ġwydawca": 8126,
      "Ġmistrza": 8127,
      "ĠjakÄħ": 8128,
      "miary": 8129,
      "tycznÄħ": 8130,
      "pola": 8131,
      "ĠuznaÅĤ": 8132,
      "gieÅĤ": 8133,
      "Bitwa": 8134,
      "Ġzale": 8135,
      "Ġistnienie": 8136,
      "ĠZim": 8137,
      "Ġpochowany": 8138,
      "ĠSzwajcarii": 8139,
      "ĠzaczÄĻto": 8140,
      "ĠPierwsze": 8141,
      "tet": 8142,
      "ĠMit": 8143,
      "basti": 8144,
      "ÅĤuma": 8145,
      "09": 8146,
      "Ġrosyjskiego": 8147,
      "ĠKÄĻ": 8148,
      "George": 8149,
      "Ġzwane": 8150,
      "ownicy": 8151,
      "anki": 8152,
      "ĠJohna": 8153,
      "WÅĤo": 8154,
      "Ġeuropejskich": 8155,
      "ĠWspÃ³l": 8156,
      "ciarz": 8157,
      "ĠFar": 8158,
      "glo": 8159,
      "dÅ¼": 8160,
      "waniem": 8161,
      "ĠzrÃ³Å¼nic": 8162,
      "tnik": 8163,
      "ĠokrÄĻty": 8164,
      "ĠpojÄĻcie": 8165,
      "Ġstraty": 8166,
      "Ġofer": 8167,
      "ĠpiÄĻk": 8168,
      "Ġrysownik": 8169,
      "Ġnieprzy": 8170,
      "lotu": 8171,
      "Ġkombina": 8172,
      "ĠBrow": 8173,
      "ĠwzÃ³r": 8174,
      "czoÅĽÄĩ": 8175,
      "ĠJanusz": 8176,
      "kowane": 8177,
      "âĢŀZa": 8178,
      "Ġzako": 8179,
      "ĠBroni": 8180,
      "Ġoporu": 8181,
      "ĠLigi": 8182,
      "ĠKol": 8183,
      "ĠGÃ³ra": 8184,
      "ĠwyborÃ³w": 8185,
      "wodaw": 8186,
      "Ġodnale": 8187,
      "Ġwym": 8188,
      "Ġpostrze": 8189,
      "pina": 8190,
      "tywne": 8191,
      "ĠwystÄħpie": 8192,
      "rÃ³Å¼nia": 8193,
      "Ġunik": 8194,
      "ĠStary": 8195,
      "dzkich": 8196,
      "Ġkonstruktor": 8197,
      "rym": 8198,
      "Ġnieud": 8199,
      "Ġlistopad": 8200,
      "ress": 8201,
      "wskich": 8202,
      "Ġinny": 8203,
      "zmy": 8204,
      "szeniu": 8205,
      "cili": 8206,
      "ĠMora": 8207,
      "styczna": 8208,
      "Ġobejm": 8209,
      "Ġfesti": 8210,
      "tyfika": 8211,
      "Ġsilnie": 8212,
      "wii": 8213,
      "Ġorze": 8214,
      "bijski": 8215,
      "121": 8216,
      "ĠSzkoÅĤy": 8217,
      "ĠArmia": 8218,
      "hip": 8219,
      "ĠpiÅĤkarka": 8220,
      "mujÄħc": 8221,
      "Ġindo": 8222,
      "Ġskle": 8223,
      "ostaÅĤa": 8224,
      "rik": 8225,
      "ĠzaÅĤoÅ¼enia": 8226,
      "Ġnerw": 8227,
      "Ġtycz": 8228,
      "Ġplu": 8229,
      "ĠwewnÄĻtrznych": 8230,
      "iovanni": 8231,
      "Oficjalna": 8232,
      "(naj": 8233,
      "Ġps": 8234,
      "ĠnastÄĻpuje": 8235,
      "ĠwszedÅĤ": 8236,
      "ÅĦczyk": 8237,
      "gue": 8238,
      "ĠNiektÃ³re": 8239,
      "ÅĽmy": 8240,
      "dzaÅĤ": 8241,
      "72": 8242,
      "Ġzade": 8243,
      "ĠwciÄħÅ¼": 8244,
      "ĠObrony": 8245,
      "ĠZato": 8246,
      "-lecia": 8247,
      "Ġstyczni": 8248,
      "Ġmed": 8249,
      "nowski": 8250,
      "dion": 8251,
      "Ġesto": 8252,
      "stanu": 8253,
      "Ġbibliotece": 8254,
      "Fer": 8255,
      "gr": 8256,
      "piÅĦski": 8257,
      "Ġzaa": 8258,
      "Ġspek": 8259,
      "ib": 8260,
      "chen": 8261,
      "Ġstanowisku": 8262,
      "ĠposiadajÄħ": 8263,
      "wczy": 8264,
      "Ġlotnictwa": 8265,
      "arium": 8266,
      "cker": 8267,
      "Ġzwal": 8268,
      "Ġwysy": 8269,
      "ĠSpoÅĤe": 8270,
      "ĠArab": 8271,
      "ĠpoÅĤudniowokorea": 8272,
      "hn": 8273,
      "Ġjedynym": 8274,
      "nina": 8275,
      "Ġmani": 8276,
      "Ġkal": 8277,
      "Ġnagrody": 8278,
      "ĠMarcin": 8279,
      "Ġnaukowych": 8280,
      "ĠgÅĤowy": 8281,
      "Ġzbro": 8282,
      ".o": 8283,
      "ĠDzi": 8284,
      "Ġpojem": 8285,
      "Ġdeko": 8286,
      "Ġparku": 8287,
      "szyÅĦski": 8288,
      "czba": 8289,
      "ĠSmith": 8290,
      "ue": 8291,
      "ĠMichaÅĤa": 8292,
      "Å¼ny": 8293,
      "heim": 8294,
      "Ġmazowie": 8295,
      "Ġmedycy": 8296,
      "ĠnagrodÄĻ": 8297,
      "Ġodcinek": 8298,
      "Ġsej": 8299,
      "sson": 8300,
      "ÅĦce": 8301,
      "Roman": 8302,
      "ĠGri": 8303,
      "rzyÅĤa": 8304,
      "ĠOpera": 8305,
      "tnikÃ³w": 8306,
      "Ġherbu": 8307,
      "Ġsubstancji": 8308,
      "raktery": 8309,
      "jnego": 8310,
      "warda": 8311,
      "ĠOk": 8312,
      "ĠIzraela": 8313,
      "Ġnaczy": 8314,
      "ĠLam": 8315,
      "ĠMali": 8316,
      "ĠHolandii": 8317,
      "owiÄħ": 8318,
      "Ġstopniowo": 8319,
      "Ġostatnim": 8320,
      "ĠNar": 8321,
      "mur": 8322,
      "maÄĩ": 8323,
      "niejszÄħ": 8324,
      "ĠKomitet": 8325,
      "Ġmodli": 8326,
      "Ġrzymski": 8327,
      "Ġpale": 8328,
      "ĠDan": 8329,
      "ĠnastÄħpiÅĤ": 8330,
      "Ġprzeciwnika": 8331,
      "lesa": 8332,
      "Ġcar": 8333,
      "ĠKatoli": 8334,
      "ĠgÅĤÃ³wnÄħ": 8335,
      "53": 8336,
      "Ġnazywane": 8337,
      "lizacja": 8338,
      "ĠpowierzchniÄĻ": 8339,
      "Ġbrzegu": 8340,
      "ĠgranicÄĻ": 8341,
      "ney": 8342,
      "ĠwziÄħÅĤ": 8343,
      "Ġkulturze": 8344,
      "ĠwysÅĤa": 8345,
      "prawdopodobniej": 8346,
      "biega": 8347,
      "ett": 8348,
      "Ġmisjona": 8349,
      "ĠksiÄĻÅ¼niczka": 8350,
      "polskie": 8351,
      "ĠcaÅĤe": 8352,
      "ĠamerykaÅĦskiej": 8353,
      "ĠMonachium": 8354,
      "wÃ³w": 8355,
      "ĠksztaÅĤcie": 8356,
      "ĠodmÃ³w": 8357,
      "ĠMeksyku": 8358,
      "Ġmatka": 8359,
      "gini": 8360,
      "ĠsÅĤowo": 8361,
      "ĠduÅ¼o": 8362,
      "Kat": 8363,
      "Ġjazzowy": 8364,
      "ĠWyd": 8365,
      "CO": 8366,
      "Ġmetropolita": 8367,
      "ĠPowszech": 8368,
      "mad": 8369,
      "torzy": 8370,
      "ĠCheÅĤ": 8371,
      "ĠGrand": 8372,
      "ĠSko": 8373,
      "Ġdiecezji": 8374,
      "Ġlikwida": 8375,
      "Ġmodelu": 8376,
      "ĠfaÅĤ": 8377,
      "szar": 8378,
      "Ġczarno": 8379,
      "ĠVir": 8380,
      "ĠznakÃ³w": 8381,
      "Ġautorem": 8382,
      "wiÄħzy": 8383,
      "Ġrzadko": 8384,
      "went": 8385,
      "ĠkadÅĤu": 8386,
      "niÄĻto": 8387,
      "Ġraczej": 8388,
      "Ġzysk": 8389,
      "data": 8390,
      "Ġcier": 8391,
      "ĠPrawo": 8392,
      "ĠoÅĤta": 8393,
      "ĠRok": 8394,
      "Ġpierwotnie": 8395,
      "mÄħ": 8396,
      "Ġfloty": 8397,
      "Ġbaro": 8398,
      "SD": 8399,
      "ĠbraÅĤ": 8400,
      "ĠpojawiÅĤ": 8401,
      "Ġpoci": 8402,
      "Ġchir": 8403,
      "iusza": 8404,
      "rÃ³ciÄĩ": 8405,
      "ÅĤugoÅĽÄĩ": 8406,
      "ĠstudiÃ³w": 8407,
      "Ġzazna": 8408,
      "ĠJack": 8409,
      "gy": 8410,
      "Ġpraktyce": 8411,
      "Ġlicen": 8412,
      "Ġzrealiz": 8413,
      "Ġwypadku": 8414,
      "ĠpojÄĻ": 8415,
      "Ġwynalazca": 8416,
      "ini": 8417,
      "ĠzwiÄħzki": 8418,
      "szona": 8419,
      "ĠznajdowaÅĤ": 8420,
      "Ġdoros": 8421,
      "ota": 8422,
      "Ġmedia": 8423,
      "nei": 8424,
      "gera": 8425,
      "ĠswÄħ": 8426,
      "Ġowa": 8427,
      "ĠnajwiÄĻksze": 8428,
      "ĠSco": 8429,
      "Ġobrazu": 8430,
      "ĠdotyczÄħcych": 8431,
      "Ġmalarka": 8432,
      "cyclopedia": 8433,
      "ĠPolskÄħ": 8434,
      "ĠwrocÅĤaw": 8435,
      "Ġautomaty": 8436,
      "ĠwstÄĻp": 8437,
      "bytu": 8438,
      "ĠÅĽlu": 8439,
      "ĠzapoczÄħtk": 8440,
      "ĠArgenty": 8441,
      "ĠGon": 8442,
      "ĠsÅĤuÅ¼y": 8443,
      "Ġprocesie": 8444,
      "nistycznej": 8445,
      "ĠchciaÅĤ": 8446,
      "Ġmilitar": 8447,
      "wka": 8448,
      "uchar": 8449,
      "Ġprzypadkach": 8450,
      "Ġuczestniczy": 8451,
      "Ġwspiera": 8452,
      "115": 8453,
      "ĠprzejÄħÅĤ": 8454,
      "czaÅĤ": 8455,
      "lica": 8456,
      "lez": 8457,
      "Ġilustra": 8458,
      "alna": 8459,
      "dum": 8460,
      "Ġrodzina": 8461,
      "Ġnarodowej": 8462,
      "wiarz": 8463,
      "ĠWest": 8464,
      "%Ċ": 8465,
      "Ġstraj": 8466,
      "MieczysÅĤaw": 8467,
      "ĠspoÅĤeczne": 8468,
      "Ġ;Ċ": 8469,
      "Ġlitur": 8470,
      "Ġpodobne": 8471,
      "Ġratu": 8472,
      "moni": 8473,
      "Ġodbior": 8474,
      "ĠRock": 8475,
      "Fil": 8476,
      "Ġoz": 8477,
      "ĠokreÅĽli": 8478,
      "ĠÅ¼yw": 8479,
      "Ġzaopat": 8480,
      "nictwem": 8481,
      "olszewi": 8482,
      "Hz": 8483,
      "ĠGie": 8484,
      "niaÅĤy": 8485,
      "zyka": 8486,
      "pela": 8487,
      "Ġspecyfi": 8488,
      "ĠDodat": 8489,
      "Ġgle": 8490,
      "ĠKore": 8491,
      "ĠnastÄħpiÅĤo": 8492,
      "legium": 8493,
      "Ġzamek": 8494,
      "francu": 8495,
      "Pom": 8496,
      "Ġpodstawowe": 8497,
      "ÅĤej": 8498,
      "strybu": 8499,
      "ĠKiedy": 8500,
      "Ġtechniki": 8501,
      "ĠFu": 8502,
      "Ġelementem": 8503,
      "rzÄĻd": 8504,
      "ictor": 8505,
      "(ob": 8506,
      "ĠRÃ³wnieÅ¼": 8507,
      "ĠFunda": 8508,
      "Ġujaw": 8509,
      "ĠwynosiÅĤa": 8510,
      "wid": 8511,
      "Ġmomentu": 8512,
      "ĠPoniewaÅ¼": 8513,
      "Ġsyno": 8514,
      "ĠsÅĤone": 8515,
      "Ġart": 8516,
      "ĠwodzÄħ": 8517,
      "pr": 8518,
      "Ġile": 8519,
      "118": 8520,
      "Ġmatki": 8521,
      "ĠbiaÅĤy": 8522,
      "ĠDavid": 8523,
      "Ġparafii": 8524,
      "edy": 8525,
      "Ġbasebal": 8526,
      "kona": 8527,
      "atora": 8528,
      "onÄĻ": 8529,
      "wice": 8530,
      "Ġkariery": 8531,
      "ĠzaÅĤoÅ¼ono": 8532,
      "ĠpÅĤyt": 8533,
      "Daniel": 8534,
      "ĠVe": 8535,
      "77": 8536,
      "siÅĤa": 8537,
      "Ġormia": 8538,
      "AM": 8539,
      "jm": 8540,
      "ksztaÅĤcÄħ": 8541,
      "Ġskupi": 8542,
      "Ġnieli": 8543,
      ".A": 8544,
      "ĠmiÄĻdzywojen": 8545,
      "fera": 8546,
      "ĠplacÃ³w": 8547,
      "JÄĻzy": 8548,
      "Ġszlachci": 8549,
      "Ġwyniki": 8550,
      "ccy": 8551,
      "sycho": 8552,
      "tto": 8553,
      "Ġzbrod": 8554,
      "ĠdrogÄħ": 8555,
      "ĠSier": 8556,
      "ĠEle": 8557,
      "ÅĽciem": 8558,
      "ĠprzebywaÅĤ": 8559,
      "Ġpozostaje": 8560,
      "ĠCer": 8561,
      "ide": 8562,
      "ĠusÅĤug": 8563,
      "Ġrezy": 8564,
      "JosÃ©": 8565,
      "ĠSmo": 8566,
      "Ġnagran": 8567,
      "Ġizo": 8568,
      "Ġimperium": 8569,
      "(ko": 8570,
      "czem": 8571,
      "espon": 8572,
      "thur": 8573,
      "gowych": 8574,
      "prawÄĻ": 8575,
      "ĠMieszka": 8576,
      "ĠbiorÄħ": 8577,
      "Ġreprezentu": 8578,
      "Ġrodzaje": 8579,
      "ologicznych": 8580,
      "Ġolimpijskich": 8581,
      "Ġzdefini": 8582,
      "szoÅĽci": 8583,
      "Pi": 8584,
      "Ġprzekazy": 8585,
      "ĠÄĩwierÄĩ": 8586,
      "Ġodpor": 8587,
      "aleria": 8588,
      "Ġdoktry": 8589,
      "ĠSzczeci": 8590,
      "ografia": 8591,
      "ĠurodziÅĤ": 8592,
      "ĠNorwegii": 8593,
      "ĠIza": 8594,
      "ĠAmeryka": 8595,
      "Ġwyprawy": 8596,
      "ĠumiejÄĻt": 8597,
      "Ġustawi": 8598,
      "ĠDal": 8599,
      "ĠpowyÅ¼": 8600,
      "ĠwÅĤasnej": 8601,
      "ĠÅĤÃ³": 8602,
      "ĠwÅĤaÅĽciwoÅĽci": 8603,
      "Richard": 8604,
      "Ġfragmenty": 8605,
      "ĠJednoczeÅĽnie": 8606,
      "Ġziemie": 8607,
      "ĠosiÄħgniÄĻcia": 8608,
      "ĠWkrÃ³tce": 8609,
      "ĠwÅĤasnÄħ": 8610,
      "Ġliter": 8611,
      "tacjÄĻ": 8612,
      "Ġrobotni": 8613,
      "Ġdoktora": 8614,
      "gwajski": 8615,
      "ĠmajÄħce": 8616,
      "ĠOÅĽrod": 8617,
      "Ġstosowany": 8618,
      "Ġegzempla": 8619,
      "ĠPomimo": 8620,
      "Ġpanu": 8621,
      "ĠSztuki": 8622,
      "ĠIran": 8623,
      "Ġsejm": 8624,
      "Ġobszary": 8625,
      "ington": 8626,
      "Ġproblemy": 8627,
      "ĠGlo": 8628,
      "sburg": 8629,
      "ĠopublikowaÅĤ": 8630,
      "SL": 8631,
      "ĠKil": 8632,
      "pin": 8633,
      "ĠPÅĤo": 8634,
      "ĠNiepodleg": 8635,
      "ĠRoy": 8636,
      "rÃ³dziem": 8637,
      "Fa": 8638,
      "ĠjednakÅ¼e": 8639,
      "ĠMaksy": 8640,
      "alnego": 8641,
      "ĠKot": 8642,
      "ĠpoÅ¼": 8643,
      "ĠprzywrÃ³": 8644,
      "had": 8645,
      "Ġbiath": 8646,
      "Ġadres": 8647,
      "Ġniem": 8648,
      "Dru": 8649,
      "Ã¼n": 8650,
      "Hu": 8651,
      "PA": 8652,
      "ther": 8653,
      "ĠukazaÅĤ": 8654,
      "Ġsateli": 8655,
      "Ġotwo": 8656,
      "-O": 8657,
      "ĠMarka": 8658,
      "ĠwiÄĻÅºni": 8659,
      "mieniny": 8660,
      "ĠJohann": 8661,
      "ĠÅĤat": 8662,
      "iaj": 8663,
      "Ġfrancuskich": 8664,
      "ĠwydarzeÅĦ": 8665,
      "Ġrozpowszechni": 8666,
      "Ġfragment": 8667,
      "Ġlewej": 8668,
      "ÅĽlad": 8669,
      "Ġund": 8670,
      "Ġkontroli": 8671,
      "Ġtechnik": 8672,
      "gas": 8673,
      "ĠRobot": 8674,
      "ĠOli": 8675,
      "Ġpionie": 8676,
      "ĠPWN": 8677,
      "ygmunt": 8678,
      "Jako": 8679,
      "Ġinteli": 8680,
      "ĠGÃ³ry": 8681,
      "nor": 8682,
      "andra": 8683,
      "ID": 8684,
      "Ġmni": 8685,
      "ĠBart": 8686,
      "cymi": 8687,
      "biego": 8688,
      "cept": 8689,
      "62": 8690,
      "Ġapli": 8691,
      "Ġprzeno": 8692,
      "Ġred": 8693,
      "ones": 8694,
      "Ġustro": 8695,
      "dzonej": 8696,
      "ĠdruÅ¼yn": 8697,
      "ÃŃn": 8698,
      "Å¼yna": 8699,
      "ĠMartin": 8700,
      "sel": 8701,
      "ĠÅł": 8702,
      "ĠBon": 8703,
      "Ġdroga": 8704,
      "ĠskÃ³": 8705,
      "ĠpÃ³ÅĤfi": 8706,
      "Ġkolonia": 8707,
      "Ġniszczy": 8708,
      "Ġprezenter": 8709,
      "Ġodmien": 8710,
      "ĠpisaÅĤ": 8711,
      "ese": 8712,
      "ĠbudynkÃ³w": 8713,
      "landzki": 8714,
      "Ġokolicy": 8715,
      "ĠWincen": 8716,
      "gnieszka": 8717,
      "Mart": 8718,
      "Ġinni": 8719,
      "Uni": 8720,
      "anty": 8721,
      "ĠdzieÅĤo": 8722,
      "ĠpozostaÅĤe": 8723,
      "czonÄħ": 8724,
      "Ġetni": 8725,
      "var": 8726,
      "ĠcÃ³rki": 8727,
      "Ġgeneralny": 8728,
      "Ġgruzi": 8729,
      "Ġostrze": 8730,
      "up": 8731,
      "Ġwydany": 8732,
      "Ġstatku": 8733,
      "ĠczÄĻstotliwoÅĽci": 8734,
      "Ġmniejsze": 8735,
      "ĠjÄħdr": 8736,
      "ĠVin": 8737,
      "Ġreformy": 8738,
      "ĠKolum": 8739,
      "Ġdach": 8740,
      "Ġszefa": 8741,
      "Ġdar": 8742,
      "ĠMonte": 8743,
      "ĠktÃ³rymi": 8744,
      "Ġrealizacji": 8745,
      "ĠMickie": 8746,
      "ĠwÅĤadca": 8747,
      "Ġstatek": 8748,
      "Ġraper": 8749,
      "skoÅĦ": 8750,
      "ĠInternati": 8751,
      "Ġcodzien": 8752,
      "lokaliz": 8753,
      "ĠNajwiÄĻk": 8754,
      "ĠÅ¼uÅ¼lowiec": 8755,
      "Ga": 8756,
      "dzÄħc": 8757,
      "Ġmiejscach": 8758,
      "ĠMedal": 8759,
      "graficzny": 8760,
      "kanoc": 8761,
      "mujÄħ": 8762,
      "Ġmoder": 8763,
      "Gene": 8764,
      "ĠdÅºwiÄĻk": 8765,
      "ĠGrab": 8766,
      "Ġkot": 8767,
      "TA": 8768,
      "sky": 8769,
      "ĠUN": 8770,
      "ĠczeÅĽÄĩ": 8771,
      "klam": 8772,
      "gel": 8773,
      "Ġpowrocie": 8774,
      "Ġpublicznej": 8775,
      "Ġpowiat": 8776,
      "Ġpowstaje": 8777,
      "ĠrosnÄħ": 8778,
      "ffi": 8779,
      "Ġokupacji": 8780,
      "Bud": 8781,
      "Ġgitara": 8782,
      "Ġnegatyw": 8783,
      "ĠPZPR": 8784,
      "ukle": 8785,
      "lozo": 8786,
      "ĠwysokoÅĽÄĩ": 8787,
      "Ġsamoloty": 8788,
      "Ġpodaje": 8789,
      "ĠpodrÃ³Å¼y": 8790,
      "Ġmorza": 8791,
      "ierÄĻ": 8792,
      "ĠTaj": 8793,
      "Ġprzyjm": 8794,
      "ĠCla": 8795,
      "kowania": 8796,
      "ĠsieÄĩ": 8797,
      "atur": 8798,
      "Ġwolno": 8799,
      "Ġkonfliktu": 8800,
      "ĠKoÅĽciele": 8801,
      "ĠplikÃ³w": 8802,
      "Ġsfor": 8803,
      "Ġmak": 8804,
      "Ġspor": 8805,
      "Ġkaz": 8806,
      "âĢĺ": 8807,
      "Ġpios": 8808,
      "Ġoperator": 8809,
      "tin": 8810,
      "ĠtreÅĽci": 8811,
      "ĠKongre": 8812,
      "ĠJuÅ¼": 8813,
      "Ġota": 8814,
      "69": 8815,
      "Ġdyscypli": 8816,
      "Ġmuzeum": 8817,
      "ÅĦczycy": 8818,
      "zur": 8819,
      "-E": 8820,
      "nal": 8821,
      "Ġteoretyk": 8822,
      "ĠInstytutu": 8823,
      "ĠjakoÅĽci": 8824,
      "Ġkg": 8825,
      "Ġodpowiedni": 8826,
      "ĠSym": 8827,
      "Äħk": 8828,
      "ĠAk": 8829,
      "jr": 8830,
      "Ġpomimo": 8831,
      "gowi": 8832,
      "czkÄĻ": 8833,
      "chodziÅĤ": 8834,
      "Ġoczeki": 8835,
      "Zygmunt": 8836,
      "ĠTrÃ³j": 8837,
      "ĠBoÅ¼ej": 8838,
      "ĠÅĤyÅ¼wiarka": 8839,
      "Ġspotyka": 8840,
      "ĠwybrzeÅ¼a": 8841,
      "czÄħcym": 8842,
      "nemu": 8843,
      "Ġwojskowej": 8844,
      "ĠNati": 8845,
      "ĠPodstawowa": 8846,
      "ujÄħcych": 8847,
      "ĠnajwiÄĻkszym": 8848,
      "lizm": 8849,
      "skiemu": 8850,
      "ĠchÄĻ": 8851,
      "ĠszczegÃ³ÅĤ": 8852,
      "105": 8853,
      "ĠBydgoszczy": 8854,
      "ĠuÅĤat": 8855,
      "Ġdobra": 8856,
      "Ġwene": 8857,
      "War": 8858,
      "tyzm": 8859,
      "Ġses": 8860,
      "Istnie": 8861,
      "Ġuto": 8862,
      "Ġrenes": 8863,
      "ffa": 8864,
      "Ġpacje": 8865,
      "Ġx": 8866,
      "Ġsamodzie": 8867,
      "lio": 8868,
      "ĠoÅĽrodkiem": 8869,
      "ĠRÃ³": 8870,
      "Ġumoc": 8871,
      "Ġstaje": 8872,
      "Ġzba": 8873,
      "nista": 8874,
      "ĠprzybyÅĤ": 8875,
      "ĠSocjalisty": 8876,
      "fal": 8877,
      "Ã³br": 8878,
      "Ġzostanie": 8879,
      "ĠliczbÄħ": 8880,
      "ĠurzÄħdzeÅĦ": 8881,
      "ĠZbroj": 8882,
      "Ġkryter": 8883,
      "erma": 8884,
      "Ġharcer": 8885,
      "Ġrzymskokatolicki": 8886,
      "dzeni": 8887,
      "ĠprzedsiÄĻbiorstwa": 8888,
      "ĠwierzchoÅĤ": 8889,
      "ĠpolitykÄĻ": 8890,
      "Ġturecki": 8891,
      "Ġzatrzym": 8892,
      "biÄĩ": 8893,
      "ĠÅĤatwo": 8894,
      "erÃ³w": 8895,
      "Ġmianem": 8896,
      "europej": 8897,
      "Ġsama": 8898,
      "ĠprzeniÃ³sÅĤ": 8899,
      "pomor": 8900,
      "rist": 8901,
      "wista": 8902,
      "lit": 8903,
      "ĠmaÅĤe": 8904,
      "nest": 8905,
      "Ġminut": 8906,
      "ĠsynÃ³w": 8907,
      "ĠchrzeÅĽci": 8908,
      "ĠrzÄħdy": 8909,
      "ĠpostanowiÅĤ": 8910,
      "Ġsal": 8911,
      "ĠÅ¼adnych": 8912,
      "Ġinnej": 8913,
      "ĠWraz": 8914,
      "jsc": 8915,
      "Ġarcheolog": 8916,
      "WÅĤad": 8917,
      "ĠZna": 8918,
      "ezo": 8919,
      "ĠPon": 8920,
      "Ġpiosenek": 8921,
      "ĠbÅĤogosÅĤawiona": 8922,
      "ĠudostÄĻp": 8923,
      "ag": 8924,
      "Ġswym": 8925,
      "ĠTechni": 8926,
      "ĠÅĽwiÄħtyni": 8927,
      "ĠLeon": 8928,
      "Wiktor": 8929,
      "ĠÅĽredniej": 8930,
      "Ġinstytucji": 8931,
      "ĠÅĽciÅĽle": 8932,
      "ĠstworzyÅĤ": 8933,
      "nezy": 8934,
      "ĠbudÅ¼e": 8935,
      "Ġoddzie": 8936,
      "ĠpoÅ¼y": 8937,
      "MaÅĤ": 8938,
      "tÃ³r": 8939,
      "Ġstosunki": 8940,
      "Ġzarzu": 8941,
      "ĠWaw": 8942,
      "Ã£": 8943,
      "ĠÅĽle": 8944,
      "hm": 8945,
      "ĠWoje": 8946,
      "Ġmiastach": 8947,
      "ĠNazwa": 8948,
      "Ġgier": 8949,
      "Ġwybit": 8950,
      "biter": 8951,
      "pry": 8952,
      "Ġredaktor": 8953,
      "Ġtram": 8954,
      "Ġwzrostu": 8955,
      "Ġkatolickiego": 8956,
      "rabin": 8957,
      "ĠsÅĤyn": 8958,
      "ĠreguÅĤy": 8959,
      "ĠrÃ³Å¼norod": 8960,
      "Ġkawalerii": 8961,
      "Ġprawdopodobie": 8962,
      "wum": 8963,
      "Ġpodd": 8964,
      "liusz": 8965,
      "Å¼ona": 8966,
      "ĠosÅĤa": 8967,
      "ĠzwyciÄĻstwa": 8968,
      "yo": 8969,
      "Ġpodg": 8970,
      "ĠSÅĤuÅ¼": 8971,
      "ĠVo": 8972,
      "Ġlokalnych": 8973,
      "ĠBas": 8974,
      "Ġwys": 8975,
      "ĠStaro": 8976,
      "ĠnaleÅ¼aÅĤ": 8977,
      "Ġinwesty": 8978,
      "Ġeko": 8979,
      "Ġtajem": 8980,
      "nki": 8981,
      "ĠtÄħ": 8982,
      "geniusz": 8983,
      "Ġfre": 8984,
      "itz": 8985,
      "pto": 8986,
      "Ġwydoby": 8987,
      "Ġmecze": 8988,
      "Ġlubel": 8989,
      "ĠThom": 8990,
      "sÄħ": 8991,
      "bl": 8992,
      "ĠmaÅĤych": 8993,
      "Ġfilolog": 8994,
      "gowe": 8995,
      "Ġkoncepcji": 8996,
      "rody": 8997,
      "Ġfunkcja": 8998,
      "Ġuznaje": 8999,
      "Ġserca": 9000,
      "ĠrÄĻce": 9001,
      "Ġdoktor": 9002,
      "tyzmu": 9003,
      "Ġkomunikacji": 9004,
      "Ali": 9005,
      "Dla": 9006,
      "solu": 9007,
      "ĠKalifor": 9008,
      "owniki": 9009,
      "ĠZwyciÄĻ": 9010,
      "ĠNy": 9011,
      "Ġwysoko": 9012,
      "Ġsery": 9013,
      "czycy": 9014,
      "Ġpion": 9015,
      "Ġpropor": 9016,
      "ĠpieniÄĻ": 9017,
      "ĠMedy": 9018,
      "ĠpaÅĤac": 9019,
      "ĠAmer": 9020,
      "ĠSÄħd": 9021,
      "pÅĤk": 9022,
      "Ġprzepis": 9023,
      "logiczny": 9024,
      "Ġwyboru": 9025,
      "Ġhistoryczne": 9026,
      "ĠÅļlÄħsku": 9027,
      "BC": 9028,
      "Ġorg": 9029,
      "ĠznaleÅºÄĩ": 9030,
      "ĠmÅĤodo": 9031,
      "ĠUl": 9032,
      "ĠAby": 9033,
      "ĠMcC": 9034,
      "gÅĤÄĻ": 9035,
      "fon": 9036,
      "Ġ(": 9037,
      "lane": 9038,
      "Ġziemian": 9039,
      "Ġprzynajmniej": 9040,
      "Ġzamian": 9041,
      "frastru": 9042,
      "ĠczynnoÅĽci": 9043,
      "dziesiÄĻ": 9044,
      "Ġpoleg": 9045,
      "dziÄħ": 9046,
      "ĠFal": 9047,
      "ĠIndii": 9048,
      "Ġrugbysta": 9049,
      "czÄħce": 9050,
      "ĠbezpoÅĽre": 9051,
      "czykÃ³w": 9052,
      "ĠDÄĻ": 9053,
      "Ġtygodni": 9054,
      "Ġkilomet": 9055,
      "ĠbÄĻdÄħce": 9056,
      "Ġjakim": 9057,
      "ĠPara": 9058,
      "Ġzakresu": 9059,
      "Ġtemperatura": 9060,
      "Ġnow": 9061,
      "szta": 9062,
      "con": 9063,
      "ĠAkadem": 9064,
      "ĠSzkÃ³ÅĤ": 9065,
      "Ġbolszewi": 9066,
      "Grzegorz": 9067,
      "Ġzastrze": 9068,
      "ĠFriedrich": 9069,
      "Ġbrytyjskiego": 9070,
      "Ġparlamentu": 9071,
      "Ab": 9072,
      "Ġforte": 9073,
      "Ġrower": 9074,
      "waÅ¼nie": 9075,
      "Ġmiejscem": 9076,
      "ĠdÅºwiÄĻku": 9077,
      "ĠoÅĽwia": 9078,
      "ĠWojcie": 9079,
      "Ġczeska": 9080,
      "ĠzwiÄħzana": 9081,
      "Archi": 9082,
      "Ġbla": 9083,
      "wacji": 9084,
      "ĠEdwarda": 9085,
      "ĠZel": 9086,
      "ĠdotarÅĤ": 9087,
      "Ġsak": 9088,
      "ĠUkrainy": 9089,
      "(zw": 9090,
      "Ġwspomni": 9091,
      "Ġzrze": 9092,
      "ĠpracownikÃ³w": 9093,
      "ĠmyÅĽliwski": 9094,
      "ĠpeÅĤniÄħ": 9095,
      "demok": 9096,
      "spir": 9097,
      "ĠAlbert": 9098,
      "ĠDopiero": 9099,
      "Ġdefi": 9100,
      "Ġkomite": 9101,
      "Ġdobre": 9102,
      "Ġkorona": 9103,
      "ĠzwiÄĻksza": 9104,
      "Ġrosyjskiej": 9105,
      "79": 9106,
      "ĠnadaÅĤ": 9107,
      "ĠpokÅĤadzie": 9108,
      "ĠnajwiÄĻkszy": 9109,
      "Ġzakonnica": 9110,
      "ĠiloÅĽÄĩ": 9111,
      "ĠogÃ³ÅĤ": 9112,
      "Ser": 9113,
      "Ġhym": 9114,
      "Ġeurodeputowany": 9115,
      "ĠZgodnie": 9116,
      "Ġdemokraty": 9117,
      "lotni": 9118,
      "rzÄĻsie": 9119,
      "ÄĻgier": 9120,
      "ĠBlu": 9121,
      "Ġaustralijska": 9122,
      "Ġteoria": 9123,
      "brane": 9124,
      "Ġalian": 9125,
      "Obecnie": 9126,
      "-N": 9127,
      "ĠMaÅĤo": 9128,
      "czÄħcych": 9129,
      "spekty": 9130,
      "Ġwyklu": 9131,
      "ĠBrazylii": 9132,
      "ĠpÅĤk": 9133,
      "SzkoÅĤa": 9134,
      "ĠArty": 9135,
      "ĠnajwiÄĻkszÄħ": 9136,
      "Ġalge": 9137,
      "andar": 9138,
      "ĠdrÃ³g": 9139,
      "Ġemo": 9140,
      "ĠLy": 9141,
      "Ġkory": 9142,
      "Ġnaby": 9143,
      "sil": 9144,
      "Ġzaprze": 9145,
      "ĠpiÅĤka": 9146,
      "ĠporÃ³wnaniu": 9147,
      "ĠCity": 9148,
      "ĠmÅĤodzieÅ¼y": 9149,
      "-u": 9150,
      "ĠudaÅĤ": 9151,
      "ĠPÃ³ÅĤwy": 9152,
      "ĠzawodnikÃ³w": 9153,
      "Ġjezuita": 9154,
      "bÅĤ": 9155,
      "ĠfinaÅĤ": 9156,
      "Ġkultu": 9157,
      "ĠoÅĽrodek": 9158,
      "eng": 9159,
      "ĠParyÅ¼a": 9160,
      "UrodziÅĤ": 9161,
      "Ġogni": 9162,
      "ĠpodrÃ³Å¼nik": 9163,
      "ĠwystÄĻpowania": 9164,
      "Ġucz": 9165,
      "ÅĤaÅĽci": 9166,
      "ĠniezbÄĻ": 9167,
      "cyklopedia": 9168,
      "wina": 9169,
      "braÅĤ": 9170,
      "ĠproblemÃ³w": 9171,
      "ĠrÄĻkopis": 9172,
      "ĠÅĤÄħczy": 9173,
      "leniem": 9174,
      "tta": 9175,
      "zin": 9176,
      "Ġkasz": 9177,
      "Ġpartyzan": 9178,
      "top": 9179,
      "ĠprzeszÅĤoÅĽci": 9180,
      "kingu": 9181,
      "cena": 9182,
      "ĠGeorg": 9183,
      "Ġwschodzie": 9184,
      "Ġwyspa": 9185,
      "ĠzaÅĤoÅ¼ony": 9186,
      "owiat": 9187,
      "ĠpoÅĤudniowoafry": 9188,
      "Ġtlen": 9189,
      "ĠWyko": 9190,
      "Ġpodleg": 9191,
      "Ġkolejowa": 9192,
      "ĠktÃ³remu": 9193,
      "Ġkto": 9194,
      "-amery": 9195,
      "Ġszeroko": 9196,
      "Ġplaneto": 9197,
      "Thomas": 9198,
      "ĠInternational": 9199,
      "Î±": 9200,
      "emy": 9201,
      "Ġspecjalnych": 9202,
      "Ġregionie": 9203,
      "ĠdokÅĤadnie": 9204,
      "ĠAbra": 9205,
      "Ġklien": 9206,
      "System": 9207,
      "ĠXXI": 9208,
      "ĠSobie": 9209,
      "Ġfizj": 9210,
      "Ġprzyrodni": 9211,
      "okÄħ": 9212,
      "ĠRyszard": 9213,
      "Ġprzekracza": 9214,
      "Sie": 9215,
      "ĠLeopol": 9216,
      "gowa": 9217,
      "Ġhas": 9218,
      "Ġspecjalne": 9219,
      "ĠprzeÅ¼y": 9220,
      "ĠÃī": 9221,
      "ĠKolo": 9222,
      "Ġadministracyjny": 9223,
      "mowa": 9224,
      "beli": 9225,
      "imir": 9226,
      "Ġrucho": 9227,
      "ĠBog": 9228,
      "Ġwszystko": 9229,
      "Ġalterna": 9230,
      "powiat": 9231,
      "Ġseku": 9232,
      "ĠSek": 9233,
      "Ġzachodzie": 9234,
      "ĠParku": 9235,
      "Ġwykry": 9236,
      "So": 9237,
      "Ġapara": 9238,
      "Ġzadania": 9239,
      "ZespÃ³ÅĤ": 9240,
      "entami": 9241,
      "Ġmaszyny": 9242,
      "ĠszerokoÅĽci": 9243,
      "ĠGdaÅĦsk": 9244,
      "mentarz": 9245,
      "magne": 9246,
      "Ġwielkie": 9247,
      "ĠgorÄħ": 9248,
      "ĠCham": 9249,
      "ĠBawar": 9250,
      "Ġadwokat": 9251,
      "ĠokreÅĽlenia": 9252,
      "ĠDio": 9253,
      "Ġfazie": 9254,
      "rez": 9255,
      "ulta": 9256,
      "ĠprzyczynÄħ": 9257,
      "Ġuzysku": 9258,
      "Ġusu": 9259,
      "Joseph": 9260,
      "Ġpoezji": 9261,
      "Ġzwrot": 9262,
      "ĠPodobnie": 9263,
      "ralnÄħ": 9264,
      "ĠInne": 9265,
      "stolet": 9266,
      "Ġprzechodzi": 9267,
      "tnam": 9268,
      "system": 9269,
      "Ġbudowie": 9270,
      "pha": 9271,
      "ĠRzÄħd": 9272,
      "pta": 9273,
      "ĠkoÅĤa": 9274,
      "szli": 9275,
      "ĠmieszkaÅĦcy": 9276,
      "ĠMod": 9277,
      "Ġtopo": 9278,
      "ĠstanÄħÅĤ": 9279,
      "ĠAngeles": 9280,
      "nom": 9281,
      "Ġwielkich": 9282,
      "Ġfrancisz": 9283,
      "ĠzdecydowaÅĤ": 9284,
      "ĠDziaÅĤa": 9285,
      "ÅĤany": 9286,
      "Ġzdob": 9287,
      "ĠÅĤyÅ¼wiarz": 9288,
      "czesne": 9289,
      "Ġalgoryt": 9290,
      "Ġbadaw": 9291,
      "ĠPamiÄĻ": 9292,
      "Ġrazie": 9293,
      "tol": 9294,
      "Ġbraci": 9295,
      "cista": 9296,
      "izm": 9297,
      "Ġstacja": 9298,
      "Ġzlokaliz": 9299,
      "Ġmaj": 9300,
      "Ġzamieszka": 9301,
      "dowa": 9302,
      "ĠSaksonii": 9303,
      "Ġkontek": 9304,
      "Ġakty": 9305,
      "ĠTymczas": 9306,
      "ĠSÅĤowi": 9307,
      "Ġwyzwo": 9308,
      "Okres": 9309,
      "Ru": 9310,
      "ĠtrÃ³jkÄħ": 9311,
      "wis": 9312,
      "ĠmaÅĤÅ¼eÅĦstwa": 9313,
      "ĠSprawie": 9314,
      "wood": 9315,
      "ĠprzynaleÅ¼": 9316,
      "Ġtkan": 9317,
      "Ġregional": 9318,
      "ĠAnny": 9319,
      "robo": 9320,
      "Ġcztero": 9321,
      "Ġjazdy": 9322,
      "ieÅĦ": 9323,
      "ĠPoza": 9324,
      "ĠHans": 9325,
      "stus": 9326,
      "ĠBez": 9327,
      "Ġkalenda": 9328,
      "ĠÅļwiÄĻtej": 9329,
      "Ġobni": 9330,
      "pienie": 9331,
      "ĠÅ¼ela": 9332,
      "Ġmogli": 9333,
      "Ġhet": 9334,
      "ĠpojawiÅĤa": 9335,
      "Ġzaka": 9336,
      "Ġwykorzystywane": 9337,
      "Ġokup": 9338,
      "Ġkonflikt": 9339,
      "Ġzasadzie": 9340,
      "ĠJose": 9341,
      "ĠWali": 9342,
      "ĠChinach": 9343,
      "ĠSos": 9344,
      "Ġzjawiska": 9345,
      "szyng": 9346,
      "Ġrundzie": 9347,
[...]
