{
  "version": "1.0",
  "truncation": null,
  "padding": null,
  "added_tokens": [
    {
      "id": 0,
      "content": "<|endoftext|>",
      "single_word": false,
      "lstrip": false,
      "rstrip": false,
      "normalized": false,
      "special": true
    }
  ],
  "normalizer": null,
  "pre_tokenizer": {
    "type": "ByteLevel",
    "add_prefix_space": false,
    "trim_offsets": true,
    "use_regex": true
  },
  "post_processor": null,
  "decoder": {
    "type": "ByteLevel",
    "add_prefix_space": true,
    "trim_offsets": true,
    "use_regex": true
  },
  "model": {
    "type": "BPE",
    "dropout": null,
    "unk_token": null,
    "continuing_subword_prefix": null,
    "end_of_word_suffix": null,
    "fuse_unk": false,
    "byte_fallback": false,
    "ignore_merges": false,
    "vocab": {
      "<|endoftext|>": 0,
      "!": 1,
      "\"": 2,
      "#": 3,
      "$": 4,
      "%": 5,
      "&": 6,
      "'": 7,
      "(": 8,
      ")": 9,
      "*": 10,
      "+": 11,
      ",": 12,
      "-": 13,
      ".": 14,
      "/": 15,
      "0": 16,
      "1": 17,
      "2": 18,
      "3": 19,
      "4": 20,
      "5": 21,
      "6": 22,
      "7": 23,
      "8": 24,
      "9": 25,
      ":": 26,
      ";": 27,
      "<": 28,
      "=": 29,
      ">": 30,
      "?": 31,
      "@": 32,
      "A": 33,
      "B": 34,
      "C": 35,
      "D": 36,
      "E": 37,
      "F": 38,
      "G": 39,
      "H": 40,
      "I": 41,
      "J": 42,
      "K": 43,
      "L": 44,
      "M": 45,
      "N": 46,
      "O": 47,
      "P": 48,
      "Q": 49,
      "R": 50,
      "S": 51,
      "T": 52,
      "U": 53,
      "V": 54,
      "W": 55,
      "X": 56,
      "Y": 57,
      "Z": 58,
      "[": 59,
      "\\": 60,
      "]": 61,
      "^": 62,
      "_": 63,
      "`": 64,
      "a": 65,
      "b": 66,
      "c": 67,
      "d": 68,
      "e": 69,
      "f": 70,
      "g": 71,
      "h": 72,
      "i": 73,
      "j": 74,
      "k": 75,
      "l": 76,
      "m": 77,
      "n": 78,
      "o": 79,
      "p": 80,
      "q": 81,
      "r": 82,
      "s": 83,
      "t": 84,
      "u": 85,
      "v": 86,
      "w": 87,
      "x": 88,
      "y": 89,
      "z": 90,
      "{": 91,
      "|": 92,
      "}": 93,
      "~": 94,
      "¡": 95,
      "¢": 96,
      "£": 97,
      "¤": 98,
      "¥": 99,
      "¦": 100,
      "§": 101,
      "¨": 102,
      "©": 103,
      "ª": 104,
      "«": 105,
      "¬": 106,
      "®": 107,
      "¯": 108,
      "°": 109,
      "±": 110,
      "²": 111,
      "³": 112,
      "´": 113,
      "µ": 114,
      "¶": 115,
      "·": 116,
      "¸": 117,
      "¹": 118,
      "º": 119,
      "»": 120,
      "¼": 121,
      "½": 122,
      "¾": 123,
      "¿": 124,
      "À": 125,
      "Á": 126,
      "Â": 127,
      "Ã": 128,
      "Ä": 129,
      "Å": 130,
      "Æ": 131,
      "Ç": 132,
      "È": 133,
      "É": 134,
      "Ê": 135,
      "Ë": 136,
      "Ì": 137,
      "Í": 138,
      "Î": 139,
      "Ï": 140,
      "Ð": 141,
      "Ñ": 142,
      "Ò": 143,
      "Ó": 144,
      "Ô": 145,
      "Õ": 146,
      "Ö": 147,
      "×": 148,
      "Ø": 149,
      "Ù": 150,
      "Ú": 151,
      "Û": 152,
      "Ü": 153,
      "Ý": 154,
      "Þ": 155,
      "ß": 156,
      "à": 157,
      "á": 158,
      "â": 159,
      "ã": 160,
      "ä": 161,
      "å": 162,
      "æ": 163,
      "ç": 164,
      "è": 165,
      "é": 166,
      "ê": 167,
      "ë": 168,
      "ì": 169,
      "í": 170,
      "î": 171,
      "ï": 172,
      "ð": 173,
      "ñ": 174,
      "ò": 175,
      "ó": 176,
      "ô": 177,
      "õ": 178,
      "ö": 179,
      "÷": 180,
      "ø": 181,
      "ù": 182,
      "ú": 183,
      "û": 184,
      "ü": 185,
      "ý": 186,
      "þ": 187,
      "ÿ": 188,
      "Ā": 189,
      "ā": 190,
      "Ă": 191,
      "ă": 192,
      "Ą": 193,
      "ą": 194,
      "Ć": 195,
      "ć": 196,
      "Ĉ": 197,
      "ĉ": 198,
      "Ċ": 199,
      "ċ": 200,
      "Č": 201,
      "č": 202,
      "Ď": 203,
      "ď": 204,
      "Đ": 205,
      "đ": 206,
      "Ē": 207,
      "ē": 208,
      "Ĕ": 209,
      "ĕ": 210,
      "Ė": 211,
      "ė": 212,
      "Ę": 213,
      "ę": 214,
      "Ě": 215,
      "ě": 216,
      "Ĝ": 217,
      "ĝ": 218,
      "Ğ": 219,
      "ğ": 220,
      "Ġ": 221,
      "ġ": 222,
      "Ģ": 223,
      "ģ": 224,
      "Ĥ": 225,
      "ĥ": 226,
      "Ħ": 227,
      "ħ": 228,
      "Ĩ": 229,
      "ĩ": 230,
      "Ī": 231,
      "ī": 232,
      "Ĭ": 233,
      "ĭ": 234,
      "Į": 235,
      "į": 236,
      "İ": 237,
      "ı": 238,
      "Ĳ": 239,
      "ĳ": 240,
      "Ĵ": 241,
      "ĵ": 242,
      "Ķ": 243,
      "ķ": 244,
      "ĸ": 245,
      "Ĺ": 246,
      "ĺ": 247,
      "Ļ": 248,
      "ļ": 249,
      "Ľ": 250,
      "ľ": 251,
      "Ŀ": 252,
      "ŀ": 253,
      "Ł": 254,
      "ł": 255,
      "Ń": 256,
      "ie": 257,
      "ÅĤ": 258,
      "Ġp": 259,
      "Ġw": 260,
      "Ġs": 261,
      "Ġz": 262,
      "ÄĻ": 263,
      "ni": 264,
      "Äħ": 265,
      "rz": 266,
      "ow": 267,
      "ch": 268,
      "cz": 269,
      "na": 270,
      "nie": 271,
      "st": 272,
      "Ã³": 273,
      "Ġo": 274,
      "Å¼": 275,
      "Ġd": 276,
      "ra": 277,
      "Ġt": 278,
      "ÅĽ": 279,
      "Ġi": 280,
      "Ġm": 281,
      "ro": 282,
      "sz": 283,
      "Ġk": 284,
      "Ġpo": 285,
      "dz": 286,
      "go": 287,
      "ne": 288,
      "rze": 289,
      "Ġna": 290,
      "aÅĤ": 291,
      "ny": 292,
      "je": 293,
      "iÄĻ": 294,
      "li": 295,
      "âĢ": 296,
      "ci": 297,
      "Ġb": 298,
      "ar": 299,
      "Äĩ": 300,
      "le": 301,
      "Ġu": 302,
      "Ġza": 303,
      "nia": 304,
      "Ġdo": 305,
      "Âł": 306,
      "Ã³w": 307,
      "re": 308,
      "mi": 309,
      "Ġnie": 310,
      "ka": 311,
      "ÅĤa": 312,
      "ki": 313,
      "rzy": 314,
      "no": 315,
      "wa": 316,
      "owa": 317,
      "ĠsiÄĻ": 318,
      "Ġje": 319,
      "Ġwy": 320,
      "ko": 321,
      "Ġprze": 322,
      "Å¼e": 323,
      "ja": 324,
      "Ġa": 325,
      "jÄħ": 326,
      "ce": 327,
      "la": 328,
      "ta": 329,
      "ry": 330,
      "te": 331,
      "wi": 332,
      "ÅĤo": 333,
      "ty": 334,
      "cy": 335,
      "da": 336,
      "po": 337,
      "ÅĽci": 338,
      "cze": 339,
      "ku": 340,
      "kie": 341,
      "wo": 342,
      "Ġg": 343,
      "czy": 344,
      "sta": 345,
      "ÅĦ": 346,
      "ĠP": 347,
      "Ġ1": 348,
      "to": 349,
      "nych": 350,
      "cie": 351,
      "dy": 352,
      "Ġte": 353,
      "ĠâĢ": 354,
      "Ġod": 355,
      "Ġro": 356,
      "dzi": 357,
      "tÃ³": 358,
      "em": 359,
      "Ġko": 360,
      "by": 361,
      "wie": 362,
      "ru": 363,
      "ĠktÃ³": 364,
      "tu": 365,
      "lu": 366,
      "Ġja": 367,
      "Ġprzy": 368,
      "ĠW": 369,
      "dzie": 370,
      "Ġ2": 371,
      "ma": 372,
      "ia": 373,
      "cj": 374,
      "ĠÅ¼e": 375,
      "szy": 376,
      "ĠS": 377,
      "mie": 378,
      "Ġpa": 379,
      "ej": 380,
      "owy": 381,
      "Ġto": 382,
      "Ġmo": 383,
      "za": 384,
      "Ġby": 385,
      "ĠN": 386,
      "en": 387,
      "Ġty": 388,
      "Ġta": 389,
      "Ġc": 390,
      "Å¼y": 391,
      "lo": 392,
      "wy": 393,
      "aÅĤa": 394,
      "ĠK": 395,
      "nÄħ": 396,
      "nego": 397,
      "raz": 398,
      "Ġ(": 399,
      "Ġpod": 400,
      "or": 401,
      "ga": 402,
      "ÅĤu": 403,
      "ĠM": 404,
      "owie": 405,
      "nej": 406,
      "owi": 407,
      "ÅĤy": 408,
      "er": 409,
      "Ġjest": 410,
      "ĊĊ": 411,
      "cji": 412,
      "rÃ³": 413,
      "cza": 414,
      "ob": 415,
      "sze": 416,
      "my": 417,
      "Ġob": 418,
      "pa": 419,
      "ĠÅĽ": 420,
      "zy": 421,
      "Ġroz": 422,
      "ca": 423,
      "du": 424,
      "ĠA": 425,
      "pi": 426,
      "ÅĽÄĩ": 427,
      "Ġch": 428,
      "ĠâĢĶ": 429,
      "pra": 430,
      "Ġma": 431,
      "Ġdz": 432,
      "ĠC": 433,
      "mu": 434,
      "Ġf": 435,
      "ĠB": 436,
      "Ġin": 437,
      "Ġlu": 438,
      "Ġmi": 439,
      "si": 440,
      "Ġni": 441,
      "ski": 442,
      "skie": 443,
      "ĠT": 444,
      "mo": 445,
      "Ġpra": 446,
      "âĢĶ": 447,
      "niu": 448,
      "Ġpro": 449,
      "owe": 450,
      "Ġsz": 451,
      "nym": 452,
      "sa": 453,
      "ĠR": 454,
      "00": 455,
      "gi": 456,
      "Ġst": 457,
      "Ġprzez": 458,
      "Ġwie": 459,
      "ĠJ": 460,
      "wia": 461,
      "ĊĠ": 462,
      "ĠZ": 463,
      "dze": 464,
      "âĢī": 465,
      "ek": 466,
      "noÅĽci": 467,
      "Ġcz": 468,
      "pie": 469,
      "ĠD": 470,
      "rzÄħ": 471,
      "ĠO": 472,
      "Ġjak": 473,
      "an": 474,
      "kÃ³w": 475,
      "ĠPo": 476,
      "Ġco": 477,
      "bi": 478,
      "Åº": 479,
      "Ġgo": 480,
      "cho": 481,
      "ez": 482,
      "Ġr": 483,
      "aÅĤy": 484,
      "jÄĻ": 485,
      "Ġre": 486,
      "ĠktÃ³ry": 487,
      "Ġsta": 488,
      "su": 489,
      "Ġjed": 490,
      "Ġpoz": 491,
      "ju": 492,
      "ĠktÃ³re": 493,
      "pe": 494,
      "niej": 495,
      "nio": 496,
      "do": 497,
      "art": 498,
      "bie": 499,
      "owo": 500,
      "we": 501,
      "sie": 502,
      "kre": 503,
      "..": 504,
      "kt": 505,
      "Ġtak": 506,
      "ĠI": 507,
      "ĠĠ": 508,
      "Ġmie": 509,
      "Ġlub": 510,
      "stÄĻ": 511,
      "Ġspo": 512,
      "Ġli": 513,
      "ska": 514,
      "aÅĤo": 515,
      "Ġka": 516,
      "Ġe": 517,
      "Ġusta": 518,
      "Ġprzed": 519,
      "owych": 520,
      "sy": 521,
      "stÄĻp": 522,
      "nu": 523,
      "sty": 524,
      "Ġczy": 525,
      "ba": 526,
      "01": 527,
      "sto": 528,
      "de": 529,
      "ĠG": 530,
      "Ġwo": 531,
      "czÄħ": 532,
      "un": 533,
      "Ġda": 534,
      "jÄħc": 535,
      "ÅĦst": 536,
      "Ġsa": 537,
      "Ġdla": 538,
      "âĢĿ": 539,
      "ĠU": 540,
      "sza": 541,
      "cja": 542,
      "rowa": 543,
      "ĠĊĊ": 544,
      "Ġoraz": 545,
      "bo": 546,
      "jÄħcy": 547,
      "ĠL": 548,
      "spo": 549,
      "Ġwi": 550,
      "Ġmu": 551,
      "ĠsÄħ": 552,
      "rod": 553,
      "Ã³ÅĤ": 554,
      "nÄĻ": 555,
      "kÅĤa": 556,
      "Ġze": 557,
      "ĠE": 558,
      "ĠâĢŀ": 559,
      "Ġzna": 560,
      "ÄĻd": 561,
      "Ġ3": 562,
      "jÄħce": 563,
      "niem": 564,
      "czo": 565,
      "Ġdzi": 566,
      "owej": 567,
      "dzo": 568,
      "fi": 569,
      "ĠKo": 570,
      "ier": 571,
      "nt": 572,
      "Ġh": 573,
      "gra": 574,
      "Ġra": 575,
      "Ġdzie": 576,
      "Ġle": 577,
      "cia": 578,
      "Å¼a": 579,
      "sk": 580,
      "Ġ19": 581,
      "Ġwszy": 582,
      "Ġtym": 583,
      "men": 584,
      "Ġn": 585,
      "zna": 586,
      "owania": 587,
      "Ġspra": 588,
      "ĠâĢĵ": 589,
      "gu": 590,
      "ĠÅ": 591,
      "zu": 592,
      "ĠÅ¼y": 593,
      "Ġzo": 594,
      "ĠwÅĤa": 595,
      "szcze": 596,
      "Ġtego": 597,
      "owego": 598,
      "so": 599,
      "ĠNa": 600,
      "Ġart": 601,
      "Ġnaj": 602,
      "Ġsto": 603,
      "lko": 604,
      "cyj": 605,
      "Ġrze": 606,
      "Ġce": 607,
      "bu": 608,
      "dni": 609,
      "Ġwz": 610,
      "Ġwszyst": 611,
      "io": 612,
      "ĠNie": 613,
      "mia": 614,
      "Ġjego": 615,
      "sp": 616,
      "Ġbo": 617,
      "tego": 618,
      "dza": 619,
      "Ġust": 620,
      "il": 621,
      "âĢ¦": 622,
      "cha": 623,
      "Ġale": 624,
      "rza": 625,
      "Ġju": 626,
      "Å¼o": 627,
      "pu": 628,
      "kiem": 629,
      "Ġbez": 630,
      "in": 631,
      "ter": 632,
      "wiÄħ": 633,
      "ĠF": 634,
      "dnie": 635,
      "tem": 636,
      "dzenia": 637,
      "Ġde": 638,
      "skiego": 639,
      "al": 640,
      "bli": 641,
      "ÅĽli": 642,
      "pad": 643,
      "Ġsp": 644,
      "ji": 645,
      "siÄĻ": 646,
      "Ġla": 647,
      "tor": 648,
      "nika": 649,
      "dziaÅĤ": 650,
      "Ġ201": 651,
      "ĠĊ": 652,
      "Ġwe": 653,
      "nist": 654,
      "Ġci": 655,
      "Ġgdy": 656,
      "ĠmoÅ¼e": 657,
      "Ġsy": 658,
      "ĠwiÄĻ": 659,
      "ĠH": 660,
      "Ġokre": 661,
      "tycz": 662,
      "ĠjuÅ¼": 663,
      "czas": 664,
      "dzy": 665,
      "Ġ4": 666,
      "gl": 667,
      "ÅĽcie": 668,
      "Ã³l": 669,
      "Ġkon": 670,
      "tÃ³w": 671,
      "co": 672,
      "Ġpow": 673,
      "Ġjej": 674,
      "ak": 675,
      "noÅĽÄĩ": 676,
      "Äħd": 677,
      "rÄĻ": 678,
      "ran": 679,
      "kich": 680,
      "Ġ-": 681,
      "Ġtylko": 682,
      "skiej": 683,
      "powie": 684,
      "ÄĻdzie": 685,
      "ÅĤÄħ": 686,
      "Po": 687,
      "ze": 688,
      "me": 689,
      "wÃ³": 690,
      "Ġswo": 691,
      "Ġich": 692,
      "Ġbar": 693,
      "ĠbyÅĤ": 694,
      "kÄĻ": 695,
      "Ġpe": 696,
      "czÄĻ": 697,
      "for": 698,
      "niÄĻ": 699,
      "Ġ0": 700,
      ").": 701,
      "ĠJe": 702,
      "Ġ5": 703,
      "ÂłÂł": 704,
      "Ġ200": 705,
      "ÅĤe": 706,
      "rÃ³d": 707,
      "cu": 708,
      "Ġzost": 709,
      "Ġbu": 710,
      "Ġsob": 711,
      "Ġustawy": 712,
      "mis": 713,
      "trzy": 714,
      "Ġpowie": 715,
      "Ġdnia": 716,
      "praw": 717,
      "Ġsk": 718,
      "nowi": 719,
      "ĠpaÅĦst": 720,
      "20": 721,
      "ĠNr": 722,
      "Ġpan": 723,
      "Ġfi": 724,
      "ĠbyÅĤo": 725,
      "Ġos": 726,
      "Ġog": 727,
      "ÅĤem": 728,
      "Ã©": 729,
      "Ġpier": 730,
      "waÅĤ": 731,
      "ĠÅĽwia": 732,
      "Ġtu": 733,
      "on": 734,
      "...": 735,
      "Ġtej": 736,
      "js": 737,
      "Ġjako": 738,
      "uro": 739,
      "ĠZa": 740,
      "Ġku": 741,
      "Ġpos": 742,
      "ary": 743,
      "owanie": 744,
      "Ġwar": 745,
      "nik": 746,
      "Ġno": 747,
      "Ã³b": 748,
      "prze": 749,
      "Ġwa": 750,
      "ĠgÅĤ": 751,
      "ĠPa": 752,
      "owaÄĩ": 753,
      "Ġroku": 754,
      "Ġor": 755,
      "Ġsie": 756,
      "Ġpraw": 757,
      "Ġdy": 758,
      "Ġdu": 759,
      "czne": 760,
      "Ġrozpo": 761,
      "ĠbyÄĩ": 762,
      "ĠrÃ³w": 763,
      "tk": 764,
      "Ġmnie": 765,
      "Ġdoty": 766,
      "),": 767,
      "ĠdziaÅĤa": 768,
      "Ġnad": 769,
      "Ġ6": 770,
      "cznych": 771,
      "Ġmog": 772,
      "jÄħcych": 773,
      "wszy": 774,
      "siÄħ": 775,
      "wiÄĻ": 776,
      "Ã³wi": 777,
      "Ġten": 778,
      "Ġcze": 779,
      "Ġpu": 780,
      "rak": 781,
      "prowa": 782,
      "ĠmoÅ¼": 783,
      "rt": 784,
      "ĊÂł": 785,
      "Ġpot": 786,
      "Ġ\"": 787,
      "owaÅĤ": 788,
      "Ġwyko": 789,
      "Ġmowa": 790,
      "cje": 791,
      "dzÄħ": 792,
      "skich": 793,
      "ĠMi": 794,
      "ns": 795,
      "kÄħ": 796,
      "gie": 797,
      "sko": 798,
      "ĠbÄĻdzie": 799,
      "ĠRo": 800,
      "Ġpkt": 801,
      "cznie": 802,
      "ona": 803,
      "ĠÅĽrod": 804,
      "owym": 805,
      "Ġcho": 806,
      "Ġkie": 807,
      "war": 808,
      "Ġmiejs": 809,
      "Ġme": 810,
      "Ġba": 811,
      "peÅĤ": 812,
      "nic": 813,
      "ĠktÃ³rych": 814,
      "ĠczÄĻ": 815,
      "rÄħ": 816,
      "szÄħ": 817,
      "Ġaby": 818,
      "ktu": 819,
      "Ġcie": 820,
      "kim": 821,
      "cjÄĻ": 822,
      "iÄĻdzy": 823,
      "czenia": 824,
      "Ġmy": 825,
      "rÃ³Å¼": 826,
      "rzu": 827,
      "čĠĊĊ": 828,
      "sÅĤu": 829,
      "nd": 830,
      "Ġorga": 831,
      "Ġpi": 832,
      "ria": 833,
      "py": 834,
      "Ġraz": 835,
      "čĠĊ": 836,
      "pis": 837,
      "owiÄħ": 838,
      "Ġjeszcze": 839,
      "ĠPol": 840,
      "nii": 841,
      "Ġodpowie": 842,
      "Ġdro": 843,
      "lej": 844,
      "Ka": 845,
      "ri": 846,
      "ĠCh": 847,
      "Å¼Äħ": 848,
      "sku": 849,
      "nymi": 850,
      "Ġ7": 851,
      "Ġbi": 852,
      "um": 853,
      "nak": 854,
      "ĠteÅ¼": 855,
      "lÄĻ": 856,
      "Ġwyda": 857,
      "ĠJa": 858,
      "Ġsobie": 859,
      "kiego": 860,
      "Ġdru": 861,
      "Ġtych": 862,
      "ĠsÅĤu": 863,
      "owÄħ": 864,
      "kÅĤad": 865,
      "Ġry": 866,
      "Ġjedno": 867,
      "Ġlo": 868,
      "sÅĤa": 869,
      "iada": 870,
      "Ġdob": 871,
      "kty": 872,
      "cÃ³w": 873,
      "ĠĠĠĠ": 874,
      "Ġkra": 875,
      "čĠĊĊčĠĊ": 876,
      "19": 877,
      "ec": 878,
      "two": 879,
      "tni": 880,
      "Ã³r": 881,
      "Ġbardzo": 882,
      "ĠokreÅĽ": 883,
      "el": 884,
      "ĠmÃ³wi": 885,
      "mio": 886,
      "Ġ8": 887,
      "Ġstro": 888,
      "ÅĽmy": 889,
      "ĠMa": 890,
      "rÃ³w": 891,
      "taÅĤ": 892,
      "cÄħ": 893,
      "Ġ9": 894,
      "forma": 895,
      "nÄħÅĤ": 896,
      "Dz": 897,
      "wier": 898,
      "den": 899,
      "Ġnale": 900,
      "Ġcza": 901,
      "ÅĽnie": 902,
      "cznej": 903,
      "Na": 904,
      "Ġgru": 905,
      "ĠRa": 906,
      "ĠktÃ³rej": 907,
      "Ġwsp": 908,
      "dar": 909,
      "ĠgÅĤo": 910,
      "Ġzgo": 911,
      "ĠWy": 912,
      "Ġnr": 913,
      "ĠKa": 914,
      "twa": 915,
      "ciÄħ": 916,
      "rzÄħd": 917,
      "owane": 918,
      "ĠzwiÄħ": 919,
      "ĠBo": 920,
      "ÅĤowie": 921,
      "ĠTo": 922,
      "szo": 923,
      "stem": 924,
      "Ġal": 925,
      "Å¼eli": 926,
      "stwa": 927,
      "Ġjednak": 928,
      "tegoria": 929,
      "ĠrozporzÄħ": 930,
      "ĠtakÅ¼e": 931,
      "Ġ20": 932,
      "ĠkrÃ³": 933,
      "ĠniÅ¼": 934,
      "Ġszcze": 935,
      "kach": 936,
      "Ġmia": 937,
      "se": 938,
      "stÄĻpu": 939,
      "ÅĤon": 940,
      "âĢĵ": 941,
      "ĠEuro": 942,
      "Ġpodsta": 943,
      "Ġstanowi": 944,
      "Kategoria": 945,
      "bra": 946,
      "Ġop": 947,
      "pej": 948,
      "dÅĤ": 949,
      "Ã³j": 950,
      "nku": 951,
      "Ġsu": 952,
      "ĠdotyczÄħ": 953,
      "ĠcaÅĤ": 954,
      "ral": 955,
      "trz": 956,
      "Ġuwa": 957,
      "ĠrÃ³wnie": 958,
      "kiej": 959,
      "ĠÅĤa": 960,
      "Ġar": 961,
      "ĠbyÅĤa": 962,
      "ĠrÄĻ": 963,
      "im": 964,
      "cych": 965,
      "ĠktÃ³rym": 966,
      "dzenie": 967,
      "Ġpie": 968,
      "czu": 969,
      "ĠKomis": 970,
      "nans": 971,
      "szej": 972,
      "Ġtrze": 973,
      "skim": 974,
      "ĠjÄħ": 975,
      "wsze": 976,
      "liwo": 977,
      "tych": 978,
      "wania": 979,
      "mÃ³w": 980,
      "nem": 981,
      "ali": 982,
      "miÄĻ": 983,
      "cej": 984,
      "gÃ³l": 985,
      "ĠkaÅ¼": 986,
      "Ġchwi": 987,
      "ĠktÃ³ra": 988,
      "strze": 989,
      "ĠmiÄĻdzy": 990,
      "Ġtam": 991,
      "Ġspos": 992,
      "rzÄĻ": 993,
      "ste": 994,
      "kow": 995,
      "10": 996,
      "dnia": 997,
      "wet": 998,
      "ĠrÃ³wnieÅ¼": 999,
      "stÄħ": 1000,
      "chodzi": 1001,
      "Ġpol": 1002,
      "ii": 1003,
      "ĠzÅĤo": 1004,
      "ĠDo": 1005,
      "szÄĻ": 1006,
      "daw": 1007,
      "gÅĤ": 1008,
      "now": 1009,
      "chy": 1010,
      "Ġsze": 1011,
      "nÃ³w": 1012,
      "aÅĤem": 1013,
      "Ġzd": 1014,
      "unk": 1015,
      "spodar": 1016,
      "Ġon": 1017,
      "Ġok": 1018,
      "waÄĩ": 1019,
      "dno": 1020,
      "Ġprzypad": 1021,
      "ciw": 1022,
      "lnoÅĽci": 1023,
      "stawi": 1024,
      "Ġwiel": 1025,
      "Ġsamo": 1026,
      "Ġpla": 1027,
      "Ġprodu": 1028,
      "Ġru": 1029,
      "ĠMo": 1030,
      "oba": 1031,
      "ĠczÅĤon": 1032,
      "stu": 1033,
      "Ġsam": 1034,
      "szych": 1035,
      "pÅĤy": 1036,
      "Ġwnio": 1037,
      "pro": 1038,
      "âĢŀ": 1039,
      "tach": 1040,
      "czenie": 1041,
      "ĠwÅĤaÅĽci": 1042,
      "Ġbud": 1043,
      "Ġzie": 1044,
      "Ġpowo": 1045,
      "Ġprowa": 1046,
      "dÄĻ": 1047,
      "tek": 1048,
      "Ġ10": 1049,
      "nek": 1050,
      "Ġgra": 1051,
      "ĠdÅĤu": 1052,
      "Ã³d": 1053,
      "cznego": 1054,
      "szka": 1055,
      "Ġpre": 1056,
      "nistra": 1057,
      "nikÃ³w": 1058,
      "tnie": 1059,
      "Ġfor": 1060,
      "--": 1061,
      "wÄħ": 1062,
      "cyz": 1063,
      "Ġ18": 1064,
      "lne": 1065,
      "ĠbÄĻd": 1066,
      "Ġgdzie": 1067,
      "ĠmoÅ¼na": 1068,
      "Ġpowi": 1069,
      "ezpie": 1070,
      "Ġstra": 1071,
      "nienia": 1072,
      "Ġnawet": 1073,
      "Â§": 1074,
      "zacji": 1075,
      "niÄħ": 1076,
      "Ġpubli": 1077,
      "¹rÃ³d": 1078,
      "ur": 1079,
      "jem": 1080,
      "ciu": 1081,
      "ĠuÅ¼y": 1082,
      "Ġpoli": 1083,
      "Ġwoj": 1084,
      "ÅĽcia": 1085,
      "ktÃ³": 1086,
      "Ġ12": 1087,
      "wu": 1088,
      "ĠPrze": 1089,
      "Ġpoda": 1090,
      "gro": 1091,
      "rem": 1092,
      "dÃ³w": 1093,
      "szego": 1094,
      "mieniu": 1095,
      "ĠÅ¹rÃ³d": 1096,
      "Ġznaj": 1097,
      "Ġnim": 1098,
      "ĠAle": 1099,
      "Ġ15": 1100,
      "ÅĦstwa": 1101,
      "mier": 1102,
      "Ġzw": 1103,
      "bior": 1104,
      "Ġpew": 1105,
      "ÅĽl": 1106,
      "Ġinforma": 1107,
      "Ġsprawie": 1108,
      "Ġpomo": 1109,
      "ÅĤÃ³w": 1110,
      "Ġzakre": 1111,
      "12": 1112,
      "ĠpaÅĦstwa": 1113,
      "ĠobowiÄħ": 1114,
      "od": 1115,
      "niku": 1116,
      "Ġniez": 1117,
      "Ġprac": 1118,
      "glÄĻd": 1119,
      "zie": 1120,
      "II": 1121,
      "ĠokreÅĽlo": 1122,
      "chro": 1123,
      "Ġim": 1124,
      "tku": 1125,
      "scy": 1126,
      "Ġbie": 1127,
      "tar": 1128,
      "czej": 1129,
      "ĠczÅĤowie": 1130,
      "chu": 1131,
      "Ġser": 1132,
      "gÄĻ": 1133,
      "Ġ13": 1134,
      "szcza": 1135,
      "ĠpiÄĻ": 1136,
      "wem": 1137,
      "tÄĻ": 1138,
      "ĠEuropej": 1139,
      "ĠrozporzÄħdzenia": 1140,
      "Ġzasa": 1141,
      "Ġani": 1142,
      "stwo": 1143,
      "201": 1144,
      "ĠÅ¼ycie": 1145,
      "Ġtra": 1146,
      "lnych": 1147,
      "Ġ199": 1148,
      "Ġkiedy": 1149,
      "kÅĤ": 1150,
      "ĠrÃ³Å¼": 1151,
      "tÄħ": 1152,
      "ge": 1153,
      "Ġbra": 1154,
      "Ġalbo": 1155,
      "Ġfinans": 1156,
      "Ġszko": 1157,
      "fe": 1158,
      "Ġspraw": 1159,
      "Ġkil": 1160,
      "kami": 1161,
      "ha": 1162,
      "ĠwiÄĻc": 1163,
      "zi": 1164,
      "ĠÅ¼a": 1165,
      "czyÄĩ": 1166,
      "jÄħcego": 1167,
      "pÅĤa": 1168,
      "Ġnau": 1169,
      "sÅĤ": 1170,
      "pew": 1171,
      "Nie": 1172,
      "tki": 1173,
      "szym": 1174,
      "ĠwÅĤas": 1175,
      "owany": 1176,
      "Art": 1177,
      "Ġswoje": 1178,
      "Ġga": 1179,
      "bezpie": 1180,
      "stru": 1181,
      "Ġ14": 1182,
      "Ã©j": 1183,
      "rw": 1184,
      "gÅĤo": 1185,
      "Ġbrz": 1186,
      "Ġpy": 1187,
      "Ġczas": 1188,
      "zo": 1189,
      "Ġinnych": 1190,
      "ĠV": 1191,
      "Ġzawo": 1192,
      "mniej": 1193,
      "res": 1194,
      "pisa": 1195,
      "grani": 1196,
      "dÅĤu": 1197,
      "szu": 1198,
      "Ġ16": 1199,
      "11": 1200,
      "Ġmusi": 1201,
      "dziej": 1202,
      "ĠiÅ¼": 1203,
      "ÅĽciÄħ": 1204,
      "ĠÅ¹rÃ³dÅĤo": 1205,
      "dzia": 1206,
      "âĢĿ.": 1207,
      "Ġzmia": 1208,
      "Ġau": 1209,
      "mina": 1210,
      "waÅ¼": 1211,
      "niÄĩ": 1212,
      "ĠÅļ": 1213,
      "Ġlat": 1214,
      "ĠMar": 1215,
      "Ġgospodar": 1216,
      "czego": 1217,
      "Ġoczy": 1218,
      "ĠsposÃ³b": 1219,
      "Ġsi": 1220,
      "Ġpracy": 1221,
      "ÅĽwia": 1222,
      "aÅĤe": 1223,
      "sia": 1224,
      "Za": 1225,
      "Ġsystem": 1226,
      "lenia": 1227,
      "dziÄĩ": 1228,
      "Ã³Åº": 1229,
      "Ġprzeciw": 1230,
      "Ġosta": 1231,
      "mienia": 1232,
      "Ġkom": 1233,
      "Ġoko": 1234,
      "Ġzda": 1235,
      "Ġposta": 1236,
      "ĠciÄĻ": 1237,
      "Å¼enia": 1238,
      "ĠnaleÅ¼y": 1239,
      "muje": 1240,
      "Ġpani": 1241,
      "tra": 1242,
      "ĠmÅĤo": 1243,
      "dÄħ": 1244,
      "sem": 1245,
      "dnio": 1246,
      "kra": 1247,
      "ĠCo": 1248,
      "wego": 1249,
      "liÅĽmy": 1250,
      "bym": 1251,
      "ĠpeÅĤ": 1252,
      "ĠmajÄħ": 1253,
      "owanych": 1254,
      "rÃ³ci": 1255,
      "ĠbyÅĤy": 1256,
      "tej": 1257,
      "Ġsza": 1258,
      "Ġad": 1259,
      "Ġpotrze": 1260,
      "ĠCzy": 1261,
      "Ġwyso": 1262,
      "tru": 1263,
      "kona": 1264,
      "czny": 1265,
      "Do": 1266,
      "sek": 1267,
      "Ġdecyz": 1268,
      "Ġzosta": 1269,
      "Ġstosu": 1270,
      "bywa": 1271,
      "Ġorgani": 1272,
      "nister": 1273,
      "Ġwszystkich": 1274,
      "Ġnich": 1275,
      "kaz": 1276,
      "ĠSa": 1277,
      "lem": 1278,
      "dziÅĤ": 1279,
      "nosi": 1280,
      "ĠÅĽwie": 1281,
      "lnego": 1282,
      "kry": 1283,
      "18": 1284,
      "ĠbÄĻdÄħ": 1285,
      "Ġtwo": 1286,
      "ĠspoÅĤe": 1287,
      "wz": 1288,
      "13": 1289,
      "Ġotrzy": 1290,
      "Ġ17": 1291,
      "Ġproje": 1292,
      "ich": 1293,
      "dÅº": 1294,
      "mach": 1295,
      "čĊ": 1296,
      "zku": 1297,
      "Ġwszystko": 1298,
      "Ġpozo": 1299,
      "ĠWie": 1300,
      "ĠmiaÅĤ": 1301,
      "ĠktÃ³rego": 1302,
      "ntro": 1303,
      "stytu": 1304,
      "lega": 1305,
      "ĠLe": 1306,
      "ĠtÄĻ": 1307,
      "tora": 1308,
      "15": 1309,
      "ng": 1310,
      "ĠzostaÅĤ": 1311,
      "Ġdoda": 1312,
      "miast": 1313,
      "Ġkar": 1314,
      "Je": 1315,
      "Ġlecz": 1316,
      "ĠpostÄĻp": 1317,
      "tro": 1318,
      "ĠsÅĤ": 1319,
      "ĠIn": 1320,
      "Ġrodzi": 1321,
      "skÄħ": 1322,
      "koÅĦ": 1323,
      "logi": 1324,
      "Ġmar": 1325,
      "wali": 1326,
      "Ġprawa": 1327,
      "maga": 1328,
      "Ġosob": 1329,
      ".,": 1330,
      "Ġnas": 1331,
      "Ġrzeczy": 1332,
      "ĠSta": 1333,
      "ĠTa": 1334,
      "Ġnaz": 1335,
      "ĠosÃ³b": 1336,
      "ĠRoz": 1337,
      "ĠpÅĤa": 1338,
      "Ġniego": 1339,
      "Ġprzypadku": 1340,
      "czych": 1341,
      "ĠmogÄħ": 1342,
      "ĠRe": 1343,
      "ene": 1344,
      "Ġproce": 1345,
      "Ġele": 1346,
      "ĠĊĊĠĊĊ": 1347,
      "kÅĤada": 1348,
      "tym": 1349,
      "Prze": 1350,
      "czyÅĤ": 1351,
      "ĠkoÅĦ": 1352,
      "lÄħ": 1353,
      "row": 1354,
      "dem": 1355,
      "tka": 1356,
      "cÄĻ": 1357,
      "fa": 1358,
      "Å¼ej": 1359,
      "rzo": 1360,
      "nicy": 1361,
      "Ġnic": 1362,
      "Ġsku": 1363,
      "ĠSz": 1364,
      "Ġwprowa": 1365,
      "Ġwska": 1366,
      "Ġwarun": 1367,
      "di": 1368,
      "ĠjeÅ¼eli": 1369,
      "Ġpodstawie": 1370,
      "ĠpÃ³ÅĤ": 1371,
      "Wy": 1372,
      "rzenie": 1373,
      "Ġfunk": 1374,
      "jaz": 1375,
      "cjÄħ": 1376,
      "Ġzro": 1377,
      "kro": 1378,
      "ĠAu": 1379,
      "14": 1380,
      "Ġzach": 1381,
      "liwoÅĽci": 1382,
      "arÃ³w": 1383,
      "Ġum": 1384,
      "nowa": 1385,
      "Ġcy": 1386,
      "ĠPro": 1387,
      "ĠciÄħ": 1388,
      "ÅĦski": 1389,
      "ĠmÄĻ": 1390,
      "âĢĿ,": 1391,
      "dzieÄĩ": 1392,
      "Ġsiebie": 1393,
      "čĊč": 1394,
      "przy": 1395,
      "Ġtrzy": 1396,
      "ner": 1397,
      "Ġteraz": 1398,
      "ĠÅ¼eby": 1399,
      "Ġwarto": 1400,
      "ĠWi": 1401,
      "17": 1402,
      "Ġchci": 1403,
      "ĠÅ¼o": 1404,
      "Ġzwy": 1405,
      "ĠÅ»": 1406,
      "ĠprzedsiÄĻ": 1407,
      "sztaÅĤ": 1408,
      "ĠwiÄĻk": 1409,
      "Ġgro": 1410,
      "wiÄĻk": 1411,
      "Ġfa": 1412,
      "Ġszy": 1413,
      "stos": 1414,
      "Ġstos": 1415,
      "Ġzapew": 1416,
      "wÄĻ": 1417,
      "aÅĤÄħ": 1418,
      "Ġpana": 1419,
      "ten": 1420,
      "czeÅĦ": 1421,
      "ĠmÃ³": 1422,
      "Ġwszystkie": 1423,
      "ĠktÃ³rzy": 1424,
      "duje": 1425,
      "jedno": 1426,
      "Ġpyta": 1427,
      "Ġjakie": 1428,
      "Ġludzi": 1429,
      "ĠzaÅĽ": 1430,
      "gdy": 1431,
      "trze": 1432,
      "Ġoj": 1433,
      "ĠLi": 1434,
      "Ġpowin": 1435,
      "16": 1436,
      "Ġjednost": 1437,
      "gen": 1438,
      "czone": 1439,
      "Ġkolej": 1440,
      "Ġter": 1441,
      "Ġzgodnie": 1442,
      "rzysta": 1443,
      "stÄħpi": 1444,
      "Ġochro": 1445,
      "Ġkto": 1446,
      "ĠOd": 1447,
      "ĠPra": 1448,
      "tel": 1449,
      "Ġkobie": 1450,
      "ĠTe": 1451,
      "ĠX": 1452,
      "ĠpÃ³Åº": 1453,
      "Ġhi": 1454,
      "Ro": 1455,
      "ĠwspÃ³ÅĤ": 1456,
      "cznoÅĽci": 1457,
      "Ġwsze": 1458,
      "Ã³Å¼": 1459,
      "sÃ³w": 1460,
      "Ġlicz": 1461,
      "Ġkraj": 1462,
      "dania": 1463,
      "ĠczÄĻÅĽci": 1464,
      "chni": 1465,
      "Ġkonie": 1466,
      "Ġwoje": 1467,
      "ĠWo": 1468,
      "200": 1469,
      "Ġcha": 1470,
      "Ġpar": 1471,
      "tyw": 1472,
      "fika": 1473,
      "par": 1474,
      "cyjnych": 1475,
      "ĠUnii": 1476,
      "Ġmieszka": 1477,
      "pow": 1478,
      "jÄħcej": 1479,
      "ĠÅĽwiad": 1480,
      "ĠÅĽwiat": 1481,
      "kaza": 1482,
      "ĠWar": 1483,
      "ĠKomisji": 1484,
      "Ġwykona": 1485,
      "ĠszczegÃ³l": 1486,
      "Ġws": 1487,
      "mienio": 1488,
      "Ġzakresie": 1489,
      "ĠprzyjÄĻ": 1490,
      "th": 1491,
      "nÄħÄĩ": 1492,
      "pre": 1493,
      "rywa": 1494,
      "ĠBy": 1495,
      "lnej": 1496,
      "lenie": 1497,
      "Ġpierwszy": 1498,
      "dow": 1499,
      "Ġprogra": 1500,
      "nad": 1501,
      "stra": 1502,
      "kumen": 1503,
      "owaniu": 1504,
      "ĠPrzy": 1505,
      "Ġak": 1506,
      "Å¼enie": 1507,
      "ĠLu": 1508,
      "wiera": 1509,
      "Ġdyre": 1510,
      "Ġtru": 1511,
      "Ġcelu": 1512,
      "szenia": 1513,
      "ktÃ³w": 1514,
      "cego": 1515,
      "prawie": 1516,
      "ĠczÅĤonkow": 1517,
      "Ġrzecz": 1518,
      "ren": 1519,
      "ĠzwiÄħza": 1520,
      "min": 1521,
      "ĠgÅĤÃ³w": 1522,
      "Ġzdo": 1523,
      "pod": 1524,
      "Ġpoprze": 1525,
      "Ġniej": 1526,
      "wen": 1527,
      "leÅ¼": 1528,
      "ĠÅĽmier": 1529,
      "Ġkosz": 1530,
      "ĠwiÄĻcej": 1531,
      "chodzÄħ": 1532,
      "stro": 1533,
      "Ġpodob": 1534,
      "ĠÅĽrodkÃ³w": 1535,
      "be": 1536,
      "os": 1537,
      "ÅĽwiad": 1538,
      "50": 1539,
      "Ġdrugie": 1540,
      "Ġse": 1541,
      "cki": 1542,
      "cznym": 1543,
      "tery": 1544,
      "ktÃ³ry": 1545,
      "nienie": 1546,
      "kar": 1547,
      "Ġkontro": 1548,
      "pera": 1549,
      "pisy": 1550,
      "lar": 1551,
      "ĠpoÅĽ": 1552,
      "Ġkry": 1553,
      "Ġchwili": 1554,
      "21": 1555,
      "Ġlit": 1556,
      "Ġ[": 1557,
      "owarzy": 1558,
      "wÃ³j": 1559,
      "Ġprzedstawi": 1560,
      "pada": 1561,
      "Ġuzna": 1562,
      "ĠÅ¼ad": 1563,
      "Ġsprze": 1564,
      "resz": 1565,
      "ministra": 1566,
      "undu": 1567,
      "ĠjÄĻ": 1568,
      "Ġzam": 1569,
      "ciÄĻ": 1570,
      "Ġist": 1571,
      "ĠsÅĤuÅ¼": 1572,
      "szÅĤo": 1573,
      "nÄĻÅĤa": 1574,
      "tury": 1575,
      "Ġkla": 1576,
      "Ġreali": 1577,
      "soby": 1578,
      "got": 1579,
      "Ġona": 1580,
      "ĠprzedsiÄĻbior": 1581,
      "dli": 1582,
      "Ġzawsze": 1583,
      "Ġsko": 1584,
      "Ġgodzi": 1585,
      "Ġjaki": 1586,
      "Ġdwa": 1587,
      "cznÄħ": 1588,
      "ĠÅ¼ycia": 1589,
      "Ko": 1590,
      "30": 1591,
      "ĠrzekÅĤ": 1592,
      "leg": 1593,
      "lny": 1594,
      "tua": 1595,
      "biera": 1596,
      "Ġjedy": 1597,
      "22": 1598,
      "Ġmoje": 1599,
      "niesie": 1600,
      "daÅĤ": 1601,
      "UE": 1602,
      "Ġtran": 1603,
      "ĠksiÄĻ": 1604,
      "tr": 1605,
      "Ġodno": 1606,
      "pli": 1607,
      "ĠksiÄħ": 1608,
      "ĠÅ¼": 1609,
      "he": 1610,
      "wzglÄĻd": 1611,
      "Ġobec": 1612,
      "wych": 1613,
      "nach": 1614,
      "ĠnastÄĻpu": 1615,
      "Ġwyra": 1616,
      "Ġtwa": 1617,
      "gÄħ": 1618,
      "czna": 1619,
      "kowa": 1620,
      "ĠpoczÄħ": 1621,
      "ĠbudÅ¼e": 1622,
      "Ġprawo": 1623,
      "wej": 1624,
      "Ġtakie": 1625,
      "ĠmÃ³gÅĤ": 1626,
      "niÅĤ": 1627,
      "daÅĦ": 1628,
      "dzÄĻ": 1629,
      "Ġzm": 1630,
      "ti": 1631,
      "Ġkilka": 1632,
      "24": 1633,
      "jo": 1634,
      "tami": 1635,
      "nÄĻtrz": 1636,
      "Ġtro": 1637,
      "jÄħcym": 1638,
      "Ġnam": 1639,
      "Ġposiada": 1640,
      "Ġoce": 1641,
      "ĠRady": 1642,
      "Ġkrzy": 1643,
      "ĠusÅĤu": 1644,
      "rzenia": 1645,
      "Ġzamie": 1646,
      "âĢľ": 1647,
      "Ġczasu": 1648,
      "Ġdokumen": 1649,
      "ĠTy": 1650,
      "ĠBa": 1651,
      "Ġprzewo": 1652,
      "gle": 1653,
      "Pa": 1654,
      "Ġodpowiedzi": 1655,
      "ĠcaÅĤy": 1656,
      "sÅĤy": 1657,
      "Ġozna": 1658,
      "25": 1659,
      "lan": 1660,
      "Ġinte": 1661,
      "kowi": 1662,
      "Ġstrony": 1663,
      "Ġek": 1664,
      "mienie": 1665,
      "ĠaÅ¼": 1666,
      "ĠĠĠ": 1667,
      "Ġpom": 1668,
      "Ġzu": 1669,
      "ÅĦstwo": 1670,
      "Ġstar": 1671,
      "bÄĻ": 1672,
      "wnÄĻtrz": 1673,
      "ho": 1674,
      "ĠjeÅĽli": 1675,
      "Ġzwie": 1676,
      "lach": 1677,
      "23": 1678,
      "lnie": 1679,
      "mian": 1680,
      "Ġspe": 1681,
      "Ġskar": 1682,
      "wanie": 1683,
      "Ġdaw": 1684,
      "daÄĩ": 1685,
      "Ġpodmio": 1686,
      "szedÅĤ": 1687,
      "liz": 1688,
      "Ġpoko": 1689,
      "000": 1690,
      "Ġwymaga": 1691,
      "Ġdzieci": 1692,
      "ĠzostaÅĤy": 1693,
      "Ġwyro": 1694,
      "dÅĤug": 1695,
      "Ġjeden": 1696,
      "teri": 1697,
      "Ġisto": 1698,
      "niewaÅ¼": 1699,
      "usz": 1700,
      "gna": 1701,
      "ĠwpÅĤy": 1702,
      "ĠmiÅĤo": 1703,
      "ĠCz": 1704,
      "ĠsÅĤo": 1705,
      "ĠcoÅĽ": 1706,
      "ĠĠĠĠĠĠĠĠ": 1707,
      "szaÅĤ": 1708,
      "Ġmiasta": 1709,
      "owÄĻ": 1710,
      "ĠchÅĤo": 1711,
      "raca": 1712,
      "ÅĽrÃ³d": 1713,
      "ĠpaÅĦstw": 1714,
      "Ġobro": 1715,
      "ÅĽmie": 1716,
      "ĠgÅĤos": 1717,
      "cach": 1718,
      "Ġczyn": 1719,
      "ĠnastÄĻp": 1720,
      "Ġide": 1721,
      "wiet": 1722,
      "Ġmiejsce": 1723,
      "ĊÂłĊÂł": 1724,
      "ĠkaÅ¼dy": 1725,
      "Ġinne": 1726,
      "Ġdomu": 1727,
      "Ġumie": 1728,
      "Ġuzy": 1729,
      "tne": 1730,
      "ĠTak": 1731,
      "Ġtem": 1732,
      "wiÄħza": 1733,
      "kcji": 1734,
      "and": 1735,
      "kazu": 1736,
      "obec": 1737,
      "Ġudzie": 1738,
      "Ġrozu": 1739,
      "ĠJu": 1740,
      "Ġprzepis": 1741,
      "siÅĤ": 1742,
      "Ġregu": 1743,
      "Ġpracow": 1744,
      "Ġmniej": 1745,
      "star": 1746,
      "Ġdni": 1747,
      "tyku": 1748,
      "ĠPan": 1749,
      "Ġpun": 1750,
      "bor": 1751,
      "Ġrodza": 1752,
      "koÅĽci": 1753,
      "ĠmyÅĽl": 1754,
      "Ġsytua": 1755,
      "west": 1756,
      "ĠBi": 1757,
      "Ġprzeprowa": 1758,
      "waÅĤa": 1759,
      "Ġobie": 1760,
      "xA": 1761,
      "ĠRze": 1762,
      "chi": 1763,
      "ogra": 1764,
      "nki": 1765,
      "Å¼yÄĩ": 1766,
      "jÄħcÄħ": 1767,
      "lnoÅĽÄĩ": 1768,
      "ĠÅģ": 1769,
      "Ġso": 1770,
      "sce": 1771,
      "et": 1772,
      "wym": 1773,
      "rzÄĻd": 1774,
      "ĠJak": 1775,
      "ÅĽnia": 1776,
      "jÄħca": 1777,
      "ĠÅĤ": 1778,
      "Ġho": 1779,
      "Ġbrzmieniu": 1780,
      "rach": 1781,
      "ber": 1782,
      "Ġwia": 1783,
      "----": 1784,
      "Ġjakby": 1785,
      "tkÃ³w": 1786,
      "Å¼yÅĤ": 1787,
      "Ġczu": 1788,
      "ment": 1789,
      "Ġadministra": 1790,
      "Ġdobrze": 1791,
      "ĠNi": 1792,
      "ĠÂ§": 1793,
      "ĠktÃ³rÄħ": 1794,
      "nictwa": 1795,
      "stan": 1796,
      "wane": 1797,
      "Ġcharak": 1798,
      "Ġopie": 1799,
      "Ġwiele": 1800,
      "ciÅĤ": 1801,
      "dziaÅĤa": 1802,
      "Ġot": 1803,
      "ĠpiÄĻk": 1804,
      "Ġdanych": 1805,
      "Ġwal": 1806,
      "one": 1807,
      "Ġobo": 1808,
      "glÄħ": 1809,
      "ĠÅĤÄħ": 1810,
      "Ġ30": 1811,
      "rtu": 1812,
      "Ġograni": 1813,
      "cyjne": 1814,
      "Ġcu": 1815,
      "Ġkre": 1816,
      "Ġdalej": 1817,
      "try": 1818,
      "ĠFran": 1819,
      "ĠjÄĻzy": 1820,
      "Ġzawar": 1821,
      "ĊĊĠ": 1822,
      "pom": 1823,
      "dowa": 1824,
      "ĠszczÄĻ": 1825,
      "dnoÅĽci": 1826,
      "tedy": 1827,
      "moÅ¼": 1828,
      "Ġpozy": 1829,
      "wÃ³r": 1830,
      "26": 1831,
      "danie": 1832,
      "Ġlatach": 1833,
      "gnie": 1834,
      "ĠspÃ³ÅĤ": 1835,
      "aru": 1836,
      "ĠniÄħ": 1837,
      "owiÄħza": 1838,
      "ĠzostaÅĤa": 1839,
      "Ġzmie": 1840,
      "wÃ³dz": 1841,
      "bro": 1842,
      "ÅĦskiego": 1843,
      "kom": 1844,
      "owiem": 1845,
      "woz": 1846,
      "ĠobjÄĻ": 1847,
      "Ġinter": 1848,
      "nta": 1849,
      "ĠzwiÄħzku": 1850,
      "ĠchoÄĩ": 1851,
      "moÅĽci": 1852,
      "noc": 1853,
      "Ġnigdy": 1854,
      "Ġwynika": 1855,
      "Ġosoby": 1856,
      "Ġchce": 1857,
      "lnym": 1858,
      "Ġdecyzji": 1859,
      "Ġobej": 1860,
      "lni": 1861,
      "Ġwzgl": 1862,
      "29": 1863,
      "ĠDa": 1864,
      "czeniu": 1865,
      "Ġwymienio": 1866,
      "om": 1867,
      "ĠdziaÅĤalnoÅĽci": 1868,
      "ĠWarsza": 1869,
      "Ġkieru": 1870,
      "Ġprzewi": 1871,
      "Ġinformacji": 1872,
      "mentu": 1873,
      "40": 1874,
      "raj": 1875,
      "Ġtrzeba": 1876,
      "ÂłÂłÂł": 1877,
      "ĠwÅĤaÅĽnie": 1878,
      "Ġczasie": 1879,
      "spoli": 1880,
      "iÄĻku": 1881,
      "ĠPod": 1882,
      "ĠÅº": 1883,
      "Ġgdyby": 1884,
      "ĠzÅĤ": 1885,
      "ĠwspÃ³l": 1886,
      "Ġprzedmio": 1887,
      "szczÄĻ": 1888,
      "27": 1889,
      "Ġpropo": 1890,
      "pca": 1891,
      "strzy": 1892,
      "czeÅĦstwa": 1893,
      "Ġustalo": 1894,
      "tow": 1895,
      "Åºdzie": 1896,
      "ĠrzÄħd": 1897,
      "ĠdziaÅĤania": 1898,
      "ciÄħg": 1899,
      "rom": 1900,
      "ĠEuropejskiej": 1901,
      "cjona": 1902,
      "Ġniniej": 1903,
      "ĠpÃ³Åºniej": 1904,
      "28": 1905,
      "Ġpomocy": 1906,
      "ĠudziaÅĤ": 1907,
      "Ġ*": 1908,
      "czyna": 1909,
      "rzÄħdza": 1910,
      "Ġwyraz": 1911,
      "Ġpopraw": 1912,
      "chem": 1913,
      "laz": 1914,
      "Ġokoli": 1915,
      "ĠmyÅĽli": 1916,
      "Ġprzyj": 1917,
      "Ġsek": 1918,
      "ego": 1919,
      "Åļ": 1920,
      "ul": 1921,
      "Ġcel": 1922,
      "ĠsÅĤowa": 1923,
      "ĠsÅĤy": 1924,
      "Ġwykony": 1925,
      "Ġof": 1926,
      "ktÃ³rych": 1927,
      "ĠobowiÄħz": 1928,
      "ryka": 1929,
      "ĠpoÅĤo": 1930,
      "ĠsobÄħ": 1931,
      "Ġzawiera": 1932,
      "waÅĤy": 1933,
      "taj": 1934,
      "ĠPar": 1935,
      "ĠdotyczÄħce": 1936,
      "aÅĤÄħcz": 1937,
      "dniej": 1938,
      "nami": 1939,
      "Ġstycz": 1940,
      "ĠwyÅĤÄħ": 1941,
      "Ġpanie": 1942,
      "ĠwÄħ": 1943,
      "Ã³g": 1944,
      "rybu": 1945,
      "Ġofi": 1946,
      "kol": 1947,
      "roni": 1948,
      "Ġpierwsze": 1949,
      "Ġ25": 1950,
      "Äħc": 1951,
      "ciel": 1952,
      "Ġtytu": 1953,
      "Ġopi": 1954,
      "bar": 1955,
      "Ġwzro": 1956,
      "Ġpodczas": 1957,
      "Ġpotem": 1958,
      "dne": 1959,
      "cenia": 1960,
      "ĠII": 1961,
      "naj": 1962,
      "tera": 1963,
      "Å¼u": 1964,
      "niz": 1965,
      "szÅĤa": 1966,
      "czonych": 1967,
      "tom": 1968,
      "szko": 1969,
      "ciem": 1970,
      "Ġupraw": 1971,
      "Ġpolity": 1972,
      "ĠNo": 1973,
      "nuje": 1974,
      "trzyma": 1975,
      "ĠgÃ³": 1976,
      "pnia": 1977,
      "cyjnego": 1978,
      "Ġzastos": 1979,
      "ony": 1980,
      "chÄĻ": 1981,
      "wyÅ¼": 1982,
      "eÅĤ": 1983,
      "dach": 1984,
      "Ġwieku": 1985,
      "Ġziemi": 1986,
      "dro": 1987,
      "nne": 1988,
      "Ġdrugi": 1989,
      "Ġnu": 1990,
      "ĠDz": 1991,
      "Ġczym": 1992,
      "Roz": 1993,
      "Ġkwo": 1994,
      "Ġbardziej": 1995,
      "ntÃ³w": 1996,
      "ĠogÅĤo": 1997,
      "ĠGo": 1998,
      "rozu": 1999,
      "Ġpozio": 2000,
      "iÄĻkujÄĻ": 2001,
      "Ġauto": 2002,
      "szcz": 2003,
      "sÅĤaw": 2004,
      "tomiast": 2005,
      "is": 2006,
      "ÅĤÄĻ": 2007,
      "ĠpostÄĻpowania": 2008,
      "rzÄħdu": 2009,
      "Ġtermi": 2010,
      "Ġelekt": 2011,
      "staÅĤ": 2012,
      "Ġsamy": 2013,
      "Ġloka": 2014,
      "redni": 2015,
      "szenie": 2016,
      "ÅĽla": 2017,
      "us": 2018,
      "tacji": 2019,
      "ĠprzepisÃ³w": 2020,
      "Ġdyrekty": 2021,
      "ĠwaÅ¼": 2022,
      "Pro": 2023,
      "der": 2024,
      "czaj": 2025,
      "mat": 2026,
      "Ġrozpa": 2027,
      "ĠprÃ³": 2028,
      "iÄħ": 2029,
      "Ġtaki": 2030,
      "Ġkro": 2031,
      "ĠspeÅĤ": 2032,
      "Ġuro": 2033,
      "Ġmam": 2034,
      "wÃ³ch": 2035,
      "ĠtÅĤu": 2036,
      "Å»": 2037,
      "Ġorganiza": 2038,
      "twie": 2039,
      "ÅĤam": 2040,
      "ĠogÃ³l": 2041,
      "westy": 2042,
      "ĊĠĊ": 2043,
      "Ġpierw": 2044,
      "owaÅ¼": 2045,
      "Ġpodej": 2046,
      "Ġ11": 2047,
      "ĠpoÅĤu": 2048,
      "Ġochrony": 2049,
      "ĠchciaÅĤ": 2050,
      "am": 2051,
      "Ġstwier": 2052,
      "Ġpoza": 2053,
      "wiek": 2054,
      "Ġchodzi": 2055,
      "Ġczego": 2056,
      "ckiego": 2057,
      "Ġstu": 2058,
      "dzeniu": 2059,
      "ĠodnoÅĽ": 2060,
      "Ġone": 2061,
      "sji": 2062,
      "kwi": 2063,
      "Ġmiejsc": 2064,
      "Ġprzygot": 2065,
      "cem": 2066,
      "ĠczÄĻsto": 2067,
      "Ġ23": 2068,
      "biÄĩ": 2069,
      "ĠdÅĤugo": 2070,
      "Ġczar": 2071,
      "chaÅĤ": 2072,
      "czony": 2073,
      "Ġpr": 2074,
      "obacz": 2075,
      "kolwiek": 2076,
      "ĠAn": 2077,
      "ĠgÅĤÄĻ": 2078,
      "ĠWe": 2079,
      "Ġtowarzy": 2080,
      "Ġucze": 2081,
      "piero": 2082,
      "Ġwszel": 2083,
      "Ġsztu": 2084,
      "Ġspecja": 2085,
      "Ġzale": 2086,
      "rucho": 2087,
      "ĠkrÃ³l": 2088,
      "cieÅ¼": 2089,
      "szczegÃ³l": 2090,
      "Ġkraju": 2091,
      "ĠwartoÅĽci": 2092,
      "tkiem": 2093,
      "Ġtr": 2094,
      "owaÅĤa": 2095,
      "ĠNaj": 2096,
      "conych": 2097,
      "Ġswego": 2098,
      "stor": 2099,
      "Ġtakich": 2100,
      "Ġzaj": 2101,
      "Ġprzyzna": 2102,
      "roz": 2103,
      "rytor": 2104,
      "ĠGdy": 2105,
      "Ġ24": 2106,
      "Ġbezpie": 2107,
      "nowie": 2108,
      "ĠczÄĻÅĽÄĩ": 2109,
      "ĠwojewÃ³dz": 2110,
      "gÅĤa": 2111,
      "gar": 2112,
      "Ġdwo": 2113,
      "cym": 2114,
      "lna": 2115,
      "zen": 2116,
      "\",": 2117,
      "Ġprzyja": 2118,
      "ĠmÃ³j": 2119,
      "ĠJest": 2120,
      "gii": 2121,
      "ĠmiaÅĤa": 2122,
      "Ġwspo": 2123,
      "ĠdwÃ³ch": 2124,
      "kle": 2125,
      "czki": 2126,
      "pospoli": 2127,
      "ser": 2128,
      "Ġzob": 2129,
      "liwoÅĽÄĩ": 2130,
      "bÄħ": 2131,
      "Ġobsz": 2132,
      "Ġdniem": 2133,
      "Åģ": 2134,
      "Ġprzej": 2135,
      "ĠczÅĤowieka": 2136,
      "ĠksiÄħÅ¼": 2137,
      "Ġstycznia": 2138,
      "siÄĻcy": 2139,
      "Ġprzezna": 2140,
      "ĊÂłĊ": 2141,
      "cka": 2142,
      "Ġan": 2143,
      "tnoÅĽci": 2144,
      "mawia": 2145,
      "nowu": 2146,
      "ĠdzieÅĦ": 2147,
      "Ġzmiany": 2148,
      "ĠAl": 2149,
      "ÅĤnie": 2150,
      "szczy": 2151,
      "ble": 2152,
      "Ġzwa": 2153,
      "bia": 2154,
      "Ġregi": 2155,
      "Ġistnie": 2156,
      "Ġha": 2157,
      "narod": 2158,
      "NI": 2159,
      "Ġwrze": 2160,
      "Ġrzu": 2161,
      "ĠzupeÅĤ": 2162,
      "Ġswoich": 2163,
      "39": 2164,
      "Ġeg": 2165,
      "ĠodnoÅĽniku": 2166,
      "ĠskÅĤad": 2167,
      "sprawie": 2168,
      "ĠKon": 2169,
      "gÃ³w": 2170,
      "ĠponiewaÅ¼": 2171,
      "zasa": 2172,
      "ĠPolsce": 2173,
      "ĠKomisja": 2174,
      "ĠczÅĤowiek": 2175,
      "Ġinstytu": 2176,
      "misji": 2177,
      "tio": 2178,
      "ĠwzglÄĻd": 2179,
      "Ġgrudnia": 2180,
      "Ġkwest": 2181,
      "ĠpÅĤy": 2182,
      "Ġludz": 2183,
      "Przy": 2184,
      "ĠWa": 2185,
      "ĠuwzglÄĻd": 2186,
      "stw": 2187,
      "rwca": 2188,
      "Ġniepo": 2189,
      "Ġterytor": 2190,
      "ĠSe": 2191,
      "owymi": 2192,
      "spek": 2193,
      "czes": 2194,
      "Ġorze": 2195,
      "moÅ¼li": 2196,
      "Ġdrodze": 2197,
      "Ġdom": 2198,
      "tnych": 2199,
      "Ġwobec": 2200,
      "Ġener": 2201,
      "lep": 2202,
      "Ġwtedy": 2203,
      "Ġwyzna": 2204,
      "ĠwÅĤo": 2205,
      "Ġdowo": 2206,
      "publi": 2207,
      "Ġdocho": 2208,
      "iÄĻk": 2209,
      "Ġwniosek": 2210,
      "Åºdzier": 2211,
      "Ġprawie": 2212,
      "ĠciÄĻÅ¼": 2213,
      "Ġdosta": 2214,
      "szech": 2215,
      "Ġ27": 2216,
      "Ġzapy": 2217,
      "ium": 2218,
      "ĠDla": 2219,
      "Â»": 2220,
      "tyczne": 2221,
      "ĠPolski": 2222,
      "ĠwzglÄĻ": 2223,
      "man": 2224,
      "Ġdokona": 2225,
      "kura": 2226,
      "Ġjestem": 2227,
      "Ġwraz": 2228,
      "ĠwÄĻ": 2229,
      "zywa": 2230,
      "âĢĻ": 2231,
      "Ġnieza": 2232,
      "aÅĤych": 2233,
      "ÅĽniej": 2234,
      "Ġpozosta": 2235,
      "WE": 2236,
      "45": 2237,
      "ĠpamiÄĻ": 2238,
      "ĠÅĽrodowi": 2239,
      "poÅĽ": 2240,
      "ĠÅĽwiÄĻ": 2241,
      "wiÅĽcie": 2242,
      "Ġsil": 2243,
      "jawi": 2244,
      "towa": 2245,
      "dia": 2246,
      "prac": 2247,
      "Ġramach": 2248,
      "rzaÅĤ": 2249,
      "\".": 2250,
      "Ġponad": 2251,
      "Ġdwu": 2252,
      "ĠdziÅĽ": 2253,
      "Mi": 2254,
      "Ġzapa": 2255,
      "moc": 2256,
      "rek": 2257,
      "Ġszyb": 2258,
      "Ġsprawoz": 2259,
      "Ġnajmniej": 2260,
      "powiada": 2261,
      "Ġgmi": 2262,
      "Ġzdr": 2263,
      "Ã³wczas": 2264,
      "ĠMu": 2265,
      "Ã©m": 2266,
      "Ġwielu": 2267,
      "Ġmiejscu": 2268,
      "Ġne": 2269,
      "Ġlotni": 2270,
      "Ġsame": 2271,
      "uka": 2272,
      "glÄħd": 2273,
      "ĠksztaÅĤ": 2274,
      "czym": 2275,
      "Ġinwesty": 2276,
      "Od": 2277,
      "pita": 2278,
      "owoÅĽci": 2279,
      "byt": 2280,
      "Ġwej": 2281,
      "Ġwszyscy": 2282,
      "Ġuzyska": 2283,
      "Ġtere": 2284,
      "Ar": 2285,
      "60": 2286,
      "Ġuczy": 2287,
      "woÅĤa": 2288,
      "wer": 2289,
      "Ġopera": 2290,
      "Ġmateri": 2291,
      "puszcza": 2292,
      "Ġwojsk": 2293,
      "cyjnej": 2294,
      "ĠAr": 2295,
      "Ġobywa": 2296,
      "czeÅĽnie": 2297,
      "noÅĽciÄħ": 2298,
      "Ġkilku": 2299,
      "ĠFi": 2300,
      "zyden": 2301,
      "niki": 2302,
      "ve": 2303,
      "dzone": 2304,
      "Ġodda": 2305,
      "Ġwszystkim": 2306,
      "woju": 2307,
      "Ġznowu": 2308,
      "ĠzaÅĤo": 2309,
      "ĠAutor": 2310,
      "piera": 2311,
      "ÅĤych": 2312,
      "tycznych": 2313,
      "Ġrok": 2314,
      "ĠmieÄĩ": 2315,
      "wach": 2316,
      "rowia": 2317,
      "tp": 2318,
      "Ġbowiem": 2319,
      "Ġjednego": 2320,
      "35": 2321,
      "Ġludzie": 2322,
      "Å¼one": 2323,
      "Ġprzyczy": 2324,
      "Ġban": 2325,
      "jednoli": 2326,
      "ciÄĩ": 2327,
      "Ġutwo": 2328,
      ".)": 2329,
      "Ġubezpie": 2330,
      "nkÃ³w": 2331,
      "padku": 2332,
      "ĠUE": 2333,
      "Ġnada": 2334,
      "Ġpodstaw": 2335,
      "ck": 2336,
      "ĠSej": 2337,
      "Ġmil": 2338,
      "chaÄĩ": 2339,
      "80": 2340,
      "cami": 2341,
      "ĠrozwiÄħza": 2342,
      "ĠÅĽci": 2343,
      "ĠsÅĤa": 2344,
      "nk": 2345,
      "Ġzaraz": 2346,
      "Ġsier": 2347,
      "ÂłÂłĊ": 2348,
      "ĊĊĠÂł": 2349,
      "ĠLa": 2350,
      "Ġkul": 2351,
      "Ch": 2352,
      "szerzenie": 2353,
      "reszcie": 2354,
      "Ġnieu": 2355,
      "ĠSt": 2356,
      "naÅĤ": 2357,
      "ĠoÅĽ": 2358,
      "Ġdrz": 2359,
      "ĠTu": 2360,
      "Ġznajduje": 2361,
      "emu": 2362,
      "ĠuwaÅ¼a": 2363,
      "Ġjedynie": 2364,
      "tyka": 2365,
      "JK": 2366,
      "Ġwyna": 2367,
      "maÅĤ": 2368,
      "Ġkomu": 2369,
      "Ġlipca": 2370,
      "Ġpowsta": 2371,
      "Ġdrze": 2372,
      "skiem": 2373,
      "dniczÄħ": 2374,
      "rzyÅĤ": 2375,
      "Ġczyli": 2376,
      "ĠzakoÅĦ": 2377,
      "ĠHo": 2378,
      "Ġtow": 2379,
      "ura": 2380,
      "ÅĤaÅĤ": 2381,
      "44": 2382,
      "dek": 2383,
      "ĠuwagÄĻ": 2384,
      "cer": 2385,
      "jcie": 2386,
      "ĠCJK": 2387,
      "Ġdziedzi": 2388,
      "torÃ³w": 2389,
      "Ġujednoli": 2390,
      "godnie": 2391,
      "ĊĠĊĠ": 2392,
      "ĠgdyÅ¼": 2393,
      "ĠwÅĽrÃ³d": 2394,
      "Ġpowia": 2395,
      "Ġuli": 2396,
      "ĠwzglÄĻdu": 2397,
      "ĠMe": 2398,
      "cieli": 2399,
      "Ġostatni": 2400,
      "Ġile": 2401,
      "ĠokreÅĽla": 2402,
      "Ġczerwca": 2403,
      "miany": 2404,
      "stÃ³w": 2405,
      "myÅĽl": 2406,
      "ÅĤego": 2407,
      "ĠdotyczÄħcych": 2408,
      "ÅĽle": 2409,
      "Ġmoc": 2410,
      "ĠjakÄħ": 2411,
      "che": 2412,
      "ĠpoÅĤÄħ": 2413,
      "ĠswojÄħ": 2414,
      "bÄĻd": 2415,
      "kÅĤadu": 2416,
      "jÄħÅĤ": 2417,
      "lacji": 2418,
      "Åºdziernika": 2419,
      "ld": 2420,
      "ĠsÄħd": 2421,
      "ĠSo": 2422,
      "jemy": 2423,
      "wietnia": 2424,
      "ĠskÅĤada": 2425,
      "37": 2426,
      "Ġustalonym": 2427,
      "Å¼ony": 2428,
      "ĠproszÄĻ": 2429,
      "Ġrazem": 2430,
      "89": 2431,
      "Ġ26": 2432,
      "36": 2433,
      "lew": 2434,
      "Ġdoko": 2435,
      "Ġ2020": 2436,
      "Ġ29": 2437,
      "Ġwniosku": 2438,
      "obie": 2439,
      "nione": 2440,
      "Ja": 2441,
      "ĠniektÃ³rych": 2442,
      "Ġzatru": 2443,
      "ĠwyÅ¼": 2444,
      "ĠpaÅĦstwo": 2445,
      "Ġkontroli": 2446,
      "rami": 2447,
      "nar": 2448,
      "Ġideogra": 2449,
      "ĠokoÅĤo": 2450,
      "ing": 2451,
      "ĠOb": 2452,
      "Ġzawod": 2453,
      "lnÄħ": 2454,
      "gÃ³ÅĤ": 2455,
      "nka": 2456,
      "ĠosiÄħ": 2457,
      "ĠzobowiÄħza": 2458,
      "ĠmÃ³wiÅĤ": 2459,
      "Ġwido": 2460,
      "lek": 2461,
      "koj": 2462,
      "Ġjeste": 2463,
      "ĠMinister": 2464,
      "Ġwiem": 2465,
      "rÃ³t": 2466,
      "ĠSy": 2467,
      "Ġhand": 2468,
      "mysÅĤ": 2469,
      "Ġminister": 2470,
      "ĠÅĽmie": 2471,
      "lub": 2472,
      "rzyÄĩ": 2473,
      "Ġv": 2474,
      "Ġbyli": 2475,
      "Ġkr": 2476,
      "ÅĽni": 2477,
      "ĠRozszerzenie": 2478,
      "ĠideogramÃ³w": 2479,
      "dÅĤa": 2480,
      "ĠnaleÅ¼": 2481,
      "ĠZobacz": 2482,
      "ĠÅ¼oÅĤnie": 2483,
      "Ġujednoliconych": 2484,
      "Ġtemu": 2485,
      "Ġrazie": 2486,
      "Ra": 2487,
      "ĠOpis": 2488,
      "ĠopÅĤa": 2489,
      "ĠdostÄĻp": 2490,
      "tural": 2491,
      "áĥ": 2492,
      "qu": 2493,
      "Ġtele": 2494,
      "tny": 2495,
      "inte": 2496,
      "Ġzau": 2497,
      "ĠbezpoÅĽ": 2498,
      "Ġ2013": 2499,
      "towej": 2500,
      "stawie": 2501,
      "Ġreje": 2502,
      "lony": 2503,
      "85": 2504,
      "ĠpowiedziaÅĤ": 2505,
      "49": 2506,
      "ÅĦskiej": 2507,
      "sach": 2508,
      "pÄĻ": 2509,
      "nnych": 2510,
      "Â«": 2511,
      "ĠÅĽmierci": 2512,
      "ĠwysokoÅĽci": 2513,
      "ĠpÃ³ÅĤnoc": 2514,
      "Ġgene": 2515,
      "Ġeuro": 2516,
      "Ġge": 2517,
      "ĠusÅĤug": 2518,
      "Ġdale": 2519,
      "Pod": 2520,
      "ĠpowiedzieÄĩ": 2521,
      "ĠwedÅĤug": 2522,
      "Ġoto": 2523,
      "Ġprzestrze": 2524,
      "Ġsamym": 2525,
      "Ġtyle": 2526,
      "pisu": 2527,
      "owana": 2528,
      "piej": 2529,
      "ĠBu": 2530,
      "ÄħdÅº": 2531,
      "ĠRzeczy": 2532,
      "fo": 2533,
      "Ġcent": 2534,
      "nij": 2535,
      "Ġchy": 2536,
      "ĠPre": 2537,
      "ĠNarod": 2538,
      "Ġucie": 2539,
      "lami": 2540,
      "Ġzapo": 2541,
      "Ġcoraz": 2542,
      "ĠrÄĻce": 2543,
      "Ġstanie": 2544,
      "Ġdwie": 2545,
      "Ġmor": 2546,
      "Ġ/": 2547,
      "Ġumowy": 2548,
      "cyjny": 2549,
      "gniÄĻ": 2550,
      "ĠÅĽwiecie": 2551,
      "Ġdniu": 2552,
      "stwie": 2553,
      "ĠIz": 2554,
      "ĠwrzeÅĽnia": 2555,
      "ĠmÄĻÅ¼": 2556,
      "Ġmiejsca": 2557,
      "Ġuczu": 2558,
      "ĠmiÄĻ": 2559,
      "75": 2560,
      "sÅĤo": 2561,
      "Ġrobo": 2562,
      "Ġð": 2563,
      "Ġobu": 2564,
      "xF": 2565,
      "Ġmiasto": 2566,
      "ĠÅ»y": 2567,
      "aÅĤu": 2568,
      "czÄħÅĤ": 2569,
      "ktury": 2570,
      "Ġstosuje": 2571,
      "ĠJan": 2572,
      "owski": 2573,
      "Ġdziew": 2574,
      "Ġpowy": 2575,
      "ĠBar": 2576,
      "Ġlata": 2577,
      "Ġ2011": 2578,
      "ĠstanowiÄħ": 2579,
      "Ġmaja": 2580,
      "ĠÅĤo": 2581,
      "Ġdal": 2582,
      "miec": 2583,
      "Ġsprawy": 2584,
      "Ġbli": 2585,
      "Ġoba": 2586,
      "liÄĩ": 2587,
      "Ġdyrektywy": 2588,
      "per": 2589,
      "Ġwskaza": 2590,
      "Ġjednym": 2591,
      "dra": 2592,
      "Ġska": 2593,
      "Ġlisto": 2594,
      "Ġnarod": 2595,
      "31": 2596,
      "ĠzgÅĤo": 2597,
      "ÅĽcio": 2598,
      "porzÄħ": 2599,
      "Ġtechni": 2600,
      "bud": 2601,
      "ĠPi": 2602,
      "ksztaÅĤ": 2603,
      "Ġobli": 2604,
      "szone": 2605,
      "ĠuÅĽmie": 2606,
      "niesi": 2607,
      "ĠDe": 2608,
      "rii": 2609,
      "pospolitej": 2610,
      "len": 2611,
      "RO": 2612,
      "biÅĤ": 2613,
      "Ġl": 2614,
      "puÅĽci": 2615,
      "liÅĤ": 2616,
      "Ġdopiero": 2617,
      "Ġsystemu": 2618,
      "70": 2619,
      "Ġciem": 2620,
      "Ġfil": 2621,
      "ĠurzÄħ": 2622,
      "ĠKrÃ³": 2623,
      "Ġstru": 2624,
      "Ġ28": 2625,
      "ĠzupeÅĤnie": 2626,
      "Ġper": 2627,
      "dami": 2628,
      "ĠÅĽrodki": 2629,
      "34": 2630,
      "38": 2631,
      "ĠwewnÄĻtrz": 2632,
      "Czy": 2633,
      "Ġmuzy": 2634,
      "nien": 2635,
      "Ġpotrzeb": 2636,
      "ĠwzglÄĻdem": 2637,
      "czeÅĽniej": 2638,
      "cenie": 2639,
      "cznoÅĽÄĩ": 2640,
      "Ġfundu": 2641,
      "Ġprzepisy": 2642,
      "Ġpozwo": 2643,
      "ĠzajÄĻ": 2644,
      "chodni": 2645,
      "land": 2646,
      "Le": 2647,
      "rzÄĻdu": 2648,
      "Ġdlatego": 2649,
      "Ġucz": 2650,
      "ĠokrÄĻ": 2651,
      "Ġem": 2652,
      "Ġ2012": 2653,
      "Ġnowe": 2654,
      "szyst": 2655,
      "ĠSÄħ": 2656,
      "Ġokres": 2657,
      "Ġtre": 2658,
      "Ġdotyczy": 2659,
      "Ġrozumie": 2660,
      "Ġtek": 2661,
      "ĠÅĽwiata": 2662,
      "ÅĦcÃ³w": 2663,
      "dzeÅĦ": 2664,
      "Ġ21": 2665,
      "dna": 2666,
      "pol": 2667,
      "Ġposie": 2668,
      "2020": 2669,
      "Ġkan": 2670,
      "Ġpowodu": 2671,
      "Ġzwo": 2672,
      "Ġprywa": 2673,
      "ĠHa": 2674,
      "Ġotwar": 2675,
      "Ġki": 2676,
      "pl": 2677,
      "Ġsprzeda": 2678,
      "Ġkocha": 2679,
      "ĠGa": 2680,
      "kazy": 2681,
      "biega": 2682,
      "Ġspoj": 2683,
      "Ġdrogi": 2684,
      "Ġokresie": 2685,
      "stawia": 2686,
      "ĠpieniÄĻ": 2687,
      "AN": 2688,
      "mowa": 2689,
      "Pol": 2690,
      "dego": 2691,
      "Ġszero": 2692,
      "fek": 2693,
      "ĠokreÅĽlonych": 2694,
      "twarza": 2695,
      "bio": 2696,
      "miaÅĤ": 2697,
      "To": 2698,
      "Ġkwietnia": 2699,
      "Ma": 2700,
      "Ġana": 2701,
      "90": 2702,
      "mer": 2703,
      "Ġpanu": 2704,
      "dzÄħc": 2705,
      "Ġjednej": 2706,
      "lone": 2707,
      "zd": 2708,
      "Ġmarca": 2709,
      "niach": 2710,
      "Ġniech": 2711,
      "tnego": 2712,
      "ĠMinist": 2713,
      "fikacji": 2714,
      "ĠParla": 2715,
      "lia": 2716,
      "ĠzaczÄĻ": 2717,
      "wala": 2718,
      "Ġpowierz": 2719,
      "ĠPe": 2720,
      "dziÅĤa": 2721,
      "Ġnatomiast": 2722,
      "Ã³sÅĤ": 2723,
      "Ġ2014": 2724,
      "Ġdodatk": 2725,
      "Ġspa": 2726,
      "hi": 2727,
      "pia": 2728,
      "Ġzoba": 2729,
      "Ġpapie": 2730,
      "Ġzez": 2731,
      "dny": 2732,
      "giem": 2733,
      "Ġkonsu": 2734,
      "Ġniedo": 2735,
      "Ġwynosi": 2736,
      "ĠmaÅĤ": 2737,
      "ĠpomiÄĻdzy": 2738,
      "mite": 2739,
      "Ġsmu": 2740,
      "ĠEuropejskiego": 2741,
      "Ġobraz": 2742,
      "ĠpaÅºdziernika": 2743,
      "Ġczer": 2744,
      "menta": 2745,
      "Ġsytuacji": 2746,
      "mem": 2747,
      "niejsze": 2748,
      "ĠzostaÅĤo": 2749,
      "mentÃ³w": 2750,
      "kaÅĤ": 2751,
      "Åºnie": 2752,
      "Ġstanu": 2753,
      "ĠRzeczypospolitej": 2754,
      "Ġjas": 2755,
      "ĠzarzÄħdza": 2756,
      "Ġuczest": 2757,
      "Ġzamk": 2758,
      "Ġskrzy": 2759,
      "rÃ³ciÅĤ": 2760,
      "46": 2761,
      "iÄĻki": 2762,
      "Ġwspom": 2763,
      "ĠSpo": 2764,
      "Ġmamy": 2765,
      "towych": 2766,
      "mii": 2767,
      "zio": 2768,
      "Ġsiedzi": 2769,
      "Ġzmian": 2770,
      "ÅĦskie": 2771,
      "Ġtranspo": 2772,
      "ĠPolskiej": 2773,
      "Ġswoim": 2774,
      "ĠOr": 2775,
      "Ġswojej": 2776,
      "Ġfak": 2777,
      "ĠposeÅĤ": 2778,
      "Ġpozost": 2779,
      "Ġsposob": 2780,
      "Ġfizy": 2781,
      "ĠwyjÄħ": 2782,
      "log": 2783,
      "ĠprzykÅĤad": 2784,
      "ĠmiÄĻdzynarod": 2785,
      "Ġ22": 2786,
      "ĠwÃ³wczas": 2787,
      "wÅĤa": 2788,
      "ĠHe": 2789,
      "Ġkole": 2790,
      "Ġtry": 2791,
      "ĠRu": 2792,
      "ĠnajwiÄĻk": 2793,
      "Ġrynku": 2794,
      "Ġdr": 2795,
      "Ġâ": 2796,
      "tnej": 2797,
      "Ġgrani": 2798,
      "Ġpocho": 2799,
      "por": 2800,
      "nikiem": 2801,
      "czyÅĤa": 2802,
      "rysty": 2803,
      "tykuÅĤ": 2804,
      "Ġ31": 2805,
      "Ġoznacza": 2806,
      "ĠBÃ³g": 2807,
      "czka": 2808,
      "wiÄĩ": 2809,
      "mar": 2810,
      "ciaÅ¼": 2811,
      "Ġjakim": 2812,
      "dzeniem": 2813,
      "kÃ³ÅĤ": 2814,
      "mÄĻ": 2815,
      "Ġ+": 2816,
      "rum": 2817,
      "szli": 2818,
      "nny": 2819,
      "Ġtutaj": 2820,
      "zuje": 2821,
      "Ġpozna": 2822,
      "48": 2823,
      "Ġpytanie": 2824,
      "Ġpart": 2825,
      "Ġciebie": 2826,
      "liza": 2827,
      "dnienia": 2828,
      "47": 2829,
      "Ġbrzmienie": 2830,
      "meryka": 2831,
      "Ġdrugiej": 2832,
      "Ġsierpnia": 2833,
      "33": 2834,
      "tna": 2835,
      "ciela": 2836,
      "Ġodpowiedzial": 2837,
      "Ġodniesie": 2838,
      "Ġtemat": 2839,
      "Ġwiado": 2840,
      "taÄĩ": 2841,
      "Co": 2842,
      "Ġzmienia": 2843,
      "Ġdobre": 2844,
      "tÄħd": 2845,
      "ĠzwiÄĻk": 2846,
      "Ġnierucho": 2847,
      "Ġcier": 2848,
      "ĠHi": 2849,
      "ĊĊĊ": 2850,
      "Ġ50": 2851,
      "iedy": 2852,
      "ĠcaÅĤÄħ": 2853,
      "Ġbla": 2854,
      "ktyw": 2855,
      "Ġnp": 2856,
      "tak": 2857,
      "ÅĤÃ³": 2858,
      "zji": 2859,
      "Ġopa": 2860,
      "ĠgÃ³r": 2861,
      "ryta": 2862,
      "Ġodby": 2863,
      "Ġlek": 2864,
      "Ġkorzysta": 2865,
      "ËĿ": 2866,
      "glÄħda": 2867,
      "caÅĤ": 2868,
      "podob": 2869,
      "ĠJeÅ¼eli": 2870,
      "ÅĦca": 2871,
      "Ġsub": 2872,
      "Ġrodzaju": 2873,
      "vi": 2874,
      "Ġpodlega": 2875,
      "Ġspotka": 2876,
      "ĠTrybu": 2877,
      "ĠposÅĤa": 2878,
      "noszÄħ": 2879,
      "Ġpojaz": 2880,
      "Ġdrzwi": 2881,
      "cjon": 2882,
      "Ġstop": 2883,
      "....": 2884,
      "Ġnor": 2885,
      "Ġwyja": 2886,
      "Ġpis": 2887,
      "Ġfo": 2888,
      "Ġnadz": 2889,
      "syj": 2890,
      "ard": 2891,
      "ckie": 2892,
      "ĠzaÅĤÄħcz": 2893,
      "Ġpublicznych": 2894,
      "prezen": 2895,
      "ĠurzÄĻd": 2896,
      "Ġznajdu": 2897,
      "ĠKu": 2898,
      "Ġkonce": 2899,
      "tory": 2900,
      "nnego": 2901,
      "czek": 2902,
      "Ġpunktu": 2903,
      "Ġstara": 2904,
      "ĠwspÃ³ÅĤpra": 2905,
      "niaÅĤ": 2906,
      "Ġwybor": 2907,
      "Ġprzekaza": 2908,
      "usza": 2909,
      "ĠMy": 2910,
      "ĠmiesiÄħ": 2911,
      "Ġotrzymuje": 2912,
      "Ġtakiego": 2913,
      "Ġzmianie": 2914,
      "cen": 2915,
      "AT": 2916,
      "Ġswej": 2917,
      "skar": 2918,
      "Ġprocedu": 2919,
      "niÃ³sÅĤ": 2920,
      "Ġ2009": 2921,
      "Ġfran": 2922,
      "ĠJo": 2923,
      "55": 2924,
      "Ġnimi": 2925,
      "99": 2926,
      "78": 2927,
      "ER": 2928,
      "Ġzasady": 2929,
      "Ġbro": 2930,
      "Ġdziw": 2931,
      "sÅĤugu": 2932,
      "spÃ³ÅĤ": 2933,
      "Ġniema": 2934,
      "jÄħÄĩ": 2935,
      "ĠgÅĤu": 2936,
      "Ġ2010": 2937,
      "ĠmogÅĤa": 2938,
      "bardziej": 2939,
      "Ġzdoby": 2940,
      "Ġzde": 2941,
      "Ġkonku": 2942,
      "ct": 2943,
      "ĠgÅĤowÄĻ": 2944,
      "Ġpomoc": 2945,
      "ĠporzÄħd": 2946,
      "ktÃ³re": 2947,
      "cjach": 2948,
      "Ġwra": 2949,
      "ĠswÃ³j": 2950,
      "ĠdziaÅĤaÅĦ": 2951,
      "Ġzdrowia": 2952,
      "kla": 2953,
      "Ġuch": 2954,
      "Ġiz": 2955,
      "ĠsÅĤuÅ¼by": 2956,
      "Ġlistopada": 2957,
      "ĠcaÅĤo": 2958,
      "wiÅĤ": 2959,
      "Ġformu": 2960,
      "sor": 2961,
      "ĠpotÄĻ": 2962,
      "ĠPanie": 2963,
      "ĠWÅĤa": 2964,
      "Ġprojektu": 2965,
      "ĠstaÅĤ": 2966,
      "ST": 2967,
      "!âĢ¦": 2968,
      "aÅĤam": 2969,
      "Ġnoc": 2970,
      "Ġinformacje": 2971,
      "ĠjakiÅĽ": 2972,
      "ĠrÄĻkÄĻ": 2973,
      "Ġpoprzez": 2974,
      "ĠrÃ³Å¼nych": 2975,
      "Ġtys": 2976,
      "arÃ³wno": 2977,
      "Ġnikt": 2978,
      "Ġzagro": 2979,
      "czem": 2980,
      "zw": 2981,
      "Ġwas": 2982,
      "ĠczynnoÅĽci": 2983,
      "Ġszlach": 2984,
      "ÅĦskich": 2985,
      "Ġpisa": 2986,
      "Ġwymienionej": 2987,
      "ĠCho": 2988,
      "Ġuzasa": 2989,
      "EU": 2990,
      "twier": 2991,
      "Ġdow": 2992,
      "ĠwczeÅĽniej": 2993,
      "koÅĽÄĩ": 2994,
      "waÅ¼a": 2995,
      "Ġzatem": 2996,
      "zami": 2997,
      "Ġinnego": 2998,
      "ĠtrochÄĻ": 2999,
      "Ġpotwier": 3000,
      "wyczaj": 3001,
      "ln": 3002,
      "Ġkierunku": 3003,
      "ĠWiel": 3004,
      "Ġprzekona": 3005,
      "Ġznalaz": 3006,
      "Ġsen": 3007,
      "Ġwchodzi": 3008,
      "Ġstwo": 3009,
      "ĠwyÅĤÄħcznie": 3010,
      "ster": 3011,
      "Ġcywi": 3012,
      "Ġwprowadza": 3013,
      "Ġnaru": 3014,
      "68": 3015,
      "va": 3016,
      "miar": 3017,
      "In": 3018,
      "Ġministra": 3019,
      "Ġwykorzysta": 3020,
      "ĠJeÅĽli": 3021,
      "ierow": 3022,
      "ĠmogÄĻ": 3023,
      "Ġpara": 3024,
      "dio": 3025,
      "Ġnadzie": 3026,
      "waÅĤo": 3027,
      "ĠszczegÃ³ÅĤ": 3028,
      "cale": 3029,
      "tycznej": 3030,
      "czona": 3031,
      "ĠPoli": 3032,
      "Ġnauk": 3033,
      "ĠÅĽpie": 3034,
      "Ġ2019": 3035,
      "32": 3036,
      "szczenia": 3037,
      "giel": 3038,
      "Ã¡": 3039,
      "Ġhistor": 3040,
      "tur": 3041,
      "ĠÅ¼Äħ": 3042,
      "ĠdziaÅĤ": 3043,
      "ĠdoÅĽÄĩ": 3044,
      "kon": 3045,
      "ĠmoÅ¼liwoÅĽci": 3046,
      "ĠprzewodniczÄħ": 3047,
      "Ġotrzyma": 3048,
      "Ġbrze": 3049,
      "ĠbÄĻdÄĻ": 3050,
      "ĠbezpoÅĽre": 3051,
      "Ġstary": 3052,
      "ĠmÃ³w": 3053,
      "Ġustaw": 3054,
      "Ġboga": 3055,
      "Ġprzepisa": 3056,
      "Ġ2004": 3057,
      "III": 3058,
      "Ġtakim": 3059,
      "AR": 3060,
      "sti": 3061,
      "Ġopar": 3062,
      "Ġwier": 3063,
      "stÄħpie": 3064,
      "skona": 3065,
      "ĠpoÅĤudni": 3066,
      "Ġinstru": 3067,
      "Ġklasy": 3068,
      "czeniem": 3069,
      "wany": 3070,
      "Ġrealizacji": 3071,
      "ĠgÅĤÄĻbo": 3072,
      "dziaÅĤu": 3073,
      "sen": 3074,
      "Ġj": 3075,
      "ono": 3076,
      "ĠDu": 3077,
      "ĠPu": 3078,
      "Ġwykonaw": 3079,
      "ĠwiÄĻkszo": 3080,
      "Ġodpowiednio": 3081,
      "ckich": 3082,
      "ĠchwilÄĻ": 3083,
      "lno": 3084,
      "Ġtrak": 3085,
      "Ġode": 3086,
      "Ġgrze": 3087,
      "ĠDzi": 3088,
      "tura": 3089,
      "jazd": 3090,
      "Re": 3091,
      "ĠzwiÄħz": 3092,
      "Ġnagle": 3093,
      "ĠumoÅ¼li": 3094,
      "ĠjednÄħ": 3095,
      "Ġchyba": 3096,
      "Ġtajem": 3097,
      "65": 3098,
      "ĠzostaÄĩ": 3099,
      "Ġmocy": 3100,
      "Ġwynagro": 3101,
      "Ġnowo": 3102,
      "Ġuj": 3103,
      "ĠBe": 3104,
      "Ġodpowiada": 3105,
      "Ġwody": 3106,
      "ĠpowaÅ¼": 3107,
      "ĠszczegÃ³lnoÅĽci": 3108,
      "ĠMoÅ¼e": 3109,
      "ÅĤym": 3110,
      "cio": 3111,
      "are": 3112,
      "ĠDzie": 3113,
      "Ġnap": 3114,
      "ĠprzecieÅ¼": 3115,
      "kli": 3116,
      "Ġpoch": 3117,
      "interes": 3118,
      "Ġeko": 3119,
      "Ġrozwoju": 3120,
      "Ty": 3121,
      ");": 3122,
      "Ġpsy": 3123,
      "Ġtwarz": 3124,
      "Ġgatu": 3125,
      "ron": 3126,
      "Ġzrozu": 3127,
      "ĠkrÃ³t": 3128,
      "ĠwystÄĻpu": 3129,
      "mowy": 3130,
      "Ġoni": 3131,
      "Ġpowinien": 3132,
      "Ġliczby": 3133,
      "niec": 3134,
      "sami": 3135,
      "Ġwojny": 3136,
      "nomi": 3137,
      "Ġprojekt": 3138,
      "Ġuwagi": 3139,
      "Ġstaro": 3140,
      "Mo": 3141,
      "Ġsama": 3142,
      "Ġznale": 3143,
      "Ġpokoju": 3144,
      "Ġilo": 3145,
      "Ġwielo": 3146,
      "Ġzapro": 3147,
      "79": 3148,
      "rew": 3149,
      "Ġhu": 3150,
      "ĠNiem": 3151,
      "szem": 3152,
      "ĠpoczÄħtku": 3153,
      "ĠzwiÄħzane": 3154,
      "dniu": 3155,
      "zer": 3156,
      "siaj": 3157,
      "ĠpÅĤo": 3158,
      "ĠczÅĤonkowskie": 3159,
      "Ġterminie": 3160,
      "sja": 3161,
      "Ġ2008": 3162,
      "Å¼d": 3163,
      "Ġmeto": 3164,
      "ktor": 3165,
      "owaniem": 3166,
      "ĠpodjÄĻ": 3167,
      "ĠktoÅĽ": 3168,
      "lii": 3169,
      "pozy": 3170,
      "ĠniezbÄĻd": 3171,
      "Ġdobry": 3172,
      "ĠpoÅĤ": 3173,
      "69": 3174,
      "JeÅ¼eli": 3175,
      "Ġjednostki": 3176,
      "czeÅĦstwo": 3177,
      "ÂłÂłĊĠĊĠ": 3178,
      "Ġzbli": 3179,
      "Ġprawdzi": 3180,
      "zakre": 3181,
      "ĠuÅ¼ytk": 3182,
      "iad": 3183,
      "dany": 3184,
      "ÅĦska": 3185,
      "--------": 3186,
      "Ġgminy": 3187,
      "moÅĽÄĩ": 3188,
      "Ġprzyby": 3189,
      "ĠzarÃ³wno": 3190,
      "resztÄħ": 3191,
      "Gdy": 3192,
      "88": 3193,
      "nica": 3194,
      "Ale": 3195,
      "iÄĻc": 3196,
      "ĠwÅĤaÅĽciwy": 3197,
      "ĠAnd": 3198,
      "Ġczo": 3199,
      "Ġprodukcji": 3200,
      "dliwoÅĽci": 3201,
      "ĠroÅĽli": 3202,
      "cko": 3203,
      "ĠgÄĻ": 3204,
      "Ġwidzi": 3205,
      "czaÅĤ": 3206,
      "Ġwspar": 3207,
      "Ġpole": 3208,
      "Ġrozwi": 3209,
      "Ġrobi": 3210,
      "wicz": 3211,
      "ĠbudÅ¼etu": 3212,
      "Ġproble": 3213,
      "Ġsamego": 3214,
      "knÄħÅĤ": 3215,
      "Ġwybra": 3216,
      "Jak": 3217,
      "43": 3218,
      "ĠmoÅ¼li": 3219,
      "ĠnastÄĻpnie": 3220,
      "Ni": 3221,
      "ĠrozpoczÄĻ": 3222,
      "ĠCa": 3223,
      "Ġdra": 3224,
      "ĠcaÅĤkowi": 3225,
      "ĠbÄħdÅº": 3226,
      "dziaÅĤem": 3227,
      "ĠwziÄħ": 3228,
      "Ġpor": 3229,
      "ckiej": 3230,
      "Ġmoja": 3231,
      "Ġkwali": 3232,
      "ĠtytuÅĤu": 3233,
      "bur": 3234,
      "ĠbezpieczeÅĦstwa": 3235,
      "Ġnauczy": 3236,
      "niony": 3237,
      "41": 3238,
      "Ġklu": 3239,
      "les": 3240,
      "krzy": 3241,
      "ĠciÄħgu": 3242,
      "Ġwarunki": 3243,
      "ĠFundu": 3244,
      "Ġrazy": 3245,
      "Ġzbyt": 3246,
      "story": 3247,
      "Ġeuropej": 3248,
      "Ġmimo": 3249,
      "Ġstronie": 3250,
      "ÅĦstw": 3251,
      "Ġserce": 3252,
      "ĠprzyszÅĤo": 3253,
      "We": 3254,
      "Nr": 3255,
      "bieg": 3256,
      "Ġzb": 3257,
      "net": 3258,
      "ĠpracownikÃ³w": 3259,
      "ĠÃ³w": 3260,
      "Ġzim": 3261,
      "kaÄĩ": 3262,
      "niajÄħc": 3263,
      "tuje": 3264,
      "ĠnieszczÄĻ": 3265,
      "nom": 3266,
      "menty": 3267,
      "Ġ2015": 3268,
      "rÄĻb": 3269,
      "leÅĦ": 3270,
      "Ġwykorzy": 3271,
      "toli": 3272,
      "kracza": 3273,
      "Ġtrzech": 3274,
      "Ġpodatk": 3275,
      "ĠkrÃ³la": 3276,
      "szyÅĤ": 3277,
      "ĠkaÅ¼dym": 3278,
      "teria": 3279,
      "ĠmÄĻÅ¼czy": 3280,
      "czasem": 3281,
      "com": 3282,
      "Ġchoro": 3283,
      "Ġwypad": 3284,
      "dwie": 3285,
      "Ġniewie": 3286,
      "Ġkoniec": 3287,
      "tle": 3288,
      "owu": 3289,
      "Ġobywate": 3290,
      "ĠpoÅ¼y": 3291,
      "ĠmiesiÄĻcy": 3292,
      "ir": 3293,
      "Ġryzy": 3294,
      "ĠRy": 3295,
      "Ġwielko": 3296,
      "rad": 3297,
      "emo": 3298,
      "ĠMie": 3299,
      "nÄĻÅĤy": 3300,
      "Ġudziela": 3301,
      "pisie": 3302,
      "Bo": 3303,
      "obra": 3304,
      "towi": 3305,
      "jÃ³w": 3306,
      "VI": 3307,
      "ĠdziaÅĤalnoÅĽÄĩ": 3308,
      "ĠstaÅĤo": 3309,
      "Ġduch": 3310,
      "ĠzwyciÄĻ": 3311,
      "nictwo": 3312,
      "âĢĳ": 3313,
      "Ġarty": 3314,
      "ĠposzczegÃ³l": 3315,
      "ĠpojÄĻ": 3316,
      "Ġostate": 3317,
      "ĠtakÄħ": 3318,
      "Ġ40": 3319,
      "Ġbrak": 3320,
      "ĠCze": 3321,
      "logii": 3322,
      "Ġuprze": 3323,
      "ĠJed": 3324,
      "Tak": 3325,
      "ĠZjedno": 3326,
      "ĠmaÅĤo": 3327,
      "Å¼ona": 3328,
      "Ġprzede": 3329,
      "Ġstosunku": 3330,
      "aÅĤÃ³w": 3331,
      "dej": 3332,
      "kÃ³j": 3333,
      "au": 3334,
      "By": 3335,
      "Ġrado": 3336,
      "naczej": 3337,
      "Ġzas": 3338,
      "Ġspokoj": 3339,
      "67": 3340,
      "ĠzadaÅĦ": 3341,
      "Ġwypo": 3342,
      "wal": 3343,
      "Ġodpowiedni": 3344,
      "Ġtwarzy": 3345,
      "Ġzespo": 3346,
      "nadto": 3347,
      "ĠprowadzÄħ": 3348,
      "tion": 3349,
      "misja": 3350,
      "tycznie": 3351,
      "ĠupÅĤy": 3352,
      "Ġjedna": 3353,
      "Ġpowszech": 3354,
      "Ġ2007": 3355,
      "Ġokaz": 3356,
      "ĠkosztÃ³w": 3357,
      "owali": 3358,
      "Ġprezyden": 3359,
      "ĠwarunkÃ³w": 3360,
      "ctwa": 3361,
      "Ġthe": 3362,
      "ĠmÃ³wiÄĩ": 3363,
      "87": 3364,
      "lizacji": 3365,
      "ĠchÅĤop": 3366,
      "Ġkur": 3367,
      "Ġkierow": 3368,
      "ĠKrzy": 3369,
      "rzej": 3370,
      "xB": 3371,
      "chczas": 3372,
      "Ġjednoli": 3373,
      "ĠParlamentu": 3374,
      "zupeÅĤ": 3375,
      "Ġdotychczas": 3376,
      "mieni": 3377,
      "0000": 3378,
      "ĠtÄħ": 3379,
      "Ġwcale": 3380,
      "Ġwybo": 3381,
      "42": 3382,
      "Ġpotra": 3383,
      "Ġ2018": 3384,
      "Ġkredy": 3385,
      "Ġgrupy": 3386,
      "Ġzabezpie": 3387,
      "rowi": 3388,
      "gach": 3389,
      "199": 3390,
      "dzono": 3391,
      "usta": 3392,
      "ÅĦskim": 3393,
      "starcza": 3394,
      "Ġkolo": 3395,
      "gÃ³": 3396,
      "ĠmÅĤodzie": 3397,
      "Ġdia": 3398,
      "Ġstrze": 3399,
      "Ġpowinny": 3400,
      "Ġnocy": 3401,
      "ĠnastÄĻpujÄħce": 3402,
      "feren": 3403,
      "Ġrzeczywi": 3404,
      "miona": 3405,
      "Ġdane": 3406,
      "Ġogrom": 3407,
      "Ġzezwo": 3408,
      "Ġszep": 3409,
      "form": 3410,
      "Ġmili": 3411,
      "Ġporu": 3412,
      "Å¼eniem": 3413,
      "Ġserca": 3414,
      "rÃ³ciÄĩ": 3415,
      "Ġskute": 3416,
      "struktury": 3417,
      "ĠcÃ³r": 3418,
      "ĠwartoÅĽÄĩ": 3419,
      "59": 3420,
      "ĠcelÃ³w": 3421,
      "Ġpokry": 3422,
      "ĠjakieÅĽ": 3423,
      "Ġnajbardziej": 3424,
      "Ġbudy": 3425,
      "Ġlutego": 3426,
      "Ġswe": 3427,
      "ĠchociaÅ¼": 3428,
      "Ġwreszcie": 3429,
      "ĠPaÅĦstwa": 3430,
      "Ġprakty": 3431,
      "Ġude": 3432,
      "ĠEU": 3433,
      "at": 3434,
      "ĠZe": 3435,
      "dzonych": 3436,
      "ĠokreÅĽlone": 3437,
      "Li": 3438,
      "ut": 3439,
      "owoÅĽÄĩ": 3440,
      "Ġopow": 3441,
      "orga": 3442,
      "ĠLo": 3443,
      "fik": 3444,
      "najmniej": 3445,
      "ĠFe": 3446,
      "wencji": 3447,
      "ĠMinistra": 3448,
      "ĠdoÅĽwiad": 3449,
      "ĠciÄħg": 3450,
      "ĊÂłÂłÂł": 3451,
      "Ġinnymi": 3452,
      "Ġleka": 3453,
      "Ġprzewidzia": 3454,
      "ĠIII": 3455,
      "Ġsena": 3456,
      "Ġeksp": 3457,
      "Wi": 3458,
      "bÃ³w": 3459,
      "ĠcaÅĤej": 3460,
      "tyki": 3461,
      "dowo": 3462,
      "Ġwych": 3463,
      "ĠcaÅĤe": 3464,
      "pomina": 3465,
      "Ġwywo": 3466,
      "Ġtakiej": 3467,
      "ĠBoga": 3468,
      "czach": 3469,
      "Ġgnie": 3470,
      "ĠrozporzÄħdzenie": 3471,
      "Å¼na": 3472,
      "rÃ³wna": 3473,
      "Sta": 3474,
      "ple": 3475,
      "Ġzni": 3476,
      "wio": 3477,
      "Ġtaka": 3478,
      "Ġple": 3479,
      "Ġdysku": 3480,
      "ÅĤaszcza": 3481,
      "nÄĻÅĤo": 3482,
      "Ġterytorium": 3483,
      "ĠoÅĽwiad": 3484,
      "Ġniewy": 3485,
      "Ġmieli": 3486,
      "DziÄĻkujÄĻ": 3487,
      "Ġpotrzeby": 3488,
      "rzem": 3489,
      "Ġpostanowie": 3490,
      "Ġtwier": 3491,
      "Ġzostanie": 3492,
      "ĠSu": 3493,
      "ĠÅĽrodowiska": 3494,
      "Ġeta": 3495,
      "ĠproduktÃ³w": 3496,
      "Ġzainteres": 3497,
      "57": 3498,
      "Ġprzeciwko": 3499,
      "Ġczasem": 3500,
      "szki": 3501,
      "Ġprag": 3502,
      "Ġ100": 3503,
      "ĠCen": 3504,
      "Ġobecnie": 3505,
      "prawy": 3506,
      "ĠmÅĤody": 3507,
      "ĠzwÅĤaszcza": 3508,
      "owano": 3509,
      "66": 3510,
      "mujÄħ": 3511,
      "Ġeme": 3512,
      "Ġinnym": 3513,
      "ĊĠĠĠ": 3514,
      "Ġduszy": 3515,
      "Ġzagrani": 3516,
      "sÅĤugi": 3517,
      "Ġorgan": 3518,
      "ĠwpÅĤyw": 3519,
      "Ġutrzyma": 3520,
      "EN": 3521,
      "mencie": 3522,
      "Ġup": 3523,
      "tycznego": 3524,
      "ĠznÃ³w": 3525,
      "groma": 3526,
      "ĠzwiÄħzanych": 3527,
      "nawia": 3528,
      "towe": 3529,
      "Ġkorzy": 3530,
      "Ġruchu": 3531,
      "nieÅĽÄĩ": 3532,
      "ĠPola": 3533,
      "ÄĻdzi": 3534,
      "stych": 3535,
      "Åºni": 3536,
      "ĠzaczÄħÅĤ": 3537,
      "owanego": 3538,
      "Ġpoe": 3539,
      "fra": 3540,
      "Ġaktu": 3541,
      "Ġforma": 3542,
      "Å¼aÅĤ": 3543,
      "Ġreprezen": 3544,
      "Ġwyniku": 3545,
      "Ġwyj": 3546,
      "Ġzarzu": 3547,
      "ArtykuÅĤ": 3548,
      "Ġrol": 3549,
      "Ġpomi": 3550,
      "Ġfir": 3551,
      "Ġnaro": 3552,
      "gami": 3553,
      "Ġniebezpie": 3554,
      "Ġprogramu": 3555,
      "ĠNe": 3556,
      "Ġstosowania": 3557,
      "Ġfrancu": 3558,
      "gry": 3559,
      "Ã¼": 3560,
      "Ġformula": 3561,
      "ĠpowoÅĤa": 3562,
      "czonego": 3563,
      "ĠkoÅĦca": 3564,
      "kazuje": 3565,
      "Ġwam": 3566,
      "dyna": 3567,
      "nnej": 3568,
      "Ġpierwszej": 3569,
      "Ġkobiety": 3570,
      "Ġjaka": 3571,
      "ke": 3572,
      "wale": 3573,
      "toÅĽci": 3574,
      "ĠKraj": 3575,
      "Ġreli": 3576,
      "Ġlitera": 3577,
      "ĠczÅĤonkÃ³w": 3578,
      "Ob": 3579,
      "Ġnowych": 3580,
      "czÄħc": 3581,
      "dniego": 3582,
      "ĠnastÄħpi": 3583,
      "Ġbudow": 3584,
      "Ġoprac": 3585,
      "ciÄħÅ¼": 3586,
      "Ġhandl": 3587,
      "Ġnieo": 3588,
      "stoÅĽci": 3589,
      "Ġosoba": 3590,
      "Ġmedy": 3591,
      "ĠkaÅ¼dego": 3592,
      "racji": 3593,
      "ien": 3594,
      "Ġodpar": 3595,
      "Ġkomisji": 3596,
      "ĠKto": 3597,
      "ES": 3598,
      "ĠSi": 3599,
      "Ġodniesieniu": 3600,
      "Ġpodzie": 3601,
      "Ġnasze": 3602,
      "dr": 3603,
      "Ġnajlep": 3604,
      "Ġorganizacji": 3605,
      "dyda": 3606,
      "Ġswych": 3607,
      "syÅĤa": 3608,
      "Ġ2006": 3609,
      "Ġporozu": 3610,
      "Ġnaby": 3611,
      "rzÄħt": 3612,
      "58": 3613,
      "Ġoceny": 3614,
      "ĠStro": 3615,
      "jach": 3616,
      "54": 3617,
      "cjami": 3618,
      "Ġszuka": 3619,
      "Ġkwa": 3620,
      "Ġul": 3621,
      "ÅĽciu": 3622,
      "ĠNiech": 3623,
      "ĠmiÅĤoÅĽci": 3624,
      "dnych": 3625,
      "Ġ=": 3626,
      "Ġzdrowo": 3627,
      "ĠAgen": 3628,
      "Ġpoje": 3629,
      "Ġsio": 3630,
      "Ġnazwi": 3631,
      "Ġojca": 3632,
      "nieniem": 3633,
      "Ġusu": 3634,
      "Å¼onych": 3635,
      "ĠCe": 3636,
      "szyÄĩ": 3637,
      "nna": 3638,
      "jÄħcymi": 3639,
      "ĠczÅĤonkowskich": 3640,
      "Ġpostaci": 3641,
      "ĠksiÄħÅ¼ÄĻ": 3642,
      "Ġzabra": 3643,
      "staÅĤa": 3644,
      "wski": 3645,
      "tychmiast": 3646,
      "legÅĤo": 3647,
      "tnÄħ": 3648,
      "Ġstatu": 3649,
      "widÅĤ": 3650,
      "Ġobsza": 3651,
      "ĠgorÄħ": 3652,
      "Ġdzisiaj": 3653,
      "siÄĩ": 3654,
      "ĠkÄħ": 3655,
      "Ġlepiej": 3656,
      "Ġuz": 3657,
      "ĠdziÄĻki": 3658,
      "ĠDy": 3659,
      "kreÅĽ": 3660,
      "Ġnieco": 3661,
      "Ġmasz": 3662,
      "ĠgÅĤowy": 3663,
      "ĠwypÅĤa": 3664,
      "Ġgranic": 3665,
      "celu": 3666,
      "CZ": 3667,
      "ĠBoÅ¼e": 3668,
      "skÃ³w": 3669,
      "ĠKrak": 3670,
      "ĠWÅĤo": 3671,
      "zÃ³w": 3672,
      "ĠpomocÄħ": 3673,
      "Ġtypu": 3674,
      "Ġpowinna": 3675,
      "zes": 3676,
      "wienia": 3677,
      "daje": 3678,
      "Ġwybu": 3679,
      "Ġinaczej": 3680,
      "Ġlep": 3681,
      "aÅĤym": 3682,
      "Ġstanowisko": 3683,
      "ust": 3684,
      "Ġfunkcjon": 3685,
      "ĠsiÅĤy": 3686,
      "pen": 3687,
      "Ġpytania": 3688,
      "Ġefek": 3689,
      "Ġkli": 3690,
      "ON": 3691,
      "naÅĤu": 3692,
      "dziÄĻ": 3693,
      "arÄĻ": 3694,
      "ĠWszyst": 3695,
      "tarza": 3696,
      "Ġpolski": 3697,
      "Ġszybko": 3698,
      "wana": 3699,
      "dle": 3700,
      "twÃ³r": 3701,
      "ĠmoÅ¼liwoÅĽÄĩ": 3702,
      "prawdÄĻ": 3703,
      "Ġnatural": 3704,
      "jnych": 3705,
      "kacji": 3706,
      "listy": 3707,
      "ĠMinistrÃ³w": 3708,
      "wajÄħ": 3709,
      "Ġtrzeci": 3710,
      "ĠzakÅĤad": 3711,
      "cyjnym": 3712,
      "ach": 3713,
      "zwo": 3714,
      "Ġocze": 3715,
      "nieÅĦ": 3716,
      "Ġnaszych": 3717,
      "Å¼eÅĦ": 3718,
      "ĠZo": 3719,
      "pla": 3720,
      "ĠdÅº": 3721,
      "dzony": 3722,
      "Ġpowierzchni": 3723,
      "Ġjednostek": 3724,
      "86": 3725,
      "Ġwykonywania": 3726,
      "czeni": 3727,
      "ĠPio": 3728,
      "Ġproduk": 3729,
      "Ġsuk": 3730,
      "56": 3731,
      "toÅĽÄĩ": 3732,
      "Ġhistory": 3733,
      "83": 3734,
      "lb": 3735,
      "Ġszere": 3736,
      "ĠGra": 3737,
      "ĠÅºrÃ³d": 3738,
      "ĠSamo": 3739,
      "ksy": 3740,
      "Te": 3741,
      "staw": 3742,
      "Å¼onego": 3743,
      "Ġpolityki": 3744,
      "Ġterenie": 3745,
      "jaw": 3746,
      "ĠodwoÅĤa": 3747,
      "zakresie": 3748,
      "owaÅĤo": 3749,
      "ĠobowiÄħzu": 3750,
      "ramach": 3751,
      "ciec": 3752,
      "ĠSÅĤu": 3753,
      "Ġprokura": 3754,
      "Ġwydaje": 3755,
      "Ġpio": 3756,
      "tnym": 3757,
      "Ġlud": 3758,
      "Ġstrasz": 3759,
      "Wie": 3760,
      "ss": 3761,
      "owaÅĤy": 3762,
      "Ġnieprzy": 3763,
      "Ġpolega": 3764,
      "ĠmnÄħ": 3765,
      "Ġ2000": 3766,
      "ÅĽlÄĻ": 3767,
      "ĠdrogÄĻ": 3768,
      "Ġczerwo": 3769,
      "Ġdoskona": 3770,
      "ĠpieniÄħ": 3771,
      "Ġplan": 3772,
      "Ġmln": 3773,
      "Ġminu": 3774,
      "niwer": 3775,
      "mÃ³wi": 3776,
      "IE": 3777,
      "Ġspowo": 3778,
      "Ġindy": 3779,
      "ĠByÅĤ": 3780,
      "ckim": 3781,
      "ĠokolicznoÅĽci": 3782,
      "Ġtrzecie": 3783,
      "dziaÅĤy": 3784,
      "Ġ(\"": 3785,
      "stry": 3786,
      "stwem": 3787,
      "Sz": 3788,
      "Ġ60": 3789,
      "krÄĻ": 3790,
      "chÃ³d": 3791,
      "ĠÅ¼yciu": 3792,
      "zm": 3793,
      "ĠWil": 3794,
      "ĠposÅĤu": 3795,
      "ÅĤeÅĽ": 3796,
      "gru": 3797,
      "ĠStra": 3798,
      "ĠRzy": 3799,
      "ĠCi": 3800,
      "Ġwypowie": 3801,
      "ĠKra": 3802,
      "Ġadministracji": 3803,
      "Ġodci": 3804,
      "Ġzastosowanie": 3805,
      "wanych": 3806,
      "Ġgar": 3807,
      "Ġpodatku": 3808,
      "porzÄħdzenie": 3809,
      "nemu": 3810,
      "Ġnazywa": 3811,
      "zajem": 3812,
      "ĠTen": 3813,
      "ton": 3814,
      "mpa": 3815,
      "kÅĤo": 3816,
      "Ġbru": 3817,
      "ĠmiaÅĤy": 3818,
      "Ġwro": 3819,
      "niÅĤa": 3820,
      "towaÄĩ": 3821,
      "Ġwymo": 3822,
      "Ġpublicznej": 3823,
      "zaÅĤ": 3824,
      "Ġrodziny": 3825,
      "ĠSkar": 3826,
      "let": 3827,
      "Ġkwia": 3828,
      "Ġjakiej": 3829,
      "ĠPier": 3830,
      "waj": 3831,
      "terysty": 3832,
      "mÄħ": 3833,
      "wnÄħ": 3834,
      "maÅĤy": 3835,
      "nicja": 3836,
      "Ġpropozy": 3837,
      "lona": 3838,
      "Ġtech": 3839,
      "Ġprowadzi": 3840,
      "sÅĤawa": 3841,
      "kuje": 3842,
      "ĠSte": 3843,
      "Ġ2003": 3844,
      "ĠchcÄĻ": 3845,
      "Ġprzedstawia": 3846,
      "stej": 3847,
      "Ġsyn": 3848,
      "Ġdobro": 3849,
      "ciaÅĤ": 3850,
      "Ġstron": 3851,
      "Ġniniejszego": 3852,
      "ĠprzestÄĻp": 3853,
      "bliÅ¼": 3854,
      "Ġzawie": 3855,
      "Ġsamej": 3856,
      "Ġfinansowych": 3857,
      "ÅĦcu": 3858,
      "Ġobok": 3859,
      "84": 3860,
      "Ġzapewnia": 3861,
      "Ġlinii": 3862,
      "!...": 3863,
      "Ġdzien": 3864,
      "rÃ³j": 3865,
      "51": 3866,
      "czania": 3867,
      "Ġgospodarki": 3868,
      "ĠLud": 3869,
      "Ġskie": 3870,
      "szpa": 3871,
      "Ġjakiego": 3872,
      "Ġkapi": 3873,
      "77": 3874,
      "ciÅĤa": 3875,
      "OR": 3876,
      "Ġzmar": 3877,
      "Ġniby": 3878,
      "Ġwer": 3879,
      "Ġzbior": 3880,
      "Ġudo": 3881,
      "Ġprogram": 3882,
      "deÅĤ": 3883,
      "Ġpatrzy": 3884,
      "ÅĤach": 3885,
      "ĠzawoÅĤaÅĤ": 3886,
      "ĠWyso": 3887,
      "Ġ2017": 3888,
      "ĠgÅĤÃ³wnie": 3889,
      "Ġpal": 3890,
      "Ġpocz": 3891,
      "Ġgwa": 3892,
      "Ġwielki": 3893,
      "ĠspeÅĤnia": 3894,
      "Ġcharakte": 3895,
      "dniesie": 3896,
      "ĠzaleÅ¼": 3897,
      "ĠKiedy": 3898,
      "Ġswobo": 3899,
      "br": 3900,
      "fia": 3901,
      "aÅĤego": 3902,
      "niczych": 3903,
      "ciÄħga": 3904,
      "ĠkrÃ³lew": 3905,
      "ĠmiÅĤoÅĽÄĩ": 3906,
      "Ġ2002": 3907,
      "Ġnatychmiast": 3908,
      "ĠzamkniÄĻ": 3909,
      "zja": 3910,
      "niejszych": 3911,
      "Ġzjawi": 3912,
      "dopodob": 3913,
      "ĠbÅĤy": 3914,
      "ĠBer": 3915,
      "CH": 3916,
      "ĠrÃ³Å¼ne": 3917,
      "ĠMarszaÅĤ": 3918,
      "lozo": 3919,
      "Ġds": 3920,
      "ĠkoÅĦcu": 3921,
      "ĠduÅ¼y": 3922,
      "rzÃ³d": 3923,
      "kowe": 3924,
      "ĠÅĽmierÄĩ": 3925,
      "?âĢ¦": 3926,
      "Ġsce": 3927,
      "Ġ2016": 3928,
      "Ġwielkie": 3929,
      "ĠzwierzÄĻ": 3930,
      "waniu": 3931,
      "Ġmecha": 3932,
      "Ġzaw": 3933,
      "Ġzauwa": 3934,
      "Ġsty": 3935,
      "taÅĤa": 3936,
      "krÃ³t": 3937,
      "kÅĤadzie": 3938,
      "ktora": 3939,
      "iÄĩ": 3940,
      "bry": 3941,
      "Ġsprawach": 3942,
      "ĠrzÄħdu": 3943,
      "ĠstronÄĻ": 3944,
      "Ġzmniej": 3945,
      "grze": 3946,
      "ĠswÄħ": 3947,
      "Ġpowiada": 3948,
      "ĠskoÅĦ": 3949,
      "mieÅĦ": 3950,
      "Ġzastrze": 3951,
      "ÅºÄĩ": 3952,
      "Kto": 3953,
      "ĠmieÅĽcie": 3954,
      "Ġstanowiska": 3955,
      "Ġupo": 3956,
      "Ġminist": 3957,
      "64": 3958,
      "ĠchcÄħ": 3959,
      "Ġopinii": 3960,
      "ĠniezaleÅ¼": 3961,
      "ĠSena": 3962,
      "Ġ2005": 3963,
      "Ġbe": 3964,
      "Ġwspiera": 3965,
      "Ġojciec": 3966,
      "szczo": 3967,
      "ĠtysiÄħ": 3968,
      "ĠsÄħdu": 3969,
      "dzieli": 3970,
      "Ġzrobi": 3971,
      "Ġnasz": 3972,
      "Ġkandyda": 3973,
      "rÃ³b": 3974,
      "Dodany": 3975,
      "ĠgÃ³ry": 3976,
      "52": 3977,
      "Ġ%": 3978,
      "czer": 3979,
      "Ġsieci": 3980,
      "rzeÄĩ": 3981,
      "ĠszczÄĻÅĽli": 3982,
      "Ġniemiec": 3983,
      "Ġodw": 3984,
      "emi": 3985,
      "ĠwiÄħ": 3986,
      "Ã³z": 3987,
      "Ġzwro": 3988,
      "Ġintere": 3989,
      "Ã¶": 3990,
      "Ãĵ": 3991,
      "owanej": 3992,
      "kowych": 3993,
      "stego": 3994,
      "71": 3995,
      "woÅĽci": 3996,
      "Ġpozwala": 3997,
      "Å¼yÅĤa": 3998,
      "Ġuchy": 3999,
      "widu": 4000,
      "ang": 4001,
      "szek": 4002,
      "82": 4003,
      "Ġdowie": 4004,
      "ĠKomite": 4005,
      "Ġbadania": 4006,
      "rÃ³cz": 4007,
      "War": 4008,
      "ver": 4009,
      "Pan": 4010,
      "dzoru": 4011,
      "Ġpierwszym": 4012,
      "lin": 4013,
      "ĠmieszkaÅĦcÃ³w": 4014,
      "tÃ³Å¼": 4015,
      "ĠKar": 4016,
      "Ġartyku": 4017,
      "ĠcÃ³Å¼": 4018,
      "nionych": 4019,
      "ht": 4020,
      "Ġ2001": 4021,
      "Ġhra": 4022,
      "brze": 4023,
      "Ġdoprowa": 4024,
      "Ġotwo": 4025,
      "Da": 4026,
      "jskich": 4027,
      "ĠmÄħ": 4028,
      "Ġosobi": 4029,
      "Ġnaszej": 4030,
      "Ġdrog": 4031,
      "Ġukry": 4032,
      "ciele": 4033,
      "staÄĩ": 4034,
      "ĠwejÅĽcia": 4035,
      "ĠzwierzÄħt": 4036,
      "Ġmojej": 4037,
      "odniesie": 4038,
      "ĠzapÅĤa": 4039,
      "Ġinny": 4040,
      "tam": 4041,
      "dacji": 4042,
      "ĠdÅĤo": 4043,
      "Ġniena": 4044,
      "Ġzaczyna": 4045,
      "del": 4046,
      "ĠszkoÅĤy": 4047,
      "siej": 4048,
      "nim": 4049,
      "Ġwstrzy": 4050,
      "Pra": 4051,
      "Ġodrzu": 4052,
      "miÄħ": 4053,
      "ĠmusiaÅĤ": 4054,
      "Ġam": 4055,
      "Ġzapom": 4056,
      "Ġnaszego": 4057,
      "Ġpolskich": 4058,
      "Ġkm": 4059,
      "Å¼em": 4060,
      "ĠCy": 4061,
      "Ġniezna": 4062,
      "Ġspy": 4063,
      "76": 4064,
      "gno": 4065,
      "Ġspad": 4066,
      "Ġtedy": 4067,
      "Ġsprawa": 4068,
      "wiÄħzku": 4069,
      "ĠpiÄĻÄĩ": 4070,
      "odniesieniu": 4071,
      "ĠÅĽwiadczeÅĦ": 4072,
      "owia": 4073,
      "onie": 4074,
      "Ġzasad": 4075,
      "fy": 4076,
      "Ġraczej": 4077,
      "munika": 4078,
      "ĠposÅĤÃ³w": 4079,
      "Ġenergii": 4080,
      "ĠPolska": 4081,
      "Ġaktyw": 4082,
      "blem": 4083,
      "ĠprzedsiÄĻbiorstwa": 4084,
      "cjonari": 4085,
      "trzymy": 4086,
      "Ġgwia": 4087,
      "Ġab": 4088,
      "ĠpÄĻ": 4089,
      "prost": 4090,
      "Ġcharakter": 4091,
      "ĠgÅĤosem": 4092,
      "ĠsÅĤuÅ¼Äħ": 4093,
      "81": 4094,
      "Ġdoj": 4095,
      "rzeÅĦ": 4096,
      "ad": 4097,
      "Ġzy": 4098,
      "mil": 4099,
      "Å¼eniu": 4100,
      "ĠpochodzÄħ": 4101,
      "SA": 4102,
      "Ġkont": 4103,
      "ĠDob": 4104,
      "ĠnaleÅ¼Äħ": 4105,
      "ĠbadaÅĦ": 4106,
      "krotnie": 4107,
      "Ġstan": 4108,
      "trzÄħ": 4109,
      "Ġznaczy": 4110,
      "Ġutra": 4111,
      "ĠPrzed": 4112,
      "leÅ¼y": 4113,
      "ĠgwaÅĤ": 4114,
      "ĠchÄĻ": 4115,
      "ĠÅĽle": 4116,
      "ÅĽcioÅĤa": 4117,
      "piÄħ": 4118,
      "Ġmoim": 4119,
      "Ġznaczenie": 4120,
      "Ġopo": 4121,
      "Ġwyd": 4122,
      "Ġpopu": 4123,
      "zesa": 4124,
      "Ġturysty": 4125,
      "mÃ³wie": 4126,
      "Ġur": 4127,
      "Ġpochodzenia": 4128,
      "widen": 4129,
      "Ġchrze": 4130,
      "ĠJego": 4131,
      "ĠwystÄĻp": 4132,
      "Ġprzeprowadza": 4133,
      "96": 4134,
      "dom": 4135,
      "tanie": 4136,
      "syte": 4137,
      "Ġtwoje": 4138,
      "owskiego": 4139,
      "Panie": 4140,
      "Ġponow": 4141,
      "niom": 4142,
      "Ta": 4143,
      "IN": 4144,
      "ĠtysiÄĻcy": 4145,
      "Ġmogli": 4146,
      "ĠmuszÄħ": 4147,
      "ĠbyÅĤoby": 4148,
      "ĠnajwyÅ¼": 4149,
      "ĠÐ": 4150,
      "ĠsÅĤÃ³w": 4151,
      "Å¼ÄĻ": 4152,
      "Ġgmin": 4153,
      "ĠnieruchomoÅĽci": 4154,
      "ĠokreÅĽli": 4155,
      "ÅĦce": 4156,
      "ĠZie": 4157,
      "Ġproduktu": 4158,
      "wan": 4159,
      "ĠmiaÅĤo": 4160,
      "kÄħd": 4161,
      "Ġzakresu": 4162,
      "ĠgÅĤowÄħ": 4163,
      "Ġprzypisie": 4164,
      "ĠsÅĤuÅ¼b": 4165,
      "chÃ³w": 4166,
      "kazaÅĤ": 4167,
      "Ġustala": 4168,
      "ĠtowarÃ³w": 4169,
      "Ġopieki": 4170,
      "raÅĤ": 4171,
      "ĠdaÅĤ": 4172,
      "niwersyte": 4173,
      "Ġat": 4174,
      "72": 4175,
      "ĠbÅĤ": 4176,
      "ĠÅĽwiadczenia": 4177,
      "Ġprzypadkach": 4178,
      "ĠÅĽw": 4179,
      "ĠjesteÅĽ": 4180,
      "Ġprawda": 4181,
      "Ġszczy": 4182,
      "nice": 4183,
      "ĠgÅĤosu": 4184,
      "Ġzwraca": 4185,
      "szony": 4186,
      "Ġmego": 4187,
      "Ġzap": 4188,
      "ĠFunduszu": 4189,
      "Ġowo": 4190,
      "kowie": 4191,
      "Ġ.": 4192,
      "ĠSan": 4193,
      "tan": 4194,
      "Ġziem": 4195,
      "ĠPrawo": 4196,
      "sla": 4197,
      "74": 4198,
      "ĠbÅĤo": 4199,
      "Ġpta": 4200,
      "niami": 4201,
      "Cz": 4202,
      "ĠFrancji": 4203,
      "ĠProszÄĻ": 4204,
      "spraw": 4205,
      "Minister": 4206,
      "Ġprzer": 4207,
      "63": 4208,
      "chodniej": 4209,
      "ÅĤoÅĽci": 4210,
      "62": 4211,
      "Ġterytoria": 4212,
      "ĠprzysÅĤugu": 4213,
      "Ġzao": 4214,
      "fer": 4215,
      "Ġprzekracza": 4216,
      "ĠprÄĻd": 4217,
      "sÄħ": 4218,
      "Ġstrate": 4219,
      "ĠWarszawie": 4220,
      "szczenie": 4221,
      "Ġustawie": 4222,
      "Ġrady": 4223,
      "ĠwÄħtp": 4224,
      "krÃ³tce": 4225,
      "Ġzabi": 4226,
      "ĠziemiÄĻ": 4227,
      "53": 4228,
      "Ġdaleko": 4229,
      "ĠPani": 4230,
      "Ġweso": 4231,
      "Ġcieka": 4232,
      "ĠHen": 4233,
      "ĠKrÃ³le": 4234,
      "ĠwspÃ³ÅĤpracy": 4235,
      "nal": 4236,
      "ĠduÅ¼o": 4237,
      "Ġidzie": 4238,
      "ÅĽciej": 4239,
      "cone": 4240,
      "Ġpierwszego": 4241,
      "wiaÅĤ": 4242,
      "RA": 4243,
      "Ġprostu": 4244,
      "Ġpozba": 4245,
      "Ġtar": 4246,
      "ĠpowyÅ¼": 4247,
      "Ġwsi": 4248,
      "ĠwciÄħÅ¼": 4249,
      "kÅĤady": 4250,
      "ĠWiÄĻc": 4251,
      "Dzi": 4252,
      "Ġzwykle": 4253,
      "ÅĦczy": 4254,
      "ĠcaÅĤym": 4255,
      "Ġwoli": 4256,
      "Ġpowro": 4257,
      "Ġkrew": 4258,
      "ĠuzupeÅĤ": 4259,
      "ĠDziÄĻkujÄĻ": 4260,
      "kÅĤadni": 4261,
      "ĠJednak": 4262,
      "Åºli": 4263,
      "Ġelektroni": 4264,
      "niÄĻcia": 4265,
      "Ġprowadzenia": 4266,
      "ĠpoÅĽredni": 4267,
      "Ġniewo": 4268,
      "ret": 4269,
      "Ġpolskiego": 4270,
      "ĠnastÄĻpuje": 4271,
      "ĠbÄĻdziemy": 4272,
      "ĠÅĤu": 4273,
      "Ġbry": 4274,
      "Ġlikwi": 4275,
      "trza": 4276,
      "dÅĤuÅ¼": 4277,
      "torem": 4278,
      "Ġzadania": 4279,
      "Ġzanie": 4280,
      "Ġzre": 4281,
      "owaÅĦ": 4282,
      "Ġformie": 4283,
      "gia": 4284,
      "Ġopowiada": 4285,
      "ĠGe": 4286,
      "73": 4287,
      "Ġinstytucji": 4288,
      "Ġ80": 4289,
      "Ġinteres": 4290,
      "Ġprawnych": 4291,
      "ĠWoj": 4292,
      "Ġfilozo": 4293,
      "OM": 4294,
      "Ġbio": 4295,
      "lta": 4296,
      "Ġkwoty": 4297,
      "EL": 4298,
      "stawa": 4299,
      "Ġlist": 4300,
      "Ġstoli": 4301,
      "Ġprojek": 4302,
      "Ġkogo": 4303,
      "czkÄĻ": 4304,
      "maty": 4305,
      "Ġelektry": 4306,
      "ĠodpowiedziaÅĤ": 4307,
      "Ġdek": 4308,
      "Ġtrzyma": 4309,
      "Ġgodziny": 4310,
      "kreÅĽla": 4311,
      "ĠwziÄĻ": 4312,
      "ĠdÅĤugi": 4313,
      "ĠTrze": 4314,
      "Ġpowa": 4315,
      "mbo": 4316,
      "Ġtygo": 4317,
      "tali": 4318,
      "ĠpoÅĽwiÄĻ": 4319,
      "onÃ³w": 4320,
      "Zmiany": 4321,
      "ĠzastÄĻp": 4322,
      "cent": 4323,
      "Ġameryka": 4324,
      "spÃ³l": 4325,
      "PL": 4326,
      "ll": 4327,
      "Ġdziecko": 4328,
      "strz": 4329,
      "ĠoÅĽrod": 4330,
      "Ġpora": 4331,
      "zmu": 4332,
      "szak": 4333,
      "dnÄħ": 4334,
      "jne": 4335,
      "ĠPla": 4336,
      "Ġono": 4337,
      "Å¼eby": 4338,
      "ĠÅĽcia": 4339,
      "Ġregiona": 4340,
      "klu": 4341,
      "Ġpogo": 4342,
      "cep": 4343,
      "emokra": 4344,
      "gla": 4345,
      "Ġniebie": 4346,
      "Ġwierzy": 4347,
      "Ġupad": 4348,
      "rowania": 4349,
      "Ġistnieje": 4350,
      "ĠnaprawdÄĻ": 4351,
      "Ġnowego": 4352,
      "tyczny": 4353,
      "ĠimiÄĻ": 4354,
      "tyfika": 4355,
      "Ġunij": 4356,
      "stym": 4357,
      "Ġbisku": 4358,
      "armo": 4359,
      "ĠusÅĤugi": 4360,
      "2013": 4361,
      "Ġniniejszej": 4362,
      "ĠMary": 4363,
      "Ġpia": 4364,
      "formu": 4365,
      "jeÅ¼d": 4366,
      "Ġwieczo": 4367,
      "ÂłÂłÂłÂł": 4368,
      "Ġtzw": 4369,
      "Ġdrob": 4370,
      "Ġtrady": 4371,
      "orÄħ": 4372,
      "towy": 4373,
      "Ġzaz": 4374,
      "Ġpowinno": 4375,
      "Ġokresu": 4376,
      "ĠCha": 4377,
      "ĠposzczegÃ³lnych": 4378,
      "ĊÂłĊÂłĊÂłĊÂł": 4379,
      "prawa": 4380,
      "ĠSie": 4381,
      "ĠorganÃ³w": 4382,
      "ĠJez": 4383,
      "ĠrzekÅĤa": 4384,
      "Ġindywidu": 4385,
      "Ġpiersi": 4386,
      "datk": 4387,
      "ĠpÃ³j": 4388,
      "Ġkonty": 4389,
      "Ġostatnie": 4390,
      "ler": 4391,
      "ĠÅĽnie": 4392,
      "it": 4393,
      "zacjÄĻ": 4394,
      "SZ": 4395,
      "61": 4396,
      "Ġniko": 4397,
      "ĠszczegÃ³lnie": 4398,
      "Ġprofe": 4399,
      "niejszy": 4400,
      "ĠmoÅ¼emy": 4401,
      "Ġczeka": 4402,
      "ĠmogÅĤo": 4403,
      "lbrzy": 4404,
      "ĠSprawie": 4405,
      "Ġprzysz": 4406,
      "zwa": 4407,
      "nÄĻli": 4408,
      "SK": 4409,
      "wki": 4410,
      "zek": 4411,
      "ĠosiÄħgniÄĻ": 4412,
      "Ġimieniu": 4413,
      "Ġjakich": 4414,
      "Sa": 4415,
      "ĠmateriaÅĤÃ³w": 4416,
      "ĠciaÅĤa": 4417,
      "\")": 4418,
      "ĠludnoÅĽci": 4419,
      "ĠXI": 4420,
      "nda": 4421,
      "ĠkaÅ¼dej": 4422,
      "ĠcaÅĤego": 4423,
      "Ġpostanowi": 4424,
      "plo": 4425,
      "ĠSÄħd": 4426,
      "Ġmaszy": 4427,
      "onu": 4428,
      "ĠpodrÃ³Å¼": 4429,
      "ĠJuÅ¼": 4430,
      "ÅĽcija": 4431,
      "ĠStani": 4432,
      "Ġliczba": 4433,
      "ĠdziesiÄĻ": 4434,
      "Ġswojego": 4435,
      "ksa": 4436,
      "ĠzewnÄĻtrz": 4437,
      "Ġ70": 4438,
      "Ġtrans": 4439,
      "ĠbezpoÅĽrednio": 4440,
      "Ġkrze": 4441,
      "IA": 4442,
      "ctwo": 4443,
      "ĠmÃ³wiÄħc": 4444,
      "cznymi": 4445,
      "kowej": 4446,
      "Ã³ze": 4447,
      "zny": 4448,
      "Ġskarb": 4449,
      "Ġbieg": 4450,
      "letni": 4451,
      "ĠsÅĤusz": 4452,
      "towego": 4453,
      "Ġcztery": 4454,
      "Ġprzynajmniej": 4455,
      "piÄĩ": 4456,
      "Ġdziewczy": 4457,
      "Ġwykorzysty": 4458,
      "ĠodrÄĻb": 4459,
      "ĠrÄħ": 4460,
      "ĠwojewÃ³dztwa": 4461,
      "ĠmogÅĤy": 4462,
      "Ġpoziomie": 4463,
      "Ġdefi": 4464,
      "Ġdzisiej": 4465,
      "ĠÅĽwi": 4466,
      "ĠrzÄħ": 4467,
      "ĠspÃ³ÅĤki": 4468,
      "Ġwez": 4469,
      "ĠpracÄĻ": 4470,
      "ĠdecyzjÄĻ": 4471,
      "dam": 4472,
      "gram": 4473,
      "Ġzi": 4474,
      "Ġcentrum": 4475,
      "Ġpoprawki": 4476,
      "ĠÅ»e": 4477,
      "tere": 4478,
      "mysÅĤu": 4479,
      "ralnego": 4480,
      "Ġrealiz": 4481,
      "ĠPraw": 4482,
      "Ġwzajem": 4483,
      "Ġsyna": 4484,
      "Ġ,": 4485,
      "Ġzaba": 4486,
      "zdy": 4487,
      "Ġzaga": 4488,
      "ĠÅĽredni": 4489,
      "Ġpil": 4490,
      "ĠprzeszÅĤo": 4491,
      "ĠstaÅĤa": 4492,
      "ĠOn": 4493,
      "Ġ(âĢ¦": 4494,
      "Ġ2021": 4495,
      "Ġstre": 4496,
      "ĠSejmu": 4497,
      "Ġorgany": 4498,
      "ĠdÅĤuÅ¼": 4499,
      "mp": 4500,
      "jest": 4501,
      "ĠsÅĤowo": 4502,
      "ÄĦ": 4503,
      "ĠwielkÄħ": 4504,
      "prawia": 4505,
      "cÅĤa": 4506,
      "ĠogÅĤoszone": 4507,
      "ĠszczÄĻÅĽcie": 4508,
      "ĠjednoczeÅĽnie": 4509,
      "owanym": 4510,
      "Ġdrugiego": 4511,
      "ĠrÃ³wno": 4512,
      "Ġgroma": 4513,
      "ÅĦstwie": 4514,
      "Ġkapita": 4515,
      "Ġrad": 4516,
      "Ã³dz": 4517,
      "ĠwidziaÅĤ": 4518,
      "jski": 4519,
      "ĠwidzÄĻ": 4520,
      "ĠpowtÃ³": 4521,
      "OW": 4522,
      "ĠzresztÄħ": 4523,
      "aÅĤoby": 4524,
      "Ġrezer": 4525,
      "Ġdodaje": 4526,
      "ĠporzÄħdku": 4527,
      "Ġwil": 4528,
      "Ġzatwier": 4529,
      "przypadku": 4530,
      "ĠpieniÄħdze": 4531,
      "Ġ90": 4532,
      "ĠÅ¼adnego": 4533,
      "Ġsubstan": 4534,
      "Ġzba": 4535,
      "Ġponi": 4536,
      "lum": 4537,
      "Ġmini": 4538,
      "przed": 4539,
      "ĠtwÃ³r": 4540,
      "ĠprÃ³b": 4541,
      "ĠmajÄħc": 4542,
      "ĠsprawÄĻ": 4543,
      "Ġresz": 4544,
      "port": 4545,
      "finans": 4546,
      "ĠprzedsiÄĻbiorstw": 4547,
      "ĠRepubli": 4548,
      "wano": 4549,
      "ĠwÅĤaÅĽciwego": 4550,
      "Ð°": 4551,
      "stoÅĽÄĩ": 4552,
      "Ġznacznie": 4553,
      "Ġanty": 4554,
      "Ġobejmuje": 4555,
      "suje": 4556,
      "Ġtransportu": 4557,
      "nes": 4558,
      "Ġpali": 4559,
      "czonej": 4560,
      "rok": 4561,
      "ĠciÄħgle": 4562,
      "ĠogÃ³": 4563,
      "Ġodkry": 4564,
      "onych": 4565,
      "Ġzali": 4566,
      "dawcy": 4567,
      "wskiego": 4568,
      "91": 4569,
      "ĠGene": 4570,
      "ĠXX": 4571,
      "mieniem": 4572,
      "pÃ³w": 4573,
      "Ġzgroma": 4574,
      "laÅĤ": 4575,
      "Ġdlaczego": 4576,
      "Ġpotrafi": 4577,
      "towania": 4578,
      "ĠPor": 4579,
      "dzona": 4580,
      "Ġgodzin": 4581,
      "Lecz": 4582,
      "ĠkapitaÅĤ": 4583,
      "stÄħpiÅĤ": 4584,
      "mery": 4585,
      "chaÅĤa": 4586,
      "reta": 4587,
      "ĠgoÅĽci": 4588,
      "Ġpublicznego": 4589,
      "ks": 4590,
      "Ġgranicy": 4591,
      "Ġkomunika": 4592,
      "szto": 4593,
      "ĠY": 4594,
      "Ġosa": 4595,
      "Ġrach": 4596,
      "dnej": 4597,
      "ĠFa": 4598,
      "ĠÅĤatwo": 4599,
      "Ġprzypom": 4600,
      "ĠpieniÄĻÅ¼": 4601,
      "Ġwykonania": 4602,
      "Ġdyspo": 4603,
      "Ġoczach": 4604,
      "chaj": 4605,
      "ĠCie": 4606,
      "scypli": 4607,
      "wnÄħtrz": 4608,
      "ciÃ³ÅĤ": 4609,
      "ĠGospodar": 4610,
      "ĠwidaÄĩ": 4611,
      "2019": 4612,
      "ĠdaÄĩ": 4613,
      "lonych": 4614,
      "RozporzÄħdzenie": 4615,
      "ĠjakoÅĽci": 4616,
      "ĠwolnoÅĽci": 4617,
      "Ġkoszty": 4618,
      "strzega": 4619,
      "cyjnÄħ": 4620,
      "ĠzÅĤa": 4621,
      "Ġnadal": 4622,
      "Naj": 4623,
      "95": 4624,
      "Å¼dy": 4625,
      "zacja": 4626,
      "Ġinwestycji": 4627,
      "rob": 4628,
      "wienie": 4629,
      "Ġproblem": 4630,
      "parta": 4631,
      "Ġzako": 4632,
      "ĠdokumentÃ³w": 4633,
      "Ġzamy": 4634,
      "ĠPie": 4635,
      "twy": 4636,
      "Ze": 4637,
      "Przez": 4638,
      "ĠpaÅĤa": 4639,
      "ĠBan": 4640,
      "Ġtekstu": 4641,
      "owin": 4642,
      "ĠzrobiÄĩ": 4643,
      "Ġdanego": 4644,
      "ĠKomisjÄĻ": 4645,
      "lina": 4646,
      "ĠÅĽre": 4647,
      "krai": 4648,
      "Ġrza": 4649,
      "ĠtreÅĽci": 4650,
      "gan": 4651,
      "Å¼ar": 4652,
      "pkt": 4653,
      "ĠumoÅ¼liwia": 4654,
      "ÅĤowa": 4655,
      "Ġzmu": 4656,
      "Ġpewne": 4657,
      "ĠkoÅĽci": 4658,
      "ĠwÅĤadzy": 4659,
      "Ġekspo": 4660,
      "Ġindywidual": 4661,
      "Ġpobli": 4662,
      "Ġkonkre": 4663,
      "ĠÅ¼adnych": 4664,
      "ĠusÅĤy": 4665,
      "Ġodzy": 4666,
      "Ġoby": 4667,
      "ĠupowaÅ¼": 4668,
      "98": 4669,
      "Ġkrwi": 4670,
      "fie": 4671,
      "dnego": 4672,
      "Ġrozko": 4673,
      "spos": 4674,
      "cyi": 4675,
      "Ġpatrz": 4676,
      "cony": 4677,
      "Ġbiegnie": 4678,
      "turze": 4679,
      "wien": 4680,
      "ĠBie": 4681,
      "ĠGre": 4682,
      "Ġkwestii": 4683,
      "ĠPaÅĦstw": 4684,
      "ktÃ³rym": 4685,
      "Ġangiel": 4686,
      "Ġskoro": 4687,
      "Ġzebra": 4688,
      "Ġkatego": 4689,
      "tual": 4690,
      "dÅĤo": 4691,
      "ÅĽciach": 4692,
      "ger": 4693,
      "Ġbraku": 4694,
      "owem": 4695,
      "ĠGÅĤÃ³w": 4696,
      "fr": 4697,
      "ĠparÄĻ": 4698,
      "Ġolbrzy": 4699,
      "Ġwyobra": 4700,
      "czyli": 4701,
      "ĠFinans": 4702,
      "ĠsprzÄĻ": 4703,
      "skÄĻ": 4704,
      "niosÅĤa": 4705,
      "ĠodparÅĤ": 4706,
      "ĠdowÃ³d": 4707,
      "Ġwarunkach": 4708,
      "umb": 4709,
      "ĠnÄĻ": 4710,
      "Ġkonkuren": 4711,
      "dzili": 4712,
      "Ġprzera": 4713,
      "ĠÅ¼ywo": 4714,
      "Ġtrakt": 4715,
      "Ġuczestni": 4716,
      "wolu": 4717,
      "Ġdobra": 4718,
      "Ġkobiet": 4719,
      "ĠroÅĽlin": 4720,
      "ĠsprzedaÅ¼y": 4721,
      "Ġnauki": 4722,
      "Ġzaku": 4723,
      "Ġniemal": 4724,
      "spa": 4725,
      "ĠdÄħ": 4726,
      "kowy": 4727,
      "xE": 4728,
      "dowaÅĤ": 4729,
      "ĠPow": 4730,
      "Ġdaje": 4731,
      "ĠwÅĤÄħ": 4732,
      "Ã³ki": 4733,
      "De": 4734,
      "ĠÅĽwiado": 4735,
      "dziale": 4736,
      "ĠstÃ³": 4737,
      "Ġostro": 4738,
      "ĠwydatkÃ³w": 4739,
      "ĠzapytaÅĤ": 4740,
      "chnÄħÅĤ": 4741,
      "ĠÅĽla": 4742,
      "Ġwyposa": 4743,
      "gli": 4744,
      "ĠkoÅĤo": 4745,
      "Ġrozstrzy": 4746,
      "Ġwolno": 4747,
      "ĠNor": 4748,
      "Wo": 4749,
      "ProszÄĻ": 4750,
      "dyn": 4751,
      "Ġzab": 4752,
      "trÃ³w": 4753,
      "Ġinnej": 4754,
      "regu": 4755,
      "ĠkÅĤa": 4756,
      "Sza": 4757,
      "ĠzaÅĤa": 4758,
      "snÄħ": 4759,
      "bel": 4760,
      "Ġwszelkie": 4761,
      "ĠmojÄħ": 4762,
      "ĠÅĽmi": 4763,
      "92": 4764,
      "Ġhe": 4765,
      "ĠSejm": 4766,
      "rzone": 4767,
      "Ġrozma": 4768,
      "Ġfe": 4769,
      "owaw": 4770,
      "ĠcaÅĤa": 4771,
      "pieÅĦ": 4772,
      "ĠPary": 4773,
      "son": 4774,
      "niÄĻcie": 4775,
      "AL": 4776,
      "Ġud": 4777,
      "Ġniespo": 4778,
      "Ġcen": 4779,
      "Ġpolskiej": 4780,
      "Ġarchi": 4781,
      "ĠJÃ³ze": 4782,
      "Ġzdecy": 4783,
      "poli": 4784,
      "nnie": 4785,
      "ĠkrÄĻ": 4786,
      "Ġ1997": 4787,
      "Ġkobieta": 4788,
      "Ġzapewnienia": 4789,
      "Ġwspa": 4790,
      "Ġchro": 4791,
      "Ġstand": 4792,
      "Komisja": 4793,
      "ĠÅ¼adnej": 4794,
      "Ġautor": 4795,
      "ĠwyjÄħtkiem": 4796,
      "Ġproto": 4797,
      "Ġpierwo": 4798,
      "ĠDlatego": 4799,
      "Ġuda": 4800,
      "Ġmoich": 4801,
      "Ġ000": 4802,
      "ĠobjÄĻtych": 4803,
      "czno": 4804,
      "Ġnieprze": 4805,
      "Ġsez": 4806,
      "Ġustawa": 4807,
      "Ġher": 4808,
      "serwa": 4809,
      "gÅĤasza": 4810,
      "ĠrolÄĻ": 4811,
      "ĠsiÅĤ": 4812,
      "Ġzdaw": 4813,
      "rzym": 4814,
      "Ġodwie": 4815,
      "Ġobra": 4816,
      "arem": 4817,
      "thumb": 4818,
      "Ġbroni": 4819,
      "dowaÄĩ": 4820,
      "Ġobrotu": 4821,
      "Ġgospo": 4822,
      "ĠwchodzÄħ": 4823,
      "niaÅĤa": 4824,
      "noty": 4825,
      "nicÄĻ": 4826,
      "byÅĽ": 4827,
      "wiado": 4828,
      "Ġ1999": 4829,
      "chodnim": 4830,
      "Ġiden": 4831,
      "Ġdrugim": 4832,
      "ĠTym": 4833,
      "ĠSto": 4834,
      "ĠudostÄĻp": 4835,
      "ĠTeraz": 4836,
      "Ġprzypomina": 4837,
      "ĠwzdÅĤuÅ¼": 4838,
      "Ġdokony": 4839,
      "Å»e": 4840,
      "Ġautobu": 4841,
      "dry": 4842,
      "ÂŃ": 4843,
      "ĠobowiÄħzek": 4844,
      "ĠpaniÄħ": 4845,
      "ĠbÅĤÄĻ": 4846,
      "rÃ³Å¼y": 4847,
      "ĠÂ»": 4848,
      "rzaÅĤa": 4849,
      "Ġtrakcie": 4850,
      "ĠpÃ³Åºn": 4851,
      "Ġport": 4852,
      "ĠEl": 4853,
      "Ġprzech": 4854,
      "piÅĤ": 4855,
      "cyjna": 4856,
      "iadaÅĤ": 4857,
      "Ġgry": 4858,
      "Ġstopnia": 4859,
      "ĠweszÅĤa": 4860,
      "Ġsamocho": 4861,
      "dziesiÄħ": 4862,
      "ĠobowiÄħzku": 4863,
      "tymi": 4864,
      "ĠoczywiÅĽcie": 4865,
      "Ġfunkcji": 4866,
      "Ġstosow": 4867,
      "Ġnadzoru": 4868,
      "Ġnami": 4869,
      "ĠJana": 4870,
      "Ġanali": 4871,
      "Ġtechno": 4872,
      "ĠKaro": 4873,
      "iÅĤ": 4874,
      "ĠSpraw": 4875,
      "Ġpotrzeba": 4876,
      "nor": 4877,
      "ĠwiedziaÅĤ": 4878,
      "ĠRz": 4879,
      "nikami": 4880,
      "dnym": 4881,
      "93": 4882,
      "Ġramiona": 4883,
      "Ġzasadni": 4884,
      "Ġrozum": 4885,
      "skaÅĤ": 4886,
      "ĠCÃ³Å¼": 4887,
      "Ġwydo": 4888,
      "ĠÅ¼oÅĤnierzy": 4889,
      "pierw": 4890,
      "Ġoczeki": 4891,
      "nieniu": 4892,
      "Ġare": 4893,
      "Ġparla": 4894,
      "Ġobywatel": 4895,
      "ĠTrybunaÅĤu": 4896,
      "Ġofer": 4897,
      "fii": 4898,
      "stÄĻpuje": 4899,
      "czono": 4900,
      "Ġmatki": 4901,
      "Ġzgi": 4902,
      "wziÄĻ": 4903,
      "Ġaka": 4904,
      "Ġtobie": 4905,
      "Ġpunk": 4906,
      "ĠwystÄħpie": 4907,
      "ĠËĿ": 4908,
      "ĠtÅĤuma": 4909,
      "Ġzwol": 4910,
      "Ġswym": 4911,
      "ĠzobaczyÄĩ": 4912,
      "Ġprzyjem": 4913,
      "ĠdÅĤugie": 4914,
      "ĠXV": 4915,
      "Ġniewi": 4916,
      "ĠznajdujÄħ": 4917,
      "Ġnag": 4918,
      "Ġedu": 4919,
      "Ġgmina": 4920,
      "Ġnieba": 4921,
      "ĠskarÅ¼Äħ": 4922,
      "jawia": 4923,
      "Ġmatka": 4924,
      "ET": 4925,
      "Ba": 4926,
      "Ġand": 4927,
      "Ġgwaran": 4928,
      "ĠogÅĤoszenia": 4929,
      "ĠopuÅĽci": 4930,
      "para": 4931,
      "ĊĠĊĊĠÂł": 4932,
      "ĠgÅĤoÅĽ": 4933,
      "lon": 4934,
      "szczegÃ³lnoÅĽci": 4935,
      "Ġsur": 4936,
      "ĠaÅ¼eby": 4937,
      "gier": 4938,
      "Ju": 4939,
      "Ġsami": 4940,
      "rÃ³g": 4941,
      "ĠWarszawa": 4942,
      "ĠÅģa": 4943,
      "ĠChry": 4944,
      "ĠÅ¼yw": 4945,
      "Ġskierowa": 4946,
      "Ġwojewo": 4947,
      "Ġubo": 4948,
      "Ġstoi": 4949,
      "Ġargu": 4950,
      "ĠpieniÄĻdzy": 4951,
      "mowaÄĩ": 4952,
      "nnym": 4953,
      "ĠmoÅ¼liwe": 4954,
      "tania": 4955,
      "es": 4956,
      "ĠmÄħd": 4957,
      "Ġekonomi": 4958,
      "czoraj": 4959,
      "gni": 4960,
      "ĠÅĽwiÄħ": 4961,
      "Ġpozycji": 4962,
      "Ġceny": 4963,
      "dla": 4964,
      "dÅĤem": 4965,
      "ĠplacÃ³w": 4966,
      "Ġzamiast": 4967,
      "Ġpoprzedni": 4968,
      "Ġorganu": 4969,
      "Ġopowie": 4970,
      "ĠPana": 4971,
      "set": 4972,
      "zaleÅ¼": 4973,
      "tnoÅĽÄĩ": 4974,
      "ĠÅ¹rÃ³dÅĤa": 4975,
      "Ġsocja": 4976,
      "97": 4977,
      "ĠAd": 4978,
      "ĠwÅĤasne": 4979,
      "nin": 4980,
      "Ġsre": 4981,
      "ĠmaÅĤÅ¼e": 4982,
      "Ġosie": 4983,
      "Ġnowy": 4984,
      "ĠPonadto": 4985,
      "Ġniebo": 4986,
      "Ġustanowi": 4987,
      "ĠpodmiotÃ³w": 4988,
      "Ġpodda": 4989,
      "Ġofiar": 4990,
      "gaÅĤ": 4991,
      "Ġjednolitego": 4992,
      "ĠsÅĤucha": 4993,
      "prasza": 4994,
      "czonym": 4995,
      "ĠchrzeÅĽcija": 4996,
      "Ġpomy": 4997,
      "ĠprzemysÅĤ": 4998,
      "IS": 4999,
      "DZ": 5000,
      "tycznym": 5001,
      "ĠĠĠĠĠĠĠĠĠĠĠĠĠĠĠĠ": 5002,
      "94": 5003,
      "szuki": 5004,
      "Ġwst": 5005,
      "tywy": 5006,
      "ĠÅļwia": 5007,
      "ĠMia": 5008,
      "ĠchoÄĩby": 5009,
      "ĠEuropy": 5010,
      "ĠrÄĻkÄħ": 5011,
      "ĠduÅ¼e": 5012,
      "Ġobszarze": 5013,
      "rea": 5014,
      "wor": 5015,
      "):": 5016,
      "szczÄħ": 5017,
      "ÅĤaÅĤa": 5018,
      "Ġpojawi": 5019,
      "ĠzakÅĤada": 5020,
      "Ġuprzej": 5021,
      "tniej": 5022,
      "szar": 5023,
      "ĠjÃ©j": 5024,
      "ĠznaleÅºÄĩ": 5025,
      "ĠpopeÅĤ": 5026,
      "Ġzada": 5027,
      "ĠsamorzÄħdu": 5028,
      "Ġkolei": 5029,
      "Ġoczu": 5030,
      "ĠmarszaÅĤ": 5031,
      "ĠÅĽwiade": 5032,
      "ĠchciaÅĤa": 5033,
      "rygi": 5034,
      "Ġâĺ": 5035,
      "Ġgrup": 5036,
      "Przed": 5037,
      "ws": 5038,
      "tkÄĻ": 5039,
      "Ġzdra": 5040,
      "ĠgÅĤosowania": 5041,
      "Ġgi": 5042,
      "dzam": 5043,
      "zach": 5044,
      "terna": 5045,
      "ĠukoÅĦ": 5046,
      "Ġwzru": 5047,
      "Ġtrudno": 5048,
      "RozdziaÅĤ": 5049,
      "zn": 5050,
      "ĠmÃ³wiÄħ": 5051,
      "ziem": 5052,
      "Ġczwar": 5053,
      "Ġgospodarczej": 5054,
      "ĠdotÄħd": 5055,
      "Ġdzieje": 5056,
      "Ġulicy": 5057,
      "ĠsamorzÄħd": 5058,
      "ĠKonstytu": 5059,
      "Ġzbro": 5060,
      "pienia": 5061,
      "Ġtrw": 5062,
      "ĠKazi": 5063,
      "ĠwÄħtpliwoÅĽci": 5064,
      "px": 5065,
      "Ġpowst": 5066,
      "05": 5067,
      "ĠurzÄĻdu": 5068,
      "niÄĻte": 5069,
      "ĠpowyÅ¼ej": 5070,
      "Ġhistorii": 5071,
      "ian": 5072,
      "Ġkonstytu": 5073,
      "Ġpracu": 5074,
      "ĠSp": 5075,
      "Ġgu": 5076,
      "cle": 5077,
      "ĠwyciÄħg": 5078,
      "ĠwyraÅºnie": 5079,
      "ĠPÃ³ÅĤ": 5080,
      "czyn": 5081,
      "ĠjesteÅĽmy": 5082,
      "Ġdyscypli": 5083,
      "Ġstruktu": 5084,
      "ĠobowiÄħza": 5085,
      "ĠumÃ³w": 5086,
      "aÅĤÄħcznik": 5087,
      "Ġodbywa": 5088,
      "Ġprzepisach": 5089,
      "Ġstopniu": 5090,
      "Ġzdaje": 5091,
      "Ġwynagrodzenia": 5092,
      "sh": 5093,
      "sch": 5094,
      "nowaÅĤ": 5095,
      "Ġprzedmiotem": 5096,
      "ĠAgencji": 5097,
      "rzyÅĤa": 5098,
      "Ġszu": 5099,
      "Ġwalki": 5100,
      "Ġpasa": 5101,
      "ĠgÅĤosÃ³w": 5102,
      "Ġsztuki": 5103,
      "niona": 5104,
      "ĠBogu": 5105,
      "ĠdrogÄħ": 5106,
      "ĠspoÅĤecznej": 5107,
      "Ġzga": 5108,
      "ĠKodek": 5109,
      "koÅĤa": 5110,
      "ĠpomyÅĽl": 5111,
      "ÅĤowi": 5112,
      "Ġkara": 5113,
      "ctwem": 5114,
      "ĠKi": 5115,
      "PO": 5116,
      "nisty": 5117,
      "ĠogÃ³le": 5118,
      "Ġrozpozna": 5119,
      "czyÅĤy": 5120,
      "ĠIV": 5121,
      "Ġostatnich": 5122,
      "ĠsÄĻdzi": 5123,
      "Ġnaszym": 5124,
      "ĠskÃ³": 5125,
      "Ġciep": 5126,
      "orÃ³w": 5127,
      "Ġprzyro": 5128,
      "Ġtelewi": 5129,
      "Ġdziecka": 5130,
      "Ġszpita": 5131,
      "dziel": 5132,
      "Hi": 5133,
      "WedÅĤug": 5134,
      "gani": 5135,
      "ĠwÅĤasnych": 5136,
      "ĠÅļwiÄĻ": 5137,
      "ĠpuÅĤ": 5138,
      "Ġmodli": 5139,
      "chan": 5140,
      "Ġ(âĢ¦)": 5141,
      "Ġchle": 5142,
      "ĠZna": 5143,
      "ĠwyÅ¼ej": 5144,
      "ĠprzewodniczÄħcy": 5145,
      "ĠzarzÄħdzania": 5146,
      "ÅĤek": 5147,
      "kien": 5148,
      "dal": 5149,
      "Ġkultury": 5150,
      "Ġwypadku": 5151,
      "ĠznalazÅĤ": 5152,
      "Ġpoczu": 5153,
      "tysty": 5154,
      "formacje": 5155,
      "jeÅ¼dÅ¼a": 5156,
      "Ġpsycho": 5157,
      "Ġtymi": 5158,
      "nicze": 5159,
      "Ġzakres": 5160,
      "Ġnara": 5161,
      "ĠwskaÅº": 5162,
      "Ġewiden": 5163,
      "cymi": 5164,
      "EC": 5165,
      "Ġnadzwyczaj": 5166,
      "Ġdrzewa": 5167,
      "czyÅĤo": 5168,
      "Ġubra": 5169,
      "Ġwiary": 5170,
      "ĠÅļrod": 5171,
      "Ġwyrzu": 5172,
      "bili": 5173,
      "ĠÅ¼Ã³ÅĤ": 5174,
      "Or": 5175,
      "Ġruch": 5176,
      "ĠUrzÄĻdu": 5177,
      "rzec": 5178,
      "rys": 5179,
      "ĠmÄĻÅ¼a": 5180,
      "ĠklÄĻ": 5181,
      "Ġzle": 5182,
      "np": 5183,
      "pisaÅĤ": 5184,
      "ĠRob": 5185,
      "zem": 5186,
      "int": 5187,
      "Ġnorma": 5188,
      "Ġdi": 5189,
      "ĠpoczÄĻ": 5190,
      "Ġbada": 5191,
      "Ġproces": 5192,
      "ĠgÅĤowie": 5193,
      "fry": 5194,
      "kaÅĤa": 5195,
      "Ġinicja": 5196,
      "unku": 5197,
      "ĠBra": 5198,
      "turÄĻ": 5199,
      "ĠwiÄĻzie": 5200,
      "Ġrzad": 5201,
      "Ġsej": 5202,
      "Ġodz": 5203,
      "ĠprawidÅĤ": 5204,
      "kowego": 5205,
      "km": 5206,
      "uwzglÄĻd": 5207,
      "lski": 5208,
      "Ġpodobnie": 5209,
      "Ġznajo": 5210,
      "Ġfunkcjonari": 5211,
      "Ġwojska": 5212,
      "Ġdopuszcza": 5213,
      "Ġznak": 5214,
      "ĠwypeÅĤ": 5215,
      "Ġodez": 5216,
      "tli": 5217,
      "Ġen": 5218,
      "fu": 5219,
      "Ġzwal": 5220,
      "gÅĤÄĻ": 5221,
      "ĠwiÄĻkszoÅĽÄĩ": 5222,
      "torzy": 5223,
      "Ġoczyma": 5224,
      "Ġet": 5225,
      "âĢ¦âĢ¦": 5226,
      "ĠidÄħ": 5227,
      "ĠLecz": 5228,
      "Å»y": 5229,
      "Ġuwie": 5230,
      "ĠGdyby": 5231,
      "Ġwsparcia": 5232,
      "lie": 5233,
      "Ġniewiel": 5234,
      "Ġcodzie": 5235,
      "ĠporÃ³wna": 5236,
      "Polscy": 5237,
      "dziÅĤo": 5238,
      "Ġtermin": 5239,
      "ĠSza": 5240,
      "ĠChi": 5241,
      "Ġcelem": 5242,
      "Ġnogi": 5243,
      "Ġdostaw": 5244,
      "Ġkatoli": 5245,
      "ĠczasÃ³w": 5246,
      "peten": 5247,
      "szeniu": 5248,
      "Ġfakt": 5249,
      "niaÅĤy": 5250,
      "Å¼ek": 5251,
      "Ġmacie": 5252,
      "ĠAch": 5253,
      "ĠBezpie": 5254,
      "ĠiÅĽÄĩ": 5255,
      "Ġwyroku": 5256,
      "Ġfunduszu": 5257,
      "Ġszac": 5258,
      "//": 5259,
      "ĠWÄĻ": 5260,
      "Ġkata": 5261,
      "piÄĻ": 5262,
      "Ġsali": 5263,
      "Ġie": 5264,
      "Ġkoro": 5265,
      "ĠurzÄħdzeÅĦ": 5266,
      "ryj": 5267,
      "Ġsport": 5268,
      "ĠwÅĤÃ³": 5269,
      "Ġrazu": 5270,
      "Ġzbrod": 5271,
      "ĠPowie": 5272,
      "woje": 5273,
      "ĠpatrzÄħ": 5274,
      "gne": 5275,
      "ĠodpowiedÅº": 5276,
      "Ġdrew": 5277,
      "Ġkor": 5278,
      ".).": 5279,
      "Ġpochodzi": 5280,
      "Ġy": 5281,
      "nkiem": 5282,
      "Å¼onej": 5283,
      "stanie": 5284,
      "100": 5285,
      "Ġinni": 5286,
      "Ġoku": 5287,
      "ĠstÄħd": 5288,
      "niania": 5289,
      "ruje": 5290,
      "Ġjeno": 5291,
      "siada": 5292,
      "Ġkonsek": 5293,
      "organiz": 5294,
      "Ġwyrazy": 5295,
      "ĠMam": 5296,
      "zyj": 5297,
      "lika": 5298,
      "ĠrozwiÄħzania": 5299,
      "Kon": 5300,
      "Ġregula": 5301,
      "Ġakcji": 5302,
      "kimi": 5303,
      "Ġzatrudnienia": 5304,
      "kazaÄĩ": 5305,
      "Ġsymbo": 5306,
      "ĠwstÄĻp": 5307,
      "Ġobywateli": 5308,
      "torze": 5309,
      "ĠbÄĻdziesz": 5310,
      "str": 5311,
      "ĠHu": 5312,
      "ĠBardzo": 5313,
      "Ġboha": 5314,
      "aÅĤÄĻ": 5315,
      "Ġdotk": 5316,
      "Ġ1990": 5317,
      "ĠNarodowej": 5318,
      "Â°": 5319,
      "Ġprawdopodob": 5320,
      "Ġchcesz": 5321,
      "ĠfaÅĤ": 5322,
      "Ġzatrzyma": 5323,
      "Ġchemi": 5324,
      "Ġwsz": 5325,
      "Ġinterpre": 5326,
      "ĠTylko": 5327,
      "syÄĩ": 5328,
      "Ġzacho": 5329,
      "ĠwszedÅĤ": 5330,
      "ĊĊĠÂłÂłĊ": 5331,
      "anta": 5332,
      "ĊĠÂłÂłĊĠĊĠ": 5333,
      "Ġspostrze": 5334,
      "ĠwÅĤasnoÅĽci": 5335,
      "ly": 5336,
      "ĠniektÃ³re": 5337,
      "ĠrzeczywiÅĽcie": 5338,
      "tyczna": 5339,
      "ĠPozna": 5340,
      "Ġcesa": 5341,
      "aliz": 5342,
      "Ġow": 5343,
      "ĠwnioskÃ³w": 5344,
      "wentual": 5345,
      "wny": 5346,
      "rekty": 5347,
      "Ġkola": 5348,
      "ĠrobiÄĩ": 5349,
      "ĠliczbÄĻ": 5350,
      "mpi": 5351,
      "Lu": 5352,
      "Ġoka": 5353,
      "kowski": 5354,
      "Ġzak": 5355,
      "Ġorganiz": 5356,
      "ĠCO": 5357,
      "rzeniu": 5358,
      "Ġsma": 5359,
      "leniu": 5360,
      "dawca": 5361,
      "ĠgwaÅĤtow": 5362,
      "ĠcaÅĤoÅĽci": 5363,
      "ĠiloÅĽci": 5364,
      "ĠGu": 5365,
      "Ġrozm": 5366,
      "JeÅĽli": 5367,
      "Ġnienawi": 5368,
      "ĠuÅ¼ytkow": 5369,
      "ĠKazimie": 5370,
      "ĠdostÄĻpu": 5371,
      "Ġzwyk": 5372,
      "ÅĦskÄħ": 5373,
      "Ġstaje": 5374,
      "stety": 5375,
      "ĠÅĤÃ³Å¼": 5376,
      "Ġprowin": 5377,
      "Ġfinansowe": 5378,
      "Bi": 5379,
      "cier": 5380,
      "ĠproÅĽ": 5381,
      "Ġpomie": 5382,
      "ĠjÄĻzyka": 5383,
      "czoÅĽci": 5384,
      "Ġminut": 5385,
      "ĠudziaÅĤu": 5386,
      "mujÄħc": 5387,
      "wajÄħc": 5388,
      "lom": 5389,
      "diÃ³w": 5390,
      "Ġdostos": 5391,
      "Ġwiecz": 5392,
      "Dla": 5393,
      "ĠpodrÃ³Å¼y": 5394,
      "Tu": 5395,
      "ĠPrzez": 5396,
      "kowania": 5397,
      "tkÄħ": 5398,
      "Ġspodzie": 5399,
      "tes": 5400,
      "hy": 5401,
      "ces": 5402,
      "Ġpewno": 5403,
      "rÄĻcz": 5404,
      "Ġuroczy": 5405,
      "peÅĤno": 5406,
      "ĠprzyjÄĻcia": 5407,
      "ĠwÃ³d": 5408,
      "07": 5409,
      "ĠuÅĤa": 5410,
      "mentar": 5411,
      "nty": 5412,
      "Ġojczy": 5413,
      "Ġryce": 5414,
      "Ġplanu": 5415,
      "ĠukÅĤad": 5416,
      "ĠSzcze": 5417,
      "Ġzwyczaj": 5418,
      "tto": 5419,
      "snÄħÅĤ": 5420,
      "niejsza": 5421,
      "ĠlÄĻ": 5422,
      "sÄĻ": 5423,
      "ĠSprawiedliwoÅĽci": 5424,
      "ĠobowiÄħzkÃ³w": 5425,
      "ĠCza": 5426,
      "Ġlekar": 5427,
      "ĠwoÅĤa": 5428,
      "ĠSer": 5429,
      "ĠPolskiego": 5430,
      "Ġkonta": 5431,
      "stÄħpiÄĩ": 5432,
      "Ġ1998": 5433,
      "Ġfra": 5434,
      "stnie": 5435,
      "ĠoddziaÅĤy": 5436,
      "ĠwdziÄĻ": 5437,
      "ĠmÃ³wiÄĻ": 5438,
      "ralny": 5439,
      "ĠkiedyÅĽ": 5440,
      "Ġzbo": 5441,
      "Ġinfra": 5442,
      "gania": 5443,
      "ĠMarszaÅĤku": 5444,
      "Ġwprost": 5445,
      "AC": 5446,
      "Ġzasta": 5447,
      "Ġpoten": 5448,
      "ĠbyÅĤem": 5449,
      "lus": 5450,
      "ĠwziÄħÅĤ": 5451,
      "Ġlisty": 5452,
      "ĠGdzie": 5453,
      "Ġlegi": 5454,
      "Ġchi": 5455,
      "ĠNatomiast": 5456,
      "Ġstr": 5457,
      "liÅĤa": 5458,
      "ĠprÃ³Å¼": 5459,
      "ĠkoÅĽcie": 5460,
      "ĠSpoÅĤe": 5461,
      "ĠpostaÄĩ": 5462,
      "koÅĤo": 5463,
      "niesienia": 5464,
      "ĠTur": 5465,
      "Ġdochodzi": 5466,
      "Ġwspomnia": 5467,
      "Ġwydania": 5468,
      "ĠGru": 5469,
      "Ġzbu": 5470,
      "storia": 5471,
      "Ġwielkim": 5472,
      "Ġzer": 5473,
      "ĠpiÄħ": 5474,
      "Ġagen": 5475,
      "Mie": 5476,
      "ĠEUR": 5477,
      "Ġdzwo": 5478,
      "rzony": 5479,
      "Ġemery": 5480,
      "Ġwraca": 5481,
      "ĠTam": 5482,
      "towaÅĤ": 5483,
      "nemi": 5484,
      "ĠpociÄħg": 5485,
      "Ġkonstru": 5486,
      "Ð¾": 5487,
      "weÅĤ": 5488,
      "pela": 5489,
      "ĠwielkoÅĽci": 5490,
      "mowania": 5491,
      "menda": 5492,
      "2021": 5493,
      "Ġex": 5494,
      "Ġwidzenia": 5495,
      "Ġpobiera": 5496,
      "ĠSkarbu": 5497,
      "Ġwszystkiego": 5498,
      "rzeniem": 5499,
      "Ġwiedzy": 5500,
      "Ġzby": 5501,
      "ille": 5502,
      "ĠjakÄħÅĽ": 5503,
      "ĠciaÅĤo": 5504,
      "Ġnapisa": 5505,
      "ĠwiedzieÄĩ": 5506,
      "ĠpostÄĻpowanie": 5507,
      "2018": 5508,
      "Ġumar": 5509,
      "Ġogro": 5510,
      "Ġzdaniem": 5511,
      "legÅĤoÅĽci": 5512,
      "ĠszkÃ³ÅĤ": 5513,
      "ĠWÅĤady": 5514,
      "Ġniezwy": 5515,
      "Ġniem": 5516,
      "waÅĤem": 5517,
      "Ġrejestru": 5518,
      "Ġcicho": 5519,
      "ĠKrakowie": 5520,
      "Ġ35": 5521,
      "ZaÅĤÄħcznik": 5522,
      "Ġrosyj": 5523,
      "Ġzawi": 5524,
      "Ġopiera": 5525,
      "âĢľ.": 5526,
      "ĠÅĽrodka": 5527,
      "niejszym": 5528,
      "Mar": 5529,
      "Ġrzeki": 5530,
      "aÅĤeÅĽ": 5531,
      "Ġkompeten": 5532,
      "spoko": 5533,
      "Ġfinansowania": 5534,
      "Ġprzepisami": 5535,
      "ĠZd": 5536,
      "Ġcztere": 5537,
      "ĠprzeÅĤo": 5538,
      "dowi": 5539,
      "tal": 5540,
      "ĠmuszÄĻ": 5541,
      "Ġgre": 5542,
      "mor": 5543,
      "Ġprzedstawie": 5544,
      "ĠprzyjaciÃ³ÅĤ": 5545,
      "ksand": 5546,
      "nÃ©j": 5547,
      "ĠpeÅĤno": 5548,
      "zost": 5549,
      "ÅĤuje": 5550,
      "ĠRP": 5551,
      "Ġryzyka": 5552,
      "Ġinspek": 5553,
      "ĠupÅĤywie": 5554,
      "ĠMiÄĻdzy": 5555,
      "trum": 5556,
      "prawdzie": 5557,
      "Ġbudowla": 5558,
      "Ġuzyskania": 5559,
      "peÅĤnospraw": 5560,
      "ĠgÅĤÄĻbi": 5561,
      "Ġznie": 5562,
      "Ġfun": 5563,
      "ĠnazwÄĻ": 5564,
      "ÅĤoÅĽÄĩ": 5565,
      "szÄħc": 5566,
      "ĠKsiÄĻ": 5567,
      "bach": 5568,
      "ĠpeÅĤni": 5569,
      "ĠsporzÄħ": 5570,
      "sÄħd": 5571,
      "Ġzdzi": 5572,
      "ĠzasiÄĻ": 5573,
      "tkowo": 5574,
      "ruk": 5575,
      "Ġzapewne": 5576,
      "ĠCzÄĻ": 5577,
      "Ġnowej": 5578,
      "ĠwyjaÅĽnie": 5579,
      "âĨ": 5580,
      "Ġchwy": 5581,
      "Ġproduce": 5582,
      "ĠspoÅĤeczeÅĦstwa": 5583,
      "zwiÄħzku": 5584,
      "Ġczyni": 5585,
      "Ġwystarcza": 5586,
      "cel": 5587,
      "Ġmoni": 5588,
      "que": 5589,
      "ĠotrzymaÅĤ": 5590,
      "Ġsprawozdania": 5591,
      "ĠTrzeba": 5592,
      "ĠFinansÃ³w": 5593,
      "Ġokru": 5594,
      "?...": 5595,
      "dziÅĤy": 5596,
      "aÅĤoÅĽci": 5597,
      "Polska": 5598,
      "mowaÅĤ": 5599,
      "ĠrÃ³wnowa": 5600,
      "niosek": 5601,
      "ĠOto": 5602,
      "Ġnumer": 5603,
      "Ġmechaniz": 5604,
      "ĠmÃ³wiÅĤa": 5605,
      "ĠZy": 5606,
      "Ġsercu": 5607,
      "Ġenerge": 5608,
      "ĠbieÅ¼Äħ": 5609,
      "Ġprzecie": 5610,
      "dium": 5611,
      "Å¼nie": 5612,
      "IT": 5613,
      "Ġâĺı": 5614,
      "ĠCzar": 5615,
      "://": 5616,
      "wne": 5617,
      "Ga": 5618,
      "skiemu": 5619,
      "Ġwszelkich": 5620,
      "wÃ³d": 5621,
      "ĠktÃ³remu": 5622,
      "ĠdrugÄħ": 5623,
      "Ġodpad": 5624,
      "Ġcer": 5625,
      "ĠwrÃ³ci": 5626,
      "rÃ³wnowa": 5627,
      "matu": 5628,
      "Pier": 5629,
      "produ": 5630,
      "ĠskÄħd": 5631,
      "Ġreligi": 5632,
      "ksyma": 5633,
      "rzch": 5634,
      "Ġcio": 5635,
      "ografi": 5636,
      "ĠzaczÄĻÅĤa": 5637,
      "Ġbym": 5638,
      "Ġzdu": 5639,
      "ĠrÄĻku": 5640,
      "ĠbÃ³": 5641,
      "Ġprzeszko": 5642,
      "cielem": 5643,
      "Ġwiadomo": 5644,
      "czni": 5645,
      "jechaÅĤ": 5646,
      "szÅĤy": 5647,
      "Ġkary": 5648,
      "gip": 5649,
      "ĠstaÅĤy": 5650,
      "Ġmiast": 5651,
      "ĠleÅ¼Äħ": 5652,
      "ĠnaprzÃ³d": 5653,
      "Ġpola": 5654,
      "Ġzezwolenia": 5655,
      "ĠgÃ³rÄĻ": 5656,
      "zÄĻ": 5657,
      "Ġzasadach": 5658,
      "robo": 5659,
      "miaru": 5660,
      "Ġoskar": 5661,
      "ĠÂ«": 5662,
      "ĠWal": 5663,
      "ĠpobliÅ¼u": 5664,
      "jÄĻtnoÅĽci": 5665,
      "togra": 5666,
      "Ġzatrzy": 5667,
      "Ġmiej": 5668,
      "zeku": 5669,
      "Ġuprawnienia": 5670,
      "ologi": 5671,
      "Ġimpre": 5672,
      "ĠÄĩ": 5673,
      "szczone": 5674,
      "stki": 5675,
      "ĠprogramÃ³w": 5676,
      "Ġsprowa": 5677,
      "skimi": 5678,
      "ĠChrystu": 5679,
      "Ġnajp": 5680,
      "hu": 5681,
      "AS": 5682,
      "leni": 5683,
      "Ġgor": 5684,
      "Ġpewien": 5685,
      "Ġkart": 5686,
      "dziela": 5687,
      "Ġsystemie": 5688,
      "Ġregionie": 5689,
      "ĠsamÄħ": 5690,
      "Bar": 5691,
      "spie": 5692,
      "Ġograniczenia": 5693,
      "ĠwiadomoÅĽci": 5694,
      "Ġwios": 5695,
      "Ġlos": 5696,
      "ÅĤami": 5697,
      "Ġsamolo": 5698,
      "Å¼ne": 5699,
      "kreÅĽli": 5700,
      "PR": 5701,
      "Ġnieraz": 5702,
      "Ġwielkiego": 5703,
      "dob": 5704,
      "ĠNajwyÅ¼": 5705,
      "chrony": 5706,
      "nale": 5707,
      "ĠpiÅĤ": 5708,
      "ĠuprawnieÅĦ": 5709,
      "miana": 5710,
      "tycznÄħ": 5711,
      "ĠÅºle": 5712,
      "Ġ45": 5713,
      "ĠUrzÄĻd": 5714,
      "Ġobni": 5715,
      "mon": 5716,
      "2014": 5717,
      "Ġgrzy": 5718,
      "Ġwidok": 5719,
      "Ġnatury": 5720,
      "dzonej": 5721,
      "AD": 5722,
      "ÅĦcy": 5723,
      "âĨĳ": 5724,
      "ĠurzÄħdzenia": 5725,
      "ĠKor": 5726,
      "Ġpunkt": 5727,
      "Ġrozli": 5728,
      "niaÄĩ": 5729,
      "ĠznaczÄħ": 5730,
      "nieÄĩ": 5731,
      "ĠpowiÄħza": 5732,
      "ĠWarszawy": 5733,
      "ĠpojazdÃ³w": 5734,
      "Ġznik": 5735,
      "ĠÅ¼yÄĩ": 5736,
      "Ġpoin": 5737,
      "tacza": 5738,
      "naÅĽcie": 5739,
      "Ġkomi": 5740,
      "Ġstatku": 5741,
      "giÄĻ": 5742,
      "wnie": 5743,
      "ĠTrybunaÅĤ": 5744,
      "Ġwzrost": 5745,
      "ĠwkrÃ³tce": 5746,
      "Ġtur": 5747,
      "ĠtÅĤum": 5748,
      "ĠzgÅĤasza": 5749,
      "Ġpodpisa": 5750,
      "Ġpostawi": 5751,
      "Ġtempera": 5752,
      "Ġskle": 5753,
      "ĠWspÃ³l": 5754,
      "ĠÅ¼aden": 5755,
      "ĠwÅĤasnej": 5756,
      "Ġwzo": 5757,
      "ĠAleksand": 5758,
      "trzeÄĩ": 5759,
      "Ġprote": 5760,
      "sjÄĻ": 5761,
      "ĠrÄĻki": 5762,
      "02": 5763,
      "gnÄħÄĩ": 5764,
      "Ġdroga": 5765,
      "owanÄħ": 5766,
      "Ġzapropo": 5767,
      "stÄĻpnie": 5768,
      "Ġniemie": 5769,
      "Ġzech": 5770,
      "ĠĠĠĠĠĠĠ": 5771,
      "----------------": 5772,
      "daj": 5773,
      "Ġewentual": 5774,
      "ĠpoczÄħÅĤ": 5775,
      "ĠzespoÅĤu": 5776,
      "ol": 5777,
      "Ġprocedury": 5778,
      "ryk": 5779,
      "ĠOczy": 5780,
      "ĠobciÄħ": 5781,
      "ÅĽciÄĩ": 5782,
      "Ġprak": 5783,
      "ĠchciaÅĤbym": 5784,
      "Ġca": 5785,
      "pach": 5786,
      "Ġnieprzyja": 5787,
      "ĠzÄĻ": 5788,
      "spe": 5789,
      "ĠzaÅĤÄħczniku": 5790,
      "ex": 5791,
      "rzekÅĤ": 5792,
      "No": 5793,
      "Ġwsty": 5794,
      "Ġpozytyw": 5795,
      "ĠksiÄĻÅ¼y": 5796,
      "ĠRzecz": 5797,
      "Ġpoziomu": 5798,
      "ĠrozwÃ³j": 5799,
      "ĠNau": 5800,
      "ecnie": 5801,
      "nkach": 5802,
      "ina": 5803,
      "Ġfar": 5804,
      "Ġmocno": 5805,
      "wodaw": 5806,
      "NA": 5807,
      "Ġpolu": 5808,
      "Ġdoro": 5809,
      "Ġpowtarza": 5810,
      "ĠtytuÅĤ": 5811,
      "ĠnajwaÅ¼": 5812,
      "Ġtrwa": 5813,
      "bija": 5814,
      "Ġwynik": 5815,
      "Ġzbiera": 5816,
      "Sy": 5817,
      "Ġprzekro": 5818,
      "ralnej": 5819,
      "Ġdziedzinie": 5820,
      "seÅĤ": 5821,
      "car": 5822,
      "ĠprzejÄĻ": 5823,
      "Ġzastosowania": 5824,
      "Ġuzasadnio": 5825,
      "ĠrÄħk": 5826,
      "ĠprojektÃ³w": 5827,
      "Ġnapo": 5828,
      "Ġpotwierdza": 5829,
      "Ġducha": 5830,
      "Ġpierwszych": 5831,
      "ÅĽrod": 5832,
      "Ġwiesz": 5833,
      "Ġadres": 5834,
      "Ġkryzy": 5835,
      "ĠmaÅĤe": 5836,
      "Ġklucz": 5837,
      "glÄħdaÅĤ": 5838,
      "przeciw": 5839,
      "ĠAng": 5840,
      "Ġwniosko": 5841,
      "lkoho": 5842,
      "byÅĽmy": 5843,
      "ĠtworzÄħ": 5844,
      "Ġprace": 5845,
      "Ġchmu": 5846,
      "jekt": 5847,
      "ĠWszystko": 5848,
      "Ġzamieszka": 5849,
      "Ġprzywi": 5850,
      "Ġrodzaj": 5851,
      "gospodar": 5852,
      "ĠToma": 5853,
      "ĠgdzieÅĽ": 5854,
      "Ġprosto": 5855,
      "Ġprawem": 5856,
      "ĠleÅ¼y": 5857,
      "ff": 5858,
      "rant": 5859,
      "piec": 5860,
      "Ġpoziom": 5861,
      "ĠzamÃ³wie": 5862,
      "ĠosobÄĻ": 5863,
      "ieÅĦ": 5864,
      "Ġorygi": 5865,
      "Ġczemu": 5866,
      "Ġrozsze": 5867,
      "ĠspoÅ¼y": 5868,
      "ĠDlaczego": 5869,
      "ĠHer": 5870,
      "gaÅ¼": 5871,
      "Ġ(âĢŀ": 5872,
      "cin": 5873,
      "darz": 5874,
      "dzonÄħ": 5875,
      "Ġwina": 5876,
      "kiedy": 5877,
      "fikowa": 5878,
      "Ġpodmiot": 5879,
      "cina": 5880,
      "ĠOj": 5881,
      "ĠÅĽwiatowej": 5882,
      "Ġegzeku": 5883,
      "dzaÅĤ": 5884,
      "ĠmoÅ¼esz": 5885,
      "pem": 5886,
      "czÄĻÅĽciej": 5887,
      "padÅĤ": 5888,
      "takÅ¼e": 5889,
      "ĠfinansÃ³w": 5890,
      "Ġdrzew": 5891,
      "Ustawa": 5892,
      "anu": 5893,
      "ĠzgodnoÅĽci": 5894,
      "Ġwizy": 5895,
      "Ġsposobu": 5896,
      "bla": 5897,
      "Ġprzestrzeni": 5898,
      "ĠzdolnoÅĽci": 5899,
      "ĠktÃ³rymi": 5900,
      "Ġogni": 5901,
      "ĠPiotr": 5902,
      "ĠmÄħÅ¼": 5903,
      "ryte": 5904,
      "Ġinterne": 5905,
      "Ġobejmu": 5906,
      "Ġpocie": 5907,
      "Ġminima": 5908,
      "Ġdomy": 5909,
      "ĠjÄĻzyk": 5910,
      "ĠwiÄĻkszoÅĽci": 5911,
      "ĠkawaÅĤ": 5912,
      "Ġhandlu": 5913,
      "Ġemisji": 5914,
      "ĠRozwoju": 5915,
      "fli": 5916,
      "Ġemi": 5917,
      "ĠzostanÄħ": 5918,
      "ĠAnto": 5919,
      "ĠRada": 5920,
      "giona": 5921,
      "maÅĤa": 5922,
      "Ġpory": 5923,
      "leniem": 5924,
      "ĠjÄĻzyku": 5925,
      "Ġpopar": 5926,
      "Ġkrajowych": 5927,
      "niÄĻty": 5928,
      "czami": 5929,
      "ĠwraÅ¼enie": 5930,
      "ĠGÃ³r": 5931,
      "ĠskrÄĻ": 5932,
      "Ġwscho": 5933,
      "Ġpowinni": 5934,
      "Ġwczoraj": 5935,
      "rÄĻdz": 5936,
      "Ġmiesza": 5937,
      "Ġnazwa": 5938,
      "ĠMusi": 5939,
      "dowania": 5940,
      "Ġkategorii": 5941,
      "ĠwyglÄħda": 5942,
      "Ġpodobne": 5943,
      "Ġpotrzebu": 5944,
      "Ã¤": 5945,
      "ĠJestem": 5946,
      "kres": 5947,
      "ĠSzy": 5948,
      "ĠkoÅĦc": 5949,
      "Ġszereg": 5950,
      "blio": 5951,
      "Ġpochy": 5952,
      "Szanow": 5953,
      "Ġinten": 5954,
      "08": 5955,
      "ĠprzeksztaÅĤ": 5956,
      "ĠspytaÅĤ": 5957,
      "*,": 5958,
      "ĠleÅĽ": 5959,
      "Ġbur": 5960,
      "ĠAndrzej": 5961,
      "Ġuwadze": 5962,
      "szyscy": 5963,
      "ĠwyszedÅĤ": 5964,
      "Ġaresz": 5965,
      "03": 5966,
      "Ġponownie": 5967,
      "spi": 5968,
      "Ġzasob": 5969,
      "gosÅĤa": 5970,
      "orÄħc": 5971,
      "........": 5972,
      "ĠPK": 5973,
      "gnÄħÅĤ": 5974,
      "ĠOs": 5975,
      "Ġodpowiednie": 5976,
      "ĠspoÅĤecznych": 5977,
      "czonÄħ": 5978,
      "ĠsprawiedliwoÅĽci": 5979,
      "Ġdyplo": 5980,
      "Ġpowiem": 5981,
      "Ġwytwarza": 5982,
      "Ġfilm": 5983,
      "ĠÅĽwiatÅĤa": 5984,
      "formy": 5985,
      "niczego": 5986,
      "Ġwyrok": 5987,
      "ĠÅ¼ar": 5988,
      "Ġinsta": 5989,
      "grzy": 5990,
      "lec": 5991,
      "Ġformy": 5992,
      "dor": 5993,
      "Ġobszar": 5994,
      "logia": 5995,
      "wska": 5996,
      "Ġtwar": 5997,
      "Ġpowiatu": 5998,
      "nÃ³": 5999,
      "Â²": 6000,
      "ĠzobowiÄħzaÅĦ": 6001,
      "ĠszeÅĽÄĩ": 6002,
      "Ġmle": 6003,
      "Ġtymczas": 6004,
      "Ġnadzor": 6005,
      "Ðµ": 6006,
      "rego": 6007,
      "Ġsamych": 6008,
      "Ġterytorialnego": 6009,
      "wiony": 6010,
      "Ġustalenia": 6011,
      "szty": 6012,
      "Ġzadowo": 6013,
      "Ġscho": 6014,
      "ĠzÅĤotych": 6015,
      "Ġmal": 6016,
      "Zgodnie": 6017,
      "owiec": 6018,
      "Ġwp": 6019,
      "kÅĤadnie": 6020,
      "Ġwysp": 6021,
      "ĠpamiÄĻci": 6022,
      "ĠksiÄĻcia": 6023,
      "Ġeksplo": 6024,
      "dnienie": 6025,
      "ÅĽciami": 6026,
      "Ġit": 6027,
      "ranspo": 6028,
      "Ġprzycho": 6029,
      "Ġtryb": 6030,
      "ĠmiejscowoÅĽci": 6031,
      "czar": 6032,
      "Ġpewnego": 6033,
      "ĠniezbÄĻdne": 6034,
      "ciej": 6035,
      "wek": 6036,
      "mos": 6037,
      "Ġjutro": 6038,
      "bami": 6039,
      "Ġspecy": 6040,
      "Ġcudzo": 6041,
      "jesz": 6042,
      "NIE": 6043,
      "eÅĽ": 6044,
      "dera": 6045,
      "âĢľ,": 6046,
      "Ġtymczasem": 6047,
      "ĠByÅĤa": 6048,
      "Ġsch": 6049,
      "ĠEu": 6050,
      "tÅĤu": 6051,
      "Ġtworzy": 6052,
      "ĠczÅĤonkowskiego": 6053,
      "ÅĽleÄĩ": 6054,
      "landii": 6055,
      "Ġnazwy": 6056,
      "regul": 6057,
      "ĠmaÅĤy": 6058,
      "ĠpÅĤ": 6059,
      "Ġzarazem": 6060,
      "ĠodpowiedzialnoÅĽci": 6061,
      "Ġustanawia": 6062,
      "ĠUniwersyte": 6063,
      "ĠmiaÅĤem": 6064,
      "Ġcharakterze": 6065,
      "Ġprzychodzi": 6066,
      "Ġgrun": 6067,
      "Ġzagra": 6068,
      "Ġopu": 6069,
      "Ġzaledwie": 6070,
      "kowane": 6071,
      "Ġrozumieniu": 6072,
      "Ġposiedzeniu": 6073,
      "Spo": 6074,
      "Ġbr": 6075,
      "ĠSze": 6076,
      "ĠÅģo": 6077,
      "Ġkonkur": 6078,
      "pio": 6079,
      "06": 6080,
      "draÅ¼a": 6081,
      "Ġmorza": 6082,
      "ciaÅĤbym": 6083,
      "ĠsÅĤoÅĦca": 6084,
      "ĠbÅĤÄĻd": 6085,
      "04": 6086,
      "Ġcele": 6087,
      "Pre": 6088,
      "Ġprzywo": 6089,
      "Ġsektora": 6090,
      "Ġsygna": 6091,
      "Ġwielkiej": 6092,
      "Ġwarunkiem": 6093,
      "staura": 6094,
      "kru": 6095,
      "skry": 6096,
      "dnoÅĽÄĩ": 6097,
      "Ġspotk": 6098,
      "Ġodwa": 6099,
      "uwzglÄĻdniajÄħc": 6100,
      "ĠWs": 6101,
      "Ġaktual": 6102,
      "ĠcaÅĤkowicie": 6103,
      "Ġwio": 6104,
      "ÃŃ": 6105,
      "ĠnajbliÅ¼": 6106,
      "ĠrÄĻka": 6107,
      "szona": 6108,
      "ĠÅļlÄħ": 6109,
      "Ġabso": 6110,
      "Ġopubli": 6111,
      "ya": 6112,
      "tyj": 6113,
      "postÄĻp": 6114,
      "ĠzakÅĤadu": 6115,
      "Ġreak": 6116,
      "Ġrzym": 6117,
      "Ġchoroby": 6118,
      "Ġnikogo": 6119,
      "09": 6120,
      "strza": 6121,
      "lnictwa": 6122,
      "Ġujaw": 6123,
      "Ġpodstawowych": 6124,
      "Ġpraco": 6125,
      "Ġprzekazy": 6126,
      "tz": 6127,
      "miaÅĤa": 6128,
      "ĠdosyÄĩ": 6129,
      "pliwie": 6130,
      "wÅĤo": 6131,
      "Ġdemokra": 6132,
      "Ġzgody": 6133,
      "rÃ³deÅĤ": 6134,
      "rych": 6135,
      "ĠGro": 6136,
      "ĠwysokoÅĽÄĩ": 6137,
      "lla": 6138,
      "nowaÄĩ": 6139,
      "Ġlikwidacji": 6140,
      "Ġblisko": 6141,
      "ĠThe": 6142,
      "ĠzapewniÄĩ": 6143,
      "Ġubezpieczenia": 6144,
      "szonych": 6145,
      "Ġdecyzja": 6146,
      "ĠwiÄĻkszej": 6147,
      "wemu": 6148,
      "Ġkompu": 6149,
      "dyj": 6150,
      "Ġtrwo": 6151,
      "Ġegzami": 6152,
      "Ġkontynu": 6153,
      "jona": 6154,
      "ĠPracy": 6155,
      "szeÅĦ": 6156,
      "Ġwychodzi": 6157,
      "OL": 6158,
      "ĠNic": 6159,
      "ĠÅĤago": 6160,
      "Ġwybiera": 6161,
      "ĠMÃ³wi": 6162,
      "Ġartysty": 6163,
      "ou": 6164,
      "demii": 6165,
      "ĠubezpieczeÅĦ": 6166,
      "liny": 6167,
      "ĠzwrÃ³ciÄĩ": 6168,
      "ĠPÃ³ÅĤnoc": 6169,
      "Ġmaksyma": 6170,
      "ĠprzedÅĤu": 6171,
      "RR": 6172,
      "ĠwystÄĻpuje": 6173,
      "Ġpolskie": 6174,
      "Ġpanowie": 6175,
      "Ġzdrowotnej": 6176,
      "ww": 6177,
      "Ġ33": 6178,
      "lono": 6179,
      "ĠtwÃ³j": 6180,
      "Ġbudowy": 6181,
      "ĠSam": 6182,
      "Ġzorganiz": 6183,
      "Ġsia": 6184,
      "sznie": 6185,
      "rus": 6186,
      "ĠMor": 6187,
      "Ġpopular": 6188,
      "Ġzapisa": 6189,
      "Ġwygra": 6190,
      "obraz": 6191,
      "ĠSÄħdu": 6192,
      "ÅĽwiet": 6193,
      "ĠnadziejÄĻ": 6194,
      "Ġtrafi": 6195,
      "Ġwykonu": 6196,
      "ĠkrÃ³le": 6197,
      "ĠAugu": 6198,
      "rzego": 6199,
      "ĠkÅĤo": 6200,
      "Ġram": 6201,
      "ĠkwotÄĻ": 6202,
      "ĠJako": 6203,
      "ĠsÅĤoÅĦce": 6204,
      "ĠSzko": 6205,
      "stka": 6206,
      "Ġwskazu": 6207,
      "skach": 6208,
      "ĠniepeÅĤnospraw": 6209,
      "ĠwÅĤaÅĽciwie": 6210,
      "bytu": 6211,
      "ĠMinisterstwa": 6212,
      "Ġnaci": 6213,
      "ÅĤom": 6214,
      "dak": 6215,
      "Ġzostawi": 6216,
      "ĠOtÃ³Å¼": 6217,
      "Ġspokojnie": 6218,
      "ĠÅºrÃ³deÅĤ": 6219,
      "ĠpÅĤatnoÅĽci": 6220,
      "Ġkana": 6221,
      "Ġczterech": 6222,
      "ĠbÅĤa": 6223,
      "ĠPostaÄĩ": 6224,
      "ĠkoniecznoÅĽci": 6225,
      "Ġtj": 6226,
      "ralnych": 6227,
      "ãģ": 6228,
      "Me": 6229,
      "Ġemeryta": 6230,
      "dziesiÄħt": 6231,
      "ĠustawÄħ": 6232,
      "ĠStar": 6233,
      "Ġnieja": 6234,
      "sar": 6235,
      "bina": 6236,
      "ĠÅ¼ona": 6237,
      "ĠpaÅĦstwie": 6238,
      "Ġuczni": 6239,
      "Ġpomimo": 6240,
      "ft": 6241,
      "Ġ32": 6242,
      "Å¼yli": 6243,
      "woÅĽÄĩ": 6244,
      "ĠpasaÅ¼e": 6245,
      "].": 6246,
      "Ġzdanie": 6247,
      "ĠZjednoczonych": 6248,
      "bÃ³": 6249,
      "wicza": 6250,
      "Ġposiedzenia": 6251,
      "OG": 6252,
      "mal": 6253,
      "ĠkapÅĤa": 6254,
      "ĠsystemÃ³w": 6255,
      "ĠcaÅĤoÅĽÄĩ": 6256,
      "woka": 6257,
      "ĠSch": 6258,
      "ĠgÅĤÃ³wnym": 6259,
      "ĠsÄħsie": 6260,
      "Ġopisa": 6261,
      "Ġzamku": 6262,
      "Ġstuden": 6263,
      "Å¼by": 6264,
      "ĠopÅĤaty": 6265,
      "ĠoÅĽwia": 6266,
      "ĠksztaÅĤcenia": 6267,
      "Ġdzia": 6268,
      "mentem": 6269,
      "ĠprzysÅĤuguje": 6270,
      "ĠHiszpa": 6271,
      "rakterysty": 6272,
      "ĠszczÄĻÅĽcia": 6273,
      "Dzien": 6274,
      "2009": 6275,
      "Ġratu": 6276,
      "Ġkopa": 6277,
      "ÅĦstwem": 6278,
      "Go": 6279,
      "Ġzaskar": 6280,
      "ĠwszÄĻdzie": 6281,
      "Ġrestruktury": 6282,
      "Ġunie": 6283,
      "vo": 6284,
      "sier": 6285,
      "ĠkazaÅĤ": 6286,
      "Ġocho": 6287,
      "twi": 6288,
      "ĠÃ": 6289,
      "ĠchÅĤopa": 6290,
      "Ġprzyw": 6291,
      "ĠCzer": 6292,
      "ĠdÅĤuÅ¼ej": 6293,
      "ĠponiÅ¼ej": 6294,
      "Ġdecy": 6295,
      "ĠpeÅĤne": 6296,
      "ĠstaÄĩ": 6297,
      "ĠtobÄħ": 6298,
      "Ġzaprze": 6299,
      "dale": 6300,
      "Ġpowietrz": 6301,
      "Ġcyfr": 6302,
      "dowanie": 6303,
      "rie": 6304,
      "Ġizby": 6305,
      "ĠmiejscowoÅĽÄĩ": 6306,
      "Ġmru": 6307,
      "Ġpanna": 6308,
      "Bu": 6309,
      "Ġodpowiednich": 6310,
      "koju": 6311,
      "ĠsÅĤod": 6312,
      "jÄħco": 6313,
      "ĠprzyszÅĤoÅĽci": 6314,
      "ĠÅĤÄħcznie": 6315,
      "ĠMon": 6316,
      "nowicie": 6317,
      "ĠokreÅĽlony": 6318,
      "Ġwielkich": 6319,
      "ĠEuropie": 6320,
      "niÅĤo": 6321,
      "czyk": 6322,
      "gdzie": 6323,
      "Ġrolni": 6324,
      "Ġrejestra": 6325,
      "Ġchwila": 6326,
      "Ġtowar": 6327,
      "Ġsubstancji": 6328,
      "Ġwin": 6329,
      "ĠtÄĻsk": 6330,
      "ĠmajÄħcych": 6331,
      "pelu": 6332,
      "Ġtransa": 6333,
      "ÅĽciem": 6334,
      "pisÃ³w": 6335,
      "Tre": 6336,
      "tus": 6337,
      "ĠprzesÅĤa": 6338,
      "ĠprzedsiÄĻwziÄĻ": 6339,
      "Euro": 6340,
      "ĠÅ¼ony": 6341,
      "Ġutrzymy": 6342,
      "Ġserde": 6343,
      "Wszyst": 6344,
      "kor": 6345,
      "uszy": 6346,
      "tacja": 6347,
      "ĠpiÅĽmie": 6348,
      "Ġprocesu": 6349,
      "Ġpowierzch": 6350,
      "ĠnaÅĤo": 6351,
      "Ġznajdzie": 6352,
      "rÄĻdzej": 6353,
      "ĠzarzÄħd": 6354,
      "ĠkoÅĽcioÅĤa": 6355,
      "Ġprzeby": 6356,
      "mami": 6357,
      "Ġkamie": 6358,
      "ĠpanÃ³w": 6359,
      "ven": 6360,
      "ED": 6361,
      "daÅĤa": 6362,
      "ĠbyÅĤby": 6363,
      "ĠWybor": 6364,
      "ĠoprÃ³cz": 6365,
      "Ġpou": 6366,
      "ana": 6367,
      "Ġwyboru": 6368,
      "Al": 6369,
      "Ġwysoko": 6370,
      "Ġmasy": 6371,
      "Ġludu": 6372,
      "szczu": 6373,
      "miÅĤ": 6374,
      "Ġrozwija": 6375,
      "AM": 6376,
      "ĠtuÅ¼": 6377,
      "ĠuÅ¼ytku": 6378,
      "jmy": 6379,
      "Ġcharakterysty": 6380,
      "ĠwaÅ¼ne": 6381,
      "Ġszkolenia": 6382,
      "Ġpowoli": 6383,
      "Ġdwor": 6384,
      "niÅĤy": 6385,
      "ĠdodaÅĤ": 6386,
      "gatyw": 6387,
      "ĠduszÄĻ": 6388,
      "ĠgÅĤa": 6389,
      "Ġobja": 6390,
      "Ġalkoho": 6391,
      "Ġpodmiotu": 6392,
      "ĠKomitetu": 6393,
      "ami": 6394,
      "Ġobszaru": 6395,
      "ssa": 6396,
      "Ġtrybie": 6397,
      "Ġwyco": 6398,
      "ĠmyÅĽlÄĻ": 6399,
      "ĠdochodÃ³w": 6400,
      "Ġ34": 6401,
      "ĠEd": 6402,
      "ĠmajÄħce": 6403,
      "Ġogranicza": 6404,
      "szeni": 6405,
      "cili": 6406,
      "ĠDi": 6407,
      "ĠÅ¼yje": 6408,
      "Ġterminu": 6409,
      "trzeb": 6410,
      "szyÅĤa": 6411,
      "ĠwyrobÃ³w": 6412,
      "Ġobrony": 6413,
      "dzaÄĩ": 6414,
      "Stro": 6415,
      "ÅĤos": 6416,
      "],": 6417,
      "ĠPer": 6418,
      "Ġzare": 6419,
      "Ġzmienio": 6420,
      "owcÃ³w": 6421,
      "La": 6422,
      "trzu": 6423,
      "ght": 6424,
      "lonej": 6425,
      "mana": 6426,
      "towane": 6427,
      "ĊĊĊĊ": 6428,
      "ĠzarzÄħ": 6429,
      "Ġprzechodzi": 6430,
      "ĠBez": 6431,
      "Ġprezen": 6432,
      "ĠdÅºwiÄĻ": 6433,
      "ĠobsÅĤugi": 6434,
      "niczy": 6435,
      "cjo": 6436,
      "ĠtrudnoÅĽci": 6437,
      "ĠĠĠĠĠĠĠĠĠĠĠĠĠĠĠĠĠĠĠĠĠĠĠ": 6438,
      "szta": 6439,
      "Ġsprzeciw": 6440,
      "ĠpojÄĻcia": 6441,
      "waniem": 6442,
      "Dy": 6443,
      "Ġwymie": 6444,
      "VID": 6445,
      "ĠopÅĤat": 6446,
      "ĠÅĽwiatÅĤo": 6447,
      "Ġniezgo": 6448,
      "ĠMoÅ¼na": 6449,
      "Ġuczucia": 6450,
      "tuÅĤ": 6451,
      "Ġzazna": 6452,
      "ĠkrajÃ³w": 6453,
      "US": 6454,
      "Ġpoinform": 6455,
      "ĠwidzieÄĩ": 6456,
      "ĠudaÅĤo": 6457,
      "gdyÅĽ": 6458,
      "ĠjakiegoÅĽ": 6459,
      "ĠodpadÃ³w": 6460,
      "loka": 6461,
      "Ġwdro": 6462,
      "Ġpodleg": 6463,
      "trÄħ": 6464,
      "Ġczem": 6465,
      "EK": 6466,
      "ĠkrÃ³tko": 6467,
      "Ġrzuca": 6468,
      "Ġkryteri": 6469,
      "Ġorzeczenia": 6470,
      "cona": 6471,
      "owaÅĤem": 6472,
      "Ġaktor": 6473,
      "ĠjakaÅĽ": 6474,
      "Ġstopni": 6475,
      "Ġrozmawia": 6476,
      "ĠspÄĻ": 6477,
      "Ġprowadzone": 6478,
      "Ġrozmowy": 6479,
      "ĠUkrai": 6480,
      "ĠLon": 6481,
      "ĠFor": 6482,
      "sÅĤucha": 6483,
      "ĠOchrony": 6484,
      "Ġrozpat": 6485,
      "Ġpodnosi": 6486,
      "ĠMaria": 6487,
      "kiewicz": 6488,
      "Ġprawnej": 6489,
      "ĠJoh": 6490,
      "Ġwydatki": 6491,
      "nicÄħ": 6492,
      "nan": 6493,
      "Ġsamodzie": 6494,
      "ĠBel": 6495,
      "Ġprawne": 6496,
      "dzieÅĦ": 6497,
      "tekÅĽcie": 6498,
      "nionego": 6499,
      "ph": 6500,
      "Ġoficja": 6501,
      "Ġpolskim": 6502,
      "Ġpanem": 6503,
      "rakta": 6504,
      "liwie": 6505,
      "dzonego": 6506,
      "Ġkonieczne": 6507,
      "ĠQ": 6508,
      "czba": 6509,
      "kroÄĩ": 6510,
      "Ġakt": 6511,
      "Ġkwestia": 6512,
      "Ġepo": 6513,
      "ĠujÄĻ": 6514,
      "niejszÄħ": 6515,
      "ĠOsta": 6516,
      "Ġdokumentu": 6517,
      "Ġsro": 6518,
      "ĠuÅĽmiech": 6519,
      "owiska": 6520,
      "ĠchwilÄħ": 6521,
      "Ġmart": 6522,
      "Ġziemia": 6523,
      "ĠIzra": 6524,
      "Ġsprawozdanie": 6525,
      "Ġpojazdu": 6526,
      "ĠpokÃ³j": 6527,
      "ĠdoszÅĤo": 6528,
      "ĠpoÅĤowie": 6529,
      "ĠprÄĻdko": 6530,
      "Ġata": 6531,
      "Ġtrybu": 6532,
      "Ġopieku": 6533,
      "ĠokreÅĽlonym": 6534,
      "ĠskÅĤadni": 6535,
      "Ġwzrostu": 6536,
      "Ġnieod": 6537,
      "euro": 6538,
      "tt": 6539,
      "bÃ³r": 6540,
      "ĠMinisterstwo": 6541,
      "Å¼egna": 6542,
      "wol": 6543,
      "Ġteor": 6544,
      "ĠNiemiec": 6545,
      "ĠprzyszedÅĤ": 6546,
      "ban": 6547,
      "Ġdekla": 6548,
      "Ġprzewiduje": 6549,
      "ĠXIX": 6550,
      "ĠgroÅº": 6551,
      "ĠzespÃ³ÅĤ": 6552,
      "ĠmyÅĽlaÅĤ": 6553,
      "Ġpacje": 6554,
      "ĠStanisÅĤaw": 6555,
      "Ġpisem": 6556,
      "Ġzawodowych": 6557,
      "ĠustawÄĻ": 6558,
      "ligen": 6559,
      "nictwie": 6560,
      "Ġpozwoli": 6561,
      "!âĢĿ": 6562,
      "ĠwydaÅĤ": 6563,
      "rozporzÄħ": 6564,
      "ĠInstytu": 6565,
      "Ġmomencie": 6566,
      "Ġzmiana": 6567,
      "Ġdar": 6568,
      "ĠJedno": 6569,
      "ĠTar": 6570,
      "ralne": 6571,
      "Ġmetody": 6572,
      "ĠgatunkÃ³w": 6573,
      "rop": 6574,
      "ĠnamiÄĻ": 6575,
      "Ġlubi": 6576,
      "Ġtea": 6577,
      "Ġbrata": 6578,
      "ĠTra": 6579,
      "ĠwÄħt": 6580,
      "tnikÃ³w": 6581,
      "szan": 6582,
      "ĠpatrzÄħc": 6583,
      "Ġotwiera": 6584,
      "twarzanie": 6585,
      "minu": 6586,
      "Ġprzyci": 6587,
      "Ġbezrobo": 6588,
      "tnik": 6589,
      "strono": 6590,
      "ĠdokÅĤadnie": 6591,
      "EW": 6592,
      "lonego": 6593,
      "jazdu": 6594,
      "ĠÅĽwiÄħty": 6595,
      "Ġwojnie": 6596,
      "nnÄħ": 6597,
      "osob": 6598,
      "rowaÄĩ": 6599,
      "Å¼aÅĤa": 6600,
      "ĠstanÄħÅĤ": 6601,
      "Ġdanej": 6602,
      "ĠwÅĤaÅĽciwoÅĽci": 6603,
      "jon": 6604,
      "Ġfu": 6605,
      "ĠInspek": 6606,
      "Å¼ycie": 6607,
      "Ġogar": 6608,
      "Rady": 6609,
      "wÃ³w": 6610,
      "ĠCent": 6611,
      "Ġjezio": 6612,
      "ĠprzyjÄĻcie": 6613,
      "Kiedy": 6614,
      ".:": 6615,
      "Ġfunkcjonowania": 6616,
      "nitar": 6617,
      "ĠgÅĤowa": 6618,
      "ĠByÅĤo": 6619,
      "Ġpas": 6620,
      "rzÄĻdzie": 6621,
      "ĠcaÅĤkiem": 6622,
      "Ġkonia": 6623,
      "gaÄĩ": 6624,
      "ĊĊĠĠĠĠĠĠĠĠĠĠĠĠĠĠĠĠĠĠĠĠĠĠĠ": 6625,
      "ĠÅĽli": 6626,
      "Ġuko": 6627,
      "zob": 6628,
      "bora": 6629,
      "ĠzaÅĤÄħcznika": 6630,
      "lome": 6631,
      "wÄħt": 6632,
      "tch": 6633,
      "Ġpodmioty": 6634,
      "Ġprawdopodobnie": 6635,
      "Ġnacze": 6636,
      "tacjÄĻ": 6637,
      "Ġkrzyw": 6638,
      "Ġprzesu": 6639,
      "Ġkaden": 6640,
      "ĠwÅĤaÅĽciwe": 6641,
      "Ġwytwo": 6642,
      "Ġdruga": 6643,
      "Å¼ny": 6644,
      "Ġste": 6645,
      "ĠMÅĤo": 6646,
      "Ġrano": 6647,
      "kaÅ¼": 6648,
      "Ġochronie": 6649,
      "ĠwpÅĤywu": 6650,
      "Ġsytuacja": 6651,
      "Ð¸": 6652,
      "Ġokna": 6653,
      "Ġodczu": 6654,
      "ĠObro": 6655,
      "Ġpubliczne": 6656,
      "Ġzaka": 6657,
      "ĠwyraÅ¼a": 6658,
      "Ġnazwisko": 6659,
      "ĠzobowiÄħzania": 6660,
      "szczeÅĦ": 6661,
      "Ġoperacji": 6662,
      "Ġteo": 6663,
      "Ġkontra": 6664,
      "ĠÅĤzy": 6665,
      "ĠWin": 6666,
      "ĠtoÅ¼": 6667,
      "Ġwszech": 6668,
      "ĠpozostaÅĤych": 6669,
      "ĠpoÅĤudnie": 6670,
      "ĠZdrowia": 6671,
      "Ġwedle": 6672,
      "ĠwidzÄħc": 6673,
      "ĠWro": 6674,
      "ĠposzedÅĤ": 6675,
      "Ġpartii": 6676,
      "Ġwydoby": 6677,
      "Ġdusza": 6678,
      "Cho": 6679,
      "wiaÄĩ": 6680,
      "ĠJeszcze": 6681,
      "Ġpewnym": 6682,
      "Ġcof": 6683,
      "ine": 6684,
      "Ġdostar": 6685,
      "ĠFo": 6686,
      "ĠczÅĤowiekiem": 6687,
      "ĠCar": 6688,
      "ĠliÅĽcie": 6689,
      "Ġsprzy": 6690,
      "Ġrozmai": 6691,
      "Ġoli": 6692,
      "Ġhy": 6693,
      "Ġzamieszki": 6694,
      "ĠwdraÅ¼a": 6695,
      "ĠczÄħ": 6696,
      "trzenia": 6697,
      "TA": 6698,
      "tnia": 6699,
      "ĠdziaÅĤki": 6700,
      "ĠmÅĤodo": 6701,
      "ĠnarzÄĻ": 6702,
      "2012": 6703,
      "Ġspoczy": 6704,
      "lik": 6705,
      "Ġdyrektor": 6706,
      "Ġwydanie": 6707,
      "ĠoddziaÅĤ": 6708,
      "nocy": 6709,
      "szoÅĽÄĩ": 6710,
      "ĠÅĤaÅĦcu": 6711,
      "niono": 6712,
      "ĠwysiÅĤ": 6713,
      "Ġwojskowej": 6714,
      "lka": 6715,
      "Ġ36": 6716,
      "Ġpowietrze": 6717,
      "ĠobojÄĻ": 6718,
      "Ġwymienionych": 6719,
      "Ġwielka": 6720,
      "Ġpierwsza": 6721,
      "chodem": 6722,
      "Ġniepod": 6723,
      "Ġwino": 6724,
      "Ġuprzejmie": 6725,
      "tko": 6726,
      "stre": 6727,
      "ĠProkura": 6728,
      "Ġgrz": 6729,
      "Ġszeroko": 6730,
      "OS": 6731,
      "Ġskaza": 6732,
      "ĠelementÃ³w": 6733,
      "Ġunik": 6734,
      "Ġmonito": 6735,
      "FUE": 6736,
      "Ġdyskusji": 6737,
      "miu": 6738,
      "Ġsposobem": 6739,
      "Ġzrozumie": 6740,
      "ĠwynikÃ³w": 6741,
      "ĠpodniÃ³sÅĤ": 6742,
      "%.": 6743,
      "Å¼onym": 6744,
      "kowo": 6745,
      "ĠdoÅĤÄħ": 6746,
      "Ġspi": 6747,
      "ĠwspÃ³ÅĤczes": 6748,
      "Ġkarty": 6749,
      "owicz": 6750,
      "OD": 6751,
      "ĠPolicji": 6752,
      "ĠPrezesa": 6753,
      "Ġpoto": 6754,
      "Ġmas": 6755,
      "biÃ³r": 6756,
      "siadÅĤ": 6757,
      "ĠzaleÅ¼noÅĽci": 6758,
      "ĠpoÅĽrednictwem": 6759,
      "Ġzamiesz": 6760,
      "ĠkrÄħ": 6761,
      "ĠchcÄħc": 6762,
      "Ġczyta": 6763,
      "uchy": 6764,
      "Ġprotoko": 6765,
      "ĠpowiedziaÅĤa": 6766,
      "zycji": 6767,
      "lepiej": 6768,
      "Ġnasza": 6769,
      "Ġwycie": 6770,
      "Ġzaufa": 6771,
      "Ġwnioski": 6772,
      "Äĺ": 6773,
      "Ġ120": 6774,
      "Ġstacji": 6775,
      "Ġwice": 6776,
      "Ġcudzoziem": 6777,
      "Ġzawarte": 6778,
      "Ġdozna": 6779,
      "ĠwewnÄĻtrznych": 6780,
      "wami": 6781,
      "maÄĩ": 6782,
      "rowane": 6783,
      "ĠWedÅĤug": 6784,
      "Ġpowiecie": 6785,
      "WÅĤa": 6786,
      "ĠpociÄħ": 6787,
      "ĠspoÅĤeczne": 6788,
      "zeum": 6789,
      "Ġtyp": 6790,
      "ktÃ³rzy": 6791,
      "ĠnowÄħ": 6792,
      "Ġumy": 6793,
      "bliote": 6794,
      "Ġniczego": 6795,
      "ĠrealizacjÄĻ": 6796,
      "ĠSzwe": 6797,
      "Ġ1991": 6798,
      "Ġpodko": 6799,
      "Ġarcy": 6800,
      "woj": 6801,
      "ĠprzyjÄħÄĩ": 6802,
      "ĠstÃ³p": 6803,
      "Ġtygodni": 6804,
      "ĠwszczÄĻ": 6805,
      "ĠwzglÄĻdzie": 6806,
      "biegÅĤ": 6807,
      "ĠCentrum": 6808,
      "cznik": 6809,
      "ĠprzedÅĤo": 6810,
      "ĠRozdziaÅĤ": 6811,
      "ĠskutkÃ³w": 6812,
      "ĠHan": 6813,
      "Ġnegatyw": 6814,
      "wiÅĤa": 6815,
      "angaÅ¼": 6816,
      "des": 6817,
      "ĠkaÅ¼da": 6818,
      "Ġfinansowego": 6819,
      "ĠDru": 6820,
      "ĠfunkcjÄĻ": 6821,
      "ĠpoÅĤÄħczenia": 6822,
      "ĠdotyczÄħcy": 6823,
      "bÅĤa": 6824,
      "Ġprzechowy": 6825,
      "Ġwyga": 6826,
      "Ġbrzegu": 6827,
      "ĠwschÃ³d": 6828,
      "ĠzachÃ³d": 6829,
      "TreÅĽÄĩ": 6830,
      "Ġprezydenta": 6831,
      "Ġdziennika": 6832,
      "Å¼ono": 6833,
      "Ġkryteria": 6834,
      "Ġroli": 6835,
      "Å¡": 6836,
      "kcja": 6837,
      "grywa": 6838,
      "Pani": 6839,
      "Ġpobo": 6840,
      "ĠzrÃ³wnowa": 6841,
      "ÅĤki": 6842,
      "Ġrozumiem": 6843,
      "Ġ106": 6844,
      "Jest": 6845,
      "ĠPart": 6846,
      "wymi": 6847,
      "ĠukÅĤadu": 6848,
      "Ġdefini": 6849,
      "ĠpostÄĻpowaniu": 6850,
      ".âĢĿ": 6851,
      "nce": 6852,
      "towym": 6853,
      "siÄĻbior": 6854,
      "Ã¨": 6855,
      "Ġzaby": 6856,
      "Ġnazy": 6857,
      "Ġniezmier": 6858,
      "budowy": 6859,
      "Ġzanim": 6860,
      "Ġzawiado": 6861,
      "Au": 6862,
      "Ġmateria": 6863,
      "ÑĢ": 6864,
      "niajÄħ": 6865,
      "ssi": 6866,
      "Ġkup": 6867,
      "Ġwystar": 6868,
      "ĠwÅĤadze": 6869,
      "ĠmyÅĽlÄħ": 6870,
      "ĠKrakÃ³w": 6871,
      "szymi": 6872,
      "termin": 6873,
      "Ð½": 6874,
      "ĠLudwi": 6875,
      "Ġgeografi": 6876,
      "ckÄħ": 6877,
      "siÅĤa": 6878,
      "ĠzagroÅ¼enia": 6879,
      "Ġzazwyczaj": 6880,
      "Ġsan": 6881,
      "Ġodcinek": 6882,
      "ĠrzeÅº": 6883,
      "Ġczasach": 6884,
      "Ġprzyjmuje": 6885,
      "Ġpowstania": 6886,
      "Ġodnosi": 6887,
      "ĠÅĽciÄħ": 6888,
      "nina": 6889,
      "czÄħcych": 6890,
      "ĠnaleÅ¼noÅĽci": 6891,
      "PS": 6892,
      "Ġostatecznie": 6893,
      "ĠkomÃ³r": 6894,
      "IC": 6895,
      "lip": 6896,
      "sel": 6897,
      "Ġgrupa": 6898,
      "Ġskutki": 6899,
      "Ġurlo": 6900,
      "patrz": 6901,
      "ĠSenatu": 6902,
      "ĠwysÅĤa": 6903,
      "usa": 6904,
      "ĠzmianÄĻ": 6905,
      "ĠsporzÄħdza": 6906,
      "twem": 6907,
      "Ġzostaje": 6908,
      "zostaÅĤe": 6909,
      "ĠinnÄħ": 6910,
      "ĠwÅĤosy": 6911,
      "ĠrÃ³wna": 6912,
      "Ġzapobiega": 6913,
      "ĠgÅĤoÅĽno": 6914,
      "ĠkorzyÅĽci": 6915,
      "Ġtle": 6916,
      "ÅĽwiÄĻ": 6917,
      "\").": 6918,
      "Ġniepra": 6919,
      "ĠniezwÅĤo": 6920,
      "dÅºmi": 6921,
      "Â·": 6922,
      "Ġwprawdzie": 6923,
      "Å¼onÄħ": 6924,
      "naz": 6925,
      "ĠszedÅĤ": 6926,
      "Ġpobytu": 6927,
      "Ġniemi": 6928,
      "Å¼nej": 6929,
      "chÄħ": 6930,
      "wodniczÄħ": 6931,
      "Poli": 6932,
      "ĠpÃ³ÅĤnocno": 6933,
      "ĠniegdyÅĽ": 6934,
      "pres": 6935,
      "ĠdzieciÄĻ": 6936,
      "Ġwiatr": 6937,
      "ĠFranci": 6938,
      "Ġliczne": 6939,
      "ĠCOVID": 6940,
      "ĠwokÃ³ÅĤ": 6941,
      "praszam": 6942,
      "zda": 6943,
      "Å¼ynie": 6944,
      "ĠwyraÅº": 6945,
      "ĠprzeszÅĤoÅĽci": 6946,
      "nizacji": 6947,
      "Ġstraszli": 6948,
      "ĠVi": 6949,
      "Ġkrajowego": 6950,
      "ĠwyrÃ³Å¼": 6951,
      "Ġmro": 6952,
      "ml": 6953,
      "ĊĠĊĊĠÂłÂłĊ": 6954,
      "Ġsenator": 6955,
      "Ġprzyczyny": 6956,
      "KtÃ³": 6957,
      "ĠPolakÃ³w": 6958,
      "Ġposzuki": 6959,
      "Ġwierz": 6960,
      "ĠpielÄĻ": 6961,
      "Ġmianowicie": 6962,
      "ĠPubli": 6963,
      "Ġnagro": 6964,
      "ĠrÄĻko": 6965,
      "tarzy": 6966,
      "Ġperso": 6967,
      "Ġrewolu": 6968,
      "lotem": 6969,
      "ĠwÅĤadz": 6970,
      "Ġpozostaje": 6971,
      "ĠwÅĤaÅĽciwym": 6972,
      "ĠobszarÃ³w": 6973,
      "ceÅĦ": 6974,
      "ĠrzuciÅĤ": 6975,
      "ĠwynikajÄħcych": 6976,
      "Ġdwudzie": 6977,
      "ryz": 6978,
      "ĠÅĤy": 6979,
      "ĠdotyczÄħcej": 6980,
      "Ġprzyczyn": 6981,
      "ĠpewnoÅĽciÄħ": 6982,
      "eu": 6983,
      "Ġkwalifika": 6984,
      "ĠwiÄĻkszÄħ": 6985,
      "kÅĤy": 6986,
      "Ġeksper": 6987,
      "wione": 6988,
      "ĠSA": 6989,
      "ĠPoniewaÅ¼": 6990,
      "Ġuczci": 6991,
      "So": 6992,
      "Ġ39": 6993,
      "formacji": 6994,
      "00000000": 6995,
      "lian": 6996,
      "Ġstandar": 6997,
      "ĠNaleÅ¼y": 6998,
      "owskiej": 6999,
      "ĠpowstaÅĤ": 7000,
      "Ġprezes": 7001,
      "Ġzabezpieczenia": 7002,
      "ĠÅ¼ywnoÅĽci": 7003,
      "ĠnieszczÄĻÅĽli": 7004,
      "zumie": 7005,
      "Ġskutek": 7006,
      "owuje": 7007,
      "ĠKul": 7008,
      "Ġadwoka": 7009,
      "ĠpodÅĤo": 7010,
      "ĠzwrÃ³ci": 7011,
      "nen": 7012,
      "Ġprzyjdzie": 7013,
      "ĠÅ¼ydow": 7014,
      "rakterystyka": 7015,
      "dzisz": 7016,
      "ĠdrÃ³g": 7017,
      "ĠmaÅĤych": 7018,
      "Warsza": 7019,
      "ĠOt": 7020,
      "Ġorganizacyjnych": 7021,
      "zÄħ": 7022,
      "ĠosÅĤa": 7023,
      "ĠPotem": 7024,
      "Ġwym": 7025,
      "tyk": 7026,
      "Ġkrwa": 7027,
      "Ġspotyka": 7028,
      "ent": 7029,
      "tkach": 7030,
      "owska": 7031,
      "ĠjakoÅĽ": 7032,
      "Ġkoncep": 7033,
      "paÅĤ": 7034,
      "âĢĿ)": 7035,
      "kupy": 7036,
      "bin": 7037,
      "Ġrozkaz": 7038,
      "szoÅĽci": 7039,
      "Ġpewnie": 7040,
      "ĠBryta": 7041,
      "ĠAuto": 7042,
      "teryna": 7043,
      "Ġnasi": 7044,
      "Ġbole": 7045,
      "Ġmojego": 7046,
      "retarz": 7047,
      "powiedzi": 7048,
      "ĠwÅĤasnÄħ": 7049,
      "Ġdyscyplinar": 7050,
      "ĠdokÅĤad": 7051,
      "gre": 7052,
      "Ġchcieli": 7053,
      "ĠprowadziÄĩ": 7054,
      "komunika": 7055,
      "ĠuÅĽmiechem": 7056,
      "ĠwziÄħÄĩ": 7057,
      "ĠnajczÄĻÅĽciej": 7058,
      "dii": 7059,
      "ĠczegoÅĽ": 7060,
      "ĠwÄĻgla": 7061,
      "EG": 7062,
      "nnoÅĽci": 7063,
      "ÅĤudni": 7064,
      "szeniem": 7065,
      "Ġwybuch": 7066,
      "Ġistocie": 7067,
      "unki": 7068,
      "ĠludÅºmi": 7069,
      "ĠwyksztaÅĤ": 7070,
      "Ġopodatk": 7071,
      "ĠGÃ³": 7072,
      "ĠKry": 7073,
      "ĠzastÄĻpuje": 7074,
      "ĠsÄħdÃ³w": 7075,
      "ĠprzepÅĤy": 7076,
      "ĠuwzglÄĻdnieniem": 7077,
      "Ġdeparta": 7078,
      "Ġstarego": 7079,
      "Ġtekst": 7080,
      "lonym": 7081,
      "czÄħce": 7082,
      "bem": 7083,
      "ari": 7084,
      "ĠGdaÅĦ": 7085,
      "obi": 7086,
      "ĠAdministra": 7087,
      "ĠpiÄĻciu": 7088,
      "Ġporusza": 7089,
      "ustawie": 7090,
      "Ġwprowadzenia": 7091,
      "ĠdokoÅĤa": 7092,
      "ĠzaleÅ¼y": 7093,
      "ĠZyg": 7094,
      "ĠRi": 7095,
      "Ġharmo": 7096,
      "ĠPaweÅĤ": 7097,
      "Ġustawodaw": 7098,
      "Ġeksploa": 7099,
      "ĠKrÃ³lestwa": 7100,
      "Ġistotne": 7101,
      "ĠAmery": 7102,
      "linie": 7103,
      "Ġdopu": 7104,
      "Ġpostanowienia": 7105,
      "ĠspÅĤa": 7106,
      "ĠAka": 7107,
      "ĠDobrze": 7108,
      "artÄħ": 7109,
      "ĠwiÄĻksze": 7110,
      "ĠĊĊĠĊ": 7111,
      "Ġ1996": 7112,
      "rab": 7113,
      "ĠprzyjÄħÅĤ": 7114,
      "ĠwewnÄħtrz": 7115,
      "ĠbudÅ¼etowej": 7116,
      "Ġzarejest": 7117,
      "Ġwpisa": 7118,
      "ĠwynosiÅĤa": 7119,
      "ĠwÄĻz": 7120,
      "Ġwszak": 7121,
      "niesienie": 7122,
      "lonÄħ": 7123,
      "rowo": 7124,
      "ĠczÅĤonkowskim": 7125,
      "Ġkoncent": 7126,
      "ĠpaÅĦstwowych": 7127,
      "Ġszla": 7128,
      "ĠWewnÄĻtrz": 7129,
      "Ġwywia": 7130,
      "dycja": 7131,
      "Ġdrzwia": 7132,
      "ĠzdawaÅĤo": 7133,
      "Ġwzbu": 7134,
      "Ġpremie": 7135,
      "ĠCzÅĤowie": 7136,
      "pii": 7137,
      "ĠwspÃ³lnego": 7138,
      "ĠspoÅĤecznego": 7139,
      "Ġszar": 7140,
      "ĠbiaÅĤe": 7141,
      "eli": 7142,
      "Ġkolejnych": 7143,
      "Ġkontrol": 7144,
      "tnika": 7145,
      "Ġ75": 7146,
      "ĠzastrzeÅ¼eniem": 7147,
      "ĠNiemcy": 7148,
      "ĠwÅĤasnego": 7149,
      "Ġmusimy": 7150,
      "ĊÂłÂł": 7151,
      "tent": 7152,
      "ĠpoÅĤudniowo": 7153,
      "rowanie": 7154,
      "Ġutrzy": 7155,
      "szaÅĤa": 7156,
      "KrÃ³": 7157,
      "ĠkaÅ¼de": 7158,
      "gÅĤy": 7159,
      "tyzacji": 7160,
      "mus": 7161,
      "nÄħwszy": 7162,
      "ĠFrancu": 7163,
      "legÅĤ": 7164,
      "ĠEgip": 7165,
      "ĠzrobiÅĤ": 7166,
      "Ġpropor": 7167,
      "Ġ37": 7168,
      "Ġdawno": 7169,
      "Ġrestaura": 7170,
      "ĠKrzyszto": 7171,
      "skutek": 7172,
      "ĠzasobÃ³w": 7173,
      "Ġwykorzystania": 7174,
      "Ġwspani": 7175,
      "ĠuczyniÄĩ": 7176,
      "Ġregulami": 7177,
      "ĠStraÅ¼y": 7178,
      "ĠJÃ³zef": 7179,
      "ĠKoÅĽcioÅĤa": 7180,
      "Ġreferen": 7181,
      "Ġzamierza": 7182,
      "Ġprzesy": 7183,
      "ĠzachÄĻ": 7184,
      "ĠogieÅĦ": 7185,
      "czaÅĤa": 7186,
      "Ġodzie": 7187,
      "kowym": 7188,
      "Ġ38": 7189,
      "Ġbadaw": 7190,
      "Ġopis": 7191,
      "Ġwest": 7192,
      "Ġowa": 7193,
      "Ġpojawia": 7194,
      "ĠmiarÄĻ": 7195,
      "ĠmÅĤodych": 7196,
      "Ġmary": 7197,
      "Ġstosowane": 7198,
      "%,": 7199,
      "Ġpary": 7200,
      "Ġniekiedy": 7201,
      "Åļwia": 7202,
      "ĠumysÅĤ": 7203,
      "Ġprzedstawicieli": 7204,
      "ĠWysoka": 7205,
      "Ġuregul": 7206,
      "ĠKoÅĽci": 7207,
      "Dzie": 7208,
      "ĠksiÄħÅ¼ki": 7209,
      "Ġzobaczy": 7210,
      "korzy": 7211,
      "Ġfinansowej": 7212,
      "torium": 7213,
      "Ġpogar": 7214,
      "2004": 7215,
      "ĠzaangaÅ¼": 7216,
      "Å¼nych": 7217,
      "ĠuÅ¼ywa": 7218,
      "ĠpierwszÄħ": 7219,
      "ĠpunktÃ³w": 7220,
      "ĠumiejÄĻtnoÅĽci": 7221,
      "dliwoÅĽÄĩ": 7222,
      "ham": 7223,
      "Ġnar": 7224,
      "szono": 7225,
      "Ġprzewidy": 7226,
      ".),": 7227,
      "Ġnume": 7228,
      "Ġdniach": 7229,
      "Ġlekarza": 7230,
      "ĠobowiÄħzki": 7231,
      "wiz": 7232,
      "Ġwzmoc": 7233,
      "Ġmeta": 7234,
      "ĠiloÅĽÄĩ": 7235,
      "rzuca": 7236,
      "ĠWojsk": 7237,
      "ĠmÃ³z": 7238,
      "Ġzwi": 7239,
      "Ġwieczy": 7240,
      "ĠĊÂł": 7241,
      "plek": 7242,
      "Ġodebra": 7243,
      "ĠzwrÃ³ciÅĤ": 7244,
      "tecznie": 7245,
      "nÄħÅĤem": 7246,
      "ĠmÃ³gÅĤby": 7247,
      "Zobacz": 7248,
      "dowaÅĤa": 7249,
      "taria": 7250,
      "Ġfirmy": 7251,
      "Ġtrzydzie": 7252,
      "ĠWtedy": 7253,
      "Ġfanta": 7254,
      "Ġprawdy": 7255,
      "ĠobjÄĻte": 7256,
      "ĠnieÅĽ": 7257,
      "strzo": 7258,
      "Ġ1994": 7259,
      "fan": 7260,
      "mocy": 7261,
      "dawcÃ³w": 7262,
      "ĠgodzinÄĻ": 7263,
      "My": 7264,
      "Ġzasadzie": 7265,
      "Wniosek": 7266,
      "Ġzato": 7267,
      "Ġpewnych": 7268,
      "ĠjakiejÅĽ": 7269,
      "towany": 7270,
      "ĠogÃ³lne": 7271,
      "Ġprzesta": 7272,
      "cena": 7273,
      "Ġrodzin": 7274,
      "Ġprzewodni": 7275,
      "ĠczoÅĤo": 7276,
      "chali": 7277,
      "ĠdotyczÄħcego": 7278,
      "razu": 7279,
      "ĠjakimÅĽ": 7280,
      "logicznych": 7281,
      "Ġkrajach": 7282,
      "ĠÎ": 7283,
      "Ġzbud": 7284,
      "Ġodej": 7285,
      "ĠPamiÄĻ": 7286,
      "Ġefektyw": 7287,
      "Tym": 7288,
      "Ġchu": 7289,
      "zwy": 7290,
      "ĠokreÅĽlonego": 7291,
      "Ġmieszkani": 7292,
      "Ġtransport": 7293,
      "Ġlekko": 7294,
      "Ġpopro": 7295,
      "Ġzag": 7296,
      "Ġzachwy": 7297,
      "Ġ42": 7298,
      "ĠRosji": 7299,
      "ĠczÄĻÅĽciÄħ": 7300,
      "wka": 7301,
      "ĠbiorÄħc": 7302,
      "Mu": 7303,
      "Ġkrzyk": 7304,
      "Ġtor": 7305,
      "ĠwÅĤad": 7306,
      "Ġobwo": 7307,
      "Ġdokonuje": 7308,
      "ĠczuÅĤ": 7309,
      "ĠzÅĤoÅ¼enia": 7310,
      "*.": 7311,
      "ĠPy": 7312,
      "ĠNarodowego": 7313,
      "Ġdodatkowe": 7314,
      "ĠwymogÃ³w": 7315,
      "lot": 7316,
      "Ġinfrastruktury": 7317,
      "ĠNad": 7318,
      "Ġelementy": 7319,
      "ĠnapeÅĤ": 7320,
      "ĠmogÅĤem": 7321,
      "Ġchor": 7322,
      "Ġregular": 7323,
      "Niech": 7324,
      "Ġprzeznaczone": 7325,
      "Ġpodzi": 7326,
      "gor": 7327,
      "Ġbene": 7328,
      "ela": 7329,
      "Ġresor": 7330,
      "cono": 7331,
      "ĠdÅĤugoÅĽci": 7332,
      "ĠwÅĽcie": 7333,
      "JA": 7334,
      "Ġzem": 7335,
      "ĠWszystkie": 7336,
      "tana": 7337,
      "dzki": 7338,
      "ownie": 7339,
      "ĠzasiÅĤ": 7340,
      "Ġwybrze": 7341,
      "Ġkim": 7342,
      "stoj": 7343,
      "stronomia": 7344,
      "ĠksztaÅĤt": 7345,
      "metry": 7346,
      "ĠmajÄħtk": 7347,
      "Ġkomis": 7348,
      "ĠodsyÅĤa": 7349,
      "ĠstaroÅ¼y": 7350,
      "Ġpowietrza": 7351,
      "Ġdie": 7352,
      "ĠobiektÃ³w": 7353,
      "ĠkoniecznoÅĽÄĩ": 7354,
      "Warszawa": 7355,
      "myÅĽla": 7356,
      "ĠgminÄĻ": 7357,
      "Ġdyrektora": 7358,
      "Ġcia": 7359,
      "ĠÂł": 7360,
      "komi": 7361,
      "ĠKole": 7362,
      "Ġprodukty": 7363,
      "ĠzdjÄĻ": 7364,
      "Ġprocent": 7365,
      "Ġstabi": 7366,
      "ĠsiÅĤÄħ": 7367,
      "ĠlÄħd": 7368,
      "system": 7369,
      "Ġuwag": 7370,
      "ĠTade": 7371,
      "Ġegza": 7372,
      "jami": 7373,
      "Ġroboty": 7374,
      "wnego": 7375,
      "ĠoÅĤ": 7376,
      "rup": 7377,
      "ĠmaÅĤÅ¼o": 7378,
      "Ġniesko": 7379,
      "kier": 7380,
      "Ġprzeci": 7381,
      "jusz": 7382,
      "Ġwprowadzenie": 7383,
      "Ġwojs": 7384,
      "ĠdzieÅĤa": 7385,
      "Ġkoni": 7386,
      "ĠaktÃ³w": 7387,
      "ĠmusiaÅĤa": 7388,
      "Ġwspomina": 7389,
      "Ġnarodu": 7390,
      "Ġzalu": 7391,
      "OT": 7392,
      "nowany": 7393,
      "Ġwyklu": 7394,
      "Ġludziom": 7395,
      "glÄħdu": 7396,
      "ĠHar": 7397,
      "Ġzamieszkania": 7398,
      "pat": 7399,
      "Ġanalizy": 7400,
      "ĠwieczÃ³r": 7401,
      "sposÃ³b": 7402,
      "Ġzagranicznych": 7403,
      "ĠzÅĤe": 7404,
      "Ġkos": 7405,
      "mych": 7406,
      "ĠInd": 7407,
      "Ġitd": 7408,
      "SC": 7409,
      "tujÄħ": 7410,
      "Ġtabli": 7411,
      "ĠGi": 7412,
      "ÅĽciÅĤ": 7413,
      "wiÄĻcej": 7414,
      "ĠprawdÄĻ": 7415,
      "ĠÅĽrodek": 7416,
      "kali": 7417,
      "ĠzarzÄħdu": 7418,
      "Ġubiega": 7419,
      "rzyÅĤo": 7420,
      "ĠUSA": 7421,
      "fery": 7422,
      "ĠwÄĻd": 7423,
      "Å¼yÅĤy": 7424,
      "Ġzachowania": 7425,
      "ĠmÅĤodzieÅ¼y": 7426,
      "Ġkolum": 7427,
      "2011": 7428,
      "wczych": 7429,
      "Ġ43": 7430,
      "Ġurucho": 7431,
      "Å¼ni": 7432,
      "ĠObywa": 7433,
      "wicy": 7434,
      "Ġzatrudnio": 7435,
      "Ġryba": 7436,
      "Ġbierze": 7437,
      "Ġzdania": 7438,
      "ĠwodÄĻ": 7439,
      "ĠpewnÄħ": 7440,
      "jaÅĤ": 7441,
      "kreÅĽliÄĩ": 7442,
      "Ġspod": 7443,
      "Ġnaruszenia": 7444,
      "Ġlicen": 7445,
      "Ġbohater": 7446,
      "Ġfunduszy": 7447,
      "nastu": 7448,
      "Ġzajmu": 7449,
      "Ġprzew": 7450,
      "ĠmajÄħtku": 7451,
      "lety": 7452,
      "ĠMichaÅĤ": 7453,
      "ĠzbliÅ¼a": 7454,
      "Ġrea": 7455,
      "ĠbezpoÅĽredni": 7456,
      "Ġgenera": 7457,
      "Ġprzepisu": 7458,
      "Ġodc": 7459,
      "ĠchorÄħ": 7460,
      "Ġatmos": 7461,
      "Ġodmie": 7462,
      "ĠpodlegajÄħ": 7463,
      "ĠZresztÄħ": 7464,
      "ĠObrony": 7465,
      "pienie": 7466,
      "Ġpolska": 7467,
      "Ġstawia": 7468,
      "Ġdokument": 7469,
      "niejszej": 7470,
      "ĠokreÅĽlenia": 7471,
      "ĠKsiÄħ": 7472,
      "Ġokrop": 7473,
      "ok": 7474,
      "ĠdziesiÄĻÄĩ": 7475,
      "Historia": 7476,
      "Ġstatysty": 7477,
      "Ġgaze": 7478,
      "tce": 7479,
      "Ġkonfli": 7480,
      "ĠsiedziaÅĤ": 7481,
      "letnie": 7482,
      "Ġprojekcie": 7483,
      "czkÄħ": 7484,
      "Ġwysu": 7485,
      "Ġstali": 7486,
      "powszech": 7487,
      "Ġinteligen": 7488,
      "sprawiedli": 7489,
      "Ġzgu": 7490,
      "Ġsied": 7491,
      "Ġszlachet": 7492,
      "Ġprzekazania": 7493,
      "ĠpÃ³ÅĤnocy": 7494,
      "Ġorzecz": 7495,
      "ĠBÄĻdzie": 7496,
      "Ġistnienia": 7497,
      "Ġbywa": 7498,
      "Ġniedaw": 7499,
      "ĠodnoszÄħ": 7500,
      "Ġwzrok": 7501,
      "JuÅ¼": 7502,
      "nili": 7503,
      "Ġsrebr": 7504,
      "Ġsoli": 7505,
      "Ġelektro": 7506,
      "Ġjazdy": 7507,
      "Ġmono": 7508,
      "Ġpragnie": 7509,
      "ĠgaÅĤÄĻ": 7510,
      "ĠzakÅĤadÃ³w": 7511,
      "Ġlogi": 7512,
      "ĠwÅĤasnym": 7513,
      "Ġbom": 7514,
      "Ġprzetwarza": 7515,
      "ĠdotyczÄħcym": 7516,
      "Ġmate": 7517,
      "owni": 7518,
      "Ġdziel": 7519,
      "ĠproducentÃ³w": 7520,
      "Ġdobrego": 7521,
      "Bardzo": 7522,
      "ĠzawoÅĤaÅĤa": 7523,
      "pan": 7524,
      "NIA": 7525,
      "Ġposa": 7526,
      "Ġsnu": 7527,
      "Ġturystyczne": 7528,
      "formuÅĤ": 7529,
      "ĠrodzicÃ³w": 7530,
      "ĠjakÅ¼e": 7531,
      "ĠStrony": 7532,
      "kan": 7533,
      "lacja": 7534,
      "ted": 7535,
      "Ġkochan": 7536,
      "ĠspojrzaÅĤ": 7537,
      "Ġ46": 7538,
      "Ġ48": 7539,
      "ĠAdam": 7540,
      "nicznej": 7541,
      "Ġulega": 7542,
      "eme": 7543,
      "niane": 7544,
      "ĠAm": 7545,
      "ĠrozwiÄħzanie": 7546,
      "ĠKrÃ³l": 7547,
      "ĠinformacjÄĻ": 7548,
      "szczÄĻd": 7549,
      "ist": 7550,
      "nera": 7551,
      "ĠgÅĤÄĻboko": 7552,
      "Ġti": 7553,
      "ĠOczywiÅĽcie": 7554,
      "ĠszukaÄĩ": 7555,
      "Ġmorze": 7556,
      "ĠprzemysÅĤu": 7557,
      "Ġskon": 7558,
      "Ġabsolu": 7559,
      "Wa": 7560,
      "Ġzmierza": 7561,
      "Ġnajpierw": 7562,
      "ĠNawet": 7563,
      "Ġroze": 7564,
      "Ġznaczenia": 7565,
      "ĠRÃ³w": 7566,
      "Ġblo": 7567,
      "Ġdem": 7568,
      "ĠrzeczywistoÅĽci": 7569,
      "ĠbÅĤÄĻki": 7570,
      "Ġpodstawy": 7571,
      "prowadza": 7572,
      "ĠIm": 7573,
      "ĠrzÄħdowej": 7574,
      "ĠprzysiÄĻ": 7575,
      "ĠWszyscy": 7576,
      "ĠreÅ¼y": 7577,
      "Ġpiosen": 7578,
      "Ġpojedyn": 7579,
      "Ġpogrze": 7580,
      "Ġpowietrzu": 7581,
      "Ġkore": 7582,
      "rodÄĻ": 7583,
      "Ġwyczer": 7584,
      "Ġwskazuje": 7585,
      "ĠTrakta": 7586,
      "szeÄĩ": 7587,
      "ĠWrocÅĤa": 7588,
      "zulta": 7589,
      "ĠTro": 7590,
      "Ġstole": 7591,
      "ĠuczniÃ³w": 7592,
      "Ġcharakteru": 7593,
      "Ġklub": 7594,
      "ĠpÅĤci": 7595,
      "ĠVAT": 7596,
      "Ġkolejne": 7597,
      "Ġobserwa": 7598,
      "Ġ500": 7599,
      "laÅĤa": 7600,
      "Ġepi": 7601,
      "Ġupa": 7602,
      "gazy": 7603,
      "ĠprzejÅĽci": 7604,
      "kowanie": 7605,
      "2008": 7606,
      "Ġeduka": 7607,
      "ĠszczegÃ³ÅĤowe": 7608,
      "liwe": 7609,
      "niesione": 7610,
      "Ġosobom": 7611,
      "Ġoddzie": 7612,
      "Ġzostali": 7613,
      "PA": 7614,
      "Ġzawartych": 7615,
      "ĠWielkiej": 7616,
      "ĠwyglÄħd": 7617,
      "ĠuchwaÅĤy": 7618,
      "Ġkoor": 7619,
      "Ġdokumenty": 7620,
      "nikowi": 7621,
      "ĠÅºrÃ³dÅĤa": 7622,
      "logiczne": 7623,
      "Ġostatnim": 7624,
      "Ġkwota": 7625,
      "ĠKan": 7626,
      "niny": 7627,
      "WiÄĻc": 7628,
      "ĠokreÅĽlonej": 7629,
      "ĠKaÅ¼dy": 7630,
      "Ġprzeprowadzenia": 7631,
      "Ġwery": 7632,
      "ĠniezwÅĤocznie": 7633,
      "Ġnapa": 7634,
      "Ġnaw": 7635,
      "IV": 7636,
      "ĠwojewÃ³dztwie": 7637,
      "Ġwersji": 7638,
      "Ġzechce": 7639,
      "Ġokolice": 7640,
      "Ġobwie": 7641,
      "ĠÅĽrÃ³d": 7642,
      "Ġalbu": 7643,
      "kony": 7644,
      "ĠPodob": 7645,
      "Ġumiera": 7646,
      "Ġscena": 7647,
      "Ġmedia": 7648,
      "Ġodczy": 7649,
      "ĠwÅĤadzÄĻ": 7650,
      "Ġdum": 7651,
      "kam": 7652,
      "Ġakapi": 7653,
      "Ġ101": 7654,
      "Ġprezesa": 7655,
      "daniu": 7656,
      "ĠJerzy": 7657,
      "dan": 7658,
      "Ġnego": 7659,
      "pali": 7660,
      "Ġofice": 7661,
      "Ġodzna": 7662,
      "ĠÅĽwietle": 7663,
      "ĠinteresÃ³w": 7664,
      "Ġwieczorem": 7665,
      "rona": 7666,
      "ĠPodczas": 7667,
      "sje": 7668,
      "ĠsÅĤowem": 7669,
      "stek": 7670,
      "ĠdostÄĻpne": 7671,
      "ĠWarto": 7672,
      "czÄħÄĩ": 7673,
      "Ġofe": 7674,
      "Ã³Åºniej": 7675,
      "Ġwykrzy": 7676,
      "Ġmode": 7677,
      "Ġstrategi": 7678,
      "szaÅĤem": 7679,
      "bienia": 7680,
      "bowiem": 7681,
      "XX": 7682,
      "ĠuczyniÅĤ": 7683,
      "ĠÅ¼em": 7684,
      "ĠÅĽcie": 7685,
      "gacji": 7686,
      "ĠOl": 7687,
      "ĠwidziaÅĤem": 7688,
      "telu": 7689,
      "Ġnajlepiej": 7690,
      "Ġpodejm": 7691,
      "ĠMiÄĻdzynarod": 7692,
      "Å¼bie": 7693,
      "ĠuznaÄĩ": 7694,
      "tw": 7695,
      "Ġwzrokiem": 7696,
      "rzono": 7697,
      "gracji": 7698,
      "Przepisy": 7699,
      "jutrz": 7700,
      "ĠbÄĻdÄħcych": 7701,
      "ĠÅĤaska": 7702,
      "Ġpolitycznych": 7703,
      "tkami": 7704,
      "Ġfrag": 7705,
      "ĠzmÄĻ": 7706,
      "ĠRzÄħd": 7707,
      "Ġzajmuje": 7708,
      "zajutrz": 7709,
      "Ġdanym": 7710,
      "EM": 7711,
      "Ġprzeto": 7712,
      "ĠosiÄħgniÄĻcia": 7713,
      "Ġitp": 7714,
      "Ġbrat": 7715,
      "ĠZygmu": 7716,
      "ĠobowiÄħzany": 7717,
      "tyfikacji": 7718,
      "ĠWojcie": 7719,
      "Ġwidocznie": 7720,
      "Ġrozpatrywa": 7721,
      "KA": 7722,
      "nionej": 7723,
      "ĠMimo": 7724,
      "Ġistotnie": 7725,
      "ĠsytuacjÄĻ": 7726,
      "ĠSko": 7727,
      "Ġmuzyki": 7728,
      "Ġdawniej": 7729,
      "ĠdziaÅĤanie": 7730,
      "Ġwykaz": 7731,
      "ĠgranicÄħ": 7732,
      "Ġzabie": 7733,
      "Ġwzywa": 7734,
      "lnymi": 7735,
      "szÃ³w": 7736,
      "Ġrachu": 7737,
      "ĠÅ¼elaz": 7738,
      "ĠkÅĤopo": 7739,
      "ĠdorÄĻ": 7740,
      "ĠgotÃ³w": 7741,
      "Ã©y": 7742,
      "Ġstowarzy": 7743,
      "ĠwywoÅĤa": 7744,
      "ĠpeÅĤnomoc": 7745,
      "Ġstwierdza": 7746,
      "Dru": 7747,
      "ĠZgodnie": 7748,
      "ÅĦscy": 7749,
      "Ġmaj": 7750,
      "Ġustro": 7751,
      "ĠprzedsiÄĻbiorstwo": 7752,
      "Ġtechnicznych": 7753,
      "Åļrod": 7754,
      "Pe": 7755,
      "Ġporozumienia": 7756,
      "sse": 7757,
      "ĠczÅĤonkiem": 7758,
      "rym": 7759,
      "ĠzwiÄħzek": 7760,
      "wÅĤaÅĽci": 7761,
      "ĠzmianÄħ": 7762,
      "jak": 7763,
      "Ġkonsul": 7764,
      "Ġautoma": 7765,
      "Ġdochod": 7766,
      "nel": 7767,
      "aÅĤoÅĽÄĩ": 7768,
      "czanie": 7769,
      "Ġskrom": 7770,
      "Ġprawnego": 7771,
      "ĠpiÄĻkna": 7772,
      "Ġzrealiz": 7773,
      "Ġspor": 7774,
      "ĠuÅ¼yte": 7775,
      "ĠwzÃ³r": 7776,
      "Ġref": 7777,
      "Ġakty": 7778,
      "Ġstanow": 7779,
      "uje": 7780,
      "Ġodbior": 7781,
      "ĠPrzecieÅ¼": 7782,
      "ĠnieskoÅĦ": 7783,
      "ĠrozpoczÄħÅĤ": 7784,
      "Ġfabry": 7785,
      "ĠRepubliki": 7786,
      "Ġjesie": 7787,
      "Ġzaa": 7788,
      "kowaÄĩ": 7789,
      "Ġpunkty": 7790,
      "ĠUrz": 7791,
      "ĠStron": 7792,
      "ĠzÅĤego": 7793,
      "ĠTowarzy": 7794,
      "Ġmld": 7795,
      "dzieÅĽcia": 7796,
      "Ġzmy": 7797,
      "Ġzbio": 7798,
      "ĠprzeciÄĻ": 7799,
      "ĠwiedzÄħ": 7800,
      "mont": 7801,
      "gnÄĻ": 7802,
      "Ġprzemie": 7803,
      "Ġkonsekwen": 7804,
      "Sto": 7805,
      "Ġwymagania": 7806,
      "\"),": 7807,
      "budowa": 7808,
      "sÅĤem": 7809,
      "ĠjednakÅ¼e": 7810,
      "ĠnaszÄħ": 7811,
      "ts": 7812,
      "rzaÅĤy": 7813,
      "ĠJakie": 7814,
      "ĠĊĠĊ": 7815,
      "ĠwrÃ³ciÅĤ": 7816,
      "Ġmanda": 7817,
      "ĠNastÄĻpnie": 7818,
      "ĠInter": 7819,
      "ÅĤka": 7820,
      "mion": 7821,
      "ĠmiesiÄħce": 7822,
      "Ġniczym": 7823,
      "ĠkaÅ¼dÄħ": 7824,
      "Ġfigu": 7825,
      "munikacja": 7826,
      "ĠmiesiÄħca": 7827,
      "ĠAby": 7828,
      "Ġprzyrody": 7829,
      "Ġ44": 7830,
      "ĠRadzie": 7831,
      "walne": 7832,
      "rzonych": 7833,
      "Ġbudynku": 7834,
      "Ġ1995": 7835,
      "Ġponadto": 7836,
      "ĠbÄĻdÄħc": 7837,
      "Ġnazwiska": 7838,
      "glÄħdaÄĩ": 7839,
      "Ġdoskonale": 7840,
      "Inne": 7841,
      "ĠrÃ³Å¼no": 7842,
      "Ġdawna": 7843,
      "Ġura": 7844,
      "ĠsÅĤabo": 7845,
      "ĠGospodarki": 7846,
      "Ġpusty": 7847,
      "tywa": 7848,
      "ĠWz": 7849,
      "Ġwyniki": 7850,
      "ĠCon": 7851,
      "ĠodezwaÅĤ": 7852,
      "ĠpiÄĻkne": 7853,
      "myÅĽlnie": 7854,
      "Ġodde": 7855,
      "Ġudzielenie": 7856,
      "ĠkoÅĽcio": 7857,
      "Ġprzygotowania": 7858,
      "ĠodmÃ³wi": 7859,
      "ĠradoÅĽci": 7860,
      "sten": 7861,
      "liwoÅĽciÄħ": 7862,
      "ĠwnÄĻ": 7863,
      "Ġkorzystania": 7864,
      "Ġhod": 7865,
      "Ġ41": 7866,
      "ĠrÃ³": 7867,
      "ĠpodwyÅ¼": 7868,
      "ĠKomitet": 7869,
      "owemu": 7870,
      "ĠÅĽciany": 7871,
      "nionym": 7872,
      "Ġwystawi": 7873,
      "Ġplu": 7874,
      "ĠWoje": 7875,
      "Ġkwalifikacji": 7876,
      "Ġwyrazami": 7877,
      "ĠOna": 7878,
      "Ġhipo": 7879,
      "Ġap": 7880,
      "Ġbyle": 7881,
      "pÃ³ki": 7882,
      "__": 7883,
      "gh": 7884,
      "2017": 7885,
      "ĠmiesiÄĻ": 7886,
      "ĠkandydatÃ³w": 7887,
      "Fi": 7888,
      "Ġqu": 7889,
      "Ġdostarcza": 7890,
      "Ġzara": 7891,
      "Ġmaszyn": 7892,
      "ĠrozstrzygniÄĻ": 7893,
      "chÅĤo": 7894,
      "Ġtera": 7895,
      "Ġsalo": 7896,
      "ĠpodwÃ³j": 7897,
      "ĠpodziaÅĤu": 7898,
      "RZ": 7899,
      "mes": 7900,
      "Ġodro": 7901,
      "ĠIzbo": 7902,
      "ÅĤej": 7903,
      "Ġzazdro": 7904,
      "siu": 7905,
      "Ġimprezy": 7906,
      "czce": 7907,
      "Ġautobus": 7908,
      "ĠNowa": 7909,
      "Ġrezulta": 7910,
      "ĠmiÄĻdzynarodowych": 7911,
      "razy": 7912,
      "Ġzgodne": 7913,
      "nden": 7914,
      "terii": 7915,
      "ĠciÄĻÅ¼ko": 7916,
      "ĠsformuÅĤ": 7917,
      "Ġobchodzi": 7918,
      "Ġprofi": 7919,
      "Ġstrona": 7920,
      "Ġudzielania": 7921,
      "ĠpoÅĤowy": 7922,
      "win": 7923,
      "Ġwarsza": 7924,
      "Ġodpo": 7925,
      "Ġdodatkowych": 7926,
      "Ġtka": 7927,
      "Ġumowa": 7928,
      "Ġrolnych": 7929,
      "ĠDro": 7930,
      "?!": 7931,
      "ĠniewaÅ¼": 7932,
      "ĠMyÅĽlÄĻ": 7933,
      "ĠwyjaÅĽ": 7934,
      "Ġegzaminu": 7935,
      "ÅĽwiadczenie": 7936,
      "Ġprowadzenie": 7937,
      "wans": 7938,
      "Ġpotencja": 7939,
      "Ġchwil": 7940,
      "Ġtrzeciego": 7941,
      "ntroli": 7942,
      "2006": 7943,
      "ĠÅĤadu": 7944,
      "ĠStu": 7945,
      "Ġzapis": 7946,
      "daniem": 7947,
      "rozumieniu": 7948,
      "niosÅĤy": 7949,
      "ĠSÅĤ": 7950,
      "ĠpaÅĦstwach": 7951,
      "ĠprzyszÅĤoÅĽÄĩ": 7952,
      "ÑĤ": 7953,
      "ĠdruÅ¼y": 7954,
      "Ġmio": 7955,
      "ĠwystÄħpi": 7956,
      "Ġzdrowie": 7957,
      "noÅĽ": 7958,
      "ĠnastÄĻpujÄħcych": 7959,
      "Ġczele": 7960,
      "ĠBru": 7961,
      "ĠFlo": 7962,
      "Ġskargi": 7963,
      "chodzÄħc": 7964,
      "Ġodszko": 7965,
      "Ġszta": 7966,
      "ĠfaÅĤszy": 7967,
      "ĠOrgani": 7968,
      "Ġmej": 7969,
      "Ġdelika": 7970,
      "ĠcÃ³rki": 7971,
      "ĠstopieÅĦ": 7972,
      "ĠniezaleÅ¼nie": 7973,
      "Ġotacza": 7974,
      "tary": 7975,
      "Ġprzeczy": 7976,
      "Ġwpisu": 7977,
      "ĠzasÅĤu": 7978,
      "kul": 7979,
      "prÃ³cz": 7980,
      "Ġton": 7981,
      "ciÅĤy": 7982,
      "klÄĻ": 7983,
      "ĠkÅĤam": 7984,
      "ĠnaÅĦ": 7985,
      "Ġposu": 7986,
      "Ġzwrotu": 7987,
      "Ġwskutek": 7988,
      "Ġniemu": 7989,
      "ĠÅĤaci": 7990,
      "noszÄħc": 7991,
      "rzod": 7992,
      "ĠspÃ³j": 7993,
      "ĠistniejÄħ": 7994,
      "Ġludzkie": 7995,
      "ĠwypÅĤaca": 7996,
      "ĠbÅĤogosÅĤa": 7997,
      "Ġosobie": 7998,
      "Ġprzetar": 7999,
      "ĠrozwiÄħzaÅĦ": 8000,
      "ĠTymczasem": 8001,
      "Ġzje": 8002,
      "towÄħ": 8003,
      "brew": 8004,
      "Ġzawodu": 8005,
      "ĠspoÅĤecznoÅĽci": 8006,
      "ĠsÅĤuÅ¼bÄĻ": 8007,
      "ĠmÄĻÅ¼czyzn": 8008,
      "Ġkomplek": 8009,
      "lizacja": 8010,
      "Ñģ": 8011,
      "ĠÃ³wczes": 8012,
      "Ġznaczeniu": 8013,
      "ĠpodstawÄĻ": 8014,
      "ĠzÅĤota": 8015,
      "Ġprowincji": 8016,
      "Ġglo": 8017,
      "gieÅĤ": 8018,
      "Ġinteresu": 8019,
      "čĠĊĊčĠĊĊčĠĊ": 8020,
      "logicznej": 8021,
      "ĠspÃ³ÅĤek": 8022,
      "Ġkru": 8023,
      "twiej": 8024,
      "Ġpop": 8025,
      "ĠwystÄĻpujÄħ": 8026,
      "dziemy": 8027,
      "ĠKrajowej": 8028,
      "ĠokrÄĻg": 8029,
      "ĠÅ¼onÄĻ": 8030,
      "ĠmnÃ³": 8031,
      "RL": 8032,
      "sÅĤÃ³w": 8033,
      "Å¼ki": 8034,
      "Ġprywatnego": 8035,
      "Ten": 8036,
      "GÅĤos": 8037,
      "ĠuwzglÄĻdnia": 8038,
      "Ġnabo": 8039,
      "Ġwymiany": 8040,
      "Ġprofesor": 8041,
      "EJ": 8042,
      "prawoz": 8043,
      "ĠObecnie": 8044,
      "Ġdeleg": 8045,
      "Ġstanowisku": 8046,
      "ĠsÅĤyszÄĻ": 8047,
      "Ġzawodowej": 8048,
      "Ġjasno": 8049,
      "Ġpraca": 8050,
      "ĠbyÅĤaby": 8051,
      "Ġczarne": 8052,
      "stria": 8053,
      "ĠprzewoÅº": 8054,
      "Nazwa": 8055,
      "Dziennik": 8056,
      "biÄĻ": 8057,
      "Ġnadziei": 8058,
      "wÃ³z": 8059,
      "Ġgen": 8060,
      "ngu": 8061,
      "Ġposiedzenie": 8062,
      "Ġkapelu": 8063,
      "paÄĩ": 8064,
      "Pi": 8065,
      "ĠoÅ¼y": 8066,
      "ĠIzby": 8067,
      "DA": 8068,
      ".;": 8069,
      "Ġrozpoczyna": 8070,
      "ĠMal": 8071,
      "ue": 8072,
      "Szanowny": 8073,
      "Ġpokona": 8074,
      "IP": 8075,
      "Ġprzebywa": 8076,
      "ĠprzewodniczÄħcego": 8077,
      "pry": 8078,
      "ĠskrzydÅĤa": 8079,
      "ĠsiedzibÄĻ": 8080,
      "Äħb": 8081,
      "ĠwzgÃ³": 8082,
      "Ġszkole": 8083,
      "Ġmiejscach": 8084,
      "Ġkrajowe": 8085,
      "Ġrolnictwa": 8086,
      "tylko": 8087,
      "szczaÅĤ": 8088,
      "Ġfal": 8089,
      "Ġznam": 8090,
      "Å¼noÅĽci": 8091,
      "Ġnarze": 8092,
      "dziÅĤem": 8093,
      "Ġzapewnienie": 8094,
      "Ġtrzecich": 8095,
      "Ġmacierzy": 8096,
      "ĠstatkÃ³w": 8097,
      "ÅĽwie": 8098,
      "tri": 8099,
      "Ponadto": 8100,
      "ĠBor": 8101,
      "Ġ&": 8102,
      "mistrz": 8103,
      "ĠJeste": 8104,
      "ĠUwaÅ¼a": 8105,
      "ĠtÃ©m": 8106,
      "Ġwymienione": 8107,
      "Ġsum": 8108,
      "ĠMaÅĤ": 8109,
      "ĠzmieniÄĩ": 8110,
      "powo": 8111,
      "Ġpopiera": 8112,
      "Ġdotacji": 8113,
      "ĠCzu": 8114,
      "ĠopiniÄĻ": 8115,
      "Ġznane": 8116,
      "Ġpanny": 8117,
      "ĠpoznaÄĩ": 8118,
      "Ġ1992": 8119,
      "ĠuzyskaÄĩ": 8120,
      "pki": 8121,
      "Ġmikro": 8122,
      "Ġdaty": 8123,
      "ĠÅ¼al": 8124,
      "nujÄĻ": 8125,
      "2016": 8126,
      "ĠzakoÅĦczeniu": 8127,
      "Ġrestrukturyzacji": 8128,
      "Ġpasz": 8129,
      "Rze": 8130,
      "bez": 8131,
      "ĠpoÅ¼egna": 8132,
      "dol": 8133,
      "ĠmyÅĽleÄĩ": 8134,
      "Ġkome": 8135,
      "Ġwiek": 8136,
      "Ġnauczycieli": 8137,
      "wam": 8138,
      "Ġdecyzje": 8139,
      "ĠkoÅĽciÃ³ÅĤ": 8140,
      "ĠEuropejskÄħ": 8141,
      "ĠNigdy": 8142,
      "legÅĤoÅĽÄĩ": 8143,
      "telnoÅĽci": 8144,
      "ĠgruntÃ³w": 8145,
      "Ġbenefi": 8146,
      "Ġprzepa": 8147,
      "Ġponu": 8148,
      "ĠkrzyÅ¼": 8149,
      "dujÄħ": 8150,
      "tew": 8151,
      "ĠpoÅĽle": 8152,
      "ĠznaÄĩ": 8153,
      "ĠobecnoÅĽci": 8154,
      "ĠObywatel": 8155,
      "Ġustanowie": 8156,
      "ĠdomÃ³w": 8157,
      "Ġkadencji": 8158,
      "zaÅĤa": 8159,
      "cek": 8160,
      "ĠnazwÄħ": 8161,
      "Ġpunkcie": 8162,
      "manie": 8163,
      "Ġsiedem": 8164,
      "ĠbezpÅĤa": 8165,
      "up": 8166,
      "Ġdwoma": 8167,
      "ĠuÅĤo": 8168,
      "Ġopro": 8169,
      "ĠpoÅĤoÅ¼ona": 8170,
      "ciaÅĤa": 8171,
      "Ġuznaje": 8172,
      "ĠtreÅĽÄĩ": 8173,
      "ĠwystÄħpienia": 8174,
      "ioryte": 8175,
      "Wytwarzanie": 8176,
      "Ġanaliz": 8177,
      "nis": 8178,
      "Ġnowym": 8179,
      "dru": 8180,
      "Ġhar": 8181,
      "jciec": 8182,
      "ĠtrÃ³j": 8183,
      "Ġpowstrzy": 8184,
      "ĠpowstaÅĤa": 8185,
      "Ġprzysta": 8186,
      "nikach": 8187,
      "Ġponie": 8188,
      "nionÄħ": 8189,
      "ĠspÃ³ÅĤdziel": 8190,
      "Ġ113": 8191,
      "Ġmagazy": 8192,
      "berg": 8193,
      "Ġnaukowych": 8194,
      "Ġgodzinie": 8195,
      "rej": 8196,
      "ĠbiaÅĤ": 8197,
      "Ġreal": 8198,
      "ĠprzedstawiÄĩ": 8199,
      "ĠPrezyden": 8200,
      "Ġrynek": 8201,
      "nowania": 8202,
      "Ġlega": 8203,
      "ĠokreÅĽliÄĩ": 8204,
      "Ġ300": 8205,
      "ĠpoÅĽpie": 8206,
      "lÄħd": 8207,
      "rowie": 8208,
      "ĠbudowÄĻ": 8209,
      "pina": 8210,
      "Ġszk": 8211,
      "nder": 8212,
      "ĠJej": 8213,
      "Ġsprawiedli": 8214,
      "stÄĻpujemy": 8215,
      "ĠogÃ³lnej": 8216,
      "niusz": 8217,
      "ĠprÃ³cz": 8218,
      "Ġpospoli": 8219,
      "NaleÅ¼y": 8220,
      "nianie": 8221,
      "lle": 8222,
      "ĠzauwaÅ¼yÄĩ": 8223,
      "ĠAleÅ¼": 8224,
      "czÄħcy": 8225,
      "Ġhomo": 8226,
      "ĠMarek": 8227,
      "Ġetapie": 8228,
      "jenia": 8229,
      "âĢ¦]": 8230,
      "Ġwydane": 8231,
      "Ġposel": 8232,
      "ĠprzyjÄĻÅĤa": 8233,
      "ĠÅ»ydÃ³w": 8234,
      "Ġprzeznaczonych": 8235,
      "ĠpowaÅ¼a": 8236,
      "ĠpytaÅĦ": 8237,
      "owskim": 8238,
      "ĠSÅĤowa": 8239,
      "Jako": 8240,
      "ĠMan": 8241,
      "ĠodrzekÅĤ": 8242,
      "Ġlabora": 8243,
      "Ġgdybym": 8244,
      "ĠgÅĤÃ³wnych": 8245,
      "miÄĩ": 8246,
      "ckiem": 8247,
      "ĠodlegÅĤoÅĽci": 8248,
      "ĠmÄĻÅ¼czyzna": 8249,
      "jej": 8250,
      "Ġgaz": 8251,
      "arki": 8252,
      "wszyst": 8253,
      "szaÄĩ": 8254,
      "Ġryb": 8255,
      "ownych": 8256,
      "szczony": 8257,
      "Ġszkody": 8258,
      "EWG": 8259,
      "dowane": 8260,
      "ĠksiÄħdz": 8261,
      "2010": 8262,
      "ĠsÅĤone": 8263,
      "Ġsukce": 8264,
      "Ġjakoby": 8265,
      "fini": 8266,
      "ĠzwÅĤo": 8267,
      "Samo": 8268,
      "czÃ³w": 8269,
      "Ġosobowych": 8270,
      "Ġeuropejskich": 8271,
      "Ġledwie": 8272,
      "Ġpog": 8273,
      "dowych": 8274,
      "Ġodwo": 8275,
      "fiku": 8276,
      "chodnich": 8277,
      "czaÄĩ": 8278,
      "ĠkontekÅĽcie": 8279,
      "ÅĤonek": 8280,
      "ĠrozporzÄħdzeniu": 8281,
      "Ġstosowanie": 8282,
      "Ġskry": 8283,
      "niczej": 8284,
      "Ġdyploma": 8285,
      "czyÅĦski": 8286,
      "Ġtabe": 8287,
      "Ġ55": 8288,
      "demi": 8289,
      "Ġprzedmiot": 8290,
      "ĠpaÅĦstwu": 8291,
      "kÅĤÃ³": 8292,
      "glu": 8293,
      "ĠmÅĤod": 8294,
      "Ġjednostkach": 8295,
      "Ġszer": 8296,
      "ower": 8297,
      "Ġplanowa": 8298,
      "ĠbroÅĦ": 8299,
      "ĠtrwaÅĤ": 8300,
      "celar": 8301,
      "ĠwstrzÄħ": 8302,
      "ĠmiÄĻk": 8303,
      "Ġradio": 8304,
      "prawi": 8305,
      "Ġrela": 8306,
      "ĠpaÅĤacu": 8307,
      "Jedno": 8308,
      "ĠÄĩwi": 8309,
      "Ġpija": 8310,
      "ĠwynikajÄħce": 8311,
      "ĠrzeczÄħ": 8312,
      "tÅĤuma": 8313,
      "Ġdora": 8314,
      "ĠBro": 8315,
      "Ġwojskowych": 8316,
      "ĠkrokÃ³w": 8317,
      "Ġwyma": 8318,
      "ĠrozporzÄħdzeniem": 8319,
      "Ġwaha": 8320,
      "Ġokiem": 8321,
      "Ġrozmowa": 8322,
      "ĠZÅĤo": 8323,
      "Ġpotrzebne": 8324,
      "Ġnosi": 8325,
      "Ġanio": 8326,
      "prawka": 8327,
      "Ġtwego": 8328,
      "ĠniechÄĻ": 8329,
      "Ġpowoduje": 8330,
      "Ġperspek": 8331,
      "ciera": 8332,
      "Ġkarnego": 8333,
      "ĠTakie": 8334,
      "ĠNikt": 8335,
      "Ġdostrze": 8336,
      "Ġkrak": 8337,
      "teli": 8338,
      "Ġryzyko": 8339,
      "ĠtoÅ¼sa": 8340,
      "Ġcmenta": 8341,
      "wca": 8342,
      "Ġkompetencji": 8343,
      "Å¼sze": 8344,
      "Ġkonkurencji": 8345,
      "pier": 8346,
      "ĠzwrÃ³": 8347,
      "Ġwpa": 8348,
      "ĠCzÄĻsto": 8349,
      "ĠPierwszy": 8350,
      "Ġwybi": 8351,
      "Ġproblemy": 8352,
      "burg": 8353,
      "ĠmateriaÅĤu": 8354,
      "Ġwnosi": 8355,
      "ĠÅĽcieÅ¼": 8356,
      "ĠJaro": 8357,
      "Ġnauczyciel": 8358,
      "Ġkalen": 8359,
      "uch": 8360,
      "ĠKie": 8361,
      "ĠsÅĤuÅ¼y": 8362,
      "Ġmusie": 8363,
      "ĠokrÄħ": 8364,
      "Ġproponuje": 8365,
      "ĠudziaÅĤem": 8366,
      "Ġwymiaru": 8367,
      "ralnym": 8368,
      "Ġskorzysta": 8369,
      "ĠkogoÅĽ": 8370,
      "ĠdoÅĽwiadczenia": 8371,
      "ĠsÄħsia": 8372,
      "ĠWiki": 8373,
      "caÅĤa": 8374,
      "Ġokolicy": 8375,
      "ĠporÄĻ": 8376,
      "wagi": 8377,
      "ĠogÅĤa": 8378,
      "ĠproblemÃ³w": 8379,
      "ĠpostanowiÅĤ": 8380,
      "ĠwieÅĽ": 8381,
      "Ġdeba": 8382,
      "Ġ1939": 8383,
      "ĠtysiÄħce": 8384,
      "ĠnieprawidÅĤ": 8385,
      "Ġgeo": 8386,
      "lli": 8387,
      "strybu": 8388,
      "szedÅĤem": 8389,
      "ĠAt": 8390,
      "Ġskali": 8391,
      "Ġostatniego": 8392,
      "bert": 8393,
      "wajcar": 8394,
      "skami": 8395,
      "iera": 8396,
      "Ġmm": 8397,
      "nowane": 8398,
      "snÄħÄĩ": 8399,
      "Ġlasu": 8400,
      "ĠdziewiÄĻ": 8401,
      "Ġokrzy": 8402,
      "ĠÅ¼aÅĤ": 8403,
      "Ġwiemy": 8404,
      "Ġutrzymania": 8405,
      "ĠdÃ³ÅĤ": 8406,
      "Ġkampa": 8407,
      "torowi": 8408,
      "ĠzabraÄĩ": 8409,
      "Ġuniwersyte": 8410,
      "Ġbraci": 8411,
      "Ġistoty": 8412,
      "Ġtrwania": 8413,
      "Aby": 8414,
      "Ġobszarach": 8415,
      "szczeniu": 8416,
      "Ġpli": 8417,
      "ĠdwadzieÅĽcia": 8418,
      "ĠwodÄħ": 8419,
      "Ġlekarz": 8420,
      "Ġpoku": 8421,
      "ĠuzaleÅ¼": 8422,
      "ĠspokÃ³j": 8423,
      "ĠÅ¼yciem": 8424,
      "Ġ1993": 8425,
      "Ġunika": 8426,
      "ĠKazimierz": 8427,
      "SI": 8428,
      "ĠhaÅĤa": 8429,
      "ĠchciaÅĤem": 8430,
      "ĠTru": 8431,
      "Ġkomenda": 8432,
      "Ġpoprawek": 8433,
      "id": 8434,
      "ĠstoÅĤu": 8435,
      "czoÅĽÄĩ": 8436,
      "ĠposÄħ": 8437,
      "laÄĩ": 8438,
      "Ġmoder": 8439,
      "Ġwykorzystu": 8440,
      "bus": 8441,
      "ĠuczuÄĩ": 8442,
      "wcy": 8443,
      "kara": 8444,
      "Ġprezydent": 8445,
      "niejszego": 8446,
      "ĠrÄĻkach": 8447,
      "Ġodse": 8448,
      "Ġpoga": 8449,
      "ÄĻzy": 8450,
      "Ġszale": 8451,
      "blu": 8452,
      "Ġnade": 8453,
      "Ġdodatku": 8454,
      "TFUE": 8455,
      "ĠdziesiÄħ": 8456,
      "dwi": 8457,
      "ĠMÃ³j": 8458,
      "ĠgÅĤosy": 8459,
      "ĠwymagaÅĦ": 8460,
      "ĠVI": 8461,
      "Ġinstytucje": 8462,
      "Ġzaludnienia": 8463,
      "Ġdofinans": 8464,
      "serw": 8465,
      "ĠmilionÃ³w": 8466,
      "ĠSÅĤo": 8467,
      "http": 8468,
      "Ġtrakta": 8469,
      "czech": 8470,
      "ĠduÅ¼Äħ": 8471,
      "Ġzalicza": 8472,
      "Ġwyje": 8473,
      "Ġkomputer": 8474,
      "ĠokreÅĽlenie": 8475,
      "Fran": 8476,
      "Ġwsparcie": 8477,
      "ĠZwiÄħzku": 8478,
      "miarze": 8479,
      "Ġogo": 8480,
      "Ġwczes": 8481,
      "sady": 8482,
      "Ġwykonanie": 8483,
      "Ġteren": 8484,
      "AW": 8485,
      "ĠWÅĤadysÅĤaw": 8486,
      "stecz": 8487,
      "Ġkomite": 8488,
      "ĠuzupeÅĤnia": 8489,
      "ĠDziÄĻki": 8490,
      "Ġdnie": 8491,
      "ĠogÃ³lno": 8492,
      "Ġnowa": 8493,
      "ĠBole": 8494,
      "Ġprogu": 8495,
      "Ġostatniej": 8496,
      "Ġuzbro": 8497,
      "Ġarmii": 8498,
      "Ġomawia": 8499,
      "Gra": 8500,
      "Ġform": 8501,
      "Ġcno": 8502,
      "ĠBal": 8503,
      "ĠIS": 8504,
      "aÅĤoru": 8505,
      "ustawy": 8506,
      "ĠmateriaÅĤy": 8507,
      "Ġtworzenia": 8508,
      "UM": 8509,
      "Ġoz": 8510,
      "ĠÅĽrodowisk": 8511,
      "ĠTer": 8512,
      "Ce": 8513,
      "Ġognia": 8514,
      "ĠPaÅĦstwowej": 8515,
      "Ġflo": 8516,
      "chach": 8517,
      "ĠpozostaÅĤ": 8518,
      "ĠwspÃ³lnie": 8519,
      "ĠIr": 8520,
      "ĠwpÅĤywem": 8521,
      "Ġkrajowym": 8522,
      "ĠkrzyknÄħÅĤ": 8523,
      "ĠbraÄĩ": 8524,
      "ĠwolnoÅĽÄĩ": 8525,
      "the": 8526,
      "Ġruchem": 8527,
      "ĠsiÅĤa": 8528,
      "Ġpolicja": 8529,
      "ĠrozdziaÅĤ": 8530,
      "rÃ³wny": 8531,
      "Ġprzedstawiciel": 8532,
      "nau": 8533,
      "Ġoszu": 8534,
      "Ġdzier": 8535,
      "Pow": 8536,
      "Ġschro": 8537,
      "ĠTele": 8538,
      "ĠdobrÄħ": 8539,
      "ĠprzedsiÄĻbiorcÃ³w": 8540,
      "Ġtechnologii": 8541,
      "dzonym": 8542,
      "ransport": 8543,
      "lki": 8544,
      "niÄĻta": 8545,
      "Ġodbi": 8546,
      "ĠogÃ³ÅĤ": 8547,
      "ĠnakÅĤada": 8548,
      "Å¼aÅĤy": 8549,
      "ÅĽÅĦ": 8550,
      "Ġks": 8551,
      "czajÄħc": 8552,
      "kazujÄħ": 8553,
      "ĠÅĽciÅĽle": 8554,
      "niesio": 8555,
      "Ġlegisla": 8556,
      "Ġfunkcje": 8557,
      "Ġpomaga": 8558,
      "Ġ110": 8559,
      "101": 8560,
      "Ġzawodowego": 8561,
      "Ġdotar": 8562,
      "stanowie": 8563,
      "pami": 8564,
      "Ġutru": 8565,
      "ĠPoÅĤudni": 8566,
      "Ġcywilnego": 8567,
      "Ġoczami": 8568,
      "ĠkolejnoÅĽci": 8569,
      "ĠmyÅĽ": 8570,
      "fon": 8571,
      "ĠrozsÄħd": 8572,
      "Ġowe": 8573,
      "ĠumiaÅĤ": 8574,
      "Ġapara": 8575,
      "Ġgranicach": 8576,
      "ĠÅ¼Äħda": 8577,
      "Ġszans": 8578,
      "Ġsekre": 8579,
      "ĠduÅ¼ych": 8580,
      "Ġklasz": 8581,
      "Ġfilozof": 8582,
      "Ġprzebie": 8583,
      "porzÄħd": 8584,
      "sne": 8585,
      "Ġzapyta": 8586,
      "ĠsiedzÄħ": 8587,
      "ĠJeden": 8588,
      "ntakt": 8589,
      "Ġ47": 8590,
      "caÄĩ": 8591,
      "Ġucho": 8592,
      "Ġ117": 8593,
      "ĠsiÅĤÄĻ": 8594,
      "kta": 8595,
      "ĠrozwiÄħ": 8596,
      "nianych": 8597,
      "bÄĻdÄħ": 8598,
      "Ġnegocja": 8599,
      "mego": 8600,
      "ownik": 8601,
      "Ġniewol": 8602,
      "Ġniepew": 8603,
      "ĠÅģu": 8604,
      "ĠpamiÄĻÄĩ": 8605,
      "ByÅĤ": 8606,
      "Ġklie": 8607,
      "kaj": 8608,
      "Ġczynienia": 8609,
      "ciach": 8610,
      "Ġkompozy": 8611,
      "ĠrozwaÅ¼a": 8612,
      "lij": 8613,
      "ciÅĤo": 8614,
      "dziedzi": 8615,
      "ĠÅĽrodku": 8616,
      "Ġuleg": 8617,
      "Ġzaro": 8618,
      "ĠprzyszÅĤa": 8619,
      "rzyÅĤy": 8620,
      "Ġ64": 8621,
      "Ġnadu": 8622,
      "dki": 8623,
      "Ġwypowiedzi": 8624,
      "ĠSÅĤy": 8625,
      "ĠwÅĤasnoÅĽÄĩ": 8626,
      "kanie": 8627,
      "Ġdziewczyna": 8628,
      "rzona": 8629,
      "ill": 8630,
      "Ġrzadko": 8631,
      "Ġ49": 8632,
      "Ġgim": 8633,
      "Ġzadanie": 8634,
      "Ġdoktora": 8635,
      "Ġpewnej": 8636,
      "Ġwasz": 8637,
      "gÃ³r": 8638,
      "BC": 8639,
      "Ġcudow": 8640,
      "Ġnaprzeciw": 8641,
      "ĠweÅº": 8642,
      "Ġww": 8643,
      "Ġprzygotowaw": 8644,
      "ĠustÄĻp": 8645,
      "ĠkoÅĦczy": 8646,
      "Ġ95": 8647,
      "kaÅĤy": 8648,
      "posto": 8649,
      "ĠwaÅ¼nym": 8650,
      "Ġrozleg": 8651,
      "Ġdrogowym": 8652,
      "Ġozd": 8653,
      "Ġhet": 8654,
      "ĠpodkreÅĽla": 8655,
      "Ġmiesz": 8656,
      "liÅĽcie": 8657,
      "Ġprzemy": 8658,
      "ĠwyjaÅĽnia": 8659,
      "lekt": 8660,
      "Ġnowoczes": 8661,
      "Ġwnet": 8662,
      "Ġinna": 8663,
      "ĠStÄħd": 8664,
      "Ġfla": 8665,
      "nikom": 8666,
      "kowany": 8667,
      "szania": 8668,
      "Ġpen": 8669,
      "obo": 8670,
      "ĠrodzajÃ³w": 8671,
      "zowie": 8672,
      "Ġ1989": 8673,
      "PoseÅĤ": 8674,
      "Ġtwoja": 8675,
      "formujÄĻ": 8676,
      "Ġuczelni": 8677,
      "Ġpodoba": 8678,
      "ĠprzyjÄĻty": 8679,
      "Ġuchyla": 8680,
      "ĠspoÅĽrÃ³d": 8681,
      "dowaÅĤo": 8682,
      "Ġtransakcji": 8683,
      "obÃ³j": 8684,
      "ĠprÄĻdzej": 8685,
      "Ġstudia": 8686,
      "wizji": 8687,
      "Gdzie": 8688,
      "Ġ$": 8689,
      "grudnia": 8690,
      "Ġzachodzi": 8691,
      "lor": 8692,
      "Ġmowy": 8693,
      "MI": 8694,
      "Ġpoj": 8695,
      "Å¼eni": 8696,
      "ĠWiem": 8697,
      "tno": 8698,
      "Ġpowiedz": 8699,
      "rwa": 8700,
      "Ġ1945": 8701,
      "sma": 8702,
      "ĠciemnoÅĽci": 8703,
      "kcje": 8704,
      "Ġpakie": 8705,
      "Ġskom": 8706,
      "ĠbudynkÃ³w": 8707,
      "Ġosiem": 8708,
      "kÅĤem": 8709,
      "Ġczci": 8710,
      "ÅĦcem": 8711,
      "Ġautostra": 8712,
      "ĠpytaÅĤ": 8713,
      "Ġznu": 8714,
      "Ġportu": 8715,
      "ĠBezpieczeÅĦstwa": 8716,
      "skaÄĩ": 8717,
      "Ġmoi": 8718,
      "tre": 8719,
      "ĠpozostaÅĤe": 8720,
      "towanie": 8721,
      "ĠdrÅ¼Äħ": 8722,
      "ĠwstrÄĻ": 8723,
      "Ġpodobny": 8724,
      "Ġwrza": 8725,
      "Ġpoeta": 8726,
      "nujÄħ": 8727,
      "Ġ111": 8728,
      "Ġkodek": 8729,
      "Ġfizycznych": 8730,
      "ds": 8731,
      "Ġczytel": 8732,
      "Ġpisma": 8733,
      "ekst": 8734,
      "Ġwnioskiem": 8735,
      "ĠFesti": 8736,
      "ĠAndrze": 8737,
      "dba": 8738,
      "ĠInformacje": 8739,
      "cic": 8740,
      "ĠBiura": 8741,
      "ĠBur": 8742,
      "ĠbezwzglÄĻd": 8743,
      "Ġgrunt": 8744,
      "Ġaspek": 8745,
      "ĠRober": 8746,
      "Ġdobrej": 8747,
      "Ġnarodowej": 8748,
      "Ġoczywi": 8749,
      "Ġapli": 8750,
      "Ġdam": 8751,
      "ĠDojazd": 8752,
      "ĠtrÄħ": 8753,
      "sÅĤaÅĤ": 8754,
      "Ġniepoko": 8755,
      "bliÅ¼sze": 8756,
      "Ġprzeba": 8757,
      "dowaÅĤy": 8758,
      "ĠdziÄĻkujÄĻ": 8759,
      "sion": 8760,
      "Ġinicjatywy": 8761,
      "som": 8762,
      "ĠwÅĤasny": 8763,
      "rowany": 8764,
      "Ġrekla": 8765,
      "Ġnajwy": 8766,
      "Ġrent": 8767,
      "Ġprzedmiocie": 8768,
      "Ġ65": 8769,
      "roku": 8770,
      "ĠuÅĽci": 8771,
      "Ġodpow": 8772,
      "Ġ85": 8773,
      "Ġewidencji": 8774,
      "Ġpowrotem": 8775,
      "Ġkorzyst": 8776,
      "ĠchÄĻtnie": 8777,
      "sio": 8778,
      "mand": 8779,
      "ĠCor": 8780,
      "ĠAnna": 8781,
      "Ġplat": 8782,
      "ĠpowiÄĻk": 8783,
      "Ġokno": 8784,
      "ĠmÅĤodego": 8785,
      "Ġvon": 8786,
      "Ġ112": 8787,
      "Ġoficer": 8788,
      "ĠartykuÅĤu": 8789,
      "Ġnaraz": 8790,
      "terze": 8791,
      "lasy": 8792,
      "Ġprzekazuje": 8793,
      "Ð»": 8794,
      "ĠwynoszÄħ": 8795,
      "Ġwojna": 8796,
      "Ġhiszpa": 8797,
      "ĠuniemoÅ¼li": 8798,
      "demu": 8799,
      "Ġ57": 8800,
      "Ġkonferen": 8801,
      "iÄĻkszoÅĽÄĩ": 8802,
      "ĠzuÅ¼y": 8803,
      "ĠpÅĤynÄħ": 8804,
      "rium": 8805,
      "Ġ119": 8806,
      "Ġ96": 8807,
      "Ġwykry": 8808,
      "Ġpoez": 8809,
      "ĠUr": 8810,
      "don": 8811,
      "ĠAni": 8812,
      "ĠniezbÄĻdnych": 8813,
      "ĠBry": 8814,
      "ĠTi": 8815,
      "ĠFre": 8816,
      "Ġpobra": 8817,
      "ĠurzÄħd": 8818,
      "Ġaudy": 8819,
      "ĠKodeksu": 8820,
      "dÅĤy": 8821,
      "nkÄĻ": 8822,
      "nus": 8823,
      "Ġposiad": 8824,
      "ĠpowieÅĽci": 8825,
      "Ġwysokie": 8826,
      "Ġpoprzedza": 8827,
      "ĠpoÅĤow": 8828,
      "Ġznany": 8829,
      "sora": 8830,
      "ĠcenÄĻ": 8831,
      "kowaÅĤ": 8832,
      "ĠpodziaÅĤ": 8833,
      "ĠduÅ¼ej": 8834,
      "Archi": 8835,
      "ĠmiesiÄħc": 8836,
      "faÅĤ": 8837,
      "portu": 8838,
      "Ġregulacji": 8839,
      "ĠtÃ©": 8840,
      "tele": 8841,
      "ceniu": 8842,
      "ĠRolnictwa": 8843,
      "Ġpsychi": 8844,
      "Ġcertyfika": 8845,
      "Teraz": 8846,
      "ĠBezpieczeÅĦstwo": 8847,
      "Ġregulu": 8848,
      "ĠrozumieÄĩ": 8849,
      "Ġ98": 8850,
      "Ġdokumentacji": 8851,
      "Ġczasy": 8852,
      "ĠParyÅ¼u": 8853,
      "ĠniemoÅ¼li": 8854,
      "ĠPru": 8855,
      "ĠsiedzibÄħ": 8856,
      "mowanie": 8857,
      "ĠAfry": 8858,
      "ĠwstrzymaÅĤ": 8859,
      "Ġzaszczy": 8860,
      "Ġumo": 8861,
      "sny": 8862,
      "kowanej": 8863,
      "ĠczeÅĽÄĩ": 8864,
      "Ã³dÅº": 8865,
      "Å¼yÅĤem": 8866,
      "ĠnÃ³g": 8867,
      "ÅĤÄħb": 8868,
      "Ġprzygo": 8869,
      "Ġprosi": 8870,
      "Cza": 8871,
      "ĠpojÄĻcie": 8872,
      "niÄħc": 8873,
      "Ġniestety": 8874,
      "Ġwieki": 8875,
      "Ġboku": 8876,
      "Ġpozostawi": 8877,
      "Rada": 8878,
      "kajÄħc": 8879,
      "toni": 8880,
      "ĠÅĽmiaÅĤ": 8881,
      "styn": 8882,
      "ĠzaczÄĻÅĤy": 8883,
      "Ġzabiera": 8884,
      "ĠobowiÄħzy": 8885,
      "ĠszepnÄħÅĤ": 8886,
      "ĠFer": 8887,
      "ĠEuropejska": 8888,
      "ĠskÅĤadek": 8889,
      "nti": 8890,
      "skaÅĤa": 8891,
      "Ġniecier": 8892,
      "ĠCu": 8893,
      "Ġwoda": 8894,
      "Ġ74": 8895,
      "cku": 8896,
      "ĠczÅĤonka": 8897,
      "ÅĽwiado": 8898,
      "Ġpodobnych": 8899,
      "Ġgrozi": 8900,
      "Ġokry": 8901,
      "ĠkapitaÅĤu": 8902,
      "ĠÅĽnia": 8903,
      "SP": 8904,
      "dÅĤugo": 8905,
      "Ġobfi": 8906,
      "Å¼ywszy": 8907,
      "ownikÃ³w": 8908,
      "Ġdawnych": 8909,
      "Ġprzyjaciel": 8910,
      "Ġspie": 8911,
      "Ġsobo": 8912,
      "ram": 8913,
      "ĠodpowiedziaÅĤa": 8914,
      "ĠPO": 8915,
      "Ġstaran": 8916,
      "ĠwyÅ¼sze": 8917,
      "nÃ©m": 8918,
      "Ġjasne": 8919,
      "ĠmniejszoÅĽci": 8920,
      "ĠbÅĤÄħd": 8921,
      "Ġrynk": 8922,
      "Ġrezy": 8923,
      "ĠChodzi": 8924,
      "ĠzauwaÅ¼yÅĤ": 8925,
      "Ġrycer": 8926,
      "Ġniewia": 8927,
      "ĠstosunkÃ³w": 8928,
      "ĠprzestÄĻpstwa": 8929,
      "ÄĻdzia": 8930,
      "ĠrosnÄħ": 8931,
      "ĠWito": 8932,
      "Ġwykonywanie": 8933,
      "ĠpÃ³ki": 8934,
      "Ġswoi": 8935,
      "Ġchcemy": 8936,
      "Ġgabi": 8937,
      "ĠDziÅĽ": 8938,
      "Ġgospodarstwa": 8939,
      "Ġjemu": 8940,
      "Ġpisze": 8941,
      "ĠprzyjÄĻciem": 8942,
      "Ġnaczy": 8943,
      "Ġuczucie": 8944,
      "Ġwese": 8945,
      "ĠodwoÅĤanie": 8946,
      "Ġchleba": 8947,
      "ema": 8948,
      "ĠsÅĤuÅ¼yÄĩ": 8949,
      "ĠKarol": 8950,
      "Ġdobrym": 8951,
      "cÄħc": 8952,
      "ĠLegi": 8953,
      "ĠTego": 8954,
      "Ġpewna": 8955,
      "Ġbeneficje": 8956,
      "ris": 8957,
      "Ġpolityka": 8958,
      "Ġpreju": 8959,
      "Ġhonor": 8960,
      "Ġherba": 8961,
      "Ġmiastem": 8962,
      "ĠCzyÅ¼": 8963,
      "ĠDÅĤu": 8964,
      "ĠuzyskaÅĤ": 8965,
      "ĠCel": 8966,
      "Ġedukacji": 8967,
      "Ġspu": 8968,
      "ĠJakÅ¼e": 8969,
      "Ġkawale": 8970,
      "Å¼ka": 8971,
      "znÄĻ": 8972,
      "nicki": 8973,
      "soli": 8974,
      "ĠKana": 8975,
      "dziesz": 8976,
      "ĠNiemczech": 8977,
      "hel": 8978,
      "ĠoszczÄĻd": 8979,
      "Ġder": 8980,
      "Ġfol": 8981,
      "Ġpropozycji": 8982,
      "Ġwygo": 8983,
      "Ġniewiele": 8984,
      "Ġstwierdzenia": 8985,
      "szach": 8986,
      "Ġlot": 8987,
      "ĠskrÄĻca": 8988,
      "ĠSaint": 8989,
      "Ġprioryte": 8990,
      "Ġzagospodar": 8991,
      "ĠpoprawkÄĻ": 8992,
      "Ġwydanych": 8993,
      "dago": 8994,
      "Ġintensy": 8995,
      "Ġprejudycja": 8996,
      "ĠbudÅ¼et": 8997,
      "Ġokazji": 8998,
      "ĠSamochodem": 8999,
      "lania": 9000,
      "Ġx": 9001,
      "Ġgospodarczych": 9002,
      "Ġmilczeniu": 9003,
      "ĠpodjÄĻcia": 9004,
      "Ġety": 9005,
      "ĠpiÃ³": 9006,
      "Ġuspoko": 9007,
      "ĠMinistrze": 9008,
      "Ġpowszechnie": 9009,
      "Ġopozy": 9010,
      "EF": 9011,
      "ĠzwiÄħzkÃ³w": 9012,
      "jÄħcemu": 9013,
      "ĠodpowiedzieÄĩ": 9014,
      "ĠnaleÅ¼aÅĤo": 9015,
      "Ġotwarte": 9016,
      "Ġzamiar": 9017,
      "Ry": 9018,
      "ĠstwierdziÄĩ": 9019,
      "dziesiÄĻ": 9020,
      "ĠAda": 9021,
      "Ġstrategii": 9022,
      "val": 9023,
      "ĠzgÅĤoszenia": 9024,
      "Ġdes": 9025,
      "Ġkonwencji": 9026,
      "ĠÅ¼adne": 9027,
      "Ġmistrz": 9028,
      "Ġpromo": 9029,
      "Ġostrze": 9030,
      "ĠbÃ³l": 9031,
      "Ġoca": 9032,
      "MA": 9033,
      "kowÄħ": 9034,
      "Ġprokuratury": 9035,
      "ĠKlu": 9036,
      "ĠstÄĻ": 9037,
      "kreÅĽlenie": 9038,
      "dawaÅĤo": 9039,
      "Ġmieszkania": 9040,
      "ĠtwarzÄħ": 9041,
      "ĠsÅĤyszaÅĤ": 9042,
      "Ġfunda": 9043,
      "Ġobszer": 9044,
      "ziÄħ": 9045,
      "ĠUrzÄħd": 9046,
      "Ġmonar": 9047,
      "ĠgÄĻstoÅĽÄĩ": 9048,
      "lizm": 9049,
      "iat": 9050,
      "sual": 9051,
      "ĠMikoÅĤa": 9052,
      "ĠKodeks": 9053,
      "Ġwypa": 9054,
      "ĠMak": 9055,
      "Ġowego": 9056,
      "Ġsilnie": 9057,
      "Ġhrabia": 9058,
      "cya": 9059,
      "cyjnie": 9060,
      "ĠpoczÄħtek": 9061,
      "ĠgÅĤup": 9062,
      "KI": 9063,
      "ktual": 9064,
      "die": 9065,
      "Ġidentyfika": 9066,
      "Ġpromieni": 9067,
      "Ġabym": 9068,
      "ÅĽwiadczenia": 9069,
      "Ġrozpatrzenia": 9070,
      "ĠdowodÃ³w": 9071,
      "ĠwyborÃ³w": 9072,
      "Ġtowarzystwa": 9073,
      "ĠzakoÅĦczenia": 9074,
      "dzania": 9075,
      "Ġspecjalisty": 9076,
      "miny": 9077,
      "czaÅĤy": 9078,
      "Åļrodki": 9079,
      "cyzja": 9080,
      "Ġelektrycznej": 9081,
      "Ġsprawozdaw": 9082,
      "mek": 9083,
      "ĠXVI": 9084,
      "wanej": 9085,
      "Ġspotkania": 9086,
      "niÄĻtych": 9087,
      "ĠKoÅĽciÃ³ÅĤ": 9088,
      "ĠZS": 9089,
      "âĢĿ;": 9090,
      "owani": 9091,
      "ĠZakupy": 9092,
      "Ġprocedur": 9093,
      "iÅĤa": 9094,
      "ĠÅĽmierciÄħ": 9095,
      "Ġnareszcie": 9096,
      "ĠoÅĽwiet": 9097,
      "Ġpapier": 9098,
      "Ġstylu": 9099,
      "dka": 9100,
      "zor": 9101,
      "biego": 9102,
      "Ġowych": 9103,
      "ĠJor": 9104,
      "ĠpozycjÄħ": 9105,
      "ĠnajwiÄĻcej": 9106,
      "ĠinstrumentÃ³w": 9107,
      "wanego": 9108,
      "The": 9109,
      "sjona": 9110,
      "dynie": 9111,
      "Ġweteryna": 9112,
      "ĠpoÅĤÄħczone": 9113,
      "Ġakapit": 9114,
      "Ġzmo": 9115,
      "ĠHenryk": 9116,
      "Ġbiskup": 9117,
      "wiajÄħc": 9118,
      "Ġpodziem": 9119,
      "Ġ115": 9120,
      "ĠzrozumieÄĩ": 9121,
      "Lo": 9122,
      "ĠTomasz": 9123,
      "LI": 9124,
      "ĠinÅ¼ynie": 9125,
      "ĠGar": 9126,
      "ĠjeÅº": 9127,
      "zia": 9128,
      "kÅĤadÃ³w": 9129,
      "Ġdrama": 9130,
      "Ġprzod": 9131,
      "Ġdorad": 9132,
      "Cha": 9133,
      "Ġnerw": 9134,
      "Ġczasami": 9135,
      "ĠwidziaÅĤa": 9136,
      "Ġdepartamencie": 9137,
      "Ġpolityk": 9138,
      "ĠpowaÅ¼aniem": 9139,
      "lda": 9140,
      "ĠlistÄĻ": 9141,
      "Ġdyrek": 9142,
      "ĠsprzÄĻtu": 9143,
      "ĠPolityki": 9144,
      "Ġludzkich": 9145,
      "Ġwsta": 9146,
      "ĠprzeszedÅĤ": 9147,
      "ĠsÄĻdziÃ³w": 9148,
      "postÄĻpowaniu": 9149,
      "mania": 9150,
      "Ġporozumieniu": 9151,
      "stÄĻpie": 9152,
      "Ġnajstar": 9153,
      "Ġkomple": 9154,
      "Ġustach": 9155,
      "miot": 9156,
      "wsza": 9157,
      "ĠpeÅĤnÄħ": 9158,
      "ĠÅĽmiertel": 9159,
      "Ġhandlowych": 9160,
      "Ġwycofa": 9161,
      "dane": 9162,
      "ĠUbezpie": 9163,
      "chami": 9164,
      "Ġlokalu": 9165,
      "Ġlotniczy": 9166,
      "Ġrodzaje": 9167,
      "ĠzÅĤoÅ¼ony": 9168,
      "ĠodstÄĻp": 9169,
      "ale": 9170,
      "Ġdokonania": 9171,
      "kowskiego": 9172,
      "Ġkocham": 9173,
      "Ġkwi": 9174,
      "struktu": 9175,
      "ĠnapisaÅĤ": 9176,
      "Ġwymogi": 9177,
      "ĠplanÃ³w": 9178,
      "ĠwiÄħÅ¼e": 9179,
      "ĠzwiÄĻkszenia": 9180,
      "Ġradzie": 9181,
      "ĠÅ¼onÄħ": 9182,
      "An": 9183,
      "Ġproblemu": 9184,
      "Ġkultural": 9185,
      "mir": 9186,
      "Ġseku": 9187,
      "ĠtÃ©Å¼": 9188,
      "ĠFundusz": 9189,
      "Ġlimi": 9190,
      "Ġstolicy": 9191,
      "ĠKontroli": 9192,
      "Ġfotogra": 9193,
      "Å¼aÄĩ": 9194,
      "ĠsÅĤuÅ¼bie": 9195,
      "Ġzbie": 9196,
      "Wz": 9197,
      "ĠpatrzeÄĩ": 9198,
      "Ġstosunki": 9199,
      "ĠtaÅĦ": 9200,
      "ĠzwiÄĻkszenie": 9201,
      "Ġbran": 9202,
      "dziem": 9203,
      "ĠstraÅ¼": 9204,
      "ĠstwierdziÅĤ": 9205,
      "ĠuwaÅ¼am": 9206,
      "Ġwpad": 9207,
      "ĠpieÅĽni": 9208,
      "ĠUrzÄĻdowy": 9209,
      "Ġwidzisz": 9210,
      "ĠPrzepisy": 9211,
      "ĠÅĽrodowisko": 9212,
      "ĠwpÅĤa": 9213,
      "Ġtale": 9214,
      "ĠopÃ³Åº": 9215,
      "ĠBrytanii": 9216,
      "ĠZiemi": 9217,
      "Ġnapis": 9218,
      "ĠczymÅĽ": 9219,
      "Ġstare": 9220,
      "Ġodbiera": 9221,
      "ĠJezus": 9222,
      "Ad": 9223,
      "Ġreligij": 9224,
      "Tymczasem": 9225,
      "ĠDon": 9226,
      "ĠmiÄĻdzynarodowej": 9227,
      "Ġstwa": 9228,
[...]
