{
 "format": "slayerlabs-bpe",
 "format_version": 1,
 "pattern_name": "pl",
 "pattern": " ?\\p{L}+| ?\\p{N}{1,3}| ?[^\\s\\p{L}\\p{N}]+|\\s+(?!\\S)|\\s+",
 "vocab_size": 8000,
 "n_merges": 7743,
 "special_tokens": {
  "<|endoftext|>": 7999
 },
 "meta": {
  "name": "hplt-pl-8k-pl",
  "dataset": "SlayerLab/hplt-v3-pl-cleaned",
  "shard": "data/european_hplt_v3_pl_bin8_6_p0.parquet",
  "corpus_bytes": 314574976,
  "corpus_mb": 314.6,
  "n_word_types": 1277668,
  "n_word_occurrences": 52987936,
  "tie_break": "min_pair",
  "train_seconds": 201.2,
  "trained_at": "2026-09-05"
 },
 "merges": [
  [
   105,
   101
  ],
  [
   32,
   112
  ],
  [
   197,
   130
  ],
  [
   32,
   119
  ],
  [
   32,
   115
  ],
  [
   110,
   97
  ],
  [
   32,
   122
  ],
  [
   111,
   119
  ],
  [
   196,
   153
  ],
  [
   99,
   122
  ],
  [
   110,
   105
  ],
  [
   196,
   133
  ],
  [
   110,
   256
  ],
  [
   114,
   122
  ],
  [
   99,
   104
  ],
  [
   115,
   116
  ],
  [
   197,
   188
  ],
  [
   114,
   97
  ],
  [
   195,
   179
  ],
  [
   32,
   100
  ],
  [
   32,
   116
  ],
  [
   32,
   111
  ],
  [
   32,
   109
  ],
  [
   32,
   107
  ],
  [
   114,
   111
  ],
  [
   197,
   155
  ],
  [
   115,
   122
  ],
  [
   32,
   261
  ],
  [
   257,
   111
  ],
  [
   32,
   105
  ],
  [
   106,
   101
  ],
  [
   100,
   122
  ],
  [
   110,
   101
  ],
  [
   108,
   105
  ],
  [
   103,
   111
  ],
  [
   108,
   101
  ],
  [
   110,
   121
  ],
  [
   105,
   264
  ],
  [
   105,
   97
  ],
  [
   196,
   135
  ],
  [
   107,
   97
  ],
  [
   269,
   101
  ],
  [
   32,
   98
  ],
  [
   262,
   97
  ],
  [
   275,
   111
  ],
  [
   114,
   101
  ],
  [
   258,
   97
  ],
  [
   274,
   119
  ],
  [
   263,
   97
  ],
  [
   97,
   114
  ],
  [
   107,
   105
  ],
  [
   116,
   97
  ],
  [
   266,
   97
  ],
  [
   108,
   97
  ],
  [
   99,
   105
  ],
  [
   106,
   97
  ],
  [
   107,
   111
  ],
  [
   32,
   286
  ],
  [
   119,
   97
  ],
  [
   269,
   121
  ],
  [
   32,
   117
  ],
  [
   32,
   97
  ],
  [
   259,
   121
  ],
  [
   99,
   101
  ],
  [
   32,
   268
  ],
  [
   100,
   97
  ],
  [
   272,
   101
  ],
  [
   260,
   293
  ],
  [
   32,
   80
  ],
  [
   116,
   101
  ],
  [
   116,
   121
  ],
  [
   109,
   105
  ],
  [
   110,
   111
  ],
  [
   258,
   111
  ],
  [
   114,
   121
  ],
  [
   107,
   117
  ],
  [
   106,
   267
  ],
  [
   257,
   297
  ],
  [
   265,
   121
  ],
  [
   99,
   121
  ],
  [
   226,
   128
  ],
  [
   279,
   111
  ],
  [
   265,
   101
  ],
  [
   271,
   97
  ],
  [
   112,
   111
  ],
  [
   107,
   256
  ],
  [
   99,
   256
  ],
  [
   116,
   111
  ],
  [
   276,
   101
  ],
  [
   109,
   97
  ],
  [
   32,
   87
  ],
  [
   119,
   111
  ],
  [
   109,
   121
  ],
  [
   197,
   132
  ],
  [
   32,
   280
  ],
  [
   100,
   121
  ],
  [
   32,
   103
  ],
  [
   287,
   256
  ],
  [
   114,
   117
  ],
  [
   32,
   83
  ],
  [
   277,
   100
  ],
  [
   278,
   111
  ],
  [
   116,
   117
  ],
  [
   119,
   105
  ],
  [
   281,
   310
  ],
  [
   276,
   111
  ],
  [
   99,
   106
  ],
  [
   292,
   270
  ],
  [
   101,
   110
  ],
  [
   263,
   101
  ],
  [
   32,
   77
  ],
  [
   263,
   121
  ],
  [
   108,
   117
  ],
  [
   258,
   121
  ],
  [
   278,
   97
  ],
  [
   116,
   274
  ],
  [
   313,
   271
  ],
  [
   282,
   121
  ],
  [
   99,
   97
  ],
  [
   32,
   311
  ],
  [
   101,
   109
  ],
  [
   101,
   114
  ],
  [
   119,
   256
  ],
  [
   257,
   315
  ],
  [
   276,
   121
  ],
  [
   32,
   75
  ],
  [
   108,
   111
  ],
  [
   272,
   121
  ],
  [
   279,
   371
  ],
  [
   32,
   322
  ],
  [
   287,
   105
  ],
  [
   32,
   336
  ],
  [
   98,
   121
  ],
  [
   111,
   114
  ],
  [
   122,
   97
  ],
  [
   122,
   121
  ],
  [
   276,
   97
  ],
  [
   282,
   101
  ],
  [
   32,
   102
  ],
  [
   32,
   78
  ],
  [
   265,
   97
  ],
  [
   32,
   84
  ],
  [
   362,
   105
  ],
  [
   257,
   280
  ],
  [
   273,
   122
  ],
  [
   32,
   49
  ],
  [
   32,
   67
  ],
  [
   103,
   97
  ],
  [
   298,
   121
  ],
  [
   32,
   50
  ],
  [
   112,
   97
  ],
  [
   32,
   68
  ],
  [
   109,
   111
  ],
  [
   109,
   256
  ],
  [
   275,
   122
  ],
  [
   111,
   98
  ],
  [
   32,
   66
  ],
  [
   284,
   100
  ],
  [
   285,
   110
  ],
  [
   46,
   46
  ],
  [
   324,
   111
  ],
  [
   112,
   105
  ],
  [
   99,
   111
  ],
  [
   32,
   65
  ],
  [
   263,
   256
  ],
  [
   32,
   90
  ],
  [
   258,
   117
  ],
  [
   32,
   74
  ],
  [
   100,
   117
  ],
  [
   110,
   267
  ],
  [
   281,
   295
  ],
  [
   32,
   281
  ],
  [
   32,
   40
  ],
  [
   288,
   106
  ],
  [
   119,
   294
  ],
  [
   114,
   274
  ],
  [
   32,
   79
  ],
  [
   115,
   97
  ],
  [
   288,
   290
  ],
  [
   32,
   270
  ],
  [
   257,
   273
  ],
  [
   115,
   105
  ],
  [
   109,
   117
  ],
  [
   277,
   98
  ],
  [
   32,
   45
  ],
  [
   115,
   306
  ],
  [
   32,
   82
  ],
  [
   263,
   105
  ],
  [
   112,
   273
  ],
  [
   100,
   101
  ],
  [
   32,
   101
  ],
  [
   99,
   311
  ],
  [
   260,
   122
  ],
  [
   115,
   341
  ],
  [
   98,
   105
  ],
  [
   278,
   256
  ],
  [
   99,
   294
  ],
  [
   292,
   109
  ],
  [
   112,
   256
  ],
  [
   103,
   105
  ],
  [
   112,
   101
  ],
  [
   350,
   122
  ],
  [
   257,
   97
  ],
  [
   32,
   301
  ],
  [
   32,
   71
  ],
  [
   387,
   147
  ],
  [
   119,
   121
  ],
  [
   259,
   256
  ],
  [
   266,
   117
  ],
  [
   107,
   303
  ],
  [
   115,
   117
  ],
  [
   32,
   334
  ],
  [
   375,
   107
  ],
  [
   263,
   111
  ],
  [
   32,
   418
  ],
  [
   279,
   97
  ],
  [
   275,
   309
  ],
  [
   106,
   117
  ],
  [
   105,
   110
  ],
  [
   260,
   116
  ],
  [
   282,
   97
  ],
  [
   106,
   264
  ],
  [
   100,
   111
  ],
  [
   260,
   340
  ],
  [
   32,
   73
  ],
  [
   115,
   296
  ],
  [
   119,
   101
  ],
  [
   101,
   122
  ],
  [
   32,
   368
  ],
  [
   115,
   121
  ],
  [
   197,
   186
  ],
  [
   98,
   97
  ],
  [
   260,
   307
  ],
  [
   313,
   100
  ],
  [
   32,
   266
  ],
  [
   405,
   48
  ],
  [
   111,
   110
  ],
  [
   105,
   108
  ],
  [
   32,
   290
  ],
  [
   268,
   106
  ],
  [
   98,
   256
  ],
  [
   262,
   101
  ],
  [
   283,
   106
  ],
  [
   367,
   270
  ],
  [
   392,
   107
  ],
  [
   337,
   110
  ],
  [
   260,
   97
  ],
  [
   114,
   303
  ],
  [
   256,
   114
  ],
  [
   298,
   264
  ],
  [
   32,
   265
  ],
  [
   333,
   122
  ],
  [
   270,
   111
  ],
  [
   258,
   101
  ],
  [
   32,
   76
  ],
  [
   277,
   400
  ],
  [
   278,
   105
  ],
  [
   111,
   339
  ],
  [
   100,
   266
  ],
  [
   32,
   110
  ],
  [
   116,
   304
  ],
  [
   109,
   364
  ],
  [
   328,
   360
  ],
  [
   287,
   294
  ],
  [
   103,
   273
  ],
  [
   380,
   109
  ],
  [
   410,
   256
  ],
  [
   287,
   101
  ],
  [
   384,
   301
  ],
  [
   112,
   117
  ],
  [
   115,
   256
  ],
  [
   97,
   110
  ],
  [
   271,
   121
  ],
  [
   116,
   303
  ],
  [
   395,
   97
  ],
  [
   262,
   261
  ],
  [
   275,
   97
  ],
  [
   114,
   304
  ],
  [
   32,
   289
  ],
  [
   102,
   105
  ],
  [
   271,
   111
  ],
  [
   384,
   330
  ],
  [
   32,
   273
  ],
  [
   107,
   302
  ],
  [
   336,
   157
  ],
  [
   317,
   291
  ],
  [
   287,
   111
  ],
  [
   365,
   106
  ],
  [
   260,
   267
  ],
  [
   32,
   104
  ],
  [
   274,
   258
  ],
  [
   32,
   85
  ],
  [
   32,
   291
  ],
  [
   271,
   264
  ],
  [
   117,
   110
  ],
  [
   325,
   114
  ],
  [
   97,
   107
  ],
  [
   415,
   46
  ],
  [
   122,
   261
  ],
  [
   32,
   70
  ],
  [
   109,
   294
  ],
  [
   103,
   117
  ],
  [
   32,
   69
  ],
  [
   105,
   111
  ],
  [
   97,
   108
  ],
  [
   357,
   322
  ],
  [
   98,
   111
  ],
  [
   373,
   271
  ],
  [
   259,
   293
  ],
  [
   396,
   115
  ],
  [
   32,
   309
  ],
  [
   32,
   473
  ],
  [
   262,
   513
  ],
  [
   333,
   100
  ],
  [
   101,
   107
  ],
  [
   272,
   97
  ],
  [
   277,
   115
  ],
  [
   387,
   158
  ],
  [
   260,
   347
  ],
  [
   326,
   265
  ],
  [
   115,
   340
  ],
  [
   332,
   335
  ],
  [
   258,
   267
  ],
  [
   32,
   197
  ],
  [
   258,
   376
  ],
  [
   266,
   296
  ],
  [
   269,
   267
  ],
  [
   108,
   312
  ],
  [
   115,
   112
  ],
  [
   298,
   305
  ],
  [
   423,
   101
  ],
  [
   269,
   97
  ],
  [
   259,
   105
  ],
  [
   365,
   290
  ],
  [
   99,
   117
  ],
  [
   98,
   117
  ],
  [
   106,
   115
  ],
  [
   259,
   111
  ],
  [
   122,
   117
  ],
  [
   32,
   51
  ],
  [
   109,
   101
  ],
  [
   265,
   111
  ],
  [
   505,
   353
  ],
  [
   484,
   98
  ],
  [
   421,
   97
  ],
  [
   102,
   389
  ],
  [
   335,
   106
  ],
  [
   270,
   97
  ],
  [
   350,
   331
  ],
  [
   444,
   119
  ],
  [
   298,
   111
  ],
  [
   344,
   290
  ],
  [
   260,
   112
  ],
  [
   32,
   319
  ],
  [
   357,
   272
  ],
  [
   99,
   286
  ],
  [
   567,
   272
  ],
  [
   278,
   101
  ],
  [
   107,
   264
  ],
  [
   281,
   289
  ],
  [
   259,
   563
  ],
  [
   268,
   109
  ],
  [
   107,
   267
  ],
  [
   281,
   342
  ],
  [
   110,
   117
  ],
  [
   395,
   256
  ],
  [
   32,
   34
  ],
  [
   114,
   264
  ],
  [
   366,
   97
  ],
  [
   278,
   117
  ],
  [
   304,
   295
  ],
  [
   291,
   106
  ],
  [
   359,
   267
  ],
  [
   394,
   105
  ],
  [
   287,
   97
  ],
  [
   549,
   112
  ],
  [
   298,
   483
  ],
  [
   294,
   302
  ],
  [
   332,
   99
  ],
  [
   48,
   48
  ],
  [
   80,
   111
  ],
  [
   319,
   106
  ],
  [
   449,
   290
  ],
  [
   280,
   100
  ],
  [
   276,
   273
  ],
  [
   282,
   338
  ],
  [
   119,
   274
  ],
  [
   260,
   121
  ],
  [
   266,
   111
  ],
  [
   107,
   301
  ],
  [
   110,
   264
  ],
  [
   98,
   289
  ],
  [
   115,
   111
  ],
  [
   108,
   267
  ],
  [
   341,
   109
  ],
  [
   32,
   72
  ],
  [
   119,
   293
  ],
  [
   32,
   383
  ],
  [
   451,
   592
  ],
  [
   257,
   101
  ],
  [
   265,
   267
  ],
  [
   279,
   117
  ],
  [
   107,
   304
  ],
  [
   257,
   105
  ],
  [
   122,
   101
  ],
  [
   380,
   583
  ],
  [
   416,
   108
  ],
  [
   284,
   122
  ],
  [
   281,
   348
  ],
  [
   504,
   119
  ],
  [
   116,
   273
  ],
  [
   107,
   116
  ],
  [
   266,
   107
  ],
  [
   100,
   267
  ],
  [
   259,
   302
  ],
  [
   260,
   256
  ],
  [
   112,
   420
  ],
  [
   324,
   97
  ],
  [
   362,
   264
  ],
  [
   275,
   101
  ],
  [
   32,
   374
  ],
  [
   325,
   109
  ],
  [
   298,
   117
  ],
  [
   259,
   122
  ],
  [
   116,
   296
  ],
  [
   343,
   114
  ],
  [
   259,
   101
  ],
  [
   381,
   111
  ],
  [
   449,
   106
  ],
  [
   259,
   97
  ],
  [
   108,
   264
  ],
  [
   110,
   100
  ],
  [
   271,
   101
  ],
  [
   274,
   98
  ],
  [
   100,
   268
  ],
  [
   116,
   107
  ],
  [
   115,
   304
  ],
  [
   261,
   107
  ],
  [
   298,
   97
  ],
  [
   491,
   49
  ],
  [
   259,
   305
  ],
  [
   274,
   108
  ],
  [
   357,
   103
  ],
  [
   367,
   109
  ],
  [
   265,
   268
  ],
  [
   310,
   267
  ],
  [
   32,
   503
  ],
  [
   585,
   542
  ],
  [
   437,
   267
  ],
  [
   278,
   294
  ],
  [
   306,
   270
  ],
  [
   302,
   109
  ],
  [
   99,
   303
  ],
  [
   328,
   426
  ],
  [
   98,
   273
  ],
  [
   32,
   338
  ],
  [
   272,
   111
  ],
  [
   265,
   288
  ],
  [
   115,
   294
  ],
  [
   100,
   304
  ],
  [
   312,
   261
  ],
  [
   407,
   111
  ],
  [
   260,
   411
  ],
  [
   107,
   358
  ],
  [
   404,
   295
  ],
  [
   277,
   103
  ],
  [
   373,
   270
  ],
  [
   106,
   105
  ],
  [
   406,
   100
  ],
  [
   119,
   305
  ],
  [
   260,
   343
  ],
  [
   287,
   121
  ],
  [
   344,
   272
  ],
  [
   257,
   665
  ],
  [
   265,
   264
  ],
  [
   332,
   319
  ],
  [
   397,
   111
  ],
  [
   258,
   303
  ],
  [
   114,
   105
  ],
  [
   336,
   166
  ],
  [
   500,
   322
  ],
  [
   116,
   315
  ],
  [
   431,
   272
  ],
  [
   78,
   97
  ],
  [
   346,
   121
  ],
  [
   41,
   46
  ],
  [
   257,
   309
  ],
  [
   275,
   117
  ],
  [
   381,
   97
  ],
  [
   263,
   294
  ],
  [
   257,
   301
  ],
  [
   435,
   111
  ],
  [
   266,
   264
  ],
  [
   32,
   52
  ],
  [
   32,
   342
  ],
  [
   262,
   100
  ],
  [
   410,
   633
  ],
  [
   32,
   400
  ],
  [
   268,
   272
  ],
  [
   32,
   53
  ],
  [
   116,
   266
  ],
  [
   115,
   293
  ],
  [
   610,
   261
  ],
  [
   423,
   97
  ],
  [
   300,
   98
  ],
  [
   502,
   408
  ],
  [
   276,
   117
  ],
  [
   282,
   296
  ],
  [
   273,
   110
  ],
  [
   366,
   111
  ],
  [
   32,
   330
  ],
  [
   402,
   104
  ],
  [
   306,
   109
  ],
  [
   263,
   267
  ],
  [
   325,
   107
  ],
  [
   349,
   271
  ],
  [
   115,
   422
  ],
  [
   32,
   328
  ],
  [
   260,
   107
  ],
  [
   32,
   396
  ],
  [
   506,
   264
  ],
  [
   105,
   109
  ],
  [
   259,
   584
  ],
  [
   285,
   270
  ],
  [
   32,
   114
  ],
  [
   366,
   105
  ],
  [
   291,
   109
  ],
  [
   257,
   420
  ],
  [
   111,
   261
  ],
  [
   475,
   280
  ],
  [
   702,
   754
  ],
  [
   375,
   312
  ],
  [
   279,
   493
  ],
  [
   289,
   664
  ],
  [
   110,
   116
  ],
  [
   411,
   97
  ],
  [
   300,
   321
  ],
  [
   489,
   693
  ],
  [
   260,
   117
  ],
  [
   275,
   354
  ],
  [
   115,
   101
  ],
  [
   116,
   297
  ],
  [
   112,
   121
  ],
  [
   274,
   114
  ],
  [
   601,
   345
  ],
  [
   265,
   363
  ],
  [
   282,
   267
  ],
  [
   102,
   101
  ],
  [
   275,
   121
  ],
  [
   281,
   268
  ],
  [
   103,
   256
  ],
  [
   326,
   119
  ],
  [
   313,
   290
  ],
  [
   442,
   111
  ],
  [
   317,
   388
  ],
  [
   292,
   327
  ],
  [
   115,
   312
  ],
  [
   301,
   109
  ],
  [
   32,
   382
  ],
  [
   260,
   377
  ],
  [
   325,
   290
  ],
  [
   286,
   348
  ],
  [
   114,
   267
  ],
  [
   257,
   256
  ],
  [
   403,
   266
  ],
  [
   263,
   266
  ],
  [
   338,
   308
  ],
  [
   427,
   430
  ],
  [
   97,
   289
  ],
  [
   112,
   297
  ],
  [
   307,
   106
  ],
  [
   279,
   256
  ],
  [
   318,
   321
  ],
  [
   579,
   154
  ],
  [
   269,
   264
  ],
  [
   32,
   305
  ],
  [
   317,
   117
  ],
  [
   519,
   258
  ],
  [
   99,
   267
  ],
  [
   441,
   270
  ],
  [
   373,
   109
  ],
  [
   404,
   329
  ],
  [
   337,
   627
  ],
  [
   344,
   110
  ],
  [
   109,
   304
  ],
  [
   115,
   302
  ],
  [
   399,
   424
  ],
  [
   574,
   286
  ],
  [
   110,
   331
  ],
  [
   301,
   107
  ],
  [
   108,
   305
  ],
  [
   122,
   256
  ],
  [
   352,
   273
  ],
  [
   277,
   112
  ],
  [
   116,
   268
  ],
  [
   471,
   272
  ],
  [
   317,
   107
  ],
  [
   257,
   263
  ],
  [
   566,
   116
  ],
  [
   436,
   99
  ],
  [
   393,
   106
  ],
  [
   356,
   672
  ],
  [
   115,
   331
  ],
  [
   313,
   641
  ],
  [
   265,
   117
  ],
  [
   117,
   109
  ],
  [
   110,
   304
  ],
  [
   344,
   106
  ],
  [
   355,
   122
  ],
  [
   352,
   354
  ],
  [
   275,
   280
  ],
  [
   338,
   268
  ],
  [
   288,
   107
  ],
  [
   110,
   443
  ],
  [
   100,
   303
  ],
  [
   105,
   105
  ],
  [
   341,
   290
  ],
  [
   100,
   364
  ],
  [
   117,
   280
  ],
  [
   337,
   109
  ],
  [
   265,
   429
  ],
  [
   313,
   106
  ],
  [
   287,
   267
  ],
  [
   517,
   307
  ],
  [
   100,
   264
  ],
  [
   448,
   312
  ],
  [
   112,
   533
  ],
  [
   32,
   565
  ],
  [
   718,
   256
  ],
  [
   101,
   99
  ],
  [
   737,
   345
  ],
  [
   283,
   100
  ],
  [
   303,
   105
  ],
  [
   32,
   297
  ],
  [
   577,
   270
  ],
  [
   108,
   288
  ],
  [
   316,
   383
  ],
  [
   305,
   116
  ],
  [
   271,
   117
  ],
  [
   50,
   48
  ],
  [
   101,
   106
  ],
  [
   436,
   335
  ],
  [
   334,
   295
  ],
  [
   564,
   637
  ],
  [
   114,
   116
  ],
  [
   353,
   106
  ],
  [
   404,
   258
  ],
  [
   417,
   433
  ],
  [
   112,
   301
  ],
  [
   277,
   114
  ],
  [
   115,
   107
  ],
  [
   109,
   293
  ],
  [
   273,
   107
  ],
  [
   269,
   117
  ],
  [
   550,
   107
  ],
  [
   289,
   347
  ],
  [
   531,
   106
  ],
  [
   480,
   110
  ],
  [
   41,
   44
  ],
  [
   324,
   297
  ],
  [
   384,
   273
  ],
  [
   442,
   97
  ],
  [
   122,
   304
  ],
  [
   103,
   101
  ],
  [
   352,
   351
  ],
  [
   431,
   100
  ],
  [
   314,
   295
  ],
  [
   298,
   105
  ],
  [
   628,
   390
  ],
  [
   278,
   268
  ],
  [
   284,
   408
  ],
  [
   482,
   116
  ],
  [
   456,
   258
  ],
  [
   90,
   97
  ],
  [
   257,
   117
  ],
  [
   523,
   308
  ],
  [
   310,
   117
  ],
  [
   315,
   339
  ],
  [
   288,
   114
  ],
  [
   278,
   293
  ],
  [
   410,
   105
  ],
  [
   116,
   347
  ],
  [
   629,
   114
  ],
  [
   276,
   297
  ],
  [
   441,
   109
  ],
  [
   32,
   738
  ],
  [
   414,
   800
  ],
  [
   284,
   311
  ],
  [
   32,
   54
  ],
  [
   32,
   99
  ],
  [
   110,
   115
  ],
  [
   116,
   264
  ],
  [
   296,
   390
  ],
  [
   341,
   106
  ],
  [
   539,
   100
  ],
  [
   505,
   669
  ],
  [
   412,
   111
  ],
  [
   339,
   119
  ],
  [
   271,
   376
  ],
  [
   277,
   339
  ],
  [
   350,
   386
  ],
  [
   296,
   270
  ],
  [
   265,
   266
  ],
  [
   100,
   486
  ],
  [
   116,
   280
  ],
  [
   401,
   57
  ],
  [
   262,
   280
  ],
  [
   103,
   649
  ],
  [
   345,
   403
  ],
  [
   283,
   115
  ],
  [
   260,
   605
  ],
  [
   393,
   290
  ],
  [
   257,
   443
  ],
  [
   427,
   378
  ],
  [
   278,
   305
  ],
  [
   284,
   321
  ],
  [
   122,
   364
  ],
  [
   285,
   109
  ],
  [
   379,
   290
  ],
  [
   282,
   117
  ],
  [
   436,
   119
  ],
  [
   284,
   108
  ],
  [
   32,
   302
  ],
  [
   279,
   273
  ],
  [
   451,
   763
  ],
  [
   116,
   306
  ],
  [
   655,
   119
  ],
  [
   446,
   291
  ],
  [
   572,
   689
  ],
  [
   291,
   383
  ],
  [
   32,
   86
  ],
  [
   399,
   98
  ],
  [
   491,
   50
  ],
  [
   278,
   888
  ],
  [
   74,
   101
  ],
  [
   112,
   280
  ],
  [
   448,
   338
  ],
  [
   399,
   286
  ],
  [
   108,
   268
  ],
  [
   378,
   114
  ],
  [
   117,
   114
  ],
  [
   386,
   295
  ],
  [
   272,
   267
  ],
  [
   282,
   111
  ],
  [
   104,
   97
  ],
  [
   265,
   292
  ],
  [
   122,
   100
  ],
  [
   442,
   101
  ],
  [
   318,
   312
  ],
  [
   397,
   101
  ],
  [
   326,
   270
  ],
  [
   116,
   314
  ],
  [
   260,
   391
  ],
  [
   260,
   444
  ],
  [
   427,
   639
  ],
  [
   103,
   280
  ],
  [
   116,
   105
  ],
  [
   260,
   312
  ],
  [
   352,
   97
  ],
  [
   284,
   289
  ],
  [
   32,
   58
  ],
  [
   261,
   100
  ],
  [
   283,
   927
  ],
  [
   271,
   273
  ],
  [
   32,
   354
  ],
  [
   257,
   533
  ],
  [
   314,
   308
  ],
  [
   394,
   97
  ],
  [
   116,
   354
  ],
  [
   281,
   430
  ],
  [
   346,
   305
  ],
  [
   479,
   680
  ],
  [
   314,
   272
  ],
  [
   278,
   121
  ],
  [
   401,
   48
  ],
  [
   277,
   102
  ],
  [
   344,
   345
  ],
  [
   101,
   108
  ],
  [
   522,
   310
  ],
  [
   32,
   55
  ],
  [
   122,
   105
  ],
  [
   788,
   296
  ],
  [
   299,
   347
  ],
  [
   905,
   820
  ],
  [
   307,
   270
  ],
  [
   265,
   434
  ],
  [
   108,
   363
  ],
  [
   479,
   115
  ],
  [
   271,
   297
  ],
  [
   390,
   398
  ],
  [
   109,
   303
  ],
  [
   262,
   329
  ],
  [
   115,
   303
  ],
  [
   490,
   272
  ],
  [
   366,
   305
  ],
  [
   545,
   105
  ],
  [
   510,
   101
  ],
  [
   324,
   280
  ],
  [
   346,
   256
  ],
  [
   112,
   108
  ],
  [
   698,
   267
  ],
  [
   116,
   114
  ],
  [
   382,
   455
  ],
  [
   78,
   256
  ],
  [
   337,
   349
  ],
  [
   275,
   422
  ],
  [
   394,
   389
  ],
  [
   100,
   105
  ],
  [
   277,
   312
  ],
  [
   32,
   56
  ],
  [
   291,
   112
  ],
  [
   262,
   258
  ],
  [
   346,
   97
  ],
  [
   279,
   309
  ],
  [
   564,
   99
  ],
  [
   277,
   645
  ],
  [
   110,
   103
  ],
  [
   110,
   263
  ],
  [
   327,
   261
  ],
  [
   316,
   314
  ],
  [
   540,
   46
  ],
  [
   115,
   723
  ],
  [
   296,
   114
  ],
  [
   413,
   565
  ],
  [
   322,
   106
  ],
  [
   68,
   111
  ],
  [
   260,
   111
  ],
  [
   108,
   266
  ],
  [
   110,
   306
  ],
  [
   370,
   332
  ],
  [
   271,
   267
  ],
  [
   352,
   353
  ],
  [
   257,
   469
  ],
  [
   100,
   305
  ],
  [
   402,
   111
  ],
  [
   282,
   307
  ],
  [
   112,
   369
  ],
  [
   284,
   797
  ],
  [
   379,
   724
  ],
  [
   266,
   105
  ],
  [
   283,
   117
  ],
  [
   339,
   359
  ],
  [
   116,
   331
  ],
  [
   346,
   111
  ],
  [
   100,
   376
  ],
  [
   98,
   264
  ],
  [
   110,
   307
  ],
  [
   652,
   107
  ],
  [
   108,
   292
  ],
  [
   539,
   321
  ],
  [
   258,
   264
  ],
  [
   297,
   308
  ],
  [
   116,
   305
  ],
  [
   696,
   343
  ],
  [
   260,
   456
  ],
  [
   107,
   273
  ],
  [
   572,
   411
  ],
  [
   279,
   305
  ],
  [
   345,
   270
  ],
  [
   262,
   321
  ],
  [
   301,
   110
  ],
  [
   654,
   319
  ],
  [
   523,
   268
  ],
  [
   380,
   270
  ],
  [
   298,
   273
  ],
  [
   475,
   273
  ],
  [
   32,
   44
  ],
  [
   414,
   551
  ],
  [
   304,
   308
  ],
  [
   842,
   107
  ],
  [
   489,
   328
  ],
  [
   103,
   697
  ],
  [
   260,
   101
  ],
  [
   282,
   396
  ],
  [
   115,
   319
  ],
  [
   260,
   390
  ],
  [
   404,
   302
  ],
  [
   102,
   97
  ],
  [
   325,
   301
  ],
  [
   457,
   340
  ],
  [
   286,
   109
  ],
  [
   100,
   263
  ],
  [
   100,
   294
  ],
  [
   122,
   723
  ],
  [
   262,
   409
  ],
  [
   402,
   391
  ],
  [
   384,
   315
  ],
  [
   827,
   351
  ],
  [
   494,
   386
  ],
  [
   32,
   91
  ],
  [
   115,
   376
  ],
  [
   296,
   327
  ],
  [
   299,
   270
  ],
  [
   103,
   329
  ],
  [
   293,
   306
  ],
  [
   270,
   117
  ],
  [
   370,
   109
  ],
  [
   317,
   108
  ],
  [
   270,
   266
  ],
  [
   269,
   111
  ],
  [
   355,
   307
  ],
  [
   432,
   100
  ],
  [
   282,
   312
  ],
  [
   257,
   121
  ],
  [
   399,
   520
  ],
  [
   416,
   100
  ],
  [
   103,
   264
  ],
  [
   99,
   332
  ],
  [
   962,
   450
  ],
  [
   275,
   308
  ],
  [
   279,
   343
  ],
  [
   579,
   129
  ],
  [
   293,
   107
  ],
  [
   510,
   105
  ],
  [
   1025,
   100
  ],
  [
   831,
   326
  ],
  [
   73,
   69
  ],
  [
   338,
   106
  ],
  [
   104,
   111
  ],
  [
   392,
   109
  ],
  [
   276,
   301
  ],
  [
   330,
   314
  ],
  [
   463,
   291
  ],
  [
   277,
   107
  ],
  [
   304,
   268
  ],
  [
   564,
   107
  ],
  [
   112,
   302
  ],
  [
   477,
   452
  ],
  [
   108,
   434
  ],
  [
   116,
   267
  ],
  [
   334,
   359
  ],
  [
   262,
   556
  ],
  [
   394,
   493
  ],
  [
   490,
   270
  ],
  [
   974,
   516
  ],
  [
   73,
   73
  ],
  [
   282,
   329
  ],
  [
   316,
   339
  ],
  [
   394,
   111
  ],
  [
   105,
   270
  ],
  [
   358,
   97
  ],
  [
   369,
   109
  ],
  [
   274,
   106
  ],
  [
   288,
   109
  ],
  [
   284,
   339
  ],
  [
   298,
   256
  ],
  [
   265,
   261
  ],
  [
   112,
   289
  ],
  [
   75,
   111
  ],
  [
   87,
   121
  ],
  [
   608,
   297
  ],
  [
   537,
   270
  ],
  [
   271,
   305
  ],
  [
   119,
   117
  ],
  [
   110,
   303
  ],
  [
   260,
   422
  ],
  [
   271,
   314
  ],
  [
   266,
   267
  ],
  [
   456,
   119
  ],
  [
   32,
   701
  ],
  [
   32,
   57
  ],
  [
   460,
   111
  ],
  [
   491,
   48
  ],
  [
   266,
   295
  ],
  [
   108,
   429
  ],
  [
   374,
   270
  ],
  [
   283,
   985
  ],
  [
   399,
   319
  ],
  [
   355,
   97
  ],
  [
   318,
   716
  ],
  [
   259,
   294
  ],
  [
   655,
   258
  ],
  [
   378,
   116
  ],
  [
   100,
   308
  ],
  [
   107,
   280
  ],
  [
   314,
   268
  ],
  [
   642,
   106
  ],
  [
   397,
   97
  ],
  [
   277,
   296
  ],
  [
   278,
   329
  ],
  [
   258,
   420
  ],
  [
   714,
   321
  ],
  [
   283,
   109
  ],
  [
   284,
   1017
  ],
  [
   336,
   147
  ],
  [
   312,
   349
  ],
  [
   356,
   388
  ],
  [
   751,
   114
  ],
  [
   32,
   335
  ],
  [
   115,
   335
  ],
  [
   456,
   273
  ],
  [
   778,
   546
  ],
  [
   1043,
   689
  ],
  [
   108,
   518
  ],
  [
   262,
   119
  ],
  [
   291,
   107
  ],
  [
   582,
   100
  ],
  [
   67,
   391
  ],
  [
   344,
   291
  ],
  [
   346,
   105
  ],
  [
   414,
   363
  ],
  [
   318,
   648
  ],
  [
   423,
   552
  ],
  [
   443,
   267
  ],
  [
   321,
   119
  ],
  [
   314,
   289
  ],
  [
   488,
   869
  ],
  [
   935,
   727
  ],
  [
   392,
   341
  ],
  [
   558,
   874
  ],
  [
   1008,
   98
  ],
  [
   316,
   338
  ],
  [
   343,
   273
  ],
  [
   288,
   116
  ],
  [
   271,
   377
  ],
  [
   448,
   101
  ],
  [
   629,
   261
  ],
  [
   963,
   321
  ],
  [
   358,
   273
  ],
  [
   537,
   109
  ],
  [
   274,
   100
  ],
  [
   108,
   256
  ],
  [
   594,
   286
  ],
  [
   375,
   341
  ],
  [
   119,
   393
  ],
  [
   260,
   331
  ],
  [
   662,
   1130
  ],
  [
   320,
   122
  ],
  [
   99,
   264
  ],
  [
   568,
   258
  ],
  [
   324,
   315
  ],
  [
   98,
   305
  ],
  [
   401,
   53
  ],
  [
   556,
   271
  ],
  [
   277,
   110
  ],
  [
   271,
   389
  ],
  [
   670,
   115
  ],
  [
   445,
   107
  ],
  [
   100,
   422
  ],
  [
   435,
   319
  ],
  [
   281,
   452
  ],
  [
   278,
   474
  ],
  [
   771,
   314
  ],
  [
   261,
   270
  ],
  [
   616,
   706
  ],
  [
   262,
   462
  ],
  [
   425,
   295
  ],
  [
   509,
   290
  ],
  [
   276,
   354
  ],
  [
   344,
   438
  ],
  [
   616,
   312
  ],
  [
   508,
   386
  ],
  [
   446,
   107
  ],
  [
   352,
   733
  ],
  [
   117,
   116
  ],
  [
   284,
   268
  ],
  [
   271,
   354
  ],
  [
   439,
   885
  ],
  [
   109,
   495
  ],
  [
   711,
   114
  ],
  [
   34,
   46
  ],
  [
   483,
   454
  ],
  [
   313,
   615
  ],
  [
   115,
   377
  ],
  [
   643,
   954
  ],
  [
   610,
   911
  ],
  [
   266,
   465
  ],
  [
   522,
   99
  ],
  [
   496,
   273
  ],
  [
   322,
   308
  ],
  [
   338,
   290
  ],
  [
   282,
   264
  ],
  [
   325,
   110
  ],
  [
   114,
   314
  ],
  [
   459,
   824
  ],
  [
   775,
   466
  ],
  [
   968,
   110
  ],
  [
   299,
   291
  ],
  [
   643,
   1196
  ],
  [
   335,
   270
  ],
  [
   321,
   308
  ],
  [
   412,
   97
  ],
  [
   257,
   305
  ],
  [
   851,
   351
  ],
  [
   832,
   343
  ],
  [
   360,
   267
  ],
  [
   265,
   453
  ],
  [
   397,
   121
  ],
  [
   107,
   263
  ],
  [
   265,
   306
  ],
  [
   275,
   266
  ],
  [
   279,
   368
  ],
  [
   404,
   369
  ],
  [
   77,
   97
  ],
  [
   110,
   529
  ],
  [
   337,
   268
  ],
  [
   112,
   377
  ],
  [
   358,
   330
  ],
  [
   417,
   115
  ],
  [
   80,
   297
  ],
  [
   463,
   368
  ],
  [
   585,
   901
  ],
  [
   32,
   452
  ],
  [
   394,
   910
  ],
  [
   100,
   258
  ],
  [
   316,
   321
  ],
  [
   262,
   290
  ],
  [
   331,
   114
  ],
  [
   385,
   388
  ],
  [
   478,
   408
  ],
  [
   409,
   114
  ],
  [
   104,
   101
  ],
  [
   467,
   289
  ],
  [
   1110,
   447
  ],
  [
   284,
   656
  ],
  [
   479,
   509
  ],
  [
   281,
   309
  ],
  [
   74,
   552
  ],
  [
   663,
   513
  ],
  [
   549,
   525
  ],
  [
   628,
   122
  ],
  [
   470,
   281
  ],
  [
   300,
   631
  ],
  [
   102,
   570
  ],
  [
   381,
   117
  ],
  [
   314,
   258
  ],
  [
   417,
   307
  ],
  [
   450,
   389
  ],
  [
   369,
   270
  ],
  [
   310,
   119
  ],
  [
   327,
   110
  ],
  [
   930,
   647
  ],
  [
   116,
   269
  ],
  [
   98,
   101
  ],
  [
   625,
   437
  ],
  [
   310,
   295
  ],
  [
   1159,
   307
  ],
  [
   103,
   364
  ],
  [
   32,
   571
  ],
  [
   324,
   273
  ],
  [
   745,
   321
  ],
  [
   102,
   111
  ],
  [
   262,
   256
  ],
  [
   987,
   782
  ],
  [
   284,
   291
  ],
  [
   262,
   478
  ],
  [
   438,
   286
  ],
  [
   115,
   258
  ],
  [
   262,
   924
  ],
  [
   103,
   686
  ],
  [
   327,
   111
  ],
  [
   107,
   330
  ],
  [
   1026,
   476
  ],
  [
   116,
   112
  ],
  [
   1032,
   116
  ],
  [
   265,
   425
  ],
  [
   296,
   398
  ],
  [
   276,
   347
  ],
  [
   375,
   306
  ],
  [
   279,
   504
  ],
  [
   316,
   280
  ],
  [
   271,
   347
  ],
  [
   579,
   187
  ],
  [
   337,
   879
  ],
  [
   284,
   825
  ],
  [
   276,
   280
  ],
  [
   119,
   364
  ],
  [
   291,
   308
  ],
  [
   344,
   400
  ],
  [
   454,
   106
  ],
  [
   107,
   326
  ],
  [
   424,
   286
  ],
  [
   492,
   117
  ],
  [
   510,
   117
  ],
  [
   98,
   1317
  ],
  [
   350,
   450
  ],
  [
   281,
   495
  ],
  [
   284,
   391
  ],
  [
   259,
   560
  ],
  [
   276,
   315
  ],
  [
   307,
   109
  ],
  [
   107,
   101
  ],
  [
   662,
   441
  ],
  [
   32,
   332
  ],
  [
   87,
   105
  ],
  [
   1094,
   331
  ],
  [
   520,
   266
  ],
  [
   382,
   103
  ],
  [
   775,
   526
  ],
  [
   685,
   272
  ],
  [
   322,
   268
  ],
  [
   266,
   99
  ],
  [
   406,
   321
  ],
  [
   761,
   508
  ],
  [
   108,
   453
  ],
  [
   32,
   48
  ],
  [
   316,
   409
  ],
  [
   509,
   106
  ],
  [
   524,
   106
  ],
  [
   275,
   314
  ],
  [
   266,
   306
  ],
  [
   33,
   33
  ],
  [
   349,
   441
  ],
  [
   337,
   282
  ],
  [
   576,
   1089
  ],
  [
   284,
   1237
  ],
  [
   407,
   97
  ],
  [
   271,
   280
  ],
  [
   117,
   282
  ],
  [
   663,
   559
  ],
  [
   278,
   264
  ],
  [
   1206,
   321
  ],
  [
   116,
   330
  ],
  [
   100,
   328
  ],
  [
   100,
   288
  ],
  [
   270,
   101
  ],
  [
   760,
   297
  ],
  [
   110,
   296
  ],
  [
   551,
   294
  ],
  [
   274,
   486
  ],
  [
   670,
   805
  ],
  [
   271,
   303
  ],
  [
   99,
   293
  ],
  [
   299,
   1280
  ],
  [
   616,
   341
  ],
  [
   653,
   452
  ],
  [
   334,
   258
  ],
  [
   262,
   445
  ],
  [
   107,
   309
  ],
  [
   366,
   256
  ],
  [
   380,
   290
  ],
  [
   853,
   339
  ],
  [
   509,
   107
  ],
  [
   32,
   88
  ],
  [
   317,
   110
  ],
  [
   301,
   514
  ],
  [
   277,
   886
  ],
  [
   475,
   305
  ],
  [
   338,
   1432
  ],
  [
   122,
   111
  ],
  [
   110,
   107
  ],
  [
   270,
   264
  ],
  [
   401,
   50
  ],
  [
   324,
   105
  ],
  [
   352,
   329
  ],
  [
   572,
   111
  ],
  [
   904,
   972
  ],
  [
   109,
   305
  ],
  [
   337,
   496
  ],
  [
   632,
   454
  ],
  [
   270,
   280
  ],
  [
   258,
   304
  ],
  [
   272,
   117
  ],
  [
   259,
   481
  ],
  [
   575,
   267
  ],
  [
   321,
   349
  ],
  [
   517,
   116
  ],
  [
   788,
   331
  ],
  [
   939,
   487
  ],
  [
   119,
   376
  ],
  [
   435,
   359
  ],
  [
   463,
   108
  ],
  [
   1267,
   271
  ],
  [
   490,
   109
  ],
  [
   259,
   115
  ],
  [
   538,
   1114
  ],
  [
   257,
   302
  ],
  [
   108,
   261
  ],
  [
   383,
   295
  ],
  [
   32,
   590
  ],
  [
   791,
   265
  ],
  [
   300,
   1510
  ],
  [
   412,
   121
  ],
  [
   1501,
   388
  ],
  [
   98,
   294
  ],
  [
   474,
   103
  ],
  [
   983,
   667
  ],
  [
   259,
   1092
  ],
  [
   107,
   371
  ],
  [
   340,
   100
  ],
  [
   616,
   768
  ],
  [
   116,
   288
  ],
  [
   278,
   108
  ],
  [
   401,
   56
  ],
  [
   32,
   46
  ],
  [
   260,
   345
  ],
  [
   114,
   358
  ],
  [
   357,
   286
  ],
  [
   301,
   115
  ],
  [
   1091,
   258
  ],
  [
   498,
   1066
  ],
  [
   288,
   273
  ],
  [
   670,
   360
  ],
  [
   261,
   289
  ],
  [
   381,
   492
  ],
  [
   1031,
   377
  ],
  [
   333,
   1385
  ],
  [
   325,
   273
  ],
  [
   299,
   1214
  ],
  [
   100,
   377
  ],
  [
   955,
   756
  ],
  [
   283,
   122
  ],
  [
   895,
   49
  ],
  [
   257,
   369
  ],
  [
   300,
   438
  ],
  [
   354,
   109
  ],
  [
   753,
   376
  ],
  [
   386,
   258
  ],
  [
   705,
   258
  ],
  [
   299,
   474
  ],
  [
   1171,
   331
  ],
  [
   106,
   111
  ],
  [
   431,
   116
  ],
  [
   260,
   358
  ],
  [
   325,
   330
  ],
  [
   334,
   261
  ],
  [
   402,
   122
  ],
  [
   980,
   349
  ],
  [
   99,
   306
  ],
  [
   1086,
   417
  ],
  [
   602,
   288
  ],
  [
   279,
   105
  ],
  [
   776,
   536
  ],
  [
   407,
   122
  ],
  [
   675,
   335
  ],
  [
   785,
   292
  ],
  [
   586,
   271
  ],
  [
   516,
   295
  ],
  [
   439,
   1259
  ],
  [
   322,
   289
  ],
  [
   260,
   105
  ],
  [
   586,
   615
  ],
  [
   439,
   256
  ],
  [
   84,
   111
  ],
  [
   279,
   301
  ],
  [
   270,
   121
  ],
  [
   337,
   438
  ],
  [
   279,
   704
  ],
  [
   265,
   518
  ],
  [
   407,
   847
  ],
  [
   328,
   437
  ],
  [
   260,
   483
  ],
  [
   339,
   378
  ],
  [
   115,
   311
  ],
  [
   291,
   268
  ],
  [
   270,
   105
  ],
  [
   444,
   476
  ],
  [
   280,
   109
  ],
  [
   257,
   546
  ],
  [
   277,
   116
  ],
  [
   318,
   710
  ],
  [
   393,
   268
  ],
  [
   418,
   109
  ],
  [
   540,
   44
  ],
  [
   490,
   99
  ],
  [
   1051,
   1291
  ],
  [
   945,
   293
  ],
  [
   1186,
   619
  ],
  [
   545,
   111
  ],
  [
   821,
   465
  ],
  [
   337,
   382
  ],
  [
   317,
   100
  ],
  [
   299,
   1241
  ],
  [
   530,
   106
  ],
  [
   484,
   386
  ],
  [
   595,
   48
  ],
  [
   318,
   964
  ],
  [
   299,
   645
  ],
  [
   355,
   111
  ],
  [
   49,
   48
  ],
  [
   300,
   1170
  ],
  [
   32,
   553
  ],
  [
   118,
   101
  ],
  [
   284,
   348
  ],
  [
   278,
   495
  ],
  [
   268,
   308
  ],
  [
   390,
   447
  ],
  [
   299,
   340
  ],
  [
   355,
   340
  ],
  [
   197,
   154
  ],
  [
   316,
   108
  ],
  [
   32,
   623
  ],
  [
   419,
   291
  ],
  [
   117,
   296
  ],
  [
   402,
   105
  ],
  [
   795,
   806
  ],
  [
   750,
   296
  ],
  [
   325,
   108
  ],
  [
   851,
   445
  ],
  [
   262,
   1376
  ],
  [
   299,
   331
  ],
  [
   273,
   374
  ],
  [
   671,
   496
  ],
  [
   602,
   363
  ],
  [
   299,
   433
  ],
  [
   352,
   101
  ],
  [
   497,
   576
  ],
  [
   260,
   493
  ],
  [
   489,
   364
  ],
  [
   260,
   329
  ],
  [
   407,
   309
  ],
  [
   32,
   310
  ],
  [
   258,
   296
  ],
  [
   321,
   295
  ],
  [
   414,
   482
  ],
  [
   266,
   106
  ],
  [
   107,
   291
  ],
  [
   281,
   921
  ],
  [
   366,
   101
  ],
  [
   109,
   367
  ],
  [
   688,
   326
  ],
  [
   823,
   116
  ],
  [
   266,
   335
  ],
  [
   431,
   98
  ],
  [
   316,
   833
  ],
  [
   273,
   106
  ],
  [
   307,
   327
  ],
  [
   115,
   618
  ],
  [
   99,
   107
  ],
  [
   1287,
   901
  ],
  [
   319,
   308
  ],
  [
   299,
   409
  ],
  [
   331,
   286
  ],
  [
   1064,
   329
  ],
  [
   260,
   406
  ],
  [
   366,
   117
  ],
  [
   299,
   406
  ],
  [
   731,
   290
  ],
  [
   515,
   112
  ],
  [
   337,
   291
  ],
  [
   545,
   97
  ],
  [
   814,
   296
  ],
  [
   378,
   273
  ],
  [
   297,
   268
  ],
  [
   642,
   270
  ],
  [
   122,
   311
  ],
  [
   502,
   109
  ],
  [
   1016,
   41
  ],
  [
   353,
   295
  ],
  [
   532,
   627
  ],
  [
   397,
   347
  ],
  [
   111,
   109
  ],
  [
   272,
   334
  ],
  [
   524,
   290
  ],
  [
   778,
   697
  ],
  [
   316,
   772
  ],
  [
   393,
   308
  ],
  [
   451,
   704
  ],
  [
   319,
   110
  ],
  [
   317,
   272
  ],
  [
   279,
   1277
  ],
  [
   338,
   115
  ],
  [
   300,
   339
  ],
  [
   597,
   288
  ],
  [
   1153,
   562
  ],
  [
   574,
   1195
  ],
  [
   340,
   108
  ],
  [
   265,
   296
  ],
  [
   352,
   280
  ],
  [
   410,
   1150
  ],
  [
   119,
   119
  ],
  [
   344,
   114
  ],
  [
   313,
   351
  ],
  [
   332,
   374
  ],
  [
   279,
   280
  ],
  [
   458,
   907
  ],
  [
   121,
   487
  ],
  [
   401,
   49
  ],
  [
   413,
   411
  ],
  [
   477,
   391
  ],
  [
   938,
   348
  ],
  [
   432,
   98
  ],
  [
   103,
   291
  ],
  [
   391,
   873
  ],
  [
   609,
   368
  ],
  [
   318,
   1273
  ],
  [
   107,
   443
  ],
  [
   992,
   1127
  ],
  [
   84,
   101
  ],
  [
   337,
   933
  ],
  [
   501,
   1363
  ],
  [
   642,
   287
  ],
  [
   525,
   846
  ],
  [
   275,
   1690
  ],
  [
   344,
   301
  ],
  [
   272,
   305
  ],
  [
   636,
   100
  ],
  [
   679,
   1405
  ],
  [
   79,
   100
  ],
  [
   283,
   856
  ],
  [
   108,
   709
  ],
  [
   277,
   417
  ],
  [
   118,
   105
  ],
  [
   283,
   631
  ],
  [
   419,
   114
  ],
  [
   111,
   100
  ],
  [
   586,
   100
  ],
  [
   274,
   103
  ],
  [
   279,
   330
  ],
  [
   401,
   54
  ],
  [
   729,
   373
  ],
  [
   776,
   360
  ],
  [
   103,
   267
  ],
  [
   574,
   332
  ],
  [
   286,
   1737
  ],
  [
   1247,
   444
  ],
  [
   283,
   321
  ],
  [
   388,
   314
  ],
  [
   281,
   308
  ],
  [
   260,
   326
  ],
  [
   300,
   331
  ],
  [
   119,
   374
  ],
  [
   548,
   107
  ],
  [
   304,
   258
  ],
  [
   532,
   363
  ],
  [
   272,
   306
  ],
  [
   642,
   114
  ],
  [
   362,
   784
  ],
  [
   423,
   117
  ],
  [
   259,
   882
  ],
  [
   259,
   1494
  ],
  [
   522,
   349
  ],
  [
   678,
   100
  ],
  [
   358,
   286
  ],
  [
   534,
   265
  ],
  [
   316,
   391
  ],
  [
   392,
   706
  ],
  [
   277,
   554
  ],
  [
   312,
   109
  ],
  [
   568,
   302
  ],
  [
   74,
   97
  ],
  [
   467,
   109
  ],
  [
   392,
   306
  ],
  [
   827,
   354
  ],
  [
   771,
   347
  ],
  [
   696,
   550
  ],
  [
   401,
   52
  ],
  [
   338,
   464
  ],
  [
   508,
   878
  ],
  [
   115,
   456
  ],
  [
   435,
   452
  ],
  [
   271,
   105
  ],
  [
   197,
   129
  ],
  [
   112,
   1396
  ],
  [
   277,
   454
  ],
  [
   289,
   335
  ],
  [
   486,
   353
  ],
  [
   653,
   342
  ],
  [
   412,
   305
  ],
  [
   259,
   377
  ],
  [
   414,
   288
  ],
  [
   325,
   351
  ],
  [
   349,
   638
  ],
  [
   298,
   289
  ],
  [
   457,
   924
  ],
  [
   112,
   291
  ],
  [
   119,
   377
  ],
  [
   943,
   359
  ],
  [
   307,
   398
  ],
  [
   531,
   291
  ],
  [
   501,
   307
  ],
  [
   107,
   546
  ],
  [
   110,
   692
  ],
  [
   412,
   105
  ],
  [
   261,
   106
  ],
  [
   370,
   348
  ],
  [
   451,
   295
  ],
  [
   401,
   635
  ],
  [
   299,
   109
  ],
  [
   679,
   280
  ],
  [
   273,
   270
  ],
  [
   276,
   304
  ],
  [
   757,
   335
  ],
  [
   746,
   972
  ],
  [
   654,
   590
  ],
  [
   325,
   106
  ],
  [
   596,
   330
  ],
  [
   388,
   109
  ],
  [
   32,
   1725
  ],
  [
   506,
   117
  ],
  [
   1226,
   1365
  ],
  [
   460,
   97
  ],
  [
   80,
   97
  ],
  [
   657,
   114
  ],
  [
   116,
   518
  ],
  [
   289,
   482
  ],
  [
   316,
   582
  ],
  [
   357,
   445
  ],
  [
   515,
   469
  ],
  [
   276,
   1329
  ],
  [
   111,
   288
  ],
  [
   314,
   288
  ],
  [
   314,
   309
  ],
  [
   407,
   101
  ],
  [
   512,
   266
  ],
  [
   73,
   65
  ],
  [
   283,
   605
  ],
  [
   388,
   116
  ],
  [
   338,
   349
  ],
  [
   942,
   398
  ],
  [
   446,
   1379
  ],
  [
   111,
   107
  ],
  [
   122,
   351
  ],
  [
   345,
   430
  ],
  [
   334,
   270
  ],
  [
   112,
   309
  ],
  [
   455,
   105
  ],
  [
   446,
   934
  ],
  [
   346,
   101
  ],
  [
   734,
   105
  ],
  [
   316,
   958
  ],
  [
   435,
   97
  ],
  [
   498,
   1675
  ],
  [
   394,
   552
  ],
  [
   350,
   107
  ],
  [
   305,
   121
  ],
  [
   1294,
   103
  ],
  [
   357,
   99
  ],
  [
   785,
   268
  ],
  [
   987,
   291
  ],
  [
   116,
   995
  ],
  [
   80,
   280
  ],
  [
   555,
   105
  ],
  [
   100,
   495
  ],
  [
   278,
   633
  ],
  [
   416,
   309
  ],
  [
   401,
   55
  ],
  [
   260,
   539
  ],
  [
   103,
   261
  ],
  [
   577,
   109
  ],
  [
   568,
   268
  ],
  [
   321,
   268
  ],
  [
   654,
   99
  ],
  [
   401,
   51
  ],
  [
   77,
   111
  ],
  [
   280,
   266
  ],
  [
   271,
   268
  ],
  [
   657,
   108
  ],
  [
   584,
   546
  ],
  [
   320,
   290
  ],
  [
   318,
   311
  ],
  [
   488,
   268
  ],
  [
   257,
   1168
  ],
  [
   370,
   1474
  ],
  [
   766,
   844
  ],
  [
   259,
   576
  ],
  [
   32,
   376
  ],
  [
   574,
   777
  ],
  [
   566,
   307
  ],
  [
   259,
   329
  ],
  [
   317,
   266
  ],
  [
   108,
   304
  ],
  [
   100,
   559
  ],
  [
   100,
   363
  ],
  [
   262,
   378
  ],
  [
   1475,
   495
  ],
  [
   279,
   289
  ],
  [
   494,
   1460
  ],
  [
   1164,
   295
  ],
  [
   103,
   303
  ],
  [
   67,
   111
  ],
  [
   489,
   453
  ],
  [
   99,
   872
  ],
  [
   1061,
   290
  ],
  [
   792,
   691
  ],
  [
   299,
   106
  ],
  [
   711,
   296
  ],
  [
   413,
   896
  ],
  [
   459,
   557
  ],
  [
   49,
   57
  ],
  [
   527,
   100
  ],
  [
   760,
   301
  ],
  [
   284,
   114
  ],
  [
   32,
   578
  ],
  [
   569,
   1097
  ],
  [
   705,
   339
  ],
  [
   261,
   327
  ],
  [
   283,
   903
  ],
  [
   262,
   117
  ],
  [
   419,
   117
  ],
  [
   109,
   308
  ],
  [
   412,
   117
  ],
  [
   284,
   273
  ],
  [
   115,
   570
  ],
  [
   119,
   267
  ],
  [
   332,
   637
  ],
  [
   312,
   360
  ],
  [
   285,
   382
  ],
  [
   98,
   389
  ],
  [
   498,
   1103
  ],
  [
   1038,
   514
  ],
  [
   405,
   53
  ],
  [
   427,
   652
  ],
  [
   75,
   97
  ],
  [
   315,
   295
  ],
  [
   107,
   342
  ],
  [
   730,
   619
  ],
  [
   760,
   330
  ],
  [
   372,
   101
  ],
  [
   103,
   268
  ],
  [
   1370,
   1098
  ],
  [
   326,
   296
  ],
  [
   1123,
   1269
  ],
  [
   395,
   105
  ],
  [
   1311,
   1028
  ],
  [
   515,
   365
  ],
  [
   115,
   364
  ],
  [
   259,
   644
  ],
  [
   106,
   342
  ],
  [
   518,
   267
  ],
  [
   409,
   308
  ],
  [
   743,
   712
  ],
  [
   1069,
   485
  ],
  [
   284,
   109
  ],
  [
   298,
   101
  ],
  [
   506,
   1236
  ],
  [
   65,
   78
  ],
  [
   309,
   398
  ],
  [
   80,
   315
  ],
  [
   654,
   374
  ],
  [
   402,
   97
  ],
  [
   257,
   910
  ],
  [
   259,
   400
  ],
  [
   747,
   386
  ],
  [
   969,
   342
  ],
  [
   104,
   105
  ],
  [
   480,
   73
  ],
  [
   284,
   666
  ],
  [
   421,
   101
  ],
  [
   119,
   264
  ],
  [
   320,
   106
  ],
  [
   110,
   351
  ],
  [
   262,
   791
  ],
  [
   456,
   106
  ],
  [
   555,
   97
  ],
  [
   266,
   331
  ],
  [
   352,
   330
  ],
  [
   458,
   273
  ],
  [
   333,
   882
  ],
  [
   413,
   953
  ],
  [
   783,
   833
  ],
  [
   467,
   110
  ],
  [
   79,
   87
  ],
  [
   380,
   115
  ],
  [
   284,
   281
  ],
  [
   327,
   292
  ],
  [
   751,
   477
  ],
  [
   1781,
   481
  ],
  [
   1483,
   335
  ],
  [
   502,
   596
  ],
  [
   276,
   422
  ],
  [
   372,
   376
  ],
  [
   936,
   281
  ],
  [
   926,
   99
  ],
  [
   319,
   268
  ],
  [
   447,
   270
  ],
  [
   711,
   290
  ],
  [
   309,
   122
  ],
  [
   324,
   117
  ],
  [
   345,
   575
  ],
  [
   286,
   603
  ],
  [
   941,
   363
  ],
  [
   515,
   114
  ],
  [
   258,
   274
  ],
  [
   99,
   296
  ],
  [
   283,
   967
  ],
  [
   843,
   106
  ],
  [
   291,
   110
  ],
  [
   336,
   158
  ],
  [
   34,
   44
  ],
  [
   678,
   351
  ],
  [
   300,
   109
  ],
  [
   1075,
   1162
  ],
  [
   439,
   896
  ],
  [
   625,
   391
  ],
  [
   416,
   289
  ],
  [
   329,
   426
  ],
  [
   343,
   1289
  ],
  [
   1134,
   692
  ],
  [
   620,
   286
  ],
  [
   1852,
   880
  ],
  [
   32,
   288
  ],
  [
   1415,
   263
  ],
  [
   1466,
   1698
  ],
  [
   334,
   342
  ],
  [
   767,
   111
  ],
  [
   454,
   280
  ],
  [
   110,
   310
  ],
  [
   82,
   111
  ],
  [
   1401,
   388
  ],
  [
   1093,
   98
  ],
  [
   108,
   425
  ],
  [
   263,
   441
  ],
  [
   515,
   499
  ],
  [
   809,
   122
  ],
  [
   435,
   1722
  ],
  [
   373,
   1245
  ],
  [
   112,
   294
  ],
  [
   370,
   311
  ],
  [
   1605,
   725
  ],
  [
   110,
   288
  ],
  [
   765,
   322
  ],
  [
   284,
   578
  ],
  [
   277,
   704
  ],
  [
   795,
   383
  ],
  [
   100,
   289
  ],
  [
   841,
   119
  ],
  [
   350,
   630
  ],
  [
   457,
   347
  ],
  [
   276,
   264
  ],
  [
   284,
   296
  ],
  [
   501,
   960
  ],
  [
   979,
   473
  ],
  [
   103,
   351
  ],
  [
   892,
   691
  ],
  [
   333,
   347
  ],
  [
   402,
   256
  ],
  [
   109,
   264
  ],
  [
   354,
   508
  ],
  [
   115,
   369
  ],
  [
   116,
   367
  ],
  [
   379,
   554
  ],
  [
   108,
   121
  ],
  [
   419,
   110
  ],
  [
   283,
   722
  ],
  [
   284,
   554
  ],
  [
   472,
   816
  ],
  [
   528,
   358
  ],
  [
   299,
   487
  ],
  [
   463,
   109
  ],
  [
   1440,
   1436
  ],
  [
   32,
   486
  ],
  [
   299,
   117
  ],
  [
   502,
   348
  ],
  [
   651,
   111
  ],
  [
   561,
   348
  ],
  [
   512,
   289
  ],
  [
   752,
   308
  ],
  [
   197,
   187
  ],
  [
   747,
   295
  ],
  [
   714,
   106
  ],
  [
   864,
   312
  ],
  [
   287,
   264
  ],
  [
   110,
   465
  ],
  [
   329,
   360
  ],
  [
   510,
   97
  ],
  [
   119,
   306
  ],
  [
   112,
   264
  ],
  [
   517,
   529
  ],
  [
   439,
   772
  ],
  [
   408,
   272
  ],
  [
   100,
   280
  ],
  [
   115,
   115
  ],
  [
   659,
   267
  ],
  [
   1538,
   110
  ],
  [
   419,
   687
  ],
  [
   51,
   48
  ],
  [
   1421,
   1497
  ],
  [
   111,
   292
  ],
  [
   1009,
   378
  ],
  [
   601,
   840
  ],
  [
   640,
   535
  ],
  [
   548,
   296
  ],
  [
   240,
   159
  ],
  [
   399,
   99
  ],
  [
   519,
   422
  ],
  [
   857,
   514
  ],
  [
   501,
   319
  ],
  [
   298,
   527
  ],
  [
   342,
   109
  ],
  [
   921,
   329
  ],
  [
   470,
   400
  ],
  [
   397,
   552
  ],
  [
   283,
   836
  ],
  [
   1645,
   331
  ],
  [
   463,
   331
  ],
  [
   298,
   294
  ],
  [
   380,
   358
  ],
  [
   291,
   116
  ],
  [
   98,
   377
  ],
  [
   495,
   393
  ],
  [
   942,
   611
  ],
  [
   496,
   103
  ],
  [
   395,
   111
  ],
  [
   115,
   329
  ],
  [
   1166,
   281
  ],
  [
   407,
   117
  ],
  [
   517,
   358
  ],
  [
   65,
   82
  ],
  [
   410,
   294
  ],
  [
   298,
   382
  ],
  [
   281,
   266
  ],
  [
   1004,
   933
  ],
  [
   568,
   369
  ],
  [
   359,
   295
  ],
  [
   402,
   364
  ],
  [
   259,
   1807
  ],
  [
   116,
   104
  ],
  [
   597,
   292
  ],
  [
   726,
   112
  ],
  [
   90,
   1526
  ],
  [
   327,
   266
  ],
  [
   114,
   345
  ],
  [
   344,
   270
  ],
  [
   815,
   359
  ],
  [
   1660,
   528
  ],
  [
   431,
   310
  ],
  [
   671,
   310
  ],
  [
   719,
   560
  ],
  [
   367,
   327
  ],
  [
   259,
   297
  ],
  [
   536,
   692
  ],
  [
   283,
   353
  ],
  [
   593,
   351
  ],
  [
   762,
   826
  ],
  [
   349,
   684
  ],
  [
   279,
   1228
  ],
  [
   634,
   267
  ],
  [
   324,
   101
  ],
  [
   803,
   1116
  ],
  [
   259,
   267
  ],
  [
   321,
   270
  ],
  [
   46,
   44
  ],
  [
   437,
   258
  ],
  [
   1867,
   908
  ],
  [
   338,
   107
  ],
  [
   1266,
   312
  ],
  [
   417,
   485
  ],
  [
   324,
   301
  ],
  [
   318,
   578
  ],
  [
   344,
   109
  ],
  [
   318,
   340
  ],
  [
   336,
   153
  ],
  [
   1272,
   946
  ],
  [
   344,
   1154
  ],
  [
   100,
   114
  ],
  [
   439,
   280
  ],
  [
   569,
   757
  ],
  [
   259,
   264
  ],
  [
   355,
   121
  ],
  [
   875,
   525
  ],
  [
   494,
   287
  ],
  [
   778,
   305
  ],
  [
   646,
   1388
  ],
  [
   327,
   105
  ],
  [
   522,
   110
  ],
  [
   301,
   97
  ],
  [
   442,
   121
  ],
  [
   277,
   1442
  ],
  [
   257,
   293
  ],
  [
   99,
   116
  ],
  [
   448,
   1382
  ],
  [
   82,
   101
  ],
  [
   739,
   106
  ],
  [
   333,
   106
  ],
  [
   107,
   398
  ],
  [
   448,
   358
  ],
  [
   384,
   818
  ],
  [
   32,
   369
  ],
  [
   307,
   295
  ],
  [
   432,
   114
  ],
  [
   99,
   302
  ],
  [
   1592,
   581
  ],
  [
   257,
   1911
  ],
  [
   320,
   1534
  ],
  [
   852,
   807
  ],
  [
   268,
   268
  ],
  [
   263,
   117
  ],
  [
   108,
   296
  ],
  [
   1505,
   338
  ],
  [
   776,
   426
  ],
  [
   889,
   265
  ],
  [
   340,
   391
  ],
  [
   355,
   117
  ],
  [
   535,
   296
  ],
  [
   517,
   326
  ],
  [
   676,
   369
  ],
  [
   823,
   307
  ],
  [
   582,
   630
  ],
  [
   32,
   194
  ],
  [
   291,
   272
  ],
  [
   318,
   581
  ],
  [
   115,
   716
  ],
  [
   425,
   258
  ],
  [
   657,
   417
  ],
  [
   475,
   347
  ],
  [
   312,
   108
  ],
  [
   609,
   110
  ],
  [
   430,
   109
  ],
  [
   566,
   1040
  ],
  [
   843,
   290
  ],
  [
   993,
   107
  ],
  [
   895,
   50
  ],
  [
   1802,
   114
  ],
  [
   284,
   390
  ],
  [
   979,
   106
  ],
  [
   602,
   292
  ],
  [
   281,
   1228
  ],
  [
   116,
   292
  ],
  [
   676,
   258
  ],
  [
   318,
   332
  ],
  [
   355,
   101
  ],
  [
   503,
   328
  ],
  [
   823,
   100
  ],
  [
   387,
   166
  ],
  [
   284,
   1738
  ],
  [
   259,
   393
  ],
  [
   285,
   445
  ],
  [
   345,
   116
  ],
  [
   747,
   280
  ],
  [
   547,
   83
  ],
  [
   1565,
   2034
  ],
  [
   320,
   353
  ],
  [
   90,
   69
  ],
  [
   864,
   338
  ],
  [
   519,
   302
  ],
  [
   112,
   305
  ],
  [
   284,
   975
  ],
  [
   374,
   327
  ],
  [
   532,
   119
  ],
  [
   47,
   47
  ],
  [
   640,
   110
  ],
  [
   260,
   1105
  ],
  [
   419,
   108
  ],
  [
   1315,
   1767
  ],
  [
   1321,
   426
  ],
  [
   479,
   900
  ],
  [
   77,
   105
  ],
  [
   256,
   351
  ],
  [
   277,
   525
  ],
  [
   277,
   1506
  ],
  [
   107,
   365
  ],
  [
   561,
   282
  ],
  [
   282,
   334
  ],
  [
   324,
   309
  ],
  [
   289,
   97
  ],
  [
   795,
   455
  ],
  [
   291,
   114
  ],
  [
   1740,
   268
  ],
  [
   262,
   301
  ],
  [
   83,
   84
  ],
  [
   435,
   329
  ],
  [
   506,
   329
  ],
  [
   257,
   893
  ],
  [
   317,
   1203
  ],
  [
   299,
   2258
  ],
  [
   751,
   1183
  ],
  [
   1253,
   826
  ],
  [
   299,
   329
  ],
  [
   378,
   107
  ],
  [
   412,
   101
  ],
  [
   277,
   948
  ],
  [
   119,
   334
  ],
  [
   510,
   111
  ],
  [
   260,
   296
  ],
  [
   284,
   474
  ],
  [
   122,
   109
  ],
  [
   433,
   270
  ],
  [
   466,
   286
  ],
  [
   274,
   330
  ],
  [
   993,
   719
  ],
  [
   458,
   2249
  ],
  [
   1058,
   105
  ],
  [
   1584,
   122
  ],
  [
   260,
   575
  ],
  [
   289,
   295
  ],
  [
   459,
   1502
  ],
  [
   326,
   109
  ],
  [
   338,
   805
  ],
  [
   855,
   264
  ],
  [
   399,
   894
  ],
  [
   548,
   112
  ],
  [
   534,
   536
  ],
  [
   257,
   377
  ],
  [
   32,
   47
  ],
  [
   370,
   282
  ],
  [
   293,
   331
  ],
  [
   446,
   874
  ],
  [
   1351,
   99
  ],
  [
   1111,
   105
  ],
  [
   591,
   715
  ],
  [
   1752,
   693
  ],
  [
   122,
   288
  ],
  [
   275,
   256
  ],
  [
   444,
   99
  ],
  [
   277,
   288
  ],
  [
   368,
   98
  ],
  [
   116,
   363
  ],
  [
   397,
   117
  ],
  [
   450,
   111
  ],
  [
   314,
   108
  ],
  [
   1029,
   281
  ],
  [
   593,
   106
  ],
  [
   319,
   290
  ],
  [
   2004,
   715
  ],
  [
   366,
   294
  ],
  [
   454,
   114
  ],
  [
   343,
   330
  ],
  [
   1815,
   486
  ],
  [
   1046,
   256
  ],
  [
   1088,
   424
  ],
  [
   550,
   321
  ],
  [
   340,
   114
  ],
  [
   353,
   110
  ],
  [
   116,
   1409
  ],
  [
   302,
   116
  ],
  [
   659,
   433
  ],
  [
   308,
   270
  ],
  [
   318,
   520
  ],
  [
   277,
   261
  ],
  [
   1135,
   730
  ],
  [
   299,
   1688
  ],
  [
   462,
   270
  ],
  [
   396,
   106
  ],
  [
   277,
   1246
  ],
  [
   462,
   272
  ],
  [
   774,
   291
  ],
  [
   446,
   307
  ],
  [
   284,
   1876
  ],
  [
   718,
   111
  ],
  [
   49,
   50
  ],
  [
   926,
   335
  ],
  [
   277,
   319
  ],
  [
   469,
   360
  ],
  [
   990,
   615
  ],
  [
   73,
   110
  ],
  [
   448,
   1639
  ],
  [
   1012,
   492
  ],
  [
   2242,
   2305
  ],
  [
   119,
   2199
  ],
  [
   100,
   273
  ],
  [
   58,
   2276
  ],
  [
   542,
   288
  ],
  [
   457,
   359
  ],
  [
   103,
   328
  ],
  [
   729,
   393
  ],
  [
   285,
   291
  ],
  [
   1297,
   1310
  ],
  [
   299,
   991
  ],
  [
   379,
   106
  ],
  [
   65,
   84
  ],
  [
   1334,
   398
  ],
  [
   45,
   45
  ],
  [
   109,
   406
  ],
  [
   535,
   261
  ],
  [
   122,
   477
  ],
  [
   1015,
   447
  ],
  [
   413,
   645
  ],
  [
   349,
   481
  ],
  [
   608,
   546
  ],
  [
   318,
   1208
  ],
  [
   460,
   351
  ],
  [
   915,
   100
  ],
  [
   345,
   110
  ],
  [
   380,
   291
  ],
  [
   1783,
   396
  ],
  [
   261,
   359
  ],
  [
   257,
   504
  ],
  [
   755,
   48
  ],
  [
   318,
   724
  ],
  [
   326,
   306
  ],
  [
   405,
   52
  ],
  [
   305,
   100
  ],
  [
   1623,
   526
  ],
  [
   333,
   1044
  ],
  [
   339,
   110
  ],
  [
   261,
   639
  ],
  [
   575,
   288
  ],
  [
   411,
   256
  ],
  [
   107,
   319
  ],
  [
   379,
   311
  ],
  [
   506,
   725
  ],
  [
   339,
   430
  ],
  [
   105,
   861
  ],
  [
   324,
   559
  ],
  [
   454,
   273
  ],
  [
   423,
   111
  ],
  [
   1753,
   258
  ],
  [
   582,
   424
  ],
  [
   334,
   302
  ],
  [
   103,
   330
  ],
  [
   318,
   556
  ],
  [
   100,
   464
  ],
  [
   275,
   378
  ],
  [
   436,
   347
  ],
  [
   79,
   78
  ],
  [
   753,
   256
  ],
  [
   297,
   106
  ],
  [
   1215,
   557
  ],
  [
   613,
   351
  ],
  [
   548,
   1425
  ],
  [
   743,
   383
  ],
  [
   806,
   108
  ],
  [
   746,
   1729
  ],
  [
   346,
   563
  ],
  [
   379,
   334
  ],
  [
   380,
   525
  ],
  [
   32,
   63
  ],
  [
   102,
   492
  ],
  [
   318,
   562
  ],
  [
   1060,
   374
  ],
  [
   1321,
   360
  ],
  [
   102,
   377
  ],
  [
   2172,
   308
  ],
  [
   608,
   830
  ],
  [
   881,
   369
  ],
  [
   32,
   272
  ],
  [
   387,
   156
  ],
  [
   662,
   481
  ],
  [
   446,
   351
  ],
  [
   458,
   110
  ],
  [
   283,
   393
  ],
  [
   640,
   351
  ],
  [
   262,
   777
  ],
  [
   330,
   270
  ],
  [
   726,
   692
  ],
  [
   102,
   294
  ],
  [
   262,
   1103
  ],
  [
   1187,
   292
  ],
  [
   65,
   67
  ],
  [
   555,
   764
  ],
  [
   117,
   273
  ],
  [
   277,
   406
  ],
  [
   912,
   353
  ],
  [
   352,
   258
  ],
  [
   284,
   312
  ],
  [
   100,
   261
  ],
  [
   333,
   445
  ],
  [
   663,
   1848
  ],
  [
   1181,
   999
  ],
  [
   439,
   400
  ],
  [
   196,
   152
  ],
  [
   911,
   360
  ],
  [
   373,
   295
  ],
  [
   257,
   485
  ],
  [
   268,
   526
  ],
  [
   260,
   1232
  ],
  [
   857,
   519
  ],
  [
   280,
   2217
  ],
  [
   379,
   340
  ],
  [
   49,
   49
  ],
  [
   395,
   101
  ],
  [
   973,
   904
  ],
  [
   1234,
   1139
  ],
  [
   99,
   1007
  ],
  [
   343,
   503
  ],
  [
   342,
   272
  ],
  [
   658,
   308
  ],
  [
   459,
   455
  ],
  [
   32,
   2119
  ],
  [
   260,
   504
  ],
  [
   378,
   108
  ],
  [
   968,
   268
  ],
  [
   355,
   112
  ],
  [
   427,
   1366
  ],
  [
   721,
   1603
  ],
  [
   68,
   122
  ],
  [
   99,
   949
  ],
  [
   889,
   334
  ],
  [
   262,
   1149
  ],
  [
   433,
   327
  ],
  [
   343,
   109
  ],
  [
   285,
   1892
  ],
  [
   575,
   268
  ],
  [
   647,
   272
  ],
  [
   436,
   378
  ],
  [
   415,
   415
  ],
  [
   103,
   748
  ],
  [
   852,
   398
  ],
  [
   32,
   712
  ],
  [
   912,
   111
  ],
  [
   982,
   328
  ],
  [
   928,
   308
  ],
  [
   516,
   268
  ],
  [
   299,
   886
  ],
  [
   436,
   314
  ],
  [
   1308,
   584
  ],
  [
   291,
   756
  ],
  [
   319,
   109
  ],
  [
   1452,
   477
  ],
  [
   1420,
   122
  ],
  [
   460,
   273
  ],
  [
   272,
   100
  ],
  [
   1301,
   1478
  ],
  [
   318,
   273
  ],
  [
   1075,
   571
  ],
  [
   300,
   426
  ],
  [
   289,
   107
  ],
  [
   803,
   354
  ],
  [
   116,
   503
  ],
  [
   282,
   265
  ],
  [
   774,
   315
  ],
  [
   270,
   1276
  ],
  [
   970,
   374
  ],
  [
   117,
   115
  ],
  [
   257,
   304
  ],
  [
   291,
   403
  ],
  [
   602,
   434
  ],
  [
   550,
   424
  ],
  [
   613,
   343
  ],
  [
   485,
   106
  ],
  [
   262,
   1853
  ],
  [
   1064,
   289
  ],
  [
   389,
   820
  ],
  [
   467,
   307
  ],
  [
   881,
   291
  ],
  [
   293,
   637
  ],
  [
   1038,
   100
  ],
  [
   458,
   611
  ],
  [
   463,
   382
  ],
  [
   111,
   115
  ],
  [
   122,
   559
  ],
  [
   534,
   112
  ],
  [
   115,
   389
  ],
  [
   955,
   116
  ],
  [
   515,
   367
  ],
  [
   316,
   466
  ],
  [
   547,
   266
  ],
  [
   275,
   464
  ],
  [
   115,
   626
  ],
  [
   1832,
   296
  ],
  [
   475,
   995
  ],
  [
   266,
   258
  ],
  [
   356,
   310
  ],
  [
   259,
   1663
  ],
  [
   291,
   1425
  ],
  [
   258,
   306
  ],
  [
   531,
   2013
  ],
  [
   682,
   106
  ],
  [
   324,
   79
  ],
  [
   804,
   845
  ],
  [
   408,
   110
  ],
  [
   337,
   280
  ],
  [
   272,
   261
  ],
  [
   829,
   652
  ],
  [
   2089,
   109
  ],
  [
   721,
   329
  ],
  [
   2159,
   328
  ],
  [
   381,
   273
  ],
  [
   107,
   748
  ],
  [
   390,
   674
  ],
  [
   446,
   103
  ],
  [
   263,
   264
  ],
  [
   838,
   288
  ],
  [
   515,
   117
  ],
  [
   538,
   391
  ],
  [
   482,
   271
  ],
  [
   478,
   1535
  ],
  [
   299,
   1024
  ],
  [
   926,
   834
  ],
  [
   1573,
   708
  ],
  [
   105,
   267
  ],
  [
   344,
   107
  ],
  [
   414,
   811
  ],
  [
   53,
   48
  ],
  [
   436,
   590
  ],
  [
   309,
   110
  ],
  [
   1109,
   360
  ],
  [
   98,
   291
  ],
  [
   260,
   570
  ],
  [
   111,
   268
  ],
  [
   535,
   447
  ],
  [
   512,
   271
  ],
  [
   1313,
   268
  ],
  [
   114,
   359
  ],
  [
   416,
   554
  ],
  [
   300,
   1192
  ],
  [
   1369,
   289
  ],
  [
   701,
   272
  ],
  [
   496,
   403
  ],
  [
   420,
   109
  ],
  [
   291,
   103
  ],
  [
   2106,
   289
  ],
  [
   414,
   325
  ],
  [
   273,
   327
  ],
  [
   107,
   499
  ],
  [
   32,
   59
  ],
  [
   691,
   469
  ],
  [
   317,
   1549
  ],
  [
   321,
   327
  ],
  [
   1743,
   424
  ],
  [
   278,
   267
  ],
  [
   489,
   434
  ],
  [
   794,
   2425
  ],
  [
   257,
   745
  ],
  [
   1024,
   109
  ],
  [
   1641,
   106
  ],
  [
   498,
   2520
  ],
  [
   285,
   272
  ],
  [
   498,
   1028
  ],
  [
   2311,
   2116
  ],
  [
   112,
   315
  ],
  [
   275,
   1209
  ],
  [
   382,
   292
  ],
  [
   355,
   267
  ],
  [
   1361,
   329
  ],
  [
   119,
   122
  ],
  [
   289,
   296
  ],
  [
   1010,
   443
  ],
  [
   435,
   264
  ],
  [
   300,
   2042
  ],
  [
   299,
   477
  ],
  [
   865,
   798
  ],
  [
   316,
   554
  ],
  [
   69,
   82
  ],
  [
   663,
   347
  ],
  [
   2193,
   1383
  ],
  [
   300,
   2238
  ],
  [
   318,
   409
  ],
  [
   356,
   378
  ],
  [
   515,
   589
  ],
  [
   115,
   104
  ],
  [
   1160,
   438
  ],
  [
   118,
   97
  ],
  [
   284,
   290
  ],
  [
   117,
   108
  ],
  [
   309,
   270
  ],
  [
   593,
   1760
  ],
  [
   1027,
   308
  ],
  [
   283,
   291
  ],
  [
   277,
   338
  ],
  [
   539,
   690
  ],
  [
   1007,
   587
  ],
  [
   1060,
   590
  ],
  [
   532,
   288
  ],
  [
   112,
   293
  ],
  [
   431,
   106
  ],
  [
   1718,
   268
  ],
  [
   116,
   261
  ],
  [
   116,
   443
  ],
  [
   602,
   429
  ],
  [
   943,
   430
  ],
  [
   356,
   1101
  ],
  [
   324,
   527
  ],
  [
   489,
   429
  ],
  [
   278,
   2433
  ],
  [
   712,
   288
  ],
  [
   271,
   330
  ],
  [
   284,
   444
  ],
  [
   100,
   292
  ],
  [
   597,
   363
  ],
  [
   330,
   528
  ],
  [
   320,
   390
  ],
  [
   386,
   302
  ],
  [
   678,
   1137
  ],
  [
   280,
   450
  ],
  [
   107,
   354
  ],
  [
   838,
   292
  ],
  [
   721,
   697
  ],
  [
   509,
   281
  ],
  [
   289,
   105
  ],
  [
   405,
   49
  ],
  [
   408,
   99
  ],
  [
   1004,
   292
  ],
  [
   257,
   431
  ],
  [
   442,
   117
  ],
  [
   1047,
   1006
  ],
  [
   405,
   50
  ],
  [
   2064,
   473
  ],
  [
   855,
   1615
  ],
  [
   1243,
   745
  ],
  [
   439,
   117
  ],
  [
   289,
   261
  ],
  [
   110,
   319
  ],
  [
   414,
   601
  ],
  [
   271,
   306
  ],
  [
   729,
   856
  ],
  [
   1611,
   871
  ],
  [
   1281,
   325
  ],
  [
   299,
   725
  ],
  [
   379,
   282
  ],
  [
   314,
   292
  ],
  [
   938,
   109
  ],
  [
   328,
   115
  ],
  [
   259,
   2052
  ],
  [
   328,
   99
  ],
  [
   299,
   710
  ],
  [
   717,
   321
  ],
  [
   259,
   273
  ],
  [
   442,
   660
  ],
  [
   279,
   1545
  ],
  [
   304,
   288
  ],
  [
   821,
   335
  ],
  [
   2354,
   295
  ],
  [
   2317,
   581
  ],
  [
   307,
   108
  ],
  [
   379,
   1192
  ],
  [
   2166,
   1764
  ],
  [
   381,
   315
  ],
  [
   115,
   417
  ],
  [
   471,
   816
  ],
  [
   452,
   272
  ],
  [
   84,
   97
  ],
  [
   266,
   1080
  ],
  [
   1644,
   290
  ],
  [
   545,
   1926
  ],
  [
   358,
   114
  ],
  [
   427,
   119
  ],
  [
   735,
   93
  ],
  [
   284,
   677
  ],
  [
   297,
   349
  ],
  [
   406,
   308
  ],
  [
   912,
   1427
  ],
  [
   1762,
   108
  ],
  [
   305,
   105
  ],
  [
   342,
   106
  ],
  [
   116,
   465
  ],
  [
   271,
   119
  ],
  [
   1323,
   296
  ],
  [
   197,
   185
  ],
  [
   283,
   2033
  ],
  [
   1749,
   268
  ],
  [
   1211,
   272
  ],
  [
   439,
   311
  ],
  [
   299,
   1571
  ],
  [
   412,
   256
  ],
  [
   320,
   418
  ],
  [
   107,
   623
  ],
  [
   613,
   860
  ],
  [
   1096,
   2040
  ],
  [
   382,
   288
  ],
  [
   262,
   121
  ],
  [
   651,
   105
  ],
  [
   1362,
   690
  ],
  [
   260,
   364
  ],
  [
   694,
   1336
  ],
  [
   316,
   353
  ],
  [
   427,
   409
  ],
  [
   651,
   97
  ],
  [
   1323,
   312
  ],
  [
   412,
   294
  ],
  [
   653,
   932
  ],
  [
   298,
   908
  ],
  [
   1827,
   315
  ],
  [
   108,
   100
  ],
  [
   279,
   431
  ],
  [
   283,
   1274
  ],
  [
   507,
   261
  ],
  [
   698,
   289
  ],
  [
   698,
   264
  ],
  [
   259,
   559
  ],
  [
   299,
   1602
  ],
  [
   32,
   295
  ],
  [
   106,
   784
  ],
  [
   1339,
   109
  ],
  [
   1518,
   266
  ],
  [
   771,
   119
  ],
  [
   421,
   256
  ],
  [
   118,
   377
  ],
  [
   67,
   104
  ],
  [
   976,
   386
  ],
  [
   459,
   1484
  ],
  [
   352,
   430
  ],
  [
   490,
   2069
  ],
  [
   379,
   950
  ],
  [
   407,
   1036
  ],
  [
   345,
   108
  ],
  [
   516,
   258
  ],
  [
   98,
   330
  ],
  [
   318,
   106
  ],
  [
   343,
   520
  ],
  [
   282,
   730
  ],
  [
   1071,
   281
  ],
  [
   263,
   668
  ],
  [
   324,
   82
  ],
  [
   485,
   119
  ],
  [
   270,
   304
  ],
  [
   122,
   462
  ],
  [
   489,
   425
  ],
  [
   640,
   1951
  ],
  [
   2320,
   308
  ],
  [
   516,
   308
  ],
  [
   411,
   885
  ],
  [
   1283,
   462
  ],
  [
   1696,
   286
  ],
  [
   460,
   101
  ],
  [
   298,
   764
  ],
  [
   1701,
   103
  ],
  [
   484,
   353
  ],
  [
   2603,
   411
  ],
  [
   780,
   365
  ],
  [
   116,
   365
  ],
  [
   122,
   119
  ],
  [
   718,
   267
  ],
  [
   299,
   296
  ],
  [
   1200,
   869
  ],
  [
   333,
   948
  ],
  [
   103,
   305
  ],
  [
   1883,
   514
  ],
  [
   597,
   1671
  ],
  [
   260,
   369
  ],
  [
   83,
   80
  ],
  [
   2328,
   1448
  ],
  [
   99,
   341
  ],
  [
   575,
   363
  ],
  [
   644,
   288
  ],
  [
   781,
   266
  ],
  [
   1235,
   353
  ],
  [
   1416,
   334
  ],
  [
   342,
   289
  ],
  [
   1254,
   359
  ],
  [
   1983,
   535
  ],
  [
   2506,
   112
  ],
  [
   912,
   424
  ],
  [
   1579,
   1150
  ],
  [
   532,
   108
  ],
  [
   1392,
   268
  ],
  [
   629,
   391
  ],
  [
   283,
   282
  ],
  [
   107,
   1545
  ],
  [
   1414,
   281
  ],
  [
   806,
   109
  ],
  [
   100,
   469
  ],
  [
   122,
   264
  ],
  [
   279,
   347
  ],
  [
   263,
   581
  ],
  [
   260,
   1507
  ],
  [
   446,
   312
  ],
  [
   2412,
   354
  ],
  [
   647,
   111
  ],
  [
   83,
   90
  ],
  [
   259,
   578
  ],
  [
   83,
   122
  ],
  [
   335,
   109
  ],
  [
   284,
   948
  ],
  [
   309,
   687
  ],
  [
   660,
   115
  ],
  [
   406,
   273
  ],
  [
   340,
   281
  ],
  [
   2088,
   314
  ],
  [
   1612,
   272
  ],
  [
   2151,
   2641
  ],
  [
   613,
   1138
  ],
  [
   1467,
   383
  ],
  [
   403,
   272
  ],
  [
   482,
   106
  ],
  [
   1866,
   303
  ],
  [
   342,
   108
  ],
  [
   334,
   107
  ],
  [
   460,
   354
  ],
  [
   289,
   288
  ],
  [
   262,
   2559
  ],
  [
   2508,
   110
  ],
  [
   523,
   349
  ],
  [
   32,
   469
  ],
  [
   281,
   409
  ],
  [
   608,
   264
  ],
  [
   316,
   289
  ],
  [
   536,
   360
  ],
  [
   347,
   302
  ],
  [
   32,
   89
  ],
  [
   588,
   478
  ],
  [
   609,
   108
  ],
  [
   97,
   100
  ],
  [
   378,
   308
  ],
  [
   2157,
   1019
  ],
  [
   666,
   107
  ],
  [
   1145,
   2754
  ],
  [
   276,
   305
  ],
  [
   257,
   1177
  ],
  [
   597,
   261
  ],
  [
   568,
   329
  ],
  [
   279,
   1568
  ],
  [
   1404,
   288
  ],
  [
   1527,
   319
  ],
  [
   79,
   82
  ],
  [
   1419,
   269
  ],
  [
   274,
   99
  ],
  [
   87,
   256
  ],
  [
   318,
   272
  ],
  [
   103,
   274
  ],
  [
   470,
   2359
  ],
  [
   334,
   289
  ],
  [
   366,
   121
  ],
  [
   100,
   518
  ],
  [
   65,
   77
  ],
  [
   423,
   527
  ],
  [
   1188,
   109
  ],
  [
   110,
   557
  ],
  [
   407,
   121
  ],
  [
   119,
   441
  ],
  [
   1343,
   109
  ],
  [
   1112,
   105
  ],
  [
   275,
   420
  ],
  [
   2186,
   1246
  ],
  [
   107,
   368
  ],
  [
   359,
   265
  ],
  [
   100,
   312
  ],
  [
   1556,
   270
  ],
  [
   594,
   409
  ],
  [
   403,
   270
  ],
  [
   274,
   122
  ],
  [
   107,
   543
  ],
  [
   408,
   360
  ],
  [
   495,
   722
  ],
  [
   331,
   273
  ],
  [
   1093,
   591
  ],
  [
   413,
   1598
  ],
  [
   316,
   886
  ],
  [
   277,
   1613
  ],
  [
   393,
   1360
  ],
  [
   993,
   667
  ],
  [
   276,
   314
  ],
  [
   299,
   2355
  ],
  [
   1445,
   288
  ],
  [
   489,
   261
  ],
  [
   1408,
   378
  ],
  [
   260,
   302
  ],
  [
   446,
   424
  ],
  [
   1312,
   107
  ],
  [
   913,
   551
  ],
  [
   391,
   314
  ],
  [
   1733,
   268
  ],
  [
   586,
   290
  ],
  [
   517,
   342
  ],
  [
   319,
   112
  ],
  [
   87,
   101
  ],
  [
   374,
   109
  ],
  [
   749,
   48
  ],
  [
   49,
   53
  ],
  [
   359,
   424
  ],
  [
   752,
   1249
  ],
  [
   865,
   1229
  ],
  [
   397,
   86
  ],
  [
   283,
   103
  ],
  [
   402,
   101
  ],
  [
   359,
   1360
  ],
  [
   284,
   327
  ],
  [
   488,
   273
  ],
  [
   943,
   122
  ],
  [
   100,
   626
  ],
  [
   482,
   290
  ],
  [
   394,
   527
  ],
  [
   314,
   764
  ],
  [
   383,
   258
  ],
  [
   1020,
   1151
  ],
  [
   1160,
   109
  ],
  [
   506,
   305
  ],
  [
   275,
   469
  ],
  [
   266,
   650
  ],
  [
   337,
   115
  ],
  [
   939,
   270
  ],
  [
   119,
   302
  ],
  [
   299,
   730
  ],
  [
   414,
   1134
  ],
  [
   572,
   791
  ],
  [
   1532,
   330
  ],
  [
   98,
   267
  ],
  [
   2263,
   560
  ],
  [
   301,
   282
  ],
  [
   594,
   332
  ],
  [
   116,
   378
  ],
  [
   100,
   367
  ],
  [
   279,
   109
  ],
  [
   478,
   631
  ],
  [
   122,
   377
  ],
  [
   393,
   270
  ],
  [
   195,
   147
  ],
  [
   2389,
   311
  ],
  [
   285,
   536
  ],
  [
   726,
   466
  ],
  [
   1265,
   1989
  ],
  [
   392,
   296
  ],
  [
   526,
   106
  ],
  [
   1004,
   315
  ],
  [
   414,
   351
  ],
  [
   883,
   376
  ],
  [
   1120,
   109
  ],
  [
   108,
   307
  ],
  [
   762,
   114
  ],
  [
   275,
   294
  ],
  [
   320,
   340
  ],
  [
   498,
   1314
  ],
  [
   405,
   51
  ],
  [
   1054,
   108
  ],
  [
   69,
   78
  ],
  [
   462,
   109
  ],
  [
   608,
   469
  ],
  [
   300,
   2677
  ],
  [
   350,
   615
  ],
  [
   936,
   2096
  ],
  [
   284,
   1073
  ],
  [
   107,
   367
  ],
  [
   729,
   836
  ],
  [
   1761,
   335
  ],
  [
   547,
   2335
  ],
  [
   300,
   716
  ],
  [
   781,
   603
  ],
  [
   523,
   464
  ],
  [
   301,
   119
  ],
  [
   299,
   1011
  ],
  [
   783,
   269
  ],
  [
   284,
   964
  ],
  [
   343,
   813
  ],
  [
   300,
   326
  ],
  [
   356,
   321
  ],
  [
   46,
   41
  ],
  [
   1320,
   117
  ],
  [
   538,
   1173
  ],
  [
   501,
   466
  ],
  [
   1081,
   321
  ],
  [
   2568,
   374
  ],
  [
   447,
   327
  ],
  [
   2262,
   108
  ],
  [
   284,
   353
  ],
  [
   1039,
   390
  ],
  [
   535,
   105
  ],
  [
   122,
   626
  ],
  [
   451,
   1828
  ],
  [
   941,
   288
  ],
  [
   598,
   348
  ],
  [
   555,
   101
  ],
  [
   1010,
   465
  ],
  [
   471,
   1987
  ],
  [
   743,
   322
  ],
  [
   277,
   334
  ],
  [
   279,
   757
  ],
  [
   676,
   1453
  ],
  [
   977,
   835
  ],
  [
   298,
   2626
  ],
  [
   115,
   477
  ],
  [
   318,
   261
  ],
  [
   356,
   1799
  ],
  [
   343,
   110
  ],
  [
   103,
   302
  ],
  [
   624,
   109
  ],
  [
   360,
   111
  ],
  [
   68,
   309
  ],
  [
   569,
   1406
  ],
  [
   503,
   261
  ],
  [
   2168,
   477
  ],
  [
   392,
   872
  ],
  [
   1027,
   268
  ],
  [
   1952,
   106
  ],
  [
   679,
   293
  ],
  [
   1516,
   289
  ],
  [
   404,
   289
  ],
  [
   1125,
   398
  ],
  [
   1902,
   111
  ],
  [
   355,
   666
  ],
  [
   539,
   424
  ],
  [
   355,
   377
  ],
  [
   2765,
   2126
  ],
  [
   273,
   398
  ],
  [
   928,
   268
  ],
  [
   938,
   345
  ],
  [
   309,
   327
  ],
  [
   114,
   294
  ],
  [
   259,
   2624
  ],
  [
   613,
   265
  ],
  [
   712,
   292
  ],
  [
   115,
   2799
  ],
  [
   280,
   115
  ],
  [
   569,
   1158
  ],
  [
   114,
   263
  ],
  [
   267,
   959
  ],
  [
   299,
   520
  ],
  [
   320,
   409
  ],
  [
   1140,
   308
  ],
  [
   280,
   110
  ],
  [
   299,
   2234
  ],
  [
   271,
   315
  ],
  [
   1062,
   345
  ],
  [
   300,
   710
  ],
  [
   588,
   391
  ],
  [
   451,
   289
  ],
  [
   431,
   265
  ],
  [
   1593,
   272
  ],
  [
   1005,
   400
  ],
  [
   286,
   107
  ],
  [
   840,
   268
  ],
  [
   1144,
   292
  ],
  [
   892,
   314
  ],
  [
   830,
   424
  ],
  [
   370,
   329
  ],
  [
   338,
   617
  ],
  [
   346,
   2494
  ],
  [
   431,
   1391
  ],
  [
   2375,
   947
  ],
  [
   923,
   2338
  ],
  [
   316,
   1665
  ],
  [
   284,
   631
  ],
  [
   2588,
   2874
  ],
  [
   375,
   1858
  ],
  [
   442,
   411
  ],
  [
   116,
   650
  ],
  [
   299,
   339
  ],
  [
   538,
   478
  ],
  [
   324,
   305
  ],
  [
   427,
   1491
  ],
  [
   328,
   327
  ],
  [
   265,
   709
  ],
  [
   354,
   476
  ],
  [
   63,
   63
  ],
  [
   1257,
   1942
  ],
  [
   277,
   2617
  ],
  [
   1796,
   258
  ],
  [
   1330,
   1045
  ],
  [
   107,
   626
  ],
  [
   85,
   83
  ],
  [
   50,
   52
  ],
  [
   107,
   315
  ],
  [
   109,
   389
  ],
  [
   300,
   1208
  ],
  [
   324,
   256
  ],
  [
   350,
   562
  ],
  [
   848,
   266
  ],
  [
   318,
   1375
  ],
  [
   632,
   2884
  ],
  [
   721,
   649
  ],
  [
   1812,
   485
  ],
  [
   961,
   57
  ],
  [
   1297,
   117
  ],
  [
   1144,
   110
  ],
  [
   380,
   1828
  ],
  [
   362,
   492
  ],
  [
   304,
   464
  ],
  [
   455,
   261
  ],
  [
   866,
   455
  ],
  [
   392,
   768
  ],
  [
   555,
   111
  ],
  [
   438,
   309
  ],
  [
   84,
   65
  ],
  [
   556,
   114
  ],
  [
   866,
   523
  ],
  [
   3069,
   321
  ],
  [
   276,
   330
  ],
  [
   459,
   309
  ],
  [
   319,
   114
  ],
  [
   317,
   98
  ],
  [
   1271,
   280
  ],
  [
   307,
   110
  ],
  [
   334,
   348
  ],
  [
   2875,
   325
  ],
  [
   406,
   270
  ],
  [
   68,
   847
  ],
  [
   1200,
   310
  ],
  [
   658,
   288
  ],
  [
   516,
   288
  ],
  [
   375,
   768
  ],
  [
   1394,
   100
  ],
  [
   2255,
   1732
  ],
  [
   1418,
   121
  ],
  [
   1296,
   270
  ],
  [
   286,
   282
  ],
  [
   257,
   367
  ],
  [
   122,
   438
  ],
  [
   498,
   2581
  ],
  [
   435,
   834
  ],
  [
   530,
   639
  ],
  [
   956,
   292
  ],
  [
   283,
   830
  ],
  [
   2235,
   187
  ],
  [
   79,
   68
  ],
  [
   644,
   292
  ],
  [
   1125,
   529
  ],
  [
   99,
   706
  ],
  [
   275,
   297
  ],
  [
   829,
   430
  ],
  [
   1176,
   266
  ],
  [
   2897,
   918
  ],
  [
   787,
   360
  ],
  [
   1465,
   409
  ],
  [
   1013,
   933
  ],
  [
   658,
   268
  ],
  [
   414,
   339
  ],
  [
   829,
   649
  ],
  [
   766,
   391
  ],
  [
   2400,
   1818
  ],
  [
   266,
   109
  ],
  [
   283,
   1375
  ],
  [
   394,
   101
  ],
  [
   319,
   261
  ],
  [
   1652,
   422
  ],
  [
   832,
   681
  ],
  [
   79,
   98
  ],
  [
   468,
   267
  ],
  [
   1485,
   106
  ],
  [
   275,
   305
  ],
  [
   907,
   727
  ],
  [
   402,
   660
  ],
  [
   113,
   117
  ],
  [
   427,
   628
  ],
  [
   257,
   1669
  ],
  [
   403,
   110
  ],
  [
   568,
   425
  ],
  [
   545,
   2360
  ],
  [
   3166,
   325
  ],
  [
   310,
   110
  ],
  [
   115,
   267
  ],
  [
   1279,
   281
  ],
  [
   1347,
   265
  ],
  [
   490,
   267
  ],
  [
   310,
   258
  ],
  [
   1165,
   270
  ],
  [
   306,
   314
  ],
  [
   381,
   305
  ],
  [
   73,
   78
  ],
  [
   2225,
   1298
  ],
  [
   122,
   303
  ],
  [
   321,
   109
  ],
  [
   519,
   580
  ],
  [
   785,
   646
  ],
  [
   98,
   799
  ],
  [
   357,
   777
  ],
  [
   588,
   1659
  ],
  [
   282,
   343
  ],
  [
   2551,
   272
  ],
  [
   439,
   273
  ],
  [
   296,
   295
  ],
  [
   110,
   363
  ],
  [
   436,
   319
  ],
  [
   279,
   2602
  ],
  [
   109,
   377
  ],
  [
   355,
   343
  ],
  [
   2688,
   353
  ],
  [
   346,
   329
  ],
  [
   319,
   562
  ],
  [
   318,
   1596
  ],
  [
   2000,
   652
  ],
  [
   1875,
   348
  ],
  [
   412,
   273
  ],
  [
   114,
   326
  ],
  [
   67,
   90
  ],
  [
   454,
   308
  ],
  [
   568,
   295
  ],
  [
   316,
   937
  ],
  [
   423,
   483
  ],
  [
   1021,
   386
  ],
  [
   297,
   109
  ],
  [
   316,
   2628
  ],
  [
   417,
   466
  ],
  [
   317,
   307
  ],
  [
   279,
   2620
  ],
  [
   298,
   1106
  ],
  [
   316,
   1801
  ],
  [
   548,
   265
  ],
  [
   471,
   261
  ],
  [
   82,
   97
  ],
  [
   116,
   587
  ],
  [
   2535,
   1840
  ],
  [
   445,
   111
  ],
  [
   264,
   353
  ],
  [
   334,
   109
  ],
  [
   84,
   121
  ],
  [
   281,
   639
  ],
  [
   501,
   645
  ],
  [
   542,
   292
  ],
  [
   73,
   68
  ],
  [
   498,
   1073
  ],
  [
   1213,
   523
  ],
  [
   107,
   485
  ],
  [
   450,
   289
  ],
  [
   635,
   48
  ],
  [
   520,
   109
  ],
  [
   261,
   430
  ],
  [
   324,
   665
  ],
  [
   1315,
   347
  ],
  [
   2039,
   122
  ],
  [
   437,
   348
  ],
  [
   349,
   835
  ],
  [
   327,
   267
  ],
  [
   2798,
   359
  ],
  [
   512,
   408
  ],
  [
   640,
   946
  ],
  [
   411,
   273
  ],
  [
   1230,
   850
  ],
  [
   355,
   605
  ],
  [
   494,
   360
  ],
  [
   1789,
   844
  ],
  [
   2976,
   560
  ],
  [
   1656,
   816
  ],
  [
   484,
   816
  ],
  [
   333,
   348
  ],
  [
   284,
   280
  ],
  [
   276,
   1772
  ],
  [
   309,
   109
  ],
  [
   2187,
   433
  ],
  [
   1380,
   108
  ],
  [
   105,
   114
  ],
  [
   317,
   116
  ],
  [
   353,
   349
  ],
  [
   399,
   803
  ],
  [
   271,
   296
  ],
  [
   302,
   270
  ],
  [
   583,
   1174
  ],
  [
   312,
   114
  ],
  [
   857,
   386
  ],
  [
   302,
   1129
  ],
  [
   98,
   280
  ],
  [
   103,
   104
  ],
  [
   108,
   328
  ],
  [
   1520,
   2431
  ],
  [
   284,
   422
  ],
  [
   320,
   1666
  ],
  [
   355,
   256
  ],
  [
   324,
   745
  ],
  [
   257,
   623
  ],
  [
   866,
   103
  ],
  [
   2268,
   686
  ],
  [
   1235,
   351
  ],
  [
   849,
   302
  ],
  [
   1433,
   807
  ],
  [
   286,
   271
  ],
  [
   314,
   332
  ],
  [
   299,
   281
  ],
  [
   804,
   858
  ],
  [
   276,
   2838
  ],
  [
   1590,
   351
  ],
  [
   1400,
   403
  ],
  [
   274,
   272
  ],
  [
   313,
   1585
  ],
  [
   381,
   2284
  ],
  [
   606,
   1000
  ],
  [
   439,
   1319
  ],
  [
   317,
   2164
  ],
  [
   1071,
   526
  ],
  [
   482,
   107
  ],
  [
   1029,
   615
  ],
  [
   492,
   303
  ],
  [
   2858,
   308
  ],
  [
   1717,
   327
  ],
  [
   336,
   162
  ],
  [
   744,
   272
  ],
  [
   68,
   1036
  ],
  [
   734,
   117
  ],
  [
   676,
   1197
  ],
  [
   75,
   79
  ],
  [
   294,
   110
  ],
  [
   387,
   148
  ],
  [
   103,
   1177
  ],
  [
   819,
   748
  ],
  [
   1685,
   105
  ],
  [
   99,
   768
  ],
  [
   285,
   261
  ],
  [
   279,
   893
  ],
  [
   299,
   1430
  ],
  [
   32,
   909
  ],
  [
   621,
   1666
  ],
  [
   1706,
   1350
  ],
  [
   67,
   72
  ],
  [
   105,
   115
  ],
  [
   2352,
   119
  ],
  [
   257,
   291
  ],
  [
   49,
   54
  ],
  [
   263,
   638
  ],
  [
   405,
   54
  ],
  [
   842,
   319
  ],
  [
   1283,
   1101
  ],
  [
   484,
   450
  ],
  [
   1309,
   268
  ],
  [
   1805,
   1077
  ],
  [
   103,
   546
  ],
  [
   322,
   107
  ],
  [
   696,
   1091
  ],
  [
   497,
   1894
  ],
  [
   343,
   315
  ],
  [
   917,
   351
  ],
  [
   278,
   291
  ],
  [
   659,
   1658
  ],
  [
   414,
   1328
  ],
  [
   1043,
   411
  ],
  [
   2109,
   770
  ],
  [
   299,
   2167
  ],
  [
   316,
   109
  ],
  [
   316,
   1158
  ],
  [
   486,
   268
  ],
  [
   1572,
   264
  ],
  [
   349,
   334
  ],
  [
   2063,
   473
  ],
  [
   408,
   115
  ],
  [
   457,
   117
  ],
  [
   257,
   550
  ],
  [
   109,
   562
  ],
  [
   527,
   2890
  ],
  [
   475,
   301
  ],
  [
   314,
   369
  ],
  [
   610,
   1841
  ],
  [
   327,
   1077
  ],
  [
   1332,
   261
  ],
  [
   308,
   327
  ],
  [
   349,
   449
  ],
  [
   49,
   56
  ],
  [
   116,
   499
  ],
  [
   389,
   303
  ],
  [
   1039,
   1045
  ],
  [
   516,
   292
  ],
  [
   1465,
   109
  ],
  [
   109,
   893
  ],
  [
   283,
   1011
  ],
  [
   445,
   2200
  ],
  [
   944,
   48
  ],
  [
   460,
   1511
  ],
  [
   485,
   302
  ],
  [
   1071,
   115
  ],
  [
   289,
   110
  ],
  [
   352,
   799
  ],
  [
   701,
   403
  ],
  [
   299,
   1502
  ],
  [
   355,
   105
  ],
  [
   920,
   272
  ],
  [
   102,
   256
  ],
  [
   405,
   55
  ],
  [
   283,
   327
  ],
  [
   405,
   56
  ],
  [
   314,
   110
  ],
  [
   107,
   681
  ],
  [
   408,
   426
  ],
  [
   287,
   293
  ],
  [
   111,
   108
  ],
  [
   391,
   106
  ],
  [
   1616,
   114
  ],
  [
   1646,
   112
  ],
  [
   325,
   1083
  ],
  [
   116,
   429
  ],
  [
   719,
   330
  ],
  [
   437,
   295
  ],
  [
   646,
   302
  ],
  [
   1295,
   282
  ],
  [
   299,
   656
  ],
  [
   701,
   103
  ],
  [
   109,
   112
  ],
  [
   1988,
   898
  ],
  [
   413,
   903
  ],
  [
   356,
   101
  ],
  [
   333,
   716
  ],
  [
   32,
   124
  ],
  [
   1187,
   110
  ],
  [
   276,
   267
  ],
  [
   631,
   268
  ],
  [
   284,
   330
  ],
  [
   76,
   105
  ],
  [
   502,
   345
  ],
  [
   1863,
   1862
  ],
  [
   284,
   3235
  ],
  [
   746,
   409
  ],
  [
   304,
   292
  ],
  [
   794,
   98
  ],
  [
   436,
   107
  ],
  [
   316,
   342
  ],
  [
   284,
   286
  ],
  [
   522,
   386
  ],
  [
   32,
   43
  ],
  [
   382,
   261
  ],
  [
   116,
   291
  ],
  [
   79,
   83
  ],
  [
   360,
   117
  ],
  [
   831,
   1601
  ],
  [
   333,
   334
  ],
  [
   1044,
   403
  ],
  [
   2266,
   65
  ],
  [
   1554,
   308
  ],
  [
   318,
   631
  ],
  [
   355,
   391
  ],
  [
   268,
   99
  ],
  [
   523,
   617
  ],
  [
   682,
   1872
  ],
  [
   773,
   2158
  ],
  [
   1263,
   2422
  ],
  [
   346,
   302
  ],
  [
   266,
   447
  ],
  [
   828,
   1107
  ],
  [
   752,
   349
  ],
  [
   49,
   52
  ],
  [
   370,
   373
  ],
  [
   1026,
   343
  ],
  [
   879,
   297
  ],
  [
   304,
   302
  ],
  [
   317,
   109
  ],
  [
   519,
   1488
  ],
  [
   861,
   377
  ],
  [
   275,
   114
  ],
  [
   1651,
   1547
  ],
  [
   2415,
   331
  ],
  [
   98,
   303
  ],
  [
   316,
   271
  ],
  [
   263,
   481
  ],
  [
   1490,
   2448
  ],
  [
   281,
   291
  ],
  [
   531,
   700
  ],
  [
   279,
   315
  ],
  [
   2185,
   700
  ],
  [
   2277,
   576
  ],
  [
   110,
   261
  ],
  [
   570,
   364
  ],
  [
   1597,
   2616
  ],
  [
   65,
   80
  ],
  [
   116,
   434
  ],
  [
   84,
   552
  ],
  [
   107,
   589
  ],
  [
   318,
   122
  ],
  [
   289,
   396
  ],
  [
   318,
   554
  ],
  [
   438,
   332
  ],
  [
   282,
   306
  ],
  [
   314,
   302
  ],
  [
   322,
   349
  ],
  [
   621,
   109
  ],
  [
   116,
   543
  ],
  [
   479,
   312
  ],
  [
   936,
   3019
  ],
  [
   314,
   270
  ],
  [
   393,
   107
  ],
  [
   1532,
   1891
  ],
  [
   286,
   1469
  ],
  [
   417,
   1048
  ],
  [
   278,
   1198
  ],
  [
   352,
   297
  ],
  [
   475,
   297
  ],
  [
   1486,
   2438
  ],
  [
   719,
   824
  ],
  [
   196,
   132
  ],
  [
   427,
   291
  ],
  [
   1509,
   390
  ],
  [
   307,
   447
  ],
  [
   1971,
   296
  ],
  [
   532,
   286
  ],
  [
   80,
   1191
  ],
  [
   840,
   308
  ],
  [
   115,
   345
  ],
  [
   379,
   1136
  ],
  [
   267,
   99
  ],
  [
   122,
   376
  ],
  [
   501,
   2175
  ],
  [
   437,
   309
  ],
  [
   1201,
   998
  ],
  [
   3021,
   3326
  ],
  [
   2006,
   345
  ],
  [
   266,
   374
  ],
  [
   625,
   714
  ],
  [
   333,
   359
  ],
  [
   299,
   3430
  ],
  [
   1954,
   664
  ],
  [
   110,
   292
  ],
  [
   317,
   3341
  ],
  [
   103,
   297
  ],
  [
   2071,
   514
  ],
  [
   262,
   1314
  ],
  [
   671,
   386
  ],
  [
   732,
   345
  ],
  [
   1002,
   273
  ],
  [
   490,
   667
  ],
  [
   114,
   443
  ],
  [
   392,
   949
  ],
  [
   296,
   289
  ],
  [
   274,
   291
  ],
  [
   1824,
   2595
  ],
  [
   625,
   802
  ],
  [
   448,
   730
  ],
  [
   673,
   266
  ],
  [
   648,
   388
  ],
  [
   445,
   700
  ],
  [
   314,
   106
  ],
  [
   341,
   533
  ],
  [
   1371,
   1594
  ],
  [
   122,
   286
  ],
  [
   318,
   1456
  ],
  [
   316,
   265
  ],
  [
   65,
   76
  ],
  [
   111,
   1728
  ],
  [
   2430,
   1057
  ],
  [
   320,
   117
  ],
  [
   676,
   1303
  ],
  [
   330,
   307
  ],
  [
   342,
   291
  ],
  [
   451,
   106
  ],
  [
   1644,
   106
  ],
  [
   265,
   614
  ],
  [
   307,
   289
  ],
  [
   68,
   97
  ],
  [
   399,
   408
  ],
  [
   1211,
   603
  ],
  [
   284,
   329
  ],
  [
   609,
   790
  ],
  [
   298,
   559
  ],
  [
   290,
   690
  ],
  [
   282,
   305
  ],
  [
   259,
   623
  ],
  [
   414,
   453
  ],
  [
   412,
   527
  ],
  [
   742,
   708
  ],
  [
   262,
   1503
  ],
  [
   488,
   687
  ],
  [
   413,
   738
  ],
  [
   602,
   453
  ],
  [
   276,
   995
  ],
  [
   109,
   626
  ],
  [
   1099,
   1760
  ],
  [
   260,
   724
  ],
  [
   525,
   1129
  ],
  [
   414,
   434
  ],
  [
   257,
   264
  ],
  [
   257,
   559
  ],
  [
   515,
   543
  ],
  [
   918,
   288
  ],
  [
   451,
   476
  ],
  [
   1021,
   878
  ],
  [
   101,
   116
  ],
  [
   49,
   51
  ],
  [
   349,
   940
  ],
  [
   1176,
   360
  ],
  [
   109,
   268
  ],
  [
   271,
   269
  ],
  [
   819,
   3306
  ],
  [
   814,
   756
  ],
  [
   1068,
   115
  ],
  [
   332,
   295
  ],
  [
   1873,
   328
  ],
  [
   439,
   97
  ],
  [
   1126,
   2324
  ],
  [
   311,
   119
  ],
  [
   75,
   83
  ],
  [
   291,
   1149
  ],
  [
   528,
   713
  ],
  [
   849,
   305
  ],
  [
   312,
   302
  ],
  [
   275,
   486
  ],
  [
   279,
   267
  ],
  [
   1778,
   322
  ],
  [
   312,
   110
  ],
  [
   2495,
   1074
  ],
  [
   379,
   477
  ],
  [
   318,
   1991
  ],
  [
   74,
   117
  ],
  [
   347,
   514
  ],
  [
   480,
   1191
  ],
  [
   297,
   295
  ],
  [
   750,
   112
  ],
  [
   1250,
   3344
  ],
  [
   535,
   1412
  ],
  [
   50,
   635
  ],
  [
   279,
   314
  ],
  [
   299,
   985
  ],
  [
   103,
   294
  ],
  [
   2746,
   1865
  ],
  [
   119,
   115
  ],
  [
   586,
   1585
  ],
  [
   1333,
   272
  ],
  [
   399,
   2228
  ],
  [
   3037,
   268
  ],
  [
   375,
   115
  ],
  [
   98,
   382
  ],
  [
   116,
   425
  ],
  [
   1167,
   111
  ],
  [
   262,
   266
  ],
  [
   478,
   109
  ],
  [
   75,
   492
  ],
  [
   103,
   321
  ],
  [
   1006,
   565
  ],
  [
   76,
   101
  ],
  [
   1543,
   106
  ],
  [
   1736,
   466
  ],
  [
   300,
   578
  ],
  [
   352,
   2001
  ],
  [
   259,
   2828
  ],
  [
   685,
   315
  ],
  [
   1194,
   2816
  ],
  [
   32,
   108
  ],
  [
   1490,
   326
  ],
  [
   83,
   97
  ],
  [
   815,
   294
  ],
  [
   317,
   2576
  ],
  [
   417,
   267
  ],
  [
   1404,
   363
  ],
  [
   1520,
   2757
  ],
  [
   2026,
   844
  ],
  [
   318,
   738
  ],
  [
   1194,
   1561
  ],
  [
   889,
   1186
  ],
  [
   299,
   321
  ],
  [
   652,
   637
  ],
  [
   609,
   292
  ],
  [
   838,
   363
  ],
  [
   1063,
   303
  ],
  [
   402,
   390
  ],
  [
   682,
   3540
  ],
  [
   2285,
   647
  ],
  [
   505,
   880
  ],
  [
   115,
   264
  ],
  [
   2105,
   455
  ],
  [
   107,
   1177
  ],
  [
   277,
   343
  ],
  [
   911,
   426
  ],
  [
   325,
   297
  ],
  [
   381,
   908
  ],
  [
   490,
   327
  ],
  [
   850,
   290
  ],
  [
   1809,
   812
  ],
  [
   1866,
   420
  ],
  [
   110,
   650
  ],
  [
   262,
   311
  ],
  [
   602,
   261
  ],
  [
   1328,
   447
  ],
  [
   277,
   2544
  ],
  [
   516,
   315
  ],
  [
   1533,
   119
  ],
  [
   512,
   329
  ],
  [
   1954,
   281
  ],
  [
   1148,
   264
  ],
  [
   747,
   2747
  ],
  [
   32,
   329
  ],
  [
   352,
   1106
  ],
  [
   641,
   1127
  ],
  [
   742,
   862
  ],
  [
   536,
   330
  ],
  [
   116,
   709
  ],
  [
   397,
   364
  ],
  [
   885,
   268
  ],
  [
   262,
   347
  ],
  [
   1265,
   798
  ],
  [
   285,
   1409
  ],
  [
   122,
   321
  ],
  [
   2201,
   581
  ],
  [
   675,
   2653
  ],
  [
   472,
   1326
  ],
  [
   298,
   3111
  ],
  [
   368,
   115
  ],
  [
   439,
   111
  ],
  [
   85,
   82
  ],
  [
   753,
   117
  ],
  [
   316,
   1430
  ],
  [
   405,
   57
  ],
  [
   260,
   950
  ],
  [
   80,
   273
  ],
  [
   755,
   635
  ],
  [
   360,
   295
  ],
  [
   603,
   266
  ],
  [
   261,
   108
  ],
  [
   119,
   425
  ],
  [
   306,
   1022
  ],
  [
   542,
   363
  ],
  [
   1820,
   1314
  ],
  [
   343,
   845
  ],
  [
   282,
   406
  ],
  [
   299,
   554
  ],
  [
   378,
   268
  ],
  [
   333,
   2502
  ],
  [
   32,
   62
  ],
  [
   75,
   65
  ],
  [
   320,
   2812
  ],
  [
   1332,
   328
  ],
  [
   1943,
   360
  ],
  [
   857,
   690
  ],
  [
   436,
   1426
  ],
  [
   792,
   295
  ],
  [
   106,
   268
  ],
  [
   106,
   348
  ],
  [
   87,
   305
  ],
  [
   1969,
   2923
  ],
  [
   2240,
   295
  ],
  [
   2573,
   3243
  ],
  [
   1358,
   302
  ],
  [
   705,
   369
  ],
  [
   1062,
   409
  ],
  [
   98,
   1033
  ],
  [
   102,
   121
  ],
  [
   1617,
   1544
  ],
  [
   479,
   383
  ],
  [
   1435,
   345
  ],
  [
   106,
   303
  ],
  [
   394,
   305
  ],
  [
   315,
   258
  ],
  [
   358,
   560
  ],
  [
   103,
   301
  ],
  [
   402,
   293
  ],
  [
   783,
   1694
  ],
  [
   500,
   267
  ],
  [
   970,
   306
  ],
  [
   103,
   377
  ],
  [
   1020,
   270
  ],
  [
   105,
   295
  ],
  [
   75,
   73
  ],
  [
   501,
   666
  ],
  [
   115,
   465
  ],
  [
   690,
   308
  ],
  [
   3164,
   1491
  ],
  [
   522,
   2308
  ],
  [
   1355,
   100
  ],
  [
   397,
   305
  ],
  [
   300,
   106
  ],
  [
   458,
   289
  ],
  [
   317,
   2912
  ],
  [
   606,
   403
  ],
  [
   1399,
   303
  ],
  [
   316,
   2074
  ],
  [
   448,
   1952
  ],
  [
   1934,
   3100
  ],
  [
   2044,
   122
  ],
  [
   107,
   289
  ],
  [
   449,
   109
  ],
  [
   299,
   798
  ],
  [
   316,
   445
  ],
  [
   501,
   326
  ],
  [
   307,
   368
  ],
  [
   32,
   118
  ],
  [
   1449,
   424
  ],
  [
   352,
   117
  ],
  [
   450,
   799
  ],
  [
   435,
   105
  ],
  [
   330,
   3173
  ],
  [
   488,
   110
  ],
  [
   1842,
   931
  ],
  [
   2751,
   108
  ],
  [
   115,
   425
  ],
  [
   1716,
   119
  ],
  [
   448,
   1817
  ],
  [
   334,
   826
  ],
  [
   303,
   565
  ],
  [
   299,
   1183
  ],
  [
   119,
   481
  ],
  [
   260,
   294
  ],
  [
   112,
   382
  ],
  [
   326,
   314
  ],
  [
   963,
   100
  ],
  [
   337,
   315
  ],
  [
   310,
   111
  ],
  [
   2072,
   496
  ],
  [
   1359,
   1773
  ],
  [
   659,
   258
  ],
  [
   729,
   967
  ],
  [
   2729,
   605
  ],
  [
   102,
   116
  ],
  [
   651,
   101
  ],
  [
   1977,
   529
  ],
  [
   357,
   2970
  ],
  [
   3390,
   1173
  ],
  [
   1943,
   426
  ],
  [
   108,
   306
  ],
  [
   116,
   453
  ],
  [
   1115,
   1107
  ],
  [
   534,
   1095
  ],
  [
   316,
   2121
  ],
  [
   457,
   109
  ],
  [
   397,
   273
  ],
  [
   2256,
   691
  ],
  [
   116,
   601
  ],
  [
   341,
   114
  ],
  [
   1082,
   289
  ],
  [
   356,
   328
  ],
  [
   1392,
   308
  ],
  [
   267,
   98
  ],
  [
   2485,
   426
  ],
  [
   257,
   289
  ],
  [
   260,
   1078
  ],
  [
   2720,
   1402
  ],
  [
   119,
   638
  ],
  [
   318,
   2253
  ],
  [
   366,
   293
  ],
  [
   3596,
   2244
  ],
  [
   49,
   55
  ],
  [
   395,
   65
  ],
  [
   761,
   2548
  ],
  [
   299,
   107
  ],
  [
   750,
   114
  ],
  [
   2005,
   290
  ],
  [
   316,
   368
  ],
  [
   982,
   1965
  ],
  [
   318,
   1575
  ],
  [
   3629,
   1561
  ],
  [
   50,
   53
  ],
  [
   318,
   1944
  ],
  [
   318,
   1324
  ],
  [
   432,
   112
  ],
  [
   555,
   389
  ],
  [
   83,
   307
  ],
  [
   284,
   716
  ],
  [
   1394,
   1909
  ],
  [
   349,
   374
  ],
  [
   828,
   286
  ],
  [
   1437,
   116
  ],
  [
   1486,
   514
  ],
  [
   928,
   3876
  ],
  [
   2220,
   2470
  ],
  [
   2744,
   3262
  ],
  [
   314,
   571
  ],
  [
   765,
   2589
  ],
  [
   1065,
   48
  ],
  [
   1204,
   3522
  ],
  [
   463,
   114
  ],
  [
   284,
   860
  ],
  [
   110,
   420
  ],
  [
   414,
   2083
  ],
  [
   2403,
   1372
  ],
  [
   275,
   347
  ],
  [
   345,
   326
  ],
  [
   277,
   2340
  ],
  [
   284,
   2749
  ],
  [
   321,
   107
  ],
  [
   468,
   388
  ],
  [
   1516,
   686
  ],
  [
   436,
   2982
  ],
  [
   978,
   937
  ],
  [
   275,
   273
  ],
  [
   407,
   411
  ],
  [
   78,
   73
  ],
  [
   109,
   267
  ],
  [
   301,
   290
  ],
  [
   333,
   296
  ],
  [
   1193,
   462
  ],
  [
   115,
   286
  ],
  [
   841,
   314
  ],
  [
   1031,
   294
  ],
  [
   332,
   258
  ],
  [
   271,
   378
  ],
  [
   414,
   292
  ],
  [
   694,
   1511
  ],
  [
   352,
   105
  ],
  [
   501,
   331
  ],
  [
   70,
   105
  ],
  [
   432,
   339
  ],
  [
   482,
   258
  ],
  [
   815,
   374
  ],
  [
   2002,
   295
  ],
  [
   2198,
   342
  ],
  [
   1093,
   388
  ],
  [
   494,
   818
  ],
  [
   42,
   42
  ],
  [
   48,
   53
  ],
  [
   460,
   799
  ],
  [
   1227,
   266
  ],
  [
   355,
   116
  ],
  [
   1629,
   1403
  ],
  [
   2823,
   2369
  ],
  [
   641,
   308
  ],
  [
   1804,
   542
  ],
  [
   660,
   861
  ],
  [
   678,
   715
  ],
  [
   766,
   1261
  ],
  [
   115,
   365
  ],
  [
   289,
   1045
  ],
  [
   299,
   1182
  ],
  [
   304,
   289
  ],
  [
   1834,
   296
  ],
  [
   366,
   329
  ],
  [
   1569,
   873
  ],
  [
   1593,
   1771
  ],
  [
   1141,
   826
  ],
  [
   80,
   82
  ],
  [
   712,
   261
  ],
  [
   83,
   340
  ],
  [
   108,
   108
  ],
  [
   479,
   353
  ],
  [
   1332,
   292
  ],
  [
   116,
   614
  ],
  [
   397,
   297
  ],
  [
   381,
   105
  ],
  [
   399,
   535
  ],
  [
   966,
   630
  ],
  [
   298,
   354
  ],
  [
   479,
   280
  ],
  [
   498,
   3089
  ],
  [
   111,
   328
  ],
  [
   1881,
   465
  ],
  [
   284,
   3748
  ],
  [
   316,
   3010
  ],
  [
   2207,
   309
  ],
  [
   100,
   453
  ],
  [
   463,
   727
  ],
  [
   1009,
   430
  ],
  [
   279,
   430
  ],
  [
   658,
   292
  ],
  [
   705,
   329
  ],
  [
   989,
   258
  ],
  [
   48,
   54
  ],
  [
   1504,
   116
  ],
  [
   318,
   342
  ],
  [
   497,
   710
  ],
  [
   414,
   102
  ],
  [
   774,
   1066
  ],
  [
   463,
   583
  ],
  [
   2632,
   41
  ],
  [
   298,
   280
  ],
  [
   375,
   872
  ],
  [
   2300,
   1412
  ],
  [
   109,
   417
  ],
  [
   320,
   2074
  ],
  [
   457,
   2436
  ],
  [
   1123,
   288
  ],
  [
   774,
   274
  ],
  [
   457,
   1232
  ],
  [
   58,
   41
  ],
  [
   316,
   2138
  ],
  [
   508,
   514
  ],
  [
   1701,
   455
  ],
  [
   97,
   291
  ],
  [
   375,
   296
  ],
  [
   849,
   1396
  ],
  [
   406,
   1293
  ],
  [
   545,
   117
  ],
  [
   262,
   302
  ],
  [
   2351,
   339
  ],
  [
   289,
   258
  ],
  [
   457,
   101
  ],
  [
   1431,
   295
  ],
  [
   103,
   309
  ],
  [
   262,
   291
  ],
  [
   299,
   1336
  ],
  [
   865,
   112
  ],
  [
   107,
   115
  ],
  [
   284,
   605
  ],
  [
   460,
   2001
  ],
  [
   3334,
   1353
  ],
  [
   2332,
   477
  ],
  [
   1408,
   314
  ],
  [
   1577,
   450
  ],
  [
   1551,
   326
  ],
  [
   444,
   462
  ],
  [
   498,
   2371
  ],
  [
   2570,
   644
  ],
  [
   2462,
   546
  ],
  [
   773,
   99
  ],
  [
   375,
   106
  ],
  [
   1143,
   281
  ],
  [
   515,
   3526
  ],
  [
   265,
   668
  ],
  [
   32,
   1252
  ],
  [
   373,
   327
  ],
  [
   3336,
   3426
  ],
  [
   73,
   84
  ],
  [
   320,
   478
  ],
  [
   2964,
   296
  ],
  [
   977,
   638
  ],
  [
   386,
   289
  ],
  [
   1816,
   667
  ],
  [
   1140,
   266
  ],
  [
   374,
   348
  ],
  [
   450,
   311
  ],
  [
   737,
   348
  ],
  [
   1836,
   360
  ],
  [
   484,
   287
  ],
  [
   1606,
   295
  ],
  [
   458,
   266
  ],
  [
   357,
   2061
  ],
  [
   116,
   263
  ],
  [
   260,
   258
  ],
  [
   403,
   391
  ],
  [
   1262,
   812
  ],
  [
   270,
   367
  ],
  [
   78,
   69
  ],
  [
   1161,
   565
  ],
  [
   2490,
   508
  ],
  [
   277,
   340
  ],
  [
   676,
   578
  ],
  [
   1304,
   1469
  ],
  [
   259,
   2845
  ],
  [
   117,
   476
  ],
  [
   311,
   270
  ],
  [
   588,
   319
  ],
  [
   357,
   266
  ],
  [
   1131,
   946
  ],
  [
   78,
   111
  ],
  [
   2832,
   383
  ],
  [
   1844,
   1707
  ],
  [
   3033,
   715
  ],
  [
   299,
   1442
  ],
  [
   952,
   322
  ],
  [
   475,
   354
  ],
  [
   377,
   116
  ],
  [
   673,
   907
  ],
  [
   848,
   535
  ],
  [
   1626,
   867
  ],
  [
   259,
   2162
  ],
  [
   3050,
   334
  ],
  [
   119,
   303
  ],
  [
   419,
   100
  ],
  [
   451,
   619
  ],
  [
   1420,
   514
  ],
  [
   1457,
   33
  ],
  [
   346,
   474
  ],
  [
   286,
   2538
  ],
  [
   331,
   817
  ],
  [
   606,
   105
  ],
  [
   809,
   386
  ],
  [
   110,
   321
  ],
  [
   1791,
   306
  ],
  [
   299,
   97
  ],
  [
   277,
   672
  ],
  [
   275,
   487
  ],
  [
   100,
   309
  ],
  [
   1217,
   3615
  ],
  [
   2180,
   1570
  ],
  [
   1924,
   846
  ],
  [
   272,
   296
  ],
  [
   1311,
   3525
  ],
  [
   506,
   1570
  ],
  [
   1602,
   348
  ],
  [
   459,
   286
  ],
  [
   569,
   2428
  ],
  [
   956,
   110
  ],
  [
   282,
   326
  ],
  [
   283,
   802
  ],
  [
   575,
   429
  ],
  [
   359,
   116
  ],
  [
   427,
   452
  ],
  [
   1068,
   109
  ],
  [
   956,
   708
  ],
  [
   270,
   305
  ],
  [
   2505,
   153
  ],
  [
   982,
   268
  ],
  [
   356,
   1407
  ],
  [
   1254,
   1397
  ],
  [
   333,
   114
  ],
  [
   466,
   349
  ],
  [
   3387,
   727
  ],
  [
   644,
   109
  ],
  [
   297,
   464
  ],
  [
   324,
   389
  ],
  [
   66,
   121
  ],
  [
   394,
   764
  ],
  [
   1597,
   492
  ],
  [
   575,
   292
  ],
  [
   100,
   330
  ],
  [
   417,
   282
  ],
  [
   318,
   672
  ],
  [
   458,
   454
  ],
  [
   397,
   1367
  ],
  [
   2070,
   1615
  ],
  [
   298,
   114
  ],
  [
   277,
   1763
  ],
  [
   337,
   290
  ],
  [
   1577,
   382
  ],
  [
   488,
   620
  ],
  [
   2829,
   1662
  ],
  [
   275,
   115
  ],
  [
   299,
   3580
  ],
  [
   352,
   274
  ],
  [
   977,
   684
  ],
  [
   458,
   433
  ],
  [
   2300,
   296
  ],
  [
   1504,
   326
  ],
  [
   261,
   117
  ],
  [
   643,
   3429
  ],
  [
   66,
   97
  ],
  [
   2480,
   367
  ],
  [
   355,
   3750
  ],
  [
   986,
   105
  ],
  [
   299,
   400
  ],
  [
   338,
   109
  ],
  [
   320,
   1260
  ],
  [
   380,
   112
  ],
  [
   318,
   668
  ],
  [
   299,
   378
  ],
  [
   116,
   589
  ],
  [
   1125,
   326
  ],
  [
   111,
   117
  ],
  [
   448,
   1484
  ],
  [
   2586,
   681
  ],
  [
   355,
   325
  ],
  [
   618,
   100
  ],
  [
   682,
   2385
  ],
  [
   353,
   108
  ],
  [
   1825,
   271
  ],
  [
   1990,
   3273
  ],
  [
   2332,
   817
  ],
  [
   277,
   3855
  ],
  [
   679,
   2607
  ],
  [
   2835,
   268
  ],
  [
   312,
   309
  ],
  [
   1419,
   297
  ],
  [
   66,
   305
  ],
  [
   284,
   383
  ],
  [
   299,
   1289
  ],
  [
   2161,
   398
  ],
  [
   3427,
   409
  ],
  [
   260,
   3609
  ],
  [
   1224,
   408
  ],
  [
   299,
   111
  ],
  [
   271,
   570
  ],
  [
   277,
   291
  ],
  [
   284,
   3085
  ],
  [
   421,
   261
  ],
  [
   794,
   409
  ],
  [
   3047,
   1154
  ],
  [
   80,
   301
  ],
  [
   460,
   280
  ],
  [
   1617,
   2911
  ],
  [
   115,
   99
  ],
  [
   399,
   102
  ],
  [
   815,
   871
  ],
  [
   329,
   100
  ],
  [
   276,
   1367
  ],
  [
   277,
   937
  ],
  [
   659,
   393
  ],
  [
   1161,
   953
  ],
  [
   515,
   699
  ],
  [
   1250,
   280
  ],
  [
   761,
   353
  ],
  [
   1075,
   455
  ],
  [
   320,
   111
  ],
  [
   277,
   297
  ],
  [
   316,
   605
  ],
  [
   2852,
   1270
  ],
  [
   1167,
   97
  ],
  [
   1888,
   2379
  ],
  [
   270,
   303
  ],
  [
   300,
   273
  ],
  [
   603,
   295
  ],
  [
   110,
   626
  ],
  [
   277,
   266
  ],
  [
   1780,
   487
  ],
  [
   270,
   376
  ],
  [
   284,
   3758
  ],
  [
   558,
   108
  ],
  [
   259,
   1647
  ],
  [
   694,
   321
  ],
  [
   283,
   520
  ],
  [
   300,
   508
  ],
  [
   73,
   83
  ],
  [
   284,
   1741
  ],
  [
   2406,
   334
  ],
  [
   282,
   302
  ],
  [
   87,
   563
  ],
  [
   109,
   443
  ],
  [
   555,
   2357
  ],
  [
   759,
   261
  ],
  [
   853,
   280
  ],
  [
   277,
   106
  ],
  [
   76,
   69
  ],
  [
   279,
   623
  ],
  [
   651,
   117
  ],
  [
   2427,
   770
  ],
  [
   1434,
   306
  ],
  [
   265,
   305
  ],
  [
   936,
   119
  ],
  [
   103,
   315
  ],
  [
   999,
   288
  ],
  [
   277,
   526
  ],
  [
   365,
   114
  ],
  [
   436,
   374
  ],
  [
   533,
   295
  ],
  [
   312,
   426
  ],
  [
   794,
   1352
  ],
  [
   277,
   1170
  ],
  [
   945,
   109
  ],
  [
   283,
   114
  ],
  [
   1301,
   1662
  ],
  [
   1378,
   288
  ],
  [
   4153,
   130
  ],
  [
   299,
   591
  ],
  [
   352,
   305
  ],
  [
   100,
   296
  ],
  [
   1061,
   272
  ],
  [
   1902,
   101
  ],
  [
   100,
   378
  ],
  [
   300,
   3704
  ],
  [
   688,
   106
  ],
  [
   394,
   273
  ],
  [
   115,
   499
  ],
  [
   976,
   321
  ],
  [
   2510,
   310
  ],
  [
   277,
   289
  ],
  [
   324,
   263
  ],
  [
   460,
   733
  ],
  [
   275,
   269
  ],
  [
   3077,
   1011
  ],
  [
   299,
   1105
  ],
  [
   358,
   623
  ],
  [
   4125,
   571
  ],
  [
   291,
   266
  ],
  [
   333,
   2678
  ],
  [
   528,
   270
  ],
  [
   1344,
   441
  ],
  [
   3784,
   1388
  ],
  [
   2597,
   390
  ],
  [
   773,
   335
  ],
  [
   1144,
   268
  ],
  [
   2196,
   551
  ],
  [
   358,
   106
  ],
  [
   685,
   296
  ],
  [
   3286,
   430
  ],
  [
   258,
   268
  ],
  [
   309,
   107
  ],
  [
   107,
   1568
  ],
  [
   418,
   1260
  ],
  [
   2450,
   312
  ],
  [
   376,
   111
  ],
  [
   87,
   2562
  ],
  [
   446,
   417
  ],
  [
   106,
   288
  ],
  [
   2652,
   1405
  ],
  [
   299,
   1861
  ],
  [
   322,
   464
  ],
  [
   516,
   302
  ],
  [
   530,
   117
  ],
  [
   767,
   105
  ],
  [
   66,
   111
  ],
  [
   1332,
   266
  ],
  [
   920,
   388
  ],
  [
   448,
   334
  ],
  [
   122,
   267
  ],
  [
   115,
   411
  ],
  [
   3338,
   3107
  ],
  [
   291,
   115
  ],
  [
   1566,
   258
  ],
  [
   322,
   109
  ],
  [
   300,
   882
  ],
  [
   2286,
   292
  ],
  [
   48,
   52
  ],
  [
   265,
   811
  ],
  [
   1633,
   554
  ],
  [
   329,
   388
  ],
  [
   2926,
   369
  ],
  [
   310,
   261
  ],
  [
   320,
   3927
  ],
  [
   2700,
   309
  ],
  [
   657,
   112
  ],
  [
   316,
   581
  ],
  [
   3903,
   727
  ],
  [
   313,
   526
  ],
  [
   357,
   311
  ],
  [
   107,
   329
  ],
  [
   729,
   722
  ],
  [
   337,
   517
  ],
  [
   309,
   447
  ],
  [
   326,
   465
  ],
  [
   557,
   286
  ],
  [
   297,
   290
  ],
  [
   577,
   327
  ],
  [
   99,
   937
  ],
  [
   1296,
   327
  ],
  [
   48,
   49
  ],
  [
   259,
   1716
  ],
  [
   65,
   117
  ],
  [
   1359,
   3171
  ],
  [
   111,
   331
  ],
  [
   1115,
   617
  ],
  [
   752,
   1746
  ],
  [
   1597,
   1428
  ],
  [
   110,
   112
  ],
  [
   1842,
   2899
  ],
  [
   262,
   647
  ],
  [
   316,
   710
  ],
  [
   607,
   280
  ],
  [
   32,
   3309
  ],
  [
   1121,
   325
  ],
  [
   1518,
   1322
  ],
  [
   85,
   4158
  ],
  [
   1742,
   565
  ],
  [
   280,
   98
  ],
  [
   291,
   349
  ],
  [
   352,
   2989
  ],
  [
   1626,
   822
  ],
  [
   65,
   75
  ],
  [
   80,
   665
  ],
  [
   514,
   306
  ],
  [
   785,
   110
  ],
  [
   588,
   386
  ],
  [
   420,
   99
  ],
  [
   522,
   286
  ],
  [
   992,
   3408
  ],
  [
   32,
   81
  ],
  [
   382,
   363
  ],
  [
   311,
   1002
  ],
  [
   333,
   1354
  ],
  [
   2155,
   266
  ],
  [
   2133,
   258
  ],
  [
   382,
   116
  ],
  [
   339,
   462
  ],
  [
   352,
   2315
  ],
  [
   1109,
   426
  ],
  [
   50,
   50
  ],
  [
   528,
   801
  ],
  [
   427,
   301
  ],
  [
   304,
   315
  ],
  [
   536,
   426
  ],
  [
   774,
   2315
  ],
  [
   266,
   272
  ],
  [
   721,
   3601
  ],
  [
   1774,
   272
  ],
  [
   299,
   2868
  ],
  [
   2959,
   308
  ],
  [
   1580,
   1139
  ],
  [
   595,
   49
  ],
  [
   515,
   769
  ],
  [
   1334,
   447
  ],
  [
   409,
   266
  ],
  [
   641,
   268
  ],
  [
   471,
   2399
  ],
  [
   445,
   273
  ],
  [
   2996,
   596
  ],
  [
   576,
   391
  ],
  [
   1135,
   656
  ],
  [
   1556,
   109
  ],
  [
   1766,
   879
  ],
  [
   2206,
   1515
  ],
  [
   3848,
   620
  ],
  [
   777,
   261
  ],
  [
   831,
   116
  ],
  [
   439,
   1857
  ],
  [
   300,
   953
  ],
  [
   119,
   296
  ],
  [
   100,
   365
  ],
  [
   277,
   903
  ],
  [
   3496,
   351
  ],
  [
   1800,
   331
  ],
  [
   2405,
   306
  ],
  [
   284,
   409
  ],
  [
   3423,
   536
  ],
  [
   304,
   363
  ],
  [
   2465,
   398
  ],
  [
   542,
   261
  ],
  [
   1358,
   536
  ],
  [
   1706,
   1102
  ],
  [
   1499,
   83
  ],
  [
   291,
   99
  ],
  [
   1543,
   290
  ],
  [
   474,
   557
  ],
  [
   2087,
   921
  ],
  [
   114,
   306
  ],
  [
   417,
   295
  ],
  [
   413,
   578
  ],
  [
   439,
   477
  ],
  [
   100,
   487
  ],
  [
   496,
   269
  ],
  [
   1265,
   454
  ],
  [
   102,
   102
  ],
  [
   354,
   286
  ],
  [
   357,
   114
  ],
  [
   316,
   860
  ],
  [
   469,
   426
  ],
  [
   320,
   1430
  ],
  [
   344,
   271
  ],
  [
   370,
   4091
  ],
  [
   444,
   430
  ],
  [
   1775,
   630
  ],
  [
   325,
   289
  ],
  [
   819,
   686
  ],
  [
   1131,
   110
  ],
  [
   2661,
   289
  ],
  [
   330,
   326
  ],
  [
   609,
   782
  ],
  [
   463,
   597
  ],
  [
   644,
   363
  ],
  [
   411,
   1259
  ],
  [
   48,
   51
  ],
  [
   307,
   107
  ],
  [
   280,
   122
  ],
  [
   431,
   103
  ],
  [
   3963,
   1116
  ],
  [
   1449,
   870
  ],
  [
   2742,
   360
  ],
  [
   381,
   431
  ],
  [
   593,
   1817
  ],
  [
   111,
   116
  ],
  [
   3082,
   302
  ],
  [
   90,
   101
  ],
  [
   413,
   477
  ],
  [
   285,
   3516
  ],
  [
   744,
   2685
  ],
  [
   352,
   315
  ],
  [
   1443,
   294
  ],
  [
   350,
   1083
  ],
  [
   1010,
   264
  ],
  [
   1035,
   48
  ],
  [
   279,
   1261
  ],
  [
   112,
   343
  ],
  [
   299,
   677
  ],
  [
   115,
   492
  ],
  [
   284,
   3148
  ],
  [
   1843,
   108
  ],
  [
   111,
   363
  ],
  [
   875,
   1811
  ],
  [
   1254,
   2454
  ],
  [
   602,
   425
  ],
  [
   300,
   3224
  ],
  [
   318,
   430
  ],
  [
   115,
   367
  ],
  [
   712,
   363
  ],
  [
   450,
   117
  ],
  [
   471,
   307
  ],
  [
   346,
   560
  ],
  [
   50,
   51
  ],
  [
   966,
   997
  ],
  [
   506,
   111
  ],
  [
   1223,
   115
  ],
  [
   100,
   499
  ],
  [
   766,
   868
  ],
  [
   432,
   108
  ],
  [
   2060,
   292
  ],
  [
   317,
   1393
  ],
  [
   262,
   105
  ],
  [
   355,
   358
  ],
  [
   402,
   79
  ],
  [
   78,
   65
  ],
  [
   284,
   258
  ],
  [
   299,
   1511
  ],
  [
   1215,
   383
  ],
  [
   419,
   388
  ],
  [
   593,
   592
  ],
  [
   1422,
   3818
  ],
  [
   284,
   265
  ],
  [
   110,
   614
  ],
  [
   322,
   617
  ],
  [
   432,
   1613
  ],
  [
   32,
   587
  ],
  [
   112,
   263
  ],
  [
   1017,
   343
  ],
  [
   2350,
   268
  ],
  [
   419,
   3256
  ],
  [
   106,
   292
  ],
  [
   2111,
   2443
  ],
  [
   77,
   256
  ],
  [
   445,
   258
  ],
  [
   1191,
   73
  ],
  [
   1946,
   465
  ],
  [
   2059,
   103
  ],
  [
   3307,
   345
  ],
  [
   337,
   327
  ],
  [
   1011,
   345
  ],
  [
   1500,
   281
  ],
  [
   3693,
   518
  ],
  [
   1765,
   368
  ],
  [
   497,
   2385
  ],
  [
   698,
   302
  ],
  [
   746,
   2882
  ],
  [
   1743,
   1100
  ],
  [
   1875,
   438
  ],
  [
   263,
   268
  ],
  [
   945,
   799
  ],
  [
   419,
   112
  ],
  [
   122,
   424
  ],
  [
   488,
   329
  ],
  [
   333,
   329
  ],
  [
   316,
   270
  ],
  [
   320,
   2507
  ],
  [
   2265,
   388
  ],
  [
   102,
   114
  ],
  [
   266,
   319
  ],
  [
   595,
   635
  ],
  [
   32,
   2019
  ],
  [
   314,
   261
  ],
  [
   355,
   390
  ],
  [
   399,
   1327
  ],
  [
   1623,
   466
  ],
  [
   316,
   390
  ],
  [
   1009,
   462
  ],
  [
   346,
   493
  ],
  [
   65,
   388
  ],
  [
   259,
   3788
  ],
  [
   866,
   98
  ],
  [
   3020,
   528
  ],
  [
   1223,
   790
  ],
  [
   2518,
   286
  ],
  [
   3185,
   648
  ],
  [
   357,
   335
  ],
  [
   268,
   426
  ],
  [
   284,
   270
  ],
  [
   331,
   332
  ],
  [
   2398,
   2398
  ],
  [
   350,
   686
  ],
  [
   1340,
   591
  ],
  [
   1039,
   918
  ],
  [
   1971,
   107
  ],
  [
   421,
   1526
  ],
  [
   115,
   614
  ],
  [
   446,
   1111
  ],
  [
   107,
   807
  ],
  [
   528,
   109
  ],
  [
   52,
   48
  ],
  [
   636,
   108
  ],
  [
   2000,
   1491
  ],
  [
   318,
   400
  ],
  [
   387,
   162
  ],
  [
   196,
   134
  ],
  [
   334,
   369
  ],
  [
   100,
   429
  ],
  [
   658,
   258
  ],
  [
   439,
   266
  ],
  [
   1433,
   398
  ],
  [
   409,
   268
  ],
  [
   792,
   286
  ],
  [
   1271,
   102
  ],
  [
   284,
   772
  ],
  [
   316,
   348
  ],
  [
   1928,
   3849
  ],
  [
   284,
   710
  ],
  [
   283,
   1575
  ],
  [
   342,
   309
  ],
  [
   263,
   684
  ],
  [
   471,
   1382
  ],
  [
   1642,
   482
  ],
  [
   397,
   996
  ],
  [
   316,
   830
  ],
  [
   1243,
   469
  ],
  [
   71,
   79
  ],
  [
   280,
   1293
  ],
  [
   609,
   291
  ],
  [
   2333,
   1989
  ],
  [
   381,
   256
  ],
  [
   379,
   3787
  ],
  [
   374,
   291
  ],
  [
   265,
   328
  ],
  [
   312,
   292
  ],
  [
   355,
   1108
  ],
  [
   105,
   327
  ],
  [
   272,
   288
  ],
  [
   344,
   273
  ],
  [
   705,
   536
  ],
  [
   2618,
   1155
  ],
  [
   337,
   603
  ],
  [
   357,
   1195
  ],
  [
   379,
   321
  ],
  [
   444,
   314
  ],
  [
   258,
   443
  ],
  [
   1778,
   367
  ],
  [
   307,
   268
  ],
  [
   32,
   120
  ],
  [
   1051,
   3760
  ],
  [
   282,
   860
  ],
  [
   1910,
   830
  ],
  [
   439,
   289
  ],
  [
   112,
   330
  ],
  [
   1893,
   1353
  ],
  [
   1216,
   48
  ],
  [
   325,
   700
  ],
  [
   75,
   2284
  ],
  [
   346,
   2562
  ],
  [
   355,
   456
  ],
  [
   259,
   3863
  ],
  [
   407,
   354
  ],
  [
   107,
   529
  ],
  [
   413,
   466
  ],
  [
   542,
   328
  ],
  [
   2307,
   329
  ],
  [
   3416,
   2821
  ],
  [
   65,
   68
  ],
  [
   379,
   310
  ],
  [
   1097,
   295
  ],
  [
   112,
   104
  ],
  [
   1700,
   268
  ],
  [
   1301,
   107
  ],
  [
   381,
   1277
  ],
  [
   110,
   957
  ],
  [
   279,
   115
  ],
  [
   318,
   841
  ],
  [
   355,
   527
  ],
  [
   575,
   434
  ],
  [
   530,
   3485
  ],
  [
   1780,
   388
  ],
  [
   100,
   443
  ],
  [
   1768,
   312
  ],
  [
   299,
   672
  ],
  [
   98,
   297
  ],
  [
   283,
   437
  ],
  [
   284,
   1236
  ],
  [
   413,
   791
  ],
  [
   299,
   273
  ],
  [
   750,
   373
  ],
  [
   100,
   306
  ],
  [
   116,
   1772
  ],
  [
   359,
   258
  ],
  [
   1215,
   103
  ],
  [
   100,
   302
  ],
  [
   1159,
   282
  ],
  [
   46,
   58
  ],
  [
   299,
   301
  ],
  [
   458,
   1298
  ],
  [
   283,
   639
  ],
  [
   1242,
   302
  ],
  [
   1290,
   2896
  ],
  [
   742,
   110
  ],
  [
   351,
   261
  ],
  [
   3740,
   420
  ],
  [
   2646,
   258
  ],
  [
   454,
   349
  ],
  [
   439,
   476
  ],
  [
   909,
   374
  ],
  [
   458,
   2802
  ],
  [
   318,
   280
  ],
  [
   656,
   335
  ],
  [
   438,
   817
  ],
  [
   2002,
   342
  ],
  [
   355,
   80
  ],
  [
   517,
   677
  ],
  [
   340,
   900
  ],
  [
   417,
   105
  ],
  [
   90,
   89
  ],
  [
   299,
   631
  ],
  [
   1014,
   358
  ],
  [
   1869,
   116
  ],
  [
   2059,
   2523
  ],
  [
   427,
   342
  ],
  [
   4328,
   319
  ],
  [
   370,
   258
  ],
  [
   3138,
   433
  ],
  [
   2675,
   998
  ],
  [
   1527,
   1335
  ],
  [
   476,
   295
  ],
  [
   282,
   376
  ],
  [
   421,
   2191
  ],
  [
   1552,
   312
  ],
  [
   2003,
   295
  ],
  [
   2507,
   1530
  ],
  [
   913,
   2083
  ],
  [
   1933,
   258
  ],
  [
   298,
   309
  ],
  [
   486,
   266
  ],
  [
   1586,
   258
  ],
  [
   2039,
   554
  ],
  [
   32,
   35
  ],
  [
   320,
   378
  ],
  [
   582,
   116
  ],
  [
   50,
   49
  ],
  [
   71,
   111
  ],
  [
   328,
   109
  ],
  [
   375,
   706
  ],
  [
   445,
   108
  ],
  [
   114,
   420
  ],
  [
   459,
   552
  ],
  [
   316,
   594
  ],
  [
   318,
   591
  ],
  [
   350,
   958
  ],
  [
   598,
   282
  ],
  [
   107,
   699
  ],
  [
   1595,
   349
  ],
  [
   275,
   3045
  ],
  [
   1650,
   351
  ],
  [
   4031,
   2949
  ],
  [
   852,
   681
  ],
  [
   1190,
   295
  ],
  [
   103,
   1106
  ],
  [
   2247,
   529
  ],
  [
   115,
   543
  ],
  [
   333,
   339
  ],
  [
   116,
   462
  ],
  [
   380,
   3337
  ],
  [
   688,
   290
  ],
  [
   433,
   687
  ],
  [
   1634,
   900
  ],
  [
   71,
   97
  ],
  [
   358,
   332
  ],
  [
   370,
   4562
  ],
  [
   2403,
   615
  ],
  [
   77,
   101
  ],
  [
   432,
   343
  ],
  [
   624,
   325
  ],
  [
   613,
   321
  ],
  [
   345,
   493
  ],
  [
   759,
   280
  ],
  [
   1190,
   308
  ],
  [
   107,
   469
  ],
  [
   257,
   818
  ],
  [
   299,
   812
  ],
  [
   350,
   2556
  ],
  [
   1242,
   258
  ],
  [
   32,
   364
  ],
  [
   32,
   360
  ],
  [
   3197,
   342
  ],
  [
   1429,
   647
  ],
  [
   1057,
   314
  ],
  [
   68,
   101
  ],
  [
   409,
   464
  ],
  [
   338,
   266
  ],
  [
   2216,
   820
  ],
  [
   1347,
   591
  ],
  [
   402,
   121
  ],
  [
   1250,
   1647
  ],
  [
   118,
   364
  ],
  [
   260,
   325
  ],
  [
   501,
   343
  ],
  [
   412,
   3298
  ],
  [
   990,
   1585
  ],
  [
   588,
   519
  ],
  [
   1721,
   310
  ],
  [
   107,
   359
  ],
  [
   744,
   280
  ],
  [
   962,
   2945
  ],
  [
   318,
   928
  ],
  [
   1486,
   1229
  ],
  [
   2292,
   109
  ],
  [
   673,
   261
  ],
  [
   1096,
   306
  ],
  [
   262,
   1383
  ],
  [
   923,
   3189
  ],
  [
   309,
   770
  ],
  [
   32,
   33
  ],
  [
   570,
   309
  ],
  [
   762,
   2697
  ],
  [
   320,
   576
  ],
  [
   620,
   332
  ],
  [
   413,
   431
  ],
  [
   480,
   122
  ],
  [
   1939,
   1422
  ],
  [
   1465,
   438
  ],
  [
   67,
   101
  ],
  [
   1288,
   48
  ],
  [
   721,
   280
  ],
  [
   326,
   528
  ],
  [
   643,
   1884
  ],
  [
   657,
   1154
  ],
  [
   1398,
   1936
  ],
  [
   110,
   434
  ],
  [
   418,
   288
  ],
  [
   1958,
   543
  ],
  [
   3005,
   342
  ],
  [
   300,
   950
  ],
  [
   320,
   462
  ],
  [
   87,
   97
  ],
  [
   676,
   509
  ],
  [
   1590,
   97
  ],
  [
   416,
   408
  ],
  [
   588,
   267
  ],
  [
   403,
   327
  ],
  [
   316,
   2075
  ],
  [
   336,
   148
  ],
  [
   119,
   684
  ],
  [
   515,
   304
  ],
  [
   274,
   1403
  ],
  [
   358,
   297
  ],
  [
   636,
   289
  ],
  [
   3356,
   270
  ],
  [
   1467,
   272
  ],
  [
   392,
   1136
  ],
  [
   4048,
   520
  ],
  [
   259,
   474
  ],
  [
   280,
   105
  ],
  [
   301,
   106
  ],
  [
   1188,
   438
  ],
  [
   337,
   309
  ],
  [
   48,
   55
  ],
  [
   326,
   112
  ],
  [
   990,
   271
  ],
  [
   1295,
   348
  ],
  [
   271,
   364
  ],
  [
   1330,
   918
  ],
  [
   282,
   597
  ],
  [
   742,
   3891
  ],
  [
   2673,
   1007
  ],
  [
   79,
   77
  ],
  [
   100,
   389
  ],
  [
   277,
   1463
  ],
  [
   558,
   107
  ],
  [
   815,
   3607
  ],
  [
   1069,
   115
  ],
  [
   609,
   591
  ],
  [
   262,
   1324
  ],
  [
   525,
   647
  ],
  [
   1899,
   733
  ],
  [
   2532,
   377
  ],
  [
   317,
   3566
  ],
  [
   362,
   1428
  ],
  [
   67,
   1174
  ],
  [
   100,
   290
  ],
  [
   558,
   120
  ],
  [
   3902,
   309
  ],
  [
   98,
   293
  ],
  [
   1555,
   266
  ],
  [
   115,
   580
  ],
  [
   344,
   97
  ],
  [
   1010,
   306
  ],
  [
   80,
   83
  ],
  [
   502,
   327
  ],
  [
   1459,
   529
  ],
  [
   923,
   389
  ],
  [
   115,
   437
  ],
  [
   307,
   315
  ],
  [
   1112,
   499
  ],
  [
   1810,
   308
  ],
  [
   395,
   389
  ],
  [
   1863,
   919
  ],
  [
   2485,
   360
  ],
  [
   4336,
   862
  ],
  [
   80,
   105
  ],
  [
   445,
   106
  ],
  [
   2859,
   332
  ],
  [
   4183,
   322
  ],
  [
   284,
   1252
  ],
  [
   849,
   280
  ],
  [
   1135,
   554
  ],
  [
   79,
   339
  ],
  [
   283,
   2681
  ],
  [
   317,
   687
  ],
  [
   325,
   503
  ],
  [
   1724,
   268
  ],
  [
   1634,
   509
  ],
  [
   116,
   2223
  ],
  [
   327,
   117
  ],
  [
   263,
   374
  ],
  [
   439,
   508
  ],
  [
   328,
   802
  ],
  [
   3238,
   325
  ],
  [
   48,
   50
  ],
  [
   115,
   454
  ],
  [
   357,
   450
  ],
  [
   1617,
   301
  ],
  [
   413,
   1406
  ],
  [
   939,
   310
  ],
  [
   48,
   56
  ],
  [
   100,
   425
  ],
  [
   846,
   303
  ],
  [
   1390,
   348
  ],
  [
   2811,
   281
  ],
  [
   382,
   110
  ],
  [
   262,
   4489
  ],
  [
   2853,
   383
  ],
  [
   48,
   57
  ],
  [
   314,
   464
  ],
  [
   971,
   691
  ],
  [
   304,
   261
  ],
  [
   435,
   101
  ],
  [
   71,
   351
  ],
  [
   547,
   69
  ],
  [
   114,
   256
  ],
  [
   260,
   2528
  ],
  [
   3731,
   100
  ],
  [
   619,
   106
  ],
  [
   286,
   667
  ],
  [
   1224,
   109
  ],
  [
   865,
   406
  ],
  [
   1204,
   627
  ],
  [
   3668,
   360
  ],
  [
   310,
   546
  ],
  [
   318,
   2822
  ],
  [
   1546,
   393
  ],
  [
   2600,
   596
  ],
  [
   539,
   351
  ],
  [
   1504,
   307
  ],
  [
   79,
   84
  ],
  [
   1347,
   98
  ],
  [
   279,
   103
  ],
  [
   797,
   98
  ],
  [
   743,
   998
  ],
  [
   65,
   87
  ],
  [
   117,
   112
  ],
  [
   1984,
   576
  ],
  [
   2118,
   587
  ],
  [
   333,
   383
  ],
  [
   78,
   1172
  ],
  [
   588,
   3297
  ],
  [
   78,
   105
  ],
  [
   79,
   66
  ],
  [
   1398,
   327
  ],
  [
   258,
   290
  ],
  [
   279,
   725
  ],
  [
   3929,
   102
  ],
  [
   77,
   305
  ],
  [
   299,
   1799
  ],
  [
   298,
   329
  ],
  [
   333,
   3561
  ],
  [
   412,
   483
  ],
  [
   683,
   627
  ],
  [
   3648,
   1962
  ],
  [
   84,
   117
  ],
  [
   268,
   473
  ],
  [
   338,
   114
  ],
  [
   1167,
   1639
  ],
  [
   578,
   100
  ],
  [
   1864,
   1872
  ],
  [
   2657,
   295
  ],
  [
   118,
   111
  ],
  [
   2348,
   292
  ],
  [
   284,
   900
  ],
  [
   32,
   934
  ],
  [
   1419,
   315
  ],
  [
   2092,
   3375
  ],
  [
   317,
   456
  ],
  [
   433,
   4268
  ],
  [
   551,
   261
  ],
  [
   2198,
   452
  ],
  [
   983,
   2104
  ],
  [
   316,
   114
  ],
  [
   1459,
   326
  ],
  [
   396,
   270
  ],
  [
   444,
   378
  ],
  [
   952,
   403
  ],
  [
   3595,
   282
  ],
  [
   1134,
   270
  ],
  [
   65,
   291
  ],
  [
   281,
   378
  ],
  [
   300,
   3108
  ],
  [
   1850,
   1270
  ],
  [
   1997,
   518
  ],
  [
   399,
   325
  ],
  [
   1573,
   335
  ],
  [
   1557,
   359
  ],
  [
   3831,
   111
  ],
  [
   971,
   1098
  ],
  [
   122,
   513
  ],
  [
   662,
   638
  ],
  [
   311,
   107
  ],
  [
   341,
   2942
  ],
  [
   2698,
   2236
  ],
  [
   1234,
   2401
  ],
  [
   3026,
   2390
  ],
  [
   110,
   429
  ],
  [
   257,
   667
  ],
  [
   316,
   2901
  ],
  [
   3757,
   562
  ],
  [
   316,
   2361
  ],
  [
   343,
   426
  ],
  [
   32,
   582
  ],
  [
   279,
   813
  ],
  [
   382,
   557
  ],
  [
   76,
   117
  ],
  [
   457,
   1859
  ],
  [
   381,
   1671
  ],
  [
   1390,
   282
  ],
  [
   417,
   261
  ],
  [
   460,
   274
  ],
  [
   2255,
   650
  ],
  [
   1140,
   1219
  ],
  [
   259,
   4646
  ],
  [
   4302,
   103
  ],
  [
   370,
   509
  ],
  [
   446,
   4545
  ],
  [
   711,
   438
  ],
  [
   1148,
   462
  ],
  [
   345,
   273
  ],
  [
   283,
   388
  ],
  [
   299,
   772
  ],
  [
   54,
   48
  ],
  [
   1880,
   109
  ],
  [
   432,
   1127
  ],
  [
   1721,
   2215
  ],
  [
   2455,
   354
  ],
  [
   1006,
   1289
  ],
  [
   260,
   3444
  ],
  [
   266,
   4863
  ],
  [
   750,
   109
  ],
  [
   353,
   289
  ],
  [
   2958,
   315
  ],
  [
   3142,
   3311
  ],
  [
   715,
   308
  ],
  [
   1677,
   587
  ],
  [
   2402,
   2043
  ],
  [
   1546,
   722
  ],
  [
   3579,
   398
  ],
  [
   314,
   363
  ],
  [
   375,
   949
  ],
  [
   396,
   332
  ],
  [
   1703,
   99
  ],
  [
   446,
   306
  ],
  [
   1727,
   3763
  ],
  [
   3379,
   351
  ],
  [
   673,
   3966
  ],
  [
   748,
   452
  ],
  [
   318,
   975
  ],
  [
   1408,
   462
  ],
  [
   1073,
   117
  ],
  [
   291,
   312
  ],
  [
   436,
   4329
  ],
  [
   2640,
   358
  ],
  [
   459,
   2702
  ],
  [
   849,
   326
  ],
  [
   382,
   429
  ],
  [
   460,
   117
  ],
  [
   681,
   2429
  ],
  [
   1791,
   957
  ],
  [
   343,
   360
  ],
  [
   1538,
   100
  ],
  [
   632,
   1182
  ],
  [
   285,
   353
  ],
  [
   613,
   3782
  ],
  [
   913,
   800
  ],
  [
   112,
   269
  ],
  [
   586,
   954
  ],
  [
   535,
   658
  ],
  [
   3000,
   466
  ],
  [
   586,
   106
  ],
  [
   100,
   434
  ],
  [
   495,
   373
  ],
  [
   964,
   308
  ],
  [
   65,
   83
  ],
  [
   501,
   4838
  ],
  [
   2479,
   282
  ],
  [
   538,
   328
  ],
  [
   1921,
   1402
  ],
  [
   2654,
   481
  ],
  [
   2645,
   2136
  ],
  [
   328,
   1712
  ],
  [
   1061,
   455
  ],
  [
   380,
   704
  ],
  [
   325,
   100
  ],
  [
   545,
   305
  ],
  [
   100,
   322
  ],
  [
   277,
   1676
  ],
  [
   2205,
   295
  ],
  [
   344,
   1116
  ],
  [
   644,
   261
  ],
  [
   1005,
   97
  ],
  [
   1058,
   713
  ],
  [
   99,
   280
  ],
  [
   339,
   2477
  ],
  [
   711,
   4213
  ],
  [
   347,
   360
  ],
  [
   458,
   960
  ],
  [
   257,
   294
  ],
  [
   32,
   41
  ],
  [
   299,
   403
  ],
  [
   1791,
   465
  ],
  [
   107,
   1198
  ],
  [
   1735,
   295
  ],
  [
   283,
   476
  ],
  [
   271,
   1155
  ],
  [
   82,
   69
  ],
  [
   298,
   909
  ],
  [
   459,
   3342
  ],
  [
   356,
   383
  ],
  [
   421,
   3560
  ],
  [
   435,
   280
  ],
  [
   2031,
   398
  ],
  [
   458,
   108
  ],
  [
   488,
   430
  ],
  [
   726,
   105
  ],
  [
   3679,
   272
  ],
  [
   284,
   526
  ],
  [
   2593,
   2318
  ],
  [
   326,
   107
  ],
  [
   404,
   109
  ],
  [
   262,
   1210
  ],
  [
   787,
   426
  ],
  [
   4309,
   359
  ],
  [
   646,
   329
  ],
  [
   334,
   329
  ],
  [
   344,
   122
  ],
  [
   1251,
   4783
  ],
  [
   115,
   433
  ],
  [
   115,
   289
  ],
  [
   345,
   99
  ],
  [
   119,
   280
  ],
  [
   302,
   327
  ],
  [
   1920,
   365
  ],
  [
   117,
   286
  ],
  [
   299,
   3978
  ],
  [
   316,
   1241
  ],
  [
   493,
   296
  ],
  [
   531,
   867
  ],
  [
   496,
   268
  ],
  [
   2734,
   1446
  ],
  [
   112,
   306
  ],
  [
   4073,
   803
  ],
  [
   67,
   97
  ],
  [
   263,
   708
  ],
  [
   613,
   2545
  ],
  [
   3013,
   87
  ],
  [
   407,
   280
  ],
  [
   555,
   2554
  ],
  [
   2972,
   1872
  ],
  [
   100,
   291
  ],
  [
   278,
   364
  ],
  [
   1292,
   288
  ],
  [
   1910,
   4757
  ],
  [
   2449,
   307
  ],
  [
   3219,
   295
  ],
  [
   1009,
   314
  ],
  [
   2176,
   1409
  ],
  [
   773,
   114
  ],
  [
   273,
   1312
  ],
  [
   463,
   1694
  ],
  [
   352,
   504
  ],
  [
   260,
   319
  ],
  [
   379,
   280
  ],
  [
   539,
   353
  ],
  [
   32,
   226
  ],
  [
   318,
   360
  ],
  [
   961,
   52
  ],
  [
   418,
   292
  ],
  [
   744,
   327
  ],
  [
   2067,
   289
  ],
  [
   480,
   86
  ],
  [
   1795,
   1426
  ],
  [
   318,
   290
  ],
  [
   41,
   58
  ],
  [
   447,
   289
  ],
  [
   1262,
   267
  ],
  [
   98,
   782
  ],
  [
   539,
   4400
  ],
  [
   809,
   1077
  ],
  [
   969,
   850
  ],
  [
   4164,
   590
  ],
  [
   121,
   97
  ],
  [
   412,
   377
  ],
  [
   792,
   258
  ],
  [
   107,
   447
  ],
  [
   2014,
   647
  ],
  [
   100,
   329
  ],
  [
   547,
   3129
  ],
  [
   497,
   953
  ],
  [
   314,
   348
  ],
  [
   421,
   1376
  ],
  [
   1099,
   1964
  ],
  [
   355,
   422
  ],
  [
   976,
   4212
  ],
  [
   259,
   483
  ],
  [
   318,
   3259
  ],
  [
   534,
   619
  ],
  [
   4298,
   330
  ],
  [
   107,
   466
  ],
  [
   340,
   862
  ],
  [
   304,
   617
  ],
  [
   114,
   296
  ],
  [
   609,
   261
  ],
  [
   3888,
   420
  ],
  [
   2005,
   106
  ],
  [
   533,
   268
  ],
  [
   337,
   1251
  ],
  [
   545,
   121
  ],
  [
   314,
   1818
  ],
  [
   67,
   69
  ],
  [
   272,
   264
  ],
  [
   1015,
   398
  ],
  [
   284,
   647
  ],
  [
   306,
   1072
  ],
  [
   277,
   2817
  ],
  [
   676,
   2032
  ],
  [
   3699,
   386
  ],
  [
   284,
   1136
  ],
  [
   379,
   388
  ],
  [
   1121,
   571
  ],
  [
   356,
   860
  ],
  [
   2220,
   301
  ],
  [
   752,
   268
  ],
  [
   348,
   281
  ],
  [
   3585,
   258
  ],
  [
   116,
   658
  ],
  [
   298,
   697
  ],
  [
   533,
   308
  ],
  [
   1949,
   272
  ],
  [
   308,
   107
  ],
  [
   961,
   56
  ],
  [
   966,
   264
  ],
  [
   977,
   940
  ],
  [
   602,
   268
  ],
  [
   2460,
   358
  ],
  [
   596,
   2545
  ],
  [
   1489,
   88
  ],
  [
   683,
   517
  ],
  [
   2505,
   152
  ],
  [
   301,
   98
  ],
  [
   875,
   799
  ],
  [
   1612,
   1741
  ],
  [
   116,
   343
  ],
  [
   729,
   476
  ],
  [
   1447,
   1007
  ],
  [
   1896,
   1764
  ],
  [
   2295,
   824
  ],
  [
   581,
   327
  ],
  [
   334,
   110
  ],
  [
   610,
   289
  ],
  [
   307,
   308
  ],
  [
   512,
   1230
  ],
  [
   2611,
   286
  ],
  [
   115,
   310
  ],
  [
   3201,
   1080
  ],
  [
   435,
   1284
  ],
  [
   407,
   105
  ],
  [
   284,
   1794
  ],
  [
   320,
   270
  ],
  [
   685,
   115
  ],
  [
   999,
   292
  ],
  [
   1243,
   420
  ],
  [
   1525,
   2702
  ],
  [
   1856,
   116
  ],
  [
   2123,
   114
  ],
  [
   2450,
   341
  ],
  [
   567,
   122
  ],
  [
   1416,
   386
  ],
  [
   2449,
   116
  ],
  [
   299,
   268
  ],
  [
   527,
   261
  ],
  [
   538,
   116
  ],
  [
   781,
   408
  ],
  [
   804,
   1932
  ],
  [
   1650,
   100
  ],
  [
   625,
   1327
  ],
  [
   1927,
   106
  ],
  [
   2985,
   870
  ],
  [
   327,
   3658
  ],
  [
   4142,
   1019
  ],
  [
   349,
   590
  ],
  [
   2564,
   1350
  ],
  [
   419,
   296
  ],
  [
   1920,
   469
  ],
  [
   368,
   109
  ],
  [
   548,
   822
  ],
  [
   102,
   1428
  ],
  [
   427,
   268
  ],
  [
   439,
   3632
  ],
  [
   2498,
   391
  ],
  [
   1839,
   396
  ],
  [
   534,
   1553
  ],
  [
   316,
   3666
  ],
  [
   595,
   53
  ],
  [
   333,
   1230
  ],
  [
   915,
   122
  ],
  [
   1135,
   1571
  ],
  [
   117,
   433
  ],
  [
   122,
   420
  ],
  [
   309,
   268
  ],
  [
   1418,
   101
  ],
  [
   955,
   850
  ],
  [
   1144,
   1299
  ],
  [
   506,
   5022
  ],
  [
   1027,
   464
  ],
  [
   1901,
   1074
  ],
  [
   318,
   1182
  ],
  [
   1156,
   266
  ],
  [
   1359,
   398
  ],
  [
   556,
   110
  ],
  [
   787,
   281
  ],
  [
   103,
   293
  ],
  [
   399,
   688
  ],
  [
   296,
   1278
  ],
  [
   383,
   302
  ],
  [
   1225,
   308
  ],
  [
   414,
   2745
  ],
  [
   1244,
   359
  ],
  [
   115,
   332
  ],
  [
   116,
   109
  ],
  [
   1395,
   119
  ],
  [
   2525,
   4326
  ],
  [
   100,
   589
  ],
  [
   346,
   264
  ],
  [
   1569,
   1138
  ],
  [
   303,
   306
  ],
  [
   2097,
   369
  ],
  [
   1637,
   319
  ],
  [
   977,
   441
  ],
  [
   343,
   289
  ],
  [
   771,
   378
  ],
  [
   1113,
   326
  ],
  [
   2214,
   322
  ],
  [
   2460,
   116
  ],
  [
   991,
   271
  ],
  [
   319,
   107
  ],
  [
   3017,
   684
  ],
  [
   3043,
   258
  ],
  [
   108,
   626
  ],
  [
   1566,
   291
  ],
  [
   261,
   291
  ],
  [
   2243,
   666
  ],
  [
   498,
   3398
  ],
  [
   516,
   261
  ],
  [
   300,
   4945
  ],
  [
   413,
   329
  ],
  [
   283,
   2103
  ],
  [
   3420,
   2598
  ],
  [
   2935,
   845
  ],
  [
   271,
   587
  ],
  [
   690,
   290
  ],
  [
   359,
   117
  ],
  [
   875,
   112
  ],
  [
   338,
   1298
  ],
  [
   593,
   669
  ],
  [
   1580,
   2401
  ],
  [
   1850,
   345
  ],
  [
   1963,
   858
  ],
  [
   435,
   389
  ],
  [
   983,
   2231
  ],
  [
   3242,
   115
  ],
  [
   102,
   330
  ],
  [
   298,
   269
  ],
  [
   512,
   2100
  ],
  [
   1349,
   109
  ],
  [
   3590,
   368
  ],
  [
   4485,
   106
  ],
  [
   545,
   377
  ],
  [
   576,
   321
  ],
  [
   69,
   77
  ],
  [
   715,
   268
  ],
  [
   2122,
   111
  ],
  [
   108,
   1012
  ],
  [
   538,
   351
  ],
  [
   1027,
   349
  ],
  [
   1113,
   256
  ],
  [
   3215,
   1072
  ],
  [
   556,
   292
  ],
  [
   2084,
   119
  ],
  [
   277,
   331
  ],
  [
   696,
   476
  ],
  [
   698,
   369
  ],
  [
   1242,
   329
  ],
  [
   680,
   327
  ],
  [
   316,
   4335
  ],
  [
   1805,
   1599
  ],
  [
   597,
   360
  ],
  [
   79,
   75
  ],
  [
   316,
   666
  ],
  [
   5174,
   308
  ],
  [
   998,
   321
  ],
  [
   260,
   928
  ],
  [
   1137,
   115
  ],
  [
   1160,
   409
  ],
  [
   45,
   41
  ],
  [
   913,
   339
  ],
  [
   1340,
   2015
  ],
  [
   1681,
   3981
  ],
  [
   402,
   492
  ],
  [
   1185,
   100
  ],
  [
   314,
   329
  ],
  [
   1271,
   301
  ],
  [
   547,
   1095
  ],
  [
   480,
   109
  ],
  [
   477,
   342
  ],
  [
   743,
   1080
  ],
  [
   259,
   493
  ],
  [
   705,
   580
  ],
  [
   832,
   307
  ],
  [
   104,
   2360
  ],
  [
   115,
   102
  ],
  [
   316,
   668
  ],
  [
   340,
   1738
  ],
  [
   683,
   327
  ],
  [
   266,
   110
  ],
  [
   463,
   265
  ],
  [
   1703,
   319
  ],
  [
   333,
   1192
  ],
  [
   767,
   97
  ],
  [
   83,
   121
  ],
  [
   396,
   308
  ],
  [
   1201,
   103
  ],
  [
   3493,
   2421
  ],
  [
   299,
   496
  ],
  [
   980,
   308
  ],
  [
   110,
   274
  ],
  [
   596,
   273
  ],
  [
   333,
   2183
  ],
  [
   366,
   527
  ],
  [
   1595,
   310
  ],
  [
   119,
   335
  ],
  [
   50,
   56
  ],
  [
   112,
   1168
  ],
  [
   277,
   627
  ],
  [
   381,
   330
  ],
  [
   2084,
   462
  ],
  [
   391,
   103
  ],
  [
   829,
   639
  ],
  [
   442,
   80
  ],
  [
   439,
   294
  ],
  [
   116,
   270
  ],
  [
   283,
   5071
  ],
  [
   488,
   286
  ],
  [
   355,
   312
  ],
  [
   340,
   289
  ],
  [
   32,
   39
  ],
  [
   262,
   403
  ],
  [
   642,
   100
  ],
  [
   1333,
   4299
  ],
  [
   79,
   1635
  ],
  [
   333,
   520
  ],
  [
   361,
   114
  ],
  [
   467,
   3469
  ],
  [
   260,
   508
  ],
  [
   427,
   454
  ],
  [
   103,
   354
  ],
  [
   274,
   660
  ],
  [
   842,
   667
  ],
  [
   1262,
   481
  ],
  [
   379,
   508
  ],
  [
   4949,
   390
  ],
  [
   643,
   688
  ],
  [
   519,
   291
  ],
  [
   678,
   114
  ],
  [
   1963,
   1939
  ],
  [
   50,
   55
  ],
  [
   316,
   406
  ],
  [
   353,
   272
  ],
  [
   459,
   1973
  ],
  [
   775,
   2313
  ],
  [
   1766,
   2104
  ],
  [
   4215,
   542
  ],
  [
   102,
   289
  ],
  [
   320,
   5012
  ],
  [
   3030,
   949
  ],
  [
   528,
   1001
  ],
  [
   2420,
   266
  ],
  [
   370,
   342
  ],
  [
   460,
   301
  ],
  [
   643,
   110
  ],
  [
   783,
   2271
  ],
  [
   1605,
   1688
  ],
  [
   299,
   950
  ],
  [
   324,
   76
  ],
  [
   575,
   261
  ],
  [
   748,
   342
  ],
  [
   316,
   1024
  ],
  [
   350,
   289
  ],
  [
   1953,
   109
  ],
  [
   116,
   115
  ],
  [
   262,
   264
  ],
  [
   1890,
   322
  ],
  [
   309,
   295
  ],
  [
   458,
   341
  ],
  [
   1566,
   422
  ],
  [
   116,
   644
  ],
  [
   488,
   398
  ],
  [
   1176,
   934
  ],
  [
   654,
   1221
  ],
  [
   103,
   288
  ],
  [
   100,
   871
  ],
  [
   2038,
   335
  ],
  [
   2374,
   630
  ],
  [
   508,
   1879
  ],
  [
   87,
   111
  ],
  [
   352,
   382
  ],
  [
   539,
   870
  ],
  [
   565,
   376
  ],
  [
   842,
   719
  ],
  [
   316,
   3096
  ],
  [
   621,
   409
  ],
  [
   4257,
   363
  ],
  [
   115,
   263
  ],
  [
   2768,
   388
  ],
  [
   403,
   807
  ],
  [
   767,
   330
  ],
  [
   2160,
   466
  ],
  [
   346,
   115
  ],
  [
   463,
   878
  ],
  [
   261,
   619
  ],
  [
   337,
   114
  ],
  [
   776,
   4961
  ],
  [
   970,
   3925
  ],
  [
   68,
   90
  ],
  [
   277,
   727
  ],
  [
   109,
   888
  ],
  [
   306,
   327
  ],
  [
   624,
   348
  ],
  [
   1262,
   858
  ],
  [
   1128,
   331
  ],
  [
   687,
   364
  ],
  [
   76,
   97
  ],
  [
   76,
   73
  ],
  [
   459,
   5138
  ],
  [
   356,
   1383
  ],
  [
   316,
   950
  ],
  [
   881,
   1423
  ],
  [
   50,
   54
  ],
  [
   106,
   363
  ],
  [
   307,
   587
  ],
  [
   1088,
   302
  ],
  [
   1717,
   1386
  ],
  [
   356,
   2905
  ],
  [
   413,
   321
  ],
  [
   673,
   1298
  ],
  [
   761,
   382
  ],
  [
   2447,
   109
  ],
  [
   2373,
   112
  ],
  [
   320,
   496
  ],
  [
   2079,
   261
  ],
  [
   2853,
   272
  ],
  [
   122,
   332
  ],
  [
   496,
   308
  ],
  [
   516,
   289
  ],
  [
   1050,
   121
  ],
  [
   814,
   455
  ],
  [
   1641,
   290
  ],
  [
   688,
   664
  ],
  [
   1550,
   1363
  ],
  [
   1541,
   331
  ],
  [
   432,
   289
  ],
  [
   566,
   4511
  ],
  [
   32,
   1567
  ],
  [
   260,
   733
  ],
  [
   333,
   963
  ],
  [
   1736,
   526
  ],
  [
   93,
   46
  ],
  [
   257,
   116
  ],
  [
   122,
   292
  ],
  [
   1071,
   1372
  ],
  [
   591,
   114
  ],
  [
   310,
   302
  ],
  [
   592,
   319
  ],
  [
   1343,
   583
  ],
  [
   3323,
   959
  ],
  [
   100,
   411
  ],
  [
   285,
   116
  ],
  [
   1021,
   1118
  ],
  [
   488,
   295
  ],
  [
   814,
   870
  ],
  [
   1934,
   383
  ],
  [
   2700,
   264
  ],
  [
   107,
   420
  ],
  [
   1572,
   305
  ],
  [
   1945,
   722
  ],
  [
   982,
   288
  ],
  [
   438,
   581
  ],
  [
   2180,
   551
  ],
  [
   66,
   105
  ],
  [
   1532,
   280
  ],
  [
   576,
   289
  ],
  [
   457,
   1665
  ],
  [
   451,
   757
  ],
  [
   662,
   684
  ],
  [
   1062,
   348
  ],
  [
   619,
   109
  ],
  [
   873,
   326
  ],
  [
   1651,
   288
  ],
  [
   370,
   455
  ],
  [
   1050,
   3244
  ],
  [
   262,
   5094
  ],
  [
   283,
   287
  ],
  [
   673,
   2998
  ],
  [
   1893,
   1274
  ],
  [
   1223,
   424
  ],
  [
   2526,
   3463
  ],
  [
   4836,
   383
  ],
  [
   690,
   268
  ],
  [
   312,
   603
  ],
  [
   783,
   3295
  ],
  [
   676,
   2100
  ],
  [
   938,
   409
  ],
  [
   266,
   289
  ],
  [
   1013,
   110
  ],
  [
   271,
   908
  ],
  [
   100,
   256
  ],
  [
   480,
   270
  ],
  [
   534,
   898
  ],
  [
   283,
   340
  ],
  [
   122,
   258
  ],
  [
   100,
   354
  ],
  [
   261,
   114
  ],
  [
   463,
   348
  ],
  [
   568,
   289
  ],
  [
   2988,
   303
  ],
  [
   381,
   368
  ],
  [
   702,
   328
  ],
  [
   280,
   386
  ],
  [
   307,
   674
  ],
  [
   1400,
   2973
  ],
  [
   3604,
   615
  ],
  [
   4224,
   473
  ],
  [
   333,
   631
  ],
  [
   399,
   3315
  ],
  [
   1655,
   288
  ],
  [
   282,
   268
  ],
  [
   318,
   347
  ],
  [
   309,
   680
  ],
  [
   370,
   368
  ],
  [
   762,
   272
  ],
  [
   630,
   295
  ],
  [
   2509,
   546
  ],
  [
   1247,
   1707
  ],
  [
   381,
   343
  ],
  [
   5201,
   2488
  ],
  [
   116,
   618
  ],
  [
   3059,
   341
  ],
  [
   112,
   364
  ],
  [
   1413,
   582
  ],
  [
   316,
   122
  ],
  [
   366,
   264
  ],
  [
   837,
   388
  ],
  [
   1901,
   1936
  ],
  [
   446,
   289
  ],
  [
   432,
   110
  ],
  [
   2881,
   871
  ],
  [
   2985,
   424
  ],
  [
   2225,
   1790
  ],
  [
   108,
   365
  ],
  [
   357,
   660
  ],
  [
   86,
   3304
  ],
  [
   358,
   817
  ],
  [
   781,
   3671
  ],
  [
   2413,
   437
  ],
  [
   663,
   487
  ],
  [
   2663,
   291
  ],
  [
   66,
   117
  ],
  [
   476,
   258
  ],
  [
   283,
   2967
  ],
  [
   1370,
   770
  ],
  [
   291,
   1865
  ],
  [
   3445,
   351
  ],
  [
   284,
   1307
  ],
  [
   333,
   1108
  ],
  [
   299,
   903
  ],
  [
   1413,
   315
  ],
  [
   2012,
   281
  ],
  [
   316,
   273
  ],
  [
   115,
   406
  ],
  [
   259,
   903
  ],
  [
   646,
   369
  ],
  [
   284,
   1407
  ],
  [
   345,
   327
  ],
  [
   359,
   396
  ],
  [
   1935,
   343
  ],
  [
   2297,
   112
  ],
  [
   1653,
   581
  ],
  [
   326,
   462
  ],
  [
   109,
   4235
  ],
  [
   1062,
   3177
  ],
  [
   1181,
   393
  ],
  [
   1810,
   268
  ],
  [
   1977,
   326
  ],
  [
   291,
   326
  ],
  [
   100,
   543
  ],
  [
   357,
   351
  ],
  [
   3041,
   292
  ],
  [
   114,
   469
  ],
  [
   370,
   1384
  ],
  [
   2133,
   422
  ],
  [
   4211,
   295
  ],
  [
   394,
   2554
  ],
  [
   73,
   2487
  ],
  [
   98,
   1198
  ],
  [
   435,
   291
  ],
  [
   359,
   111
  ],
  [
   438,
   109
  ],
  [
   1611,
   293
  ],
  [
   3025,
   4999
  ],
  [
   1120,
   1678
  ],
  [
   989,
   267
  ],
  [
   2873,
   3146
  ],
  [
   299,
   909
  ],
  [
   1244,
   4582
  ],
  [
   318,
   2905
  ],
  [
   497,
   282
  ],
  [
   80,
   101
  ],
  [
   551,
   871
  ],
  [
   2426,
   4967
  ],
  [
   276,
   725
  ],
  [
   488,
   280
  ],
  [
   318,
   3321
  ],
  [
   323,
   403
  ],
  [
   333,
   841
  ],
  [
   1509,
   1278
  ],
  [
   2298,
   2099
  ],
  [
   318,
   1322
  ],
  [
   419,
   5171
  ],
  [
   1120,
   331
  ],
  [
   2218,
   398
  ],
  [
   2769,
   462
  ],
  [
   98,
   315
  ],
  [
   318,
   948
  ],
  [
   115,
   1981
  ],
  [
   314,
   368
  ],
  [
   2844,
   306
  ],
  [
   2016,
   258
  ],
  [
   309,
   115
  ],
  [
   479,
   1957
  ],
  [
   653,
   119
  ],
  [
   46,
   540
  ],
  [
   849,
   3122
  ],
  [
   1111,
   396
  ],
  [
   421,
   513
  ],
  [
   2196,
   1553
  ],
  [
   1242,
   314
  ],
  [
   3806,
   358
  ],
  [
   324,
   75
  ],
  [
   1063,
   861
  ],
  [
   2844,
   465
  ],
  [
   1486,
   690
  ],
  [
   259,
   646
  ],
  [
   312,
   327
  ],
  [
   423,
   5501
  ],
  [
   459,
   3011
  ],
  [
   759,
   331
  ],
  [
   1843,
   368
  ],
  [
   4923,
   520
  ],
  [
   675,
   312
  ],
  [
   2019,
   272
  ],
  [
   327,
   862
  ],
  [
   402,
   305
  ],
  [
   414,
   862
  ],
  [
   2066,
   1278
  ],
  [
   2214,
   1771
  ],
  [
   445,
   327
  ],
  [
   288,
   108
  ],
  [
   2888,
   270
  ],
  [
   83,
   377
  ],
  [
   1493,
   121
  ],
  [
   781,
   5149
  ],
  [
   1586,
   369
  ],
  [
   299,
   289
  ],
  [
   2037,
   5559
  ],
  [
   2277,
   433
  ],
  [
   3109,
   309
  ],
  [
   266,
   302
  ],
  [
   357,
   1512
  ],
  [
   3020,
   894
  ],
  [
   853,
   3012
  ],
  [
   300,
   1108
  ],
  [
   864,
   1817
  ],
  [
   382,
   790
  ],
  [
   2088,
   1133
  ],
  [
   316,
   334
  ],
  [
   345,
   358
  ],
  [
   545,
   101
  ],
  [
   2148,
   295
  ],
  [
   2735,
   282
  ],
  [
   1492,
   258
  ],
  [
   3638,
   305
  ],
  [
   1053,
   424
  ],
  [
   348,
   270
  ],
  [
   326,
   331
  ],
  [
   1272,
   1818
  ],
  [
   275,
   263
  ],
  [
   2057,
   282
  ],
  [
   1810,
   349
  ],
  [
   729,
   802
  ],
  [
   291,
   452
  ],
  [
   262,
   4564
  ],
  [
   481,
   114
  ],
  [
   2319,
   465
  ],
  [
   4194,
   328
  ],
  [
   281,
   686
  ],
  [
   324,
   83
  ],
  [
   531,
   334
  ],
  [
   276,
   114
  ],
  [
   2251,
   303
  ],
  [
   291,
   667
  ],
  [
   459,
   102
  ],
  [
   327,
   268
  ],
  [
   596,
   1468
  ],
  [
   2046,
   288
  ],
  [
   280,
   107
  ],
  [
   2797,
   348
  ],
  [
   107,
   307
  ],
  [
   1053,
   520
  ],
  [
   290,
   114
  ],
  [
   1250,
   3133
  ],
  [
   3428,
   667
  ],
  [
   346,
   389
  ],
  [
   737,
   1402
  ],
  [
   1856,
   807
  ],
  [
   460,
   4372
  ],
  [
   490,
   312
  ],
  [
   414,
   2965
  ],
  [
   314,
   327
  ],
  [
   471,
   273
  ],
  [
   1754,
   391
  ],
  [
   866,
   1758
  ],
  [
   4988,
   587
  ],
  [
   1217,
   1460
  ],
  [
   1800,
   306
  ],
  [
   2030,
   306
  ],
  [
   2655,
   850
  ],
  [
   5560,
   894
  ],
  [
   974,
   4931
  ],
  [
   3223,
   312
  ],
  [
   3380,
   281
  ],
  [
   299,
   290
  ],
  [
   352,
   4442
  ],
  [
   687,
   377
  ],
  [
   324,
   121
  ],
  [
   382,
   330
  ],
  [
   416,
   4552
  ],
  [
   1155,
   288
  ],
  [
   112,
   116
  ],
  [
   1374,
   286
  ],
  [
   447,
   2043
  ],
  [
   648,
   261
  ],
  [
   2836,
   114
  ],
  [
   74,
   65
  ],
  [
   83,
   117
  ],
  [
   277,
   388
  ],
  [
   759,
   341
  ],
  [
   775,
   2516
  ],
  [
   2886,
   312
  ],
  [
   317,
   2883
  ],
  [
   597,
   453
  ],
  [
   278,
   2947
  ],
  [
   368,
   286
  ],
  [
   443,
   265
  ],
  [
   2212,
   306
  ],
  [
   3165,
   321
  ],
  [
   262,
   455
  ],
  [
   596,
   1057
  ],
  [
   349,
   708
  ],
  [
   742,
   620
  ],
  [
   857,
   959
  ],
  [
   195,
   169
  ],
  [
   281,
   652
  ],
  [
   67,
   73
  ],
  [
   556,
   261
  ],
  [
   751,
   273
  ],
  [
   394,
   2357
  ],
  [
   651,
   305
  ],
  [
   327,
   620
  ],
  [
   2512,
   1150
  ],
  [
   77,
   65
  ],
  [
   588,
   354
  ],
  [
   412,
   3619
  ],
  [
   416,
   390
  ],
  [
   115,
   589
  ],
  [
   1254,
   5331
  ],
  [
   2693,
   591
  ],
  [
   383,
   289
  ],
  [
   660,
   307
  ],
  [
   1286,
   290
  ],
  [
   272,
   527
  ],
  [
   342,
   296
  ],
  [
   395,
   304
  ],
  [
   657,
   525
  ],
  [
   1201,
   403
  ],
  [
   1653,
   668
  ],
  [
   259,
   4738
  ],
  [
   316,
   1407
  ],
  [
   1320,
   256
  ],
  [
   2117,
   258
  ],
  [
   373,
   258
  ],
  [
   266,
   1108
  ],
  [
   328,
   114
  ],
  [
   277,
   328
  ],
  [
   284,
   947
  ],
  [
   479,
   100
  ],
  [
   108,
   543
  ],
  [
   3480,
   710
  ],
  [
   271,
   614
  ],
  [
   393,
   464
  ],
  [
   115,
   270
  ],
  [
   343,
   335
  ],
  [
   2951,
   116
  ],
  [
   2420,
   403
  ],
  [
   328,
   639
  ],
  [
   347,
   473
  ],
  [
   4711,
   3359
  ],
  [
   50,
   57
  ],
  [
   373,
   98
  ],
  [
   1110,
   335
  ],
  [
   109,
   365
  ],
  [
   262,
   3080
  ],
  [
   569,
   422
  ],
  [
   2786,
   329
  ],
  [
   347,
   368
  ],
  [
   454,
   268
  ],
  [
   3381,
   393
  ],
  [
   260,
   3228
  ],
  [
   1050,
   105
  ],
  [
   4114,
   826
  ],
  [
   547,
   383
  ],
  [
   1010,
   331
  ],
  [
   353,
   383
  ],
  [
   1032,
   326
  ],
  [
   346,
   584
  ],
  [
   362,
   111
  ],
  [
   392,
   647
  ],
  [
   865,
   454
  ],
  [
   2555,
   351
  ],
  [
   3746,
   359
  ],
  [
   79,
   80
  ],
  [
   445,
   290
  ],
  [
   1611,
   294
  ],
  [
   347,
   286
  ],
  [
   494,
   114
  ],
  [
   599,
   293
  ],
  [
   1058,
   801
  ],
  [
   796,
   116
  ],
  [
   488,
   358
  ],
  [
   2629,
   520
  ],
  [
   3221,
   1973
  ],
  [
   530,
   2033
  ],
  [
   2710,
   591
  ],
  [
   4208,
   4380
  ],
  [
   262,
   3853
  ],
  [
   1948,
   307
  ],
  [
   4745,
   745
  ],
  [
   855,
   2871
  ],
  [
   1013,
   280
  ],
  [
   284,
   271
  ],
  [
   386,
   369
  ],
  [
   3377,
   268
  ],
  [
   106,
   835
  ],
  [
   1447,
   937
  ],
  [
   349,
   335
  ],
  [
   506,
   2566
  ],
  [
   1602,
   109
  ],
  [
   1796,
   302
  ],
  [
   392,
   2614
  ],
  [
   3911,
   2345
  ],
  [
   804,
   3867
  ],
  [
   1813,
   258
  ],
  [
   419,
   1955
  ],
  [
   538,
   270
  ],
  [
   396,
   107
  ],
  [
   3657,
   295
  ],
  [
   740,
   321
  ],
  [
   32,
   422
  ],
  [
   316,
   340
  ],
  [
   673,
   1790
  ],
  [
   114,
   493
  ],
  [
   1021,
   931
  ],
  [
   1244,
   1468
  ],
  [
   1000,
   3308
  ],
  [
   3346,
   116
  ],
  [
   1528,
   4898
  ],
  [
   1995,
   499
  ],
  [
   5397,
   1251
  ],
  [
   625,
   526
  ],
  [
   316,
   266
  ],
  [
   1215,
   1728
  ],
  [
   3633,
   265
  ],
  [
   107,
   769
  ],
  [
   1319,
   314
  ],
  [
   1878,
   261
  ],
  [
   280,
   334
  ],
  [
   1747,
   1095
  ],
  [
   309,
   611
  ],
  [
   70,
   97
  ],
  [
   313,
   486
  ],
  [
   828,
   2756
  ],
  [
   3314,
   110
  ],
  [
   257,
   329
  ],
  [
   749,
   53
  ],
  [
   1003,
   455
  ],
  [
   1720,
   107
  ],
  [
   259,
   437
  ],
  [
   399,
   536
  ],
  [
   3196,
   434
  ],
  [
   1208,
   334
  ],
  [
   1292,
   429
  ],
  [
   3732,
   658
  ],
  [
   4616,
   4440
  ],
  [
   1223,
   466
  ],
  [
   512,
   2032
  ],
  [
   485,
   4879
  ],
  [
   391,
   922
  ],
  [
   397,
   1232
  ],
  [
   4105,
   264
  ],
  [
   2532,
   382
  ],
  [
   3067,
   1797
  ],
  [
   5016,
   382
  ],
  [
   299,
   3225
  ],
  [
   630,
   308
  ],
  [
   84,
   364
  ],
  [
   276,
   106
  ],
  [
   406,
   295
  ],
  [
   432,
   106
  ],
  [
   69,
   68
  ],
  [
   284,
   368
  ],
  [
   1565,
   339
  ],
  [
   1703,
   374
  ],
  [
   2184,
   1729
  ],
  [
   3181,
   529
  ],
  [
   116,
   319
  ],
  [
   268,
   437
  ],
  [
   338,
   271
  ],
  [
   1459,
   116
  ],
  [
   538,
   1084
  ],
  [
   3353,
   2943
  ],
  [
   2372,
   525
  ],
  [
   82,
   121
  ],
  [
   1061,
   1080
  ],
  [
   1734,
   2264
  ],
  [
   917,
   1133
  ],
  [
   309,
   308
  ],
  [
   370,
   369
  ],
  [
   558,
   424
  ],
  [
   1167,
   274
  ],
  [
   2854,
   2904
  ],
  [
   516,
   363
  ],
  [
   935,
   107
  ],
  [
   999,
   426
  ],
  [
   339,
   314
  ],
  [
   1656,
   1326
  ],
  [
   108,
   811
  ],
  [
   744,
   4911
  ],
  [
   516,
   328
  ],
  [
   1604,
   2731
  ],
  [
   488,
   258
  ],
  [
   1190,
   268
  ],
  [
   943,
   1002
  ],
  [
   116,
   116
  ],
  [
   397,
   105
  ],
  [
   855,
   821
  ],
  [
   1099,
   106
  ],
  [
   977,
   449
  ],
  [
   1657,
   805
  ],
  [
   673,
   2802
  ],
  [
   971,
   286
  ],
  [
   3475,
   258
  ],
  [
   78,
   89
  ],
  [
   4363,
   2422
  ],
  [
   4989,
   307
  ],
  [
   630,
   268
  ],
  [
   277,
   3301
  ],
  [
   309,
   485
  ],
  [
   276,
   291
  ],
  [
   639,
   264
  ],
  [
   621,
   1534
  ],
  [
   260,
   559
  ],
  [
   284,
   2179
  ],
  [
   855,
   2738
  ],
  [
   386,
   329
  ],
  [
   283,
   406
  ],
  [
   1598,
   268
  ],
  [
   382,
   434
  ],
  [
   414,
   266
  ],
  [
   574,
   4650
  ],
  [
   107,
   108
  ],
  [
   393,
   266
  ],
  [
   427,
   308
  ],
  [
   4124,
   5437
  ],
  [
   575,
   453
  ],
  [
   119,
   1647
  ],
  [
   414,
   429
  ],
  [
   479,
   106
  ],
  [
   487,
   270
  ],
  [
   1312,
   2211
  ],
  [
   3349,
   514
  ],
  [
   382,
   328
  ],
  [
   259,
   724
  ],
  [
   1064,
   1801
  ],
  [
   104,
   117
  ],
  [
   4023,
   5203
  ],
  [
   299,
   359
  ],
  [
   851,
   321
  ],
  [
   122,
   347
  ],
  [
   314,
   617
  ],
  [
   2621,
   464
  ],
  [
   4028,
   281
  ],
  [
   450,
   295
  ],
  [
   2016,
   295
  ],
  [
   108,
   1422
  ],
  [
   593,
   286
  ],
  [
   279,
   818
  ],
  [
   974,
   2076
  ],
  [
   383,
   268
  ],
  [
   299,
   1575
  ],
  [
   586,
   1469
  ],
  [
   2327,
   393
  ],
  [
   2038,
   374
  ],
  [
   3035,
   110
  ],
  [
   67,
   390
  ],
  [
   296,
   272
  ],
  [
   534,
   528
  ],
  [
   656,
   99
  ],
  [
   1021,
   997
  ],
  [
   282,
   369
  ],
  [
   759,
   312
  ],
  [
   278,
   5470
  ],
  [
   291,
   464
  ],
  [
   519,
   369
  ],
  [
   875,
   601
  ],
  [
   314,
   403
  ],
  [
   459,
   289
  ],
  [
   2081,
   295
  ],
  [
   103,
   266
  ],
  [
   116,
   308
  ],
  [
   380,
   327
  ],
  [
   431,
   591
  ],
  [
   2087,
   291
  ],
  [
   356,
   340
  ],
  [
   284,
   1078
  ],
  [
   337,
   360
  ],
  [
   102,
   117
  ],
  [
   2050,
   5959
  ],
  [
   265,
   618
  ],
  [
   956,
   319
  ],
  [
   352,
   623
  ],
  [
   1413,
   286
  ],
  [
   2829,
   107
  ],
  [
   457,
   393
  ],
  [
   530,
   927
  ],
  [
   2041,
   295
  ],
  [
   2908,
   303
  ],
  [
   795,
   1758
  ],
  [
   439,
   701
  ],
  [
   1061,
   806
  ],
  [
   3494,
   2519
  ],
  [
   531,
   656
  ],
  [
   797,
   295
  ],
  [
   1651,
   111
  ],
  [
   284,
   991
  ],
  [
   1646,
   525
  ],
  [
   411,
   400
  ],
  [
   685,
   109
  ],
  [
   576,
   900
  ],
  [
   1013,
   349
  ],
  [
   823,
   1365
  ],
  [
   3749,
   286
  ],
  [
   676,
   302
  ],
  [
   338,
   296
  ],
  [
   1161,
   411
  ],
  [
   2652,
   293
  ],
  [
   694,
   391
  ],
  [
   1546,
   373
  ],
  [
   381,
   504
  ],
  [
   2447,
   270
  ],
  [
   340,
   109
  ],
  [
   318,
   2941
  ],
  [
   1921,
   438
  ],
  [
   284,
   1230
  ],
  [
   329,
   340
  ],
  [
   640,
   107
  ],
  [
   256,
   258
  ],
  [
   357,
   1102
  ],
  [
   1181,
   802
  ],
  [
   1593,
   3409
  ],
  [
   297,
   617
  ],
  [
   435,
   2855
  ],
  [
   762,
   330
  ],
  [
   1551,
   116
  ],
  [
   278,
   893
  ],
  [
   356,
   2140
  ],
  [
   381,
   2424
  ],
  [
   274,
   306
  ],
  [
   463,
   282
  ],
  [
   1170,
   867
  ],
  [
   1533,
   314
  ],
  [
   284,
   508
  ],
  [
   392,
   1389
  ],
  [
   258,
   1833
  ],
  [
   259,
   631
  ],
  [
   535,
   557
  ],
  [
   726,
   2575
  ],
  [
   743,
   270
  ],
  [
   1733,
   518
  ],
  [
   442,
   105
  ],
  [
   1522,
   1840
  ],
  [
   119,
   1860
  ],
  [
   299,
   4468
  ],
  [
   1015,
   326
  ],
  [
   316,
   3257
  ],
  [
   318,
   3449
  ],
  [
   498,
   5733
  ],
  [
   378,
   110
  ],
  [
   1905,
   1048
  ],
  [
   324,
   546
  ],
  [
   282,
   1709
  ],
  [
   548,
   1078
  ],
  [
   460,
   105
  ],
  [
   555,
   493
  ],
  [
   259,
   1307
  ],
  [
   1964,
   99
  ],
  [
   795,
   403
  ],
  [
   2618,
   269
  ],
  [
   2570,
   495
  ],
  [
   432,
   3301
  ],
  [
   1128,
   1077
  ],
  [
   1548,
   378
  ],
  [
   271,
   1515
  ],
  [
   532,
   295
  ],
  [
   2339,
   326
  ],
  [
   275,
   329
  ],
  [
   289,
   1393
  ],
  [
   1485,
   763
  ],
  [
   1572,
   377
  ],
  [
   538,
   358
  ],
  [
   1054,
   583
  ],
  [
   1650,
   353
  ],
  [
   109,
   98
  ],
  [
   283,
   310
  ],
  [
   289,
   1632
  ],
  [
   463,
   2098
  ],
  [
   553,
   41
  ],
  [
   330,
   109
  ],
  [
   4721,
   297
  ],
  [
   257,
   1155
  ],
  [
   381,
   996
  ],
  [
   392,
   291
  ],
  [
   276,
   2682
  ],
  [
   2778,
   3789
  ],
  [
   108,
   308
  ],
  [
   268,
   1028
  ],
  [
   1334,
   674
  ],
  [
   4538,
   5705
  ],
  [
   724,
   303
  ],
  [
   1835,
   106
  ],
  [
   1736,
   115
  ],
  [
   82,
   65
  ],
  [
   114,
   559
  ],
  [
   471,
   1381
  ],
  [
   1087,
   281
  ],
  [
   1912,
   107
  ],
  [
   317,
   725
  ],
  [
   5621,
   100
  ],
  [
   298,
   1891
  ],
  [
   734,
   861
  ],
  [
   749,
   635
  ],
  [
   1292,
   363
  ],
  [
   337,
   619
  ],
  [
   1358,
   339
  ],
  [
   299,
   1887
  ],
  [
   459,
   1704
  ],
  [
   2029,
   1402
  ],
  [
   119,
   431
  ],
  [
   5555,
   99
  ],
  [
   291,
   261
  ],
  [
   396,
   268
  ],
  [
   760,
   818
  ],
  [
   495,
   836
  ],
  [
   691,
   365
  ],
  [
   2038,
   708
  ],
  [
   2927,
   268
  ],
  [
   1566,
   733
  ],
  [
   1905,
   485
  ],
  [
   1724,
   288
  ],
  [
   270,
   748
  ],
  [
   660,
   433
  ],
  [
   531,
   292
  ],
  [
   1655,
   100
  ],
  [
   270,
   308
  ],
  [
   445,
   335
  ],
  [
   52,
   53
  ],
  [
   340,
   5635
  ],
  [
   430,
   295
  ],
  [
   487,
   327
  ],
  [
   67,
   122
  ],
  [
   263,
   335
  ],
  [
   593,
   1249
  ],
  [
   2299,
   934
  ],
  [
   304,
   369
  ],
  [
   333,
   4093
  ],
  [
   514,
   107
  ],
  [
   923,
   996
  ],
  [
   1155,
   292
  ],
  [
   3140,
   4113
  ],
  [
   376,
   117
  ],
  [
   1517,
   341
  ],
  [
   1244,
   2941
  ],
  [
   829,
   628
  ],
  [
   2221,
   518
  ],
  [
   926,
   322
  ],
  [
   1225,
   295
  ],
  [
   1528,
   258
  ],
  [
   333,
   485
  ],
  [
   318,
   485
  ],
  [
   347,
   114
  ],
  [
   2491,
   308
  ],
  [
   1500,
   115
  ],
  [
   1094,
   957
  ],
  [
   108,
   441
  ],
  [
   337,
   311
  ],
  [
   32,
   121
  ],
  [
   299,
   578
  ],
  [
   1554,
   1219
  ],
  [
   1735,
   308
  ],
  [
   321,
   290
  ],
  [
   2476,
   398
  ],
  [
   3227,
   1797
  ],
  [
   3672,
   652
  ],
  [
   1509,
   3255
  ],
  [
   673,
   273
  ],
  [
   457,
   406
  ],
  [
   1457,
   1457
  ],
  [
   2777,
   481
  ],
  [
   3754,
   374
  ],
  [
   99,
   312
  ],
  [
   283,
   359
  ],
  [
   319,
   349
  ],
  [
   69,
   75
  ],
  [
   2733,
   2633
  ],
  [
   523,
   266
  ],
  [
   528,
   876
  ],
  [
   2155,
   464
  ],
  [
   32,
   2434
  ],
  [
   353,
   704
  ],
  [
   357,
   2143
  ],
  [
   1813,
   369
  ],
  [
   5412,
   487
  ],
  [
   537,
   327
  ],
  [
   370,
   433
  ],
  [
   318,
   1307
  ],
  [
   3016,
   844
  ],
  [
   345,
   343
  ],
  [
   593,
   880
  ],
  [
   282,
   289
  ],
  [
   448,
   309
  ],
  [
   776,
   1341
  ],
  [
   1541,
   107
  ],
  [
   1765,
   108
  ],
  [
   2493,
   1249
  ],
  [
   2775,
   289
  ],
  [
   411,
   105
  ],
  [
   412,
   996
  ],
  [
   4386,
   571
  ],
  [
   122,
   328
  ],
  [
   346,
   1663
  ],
  [
   494,
   5413
  ],
  [
   979,
   4102
  ],
  [
   1338,
   264
  ],
  [
   4111,
   290
  ],
  [
   1112,
   1697
  ],
  [
   3163,
   286
  ],
  [
   2808,
   1002
  ],
  [
   99,
   305
  ],
  [
   318,
   1086
  ],
  [
   357,
   332
  ],
  [
   356,
   406
  ],
  [
   435,
   297
  ],
  [
   1187,
   261
  ],
  [
   1881,
   335
  ],
  [
   917,
   478
  ],
  [
   475,
   587
  ],
  [
   855,
   626
  ],
  [
   3201,
   272
  ],
  [
   4000,
   487
  ],
  [
   260,
   1471
  ],
  [
   298,
   5002
  ],
  [
   958,
   420
  ],
  [
   32,
   263
  ],
  [
   352,
   264
  ],
  [
   427,
   289
  ],
  [
   87,
   65
  ],
  [
   110,
   618
  ],
  [
   1088,
   1427
  ],
  [
   502,
   302
  ],
  [
   535,
   266
  ],
  [
   1927,
   290
  ],
  [
   2378,
   292
  ],
  [
   399,
   2951
  ],
  [
   1115,
   587
  ],
  [
   2504,
   1428
  ],
  [
   109,
   109
  ],
  [
   740,
   716
  ],
  [
   277,
   508
  ],
  [
   320,
   554
  ],
  [
   600,
   2434
  ],
  [
   1542,
   560
  ],
  [
   501,
   2965
  ],
  [
   681,
   294
  ],
  [
   116,
   559
  ],
  [
   2594,
   465
  ],
  [
   352,
   422
  ],
  [
   374,
   108
  ],
  [
   355,
   594
  ],
  [
   1963,
   3829
  ],
  [
   3428,
   719
  ],
  [
   370,
   296
  ],
  [
   3404,
   1470
  ],
  [
   67,
   660
  ],
  [
   1242,
   369
  ],
  [
   285,
   907
  ],
  [
   2547,
   272
  ],
  [
   454,
   99
  ],
  [
   349,
   1673
  ],
  [
   1344,
   481
  ],
  [
   685,
   368
  ],
  [
   77,
   121
  ],
  [
   277,
   975
  ],
  [
   343,
   266
  ],
  [
   259,
   280
  ],
  [
   558,
   934
  ],
  [
   2645,
   2950
  ],
  [
   596,
   1138
  ],
  [
   1525,
   3892
  ],
  [
   284,
   309
  ],
  [
   1517,
   296
  ],
  [
   2023,
   321
  ],
  [
   2988,
   307
  ],
  [
   115,
   633
  ],
  [
   991,
   424
  ],
  [
   340,
   620
  ],
  [
   360,
   311
  ],
  [
   273,
   571
  ],
  [
   298,
   369
  ],
  [
   495,
   476
  ],
  [
   502,
   289
  ],
  [
   2372,
   454
  ],
  [
   97,
   117
  ],
  [
   108,
   319
  ],
  [
   1584,
   594
  ],
  [
   1714,
   1036
  ],
  [
   278,
   103
  ],
  [
   77,
   83
  ],
  [
   119,
   288
  ],
  [
   4575,
   1811
  ],
  [
   275,
   105
  ],
  [
   399,
   528
  ],
  [
   596,
   115
  ],
  [
   350,
   3859
  ],
  [
   366,
   492
  ],
  [
   624,
   845
  ],
  [
   421,
   3155
  ],
  [
   941,
   5958
  ],
  [
   2118,
   269
  ],
  [
   395,
   1172
  ],
  [
   3641,
   386
  ],
  [
   3724,
   2904
  ],
  [
   488,
   450
  ],
  [
   1188,
   1046
  ],
  [
   1993,
   3062
  ],
  [
   4156,
   266
  ],
  [
   1351,
   713
  ],
  [
   2473,
   476
  ],
  [
   2639,
   115
  ],
  [
   780,
   267
  ],
  [
   1013,
   109
  ],
  [
   337,
   329
  ],
  [
   373,
   302
  ],
  [
   2070,
   2871
  ],
  [
   79,
   76
  ],
  [
   819,
   1078
  ],
  [
   408,
   790
  ],
  [
   568,
   286
  ],
  [
   653,
   347
  ],
  [
   1953,
   270
  ],
  [
   2577,
   1563
  ],
  [
   459,
   97
  ],
  [
   1618,
   1793
  ],
  [
   2322,
   307
  ],
  [
   478,
   388
  ],
  [
   785,
   261
  ],
  [
   1898,
   288
  ],
  [
   275,
   4493
  ],
  [
   381,
   757
  ],
  [
   116,
   699
  ],
  [
   366,
   377
  ],
  [
   1088,
   289
  ],
  [
   298,
   274
  ],
  [
   1825,
   894
  ],
  [
   390,
   270
  ],
  [
   534,
   271
  ],
  [
   4239,
   543
  ],
  [
   116,
   422
  ],
  [
   345,
   105
  ],
  [
   421,
   117
  ],
  [
   1579,
   633
  ],
  [
   2504,
   784
  ],
  [
   348,
   296
  ],
  [
   355,
   660
  ],
  [
   112,
   115
  ],
  [
   1023,
   2814
  ],
  [
   597,
   328
  ],
  [
   115,
   733
  ],
  [
   412,
   1753
  ],
  [
   1226,
   330
  ],
  [
   1415,
   821
  ],
  [
   427,
   309
  ],
  [
   1131,
   99
  ],
  [
   2471,
   308
  ],
  [
   3116,
   308
  ],
  [
   32,
   38
  ],
  [
   111,
   454
  ],
  [
   262,
   438
  ],
  [
   522,
   757
  ],
  [
   1557,
   314
  ],
  [
   3504,
   307
  ],
  [
   390,
   1136
  ],
  [
   316,
   115
  ],
  [
   320,
   487
  ],
  [
   2629,
   6279
  ],
  [
   295,
   327
  ],
  [
   427,
   368
  ],
  [
   2665,
   630
  ],
  [
   268,
   349
  ],
  [
   321,
   617
  ],
  [
   2201,
   268
  ],
  [
   593,
   321
  ],
  [
   355,
   107
  ],
  [
   1225,
   268
  ],
  [
   1734,
   291
  ],
  [
   284,
   1097
  ],
  [
   333,
   903
  ],
  [
   353,
   309
  ],
  [
   376,
   492
  ],
  [
   397,
   301
  ],
  [
   459,
   282
  ],
  [
   69,
   79
  ],
  [
   324,
   294
  ],
  [
   397,
   354
  ],
  [
   2014,
   4152
  ],
  [
   307,
   269
  ],
  [
   1105,
   348
  ],
  [
   1500,
   692
  ],
  [
   2608,
   271
  ],
  [
   978,
   116
  ],
  [
   2768,
   98
  ],
  [
   1740,
   620
  ],
  [
   381,
   389
  ],
  [
   115,
   309
  ],
  [
   409,
   587
  ],
  [
   276,
   296
  ],
  [
   395,
   367
  ],
  [
   1060,
   334
  ],
  [
   2481,
   473
  ],
  [
   49,
   635
  ],
  [
   333,
   1763
  ],
  [
   1330,
   2596
  ],
  [
   101,
   289
  ],
  [
   304,
   349
  ],
  [
   32,
   431
  ],
  [
   3007,
   106
  ],
  [
   492,
   351
  ],
  [
   32,
   106
  ],
  [
   260,
   438
  ],
  [
   262,
   2336
  ],
  [
   294,
   1365
  ],
  [
   939,
   342
  ],
  [
   283,
   334
  ],
  [
   2045,
   258
  ],
  [
   3403,
   1102
  ],
  [
   694,
   1887
  ],
  [
   986,
   2396
  ],
  [
   1126,
   2721
  ],
  [
   68,
   121
  ],
  [
   300,
   406
  ],
  [
   772,
   603
  ],
  [
   866,
   1162
  ],
  [
   117,
   106
  ],
  [
   277,
   287
  ],
  [
   562,
   403
  ],
  [
   1899,
   369
  ],
  [
   2205,
   932
  ],
  [
   2579,
   844
  ],
  [
   83,
   390
  ],
  [
   284,
   1324
  ],
  [
   324,
   377
  ],
  [
   4487,
   813
  ],
  [
   6174,
   1417
  ],
  [
   104,
   263
  ],
  [
   265,
   581
  ],
  [
   1304,
   1470
  ],
  [
   4175,
   281
  ],
  [
   590,
   286
  ],
  [
   262,
   487
  ],
  [
   501,
   648
  ],
  [
   774,
   799
  ],
  [
   1928,
   2741
  ],
  [
   2465,
   447
  ],
  [
   394,
   309
  ],
  [
   419,
   1393
  ],
  [
   719,
   273
  ],
  [
   282,
   656
  ],
  [
   324,
   67
  ],
  [
   394,
   330
  ],
  [
   1387,
   801
  ],
  [
   259,
   1354
  ],
  [
   542,
   434
  ],
  [
   3846,
   307
  ],
  [
   4307,
   339
  ],
  [
   1734,
   400
  ],
  [
   258,
   365
  ],
  [
   317,
   5956
  ],
  [
   333,
   311
  ],
  [
   809,
   1599
  ],
  [
   316,
   1092
  ],
  [
   316,
   4748
  ],
  [
   432,
   1506
  ],
  [
   982,
   453
  ],
  [
   314,
   109
  ],
  [
   1958,
   499
  ],
  [
   279,
   777
  ],
  [
   375,
   98
  ],
  [
   3369,
   551
  ],
  [
   644,
   841
  ],
  [
   1083,
   335
  ],
  [
   315,
   302
  ],
  [
   1235,
   100
  ],
  [
   1309,
   453
  ],
  [
   2966,
   288
  ],
  [
   257,
   1198
  ],
  [
   767,
   101
  ],
  [
   2290,
   121
  ],
  [
   418,
   261
  ],
  [
   194,
   160
  ],
  [
   316,
   296
  ],
  [
   1054,
   2224
  ],
  [
   2003,
   308
  ],
  [
   3132,
   5396
  ],
  [
   2583,
   258
  ],
  [
   117,
   2202
  ],
  [
   520,
   535
  ],
  [
   2189,
   365
  ],
  [
   2373,
   454
  ],
  [
   381,
   289
  ],
  [
   318,
   418
  ],
  [
   413,
   2371
  ],
  [
   417,
   111
  ],
  [
   952,
   557
  ],
  [
   116,
   301
  ],
  [
   481,
   270
  ],
  [
   1929,
   700
  ],
  [
   3318,
   822
  ],
  [
   299,
   757
  ],
  [
   337,
   373
  ],
  [
   416,
   291
  ],
  [
   71,
   273
  ],
  [
   100,
   115
  ],
  [
   401,
   895
  ],
  [
   2637,
   306
  ],
  [
   4437,
   258
  ],
  [
   679,
   5434
  ],
  [
   1153,
   5013
  ],
  [
   3117,
   345
  ],
  [
   273,
   272
  ],
  [
   680,
   268
  ],
  [
   409,
   349
  ],
  [
   458,
   4667
  ],
  [
   999,
   363
  ],
  [
   2229,
   1352
  ],
  [
   277,
   433
  ],
  [
   1333,
   374
  ],
  [
   594,
   1966
  ],
  [
   498,
   3726
  ],
  [
   2089,
   270
  ],
  [
   115,
   292
  ],
  [
   3475,
   295
  ],
  [
   2490,
   1601
  ],
  [
   424,
   332
  ],
  [
   459,
   594
  ],
  [
   961,
   55
  ],
  [
   382,
   453
  ],
  [
   937,
   114
  ],
  [
   277,
   2253
  ],
  [
   432,
   2847
  ],
  [
   534,
   549
  ],
  [
   883,
   303
  ],
  [
   1780,
   1101
  ],
  [
   4024,
   303
  ],
  [
   51,
   53
  ],
  [
   115,
   261
  ],
  [
   1144,
   646
  ],
  [
   357,
   5955
  ],
  [
   767,
   452
  ],
  [
   935,
   2147
  ],
  [
   5137,
   648
  ],
  [
   87,
   302
  ],
  [
   396,
   327
  ],
  [
   2466,
   3446
  ],
  [
   381,
   527
  ],
  [
   348,
   1403
  ],
  [
   111,
   111
  ],
  [
   115,
   689
  ],
  [
   277,
   281
  ],
  [
   330,
   325
  ],
  [
   1795,
   107
  ],
  [
   1836,
   426
  ],
  [
   2925,
   393
  ],
  [
   112,
   296
  ],
  [
   289,
   390
  ],
  [
   562,
   273
  ],
  [
   595,
   54
  ],
  [
   548,
   331
  ],
  [
   1948,
   343
  ],
  [
   347,
   122
  ],
  [
   4756,
   291
  ],
  [
   105,
   261
  ],
  [
   359,
   873
  ],
  [
   1005,
   291
  ],
  [
   2558,
   1594
  ],
  [
   106,
   261
  ],
  [
   260,
   371
  ],
  [
   993,
   1426
  ],
  [
   3674,
   358
  ],
  [
   624,
   329
  ],
  [
   5456,
   1302
  ],
  [
   119,
   708
  ],
  [
   1179,
   623
  ],
  [
   257,
   3772
  ],
  [
   270,
   329
  ],
  [
   2940,
   1353
  ],
  [
   6283,
   1712
  ],
  [
   1496,
   420
  ],
  [
   2742,
   426
  ],
  [
   397,
   764
  ],
  [
   531,
   5797
  ],
  [
   548,
   867
  ],
  [
   5236,
   270
  ],
  [
   257,
   433
  ],
  [
   342,
   273
  ],
  [
   1677,
   763
  ],
  [
   2322,
   1814
  ],
  [
   2803,
   327
  ],
  [
   2437,
   292
  ],
  [
   112,
   303
  ],
  [
   545,
   389
  ],
  [
   318,
   2865
  ],
  [
   804,
   4436
  ],
  [
   446,
   327
  ],
  [
   475,
   893
  ],
  [
   698,
   329
  ],
  [
   4433,
   1095
  ],
  [
   278,
   304
  ],
  [
   1014,
   122
  ],
  [
   1358,
   329
  ],
  [
   4137,
   268
  ],
  [
   393,
   349
  ],
  [
   1233,
   341
  ],
  [
   259,
   103
  ],
  [
   530,
   280
  ],
  [
   892,
   295
  ],
  [
   1883,
   353
  ],
  [
   379,
   339
  ],
  [
   1506,
   266
  ],
  [
   320,
   1751
  ],
  [
   597,
   434
  ],
  [
   3056,
   106
  ],
  [
   122,
   389
  ],
  [
   317,
   261
  ],
  [
   264,
   386
  ],
  [
   561,
   342
  ],
  [
   5403,
   689
  ],
  [
   346,
   1807
  ],
  [
   1489,
   86
  ],
  [
   624,
   5876
  ],
  [
   851,
   669
  ],
  [
   746,
   1366
  ],
  [
   355,
   84
  ],
  [
   3268,
   871
  ],
  [
   6735,
   3024
  ],
  [
   357,
   424
  ],
  [
   1698,
   554
  ],
  [
   421,
   329
  ],
  [
   115,
   305
  ],
  [
   318,
   825
  ],
  [
   471,
   314
  ],
  [
   1135,
   700
  ],
  [
   1434,
   319
  ],
  [
   3159,
   396
  ],
  [
   541,
   114
  ],
  [
   838,
   261
  ],
  [
   3370,
   314
  ],
  [
   399,
   281
  ],
  [
   1554,
   288
  ],
  [
   1489,
   73
  ],
  [
   2561,
   266
  ],
  [
   69,
   83
  ],
  [
   75,
   117
  ],
  [
   742,
   2035
  ],
  [
   938,
   2073
  ],
  [
   1292,
   434
  ],
  [
   3207,
   519
  ],
  [
   3283,
   5342
  ],
  [
   3538,
   1542
  ],
  [
   4739,
   322
  ],
  [
   1786,
   341
  ],
  [
   2329,
   5216
  ],
  [
   272,
   429
  ],
  [
   866,
   403
  ],
  [
   2058,
   867
  ],
  [
   3610,
   499
  ],
  [
   680,
   270
  ],
  [
   726,
   1801
  ],
  [
   792,
   770
  ],
  [
   119,
   614
  ],
  [
   356,
   2701
  ],
  [
   1257,
   312
  ],
  [
   266,
   3440
  ],
  [
   296,
   269
  ],
  [
   437,
   302
  ],
  [
   838,
   453
  ],
  [
   2059,
   403
  ],
  [
   3520,
   110
  ],
  [
   2207,
   368
  ],
  [
   77,
   117
  ],
  [
   6032,
   289
  ],
  [
   4037,
   1197
  ],
  [
   74,
   2487
  ],
  [
   300,
   1375
  ],
  [
   300,
   2167
  ],
  [
   302,
   345
  ],
  [
   329,
   1524
  ],
  [
   966,
   267
  ],
  [
   743,
   571
  ],
  [
   2241,
   1950
  ],
  [
   2952,
   286
  ],
  [
   2160,
   526
  ],
  [
   283,
   1728
  ],
  [
   456,
   107
  ],
  [
   1292,
   453
  ],
  [
   2123,
   900
  ],
  [
   2193,
   6218
  ],
  [
   4886,
   272
  ],
  [
   289,
   292
  ],
  [
   355,
   1507
  ],
  [
   298,
   297
  ],
  [
   416,
   3904
  ],
  [
   1795,
   330
  ],
  [
   929,
   4141
  ],
  [
   2979,
   78
  ],
  [
   67,
   256
  ],
  [
   68,
   354
  ],
  [
   279,
   6227
  ],
  [
   1816,
   719
  ],
  [
   804,
   5930
  ],
  [
   56,
   48
  ],
  [
   317,
   280
  ],
  [
   3207,
   386
  ],
  [
   4269,
   398
  ],
  [
   349,
   319
  ],
  [
   2676,
   3251
  ],
  [
   796,
   258
  ],
  [
   2063,
   106
  ],
  [
   67,
   1851
  ],
  [
   257,
   307
  ],
  [
   983,
   1512
  ],
  [
   2783,
   307
  ],
  [
   2979,
   80
  ],
  [
   989,
   295
  ],
  [
   4225,
   464
  ],
  [
   83,
   111
  ],
  [
   282,
   784
  ],
  [
   458,
   115
  ],
  [
   575,
   425
  ],
  [
   1834,
   331
  ],
  [
   3178,
   74
  ],
  [
   259,
   1707
  ],
  [
   942,
   674
  ],
  [
   1292,
   425
  ],
  [
   1930,
   3620
  ],
  [
   1005,
   290
  ],
  [
   340,
   1542
  ],
  [
   427,
   2342
  ],
  [
   1395,
   99
  ],
  [
   3095,
   383
  ],
  [
   346,
   2052
  ],
  [
   1148,
   1180
  ],
  [
   1901,
   109
  ],
  [
   2687,
   332
  ],
  [
   407,
   294
  ],
  [
   3638,
   2418
  ],
  [
   317,
   112
  ],
  [
   318,
   3869
  ],
  [
   1148,
   1124
  ],
  [
   397,
   377
  ],
  [
   32,
   1741
  ],
  [
   298,
   364
  ],
  [
   397,
   4148
  ],
  [
   488,
   302
  ],
  [
   670,
   523
  ],
  [
   3414,
   296
  ],
  [
   534,
   1704
  ],
  [
   1250,
   2162
  ],
  [
   306,
   311
  ],
  [
   370,
   485
  ],
  [
   490,
   3299
  ],
  [
   978,
   6617
  ],
  [
   1667,
   543
  ],
  [
   2604,
   514
  ],
  [
   660,
   354
  ],
  [
   1947,
   48
  ],
  [
   2155,
   308
  ],
  [
   300,
   319
  ],
  [
   658,
   261
  ],
  [
   2273,
   3251
  ],
  [
   357,
   4902
  ],
  [
   1344,
   638
  ],
  [
   1378,
   292
  ],
  [
   1744,
   672
  ],
  [
   4190,
   1702
  ],
  [
   1569,
   3729
  ],
  [
   1896,
   1002
  ],
  [
   324,
   71
  ],
  [
   3836,
   314
  ],
  [
   4856,
   335
  ],
  [
   1920,
   499
  ],
  [
   3581,
   418
  ],
  [
   1487,
   258
  ],
  [
   279,
   297
  ],
  [
   262,
   382
  ],
  [
   989,
   3577
  ],
  [
   1392,
   349
  ],
  [
   334,
   580
  ],
  [
   458,
   2352
  ],
  [
   459,
   2587
  ],
  [
   278,
   303
  ],
  [
   338,
   270
  ],
  [
   828,
   106
  ],
  [
   103,
   289
  ],
  [
   116,
   495
  ],
  [
   588,
   2098
  ],
  [
   1919,
   360
  ],
  [
   732,
   354
  ],
  [
   1433,
   481
  ],
  [
   5001,
   282
  ],
  [
   5154,
   2696
  ],
  [
   613,
   3729
  ],
  [
   316,
   378
  ],
  [
   353,
   348
  ],
  [
   480,
   78
  ],
  [
   1227,
   328
  ],
  [
   2870,
   947
  ],
  [
   3132,
   119
  ],
  [
   108,
   309
  ],
  [
   862,
   268
  ],
  [
   3288,
   331
  ],
  [
   37,
   46
  ],
  [
   651,
   68
  ],
  [
   794,
   919
  ],
  [
   1413,
   1107
  ],
  [
   2621,
   349
  ],
  [
   291,
   3742
  ],
  [
   103,
   108
  ],
  [
   2347,
   686
  ],
  [
   531,
   288
  ],
  [
   3711,
   119
  ],
  [
   594,
   556
  ],
  [
   4201,
   1084
  ],
  [
   2560,
   348
  ],
  [
   1054,
   291
  ],
  [
   1233,
   109
  ],
  [
   1669,
   626
  ],
  [
   3137,
   1124
  ],
  [
   1320,
   303
  ],
  [
   259,
   4850
  ],
  [
   284,
   701
  ],
  [
   317,
   296
  ],
  [
   501,
   770
  ],
  [
   2476,
   310
  ],
  [
   301,
   101
  ],
  [
   969,
   116
  ],
  [
   1422,
   398
  ],
  [
   1703,
   590
  ],
  [
   325,
   1154
  ],
  [
   533,
   292
  ],
  [
   1112,
   267
  ],
  [
   116,
   312
  ],
  [
   284,
   3464
  ],
  [
   319,
   790
  ],
  [
   2643,
   722
  ],
  [
   5569,
   481
  ],
  [
   117,
   101
  ],
  [
   1272,
   258
  ],
  [
   1580,
   1691
  ],
  [
   4590,
   2236
  ],
  [
   257,
   493
  ],
  [
   853,
   371
  ],
  [
   1294,
   272
  ],
  [
   1819,
   3189
  ],
  [
   4855,
   807
  ],
  [
   2275,
   328
  ],
  [
   1009,
   359
  ],
  [
   32,
   1748
  ],
  [
   391,
   110
  ],
  [
   625,
   6485
  ],
  [
   105,
   116
  ],
  [
   259,
   909
  ],
  [
   530,
   985
  ],
  [
   3553,
   6992
  ],
  [
   5257,
   1508
  ],
  [
   119,
   338
  ],
  [
   397,
   4419
  ],
  [
   422,
   514
  ],
  [
   659,
   382
  ],
  [
   1747,
   268
  ],
  [
   2939,
   1694
  ],
  [
   819,
   822
  ],
  [
   318,
   1080
  ],
  [
   379,
   772
  ],
  [
   278,
   280
  ],
  [
   289,
   268
  ],
  [
   90,
   261
  ],
  [
   1344,
   335
  ],
  [
   1869,
   2519
  ],
  [
   296,
   447
  ],
  [
   616,
   872
  ],
  [
   310,
   289
  ],
  [
   630,
   332
  ],
  [
   702,
   268
  ],
  [
   848,
   334
  ],
  [
   1122,
   44
  ],
  [
   2297,
   406
  ],
  [
   84,
   89
  ],
  [
   609,
   3278
  ],
  [
   2676,
   3785
  ],
  [
   4002,
   368
  ],
  [
   79,
   114
  ],
  [
   83,
   75
  ],
  [
   283,
   297
  ],
  [
   498,
   5962
  ],
  [
   2058,
   822
  ],
  [
   2504,
   2616
  ],
  [
   829,
   359
  ],
  [
   1309,
   429
  ],
  [
   1395,
   335
  ],
  [
   1750,
   1601
  ],
  [
   333,
   466
  ],
  [
   407,
   3896
  ],
  [
   412,
   1033
  ],
  [
   961,
   51
  ],
  [
   1351,
   1594
  ],
  [
   381,
   304
  ],
  [
   457,
   289
  ],
  [
   538,
   2358
  ],
  [
   655,
   6260
  ],
  [
   705,
   623
  ],
  [
   259,
   2947
  ],
  [
   3533,
   638
  ],
  [
   4702,
   1530
  ],
  [
   116,
   725
  ],
  [
   343,
   297
  ],
  [
   510,
   474
  ],
  [
   624,
   3703
  ],
  [
   744,
   289
  ],
  [
   2145,
   258
  ],
  [
   2227,
   668
  ],
  [
   2381,
   800
  ],
  [
   5862,
   438
  ],
  [
   1766,
   2231
  ],
  [
   261,
   894
  ],
  [
   838,
   425
  ],
  [
   104,
   5364
  ],
  [
   533,
   288
  ],
  [
   905,
   403
  ],
  [
   432,
   340
  ],
  [
   1359,
   674
  ],
  [
   4791,
   1464
  ],
  [
   2111,
   297
  ],
  [
   2256,
   2633
  ],
  [
   260,
   551
  ],
  [
   1974,
   290
  ],
  [
   2878,
   338
  ],
  [
   100,
   1942
  ],
  [
   679,
   111
  ],
  [
   522,
   6577
  ],
  [
   3233,
   684
  ],
  [
   410,
   347
  ],
  [
   1034,
   1697
  ],
  [
   360,
   258
  ],
  [
   679,
   2708
  ],
  [
   1509,
   486
  ],
  [
   382,
   114
  ],
  [
   538,
   1063
  ],
  [
   2726,
   1197
  ],
  [
   281,
   1322
  ],
  [
   593,
   5827
  ],
  [
   597,
   429
  ],
  [
   752,
   295
  ],
  [
   289,
   106
  ],
  [
   1598,
   308
  ],
  [
   520,
   409
  ],
  [
   595,
   50
  ],
  [
   1614,
   325
  ],
  [
   291,
   119
  ],
  [
   120,
   97
  ],
  [
   288,
   368
  ],
  [
   581,
   270
  ],
  [
   1227,
   288
  ],
  [
   275,
   4331
  ],
  [
   1518,
   1668
  ],
  [
   4025,
   360
  ],
  [
   298,
   818
  ],
  [
   2123,
   112
  ],
  [
   122,
   473
  ],
  [
   270,
   364
  ],
  [
   522,
   119
  ],
  [
   644,
   328
  ],
  [
   1234,
   1278
  ],
  [
   3635,
   107
  ],
  [
   32,
   1269
  ],
  [
   588,
   287
  ],
  [
   1174,
   288
  ],
  [
   2160,
   115
  ],
  [
   712,
   434
  ],
  [
   757,
   1383
  ],
  [
   906,
   330
  ],
  [
   705,
   271
  ],
  [
   257,
   1475
  ],
  [
   548,
   1393
  ],
  [
   1169,
   455
  ],
  [
   1294,
   290
  ],
  [
   1311,
   833
  ],
  [
   5025,
   1384
  ],
  [
   262,
   408
  ],
  [
   315,
   311
  ],
  [
   594,
   634
  ],
  [
   2964,
   1412
  ],
  [
   316,
   1097
  ],
  [
   386,
   348
  ],
  [
   1387,
   1412
  ],
  [
   3803,
   343
  ],
  [
   651,
   364
  ],
  [
   750,
   1182
  ],
  [
   317,
   331
  ],
  [
   355,
   302
  ],
  [
   848,
   1668
  ],
  [
   1157,
   672
  ],
  [
   98,
   274
  ],
  [
   3046,
   1325
  ],
  [
   448,
   307
  ],
  [
   463,
   107
  ],
  [
   3918,
   3122
  ],
  [
   4788,
   258
  ],
  [
   875,
   456
  ],
  [
   935,
   433
  ],
  [
   2210,
   426
  ],
  [
   409,
   269
  ],
  [
   450,
   1955
  ],
  [
   1257,
   949
  ],
  [
   2189,
   499
  ],
  [
   3196,
   429
  ],
  [
   122,
   492
  ],
  [
   3870,
   360
  ],
  [
   1700,
   434
  ],
  [
   116,
   909
  ],
  [
   338,
   3265
  ],
  [
   356,
   445
  ],
  [
   941,
   266
  ],
  [
   79,
   71
  ],
  [
   314,
   687
  ],
  [
   501,
   358
  ],
  [
   534,
   455
  ],
  [
   734,
   1464
  ],
  [
   2511,
   288
  ],
  [
   2558,
   1221
  ],
  [
   284,
   386
  ],
  [
   630,
   109
  ],
  [
   370,
   325
  ],
  [
   459,
   6528
  ],
  [
   588,
   6965
  ],
  [
   5335,
   296
  ],
  [
   110,
   453
  ],
  [
   278,
   425
  ],
  [
   918,
   292
  ],
  [
   4324,
   611
  ],
  [
   282,
   614
  ],
  [
   407,
   308
  ],
  [
   2782,
   309
  ],
  [
   259,
   1182
  ],
  [
   271,
   301
  ],
  [
   379,
   4938
  ],
  [
   1633,
   2625
  ],
  [
   99,
   618
  ],
  [
   740,
   6053
  ],
  [
   356,
   334
  ],
  [
   636,
   3904
  ],
  [
   878,
   99
  ],
  [
   1787,
   281
  ],
  [
   3329,
   1403
  ],
  [
   3937,
   398
  ],
  [
   5926,
   1095
  ],
  [
   1029,
   1372
  ],
  [
   1664,
   351
  ],
  [
   1856,
   326
  ],
  [
   4267,
   341
  ],
  [
   324,
   90
  ],
  [
   342,
   782
  ],
  [
   852,
   447
  ],
  [
   2270,
   310
  ],
  [
   110,
   268
  ],
  [
   281,
   649
  ],
  [
   586,
   641
  ],
  [
   1225,
   288
  ],
  [
   497,
   4318
  ],
  [
   80,
   309
  ],
  [
   294,
   114
  ],
  [
   2405,
   296
  ],
  [
   594,
   114
  ],
  [
   4955,
   327
  ],
  [
   3165,
   1659
  ],
  [
   4131,
   5253
  ],
  [
   262,
   483
  ],
  [
   364,
   326
  ],
  [
   3555,
   3801
  ],
  [
   321,
   108
  ],
  [
   547,
   114
  ],
  [
   2275,
   261
  ],
  [
   3840,
   327
  ],
  [
   283,
   378
  ],
  [
   32,
   258
  ],
  [
   1047,
   1524
  ],
  [
   2870,
   326
  ],
  [
   3143,
   360
  ],
  [
   356,
   5385
  ],
  [
   942,
   447
  ],
  [
   1168,
   6096
  ],
  [
   284,
   4422
  ],
  [
   318,
   296
  ],
  [
   694,
   98
  ],
  [
   1160,
   1046
  ],
  [
   101,
   290
  ],
  [
   300,
   691
  ],
  [
   366,
   389
  ],
  [
   399,
   2390
  ],
  [
   1257,
   341
  ],
  [
   266,
   1072
  ],
  [
   388,
   664
  ],
  [
   1032,
   358
  ],
  [
   1158,
   715
  ],
  [
   534,
   327
  ],
  [
   2347,
   649
  ],
  [
   381,
   704
  ],
  [
   717,
   438
  ],
  [
   771,
   1515
  ],
  [
   389,
   4717
  ],
  [
   1763,
   1643
  ],
  [
   32,
   434
  ],
  [
   548,
   756
  ],
  [
   112,
   376
  ],
  [
   262,
   268
  ],
  [
   2195,
   954
  ],
  [
   451,
   789
  ],
  [
   536,
   2575
  ],
  [
   548,
   465
  ],
  [
   1387,
   876
  ],
  [
   4187,
   289
  ],
  [
   467,
   826
  ],
  [
   1517,
   618
  ],
  [
   4980,
   422
  ],
  [
   318,
   450
  ],
  [
   430,
   332
  ],
  [
   1970,
   353
  ],
  [
   32,
   1508
  ],
  [
   51,
   49
  ],
  [
   106,
   306
  ],
  [
   352,
   1236
  ],
  [
   459,
   560
  ],
  [
   320,
   312
  ],
  [
   459,
   6027
  ],
  [
   1399,
   376
  ],
  [
   2094,
   121
  ],
  [
   270,
   527
  ],
  [
   3380,
   2096
  ],
  [
   111,
   301
  ],
  [
   122,
   409
  ],
  [
   288,
   813
  ],
  [
   352,
   1386
  ],
  [
   593,
   3347
  ],
  [
   1039,
   1632
  ],
  [
   1201,
   557
  ],
  [
   7169,
   109
  ],
  [
   315,
   329
  ],
  [
   463,
   99
  ],
  [
   1378,
   363
  ],
  [
   2830,
   106
  ],
  [
   110,
   455
  ],
  [
   742,
   590
  ],
  [
   100,
   699
  ],
  [
   100,
   709
  ],
  [
   368,
   101
  ],
  [
   3151,
   994
  ],
  [
   5129,
   408
  ],
  [
   433,
   351
  ],
  [
   482,
   528
  ],
  [
   646,
   289
  ],
  [
   109,
   376
  ],
  [
   273,
   339
  ],
  [
   355,
   1078
  ],
  [
   3417,
   303
  ],
  [
   76,
   65
  ],
  [
   335,
   327
  ],
  [
   346,
   89
  ],
  [
   103,
   543
  ],
  [
   471,
   6483
  ],
  [
   1193,
   378
  ],
  [
   265,
   312
  ],
  [
   457,
   556
  ],
  [
   613,
   338
  ],
  [
   3764,
   994
  ],
  [
   3205,
   589
  ],
  [
   410,
   4058
  ],
  [
   1680,
   319
  ],
  [
   83,
   5222
  ],
  [
   119,
   373
  ],
  [
   256,
   110
  ],
  [
   1362,
   351
  ],
  [
   4834,
   519
  ],
  [
   2370,
   398
  ],
  [
   338,
   1790
  ],
  [
   1378,
   261
  ],
  [
   355,
   329
  ],
  [
   2295,
   5481
  ],
  [
   65,
   114
  ],
  [
   608,
   274
  ],
  [
   1369,
   994
  ],
  [
   5195,
   117
  ],
  [
   76,
   111
  ],
  [
   308,
   268
  ],
  [
   419,
   1072
  ],
  [
   715,
   258
  ],
  [
   796,
   108
  ],
  [
   1304,
   2930
  ],
  [
   1742,
   466
  ],
  [
   78,
   1851
  ],
  [
   1642,
   462
  ],
  [
   3191,
   349
  ],
  [
   4599,
   368
  ],
  [
   324,
   420
  ],
  [
   395,
   469
  ],
  [
   956,
   261
  ],
  [
   1060,
   708
  ],
  [
   1271,
   426
  ],
  [
   1449,
   351
  ],
  [
   294,
   536
  ],
  [
   318,
   1966
  ],
  [
   2095,
   388
  ],
  [
   84,
   1367
  ],
  [
   1557,
   1985
  ],
  [
   4561,
   1302
  ],
  [
   864,
   1382
  ],
  [
   1153,
   591
  ],
  [
   1181,
   856
  ],
  [
   2366,
   302
  ],
  [
   4771,
   308
  ],
  [
   441,
   327
  ],
  [
   1071,
   466
  ],
  [
   2566,
   411
  ],
  [
   2880,
   295
  ],
  [
   412,
   354
  ],
  [
   260,
   408
  ],
  [
   889,
   1613
  ],
  [
   969,
   383
  ],
  [
   3226,
   731
  ],
  [
   3268,
   294
  ],
  [
   1201,
   297
  ],
  [
   1548,
   2893
  ],
  [
   4060,
   708
  ],
  [
   4242,
   994
  ],
  [
   593,
   353
  ],
  [
   2564,
   1102
  ],
  [
   413,
   2552
  ],
  [
   815,
   319
  ],
  [
   1194,
   343
  ],
  [
   317,
   3819
  ],
  [
   1850,
   5751
  ],
  [
   32,
   42
  ],
  [
   534,
   713
  ],
  [
   1517,
   768
  ],
  [
   2983,
   408
  ],
  [
   4504,
   1221
  ],
  [
   285,
   271
  ],
  [
   1913,
   306
  ],
  [
   3213,
   119
  ],
  [
   32,
   61
  ],
  [
   100,
   359
  ],
  [
   116,
   769
  ],
  [
   257,
   422
  ],
  [
   1058,
   876
  ],
  [
   1211,
   998
  ],
  [
   107,
   268
  ],
  [
   346,
   122
  ],
  [
   259,
   2107
  ],
  [
   333,
   5787
  ],
  [
   2724,
   700
  ],
  [
   683,
   3434
  ],
  [
   853,
   1168
  ],
  [
   103,
   799
  ],
  [
   1032,
   342
  ],
  [
   304,
   580
  ],
  [
   847,
   308
  ],
  [
   1646,
   798
  ],
  [
   4482,
   1884
  ],
  [
   121,
   111
  ],
  [
   265,
   319
  ],
  [
   300,
   1046
  ],
  [
   459,
   2971
  ],
  [
   1618,
   867
  ],
  [
   1445,
   292
  ],
  [
   5550,
   487
  ],
  [
   272,
   433
  ],
  [
   325,
   813
  ],
  [
   2060,
   261
  ],
  [
   750,
   2489
  ],
  [
   955,
   4670
  ],
  [
   1148,
   626
  ],
  [
   2732,
   4366
  ],
  [
   1245,
   1203
  ],
  [
   318,
   112
  ],
  [
   95,
   95
  ],
  [
   99,
   331
  ],
  [
   542,
   429
  ],
  [
   840,
   258
  ],
  [
   103,
   499
  ],
  [
   1027,
   295
  ],
  [
   1301,
   2369
  ],
  [
   273,
   447
  ],
  [
   282,
   331
  ],
  [
   1838,
   907
  ],
  [
   419,
   2576
  ],
  [
   2608,
   894
  ],
  [
   892,
   932
  ],
  [
   6048,
   784
  ],
  [
   337,
   4500
  ],
  [
   528,
   306
  ],
  [
   1050,
   294
  ],
  [
   5235,
   331
  ],
  [
   366,
   560
  ],
  [
   1431,
   267
  ],
  [
   402,
   117
  ],
  [
   2111,
   4871
  ],
  [
   4520,
   268
  ],
  [
   316,
   2335
  ],
  [
   355,
   896
  ],
  [
   356,
   1324
  ],
  [
   550,
   331
  ],
  [
   260,
   417
  ],
  [
   298,
   560
  ],
  [
   2900,
   319
  ],
  [
   262,
   286
  ],
  [
   2060,
   110
  ],
  [
   1551,
   947
  ],
  [
   3716,
   368
  ],
  [
   781,
   329
  ],
  [
   1014,
   594
  ],
  [
   270,
   328
  ],
  [
   277,
   1002
  ],
  [
   492,
   306
  ],
  [
   945,
   879
  ],
  [
   522,
   704
  ],
  [
   1959,
   99
  ],
  [
   7127,
   108
  ],
  [
   82,
   660
  ],
  [
   528,
   1041
  ],
  [
   1200,
   295
  ],
  [
   3491,
   273
  ],
  [
   97,
   116
  ],
  [
   109,
   570
  ],
  [
   2486,
   117
  ],
  [
   289,
   359
  ],
  [
   2372,
   3190
  ],
  [
   2709,
   1022
  ],
  [
   117,
   270
  ],
  [
   744,
   334
  ],
  [
   744,
   1036
  ],
  [
   1309,
   363
  ],
  [
   122,
   110
  ],
  [
   439,
   1307
  ],
  [
   848,
   295
  ],
  [
   100,
   693
  ],
  [
   653,
   286
  ],
  [
   1993,
   2472
  ],
  [
   2831,
   1547
  ],
  [
   282,
   288
  ],
  [
   1487,
   268
  ],
  [
   1052,
   7225
  ],
  [
   3643,
   1007
  ],
  [
   450,
   261
  ],
  [
   1618,
   1482
  ],
  [
   6424,
   6488
  ],
  [
   316,
   953
  ],
  [
   514,
   335
  ],
  [
   624,
   2761
  ],
  [
   761,
   582
  ],
  [
   1535,
   4966
  ],
  [
   3353,
   7138
  ],
  [
   285,
   368
  ],
  [
   300,
   1307
  ],
  [
   1037,
   5564
  ],
  [
   1652,
   291
  ],
  [
   262,
   668
  ],
  [
   853,
   5584
  ],
  [
   1813,
   302
  ],
  [
   3120,
   326
  ],
  [
   4033,
   342
  ],
  [
   416,
   677
  ],
  [
   444,
   359
  ],
  [
   478,
   327
  ],
  [
   4550,
   2943
  ],
  [
   259,
   3287
  ],
  [
   640,
   2472
  ],
  [
   887,
   1794
  ],
  [
   2134,
   308
  ],
  [
   2895,
   798
  ],
  [
   318,
   1407
  ],
  [
   416,
   1741
  ],
  [
   534,
   334
  ],
  [
   766,
   98
  ],
  [
   1156,
   280
  ],
  [
   456,
   108
  ],
  [
   2856,
   1139
  ],
  [
   112,
   466
  ],
  [
   532,
   268
  ],
  [
   2938,
   619
  ],
  [
   4868,
   266
  ],
  [
   5840,
   1276
  ],
  [
   1899,
   258
  ],
  [
   2146,
   557
  ],
  [
   2540,
   3422
  ],
  [
   69,
   76
  ],
  [
   404,
   580
  ],
  [
   527,
   103
  ],
  [
   318,
   270
  ],
  [
   2999,
   302
  ],
  [
   2204,
   822
  ],
  [
   4463,
   302
  ],
  [
   2272,
   307
  ],
  [
   122,
   306
  ],
  [
   337,
   100
  ],
  [
   382,
   109
  ],
  [
   395,
   114
  ],
  [
   432,
   1246
  ],
  [
   609,
   646
  ],
  [
   2413,
   347
  ],
  [
   2675,
   571
  ],
  [
   450,
   291
  ],
  [
   1021,
   2388
  ],
  [
   1834,
   107
  ],
  [
   3410,
   326
  ],
  [
   262,
   2346
  ],
  [
   1014,
   660
  ],
  [
   3283,
   2550
  ],
  [
   83,
   83
  ],
  [
   103,
   587
  ],
  [
   2451,
   292
  ],
  [
   3135,
   115
  ],
  [
   5099,
   345
  ],
  [
   298,
   552
  ],
  [
   849,
   398
  ],
  [
   1449,
   1100
  ],
  [
   574,
   562
  ],
  [
   683,
   4500
  ],
  [
   1060,
   99
  ],
  [
   1517,
   306
  ],
  [
   1761,
   1284
  ],
  [
   2604,
   3830
  ],
  [
   289,
   112
  ],
  [
   320,
   825
  ],
  [
   459,
   383
  ],
  [
   498,
   462
  ],
  [
   4169,
   386
  ],
  [
   110,
   677
  ],
  [
   299,
   3697
  ],
  [
   1351,
   700
  ],
  [
   2077,
   258
  ],
  [
   2124,
   107
  ],
  [
   333,
   591
  ],
  [
   597,
   425
  ],
  [
   1013,
   1102
  ],
  [
   1371,
   876
  ],
  [
   3094,
   398
  ],
  [
   392,
   349
  ],
  [
   759,
   5380
  ],
  [
   260,
   2987
  ],
  [
   358,
   368
  ],
  [
   864,
   482
  ],
  [
   72,
   105
  ],
  [
   615,
   106
  ],
  [
   2918,
   312
  ],
  [
   4922,
   331
  ],
  [
   288,
   438
  ],
  [
   983,
   4729
  ],
  [
   2382,
   295
  ],
  [
   44,
   553
  ],
  [
   480,
   80
  ],
  [
   4483,
   796
  ],
  [
   2223,
   286
  ],
  [
   62,
   62
  ],
  [
   98,
   309
  ],
  [
   262,
   964
  ],
  [
   278,
   109
  ],
  [
   456,
   117
  ],
  [
   457,
   330
  ],
  [
   2432,
   104
  ],
  [
   327,
   107
  ],
  [
   381,
   101
  ],
  [
   397,
   280
  ],
  [
   6521,
   107
  ],
  [
   110,
   1147
  ],
  [
   277,
   1186
  ],
  [
   1539,
   48
  ],
  [
   2760,
   1464
  ],
  [
   116,
   469
  ],
  [
   457,
   1046
  ],
  [
   502,
   326
  ],
  [
   595,
   51
  ],
  [
   498,
   5457
  ],
  [
   961,
   54
  ],
  [
   4378,
   681
  ],
  [
   395,
   699
  ],
  [
   262,
   377
  ],
  [
   3976,
   301
  ],
  [
   324,
   734
  ],
  [
   502,
   382
  ],
  [
   547,
   1252
  ],
  [
   828,
   1689
  ],
  [
   1933,
   295
  ],
  [
   84,
   273
  ],
  [
   288,
   503
  ],
  [
   3964,
   2158
  ],
  [
   344,
   330
  ],
  [
   350,
   805
  ],
  [
   1059,
   1666
  ],
  [
   1308,
   6903
  ],
  [
   3670,
   932
  ],
  [
   108,
   4280
  ],
  [
   431,
   4558
  ],
  [
   457,
   628
  ],
  [
   558,
   312
  ],
  [
   1946,
   335
  ],
  [
   5192,
   975
  ],
  [
   71,
   65
  ],
  [
   1225,
   464
  ],
  [
   773,
   455
  ],
  [
   781,
   6751
  ],
  [
   1490,
   325
  ],
  [
   2615,
   301
  ],
  [
   346,
   1894
  ],
  [
   742,
   292
  ],
  [
   2540,
   571
  ],
  [
   3362,
   1077
  ],
  [
   593,
   289
  ],
  [
   55,
   48
  ],
  [
   2539,
   1417
  ],
  [
   5869,
   269
  ],
  [
   197,
   131
  ],
  [
   1112,
   264
  ],
  [
   3247,
   365
  ],
  [
   370,
   106
  ],
  [
   406,
   116
  ],
  [
   262,
   3345
  ],
  [
   316,
   724
  ],
  [
   319,
   861
  ],
  [
   336,
   156
  ],
  [
   416,
   290
  ],
  [
   488,
   4843
  ],
  [
   291,
   273
  ],
  [
   767,
   319
  ],
  [
   1419,
   587
  ],
  [
   1661,
   348
  ],
  [
   2808,
   122
  ],
  [
   2940,
   1274
  ],
  [
   3673,
   454
  ],
  [
   5609,
   1089
  ],
  [
   326,
   327
  ],
  [
   332,
   418
  ],
  [
   337,
   975
  ],
  [
   600,
   4141
  ],
  [
   1187,
   268
  ],
  [
   3195,
   281
  ],
  [
   110,
   312
  ],
  [
   370,
   6959
  ],
  [
   1212,
   270
  ],
  [
   1315,
   119
  ],
  [
   2530,
   289
  ],
  [
   3370,
   119
  ],
  [
   4342,
   664
  ],
  [
   2132,
   329
  ],
  [
   1038,
   870
  ],
  [
   5048,
   106
  ],
  [
   5451,
   290
  ],
  [
   588,
   261
  ],
  [
   4765,
   928
  ],
  [
   275,
   4832
  ],
  [
   370,
   108
  ],
  [
   2811,
   2096
  ],
  [
   567,
   960
  ],
  [
   765,
   273
  ],
  [
   2259,
   822
  ],
  [
   2958,
   269
  ],
  [
   4176,
   5280
  ],
  [
   80,
   76
  ],
  [
   4174,
   1643
  ],
  [
   352,
   302
  ],
  [
   404,
   707
  ],
  [
   1039,
   3202
  ],
  [
   2718,
   114
  ],
  [
   3769,
   850
  ],
  [
   4452,
   641
  ],
  [
   103,
   504
  ],
  [
   103,
   589
  ],
  [
   112,
   304
  ],
  [
   259,
   3464
  ],
  [
   582,
   931
  ],
  [
   83,
   101
  ],
  [
   279,
   354
  ],
  [
   32,
   686
  ],
  [
   3874,
   1078
  ],
  [
   411,
   111
  ],
  [
   527,
   117
  ],
  [
   4510,
   2230
  ],
  [
   6339,
   1831
  ],
  [
   320,
   2647
  ],
  [
   516,
   464
  ],
  [
   640,
   526
  ],
  [
   3015,
   1537
  ],
  [
   3300,
   109
  ],
  [
   746,
   2883
  ],
  [
   299,
   700
  ],
  [
   721,
   266
  ],
  [
   3448,
   858
  ],
  [
   6586,
   2454
  ],
  [
   74,
   69
  ],
  [
   640,
   109
  ],
  [
   41,
   59
  ],
  [
   1898,
   268
  ],
  [
   3004,
   268
  ],
  [
   257,
   368
  ],
  [
   636,
   291
  ],
  [
   1997,
   1322
  ],
  [
   316,
   1661
  ],
  [
   521,
   565
  ],
  [
   3055,
   3024
  ],
  [
   501,
   6037
  ],
  [
   548,
   306
  ],
  [
   609,
   268
  ],
  [
   956,
   268
  ],
  [
   1682,
   270
  ],
  [
   6673,
   292
  ],
  [
   316,
   1105
  ],
  [
   640,
   485
  ],
  [
   1094,
   465
  ],
  [
   3504,
   2215
  ],
  [
   262,
   348
  ],
  [
   437,
   1488
  ],
  [
   643,
   2399
  ],
  [
   1922,
   295
  ],
  [
   284,
   388
  ],
  [
   4439,
   398
  ],
  [
   412,
   280
  ],
  [
   1233,
   445
  ],
  [
   287,
   872
  ],
  [
   460,
   305
  ],
  [
   1708,
   295
  ],
  [
   267,
   100
  ],
  [
   412,
   309
  ],
  [
   1090,
   109
  ],
  [
   78,
   101
  ],
  [
   283,
   280
  ],
  [
   284,
   340
  ],
  [
   325,
   280
  ],
  [
   1642,
   2368
  ],
  [
   2751,
   368
  ],
  [
   2808,
   1858
  ],
  [
   108,
   115
  ],
  [
   3214,
   307
  ],
  [
   284,
   393
  ],
  [
   419,
   321
  ],
  [
   955,
   3742
  ],
  [
   1548,
   5140
  ],
  [
   1984,
   1894
  ],
  [
   960,
   261
  ],
  [
   1176,
   1547
  ],
  [
   4090,
   469
  ],
  [
   4533,
   4145
  ],
  [
   316,
   825
  ],
  [
   115,
   1302
  ],
  [
   258,
   326
  ],
  [
   280,
   562
  ],
  [
   285,
   4807
  ],
  [
   759,
   340
  ],
  [
   1645,
   570
  ],
  [
   2087,
   7701
  ],
  [
   4067,
   296
  ],
  [
   605,
   2835
  ],
  [
   692,
   268
  ],
  [
   501,
   342
  ],
  [
   1590,
   119
  ],
  [
   90,
   100
  ],
  [
   298,
   5411
  ],
  [
   73,
   67
  ],
  [
   427,
   359
  ],
  [
   852,
   674
  ],
  [
   1073,
   393
  ],
  [
   5784,
   518
  ],
  [
   307,
   396
  ],
  [
   978,
   290
  ],
  [
   1369,
   891
  ],
  [
   352,
   6229
  ],
  [
   935,
   648
  ],
  [
   1015,
   2416
  ],
  [
   1292,
   292
  ],
  [
   381,
   309
  ],
  [
   892,
   922
  ],
  [
   316,
   290
  ],
  [
   625,
   5417
  ],
  [
   1700,
   328
  ],
  [
   3538,
   900
  ],
  [
   283,
   628
  ],
  [
   852,
   2971
  ],
  [
   1459,
   1779
  ],
  [
   118,
   256
  ],
  [
   970,
   121
  ],
  [
   68,
   411
  ],
  [
   413,
   6568
  ],
  [
   61,
   61
  ],
  [
   959,
   327
  ],
  [
   1035,
   53
  ],
  [
   1566,
   369
  ],
  [
   1588,
   4676
  ],
  [
   5273,
   351
  ],
  [
   673,
   119
  ],
  [
   1078,
   406
  ],
  [
   1433,
   674
  ],
  [
   3138,
   1146
  ],
  [
   3626,
   398
  ],
  [
   315,
   348
  ],
  [
   528,
   296
  ],
  [
   6186,
   334
  ],
  [
   289,
   289
  ],
  [
   293,
   99
  ],
  [
   299,
   1044
  ],
  [
   1188,
   348
  ],
  [
   2563,
   365
  ],
  [
   279,
   291
  ],
  [
   452,
   270
  ],
  [
   501,
   351
  ],
  [
   1260,
   374
  ],
  [
   432,
   7311
  ],
  [
   4290,
   312
  ],
  [
   276,
   1116
  ],
  [
   682,
   4318
  ],
  [
   345,
   398
  ],
  [
   370,
   345
  ],
  [
   479,
   3606
  ],
  [
   1266,
   2761
  ],
  [
   2270,
   4357
  ],
  [
   6701,
   1133
  ],
  [
   266,
   389
  ],
  [
   407,
   256
  ],
  [
   3145,
   111
  ],
  [
   73,
   77
  ],
  [
   442,
   303
  ],
  [
   592,
   618
  ],
  [
   274,
   845
  ],
  [
   287,
   306
  ],
  [
   4682,
   906
  ],
  [
   5446,
   103
  ],
  [
   57,
   48
  ],
  [
   270,
   268
  ],
  [
   110,
   326
  ],
  [
   282,
   116
  ],
  [
   1164,
   258
  ],
  [
   1374,
   1384
  ],
  [
   2087,
   2126
  ],
  [
   2283,
   266
  ],
  [
   317,
   314
  ],
  [
   412,
   264
  ],
  [
   1115,
   268
  ],
  [
   4034,
   623
  ],
  [
   603,
   258
  ],
  [
   112,
   329
  ],
  [
   761,
   1252
  ],
  [
   1117,
   109
  ],
  [
   1721,
   307
  ],
  [
   440,
   45
  ],
  [
   1842,
   1118
  ],
  [
   75,
   343
  ],
  [
   100,
   2488
  ],
  [
   277,
   1354
  ],
  [
   316,
   948
  ],
  [
   322,
   1884
  ],
  [
   643,
   108
  ],
  [
   853,
   1568
  ],
  [
   1445,
   261
  ],
  [
   3497,
   268
  ],
  [
   109,
   263
  ],
  [
   586,
   5602
  ],
  [
   1123,
   904
  ],
  [
   318,
   886
  ],
  [
   379,
   1575
  ],
  [
   458,
   3317
  ],
  [
   459,
   312
  ],
  [
   712,
   429
  ],
  [
   4120,
   2911
  ],
  [
   4822,
   295
  ],
  [
   299,
   1443
  ],
  [
   309,
   1426
  ],
  [
   783,
   342
  ],
  [
   595,
   52
  ],
  [
   1748,
   100
  ],
  [
   3312,
   373
  ],
  [
   115,
   408
  ],
  [
   319,
   115
  ],
  [
   671,
   295
  ],
  [
   2857,
   267
  ],
  [
   277,
   1044
  ],
  [
   324,
   329
  ],
  [
   370,
   4129
  ],
  [
   32,
   649
  ],
  [
   299,
   105
  ],
  [
   345,
   261
  ],
  [
   986,
   73
  ],
  [
   1003,
   557
  ],
  [
   1559,
   326
  ],
  [
   1579,
   294
  ],
  [
   1929,
   334
  ],
  [
   2479,
   342
  ],
  [
   2510,
   295
  ],
  [
   3583,
   334
  ],
  [
   283,
   354
  ],
  [
   304,
   328
  ],
  [
   80,
   79
  ],
  [
   608,
   7190
  ]
 ],
 "vocab": {
  "0": "Ā",
  "1": "ā",
  "2": "Ă",
  "3": "ă",
  "4": "Ą",
  "5": "ą",
  "6": "Ć",
  "7": "ć",
  "8": "Ĉ",
  "9": "ĉ",
  "10": "Ċ",
  "11": "ċ",
  "12": "Č",
  "13": "č",
  "14": "Ď",
  "15": "ď",
  "16": "Đ",
  "17": "đ",
  "18": "Ē",
  "19": "ē",
  "20": "Ĕ",
  "21": "ĕ",
  "22": "Ė",
  "23": "ė",
  "24": "Ę",
  "25": "ę",
  "26": "Ě",
  "27": "ě",
  "28": "Ĝ",
  "29": "ĝ",
  "30": "Ğ",
  "31": "ğ",
  "32": "Ġ",
  "33": "!",
  "34": "\"",
  "35": "#",
  "36": "$",
  "37": "%",
  "38": "&",
  "39": "'",
  "40": "(",
  "41": ")",
  "42": "*",
  "43": "+",
  "44": ",",
  "45": "-",
  "46": ".",
  "47": "/",
  "48": "0",
  "49": "1",
  "50": "2",
  "51": "3",
  "52": "4",
  "53": "5",
  "54": "6",
  "55": "7",
  "56": "8",
  "57": "9",
  "58": ":",
  "59": ";",
  "60": "<",
  "61": "=",
  "62": ">",
  "63": "?",
  "64": "@",
  "65": "A",
  "66": "B",
  "67": "C",
  "68": "D",
  "69": "E",
  "70": "F",
  "71": "G",
  "72": "H",
  "73": "I",
  "74": "J",
  "75": "K",
  "76": "L",
  "77": "M",
  "78": "N",
  "79": "O",
  "80": "P",
  "81": "Q",
  "82": "R",
  "83": "S",
  "84": "T",
  "85": "U",
  "86": "V",
  "87": "W",
  "88": "X",
  "89": "Y",
  "90": "Z",
  "91": "[",
  "92": "\\",
  "93": "]",
  "94": "^",
  "95": "_",
  "96": "`",
  "97": "a",
  "98": "b",
  "99": "c",
  "100": "d",
  "101": "e",
  "102": "f",
  "103": "g",
  "104": "h",
  "105": "i",
  "106": "j",
  "107": "k",
  "108": "l",
  "109": "m",
  "110": "n",
  "111": "o",
  "112": "p",
  "113": "q",
  "114": "r",
  "115": "s",
  "116": "t",
  "117": "u",
  "118": "v",
  "119": "w",
  "120": "x",
  "121": "y",
  "122": "z",
  "123": "{",
  "124": "|",
  "125": "}",
  "126": "~",
  "127": "ġ",
  "128": "Ģ",
  "129": "ģ",
  "130": "Ĥ",
  "131": "ĥ",
  "132": "Ħ",
  "133": "ħ",
  "134": "Ĩ",
  "135": "ĩ",
  "136": "Ī",
  "137": "ī",
  "138": "Ĭ",
  "139": "ĭ",
  "140": "Į",
  "141": "į",
  "142": "İ",
  "143": "ı",
  "144": "Ĳ",
  "145": "ĳ",
  "146": "Ĵ",
  "147": "ĵ",
  "148": "Ķ",
  "149": "ķ",
  "150": "ĸ",
  "151": "Ĺ",
  "152": "ĺ",
  "153": "Ļ",
  "154": "ļ",
  "155": "Ľ",
  "156": "ľ",
  "157": "Ŀ",
  "158": "ŀ",
  "159": "Ł",
  "160": "ł",
  "161": "¡",
  "162": "¢",
  "163": "£",
  "164": "¤",
  "165": "¥",
  "166": "¦",
  "167": "§",
  "168": "¨",
  "169": "©",
  "170": "ª",
  "171": "«",
  "172": "¬",
  "173": "Ń",
  "174": "®",
  "175": "¯",
  "176": "°",
  "177": "±",
  "178": "²",
  "179": "³",
  "180": "´",
  "181": "µ",
  "182": "¶",
  "183": "·",
  "184": "¸",
  "185": "¹",
  "186": "º",
  "187": "»",
  "188": "¼",
  "189": "½",
  "190": "¾",
  "191": "¿",
  "192": "À",
  "193": "Á",
  "194": "Â",
  "195": "Ã",
  "196": "Ä",
  "197": "Å",
  "198": "Æ",
  "199": "Ç",
  "200": "È",
  "201": "É",
  "202": "Ê",
  "203": "Ë",
  "204": "Ì",
  "205": "Í",
  "206": "Î",
  "207": "Ï",
  "208": "Ð",
  "209": "Ñ",
  "210": "Ò",
  "211": "Ó",
  "212": "Ô",
  "213": "Õ",
  "214": "Ö",
  "215": "×",
  "216": "Ø",
  "217": "Ù",
  "218": "Ú",
  "219": "Û",
  "220": "Ü",
  "221": "Ý",
  "222": "Þ",
  "223": "ß",
  "224": "à",
  "225": "á",
  "226": "â",
  "227": "ã",
  "228": "ä",
  "229": "å",
  "230": "æ",
  "231": "ç",
  "232": "è",
  "233": "é",
  "234": "ê",
  "235": "ë",
  "236": "ì",
  "237": "í",
  "238": "î",
  "239": "ï",
  "240": "ð",
  "241": "ñ",
  "242": "ò",
  "243": "ó",
  "244": "ô",
  "245": "õ",
  "246": "ö",
  "247": "÷",
  "248": "ø",
  "249": "ù",
  "250": "ú",
  "251": "û",
  "252": "ü",
  "253": "ý",
  "254": "þ",
  "255": "ÿ",
  "256": "ie",
  "257": "Ġp",
  "258": "ÅĤ",
  "259": "Ġw",
  "260": "Ġs",
  "261": "na",
  "262": "Ġz",
  "263": "ow",
  "264": "ÄĻ",
  "265": "cz",
  "266": "ni",
  "267": "Äħ",
  "268": "nie",
  "269": "rz",
  "270": "ch",
  "271": "st",
  "272": "Å¼",
  "273": "ra",
  "274": "Ã³",
  "275": "Ġd",
  "276": "Ġt",
  "277": "Ġo",
  "278": "Ġm",
  "279": "Ġk",
  "280": "ro",
  "281": "ÅĽ",
  "282": "sz",
  "283": "Ġna",
  "284": "Ġpo",
  "285": "Ġi",
  "286": "je",
  "287": "dz",
  "288": "ne",
  "289": "li",
  "290": "go",
  "291": "le",
  "292": "ny",
  "293": "iÄĻ",
  "294": "ia",
  "295": "Äĩ",
  "296": "ka",
  "297": "rze",
  "298": "Ġb",
  "299": "Ġza",
  "300": "Ġdo",
  "301": "re",
  "302": "ÅĤa",
  "303": "Ã³w",
  "304": "owa",
  "305": "ar",
  "306": "ki",
  "307": "ta",
  "308": "nia",
  "309": "la",
  "310": "ci",
  "311": "ja",
  "312": "ko",
  "313": "Ġje",
  "314": "wa",
  "315": "rzy",
  "316": "Ġu",
  "317": "Ġa",
  "318": "Ġwy",
  "319": "ce",
  "320": "Ġnie",
  "321": "da",
  "322": "Å¼e",
  "323": "ĠsiÄĻ",
  "324": "ĠP",
  "325": "te",
  "326": "ty",
  "327": "mi",
  "328": "no",
  "329": "ÅĤo",
  "330": "ry",
  "331": "ku",
  "332": "jÄħ",
  "333": "Ġprze",
  "334": "czy",
  "335": "cy",
  "336": "âĢ",
  "337": "Ġko",
  "338": "cze",
  "339": "sta",
  "340": "po",
  "341": "kie",
  "342": "cie",
  "343": "to",
  "344": "Ġte",
  "345": "ma",
  "346": "ĠW",
  "347": "wo",
  "348": "my",
  "349": "ÅĦ",
  "350": "Ġro",
  "351": "dy",
  "352": "Ġg",
  "353": "dzie",
  "354": "ru",
  "355": "ĠS",
  "356": "Ġod",
  "357": "Ġmo",
  "358": "tu",
  "359": "wi",
  "360": "ÅĽci",
  "361": "Ġto",
  "362": "cj",
  "363": "nych",
  "364": "en",
  "365": "owe",
  "366": "ĠM",
  "367": "owy",
  "368": "lu",
  "369": "ÅĤy",
  "370": "Ġma",
  "371": "tÃ³",
  "372": "Ġjest",
  "373": "szy",
  "374": "ca",
  "375": "Ġja",
  "376": "em",
  "377": "er",
  "378": "wie",
  "379": "Ġprzy",
  "380": "Ġty",
  "381": "ĠK",
  "382": "lo",
  "383": "Å¼y",
  "384": "ĠktÃ³",
  "385": "ĠÅ¼e",
  "386": "dzi",
  "387": "ĠâĢ",
  "388": "by",
  "389": "or",
  "390": "za",
  "391": "zy",
  "392": "Ġta",
  "393": "sze",
  "394": "Ġf",
  "395": "ĠN",
  "396": "cza",
  "397": "ĠT",
  "398": "cji",
  "399": "Ġpro",
  "400": "raz",
  "401": "Ġ1",
  "402": "ĠC",
  "403": "ga",
  "404": "Ġby",
  "405": "Ġ2",
  "406": "pa",
  "407": "ĠD",
  "408": "mo",
  "409": "mie",
  "410": "Ġdz",
  "411": "ob",
  "412": "ĠB",
  "413": "Ġpod",
  "414": "Ġin",
  "415": "..",
  "416": "ĠPo",
  "417": "pi",
  "418": "co",
  "419": "ĠA",
  "420": "owie",
  "421": "ĠZ",
  "422": "ÅĤu",
  "423": "ĠJ",
  "424": "du",
  "425": "nÄħ",
  "426": "ÅĽÄĩ",
  "427": "ĠÅĽ",
  "428": "Ġ(",
  "429": "nej",
  "430": "wia",
  "431": "rÃ³",
  "432": "ĠO",
  "433": "sa",
  "434": "nego",
  "435": "Ġch",
  "436": "Ġpra",
  "437": "si",
  "438": "mu",
  "439": "Ġob",
  "440": "Ġ-",
  "441": "ski",
  "442": "ĠR",
  "443": "owi",
  "444": "pra",
  "445": "de",
  "446": "Ġe",
  "447": "cja",
  "448": "Ġsz",
  "449": "skie",
  "450": "bi",
  "451": "Ġmie",
  "452": "cia",
  "453": "nym",
  "454": "pie",
  "455": "gi",
  "456": "pe",
  "457": "Ġroz",
  "458": "Ġpa",
  "459": "Ġre",
  "460": "ĠG",
  "461": "ĠâĢĵ",
  "462": "wy",
  "463": "Ġwie",
  "464": "niu",
  "465": "kÃ³w",
  "466": "su",
  "467": "Ġczy",
  "468": "Ġjak",
  "469": "owo",
  "470": "Ġco",
  "471": "Ġka",
  "472": "Ġdla",
  "473": "ju",
  "474": "in",
  "475": "Ġst",
  "476": "sza",
  "477": "jÄĻ",
  "478": "do",
  "479": "Ġspo",
  "480": "ĠI",
  "481": "ska",
  "482": "we",
  "483": "ez",
  "484": "Ġlu",
  "485": "sy",
  "486": "Åº",
  "487": "ba",
  "488": "Ġsta",
  "489": "Ġjed",
  "490": "Ġni",
  "491": "Ġ20",
  "492": "on",
  "493": "il",
  "494": "Ġgo",
  "495": "niej",
  "496": "bie",
  "497": "Ġze",
  "498": "Ġnaj",
  "499": "owych",
  "500": "Ġtak",
  "501": "Ġkon",
  "502": "Ġsa",
  "503": "rÃ³w",
  "504": "ier",
  "505": "ĠbÄĻ",
  "506": "Ġcz",
  "507": "Ġprzez",
  "508": "cho",
  "509": "ÅĤe",
  "510": "ĠL",
  "511": "Ġoraz",
  "512": "Ġmi",
  "513": "osta",
  "514": "dni",
  "515": "Ġn",
  "516": "towa",
  "517": "men",
  "518": "noÅĽci",
  "519": "dzia",
  "520": "gra",
  "521": "Ġtym",
  "522": "Ġdzie",
  "523": "dze",
  "524": "ĠktÃ³re",
  "525": "pu",
  "526": "sie",
  "527": "an",
  "528": "sty",
  "529": "tÃ³w",
  "530": "ĠNa",
  "531": "Ġzna",
  "532": "Ġda",
  "533": "rowa",
  "534": "Ġli",
  "535": "fi",
  "536": "sto",
  "537": "ĠktÃ³ry",
  "538": "Ġra",
  "539": "kÅĤa",
  "540": "âĢĿ",
  "541": "Ġale",
  "542": "dzo",
  "543": "owej",
  "544": "ĠsÄħ",
  "545": "Ġh",
  "546": "Ã³ÅĤ",
  "547": "ĠU",
  "548": "Ġle",
  "549": "stÄĻ",
  "550": "un",
  "551": "ter",
  "552": "ak",
  "553": "...",
  "554": "zna",
  "555": "ĠF",
  "556": "mia",
  "557": "gu",
  "558": "ĠE",
  "559": "io",
  "560": "al",
  "561": "ĠmoÅ¼e",
  "562": "bo",
  "563": "szyst",
  "564": "ĠwiÄĻ",
  "565": "czas",
  "566": "Ġla",
  "567": "Ġju",
  "568": "Ġzosta",
  "569": "Ġprzed",
  "570": "ek",
  "571": "Å¼a",
  "572": "Ġos",
  "573": "ĠâĢŀ",
  "574": "Ġswo",
  "575": "tycz",
  "576": "spo",
  "577": "jÄħcy",
  "578": "ÅĤÄħ",
  "579": "ĠÅ",
  "580": "ÅĤem",
  "581": "nika",
  "582": "rzÄħ",
  "583": "lko",
  "584": "sp",
  "585": "Ġbar",
  "586": "ĠJe",
  "587": "rza",
  "588": "Ġwi",
  "589": "owego",
  "590": "cu",
  "591": "bu",
  "592": "js",
  "593": "Ġwo",
  "594": "zu",
  "595": "Ġ3",
  "596": "me",
  "597": "czo",
  "598": "ĠbÄĻdzie",
  "599": "Ġlub",
  "600": "ĠZa",
  "601": "for",
  "602": "cyj",
  "603": "cha",
  "604": "Ġroku",
  "605": "praw",
  "606": "Ġbo",
  "607": "Ġtego",
  "608": "Ġsp",
  "609": "Ġce",
  "610": "ĠmoÅ¼",
  "611": "cje",
  "612": "ĠjuÅ¼",
  "613": "Ġme",
  "614": "kÄĻ",
  "615": "ÅĽli",
  "616": "Ġwszyst",
  "617": "niem",
  "618": "kÄħ",
  "619": "ÅĽcie",
  "620": "nu",
  "621": "ĠNie",
  "622": "Ġ\"",
  "623": "rÄĻ",
  "624": "ĠMa",
  "625": "Ġmu",
  "626": "owaÄĩ",
  "627": "lej",
  "628": "wiÄħ",
  "629": "Ġfi",
  "630": "dza",
  "631": "stÄĻp",
  "632": "Ġbez",
  "633": "iaÅĤa",
  "634": "jÄħc",
  "635": "00",
  "636": "Po",
  "637": "cej",
  "638": "skiego",
  "639": "rod",
  "640": "Ġtra",
  "641": "szcze",
  "642": "wÃ³",
  "643": "Ġsy",
  "644": "nio",
  "645": "kre",
  "646": "nÄĻ",
  "647": "bli",
  "648": "so",
  "649": "lÄħ",
  "650": "kiem",
  "651": "ĠH",
  "652": "wiÄĻ",
  "653": "ĠÅ¼y",
  "654": "Ġmiejs",
  "655": "Ġpe",
  "656": "czÄħ",
  "657": "Ġku",
  "658": "kowa",
  "659": "Ġpi",
  "660": "ze",
  "661": "Ġtylko",
  "662": "ĠPol",
  "663": "Ġpoz",
  "664": "ÅĽmy",
  "665": "ierw",
  "666": "tra",
  "667": "kt",
  "668": "nik",
  "669": "dÄħ",
  "670": "ĠwÅĤa",
  "671": "Ġsie",
  "672": "powie",
  "673": "ĠPa",
  "674": "cjÄĻ",
  "675": "Ġde",
  "676": "Ġca",
  "677": "tem",
  "678": "Ġbu",
  "679": "Ġwz",
  "680": "tka",
  "681": "tor",
  "682": "Ġwe",
  "683": "ĠKo",
  "684": "skiej",
  "685": "Ġwa",
  "686": "lÄĻ",
  "687": "nd",
  "688": "ste",
  "689": "Ã³b",
  "690": "dnie",
  "691": "tk",
  "692": "sowa",
  "693": "nak",
  "694": "Ġba",
  "695": "Ġ201",
  "696": "Ġwar",
  "697": "Ã³l",
  "698": "Ġmog",
  "699": "owym",
  "700": "cznie",
  "701": "ciÄħ",
  "702": "ĠrÃ³w",
  "703": "Ġbardzo",
  "704": "siÄħ",
  "705": "Ġmia",
  "706": "kich",
  "707": "ÅĤam",
  "708": "cÃ³w",
  "709": "noÅĽÄĩ",
  "710": "bra",
  "711": "Ġcze",
  "712": "Å¼o",
  "713": "czne",
  "714": "sia",
  "715": "dowa",
  "716": "kona",
  "717": "ĠDo",
  "718": "Ġsob",
  "719": "ktu",
  "720": "ĠbyÄĩ",
  "721": "Ġog",
  "722": "szych",
  "723": "ji",
  "724": "pad",
  "725": "war",
  "726": "Ġsto",
  "727": "dzy",
  "728": "ĠteÅ¼",
  "729": "Ġpierw",
  "730": "czÄĻ",
  "731": "jÄħce",
  "732": "ĠTo",
  "733": "ÅĤÃ³w",
  "734": "ri",
  "735": "âĢ¦",
  "736": "ĠtakÅ¼e",
  "737": "trzy",
  "738": "rÃ³Å¼",
  "739": "Na",
  "740": "ĠWy",
  "741": ").",
  "742": "Ġpla",
  "743": "Ġdu",
  "744": "ĠKa",
  "745": "owia",
  "746": "Ġpre",
  "747": "Ġcho",
  "748": "niÄĻ",
  "749": "Ġ4",
[...]
