{
  "version": "1.0",
  "truncation": null,
  "padding": null,
  "added_tokens": [
    {
      "id": 256,
      "content": "<|endoftext|>",
      "single_word": false,
      "lstrip": false,
      "rstrip": false,
      "normalized": false,
      "special": true
    },
    {
      "id": 257,
      "content": "<|pad|>",
      "single_word": false,
      "lstrip": false,
      "rstrip": false,
      "normalized": false,
      "special": true
    },
    {
      "id": 258,
      "content": "<|bos|>",
      "single_word": false,
      "lstrip": false,
      "rstrip": false,
      "normalized": false,
      "special": true
    },
    {
      "id": 259,
      "content": "<|eos|>",
      "single_word": false,
      "lstrip": false,
      "rstrip": false,
      "normalized": false,
      "special": true
    },
    {
      "id": 260,
      "content": "<|fim_prefix|>",
      "single_word": false,
      "lstrip": false,
      "rstrip": false,
      "normalized": false,
      "special": true
    },
    {
      "id": 261,
      "content": "<|fim_middle|>",
      "single_word": false,
      "lstrip": false,
      "rstrip": false,
      "normalized": false,
      "special": true
    },
    {
      "id": 262,
      "content": "<|fim_suffix|>",
      "single_word": false,
      "lstrip": false,
      "rstrip": false,
      "normalized": false,
      "special": true
    }
  ],
  "normalizer": {
    "type": "NFC"
  },
  "pre_tokenizer": {
    "type": "ByteLevel",
    "add_prefix_space": false,
    "trim_offsets": true,
    "use_regex": true
  },
  "post_processor": null,
  "decoder": {
    "type": "ByteLevel",
    "add_prefix_space": true,
    "trim_offsets": true,
    "use_regex": true
  },
  "model": {
    "type": "BPE",
    "dropout": null,
    "unk_token": null,
    "continuing_subword_prefix": null,
    "end_of_word_suffix": null,
    "fuse_unk": false,
    "byte_fallback": false,
    "ignore_merges": false,
    "vocab": {
      "Ā": 0,
      "ā": 1,
      "Ă": 2,
      "ă": 3,
      "Ą": 4,
      "ą": 5,
      "Ć": 6,
      "ć": 7,
      "Ĉ": 8,
      "ĉ": 9,
      "Ċ": 10,
      "ċ": 11,
      "Č": 12,
      "č": 13,
      "Ď": 14,
      "ď": 15,
      "Đ": 16,
      "đ": 17,
      "Ē": 18,
      "ē": 19,
      "Ĕ": 20,
      "ĕ": 21,
      "Ė": 22,
      "ė": 23,
      "Ę": 24,
      "ę": 25,
      "Ě": 26,
      "ě": 27,
      "Ĝ": 28,
      "ĝ": 29,
      "Ğ": 30,
      "ğ": 31,
      "Ġ": 32,
      "!": 33,
      "\"": 34,
      "#": 35,
      "$": 36,
      "%": 37,
      "&": 38,
      "'": 39,
      "(": 40,
      ")": 41,
      "*": 42,
      "+": 43,
      ",": 44,
      "-": 45,
      ".": 46,
      "/": 47,
      "0": 48,
      "1": 49,
      "2": 50,
      "3": 51,
      "4": 52,
      "5": 53,
      "6": 54,
      "7": 55,
      "8": 56,
      "9": 57,
      ":": 58,
      ";": 59,
      "<": 60,
      "=": 61,
      ">": 62,
      "?": 63,
      "@": 64,
      "A": 65,
      "B": 66,
      "C": 67,
      "D": 68,
      "E": 69,
      "F": 70,
      "G": 71,
      "H": 72,
      "I": 73,
      "J": 74,
      "K": 75,
      "L": 76,
      "M": 77,
      "N": 78,
      "O": 79,
      "P": 80,
      "Q": 81,
      "R": 82,
      "S": 83,
      "T": 84,
      "U": 85,
      "V": 86,
      "W": 87,
      "X": 88,
      "Y": 89,
      "Z": 90,
      "[": 91,
      "\\": 92,
      "]": 93,
      "^": 94,
      "_": 95,
      "`": 96,
      "a": 97,
      "b": 98,
      "c": 99,
      "d": 100,
      "e": 101,
      "f": 102,
      "g": 103,
      "h": 104,
      "i": 105,
      "j": 106,
      "k": 107,
      "l": 108,
      "m": 109,
      "n": 110,
      "o": 111,
      "p": 112,
      "q": 113,
      "r": 114,
      "s": 115,
      "t": 116,
      "u": 117,
      "v": 118,
      "w": 119,
      "x": 120,
      "y": 121,
      "z": 122,
      "{": 123,
      "|": 124,
      "}": 125,
      "~": 126,
      "ġ": 127,
      "Ģ": 128,
      "ģ": 129,
      "Ĥ": 130,
      "ĥ": 131,
      "Ħ": 132,
      "ħ": 133,
      "Ĩ": 134,
      "ĩ": 135,
      "Ī": 136,
      "ī": 137,
      "Ĭ": 138,
      "ĭ": 139,
      "Į": 140,
      "į": 141,
      "İ": 142,
      "ı": 143,
      "Ĳ": 144,
      "ĳ": 145,
      "Ĵ": 146,
      "ĵ": 147,
      "Ķ": 148,
      "ķ": 149,
      "ĸ": 150,
      "Ĺ": 151,
      "ĺ": 152,
      "Ļ": 153,
      "ļ": 154,
      "Ľ": 155,
      "ľ": 156,
      "Ŀ": 157,
      "ŀ": 158,
      "Ł": 159,
      "ł": 160,
      "¡": 161,
      "¢": 162,
      "£": 163,
      "¤": 164,
      "¥": 165,
      "¦": 166,
      "§": 167,
      "¨": 168,
      "©": 169,
      "ª": 170,
      "«": 171,
      "¬": 172,
      "Ń": 173,
      "®": 174,
      "¯": 175,
      "°": 176,
      "±": 177,
      "²": 178,
      "³": 179,
      "´": 180,
      "µ": 181,
      "¶": 182,
      "·": 183,
      "¸": 184,
      "¹": 185,
      "º": 186,
      "»": 187,
      "¼": 188,
      "½": 189,
      "¾": 190,
      "¿": 191,
      "À": 192,
      "Á": 193,
      "Â": 194,
      "Ã": 195,
      "Ä": 196,
      "Å": 197,
      "Æ": 198,
      "Ç": 199,
      "È": 200,
      "É": 201,
      "Ê": 202,
      "Ë": 203,
      "Ì": 204,
      "Í": 205,
      "Î": 206,
      "Ï": 207,
      "Ð": 208,
      "Ñ": 209,
      "Ò": 210,
      "Ó": 211,
      "Ô": 212,
      "Õ": 213,
      "Ö": 214,
      "×": 215,
      "Ø": 216,
      "Ù": 217,
      "Ú": 218,
      "Û": 219,
      "Ü": 220,
      "Ý": 221,
      "Þ": 222,
      "ß": 223,
      "à": 224,
      "á": 225,
      "â": 226,
      "ã": 227,
      "ä": 228,
      "å": 229,
      "æ": 230,
      "ç": 231,
      "è": 232,
      "é": 233,
      "ê": 234,
      "ë": 235,
      "ì": 236,
      "í": 237,
      "î": 238,
      "ï": 239,
      "ð": 240,
      "ñ": 241,
      "ò": 242,
      "ó": 243,
      "ô": 244,
      "õ": 245,
      "ö": 246,
      "÷": 247,
      "ø": 248,
      "ù": 249,
      "ú": 250,
      "û": 251,
      "ü": 252,
      "ý": 253,
      "þ": 254,
      "ÿ": 255,
      "<|endoftext|>": 256,
      "<|pad|>": 257,
      "<|bos|>": 258,
      "<|eos|>": 259,
      "<|fim_prefix|>": 260,
      "<|fim_middle|>": 261,
      "<|fim_suffix|>": 262,
      "ie": 263,
      "ÅĤ": 264,
      "Ġp": 265,
      "Ġw": 266,
      "Ġs": 267,
      "ÄĻ": 268,
      "Ġz": 269,
      "na": 270,
      "ow": 271,
      "Äħ": 272,
      "ni": 273,
      "rz": 274,
      "ch": 275,
      "cz": 276,
      "st": 277,
      "nie": 278,
      "Ã³": 279,
      "Ġd": 280,
      "ra": 281,
      "Å¼": 282,
      "Ġo": 283,
      "Ġt": 284,
      "Ġm": 285,
      "ÅĽ": 286,
      "ro": 287,
      "Ġk": 288,
      "Ġi": 289,
      "sz": 290,
      "Ġna": 291,
      "dz": 292,
      "ne": 293,
      "Ġpo": 294,
      "aÅĤ": 295,
      "ny": 296,
      "go": 297,
      "âĢ": 298,
      "li": 299,
      "je": 300,
      "iÄĻ": 301,
      "rze": 302,
      "le": 303,
      "ar": 304,
      "Ġb": 305,
      "ci": 306,
      "Äĩ": 307,
      "ka": 308,
      "Ġdo": 309,
      "re": 310,
      "Ġza": 311,
      "Ã³w": 312,
      "at": 313,
      "ki": 314,
      "mi": 315,
      "Ġu": 316,
      "nia": 317,
      "ko": 318,
      "rzy": 319,
      "ĠsiÄĻ": 320,
      "no": 321,
      "ja": 322,
      "Ġnie": 323,
      "Ġje": 324,
      "owa": 325,
      "ÅĤa": 326,
      "Ġa": 327,
      "Ġwy": 328,
      "wa": 329,
      "er": 330,
      "Å¼e": 331,
      "ce": 332,
      "jÄħ": 333,
      "la": 334,
      "ĠP": 335,
      "Ġprze": 336,
      "or": 337,
      "wi": 338,
      "ta": 339,
      "ku": 340,
      "em": 341,
      "Ġg": 342,
      "kie": 343,
      "ÅĤo": 344,
      "cy": 345,
      "ty": 346,
      "Ġro": 347,
      "da": 348,
      "ĠW": 349,
      "ÅĽci": 350,
      "ry": 351,
      "czy": 352,
      "wo": 353,
      "ÅĦ": 354,
      "en": 355,
      "cie": 356,
      "dy": 357,
      "po": 358,
      "Ġod": 359,
      "dzi": 360,
      "âĢĶ": 361,
      "ĠS": 362,
      "cze": 363,
      "Ġko": 364,
      "nych": 365,
      "sta": 366,
      "ia": 367,
      "ego": 368,
      "dzie": 369,
      "tÃ³": 370,
      "ĠM": 371,
      "to": 372,
      "ej": 373,
      "by": 374,
      "Ġja": 375,
      "ru": 376,
      "lu": 377,
      "cj": 378,
      "tu": 379,
      "wie": 380,
      "am": 381,
      "ĠktÃ³": 382,
      "Ġmo": 383,
      "owy": 384,
      "an": 385,
      "Ġprzy": 386,
      "szy": 387,
      "lo": 388,
      "ĠK": 389,
      "ĠB": 390,
      "Ġby": 391,
      "Ġto": 392,
      "Å¼y": 393,
      "ĠA": 394,
      "as": 395,
      "rÃ³": 396,
      "ĠN": 397,
      "ĠÅ¼e": 398,
      "Ġc": 399,
      "ma": 400,
      "Ġty": 401,
      "ĠC": 402,
      "zy": 403,
      "te": 404,
      "âĢī": 405,
      "aÅĤa": 406,
      "mie": 407,
      "Ġcz": 408,
      "Ġjest": 409,
      "ca": 410,
      "nÄħ": 411,
      "ĠT": 412,
      "raz": 413,
      "ski": 414,
      "owie": 415,
      "cji": 416,
      "ÅĤu": 417,
      "ak": 418,
      "Ġpod": 419,
      "Ġf": 420,
      "ÅĤy": 421,
      "ob": 422,
      "ĠZ": 423,
      "Ġsz": 424,
      "ÅĽÄĩ": 425,
      "ĠR": 426,
      "si": 427,
      "Ġob": 428,
      "nej": 429,
      "my": 430,
      "ĠD": 431,
      "ĠO": 432,
      "pi": 433,
      "skie": 434,
      "Ġmi": 435,
      "ĠÅĽ": 436,
      "wy": 437,
      "du": 438,
      "Ġin": 439,
      "Ġdz": 440,
      "Ġroz": 441,
      "ĠJ": 442,
      "ga": 443,
      "owi": 444,
      "âĢĵ": 445,
      "nego": 446,
      "Ġst": 447,
      "Ġch": 448,
      "on": 449,
      "nym": 450,
      "za": 451,
      "pa": 452,
      "Ġwie": 453,
      "ĠPo": 454,
      "gi": 455,
      "ek": 456,
      "sze": 457,
      "Ġpro": 458,
      "..": 459,
      "ĠG": 460,
      "Ġni": 461,
      "Âł": 462,
      "Ġte": 463,
      "00": 464,
      "mu": 465,
      "Ġpa": 466,
      "bi": 467,
      "Ġsp": 468,
      "Ġre": 469,
      "Ġpra": 470,
      "Ġlu": 471,
      "Ġmie": 472,
      "Åº": 473,
      "Ġjak": 474,
      "Ġma": 475,
      "do": 476,
      "ĠI": 477,
      "niu": 478,
      "ĠL": 479,
      "Ġli": 480,
      "ost": 481,
      "un": 482,
      "Ġprzez": 483,
      "Ġr": 484,
      "owo": 485,
      "niej": 486,
      "ez": 487,
      "ier": 488,
      "il": 489,
      "Ġco": 490,
      "ju": 491,
      "Ġe": 492,
      "Ġgo": 493,
      "Ġjed": 494,
      "al": 495,
      "kt": 496,
      "sy": 497,
      "ska": 498,
      "bie": 499,
      "cho": 500,
      "kÃ³w": 501,
      "aÅĤy": 502,
      "mo": 503,
      "pie": 504,
      "âĢīâĢĶ": 505,
      "de": 506,
      "in": 507,
      "Ġtak": 508,
      "noÅĽci": 509,
      "ĠktÃ³re": 510,
      "owe": 511,
      "dze": 512,
      "sty": 513,
      "dni": 514,
      "sa": 515,
      "cja": 516,
      "Ġh": 517,
      "jÄĻ": 518,
      "ĠktÃ³ry": 519,
      "Ġdla": 520,
      "Ġwi": 521,
      "aÅĤo": 522,
      "ĠE": 523,
      "ÄĻp": 524,
      "owych": 525,
      "Ġzna": 526,
      "et": 527,
      "Ã³ÅĤ": 528,
      "âĢŀ": 529,
      "ĠĠ": 530,
      "ur": 531,
      "ĠU": 532,
      "Ġsta": 533,
      "jÄħc": 534,
      "Ġroku": 535,
      "ĠF": 536,
      "owej": 537,
      "pe": 538,
      "os": 539,
      "ĠÅ": 540,
      "Ġspo": 541,
      "stÄĻp": 542,
      "Ġwo": 543,
      "lat": 544,
      "rzÄħ": 545,
      "Ġczy": 546,
      "Ġoraz": 547,
      "âĢĿ": 548,
      "01": 549,
      "sza": 550,
      "ba": 551,
      "Ġze": 552,
      "czÄħ": 553,
      "sp": 554,
      "Ġta": 555,
      "ĠsÄħ": 556,
      "Ġra": 557,
      "Ġnaj": 558,
      "su": 559,
      "Ġka": 560,
      "nt": 561,
      "cza": 562,
      "czo": 563,
      "bo": 564,
      "fi": 565,
      "ĠNa": 566,
      "wia": 567,
      "Ġdzie": 568,
      "gu": 569,
      "Ġle": 570,
      "sk": 571,
      "gra": 572,
      "Ġmu": 573,
      "Ġprzed": 574,
      "sie": 575,
      "Ġn": 576,
      "ĠH": 577,
      "Ġda": 578,
      "sto": 579,
      "art": 580,
      "Ġtym": 581,
      "Ġde": 582,
      "jÄħcy": 583,
      "Ġsam": 584,
      "kÅĤa": 585,
      "men": 586,
      "rod": 587,
      "Ġdzi": 588,
      "zna": 589,
      "nÄĻ": 590,
      "pra": 591,
      "szyst": 592,
      "bu": 593,
      "Ġzost": 594,
      "pu": 595,
      "Ġlub": 596,
      "cia": 597,
      "rowa": 598,
      "dzo": 599,
      "Ġale": 600,
      "niem": 601,
      "ĠbÄĻ": 602,
      "kiem": 603,
      "lko": 604,
      "skiej": 605,
      "js": 606,
      "ÅĽli": 607,
      "Ġkon": 608,
      "Ã©": 609,
      "kre": 610,
      "skiego": 611,
      "ria": 612,
      "ĠwiÄĻ": 613,
      "um": 614,
      "Ġwz": 615,
      "ran": 616,
      "wÃ³": 617,
      "Å¼a": 618,
      "ĠNie": 619,
      "Ġbez": 620,
      "Ġju": 621,
      "io": 622,
      "Ġlat": 623,
      "Ġwszyst": 624,
      "Ġce": 625,
      "we": 626,
      "ÂłÂł": 627,
      "so": 628,
      "ĠbyÅĤ": 629,
      "ĠÅ¼y": 630,
      "cyj": 631,
      "nika": 632,
      "aty": 633,
      "Ġrze": 634,
      "ed": 635,
      "Ġswo": 636,
      "Ġjego": 637,
      "owego": 638,
      "wiÄħ": 639,
      "zu": 640,
      "atego": 641,
      "dziaÅĤ": 642,
      "bli": 643,
      "nu": 644,
      "ĠmoÅ¼e": 645,
      "cha": 646,
      "Ġpoz": 647,
      "szcze": 648,
      "Ġci": 649,
      "ĠKo": 650,
      "owaÅĤ": 651,
      "rÄĻ": 652,
      "jÄħce": 653,
      "Å¼o": 654,
      "ÅĦst": 655,
      "Ġczas": 656,
      "02": 657,
      "co": 658,
      "nd": 659,
      "cu": 660,
      "Ġtego": 661,
      "rÃ³d": 662,
      "Ġsto": 663,
      "ji": 664,
      "Ġmiejs": 665,
      "spo": 666,
      "ategoria": 667,
      "ÅĽcie": 668,
      "el": 669,
      "dza": 670,
      "kÄħ": 671,
      "Po": 672,
      "for": 673,
      "ach": 674,
      "noÅĽÄĩ": 675,
      "Kategoria": 676,
      "||": 677,
      "ĠwÅĤa": 678,
      "ery": 679,
      "Ġpowie": 680,
      "Ġpe": 681,
      "lÄĻ": 682,
      "kÄĻ": 683,
      "ri": 684,
      "ÅĤÄħ": 685,
      "skim": 686,
      "czne": 687,
      "owania": 688,
      "ĠCh": 689,
      "Ġtylko": 690,
      "ĠjuÅ¼": 691,
      ").": 692,
      "Ġbar": 693,
      "rza": 694,
      "dzy": 695,
      "Ġsie": 696,
      "mia": 697,
      "pad": 698,
      "owaÄĩ": 699,
      "...": 700,
      "ierw": 701,
      "siÄĻ": 702,
      "Ġbo": 703,
      "Ġpot": 704,
      "Ġpi": 705,
      "Ġusta": 706,
      "rÃ³Å¼": 707,
      "czÄĻ": 708,
      "Ġgdy": 709,
      "ut": 710,
      "cje": 711,
      "Ġfi": 712,
      "czas": 713,
      "kich": 714,
      "Ġsy": 715,
      "Ġjako": 716,
      "dnie": 717,
      "ĠZa": 718,
      "ory": 719,
      "Ġlo": 720,
      "ÅĤem": 721,
      "Ġspra": 722,
      "ĠMi": 723,
      "ĠrÃ³w": 724,
      "sko": 725,
      "py": 726,
      "ĠmoÅ¼": 727,
      "lÄħ": 728,
      "ud": 729,
      "Ġaby": 730,
      "wiÄĻ": 731,
      "niÄĻ": 732,
      "ĠPol": 733,
      "Ġodp": 734,
      "Ġpow": 735,
      "ary": 736,
      "tÃ³w": 737,
      "skich": 738,
      "cznych": 739,
      "Ġsob": 740,
      "ata": 741,
      "),": 742,
      "Ġos": 743,
      "cjÄĻ": 744,
      "he": 745,
      "ĠgÅĤ": 746,
      "Ġtu": 747,
      "ze": 748,
      "waÅĤ": 749,
      "Ġwe": 750,
      "Ġjej": 751,
      "Ġmog": 752,
      "ona": 753,
      "siÄħ": 754,
      "nik": 755,
      "Ġsk": 756,
      "cznie": 757,
      "Ġog": 758,
      "Ġme": 759,
      "rÄħ": 760,
      "Ġku": 761,
      "99": 762,
      "ĠbyÅĤo": 763,
      "owym": 764,
      "Ã³l": 765,
      "ĠWy": 766,
      "ĠtakÅ¼e": 767,
      "Ġich": 768,
      "ĠbÄĻdzie": 769,
      "kim": 770,
      "Ġpan": 771,
      "owanie": 772,
      "uro": 773,
      "ĠJe": 774,
      "Ġno": 775,
      "Ġgru": 776,
      "âĢ¦": 777,
      "ĠPa": 778,
      "lej": 779,
      "nio": 780,
      "nak": 781,
      "ter": 782,
      "ĠczÄĻ": 783,
      "Ġcie": 784,
      "Ġmnie": 785,
      "bra": 786,
      "ng": 787,
      "Ã³b": 788,
      "owÄħ": 789,
      "Ġwar": 790,
      "Ġgra": 791,
      "Ġpierw": 792,
      "cÃ³w": 793,
      "ĠbyÄĩ": 794,
      "war": 795,
      "Ġnad": 796,
      "Ġbi": 797,
      "cznej": 798,
      "Ġdru": 799,
      "dzenia": 800,
      "ii": 801,
      "Ġkie": 802,
      "nist": 803,
      "trzy": 804,
      "ent": 805,
      "Ġstro": 806,
      "szÄħ": 807,
      "ĠRo": 808,
      "ct": 809,
      "Ġten": 810,
      "dÄħ": 811,
      "osta": 812,
      "nieÅ¼": 813,
      "Ã³r": 814,
      "im": 815,
      "nymi": 816,
      "Ã³wi": 817,
      "ĠMa": 818,
      "Ġop": 819,
      "ĠJa": 820,
      "Ġar": 821,
      "cÄħ": 822,
      "Ġznaj": 823,
      "sÅĤu": 824,
      "iÄĻdzy": 825,
      "ĠteÅ¼": 826,
      "ĠkrÃ³": 827,
      "Ġor": 828,
      "Ġon": 829,
      "dzÄħ": 830,
      "Ġdu": 831,
      "Ġdy": 832,
      "rzÄĻ": 833,
      "ĠzostaÅĤ": 834,
      "nowi": 835,
      "kty": 836,
      "Ġtej": 837,
      "Ġba": 838,
      "ĠrÃ³wnieÅ¼": 839,
      "nek": 840,
      "prze": 841,
      "Ġdro": 842,
      "ĠdziaÅĤa": 843,
      "Ġmia": 844,
      "ral": 845,
      "gie": 846,
      "ist": 847,
      "ĠMo": 848,
      "Ġwyko": 849,
      "ĠTo": 850,
      "nii": 851,
      "Ġpu": 852,
      "ÅĤe": 853,
      "sia": 854,
      "szych": 855,
      "kow": 856,
      "sÅĤa": 857,
      "Ġjeszcze": 858,
      "Ġdob": 859,
      "Ġof": 860,
      "kiego": 861,
      "rem": 862,
      "Na": 863,
      "Ġraz": 864,
      "szt": 865,
      "Ġjednak": 866,
      "Ġmy": 867,
      "ĠDo": 868,
      "rzu": 869,
      "owane": 870,
      "ĠV": 871,
      "Ġsobie": 872,
      "Ġpre": 873,
      "Ġwa": 874,
      "ec": 875,
      "Ġtra": 876,
      "ĠÅĽwi": 877,
      "es": 878,
      "Ã©j": 879,
      "10": 880,
      "Ġcho": 881,
      "tem": 882,
      "jÄħcych": 883,
      "Ã³d": 884,
      "Ġbardzo": 885,
      "owany": 886,
      "Ġkra": 887,
      "szka": 888,
      "Ġpraw": 889,
      "Ġwsp": 890,
      "Ġodpowie": 891,
      "ĠSz": 892,
      "kÅĤad": 893,
      "ĠKa": 894,
      "ÅĽnie": 895,
      "Ġpol": 896,
      "ktu": 897,
      "ciÄħ": 898,
      "Ġokre": 899,
      "tni": 900,
      "Å¼Äħ": 901,
      "rÃ³w": 902,
      "lar": 903,
      "ĠrÃ³Å¼": 904,
      "ĠSt": 905,
      "Ġry": 906,
      "ĠkaÅ¼": 907,
      "Ġtem": 908,
      "ns": 909,
      "Ġdnia": 910,
      "kiej": 911,
      "Ġost": 912,
      "Ġwp": 913,
      "ĠbyÅĤa": 914,
      "ÅĽmy": 915,
      "dÄĻ": 916,
      "mis": 917,
      "ali": 918,
      "forma": 919,
      "stem": 920,
      "pis": 921,
      "Ġru": 922,
      "Ġok": 923,
      "ĠmoÅ¼na": 924,
      "¹rÃ³d": 925,
      "gani": 926,
      "uk": 927,
      "ĠRa": 928,
      "ĠmÃ³wi": 929,
      "Ã³j": 930,
      "Ġpie": 931,
      "ĠĠĠ": 932,
      "Ġwyda": 933,
      "98": 934,
      "Ġkil": 935,
      "Ġnale": 936,
      "nem": 937,
      "Ġpla": 938,
      "zie": 939,
      "cej": 940,
      "niÄħ": 941,
      "unk": 942,
      "den": 943,
      "Ġart": 944,
      "Ġbra": 945,
      "Ġdoty": 946,
      "Ġsamo": 947,
      "kach": 948,
      "Ġsze": 949,
      "ĠMar": 950,
      "ĠBo": 951,
      "ĠdÅĤu": 952,
      "Ġrozpo": 953,
      "ÅĤat": 954,
      "praw": 955,
      "th": 956,
      "Ġgdzie": 957,
      "szym": 958,
      "dÅº": 959,
      "om": 960,
      "Ġim": 961,
      "20": 962,
      "gÅĤ": 963,
      "szej": 964,
      "nÄħÅĤ": 965,
      "ĠÅĽrod": 966,
      "oba": 967,
      "us": 968,
      "Ġswoje": 969,
      "Ġser": 970,
      "ĠktÃ³ra": 971,
      "ĠsÅĤu": 972,
      "ĠEuro": 973,
      "ĠuÅ¼y": 974,
      "ĠktÃ³rych": 975,
      "czu": 976,
      "szo": 977,
      "tycz": 978,
      "wet": 979,
      "waÅ¼": 980,
      "Ġstra": 981,
      "Ġkiedy": 982,
      "aÅĤem": 983,
      "Ġpowi": 984,
      "ĠrÄĻ": 985,
      "oru": 986,
      "ĠÅļ": 987,
      "sku": 988,
      "Ġlatach": 989,
      "Ġfor": 990,
      "ĠPrze": 991,
      "ĠÅ¹rÃ³d": 992,
      "stÄħ": 993,
      "ĠOd": 994,
      "lem": 995,
      "Ġkom": 996,
      "Ġal": 997,
      "Ġprodu": 998,
      "wier": 999,
      "czego": 1000,
      "Ġsi": 1001,
      "dÅĤ": 1002,
      "kra": 1003,
      "ĠpiÄĻ": 1004,
      "Ġtrze": 1005,
      "ĠcaÅĤ": 1006,
      "dat": 1007,
      "Ġchwi": 1008,
      "strze": 1009,
      "cÄĻ": 1010,
      "Ġtych": 1011,
      "Ġzd": 1012,
      "kÅĤ": 1013,
      "97": 1014,
      "Ġspos": 1015,
      "ĠIn": 1016,
      "Ġszcze": 1017,
      "ĠzwiÄħ": 1018,
      "uje": 1019,
      "Ġmar": 1020,
      "ĠRe": 1021,
      "di": 1022,
      "ber": 1023,
      "se": 1024,
      "Ġzap": 1025,
      "sÅĤ": 1026,
      "Ġpew": 1027,
      "waÄĩ": 1028,
      "zi": 1029,
      "ĠktÃ³rej": 1030,
      "Ġjedno": 1031,
      "12": 1032,
      "dem": 1033,
      "ate": 1034,
      "Ġtam": 1035,
      "ĠLe": 1036,
      "gro": 1037,
      "Ġwoj": 1038,
      "peÅĤ": 1039,
      "chni": 1040,
      "Ġzawo": 1041,
      "Ġoko": 1042,
      "lne": 1043,
      "ol": 1044,
      "ĠzÅĤo": 1045,
      "ÅĦstwa": 1046,
      "czyÄĩ": 1047,
      "uto": 1048,
      "ĠmiÄĻdzy": 1049,
      "ste": 1050,
      "Ġzosta": 1051,
      "erw": 1052,
      "ich": 1053,
      "Ġpowo": 1054,
      "ren": 1055,
      "ĠniÅ¼": 1056,
      "ciw": 1057,
      "czyÅĤ": 1058,
      "ĠwiÄĻc": 1059,
      "tk": 1060,
      "czenia": 1061,
      "Ġnawet": 1062,
      "ge": 1063,
      "50": 1064,
      "Ġrodzi": 1065,
      "strz": 1066,
      "dziÅĤ": 1067,
      "ĠX": 1068,
      "ĠWar": 1069,
      "ĠjÄħ": 1070,
      "Ġnim": 1071,
      "Ġust": 1072,
      "ciÄĻ": 1073,
      "Ġmiejsce": 1074,
      "30": 1075,
      "ĠLi": 1076,
      "trz": 1077,
      "ĠnastÄĻp": 1078,
      "ner": 1079,
      "ÅĤowie": 1080,
      "szego": 1081,
      "liwo": 1082,
      "dziej": 1083,
      "ĠWie": 1084,
      "koÅĦ": 1085,
      "now": 1086,
      "dziÄĩ": 1087,
      "ĠpÃ³ÅĤ": 1088,
      "ĠSta": 1089,
      "rzÄħd": 1090,
      "lni": 1091,
      "ĠgÅĤo": 1092,
      "Ġznajdu": 1093,
      "ĠktÃ³rym": 1094,
      "ciu": 1095,
      "pew": 1096,
      "Ġbu": 1097,
      "Ġthe": 1098,
      "tor": 1099,
      "wiet": 1100,
      "rzysta": 1101,
      "asy": 1102,
      "ÂłÂłÂłÂł": 1103,
      "Ġbie": 1104,
      "jem": 1105,
      "ti": 1106,
      "czny": 1107,
      "kaz": 1108,
      "leg": 1109,
      "res": 1110,
      "fe": 1111,
      "Ġtwo": 1112,
      "zacji": 1113,
      "dar": 1114,
      "11": 1115,
      "Ġstanowi": 1116,
      "nku": 1117,
      "âĢĿ.": 1118,
      "kami": 1119,
      "Ġmieszka": 1120,
      "stwa": 1121,
      "nÃ³w": 1122,
      "tych": 1123,
      "Ġzdo": 1124,
      "Ġzw": 1125,
      "022": 1126,
      "chy": 1127,
      "ĠTe": 1128,
      "skÄħ": 1129,
      "atu": 1130,
      "Ġinforma": 1131,
      "Ġpoli": 1132,
      "nios": 1133,
      "stu": 1134,
      "ĠÅģ": 1135,
      "chu": 1136,
      "dnia": 1137,
      "owni": 1138,
      "ort": 1139,
      "ÅĽni": 1140,
      "dÃ³w": 1141,
      "ĠAle": 1142,
      "owia": 1143,
      "ara": 1144,
      "II": 1145,
      "ale": 1146,
      "14": 1147,
      "glÄĻ": 1148,
      "kry": 1149,
      "Ġzie": 1150,
      "cych": 1151,
      "Ġzam": 1152,
      "Ġprzypad": 1153,
      "Ġwiel": 1154,
      "mier": 1155,
      "ĠpeÅĤ": 1156,
      "lep": 1157,
      "stawi": 1158,
      "Ġpomo": 1159,
      "gÄĻ": 1160,
      "ĠbyÅĤy": 1161,
      "scy": 1162,
      "and": 1163,
      "gÃ³l": 1164,
      "dzenie": 1165,
      "ul": 1166,
      "ĠBy": 1167,
      "mina": 1168,
      "ĠmogÄħ": 1169,
      "cznego": 1170,
      "Ġkar": 1171,
      "Ġspe": 1172,
      "glÄħ": 1173,
      "tnie": 1174,
      "Ġzach": 1175,
      "94": 1176,
      "ÅĤon": 1177,
      "wania": 1178,
      "Ġmat": 1179,
      "net": 1180,
      "15": 1181,
      "Ġuwa": 1182,
      "Nie": 1183,
      "Ġpotrze": 1184,
      "mio": 1185,
      "Ġorgani": 1186,
      "be": 1187,
      "ĠWi": 1188,
      "logi": 1189,
      "96": 1190,
      "Ġot": 1191,
      "fa": 1192,
      "ĠciÄĻ": 1193,
      "Ġkolej": 1194,
      "lan": 1195,
      "Ġbud": 1196,
      "szÄĻ": 1197,
      "ÅĤÃ³w": 1198,
      "pre": 1199,
      "Ġzm": 1200,
      "ĠmÅĤo": 1201,
      "zji": 1202,
      "Ã³Åº": 1203,
      "daw": 1204,
      "Ġpodczas": 1205,
      "ÅĽcia": 1206,
      "Ġsu": 1207,
      "Å¼eli": 1208,
      "ĠCzy": 1209,
      "ĠosÃ³b": 1210,
      "ÅĽciÄħ": 1211,
      "ĠÅĤa": 1212,
      "nad": 1213,
      "ĠBi": 1214,
      "prowa": 1215,
      "nach": 1216,
      "czenie": 1217,
      "Ġwyso": 1218,
      "Ġfina": 1219,
      "Ġprowa": 1220,
      "rÃ³ci": 1221,
      "wÄħ": 1222,
      "ĠCo": 1223,
      "ÅĦski": 1224,
      "wer": 1225,
      "Ġzmie": 1226,
      "owana": 1227,
      "Ġzgo": 1228,
      "Ġwiele": 1229,
      "95": 1230,
      "Ġszko": 1231,
      "est": 1232,
      "ing": 1233,
      "tÄħ": 1234,
      "Ġzro": 1235,
      "ĠgÅĤÃ³w": 1236,
      "Ġtrzy": 1237,
      "Ġprac": 1238,
      "Ġgodzi": 1239,
      "od": 1240,
      "szu": 1241,
      "czej": 1242,
      "Ġws": 1243,
      "Ġmowa": 1244,
      "ĠmiaÅĤ": 1245,
      "Ġsko": 1246,
      "wiad": 1247,
      "Ġnaz": 1248,
      "Ġzaw": 1249,
      "istor": 1250,
      "lnych": 1251,
      "Ġniez": 1252,
      "Ġnich": 1253,
      "18": 1254,
      "Ġustawy": 1255,
      "Ġzwy": 1256,
      "ĠdostÄĻp": 1257,
      "tek": 1258,
      "Ġut": 1259,
      "amy": 1260,
      "Ġpodsta": 1261,
      "ck": 1262,
      "ĠÅ¹rÃ³dÅĤo": 1263,
      "ĠzostaÅĤa": 1264,
      "wu": 1265,
      "mach": 1266,
      "ĠÅĽwiat": 1267,
      "Ġpani": 1268,
      "Ġkilka": 1269,
      "Ġele": 1270,
      "17": 1271,
      "Ġfunk": 1272,
      "miast": 1273,
      "niÄĩ": 1274,
      "kona": 1275,
      "Ġani": 1276,
      "pej": 1277,
      "Ġmiasta": 1278,
      "Ġla": 1279,
      "Ġsystem": 1280,
      "wiÄĻk": 1281,
      "strzost": 1282,
      "owanych": 1283,
      "wÃ³j": 1284,
      "ĠjÄĻ": 1285,
      "\".": 1286,
      "ĠmajÄħ": 1287,
      "Ġmusi": 1288,
      "bÄĻ": 1289,
      "Ġinnych": 1290,
      "Ġdwa": 1291,
      "Wy": 1292,
      "cjÄħ": 1293,
      "ĠbÄĻdÄħ": 1294,
      "zd": 1295,
      "ment": 1296,
      "ĠwspÃ³ÅĤ": 1297,
      "Za": 1298,
      "ony": 1299,
      "Ġpkt": 1300,
      "is": 1301,
      "Ġproje": 1302,
      "Ġstos": 1303,
      "ĠdotyczÄħ": 1304,
      "orÃ³w": 1305,
      "daÄĩ": 1306,
      "gna": 1307,
      "ym": 1308,
      "pera": 1309,
      "owaÅĤa": 1310,
      "Ġprzeciw": 1311,
      "asa": 1312,
      "Å¼ej": 1313,
      "16": 1314,
      "»y": 1315,
      "Ġpar": 1316,
      "nosi": 1317,
      "stÄħpi": 1318,
      "....": 1319,
      "Ġnas": 1320,
      "ard": 1321,
      "93": 1322,
      "Ġpubli": 1323,
      "amiÄĻ": 1324,
      "Ġsiebie": 1325,
      "stru": 1326,
      "Ġotrzy": 1327,
      "chodzi": 1328,
      "Ġpom": 1329,
      "Ġzale": 1330,
      "me": 1331,
      "chro": 1332,
      "13": 1333,
      "Ġlecz": 1334,
      "Ġwszystko": 1335,
      "pli": 1336,
      "Ġzapew": 1337,
      "Åºdzie": 1338,
      "ĠsposÃ³b": 1339,
      "ene": 1340,
      "Ġposta": 1341,
      "cach": 1342,
      "rach": 1343,
      "wali": 1344,
      "ĠwÅĤaÅĽci": 1345,
      "one": 1346,
      "tka": 1347,
      "Ġszy": 1348,
      "Ġzakre": 1349,
      "ĠwiÄĻk": 1350,
      "wem": 1351,
      "ĠWo": 1352,
      "000": 1353,
      "Ar": 1354,
      "czna": 1355,
      "ĠwiÄĻcej": 1356,
      "pada": 1357,
      "ktÃ³": 1358,
      "Ġteraz": 1359,
      "pro": 1360,
      "ĠCz": 1361,
      "bud": 1362,
      "ĠciÄħ": 1363,
      "24": 1364,
      "âĢĻ": 1365,
      "25": 1366,
      "stwo": 1367,
      "bym": 1368,
      "Ġwszystkich": 1369,
      "ha": 1370,
      "21": 1371,
      "ĠktÃ³rzy": 1372,
      "miesz": 1373,
      "ĠrzekÅĤ": 1374,
      "Do": 1375,
      "sem": 1376,
      "wÄĻ": 1377,
      "dzieÄĩ": 1378,
      "Ġtru": 1379,
      "gen": 1380,
      "âĢĿ,": 1381,
      "liÅĽmy": 1382,
      "nistra": 1383,
      "Ġloka": 1384,
      "ĠkoÅĦ": 1385,
      "ĠczÅĤon": 1386,
      "Ġdecy": 1387,
      "cznym": 1388,
      "Ġzda": 1389,
      "ato": 1390,
      "ĠczÅĤowie": 1391,
      "Ġwarto": 1392,
      "aÅĤe": 1393,
      "ryw": 1394,
      "Ġinter": 1395,
      "sce": 1396,
      "lny": 1397,
      "tego": 1398,
      "ĠktÃ³rego": 1399,
      "Ġgro": 1400,
      "nÄħÄĩ": 1401,
      "wszy": 1402,
      "niec": 1403,
      "Ġoczy": 1404,
      "taj": 1405,
      "pisa": 1406,
      "maga": 1407,
      "ĠmyÅĽ": 1408,
      "Ġniego": 1409,
      "ĠPrzy": 1410,
      "Ġostat": 1411,
      "szedÅĤ": 1412,
      "Ġofer": 1413,
      "19": 1414,
      "arÃ³w": 1415,
      "Ġauto": 1416,
      "ĠkrÃ³l": 1417,
      "ĠjÄĻzy": 1418,
      "ĠwÅĤas": 1419,
      "Ġwszystkie": 1420,
      "\",": 1421,
      "stytu": 1422,
      "ĠokreÅĽ": 1423,
      "ÅĽnia": 1424,
      "noc": 1425,
      "owarzy": 1426,
      "Ġnic": 1427,
      "stra": 1428,
      "owiÄħ": 1429,
      "lnoÅĽci": 1430,
      "Ġwrze": 1431,
      "Ġmoje": 1432,
      "ĠÅ¼a": 1433,
      "cki": 1434,
      "ok": 1435,
      "tÄĻ": 1436,
      "chi": 1437,
      "ĠnaleÅ¼y": 1438,
      "ĠpoczÄħ": 1439,
      "eri": 1440,
      "ĠPro": 1441,
      "lnie": 1442,
      "ote": 1443,
      "ÅĦstwo": 1444,
      "Ġosob": 1445,
      "22": 1446,
      "Å¼u": 1447,
      "Ġpracy": 1448,
      "Ġwyb": 1449,
      "ĠWarsza": 1450,
      "iÄĻki": 1451,
      "Ġwykona": 1452,
      "ĠPra": 1453,
      "ĠczÄĻÅĽci": 1454,
      "Ġklu": 1455,
      "ve": 1456,
      "ono": 1457,
      "ĠpoÅĽ": 1458,
      "Ġrzeczy": 1459,
      "Ã³Å¼": 1460,
      "daÅĤ": 1461,
      "Ġad": 1462,
      "ĠAr": 1463,
      "ĠPi": 1464,
      "Ġcze": 1465,
      "ĠÅĽwie": 1466,
      "ĠPod": 1467,
      "Ġcy": 1468,
      "Ġek": 1469,
      "Ġsku": 1470,
      "Ġrodza": 1471,
      "ĠAl": 1472,
      "maty": 1473,
      "ĠsÅĤ": 1474,
      "sztaÅĤ": 1475,
      "ĠÅ¼ycie": 1476,
      "gÄħ": 1477,
      "kcji": 1478,
      "ÅĦskim": 1479,
      "pod": 1480,
      "got": 1481,
      "Ġdzieci": 1482,
      "Ġmiejsc": 1483,
      "sÃ³w": 1484,
      "Ġpy": 1485,
      "ĠmÄĻ": 1486,
      "cznÄħ": 1487,
      "Ġczasu": 1488,
      "Ġzdoby": 1489,
      "ÅĤÄĻ": 1490,
      "ĠKra": 1491,
      "rzenia": 1492,
      "ÅĤug": 1493,
      "ĠNaj": 1494,
      "ctwa": 1495,
      "dno": 1496,
      "Ġobec": 1497,
      "Ġprzypadku": 1498,
      "Ġoj": 1499,
      "ĠjeÅĽli": 1500,
      "Ġdaw": 1501,
      "23": 1502,
      "kar": 1503,
      "Ġkla": 1504,
      "Ġat": 1505,
      "szcz": 1506,
      "redni": 1507,
      "owano": 1508,
      "muje": 1509,
      "ĠksiÄħ": 1510,
      "gdy": 1511,
      "onu": 1512,
      "Ġwal": 1513,
      "ĠcaÅĤy": 1514,
      "Ġludzi": 1515,
      "Ġsprawie": 1516,
      "cznoÅĽci": 1517,
      "dania": 1518,
      "nta": 1519,
      "ĠpÃ³Åº": 1520,
      "Ġjakie": 1521,
      "Ġpodob": 1522,
      "cer": 1523,
      "ĠdwÃ³": 1524,
      "ĠiÅ¼": 1525,
      "Ġponie": 1526,
      "Ġnr": 1527,
      "Ġdoku": 1528,
      "ĠtÄĻ": 1529,
      "Ġstu": 1530,
      "wach": 1531,
      "krai": 1532,
      "Åºdzier": 1533,
      "grani": 1534,
      "Ġarty": 1535,
      "Ġtele": 1536,
      "biera": 1537,
      "ĠwzglÄĻ": 1538,
      "Ġzawsze": 1539,
      "pnia": 1540,
      "ĠÅ¼": 1541,
      "Ġpat": 1542,
      "misji": 1543,
      "Ġnau": 1544,
      "Ġlip": 1545,
      "nikÃ³w": 1546,
      "Ġwoje": 1547,
      "lnego": 1548,
      "Ġkasy": 1549,
      "Ġczerw": 1550,
      "kro": 1551,
      "Ġsier": 1552,
      "vi": 1553,
      "Ġkam": 1554,
      "Ġum": 1555,
      "ĠpoÅĤu": 1556,
      "Ġkobie": 1557,
      "Å¼enia": 1558,
      "dniej": 1559,
      "ĠpaÅºdzier": 1560,
      "edÅĤug": 1561,
      "gle": 1562,
      "zen": 1563,
      "ÅĦskiej": 1564,
      "dne": 1565,
      "dzt": 1566,
      "ĠJed": 1567,
      "Ġpoko": 1568,
      "ĠwystÄĻp": 1569,
      "niÅĤ": 1570,
      "taÅĤ": 1571,
      "Ġsa": 1572,
      "Ġlotni": 1573,
      "Prze": 1574,
      "ÅĽniej": 1575,
      "ĠBa": 1576,
      "bior": 1577,
      "zku": 1578,
      "min": 1579,
      "Ġuli": 1580,
      "Ġspraw": 1581,
      "wany": 1582,
      "stro": 1583,
      "jÄħcego": 1584,
      "ÅĦskiego": 1585,
      "Ġchci": 1586,
      "Ġjeden": 1587,
      "nister": 1588,
      "onie": 1589,
      "line": 1590,
      "Ġga": 1591,
      "ĠTa": 1592,
      "Ġfir": 1593,
      "ĠFran": 1594,
      "tku": 1595,
      "Ġzu": 1596,
      "Ġchwili": 1597,
      "Ġfil": 1598,
      "Ġstar": 1599,
      "szcza": 1600,
      "ÅĤoÅĽci": 1601,
      "tora": 1602,
      "Ġmistrzost": 1603,
      "Ġproce": 1604,
      "ĠPolsce": 1605,
      "bar": 1606,
      "Ġodby": 1607,
      "naj": 1608,
      "ĠDa": 1609,
      "Ġcelu": 1610,
      "der": 1611,
      "dzia": 1612,
      "Ġfinans": 1613,
      "Ġstrony": 1614,
      "wego": 1615,
      "ĠmÃ³": 1616,
      "lenia": 1617,
      "nicy": 1618,
      "ĠoÅĽ": 1619,
      "ÅĤam": 1620,
      "utor": 1621,
      "mery": 1622,
      "stnie": 1623,
      "ÅĽrÃ³d": 1624,
      "Ġposia": 1625,
      "Ġwieku": 1626,
      "ĠkaÅ¼dy": 1627,
      "012": 1628,
      "Ġalbo": 1629,
      "chodzÄħ": 1630,
      "ezpie": 1631,
      "liz": 1632,
      "ĠÅ¼o": 1633,
      "lnej": 1634,
      "wodni": 1635,
      "czych": 1636,
      "pozy": 1637,
      "cyjne": 1638,
      "rom": 1639,
      "Ġdrugie": 1640,
      "ir": 1641,
      "star": 1642,
      "Ġkont": 1643,
      "Ġprzyja": 1644,
      "Ġobie": 1645,
      "Ġtakie": 1646,
      "Ġtr": 1647,
      "Ġjedy": 1648,
      "ĠksiÄĻ": 1649,
      "ktÃ³w": 1650,
      "owÄĻ": 1651,
      "Ġpozy": 1652,
      "Ġchce": 1653,
      "iel": 1654,
      "Ġsprze": 1655,
      "bro": 1656,
      "ĠspoÅĤe": 1657,
      "bia": 1658,
      "ĠskÅĤa": 1659,
      "mniej": 1660,
      "Ġwska": 1661,
      "Ġpana": 1662,
      "ĠNi": 1663,
      "ĠĠĠĠ": 1664,
      "czone": 1665,
      "menta": 1666,
      "ĠszczegÃ³l": 1667,
      "ĠdwÃ³ch": 1668,
      "ĠwpÅĤy": 1669,
      "stos": 1670,
      "Å¼enie": 1671,
      "Ġobro": 1672,
      "ĠzaÅĽ": 1673,
      "Ġha": 1674,
      "niku": 1675,
      "myÅĽ": 1676,
      "Ġdomu": 1677,
      "laz": 1678,
      "pita": 1679,
      "syj": 1680,
      "ĠJak": 1681,
      "ĠpiÄĻk": 1682,
      "ĠLu": 1683,
      "Ġznajduje": 1684,
      "Ġpoja": 1685,
      "tyw": 1686,
      "mian": 1687,
      "Ġdanych": 1688,
      "Ġnatu": 1689,
      "wiera": 1690,
      "fek": 1691,
      "ĠmiÄĻ": 1692,
      "Ġnam": 1693,
      "amo": 1694,
      "ĠUni": 1695,
      "ĠwrzeÅĽnia": 1696,
      "ĠCho": 1697,
      "Ġpoprze": 1698,
      "land": 1699,
      "waÅĤa": 1700,
      "Ġkto": 1701,
      "cka": 1702,
      "wane": 1703,
      "Ġlisto": 1704,
      "tar": 1705,
      "ĠmÃ³j": 1706,
      "wanie": 1707,
      "czes": 1708,
      "Ġczerwca": 1709,
      "ĠMu": 1710,
      "ĠcoÅĽ": 1711,
      "mentu": 1712,
      "Ġpor": 1713,
      "Ġjaki": 1714,
      "latego": 1715,
      "Ġnajlep": 1716,
      "Ġzasa": 1717,
      "ĠKon": 1718,
      "ĠÅĽmier": 1719,
      "Ġinwe": 1720,
      "ĠpoÅĤo": 1721,
      "26": 1722,
      "kacji": 1723,
      "ĠwaÅ¼": 1724,
      "Ro": 1725,
      "Ġstycz": 1726,
      "ĠJest": 1727,
      "ĠpaÅºdziernika": 1728,
      "lie": 1729,
      "liwoÅĽci": 1730,
      "stÃ³w": 1731,
      "Ã©m": 1732,
      "Ġlipca": 1733,
      "lnym": 1734,
      "szczÄĻ": 1735,
      "Ġwarun": 1736,
      "sÅĤaw": 1737,
      "ĠEuropej": 1738,
      "mÃ³w": 1739,
      "rum": 1740,
      "atun": 1741,
      "wÃ³r": 1742,
      "Ġsty": 1743,
      "Ġtechni": 1744,
      "Ġdobrze": 1745,
      "Å¼yÅĤ": 1746,
      "ĠJu": 1747,
      "Ġczasie": 1748,
      "Ġpolity": 1749,
      "wiÄħza": 1750,
      "27": 1751,
      "nienia": 1752,
      "ĠÅ¼eby": 1753,
      "Ġprzedstawi": 1754,
      "nne": 1755,
      "Ġwnios": 1756,
      "Ġofi": 1757,
      "Ġzapo": 1758,
      "Ġuzy": 1759,
      "ĠTak": 1760,
      "Ġgospo": 1761,
      "Ġprogra": 1762,
      "Ġspecja": 1763,
      "011": 1764,
      "Ġmuzy": 1765,
      "ĠSe": 1766,
      "Ġpun": 1767,
      "Ġtro": 1768,
      "mieniu": 1769,
      "miany": 1770,
      "ĠpÃ³Åºniej": 1771,
      "Ġwielu": 1772,
      "ĠÅ¼ycia": 1773,
      "90": 1774,
      "Od": 1775,
      "ble": 1776,
      "Ġzakresie": 1777,
      "szczy": 1778,
      "noÅĽciÄħ": 1779,
      "ÅĦstw": 1780,
      "jÄħca": 1781,
      "ciÅĤ": 1782,
      "qu": 1783,
      "Ġgmi": 1784,
      "owaniu": 1785,
      "Ġsztu": 1786,
      "ĠzwiÄħza": 1787,
      "ckiego": 1788,
      "ks": 1789,
      "Ġsez": 1790,
      "Ġmam": 1791,
      "Ġuro": 1792,
      "Ġona": 1793,
      "Ġkrzy": 1794,
      "Pol": 1795,
      "ĠÅĽwiata": 1796,
      "rzÄħdzenia": 1797,
      "Ko": 1798,
      "Åļ": 1799,
      "Ġone": 1800,
      "log": 1801,
      "Ġbardziej": 1802,
      "chem": 1803,
      "byt": 1804,
      "Ġpowin": 1805,
      "28": 1806,
      "niesie": 1807,
      "wych": 1808,
      "ĠokoÅĤo": 1809,
      "czyna": 1810,
      "Ġbudy": 1811,
      "mienia": 1812,
      "sÅĤy": 1813,
      "czki": 1814,
      "lega": 1815,
      "Ġzwie": 1816,
      "Ġniej": 1817,
      "arakt": 1818,
      "rew": 1819,
      "Ġzrobi": 1820,
      "Äħd": 1821,
      "Ġponad": 1822,
      "ĠPolski": 1823,
      "kowi": 1824,
      "ĠniektÃ³": 1825,
      "tera": 1826,
      "pat": 1827,
      "Ġtre": 1828,
      "Å»y": 1829,
      "Ġmet": 1830,
      "Ġgatun": 1831,
      "ktor": 1832,
      "Ġcent": 1833,
      "lt": 1834,
      "ion": 1835,
      "ĠSo": 1836,
      "au": 1837,
      "kle": 1838,
      "ĠudziaÅĤ": 1839,
      "ĠaÅ¼": 1840,
      "ĠdÅĤugo": 1841,
      "rek": 1842,
      "koÅĽci": 1843,
      "dach": 1844,
      "dow": 1845,
      "mat": 1846,
      "ĠII": 1847,
      "ĠktÃ³rÄħ": 1848,
      "ĠÅĤ": 1849,
      "tedy": 1850,
      "ĠmÃ³gÅĤ": 1851,
      "siÅĤ": 1852,
      "Ġzdr": 1853,
      "Ġpart": 1854,
      "ers": 1855,
      "lach": 1856,
      "Je": 1857,
      "pl": 1858,
      "uka": 1859,
      "Ġlicz": 1860,
      "Ġpierwszy": 1861,
      "Ġokoli": 1862,
      "ĠzÅĤ": 1863,
      "Ġdrz": 1864,
      "Å¼yÄĩ": 1865,
      "jÄħcym": 1866,
      "nki": 1867,
      "owali": 1868,
      "jÄħÅĤ": 1869,
      "Ġszyb": 1870,
      "Ġdni": 1871,
      "ÅĽmie": 1872,
      "cego": 1873,
      "ĠRos": 1874,
      "nÄĻtrz": 1875,
      "dli": 1876,
      "Ġse": 1877,
      "Ġhra": 1878,
      "!...": 1879,
      "ho": 1880,
      "niki": 1881,
      "dzÄĻ": 1882,
      "kol": 1883,
      "ÅĤoÅĽÄĩ": 1884,
      "Ġkraj": 1885,
      "Ġtwa": 1886,
      "Ġter": 1887,
      "Ġszero": 1888,
      "ĠPu": 1889,
      "ÅĦcÃ³w": 1890,
      "ĠponiewaÅ¼": 1891,
      "ĠÅĤÄħ": 1892,
      "cem": 1893,
      "ciel": 1894,
      "ĠczÄĻsto": 1895,
      "ntÃ³w": 1896,
      "Ġsierpnia": 1897,
      "cyjnych": 1898,
      "Ġswoich": 1899,
      "ĠkaÅ¼d": 1900,
      "lnoÅĽÄĩ": 1901,
      "Ġkwiet": 1902,
      "Ġpier": 1903,
      "ĠÅ¼ad": 1904,
      "Ġopera": 1905,
      "Ġprawo": 1906,
      "ĠwÅĤo": 1907,
      "Ġso": 1908,
      "gan": 1909,
      "ĠAn": 1910,
      "worzy": 1911,
      "ĠOr": 1912,
      "Ġrepre": 1913,
      "Ġbezpie": 1914,
      "Ġpozosta": 1915,
      "Ġsek": 1916,
      "zuje": 1917,
      "ciÄħg": 1918,
      "Ġkro": 1919,
      "Ġmniej": 1920,
      "Ġkole": 1921,
      "Ġjestem": 1922,
      "ĠDe": 1923,
      "Ġmaja": 1924,
      "ĠwÅĤaÅĽnie": 1925,
      "tej": 1926,
      "usz": 1927,
      "Ġkry": 1928,
      "Ġpanie": 1929,
      "023": 1930,
      "ĠpÃ³ÅĤnoc": 1931,
      "ĠprÃ³": 1932,
      "Ġtrzeba": 1933,
      "raca": 1934,
      "syte": 1935,
      "ĠÅ»": 1936,
      "czony": 1937,
      "ĠRoz": 1938,
      "lna": 1939,
      "Ġzaj": 1940,
      "nÄĻÅĤa": 1941,
      "Ġinformacji": 1942,
      "Ġlistopada": 1943,
      "ten": 1944,
      "ĠsÅĤo": 1945,
      "wersyte": 1946,
      "Å¼li": 1947,
      "Ġprzygot": 1948,
      "Ġjeste": 1949,
      "ministra": 1950,
      "jÄħcej": 1951,
      "Ġgdyby": 1952,
      "br": 1953,
      "trze": 1954,
      "Ġtakich": 1955,
      "Ġrzecz": 1956,
      "Ġpozio": 1957,
      "Ġpyta": 1958,
      "Ġska": 1959,
      "aÅĤÄħ": 1960,
      "Ġucze": 1961,
      "Ġodpowiedzi": 1962,
      "Ġpara": 1963,
      "pÅĤy": 1964,
      "ĠsobÄħ": 1965,
      "ĠtÅĤu": 1966,
      "Ġochro": 1967,
      "ĠBra": 1968,
      "Ġopu": 1969,
      "ĠpamiÄĻ": 1970,
      "che": 1971,
      "Ġpodstawie": 1972,
      "Ġprzysz": 1973,
      "ĠobowiÄħ": 1974,
      "Ġspotka": 1975,
      "021": 1976,
      "Ġkraju": 1977,
      "Ġstycznia": 1978,
      "lew": 1979,
      "czonych": 1980,
      "ĠksiÄħÅ¼": 1981,
      "Ġreali": 1982,
      "ss": 1983,
      "Ġinne": 1984,
      "ĠokreÅĽlo": 1985,
      "iÄħ": 1986,
      "ĠSa": 1987,
      "ĠOb": 1988,
      "Ġnigdy": 1989,
      "obacz": 1990,
      "ĠWa": 1991,
      "Ġisto": 1992,
      "wiek": 1993,
      "Ġramach": 1994,
      "bezpie": 1995,
      "waÅĤy": 1996,
      "Ġban": 1997,
      "Ġwybra": 1998,
      "szko": 1999,
      "Ġkonku": 2000,
      "Ġinternet": 2001,
      "ĠkoÅĽci": 2002,
      "ĠdzieÅĦ": 2003,
      "Ġgrudnia": 2004,
      "hi": 2005,
      "rami": 2006,
      "aru": 2007,
      "tach": 2008,
      "ĠnastÄĻpnie": 2009,
      "daÅĦ": 2010,
      "Ġczu": 2011,
      "ĠDz": 2012,
      "roni": 2013,
      "Ġumie": 2014,
      "Ġfa": 2015,
      "soby": 2016,
      "Ġwprowa": 2017,
      "kolwiek": 2018,
      "szenia": 2019,
      "Ġregu": 2020,
      "Ġkilku": 2021,
      "gÅĤo": 2022,
      "zo": 2023,
      "gar": 2024,
      "man": 2025,
      "ĠzostaÅĤy": 2026,
      "ĠwojewÃ³": 2027,
      "kowa": 2028,
      "Ġoce": 2029,
      "Ġistnie": 2030,
      "Ġinte": 2031,
      "Ġpowst": 2032,
      "tami": 2033,
      "czeniu": 2034,
      "domo": 2035,
      "istoria": 2036,
      "Ġv": 2037,
      "ĠTy": 2038,
      "wym": 2039,
      "Ġdrugi": 2040,
      "wiat": 2041,
      "ĠczÄĻÅĽÄĩ": 2042,
      "Ġdie": 2043,
      "ĠÅĤat": 2044,
      "owoÅĽci": 2045,
      "jÄħcÄħ": 2046,
      "meryka": 2047,
      "ĠwÄĻ": 2048,
      "ĠwÄħ": 2049,
      "tym": 2050,
      "ĠroÅĽli": 2051,
      "010": 2052,
      "ura": 2053,
      "Ġonline": 2054,
      "ple": 2055,
      "Åģ": 2056,
      "Ġtran": 2057,
      "nter": 2058,
      "Ġlek": 2059,
      "wz": 2060,
      "Ġwymaga": 2061,
      "tury": 2062,
      "ĠNo": 2063,
      "gii": 2064,
      "Ġprawie": 2065,
      "Ġzapy": 2066,
      "mii": 2067,
      "czaj": 2068,
      "Ġmarca": 2069,
      "ĠÅº": 2070,
      "Ġdodat": 2071,
      "86": 2072,
      "per": 2073,
      "tra": 2074,
      "ciem": 2075,
      "wen": 2076,
      "ĠzajÄĻ": 2077,
      "Ġdalej": 2078,
      "Ġposiada": 2079,
      "gry": 2080,
      "Ġwyp": 2081,
      "szyscy": 2082,
      "ĠszczÄĻ": 2083,
      "Ġgospodar": 2084,
      "dÅĤu": 2085,
      "gnie": 2086,
      "ina": 2087,
      "ĠgÃ³": 2088,
      "Ġodno": 2089,
      "owymi": 2090,
      "wala": 2091,
      "ĠCi": 2092,
      "Ã¼": 2093,
      "Ġgry": 2094,
      "ĠswojÄħ": 2095,
      "ĠEuropy": 2096,
      "peÅĤnie": 2097,
      "ĠSi": 2098,
      "Ġwraz": 2099,
      "ĠzaÅĤo": 2100,
      "ĠpostÄĻp": 2101,
      "?...": 2102,
      "ĠsÅĤy": 2103,
      "chÄĻ": 2104,
      "rzenie": 2105,
      "ĠzarzÄħ": 2106,
      "Ġtere": 2107,
      "Ġpotem": 2108,
      "tne": 2109,
      "ĠpÅĤa": 2110,
      "dal": 2111,
      "wej": 2112,
      "nale": 2113,
      "Ġozna": 2114,
      "ĠrÃ³Å¼nych": 2115,
      "29": 2116,
      "ckiej": 2117,
      "szcie": 2118,
      "bÄħ": 2119,
      "ÅĦskich": 2120,
      "Ġkosz": 2121,
      "Ġsza": 2122,
      "Ġwido": 2123,
      "Ġrobo": 2124,
      "Ġkamie": 2125,
      "tki": 2126,
      "ad": 2127,
      "Ġdar": 2128,
      "Ġprzeprowa": 2129,
      "Pod": 2130,
      "Ġbrz": 2131,
      "kowe": 2132,
      "Ġzoba": 2133,
      "Ġznale": 2134,
      "Ġinwesty": 2135,
      "Ġczego": 2136,
      "wnÄĻtrz": 2137,
      "Ġkier": 2138,
      "020": 2139,
      "Ġrazem": 2140,
      "Ġkwietnia": 2141,
      "Ġsil": 2142,
      "nami": 2143,
      "ĠMie": 2144,
      "Ġprzyj": 2145,
      "Ġener": 2146,
      "czeÅĽnie": 2147,
      "Ġwzro": 2148,
      "waÅĤo": 2149,
      "Ġdwie": 2150,
      "Ġobej": 2151,
      "szech": 2152,
      "ĠusÅĤu": 2153,
      "ĠniÄħ": 2154,
      "ĠwspÃ³l": 2155,
      "Ġwspo": 2156,
      "piej": 2157,
      "ĠprzedsiÄĻ": 2158,
      "podob": 2159,
      "munika": 2160,
      "czÄħÅĤ": 2161,
      "jedno": 2162,
      "tua": 2163,
      "iÄĻk": 2164,
      "Ġtytu": 2165,
      "ciÄĻz": 2166,
      "Ġgrupy": 2167,
      "ron": 2168,
      "007": 2169,
      "orys": 2170,
      "dia": 2171,
      "nij": 2172,
      "Ġand": 2173,
      "dziaÅĤa": 2174,
      "pisy": 2175,
      "spÃ³ÅĤ": 2176,
      "trzyma": 2177,
      "przy": 2178,
      "ĠzwiÄħzku": 2179,
      "ĠUniwersyte": 2180,
      "ÅĽwiad": 2181,
      "prac": 2182,
      "Ġbli": 2183,
      "Ġdom": 2184,
      "com": 2185,
      "Ġdrzwi": 2186,
      "ĠLud": 2187,
      "Å¼ony": 2188,
      "Ġjednost": 2189,
      "ÅĦska": 2190,
      "ĠJeÅĽli": 2191,
      "kowie": 2192,
      "ÅĤnie": 2193,
      "ĠjeÅ¼eli": 2194,
      "ĠRady": 2195,
      "Ġeksp": 2196,
      "100": 2197,
      "bardziej": 2198,
      "czyÅĤa": 2199,
      "Ġobsz": 2200,
      "Ġwyra": 2201,
      "Ġciebie": 2202,
      "ciorys": 2203,
      "kom": 2204,
      "piero": 2205,
      "Â°": 2206,
      "emu": 2207,
      "Ġwszystkim": 2208,
      "Å¼one": 2209,
      "Å»yciorys": 2210,
      "Ġuzna": 2211,
      "ĠpaÅĦstwa": 2212,
      "ĠsÅĤowa": 2213,
      "nowa": 2214,
      "narod": 2215,
      "ĠwyglÄħ": 2216,
      "ĠAnd": 2217,
      "gh": 2218,
      "lenie": 2219,
      "ĠzakoÅĦ": 2220,
      "ortu": 2221,
      "Ġstanie": 2222,
      "Ġgrani": 2223,
      "Ġstronie": 2224,
      "Ġpowodu": 2225,
      "Ġzgodnie": 2226,
      "fo": 2227,
      "zja": 2228,
      "kaza": 2229,
      "ĠPar": 2230,
      "rowi": 2231,
      "czka": 2232,
      "Ġprzyby": 2233,
      "Ġelekt": 2234,
      "wyÅ¼": 2235,
      "Ġjednym": 2236,
      "ĠHa": 2237,
      "Ġreprezen": 2238,
      "ĠmyÅĽli": 2239,
      "Ġfran": 2240,
      "Ġul": 2241,
      "pular": 2242,
      "liwoÅĽÄĩ": 2243,
      "tro": 2244,
      "ĠwÅĽrÃ³d": 2245,
      "Ġzespo": 2246,
      "ĠnajwiÄĻk": 2247,
      "Ġniemie": 2248,
      "Ġak": 2249,
      "ĠdziÄĻki": 2250,
      "maÅĤ": 2251,
      "ĠmiaÅĤa": 2252,
      "ĠTu": 2253,
      "ĠRy": 2254,
      "owiem": 2255,
      "Ġklasy": 2256,
      "ÅĦskie": 2257,
      "ĠBar": 2258,
      "ĠchoÄĩ": 2259,
      "Ġtemu": 2260,
      "tr": 2261,
      "ĠBe": 2262,
      "Ġsieci": 2263,
      "40": 2264,
      "par": 2265,
      "Ġpozost": 2266,
      "mal": 2267,
      "cami": 2268,
      "ĠrozwiÄħza": 2269,
      "undu": 2270,
      "Ġefek": 2271,
      "Ġdrogi": 2272,
      "rych": 2273,
      "Ġmor": 2274,
      "wal": 2275,
      "Ġkul": 2276,
      "ĠY": 2277,
      "Dz": 2278,
      "obec": 2279,
      "ĠmieÄĩ": 2280,
      "pol": 2281,
      "Ġnowo": 2282,
      "umb": 2283,
      "Ġlutego": 2284,
      "ĠwojewÃ³dzt": 2285,
      "AT": 2286,
      "rzem": 2287,
      "ĠMe": 2288,
      "60": 2289,
      "dnoÅĽci": 2290,
      "met": 2291,
      "pÄĻ": 2292,
      "rzaÅĤ": 2293,
      "ciÄĩ": 2294,
      "koj": 2295,
      "ĠgÅĤÄĻ": 2296,
      "Ġswojej": 2297,
      "Ġfunkcj": 2298,
      "Ġostatni": 2299,
      "krÄĻ": 2300,
      "ĠKomisji": 2301,
      "ĠÅĽrodowi": 2302,
      "woju": 2303,
      "Ġobwo": 2304,
      "west": 2305,
      "Ġotwar": 2306,
      "it": 2307,
      "Ġwtedy": 2308,
      "Ġprzyzna": 2309,
      "czeÅĽniej": 2310,
      "lony": 2311,
      "ĠÅĽwiÄĻ": 2312,
      "Ġsytua": 2313,
      "ĠdziaÅĤania": 2314,
      "Ġkontro": 2315,
      "âĢľ": 2316,
      "moÅ¼li": 2317,
      "ĠpowiedziaÅĤ": 2318,
      "jo": 2319,
      "Ã³wczas": 2320,
      "ĠZie": 2321,
      "ĠGdy": 2322,
      "rii": 2323,
      "ĠMoÅ¼e": 2324,
      "szenie": 2325,
      "Ġsposob": 2326,
      "owiada": 2327,
      "Ġmateri": 2328,
      "Ġadministra": 2329,
      "ser": 2330,
      "ĠokrÄĻ": 2331,
      "Przy": 2332,
      "tery": 2333,
      "Ġprzestrze": 2334,
      "czÄħcy": 2335,
      "Ġkieru": 2336,
      "Ġodpowiedni": 2337,
      "ĠÅ¹rÃ³dÅĤa": 2338,
      "Ġzat": 2339,
      "Ġprzewodni": 2340,
      "Ġkonie": 2341,
      "zacja": 2342,
      "suje": 2343,
      "ĠpiÅĤ": 2344,
      "ktyw": 2345,
      "Ġpoda": 2346,
      "Ġjakby": 2347,
      "Ġpowsta": 2348,
      "Ġnatural": 2349,
      "Ġwia": 2350,
      "ler": 2351,
      "ĠSan": 2352,
      "stan": 2353,
      "ĠBu": 2354,
      "Ġrozm": 2355,
      "chodni": 2356,
      "Ġnauk": 2357,
      "tyka": 2358,
      "Ġrobi": 2359,
      "ĠZe": 2360,
      "Ġjednego": 2361,
      "Ġtemat": 2362,
      "Ja": 2363,
      "ckim": 2364,
      "Ġnieza": 2365,
      "ĠchciaÅĤ": 2366,
      "Historia": 2367,
      "ÅĤaÅĤ": 2368,
      "ĠPan": 2369,
      "rysty": 2370,
      "ĠJan": 2371,
      "Ġczym": 2372,
      "ĠmyÅĽl": 2373,
      "chaÅĤ": 2374,
      "Ġzawiera": 2375,
      "lot": 2376,
      "ĠZwy": 2377,
      "Ġoto": 2378,
      "Ġdosko": 2379,
      "emo": 2380,
      "Ġcharakt": 2381,
      "009": 2382,
      "Ġhistor": 2383,
      "ĠÅĽwiecie": 2384,
      "Ġper": 2385,
      "arÅĤ": 2386,
      "Ġwynosi": 2387,
      "rÃ³t": 2388,
      "stni": 2389,
      "Ġograni": 2390,
      "lone": 2391,
      "Pro": 2392,
      "ĠuwagÄĻ": 2393,
      "Ġrzu": 2394,
      "Ġan": 2395,
      "ĠNarod": 2396,
      "ĠpoczÄħtku": 2397,
      "Ch": 2398,
      "czni": 2399,
      "ĠLa": 2400,
      "Ġpotrzeb": 2401,
      "Ġdwu": 2402,
      "Ġtowarzy": 2403,
      "woje": 2404,
      "Ġwielo": 2405,
      "Ġlata": 2406,
      ".,": 2407,
      "ĠchÅĤo": 2408,
      "Ġtaki": 2409,
      "ĠciÄĻÅ¼": 2410,
      "raj": 2411,
      "Ġpoza": 2412,
      "Ġprawa": 2413,
      "ĠdruÅ¼y": 2414,
      "ĠpoÅĤÄħ": 2415,
      "ĠAu": 2416,
      "019": 2417,
      "Ġsamym": 2418,
      "ĠdziÅĽ": 2419,
      "thumb": 2420,
      "31": 2421,
      "ksztaÅĤ": 2422,
      "Ġpas": 2423,
      "Ġpozna": 2424,
      "Ġwypad": 2425,
      "ĠmÃ³wiÅĤ": 2426,
      "zio": 2427,
      "Ġdosta": 2428,
      "ĠUkrai": 2429,
      "ĠmoÅ¼esz": 2430,
      "dny": 2431,
      "let": 2432,
      "tom": 2433,
      "ĠFe": 2434,
      "âĺ": 2435,
      "Ġrosyj": 2436,
      "Ġznalaz": 2437,
      "Ġmiejsca": 2438,
      "arÃ³wno": 2439,
      "dami": 2440,
      "Ġpomocy": 2441,
      "Ã¤": 2442,
      "cenia": 2443,
      "Ġodda": 2444,
      "Ġswoim": 2445,
      "chaÄĩ": 2446,
      "Ġtutaj": 2447,
      "Ġzamk": 2448,
      "35": 2449,
      "Jak": 2450,
      "pia": 2451,
      "Ġkorzysta": 2452,
      "rucho": 2453,
      "Ġobraz": 2454,
      "Ġmiejscu": 2455,
      "Ġwypo": 2456,
      "waj": 2457,
      "In": 2458,
      "Ã¡": 2459,
      "Ġwszyscy": 2460,
      "niesi": 2461,
      "piera": 2462,
      "mentÃ³w": 2463,
      "Ġwykorzysta": 2464,
      "rÃ³ciÅĤ": 2465,
      "80": 2466,
      "Ġzde": 2467,
      "wiÄĩ": 2468,
      "czona": 2469,
      "Ġmoc": 2470,
      "Ġwsze": 2471,
      "Ġosoby": 2472,
      "ĠRu": 2473,
      "018": 2474,
      "RE": 2475,
      "ly": 2476,
      "Ġwej": 2477,
      "Ġprzej": 2478,
      "form": 2479,
      "ĠpÅĤy": 2480,
      "niach": 2481,
      "008": 2482,
      "niejsze": 2483,
      "ĠogÃ³l": 2484,
      "esti": 2485,
      "pÅĤa": 2486,
      "aÅĤoru": 2487,
      "cieÅ¼": 2488,
      "ĠmieszkaÅĦcÃ³w": 2489,
      "Ġziem": 2490,
      "ÅĤym": 2491,
      "ont": 2492,
      "By": 2493,
      "ĠosiÄħ": 2494,
      "ĠuÅĽmie": 2495,
      "dziÅĤa": 2496,
      "ĠRze": 2497,
      "ĠXX": 2498,
      "Ġkr": 2499,
      "szaÅĤ": 2500,
      "Ġge": 2501,
      "Ġgene": 2502,
      "ĠZobacz": 2503,
      "cjach": 2504,
      "ctwo": 2505,
      "ĠsÅĤuÅ¼": 2506,
      "Ġmil": 2507,
      "Ġminu": 2508,
      "ĠLo": 2509,
      "ĠskÅĤad": 2510,
      "Ġokaz": 2511,
      "Ġide": 2512,
      "kcie": 2513,
      "Ġdlatego": 2514,
      "Ġlit": 2515,
      "siÄĻcy": 2516,
      "koÅĽÄĩ": 2517,
      "Ġkol": 2518,
      "Ġpodej": 2519,
      "Ġwiem": 2520,
      "ÅºÄĩ": 2521,
      "ĠpomiÄĻdzy": 2522,
      ".Âł": 2523,
      "Ġklie": 2524,
      "Ġnarod": 2525,
      "Ġdopiero": 2526,
      "ĠCent": 2527,
      "bio": 2528,
      "Ġpolski": 2529,
      "Ġwojny": 2530,
      "........": 2531,
      "wor": 2532,
      "Ġsce": 2533,
      "are": 2534,
      "tuje": 2535,
      "ÂłÂłÂłÂłÂłÂłÂłÂł": 2536,
      "Å¼na": 2537,
      "ĠwyÅĤÄħ": 2538,
      "lacji": 2539,
      "ĠJo": 2540,
      "Ġsprzeda": 2541,
      "âĺı": 2542,
      "ver": 2543,
      "Ġdrze": 2544,
      "Ġkur": 2545,
      "ton": 2546,
      "Ġrozu": 2547,
      "Ġlist": 2548,
      "Ġeko": 2549,
      "ĠgÅĤos": 2550,
      "owaÅĤy": 2551,
      "ĠAutor": 2552,
      "cyjny": 2553,
      "zyj": 2554,
      "ĠWiel": 2555,
      "nowu": 2556,
      "Ġorganiz": 2557,
      "ĠpoÅĤudni": 2558,
      "Ġdow": 2559,
      "Ġkm": 2560,
      "Ġzad": 2561,
      "ĠprzyjÄĻ": 2562,
      "fika": 2563,
      "Ġdale": 2564,
      "Roz": 2565,
      "ĠmetrÃ³w": 2566,
      "px": 2567,
      "reszcie": 2568,
      "mysÅĤ": 2569,
      "Ġpowiecie": 2570,
      "ĠWarszawie": 2571,
      "tp": 2572,
      "lii": 2573,
      "danie": 2574,
      "ĠSy": 2575,
      "Ġczar": 2576,
      "ĠGo": 2577,
      "ĠGra": 2578,
      "Ġnajbardziej": 2579,
      "Ġne": 2580,
      "cale": 2581,
      "Ġcoraz": 2582,
      "Ġdowo": 2583,
      "ĠMat": 2584,
      "sion": 2585,
      "Ġludzie": 2586,
      "aÅĤych": 2587,
      "ciaÅ¼": 2588,
      "Czy": 2589,
      "ium": 2590,
      "kowych": 2591,
      "Ġspa": 2592,
      "Ġrej": 2593,
      "nes": 2594,
      "rzyÅĤ": 2595,
      "Ġprof": 2596,
      "Ġpozwo": 2597,
      "ĠByÅĤ": 2598,
      "ckie": 2599,
      "nar": 2600,
      "Ġopi": 2601,
      "ĠdoÅĽwiad": 2602,
      "ÅĤych": 2603,
      "spek": 2604,
      "Ġpozwala": 2605,
      "Ġnoc": 2606,
      "Ġzawodni": 2607,
      "rzo": 2608,
      "taÄĩ": 2609,
      "ĠGa": 2610,
      "ĠjakÄħ": 2611,
      "por": 2612,
      "âĢĺ": 2613,
      "ujÄħ": 2614,
      "Ġtech": 2615,
      "NA": 2616,
      "ĠsÅĤa": 2617,
      "Ġki": 2618,
      "wajÄħ": 2619,
      "Ġobu": 2620,
      "fii": 2621,
      "ĠzupeÅĤnie": 2622,
      "kowej": 2623,
      "oÅĤa": 2624,
      "ĠPe": 2625,
      "Ġfak": 2626,
      "Ġstrate": 2627,
      "Ġwojsk": 2628,
      "ĠmaÅĤ": 2629,
      "czeÅĦstwa": 2630,
      "szyÄĩ": 2631,
      "ĠThe": 2632,
      "ÅĽniku": 2633,
      "sek": 2634,
      "Ġbla": 2635,
      "Ġwygra": 2636,
      "Ġskrzy": 2637,
      "Ġdyre": 2638,
      "iedy": 2639,
      "stwie": 2640,
      "lizacji": 2641,
      "leÅ¼": 2642,
      "Ġbe": 2643,
      "Ġniepo": 2644,
      "ĠJego": 2645,
      "ĠrozpoczÄĻ": 2646,
      "ĠczÅĤowiek": 2647,
      "cko": 2648,
      "Ã¶": 2649,
      "Ġzre": 2650,
      "Ġwyt": 2651,
      "kuje": 2652,
      "ĠWe": 2653,
      "Ġjas": 2654,
      "ĠrozporzÄħdzenia": 2655,
      "zent": 2656,
      "Ġzamiesz": 2657,
      "Ġstwier": 2658,
      "ĠUnii": 2659,
      "Ġdecyzji": 2660,
      "mp": 2661,
      "nnych": 2662,
      "chÃ³d": 2663,
      "nienie": 2664,
      "ĠwyjÄħ": 2665,
      "ĠSÄħ": 2666,
      "ĠWoj": 2667,
      "wiÅĤ": 2668,
      "Ġbyli": 2669,
      "013": 2670,
      "Ġrodziny": 2671,
      "ĠodnoÅĽniku": 2672,
      "gÅĤa": 2673,
      "Ã³sÅĤ": 2674,
      "Ġzaraz": 2675,
      "017": 2676,
      "czono": 2677,
      "ĠmÅĤodzie": 2678,
      "ĠZwyciÄĻz": 2679,
      "87": 2680,
      "koÅĤa": 2681,
      "Ġameryka": 2682,
      "byw": 2683,
      "ĠDu": 2684,
      "OR": 2685,
      "ts": 2686,
      "ĠGre": 2687,
      "Ġwiadomo": 2688,
      "ĠzarÃ³wno": 2689,
      "Ġzain": 2690,
      "Ġreprezenta": 2691,
      "lnÄħ": 2692,
      "lim": 2693,
      "Ġucie": 2694,
      "les": 2695,
      "erwo": 2696,
      "Ġode": 2697,
      "nny": 2698,
      "nione": 2699,
      "Ġchoro": 2700,
      "Ġcentrum": 2701,
      "Ma": 2702,
      "cÅĤa": 2703,
      "nowie": 2704,
      "ĠswÃ³j": 2705,
      "Ġdal": 2706,
      "czeÅĦ": 2707,
      "del": 2708,
      "Ġkre": 2709,
      "dopodob": 2710,
      "Ġspoj": 2711,
      "Ġziemi": 2712,
      "ĠÅ¼oÅĤnie": 2713,
      "port": 2714,
      "len": 2715,
      "ĠPre": 2716,
      "ĠDzie": 2717,
      "duje": 2718,
      "groma": 2719,
      "logii": 2720,
      "ĠprÄĻ": 2721,
      "Ġpryw": 2722,
      "Ġgu": 2723,
      "ĠKrÃ³": 2724,
      "Ġmiasto": 2725,
      "ĠwiÄĻkszo": 2726,
      "Ġznowu": 2727,
      "szÅĤa": 2728,
      "ĠÅĽrodkÃ³w": 2729,
      "Ġprojekt": 2730,
      "fia": 2731,
      "Ġpta": 2732,
      "Ġdr": 2733,
      "kade": 2734,
      "ĠZjedno": 2735,
      "Ġprawdzi": 2736,
      "Ġinformacje": 2737,
      "Ġulicy": 2738,
      "ĠÅĽci": 2739,
      "ckich": 2740,
      "ke": 2741,
      "Ġwst": 2742,
      "Ġilo": 2743,
      "dzÄħc": 2744,
      "Ġprezy": 2745,
      "ĠdotyczÄħce": 2746,
      "wzglÄĻ": 2747,
      "IE": 2748,
      "isz": 2749,
      "nka": 2750,
      "Ġpocz": 2751,
      "Ġmoja": 2752,
      "Ġczyli": 2753,
      "istory": 2754,
      "Ġjedynie": 2755,
      "Ġmasz": 2756,
      "ĠUS": 2757,
      "014": 2758,
      "jÃ³w": 2759,
      "Ġzamie": 2760,
      "nomi": 2761,
      "Ġeuro": 2762,
      "Ġnowe": 2763,
      "Ġsiedzi": 2764,
      "ĠrÃ³Å¼ne": 2765,
      "To": 2766,
      "fer": 2767,
      "aÅĤam": 2768,
      "ater": 2769,
      "cep": 2770,
      "Ġjednej": 2771,
      "cyjnego": 2772,
      "ĠpowiedzieÄĩ": 2773,
      "ĠdziaÅĤalnoÅĽci": 2774,
      "ĠprzedsiÄĻbior": 2775,
      "Ġwszel": 2776,
      "Mo": 2777,
      "wiÅĽcie": 2778,
      "owoÅĽÄĩ": 2779,
      "Co": 2780,
      "menty": 2781,
      "Ġpracowni": 2782,
      "ĠjesteÅĽ": 2783,
      "Ġswego": 2784,
      "miar": 2785,
      "Ġskar": 2786,
      "Ġdobre": 2787,
      "ĠmÄĻÅ¼": 2788,
      "Ġwas": 2789,
      "jazd": 2790,
      "ĠNe": 2791,
      "Ġnowych": 2792,
      "Ġzapro": 2793,
      "ĠÅģo": 2794,
      "Ġrodzaju": 2795,
      "ĠwzglÄĻdu": 2796,
      "Ġinwestycji": 2797,
      "Ġwspom": 2798,
      "ĠwÃ³wczas": 2799,
      "roz": 2800,
      "ĠwczeÅĽniej": 2801,
      "Ġsmu": 2802,
      "Ġzau": 2803,
      "ĠOpis": 2804,
      "Ġzmienia": 2805,
      "liÅĤ": 2806,
      "ari": 2807,
      "Ġdokona": 2808,
      "alne": 2809,
      "(\"": 2810,
      "dio": 2811,
      "ft": 2812,
      "ret": 2813,
      "ĠMy": 2814,
      "Ġpowierz": 2815,
      "AN": 2816,
      "bor": 2817,
      "Ġpowa": 2818,
      "czek": 2819,
      "ĠKu": 2820,
      "ĠzostaÅĤo": 2821,
      "Pa": 2822,
      "ÃŃ": 2823,
      "Ġpodmio": 2824,
      "Ġoba": 2825,
      "Ġdrugiej": 2826,
      "ux": 2827,
      "wana": 2828,
      "Ġkoniec": 2829,
      "nuje": 2830,
      "Ġrynku": 2831,
      "feren": 2832,
      "ÅĤow": 2833,
      "kazy": 2834,
      "ÅĦca": 2835,
      "mawia": 2836,
      "Åºnie": 2837,
      "Ġszczeg": 2838,
      "nadto": 2839,
      "tÄħd": 2840,
      "Ġpopraw": 2841,
      "Ġpopular": 2842,
      "czym": 2843,
      "Ġtygo": 2844,
      "Ġregi": 2845,
      "rÄħz": 2846,
      "niÃ³sÅĤ": 2847,
      "Ġnadzie": 2848,
      "cent": 2849,
      "ĠWil": 2850,
      "015": 2851,
      "Ġskle": 2852,
      "ĠrÄĻce": 2853,
      "ĠukoÅĦ": 2854,
      "rzyÄĩ": 2855,
      "Ġwyzna": 2856,
      "asi": 2857,
      "mem": 2858,
      "cznoÅĽÄĩ": 2859,
      "Å¼d": 2860,
      "listy": 2861,
      "mite": 2862,
      "stawia": 2863,
      "wyczaj": 2864,
      "Âł(": 2865,
      "Ġterenie": 2866,
      "Te": 2867,
      "Ġile": 2868,
      "Ġnieu": 2869,
      "Ġkocha": 2870,
      "200": 2871,
      "dnych": 2872,
      "sti": 2873,
      "cieli": 2874,
      "ĠjednÄħ": 2875,
      "Ġnp": 2876,
      "Ġsamocho": 2877,
      "Sz": 2878,
      "Ġwcale": 2879,
      "Ġpobli": 2880,
      "ĠurzÄħ": 2881,
      "poÅĽ": 2882,
      "czeÅĦstwo": 2883,
      "ĠpaÅĦstw": 2884,
      "ĠmiesiÄħ": 2885,
      "Ġdziedzi": 2886,
      "Ġobecnie": 2887,
      "36": 2888,
      "jskich": 2889,
      "Ġzapa": 2890,
      "owaniem": 2891,
      "Ġlinii": 2892,
      "rzÄħdu": 2893,
      "ĠHe": 2894,
      "dzono": 2895,
      "Ġokresie": 2896,
      "WE": 2897,
      "kowo": 2898,
      "Äħc": 2899,
      "owanej": 2900,
      "Ġstrze": 2901,
      "Ġczeka": 2902,
      "Ġj": 2903,
      "Ġbro": 2904,
      "Ġrozwi": 2905,
      "va": 2906,
      "ĠksztaÅĤ": 2907,
      "Ġwyraz": 2908,
      "Ġtyle": 2909,
      "ĠobjÄĻ": 2910,
      "ĠFi": 2911,
      "Ġpis": 2912,
      "Ġogro": 2913,
      "Ġgroma": 2914,
      "otel": 2915,
      "Ġlud": 2916,
      "ĠmieÅĽcie": 2917,
      "ĠPla": 2918,
      "ĠÅ»y": 2919,
      "kÄħd": 2920,
      "chow": 2921,
      "Ġkwest": 2922,
      "Ġnap": 2923,
      "liÄĩ": 2924,
      "Ġinnymi": 2925,
      "ĠMinister": 2926,
      "Ġfrancu": 2927,
      "84": 2928,
      "dÅĤa": 2929,
      "Å¼aÅĤ": 2930,
      "ĠzaczÄĻ": 2931,
      "cen": 2932,
      "ĠDla": 2933,
      "ĠspÃ³ÅĤ": 2934,
      "Ġkonta": 2935,
      "Ġotrzyma": 2936,
      "ĠciÄħgu": 2937,
      "Ġprywat": 2938,
      "blem": 2939,
      "Ġuczy": 2940,
      "Ġau": 2941,
      "Ġtypu": 2942,
      "Ġczyn": 2943,
      "Ġnajmniej": 2944,
      "tkow": 2945,
      "ĠCa": 2946,
      "ĠkaÅ¼dego": 2947,
      "Ġpoch": 2948,
      "Ġpora": 2949,
      "ation": 2950,
      "Ġprzyczy": 2951,
      "Ġgot": 2952,
      "Ġzmiany": 2953,
      "ĠgÃ³r": 2954,
      "ĠwspÃ³ÅĤpra": 2955,
      "Ġmamy": 2956,
      "ĠdoÅĽÄĩ": 2957,
      "czyz": 2958,
      "ĠSzko": 2959,
      "Ġstrasz": 2960,
      "ĠzarzÄħdza": 2961,
      "Ġwil": 2962,
      "obie": 2963,
      "syÅĤ": 2964,
      "chodniej": 2965,
      "ON": 2966,
      "ln": 2967,
      "zer": 2968,
      "ĠwedÅĤug": 2969,
      "ĠzwiÄĻk": 2970,
      "owaÅĤo": 2971,
      "Ġnato": 2972,
      "ĠFa": 2973,
      "ĠHo": 2974,
      "ĠogÅĤo": 2975,
      "kowy": 2976,
      "Ġwra": 2977,
      "ÄħdÅº": 2978,
      "ĠDzi": 2979,
      "Ġrazie": 2980,
      "lia": 2981,
      "dali": 2982,
      "ĠczÅĤowieka": 2983,
      "75": 2984,
      "Le": 2985,
      "Re": 2986,
      "Ġder": 2987,
      "dale": 2988,
      "dyna": 2989,
      "ĠduÅ¼y": 2990,
      "ĠpieniÄħ": 2991,
      "Ġnatomiast": 2992,
      "70": 2993,
      "kÃ³ÅĤ": 2994,
      "Ġbowiem": 2995,
      "pom": 2996,
      "Ġkorzy": 2997,
      "Ġszer": 2998,
      "ĠkrÃ³t": 2999,
      "ĠInstytu": 3000,
      "AR": 3001,
      "Ġwyniku": 3002,
      "Ġprzekona": 3003,
      "Ġreje": 3004,
      "rozu": 3005,
      "Ġzaku": 3006,
      "rzym": 3007,
      "Ġana": 3008,
      "ang": 3009,
      "Ġhand": 3010,
      "ĠÅĽwiatowej": 3011,
      "Ġocze": 3012,
      "Ġtur": 3013,
      "szÅĤo": 3014,
      "ĠwysokoÅĽci": 3015,
      "ĠniektÃ³rych": 3016,
      "ĠznaleÅºÄĩ": 3017,
      "Ġobwodzie": 3018,
      "ĠÅĤo": 3019,
      "ls": 3020,
      "Ġwsi": 3021,
      "ĠmogÄĻ": 3022,
      "ĠcaÅĤÄħ": 3023,
      "Ġzostanie": 3024,
      "ĠBiaÅĤoru": 3025,
      "ĠtrochÄĻ": 3026,
      "Wi": 3027,
      "mar": 3028,
      "Ġdrew": 3029,
      "ĠposÅĤu": 3030,
      "aÅĤu": 3031,
      "noszÄħ": 3032,
      "wienia": 3033,
      "Ġuzyska": 3034,
      "ĠobsÅĤu": 3035,
      "ĠOn": 3036,
      "Ġtrady": 3037,
      "Ġgminie": 3038,
      "dniu": 3039,
      "Ġmas": 3040,
      "owanym": 3041,
      "Ġwynika": 3042,
      "ĠPary": 3043,
      "ĠCie": 3044,
      "006": 3045,
      "Å¼ona": 3046,
      "niony": 3047,
      "Ġpierwsze": 3048,
      "ĠkaÅ¼dym": 3049,
      "ĠumoÅ¼li": 3050,
      "ĠBer": 3051,
      "Ġmili": 3052,
      "ĠbÄĻdÄĻ": 3053,
      "ĠznajdujÄħ": 3054,
      "ĠroÅĽlin": 3055,
      "wnÄħ": 3056,
      "Ġspad": 3057,
      "miaÅĤ": 3058,
      "wans": 3059,
      "lami": 3060,
      "ĠOp": 3061,
      "ĠstaÅĤ": 3062,
      "Ġchodzi": 3063,
      "ĠXV": 3064,
      "ĠJednak": 3065,
      "ĠskÅĤada": 3066,
      "ĠÅĽmierci": 3067,
      "ĠDziÄĻki": 3068,
      "dro": 3069,
      "nicj": 3070,
      "Ġdniu": 3071,
      "Ġukrai": 3072,
      "ĠSu": 3073,
      "dziaÅĤem": 3074,
      "ĠPanie": 3075,
      "klu": 3076,
      "Ġpodzie": 3077,
      "Ġzastos": 3078,
      "ĠÅĽw": 3079,
      "Ġludz": 3080,
      "Ġjedna": 3081,
      "Ġdziew": 3082,
      "cyjnej": 3083,
      "stÄħpiÅĤ": 3084,
      "ĠÅģodzi": 3085,
      "gÃ³w": 3086,
      "nnie": 3087,
      "Ã³g": 3088,
      "Ġuz": 3089,
      "Ġang": 3090,
      "daje": 3091,
      "ĠprzykÅĤad": 3092,
      "Ġroze": 3093,
      "Ġstat": 3094,
      "ĠgÅĤÃ³wnie": 3095,
      "Ġzaba": 3096,
      "ces": 3097,
      "Ġindy": 3098,
      "unku": 3099,
      "dzone": 3100,
      "ĠrzÄħd": 3101,
      "Ġszuka": 3102,
      "Ġpisa": 3103,
      "Ġutwo": 3104,
      "ĠwÅĤÄħ": 3105,
      "Ġodwie": 3106,
      "mÄĻ": 3107,
      "Ġnaszych": 3108,
      "ĠurzÄĻ": 3109,
      "woÅĤa": 3110,
      "Ġodci": 3111,
      "ĠSpo": 3112,
      "dzeniu": 3113,
      "Ġczasem": 3114,
      "Ġmistrzostwach": 3115,
      "Ġszybko": 3116,
      "ĠosiÄħg": 3117,
      "niz": 3118,
      "cym": 3119,
      "ĠkrÃ³la": 3120,
      "Ġsuk": 3121,
      "Ġniewie": 3122,
      "Ġinstytu": 3123,
      "Ġrado": 3124,
      "ĠmiejscowoÅĽci": 3125,
      "ĠÅĽpie": 3126,
      "publi": 3127,
      "ĠpieniÄĻ": 3128,
      "Ġtermi": 3129,
      "dent": 3130,
      "Ġzim": 3131,
      "Ġzbyt": 3132,
      "Ġho": 3133,
      "ĠgdyÅ¼": 3134,
      "ÅĤeÅĽ": 3135,
      "siaj": 3136,
      "Ġmistrzostw": 3137,
      "500": 3138,
      "rak": 3139,
      "Ġkli": 3140,
      "Ġprzede": 3141,
      "ens": 3142,
      "ĠKi": 3143,
      "fik": 3144,
      "erysty": 3145,
      "Ġpokoju": 3146,
      "33": 3147,
      "400": 3148,
      "85": 3149,
      "Mi": 3150,
      "daÅĤa": 3151,
      "Ġzmian": 3152,
      "Ġwyja": 3153,
      "ĠKrzy": 3154,
      "niejszych": 3155,
      "Ġzrozu": 3156,
      "bur": 3157,
      "Å»": 3158,
      "nom": 3159,
      "cenie": 3160,
      "ĠBry": 3161,
      "onÃ³w": 3162,
      "Ġnimi": 3163,
      "Ġsport": 3164,
      "ĠbezpoÅĽ": 3165,
      "ĠmogÅĤa": 3166,
      "ĠdotyczÄħcych": 3167,
      "Ġsezonie": 3168,
      "44": 3169,
      "Ġtry": 3170,
      "Ġwymie": 3171,
      "wajÄħc": 3172,
      "ĠÅĽwiÄħ": 3173,
      "dzeÅĦ": 3174,
      "ĠwziÄħ": 3175,
      "\")": 3176,
      "row": 3177,
      "ĠSie": 3178,
      "ĠÅĽmie": 3179,
      "Ġstru": 3180,
      "pienia": 3181,
      "giem": 3182,
      "ĠsiÅĤy": 3183,
      "III": 3184,
      "Ġpomoc": 3185,
      "Ġspi": 3186,
      "Ġnasze": 3187,
      "tere": 3188,
      "ĠDob": 3189,
      "Ġnierucho": 3190,
      "Ġrok": 3191,
      "ĠNor": 3192,
      "nic": 3193,
      "Ġkan": 3194,
      "Ġminister": 3195,
      "Ġedy": 3196,
      "Ġstara": 3197,
      "ĠEuropejskiej": 3198,
      ".)": 3199,
      "Ġdia": 3200,
      "ÅĽciu": 3201,
      "dziale": 3202,
      "Ġprakty": 3203,
      "Ġwody": 3204,
      "edia": 3205,
      "Ġogrom": 3206,
      "RO": 3207,
      "Ġzni": 3208,
      "Ġth": 3209,
      "Ġnadz": 3210,
      "Ġnaszej": 3211,
      "ĠwyÅ¼": 3212,
      "Ġgier": 3213,
      "ĠSch": 3214,
      "ĠcÃ³r": 3215,
      "ĠÅĽwiet": 3216,
      "ĠPrzed": 3217,
      "Ġsystemu": 3218,
      "ster": 3219,
      "Ġnazy": 3220,
      "ĠGe": 3221,
      "Ġrazy": 3222,
      "Ġnum": 3223,
      "ĠnastÄĻpu": 3224,
      "Ġpoprzez": 3225,
      "Ġkolei": 3226,
      "wÅĤa": 3227,
      "zek": 3228,
      "Ġprzedmio": 3229,
      "Ġciem": 3230,
      "ĠmiÄĻdzynarod": 3231,
      "Ġdowie": 3232,
      "rocÅĤa": 3233,
      "Ġusu": 3234,
      "Ġnieco": 3235,
      "stÄĻpnie": 3236,
      "Ġdziw": 3237,
      "Ġstop": 3238,
      "niÄĻcia": 3239,
      "Ġcier": 3240,
      "thos": 3241,
      "Ġpodstaw": 3242,
      "Ġdecyz": 3243,
      "Ġartyku": 3244,
      "ĠgÅĤÄĻbo": 3245,
      "Ka": 3246,
      "dna": 3247,
      "Ġjakim": 3248,
      "ĠDy": 3249,
      "czasem": 3250,
      "zeum": 3251,
      "ĠwartoÅĽci": 3252,
      "Ġnauczy": 3253,
      "Li": 3254,
      "nica": 3255,
      "Ġosa": 3256,
      "Ġpoje": 3257,
      "ĠWÅĤa": 3258,
      "ÅĽciÅĤ": 3259,
      "Ġszan": 3260,
      "ĠChar": 3261,
      "Ġwobec": 3262,
      "moc": 3263,
      "Ġcel": 3264,
      "Ġpierwszym": 3265,
      "ĠchwilÄĻ": 3266,
      "Ġchcesz": 3267,
      "kla": 3268,
      "ĠpÅĤat": 3269,
      "Ġsur": 3270,
      "Ġnaszego": 3271,
      "Ġhistory": 3272,
      "Ġlepiej": 3273,
      "Ġnor": 3274,
      "ĠXI": 3275,
      "Arta": 3276,
      "Ġdra": 3277,
      "tel": 3278,
      "gach": 3279,
      "tny": 3280,
      "lek": 3281,
      "widu": 3282,
      "Ġdobry": 3283,
      "ĠrÄĻkÄĻ": 3284,
      "tion": 3285,
      "Ġautobu": 3286,
      "nal": 3287,
      "czem": 3288,
      "liza": 3289,
      "jach": 3290,
      "lonym": 3291,
      "ĠwieÅĽ": 3292,
      "spoli": 3293,
      "ĠmoÅ¼li": 3294,
      "ĠdowÃ³d": 3295,
      "nkÃ³w": 3296,
      "ÅĦczy": 3297,
      "wienie": 3298,
      "Polska": 3299,
      "Ġzdecy": 3300,
      "PS": 3301,
      "Ġzja": 3302,
      "ĠdÅĤo": 3303,
      "Ġudzie": 3304,
      "mienie": 3305,
      "ĠpodrÃ³Å¼": 3306,
      "biega": 3307,
      "sach": 3308,
      "ganiz": 3309,
      "ĠpiÄĻÄĩ": 3310,
      "iszpa": 3311,
      "Ġbry": 3312,
      "tur": 3313,
      "Ġcztery": 3314,
      "stoÅĽci": 3315,
      "ĠmoÅ¼liwoÅĽci": 3316,
      "ĠcaÅĤym": 3317,
      "kwi": 3318,
      "ator": 3319,
      "ciec": 3320,
      "ĠSp": 3321,
      "Ġspokoj": 3322,
      "ĠgÅĤowÄĻ": 3323,
      "Ġturysty": 3324,
      "Ġare": 3325,
      "Artagna": 3326,
      "bÃ³w": 3327,
      "ou": 3328,
      "niaÅĤ": 3329,
      "Ġoni": 3330,
      "owanego": 3331,
      "staw": 3332,
      "Ġszczy": 3333,
      "dziaÅĤu": 3334,
      "ĠchociaÅ¼": 3335,
      "Ġplan": 3336,
      "ĠspeÅĤ": 3337,
      "Ġgodziny": 3338,
      "Ġzapewnia": 3339,
      "ĠÅĤatwo": 3340,
      "Ġdoskona": 3341,
      "racji": 3342,
      "Ġkwo": 3343,
      "szem": 3344,
      "rzeÄĩ": 3345,
      "Ġzawar": 3346,
      "dziesz": 3347,
      "001": 3348,
      "Ġtakim": 3349,
      "ĠKomis": 3350,
      "Ġmeto": 3351,
      "sztÄħ": 3352,
      "dÅĤuÅ¼": 3353,
      "mowe": 3354,
      "Ġple": 3355,
      "Ã³dz": 3356,
      "ĠmÃ³w": 3357,
      "rÃ³cz": 3358,
      "Ġpodat": 3359,
      "Ġsama": 3360,
      "ĠzostaÄĩ": 3361,
      "Ġprzeciwko": 3362,
      "dwie": 3363,
      "zÃ³w": 3364,
      "Ġpomi": 3365,
      "Ġniedo": 3366,
      "skiem": 3367,
      "Ġwielko": 3368,
      "ĠdziaÅĤ": 3369,
      "Ġwykorzy": 3370,
      "Cz": 3371,
      "Ġtar": 3372,
      "ĠPow": 3373,
      "ĠGil": 3374,
      "Ale": 3375,
      "dko": 3376,
      "nawi": 3377,
      "niÅĤa": 3378,
      "kor": 3379,
      "jÄħÄĩ": 3380,
      "Ġprzezna": 3381,
      "Ġkonsu": 3382,
      "Ġpierwszej": 3383,
      "ĠstronÄĻ": 3384,
      "bert": 3385,
      "rÃ³ciÄĩ": 3386,
      "Ġniezwy": 3387,
      "Ġzwykle": 3388,
      "Kon": 3389,
      "gryw": 3390,
      "Ġbrze": 3391,
      "kazu": 3392,
      "ĠWan": 3393,
      "ÅĽciÄĩ": 3394,
      "ĠZwiÄħ": 3395,
      "Naj": 3396,
      "Ġtrzech": 3397,
      "atunek": 3398,
      "Ġfirmy": 3399,
      "Ġgminy": 3400,
      "nnym": 3401,
      "trza": 3402,
      "Ġpole": 3403,
      "Ġzaczyna": 3404,
      "lub": 3405,
      "ĠchcÄħ": 3406,
      "Ġteat": 3407,
      "bieg": 3408,
      "Ġkonkuren": 3409,
      "ĠzobaczyÄĩ": 3410,
      "Ġzatru": 3411,
      "kaÅĤ": 3412,
      "ven": 3413,
      "Ġnagle": 3414,
      "Ġproblem": 3415,
      "016": 3416,
      "dzony": 3417,
      "Ġpanu": 3418,
      "Ġostate": 3419,
      "Ġtransp": 3420,
      "Ġbrzmieniu": 3421,
      "jskiej": 3422,
      "Â§": 3423,
      "Ġwers": 3424,
      "nikiem": 3425,
      "toux": 3426,
      "ĠGro": 3427,
      "tkowo": 3428,
      "ĠzwyciÄĻ": 3429,
      "Ġwniosku": 3430,
      "34": 3431,
      "caÅĤ": 3432,
      "grzy": 3433,
      "Ġnag": 3434,
      "Ġponow": 3435,
      "leniu": 3436,
      "Ġude": 3437,
      "Ġapli": 3438,
      "Ġaktyw": 3439,
      "ĠAm": 3440,
      "wiajÄħ": 3441,
      "ĠcaÅĤej": 3442,
      "fy": 3443,
      "Ġzab": 3444,
      "ĠPie": 3445,
      "ama": 3446,
      "Ġobo": 3447,
      "Ġobok": 3448,
      "dzeniem": 3449,
      "Ġsym": 3450,
      "ĠzrobiÄĩ": 3451,
      "Ġuczestni": 3452,
      "Ġstrategi": 3453,
      "Ġzbli": 3454,
      "Ġzabra": 3455,
      "Ġnikt": 3456,
      "ĠwzglÄĻdem": 3457,
      "najmniej": 3458,
      "Mar": 3459,
      "Ġzabi": 3460,
      "ĠdÅĤugi": 3461,
      "ĠzawoÅĤaÅĤ": 3462,
      "Ġhistorii": 3463,
      "yba": 3464,
      "lis": 3465,
      "ĠPozna": 3466,
      "fina": 3467,
      "ĠmÃ³wiÄĩ": 3468,
      "ĠpieniÄħdze": 3469,
      "War": 3470,
      "Ġsre": 3471,
      "Ġobja": 3472,
      "ĠpracÄĻ": 3473,
      "Ġcodzie": 3474,
      "ĠpoÅĽwiÄĻ": 3475,
      "ĠktoÅĽ": 3476,
      "32": 3477,
      "ami": 3478,
      "kli": 3479,
      "rat": 3480,
      "Ġoprac": 3481,
      "iÄĻku": 3482,
      "torem": 3483,
      "anga": 3484,
      "onus": 3485,
      "kreÅĽ": 3486,
      "ĠmoÅ¼liwoÅĽÄĩ": 3487,
      "991": 3488,
      "ĠnaleÅ¼": 3489,
      "Ġdotych": 3490,
      "ĠpomocÄħ": 3491,
      "jona": 3492,
      "serw": 3493,
      "Ġpos": 3494,
      "Ġzagro": 3495,
      "Ġuczu": 3496,
      "ĠuwzglÄĻ": 3497,
      "tura": 3498,
      "ĠÅĽredni": 3499,
      "Ġswojego": 3500,
      "Ġorganiza": 3501,
      "Ġnazwi": 3502,
      "Ġdotychczas": 3503,
      "ĠmaÅĤo": 3504,
      "Ġporu": 3505,
      "wanych": 3506,
      "atyw": 3507,
      "nge": 3508,
      "ktury": 3509,
      "ĠciÄħg": 3510,
      "REF": 3511,
      "Ġtechno": 3512,
      "Ġdostar": 3513,
      "kon": 3514,
      "rÃ³j": 3515,
      "Ġrozwoju": 3516,
      "Ġarchi": 3517,
      "rÃ³wna": 3518,
      "IA": 3519,
      "St": 3520,
      "ĠpÅĤo": 3521,
      "Ġautor": 3522,
      "ĠEl": 3523,
      "ĠNiem": 3524,
      "szczenia": 3525,
      "ĠuwaÅ¼a": 3526,
      "ĠfunkcjÄĻ": 3527,
      "ĠÅºrÃ³d": 3528,
      "Ġem": 3529,
      "lity": 3530,
      "ĠbÅĤÄĻ": 3531,
      "dany": 3532,
      "unda": 3533,
      "skaÅĤ": 3534,
      "cyjnym": 3535,
      "Ġdrodze": 3536,
      "Ġprofes": 3537,
      "stw": 3538,
      "Å¼eby": 3539,
      "ĠBREF": 3540,
      "teres": 3541,
      "ĠsprzÄĻ": 3542,
      "Ġruchu": 3543,
      "88": 3544,
      "ciÃ³ÅĤ": 3545,
      "jaÅĽniej": 3546,
      "Ġwybo": 3547,
      "ĠBan": 3548,
      "ĠCe": 3549,
      "Ġstosuje": 3550,
      "Ġorgan": 3551,
      "Ġprawdopodob": 3552,
      "ĠcaÅĤkowi": 3553,
      "tychmiast": 3554,
      "Ġstylu": 3555,
      "ĠwojewÃ³dztwie": 3556,
      "Ob": 3557,
      "Sta": 3558,
      "Tak": 3559,
      "tna": 3560,
      "Ġup": 3561,
      "Ġumiesz": 3562,
      "ĠPor": 3563,
      "Ġmobi": 3564,
      "Ġpotra": 3565,
      "Ġtwoje": 3566,
      "Ġopie": 3567,
      "Ġmln": 3568,
      "rzej": 3569,
      "letni": 3570,
      "ĠzaczÄħÅĤ": 3571,
      "ĠWszyst": 3572,
      "Ġmocy": 3573,
      "Ġwice": 3574,
      "Ġdzien": 3575,
      "ĠbÄĻdziesz": 3576,
      "ciÄħÅ¼": 3577,
      "Ġsiost": 3578,
      "ĠgatunkÃ³w": 3579,
      "Ġochrony": 3580,
      "bry": 3581,
      "Ġdwo": 3582,
      "ĠprzecieÅ¼": 3583,
      "ÅĦcu": 3584,
      "Ġodkry": 3585,
      "ĠSamo": 3586,
      "toli": 3587,
      "ĠKar": 3588,
      "Ġfo": 3589,
      "Ġdzisie": 3590,
      "Ġgrup": 3591,
      "pisÃ³w": 3592,
      "Ġoferuje": 3593,
      "Ġtelewi": 3594,
      "ĠÅĤu": 3595,
      "dr": 3596,
      "ĠOto": 3597,
      "ĠPonadto": 3598,
      "Ġlitera": 3599,
      "Ġkonty": 3600,
      "ĠKoÅĽci": 3601,
      "ĠpobliÅ¼u": 3602,
      "tow": 3603,
      "nim": 3604,
      "Ġucz": 3605,
      "002": 3606,
      "moÅĽci": 3607,
      "ĠPolskiej": 3608,
      "Ġmojej": 3609,
      "Ġtwarz": 3610,
      "Ġkonkur": 3611,
      "ĠszczegÃ³ÅĤ": 3612,
      "ĠÅ¼Äħ": 3613,
      "Ġnapraw": 3614,
      "Ġniech": 3615,
      "wano": 3616,
      "ord": 3617,
      "ĠKiedy": 3618,
      "ĠAd": 3619,
      "ĠCze": 3620,
      "ĠKomite": 3621,
      "ĠzamkniÄĻ": 3622,
      "Ta": 3623,
      "id": 3624,
      "Ġzmia": 3625,
      "Ġnatychmiast": 3626,
      "Ġukry": 3627,
      "cjona": 3628,
      "lon": 3629,
      "Ġtys": 3630,
      "ĠPani": 3631,
      "ĠwpÅĤyw": 3632,
      "Ġoznacza": 3633,
      "Ġwyposa": 3634,
      "ĠÃ³w": 3635,
      "daÅĤo": 3636,
      "fra": 3637,
      "Ġnaszym": 3638,
      "Ġzatem": 3639,
      "Ġam": 3640,
      "ĠWÅĤo": 3641,
      "ciela": 3642,
      "staura": 3643,
      "ĠCom": 3644,
      "ĠmiaÅĤy": 3645,
      "ĠbudÅ¼e": 3646,
      "ĠzapytaÅĤ": 3647,
      "ww": 3648,
      "dam": 3649,
      "sÅĤawa": 3650,
      "Ġforma": 3651,
      "Ġproduk": 3652,
      "ĠzdjÄĻ": 3653,
      "ĠNajjaÅĽniej": 3654,
      "ĠĠĠĠĠĠĠĠ": 3655,
      "Ġrejonie": 3656,
      "45": 3657,
      "iera": 3658,
      "Ġwyj": 3659,
      "warza": 3660,
      "ĠSte": 3661,
      "mysÅĤu": 3662,
      "alnie": 3663,
      "ospo": 3664,
      "ĠnajwyÅ¼": 3665,
      "mencie": 3666,
      "ĠÅ¼ywo": 3667,
      "ĠuÅ¼ytkow": 3668,
      "Ġskute": 3669,
      "ĠszczegÃ³lnie": 3670,
      "Ġowo": 3671,
      "921": 3672,
      "mon": 3673,
      "tnych": 3674,
      "zdy": 3675,
      "ĠpoÅĤ": 3676,
      "ĠPio": 3677,
      "ĠÅĽwiad": 3678,
      "Ġniniej": 3679,
      "ĠjakoÅĽci": 3680,
      "ĠskÃ³": 3681,
      "nionych": 3682,
      "Ġcieka": 3683,
      "Ġpreze": 3684,
      "ciÄħga": 3685,
      "fr": 3686,
      "wskiego": 3687,
      "Å¼ne": 3688,
      "Ġnasz": 3689,
      "jekt": 3690,
      "ĠPart": 3691,
      "wio": 3692,
      "Ġrolni": 3693,
      "Ġczo": 3694,
      "Ġobsza": 3695,
      "ĠOst": 3696,
      "ĠOkrÄĻ": 3697,
      "Ġkana": 3698,
      "ĠMag": 3699,
      "ĠkrÃ³lew": 3700,
      "Art": 3701,
      "nnej": 3702,
      "usza": 3703,
      "ĠprzesyÅĤ": 3704,
      "tal": 3705,
      "szyÅĤ": 3706,
      "cjami": 3707,
      "Ġpowinie": 3708,
      "gt": 3709,
      "ld": 3710,
      "Å¼noÅĽci": 3711,
      "ĠnarzÄĻ": 3712,
      "jeÅ¼d": 3713,
      "Ġprzer": 3714,
      "pomina": 3715,
      "rÃ³b": 3716,
      "004": 3717,
      "ĠUE": 3718,
      "Ġleka": 3719,
      "aÅĤÄħcz": 3720,
      "Ġata": 3721,
      "krÃ³t": 3722,
      "nna": 3723,
      "ÅĤaty": 3724,
      "Ġwyna": 3725,
      "ĠWedÅĤug": 3726,
      "Ġinnego": 3727,
      "Ġprodukcji": 3728,
      "kazaÅĤ": 3729,
      "Ġprojektu": 3730,
      "Ġminut": 3731,
      "Jed": 3732,
      "kÅĤo": 3733,
      "ujÄħc": 3734,
      "Ġzbud": 3735,
      "Ġbio": 3736,
      "niami": 3737,
      "ĠwzdÅĤuÅ¼": 3738,
      "ĠzdobyÅĤ": 3739,
      "rowin": 3740,
      "Ġfunkcjon": 3741,
      "fry": 3742,
      "jski": 3743,
      "ÅĤÃ³": 3744,
      "Ġtek": 3745,
      "godnie": 3746,
      "ĠDlatego": 3747,
      "gram": 3748,
      "ĠmoÅ¼emy": 3749,
      "stety": 3750,
      "ĠkoÅĦca": 3751,
      "ĠkaÅ¼dej": 3752,
      "nci": 3753,
      "Ġosie": 3754,
      "ĠWiÄĻ": 3755,
      "ĠBez": 3756,
      "ĠstaÅĤo": 3757,
      "grafi": 3758,
      "ĠWarto": 3759,
      "ĠczÅĤonkiem": 3760,
      "ĠÅ»e": 3761,
      "Ġl": 3762,
      "sÅĤo": 3763,
      "tnoÅĽci": 3764,
      "Ġzy": 3765,
      "Ġwysp": 3766,
      "Ġprzeby": 3767,
      "Ġstwo": 3768,
      "ĠInter": 3769,
      "Ġlep": 3770,
      "atarzy": 3771,
      "Ġwspar": 3772,
      "kÃ³j": 3773,
      "Ãĵ": 3774,
      "niego": 3775,
      "dzki": 3776,
      "Ġpocho": 3777,
      "mit": 3778,
      "ĠPierw": 3779,
      "Ġodniesie": 3780,
      "pisu": 3781,
      "Ġdniach": 3782,
      "Ġpostaci": 3783,
      "ĠjÄĻzyk": 3784,
      "Ġzapom": 3785,
      "ĠAnto": 3786,
      "ĠksiÄħÅ¼ÄĻ": 3787,
      "Ġangiel": 3788,
      "lta": 3789,
      "ĠkÄħ": 3790,
      "ĠporzÄħd": 3791,
      "obowiÄħ": 3792,
      "ĠGÃ³": 3793,
      "aÅĤym": 3794,
      "Ġpotwier": 3795,
      "Ġserca": 3796,
      "Ġrzeczywi": 3797,
      "ĠjakiÅĽ": 3798,
      "ĠZjednoczonych": 3799,
      "IS": 3800,
      "Ġbran": 3801,
      "owaÅĦ": 3802,
      "ÅĦcy": 3803,
      "Ġmimo": 3804,
      "Ġwiecz": 3805,
      "Ġfizy": 3806,
      "ĠJeÅ¼eli": 3807,
      "945": 3808,
      "Ġorganizacji": 3809,
      "limpi": 3810,
      "56": 3811,
      "stka": 3812,
      "Ġpopra": 3813,
      "reta": 3814,
      "Ġproble": 3815,
      "ĠnaleÅ¼Äħ": 3816,
      "Ġumowy": 3817,
      "ght": 3818,
      "powie": 3819,
      "rad": 3820,
      "ÅĤaszcza": 3821,
      "Å¼em": 3822,
      "ĠchÄĻ": 3823,
      "ĠspÄĻ": 3824,
      "Ġnowego": 3825,
      "ĠBiaÅĤorusi": 3826,
      "nicjaty": 3827,
      "Ġpowy": 3828,
      "ĠmnÄħ": 3829,
      "Ġpokry": 3830,
      "Ġudo": 3831,
      "ĠKat": 3832,
      "ĠzespÃ³ÅĤ": 3833,
      "cyjna": 3834,
      "ĠPolska": 3835,
      "Ġtrakcie": 3836,
      "ĠzwÅĤaszcza": 3837,
      "Ġdaleko": 3838,
      "Ġdyrekty": 3839,
      "szak": 3840,
      "ĠzastÄĻp": 3841,
      "Ġutrzyma": 3842,
      "ĠnieszczÄĻ": 3843,
      "ĠWrocÅĤa": 3844,
      "pieÅĦ": 3845,
      "osen": 3846,
      "Ġopar": 3847,
      "iÄĻkujÄĻ": 3848,
      "Ġrza": 3849,
      "dowych": 3850,
      "Ġposie": 3851,
      "rea": 3852,
      "lona": 3853,
      "Ġczerwo": 3854,
      "ĠnajwaÅ¼": 3855,
      "graÅĤ": 3856,
      "Å¼onych": 3857,
      "ĠduÅ¼o": 3858,
      "ĠcaÅĤe": 3859,
      "Ġponownie": 3860,
      "Ġrzym": 3861,
      "ff": 3862,
      "lin": 3863,
      "wiata": 3864,
      "ciele": 3865,
      "ĠtakÄħ": 3866,
      "kÅĤada": 3867,
      "Ġdzisiaj": 3868,
      "ĠtytuÅĤ": 3869,
      "nin": 3870,
      "Ġzatrzy": 3871,
      "ĠPowie": 3872,
      "ĠbezpoÅĽredni": 3873,
      "ĠÐ": 3874,
      "ger": 3875,
      "nice": 3876,
      "Ġwystar": 3877,
      "Ġmieli": 3878,
      "dniego": 3879,
      "Ġwykony": 3880,
      "szuki": 3881,
      "Artagnan": 3882,
      "mujÄħ": 3883,
      "Ġdrob": 3884,
      "Ġuwagi": 3885,
      "ĠKrakowie": 3886,
      "Ġstudia": 3887,
      "ĠpoÅĤudnie": 3888,
      "ĠmateriaÅĤ": 3889,
      "ĠjÃ©j": 3890,
      "Ġzdecyd": 3891,
      "ĠwciÄħÅ¼": 3892,
      "Ġoku": 3893,
      "dzna": 3894,
      "Ġniezna": 3895,
      "Ġwidzi": 3896,
      "Ġbog": 3897,
      "ĠczÅĤonkÃ³w": 3898,
      "ĠusÅĤug": 3899,
      "sh": 3900,
      "Ð°": 3901,
      "organiz": 3902,
      "Ġgwia": 3903,
      "tyczne": 3904,
      "ĠZost": 3905,
      "czoraj": 3906,
      "Ġdane": 3907,
      "ĠÅĽwiÄħty": 3908,
      "dek": 3909,
      "wki": 3910,
      "Ġaktu": 3911,
      "Ġprzewi": 3912,
      "Ġgrze": 3913,
      "ÅĤudni": 3914,
      "obra": 3915,
      "ĠPola": 3916,
      "alnych": 3917,
      "Ġstanu": 3918,
      "ĠBoÅ¼e": 3919,
      "Ġklucz": 3920,
      "Ġdokumentu": 3921,
      "broj": 3922,
      "Ġkierunku": 3923,
      "krÃ³tce": 3924,
      "LE": 3925,
      "Ni": 3926,
      "pÅĤat": 3927,
      "vo": 3928,
      "Ġzwo": 3929,
      "ning": 3930,
      "rzut": 3931,
      "Ġzao": 3932,
      "Ġniespo": 3933,
      "ĠSej": 3934,
      "ĠTen": 3935,
      "syw": 3936,
      "ĠgÅĤowy": 3937,
      "ĠPaÅĦstw": 3938,
      "Ġfilm": 3939,
      "Ġenergii": 3940,
      "Ġindywidu": 3941,
      "ĠQ": 3942,
      "AC": 3943,
      "owski": 3944,
      "staÅĤ": 3945,
      "strzy": 3946,
      "Ġnada": 3947,
      "nel": 3948,
      "lika": 3949,
      "ĠbrÄħz": 3950,
      "ĠSÅĤu": 3951,
      "ĠRob": 3952,
      "Ġpromo": 3953,
      "stych": 3954,
      "Ġprzedstawia": 3955,
      "denta": 3956,
      "Ġserce": 3957,
      "Ġbudynku": 3958,
      "gÃ³": 3959,
      "lno": 3960,
      "ĠSer": 3961,
      "lum": 3962,
      "Ġmoim": 3963,
      "Âł%": 3964,
      "005": 3965,
      "czÄħc": 3966,
      "Ġsamego": 3967,
      "nÄĻÅĤo": 3968,
      "Ġszere": 3969,
      "Ġzainteres": 3970,
      "Ġsymbo": 3971,
      "Gdy": 3972,
      "ĠsÅĤÃ³w": 3973,
      "rzeÅĦ": 3974,
      "ĠaÅ¼eby": 3975,
      "Ġgi": 3976,
      "pon": 3977,
      "Ġcu": 3978,
      "Ġrozgryw": 3979,
      "Ġstre": 3980,
      "gina": 3981,
      "alny": 3982,
      "int": 3983,
      "Ġwizy": 3984,
      "czach": 3985,
      "ĠdziesiÄĻ": 3986,
      "Ġotworzy": 3987,
      "ĠRosja": 3988,
      "Ġtwarzy": 3989,
      "Ġoczeki": 3990,
      "pt": 3991,
      "Ġmak": 3992,
      "ian": 3993,
      "Ġfundu": 3994,
      "ĠchcÄĻ": 3995,
      "Ġsamej": 3996,
      "erytor": 3997,
      "ĠMistrzost": 3998,
      "Ġarcy": 3999,
      "Ġbiegu": 4000,
      "09": 4001,
      "Ra": 4002,
      "czkÄĻ": 4003,
      "ĠtwÃ³r": 4004,
      "ĠpoÅ¼y": 4005,
      "ĠPÃ³ÅĤ": 4006,
      "czeniem": 4007,
      "ĠmojÄħ": 4008,
      "ĠKsiÄĻ": 4009,
      "ĠÅĽle": 4010,
      "Ġznacznie": 4011,
      "Ġkoncer": 4012,
      "ĠwziÄĻ": 4013,
      "ĠÅ¼yciu": 4014,
      "ĠpiÄħ": 4015,
      "Ġnocy": 4016,
      "Ġbram": 4017,
      "ĠzachÃ³d": 4018,
      "ĠmÅĤody": 4019,
      "wnÄħtrz": 4020,
      "Spo": 4021,
      "bat": 4022,
      "grze": 4023,
      "ĠwnÄĻ": 4024,
      "stry": 4025,
      "ĠbÄħdÅº": 4026,
      "Ġbonus": 4027,
      "pospoli": 4028,
      "Ġczasach": 4029,
      "Ġpowietrz": 4030,
      "Ġsub": 4031,
      "ĠdostÄĻpne": 4032,
      "ĠotrzymaÅĤ": 4033,
      "Ġkobiety": 4034,
      "Ġoficja": 4035,
      "Wie": 4036,
      "wski": 4037,
      "ĠgÅĤu": 4038,
      "staÄĩ": 4039,
      "Ġprzyro": 4040,
      "loty": 4041,
      "ĠtysiÄĻcy": 4042,
      "Ġtajem": 4043,
      "nÄĻÅĤy": 4044,
      "bliÅ¼": 4045,
      "ĠpoÅĽredni": 4046,
      "Ġwskaza": 4047,
      "Ġpartii": 4048,
      "Ġsytuacji": 4049,
      "ospodar": 4050,
      "37": 4051,
      "leÅĦ": 4052,
      "dyn": 4053,
      "ĠStu": 4054,
      "ĠMia": 4055,
      "Ġobli": 4056,
      "ĠGÅĤÃ³w": 4057,
      "ĠHer": 4058,
      "999": 4059,
      "ralnego": 4060,
      "szony": 4061,
      "Ġtrzeci": 4062,
      "ĠniezbÄĻ": 4063,
      "Da": 4064,
      "UR": 4065,
      "Ġkoch": 4066,
      "Ġjaka": 4067,
      "Ġrestaura": 4068,
      "niejsza": 4069,
      "Ġdziecko": 4070,
      "ÅĽciej": 4071,
      "ĠPolskiego": 4072,
      "ward": 4073,
      "ĠMaz": 4074,
      "Ġlekko": 4075,
      "ĠwyÅĤÄħcznie": 4076,
      "ĠnaprawdÄĻ": 4077,
      "De": 4078,
      "nnego": 4079,
      "Ġwych": 4080,
      "wale": 4081,
      "Å¼yÅĤa": 4082,
      "ĠcÃ³Å¼": 4083,
      "ĠNastÄĻpnie": 4084,
      "Ġmeczu": 4085,
      "998": 4086,
      "ĠdziaÅĤalnoÅĽÄĩ": 4087,
      "Ġbrak": 4088,
      "ĠkoÅĦcu": 4089,
      "Ġzauwa": 4090,
      "ph": 4091,
      "Ġwreszcie": 4092,
      "Ġobyw": 4093,
      "stym": 4094,
      "ĠKom": 4095,
      "Ġstron": 4096,
      "ĠFrancji": 4097,
      "ĠwaÅ¼ne": 4098,
      "Polscy": 4099,
      "Ġhandl": 4100,
      "Jest": 4101,
      "hu": 4102,
      "ĠPat": 4103,
      "wicz": 4104,
      "Ġchyba": 4105,
      "dencji": 4106,
      "Ġstanowisko": 4107,
      "Ġutra": 4108,
      "Ġautomaty": 4109,
      "ĠÅ¼Ã³ÅĤ": 4110,
      "ĠpochodzÄħ": 4111,
      "Ġszta": 4112,
      "Ġpapie": 4113,
      "ille": 4114,
      "ĠwewnÄĻtrz": 4115,
      "ĠodpowiedziaÅĤ": 4116,
      "car": 4117,
      "pÃ³w": 4118,
      "spa": 4119,
      "tkiem": 4120,
      "usta": 4121,
      "ĠpaÅĤa": 4122,
      "owcÃ³w": 4123,
      "ĠwyrÃ³Å¼": 4124,
      "czyÅĤo": 4125,
      "ĠSto": 4126,
      "Ġkolo": 4127,
      "Ġzebra": 4128,
      "Ġgodzin": 4129,
      "ĠkrÃ³lowa": 4130,
      "Ġojca": 4131,
      "300": 4132,
      "ktora": 4133,
      "yk": 4134,
      "ĠzobowiÄħ": 4135,
      "Ġdniem": 4136,
      "rzekÅĤ": 4137,
      "Ġuprze": 4138,
      "ĠWal": 4139,
      "ĠAkade": 4140,
      "sila": 4141,
      "Ġstart": 4142,
      "Ġeg": 4143,
      "Ġklub": 4144,
      "Ġojciec": 4145,
      "angaÅ¼": 4146,
      "ĠÅĽcia": 4147,
      "dra": 4148,
      "gas": 4149,
      "jskim": 4150,
      "ĠtÄħ": 4151,
      "Ġman": 4152,
      "ĠpomyÅĽ": 4153,
      "miona": 4154,
      "Ġnieprzy": 4155,
      "Ġwybu": 4156,
      "anta": 4157,
      "Ġnajp": 4158,
      "Ġdepozy": 4159,
      "que": 4160,
      "JeÅĽli": 4161,
      "Ġelektry": 4162,
      "gne": 4163,
      "maÅĤy": 4164,
      "à®": 4165,
      "Ġprowin": 4166,
      "tam": 4167,
      "ĠBru": 4168,
      "ĠTwoje": 4169,
      "gazy": 4170,
      "Ġtrafi": 4171,
      "ĠÅĽrodki": 4172,
      "ĠzwiÄħzanych": 4173,
      "ĠpÄĻ": 4174,
      "Ġswej": 4175,
      "chÃ³w": 4176,
      "Ġina": 4177,
      "waran": 4178,
      "Ġodleg": 4179,
      "ĠTra": 4180,
      "piÄĩ": 4181,
      "doby": 4182,
      "ĠgorÄħ": 4183,
      "guje": 4184,
      "chaj": 4185,
      "ctwem": 4186,
      "mission": 4187,
      "ĠÅļrod": 4188,
      "ĠjednoczeÅĽnie": 4189,
      "Ġprowadzi": 4190,
      "Ġparla": 4191,
      "Ġpozycji": 4192,
      "ĠUniwersytecie": 4193,
      "77": 4194,
      "jskie": 4195,
      "wiaÅĤ": 4196,
      "amie": 4197,
      "Ġmode": 4198,
      "lom": 4199,
      "Ġinstru": 4200,
      "Ġstary": 4201,
      "ĠIII": 4202,
      "Ġspostrze": 4203,
      "fikacji": 4204,
      "ĠciaÅĤa": 4205,
      "ĠproduktÃ³w": 4206,
      "ĠÅĽmierÄĩ": 4207,
      "Ġwarunki": 4208,
      "ĠniektÃ³re": 4209,
      "ĠRosji": 4210,
      "ĠbezpieczeÅĦstwa": 4211,
      "ĠgÃ³ry": 4212,
      "krzy": 4213,
      "zwo": 4214,
      "ĠKatarzy": 4215,
      "Ġwier": 4216,
      "Ġtakiego": 4217,
      "kÅĤadu": 4218,
      "szczegÃ³l": 4219,
      "Ġpowro": 4220,
      "ĠszkoÅĤy": 4221,
      "Ġkasyna": 4222,
      "ĠzwierzÄĻ": 4223,
      "ĠUniwersytetu": 4224,
      "Ġguber": 4225,
      "kowego": 4226,
      "laÅĤ": 4227,
      "mÃ³wi": 4228,
      "Ġterytor": 4229,
      "Ġponi": 4230,
      "ciÅĤa": 4231,
      "ĠBie": 4232,
      "ĠcaÅĤo": 4233,
      "ĠproszÄĻ": 4234,
      "sami": 4235,
      "ĠzewnÄĻtrz": 4236,
      "Ġokres": 4237,
      "ĠStani": 4238,
      "Ġtrzyma": 4239,
      "ĠwÅĤaÅĽciwy": 4240,
      "ĠPitoux": 4241,
      "Ġport": 4242,
      "Ġspecjali": 4243,
      "Ġrealizacji": 4244,
      "chen": 4245,
      "Ġprzyjem": 4246,
      "lonych": 4247,
      "ĠmiaÅĤo": 4248,
      "Åºni": 4249,
      "Ġmaszy": 4250,
      "Ġeta": 4251,
      "graf": 4252,
      "ĠdrogÄħ": 4253,
      "formacje": 4254,
      "ĠsÅĤuÅ¼Äħ": 4255,
      "ĠbÅĤy": 4256,
      "kaÄĩ": 4257,
      "Ġund": 4258,
      "ĠwidziaÅĤ": 4259,
      "ĠpowoÅĤa": 4260,
      "Ġbieg": 4261,
      "ĠprzyjaciÃ³ÅĤ": 4262,
      "ĠszczegÃ³lnoÅĽci": 4263,
      "Ġparafii": 4264,
      "ĠpracownikÃ³w": 4265,
      "miÄĻ": 4266,
      "ĠskoÅĦ": 4267,
      "ĠznÃ³w": 4268,
      "Ġtwier": 4269,
      "Ġdoj": 4270,
      "Ġubra": 4271,
      "waniu": 4272,
      "ĠSÄħd": 4273,
      "ĠKul": 4274,
      "ĠGru": 4275,
      "rzÄħc": 4276,
      "spra": 4277,
      "ĠczÅĤonkow": 4278,
      "ĠtÅĤuma": 4279,
      "ĠobowiÄħz": 4280,
      "ĠÅ¼oÅĤnierzy": 4281,
      "rie": 4282,
      "Ġdw": 4283,
      "ros": 4284,
      "rona": 4285,
      "jest": 4286,
      "ÅĤach": 4287,
      "Ġodw": 4288,
      "ĠMiÄĻdzy": 4289,
      "byÅĽ": 4290,
      "Ġcztere": 4291,
      "Ġmini": 4292,
      "ose": 4293,
      "szczenie": 4294,
      "Ġodpowiada": 4295,
      "ĠJana": 4296,
      "pisaÅĤ": 4297,
      "ĠÅļwiÄĻ": 4298,
      "ĠTeat": 4299,
      "Ġtrans": 4300,
      "szta": 4301,
      "lit": 4302,
      "Å¼eniu": 4303,
      "ĠprzeglÄħ": 4304,
      "Ġgnie": 4305,
      "anÄħ": 4306,
      "piÄħ": 4307,
      "Ġwieczo": 4308,
      "deÅĤ": 4309,
      "ĠwiÄĻzie": 4310,
      "ĠMinist": 4311,
      "ĠduÅ¼e": 4312,
      "Ġbadania": 4313,
      "ĠpewnoÅĽciÄħ": 4314,
      "Ġpotrzebu": 4315,
      "55": 4316,
      "Dzie": 4317,
      "gre": 4318,
      "rzÃ³d": 4319,
      "Ġnagro": 4320,
      "woz": 4321,
      "Ġkomunika": 4322,
      "lotÃ³w": 4323,
      "ĠAuto": 4324,
      "Ġszlach": 4325,
      "ung": 4326,
      "mos": 4327,
      "Ġspodzie": 4328,
      "ĠrzekÅĤa": 4329,
      "Ġpierwszego": 4330,
      "krotnie": 4331,
      "ĠwarunkÃ³w": 4332,
      "ĠszczÄĻÅĽli": 4333,
      "Ġefektyw": 4334,
      "Kar": 4335,
      "UE": 4336,
      "iÄĩ": 4337,
      "knÄħÅĤ": 4338,
      "zwyczaj": 4339,
      "Ġzb": 4340,
      "cznymi": 4341,
      "rol": 4342,
      "robi": 4343,
      "eru": 4344,
      "siÄĩ": 4345,
      "Ġkobiet": 4346,
      "Ġsztuki": 4347,
      "Ġintere": 4348,
      "EN": 4349,
      "cs": 4350,
      "Ġpomie": 4351,
      "Ġab": 4352,
      "Ġrozma": 4353,
      "Ġprostu": 4354,
      "Ġstoli": 4355,
      "dnienia": 4356,
      "Ġpolitycz": 4357,
      "Åļwiat": 4358,
      "ĠmÄĻÅ¼czyz": 4359,
      "nÃ©j": 4360,
      "nisty": 4361,
      "Å¼nej": 4362,
      "lina": 4363,
      "lety": 4364,
      "lekt": 4365,
      "kan": 4366,
      "Ġdobra": 4367,
      "Ġuda": 4368,
      "Ġwycie": 4369,
      "ĠTym": 4370,
      "Ġnowy": 4371,
      "dzonych": 4372,
      "Ġmedali": 4373,
      "ĠdziaÅĤaÅĦ": 4374,
      "aliz": 4375,
      "ĠdÅĤugie": 4376,
      "Ġpotrzeby": 4377,
      "Ġwspa": 4378,
      "Ġrodzaj": 4379,
      "landii": 4380,
      "Ġrozumie": 4381,
      "Or": 4382,
      "gno": 4383,
      "gia": 4384,
      "wni": 4385,
      "Ġsen": 4386,
      "szty": 4387,
      "leÅ¼y": 4388,
      "Ġuch": 4389,
      "ÅĦskÄħ": 4390,
      "Ġmoich": 4391,
      "Ġsprawy": 4392,
      "Ġprawda": 4393,
      "Ġcywi": 4394,
      "Ġpojawi": 4395,
      "Ġgeo": 4396,
      "Ġzamieszki": 4397,
      "ĠWiÄĻc": 4398,
      "ĠÄĩ": 4399,
      "spi": 4400,
      "Ġpsy": 4401,
      "Ġzasila": 4402,
      "ĠBAT": 4403,
      "Ġspowo": 4404,
      "deo": 4405,
      "Ġpolskich": 4406,
      "Ġostro": 4407,
      "Ġformie": 4408,
      "ĠcaÅĤego": 4409,
      "ĠMuzeum": 4410,
      "ksand": 4411,
      "ĠpieniÄĻdzy": 4412,
      "Ġdzisiej": 4413,
      "Ġkontynu": 4414,
      "zard": 4415,
      "Ġwin": 4416,
      "ÅĽwiet": 4417,
      "ĠgÄĻ": 4418,
      "ÅĤos": 4419,
      "ĠBel": 4420,
      "ĠmiÅĤoÅĽÄĩ": 4421,
      "ĠÅļwiata": 4422,
      "Ġwybrze": 4423,
      "ĠzespoÅĤu": 4424,
      "emokra": 4425,
      "Ġanty": 4426,
      "ĠRzeczy": 4427,
      "Ġy": 4428,
      "dle": 4429,
      "arÄĻ": 4430,
      "miÄħ": 4431,
      "owanÄħ": 4432,
      "ĠLon": 4433,
      "niejszy": 4434,
      "Ġdes": 4435,
      "cone": 4436,
      "Ġalbu": 4437,
      "ĠstanowiÄħ": 4438,
      "Ġregular": 4439,
      "metrÃ³w": 4440,
      "ĠnieruchomoÅĽci": 4441,
      "46": 4442,
      "uf": 4443,
      "Ġscho": 4444,
      "Ġkor": 4445,
      "Ġis": 4446,
      "Ġdostos": 4447,
      "Ġprzynajmniej": 4448,
      "biut": 4449,
      "Ġstand": 4450,
      "padÅĤ": 4451,
      "Ġprogramu": 4452,
      "ĠzwiÄħzane": 4453,
      "logia": 4454,
      "Ġeuropej": 4455,
      "ĠXIX": 4456,
      "Ġsrebr": 4457,
      "Pra": 4458,
      "chaÅĤa": 4459,
      "Ġnapisa": 4460,
      "Ġnadal": 4461,
      "Ġbur": 4462,
      "katoli": 4463,
      "Ġrozgry": 4464,
      "rzÄħdzenie": 4465,
      "skar": 4466,
      "Ġfinansowych": 4467,
      "Ġwniosek": 4468,
      "ĠSanta": 4469,
      "jskiego": 4470,
      "towy": 4471,
      "Ġwro": 4472,
      "Ġbroni": 4473,
      "cielem": 4474,
      "Ġprzypomina": 4475,
      "ĠTh": 4476,
      "ĠpodjÄĻ": 4477,
      "ĠGdaÅĦ": 4478,
      "003": 4479,
      "Ġdziecka": 4480,
      "zupeÅĤ": 4481,
      "ĠSzcze": 4482,
      "Ġwielkie": 4483,
      "ĠZwiÄħzku": 4484,
      "zw": 4485,
      "ĠzgÅĤo": 4486,
      "ĠdÅº": 4487,
      "Ġkrze": 4488,
      "Ġnieo": 4489,
      "Ġaktor": 4490,
      "terze": 4491,
      "Ġinny": 4492,
      "Ġmagazy": 4493,
      "ĠgÅĤowÄħ": 4494,
      "Ġmecha": 4495,
      "Ġmedal": 4496,
      "Ġobrony": 4497,
      "Ġopubli": 4498,
      "ĠkoÅĽcioÅĤa": 4499,
      "Ġostatnich": 4500,
      "ĠchÅĤop": 4501,
      "frastru": 4502,
      "Ġpowinien": 4503,
      "42": 4504,
      "RA": 4505,
      "zaÅĤ": 4506,
      "Ġswych": 4507,
      "Å¼ÄĻ": 4508,
      "ciej": 4509,
      "dzieli": 4510,
      "ĠMor": 4511,
      "ĠBro": 4512,
      "ĠCar": 4513,
      "owiec": 4514,
      "inform": 4515,
      "Ġrat": 4516,
      "Ġbiz": 4517,
      "Ġprogram": 4518,
      "Ġzdrowia": 4519,
      "bel": 4520,
      "dla": 4521,
      "gru": 4522,
      "wskim": 4523,
      "Ġzorganiz": 4524,
      "szli": 4525,
      "kazuje": 4526,
      "ĠurzÄħdzenia": 4527,
      "ĠwyÅĽci": 4528,
      "wacji": 4529,
      "Ġkogo": 4530,
      "Ġkoszt": 4531,
      "ĠBil": 4532,
      "obraz": 4533,
      "Ġinnym": 4534,
      "skach": 4535,
      "Ġhi": 4536,
      "Ġstaro": 4537,
      "prawy": 4538,
      "Ġmedy": 4539,
      "Ġrun": 4540,
      "989": 4541,
      "dium": 4542,
      "Ġskoro": 4543,
      "Ġutw": 4544,
      "Ġprzestrzeni": 4545,
      "ykja": 4546,
      "Ġen": 4547,
      "Pi": 4548,
      "Ġzmu": 4549,
      "Å¼er": 4550,
      "dziÄĻ": 4551,
      "nen": 4552,
      "Ġdocho": 4553,
      "Ã³wie": 4554,
      "Ġniewy": 4555,
      "gami": 4556,
      "Ġhote": 4557,
      "Ġdlaczego": 4558,
      "Ġkonstru": 4559,
      "cony": 4560,
      "ĠVi": 4561,
      "Ġdotyczy": 4562,
      "ĠPrzez": 4563,
      "Ġproces": 4564,
      "ĠwyjÄħtk": 4565,
      "Ġzgi": 4566,
      "Ġmego": 4567,
      "ĠporÃ³wna": 4568,
      "Ġupraw": 4569,
      "ĠprzepisÃ³w": 4570,
      "ÅĦce": 4571,
      "Ġprzypu": 4572,
      "Ġszpita": 4573,
      "ĠmiÅĤoÅĽci": 4574,
      "Ġedu": 4575,
      "Ġgrupa": 4576,
      "Ġznajo": 4577,
      "Ġryzy": 4578,
      "ĠpracowaÅĤ": 4579,
      "ĠciÄħgle": 4580,
      "Ġzdaje": 4581,
      "Ġatak": 4582,
      "ĠpostÄĻpowania": 4583,
      "nÃ³": 4584,
      "try": 4585,
      "Ġwez": 4586,
      "karz": 4587,
      "atem": 4588,
      "Ġuj": 4589,
      "ĠusÅĤy": 4590,
      "Ġjakiego": 4591,
      "des": 4592,
      "ĠMarek": 4593,
      "ĠokreÅĽla": 4594,
      "Ġsami": 4595,
      "Ġuroczy": 4596,
      "ĠprÃ³b": 4597,
      "ĠCentrum": 4598,
      "ĠwiÄĻkszoÅĽÄĩ": 4599,
      "ĠPÃ³ÅĤnoc": 4600,
      "WedÅĤug": 4601,
      "ham": 4602,
      "pen": 4603,
      "Ġzamiast": 4604,
      "Ġzabezpie": 4605,
      "Ġutrzy": 4606,
      "tyku": 4607,
      "Ġkola": 4608,
      "ĠstaÅĤa": 4609,
      "dom": 4610,
      "Ġtakiej": 4611,
      "ÅĽciem": 4612,
      "kowski": 4613,
      "ĠrozpoczÄħÅĤ": 4614,
      "ĠRepubli": 4615,
      "Ġskorzysta": 4616,
      "Ġpytanie": 4617,
      "Ġdrugim": 4618,
      "dowego": 4619,
      "stego": 4620,
      "Ã³z": 4621,
      "Ġkwa": 4622,
      "Ġwybiera": 4623,
      "lono": 4624,
      "Ġkara": 4625,
      "Ġsyn": 4626,
      "ĠpuÅĤ": 4627,
      "ĠdÅĤuÅ¼": 4628,
      "Ġimpre": 4629,
      "szone": 4630,
      "Ġinternetowej": 4631,
      "ĠkoÅĽciÃ³ÅĤ": 4632,
      "ĠKomitetu": 4633,
      "zm": 4634,
      "nat": 4635,
      "jesz": 4636,
      "rzec": 4637,
      "tuÅĤ": 4638,
      "ĠTrze": 4639,
      "Ġlisty": 4640,
      "rzÄħt": 4641,
      "kÅĤadnie": 4642,
      "992": 4643,
      "Ġgraczy": 4644,
      "Ġartysty": 4645,
      "ĠdÅĤugoÅĽci": 4646,
      "Ġniewiel": 4647,
      "Ġprawdopodobnie": 4648,
      "Ġzi": 4649,
      "Å¼dy": 4650,
      "Ġiz": 4651,
      "szek": 4652,
      "Ġwygo": 4653,
      "wan": 4654,
      "erso": 4655,
      "rÃ³Å¼y": 4656,
      "Ġobra": 4657,
      "ĠÅĽre": 4658,
      "Ġwiesz": 4659,
      "ĠGu": 4660,
      "Ġpal": 4661,
      "Ġher": 4662,
      "atych": 4663,
      "993": 4664,
      "997": 4665,
      "ĠbyÅĤoby": 4666,
      "niom": 4667,
      "Ġdyrek": 4668,
      "Ġpotrzeba": 4669,
      "ĠdokumentÃ³w": 4670,
      "ĠLudwi": 4671,
      "38": 4672,
      "Ze": 4673,
      "gn": 4674,
      "ot": 4675,
      "Ġpary": 4676,
      "nera": 4677,
      "Ġniemal": 4678,
      "ĠrolÄĻ": 4679,
      "ĠTowarzy": 4680,
      "Ġinten": 4681,
      "ĠmiesiÄĻcy": 4682,
      "Ġustalonym": 4683,
      "ĠwschÃ³d": 4684,
      "Ġpostanowi": 4685,
      "Ġwybor": 4686,
      "ĠKraj": 4687,
      "Ġlotniska": 4688,
      "Ġistnieje": 4689,
      "ĠprzewodniczÄħcy": 4690,
      "ByÅĤ": 4691,
      "sji": 4692,
      "wart": 4693,
      "ligi": 4694,
      "cio": 4695,
      "Ġawans": 4696,
      "ĠSÅĤ": 4697,
      "Å¼yc": 4698,
      "Ġczemu": 4699,
      "Ġstworzy": 4700,
      "Ġjuni": 4701,
      "Ġfilo": 4702,
      "Ġpolskiego": 4703,
      "ĠStar": 4704,
      "ĠkiedyÅĽ": 4705,
      "ĠmÅĤod": 4706,
      "ĠPraw": 4707,
      "ĠÅĽrodowiska": 4708,
      "ĠsÅĤuÅ¼by": 4709,
      "Ġwykorzysty": 4710,
      "pospolitej": 4711,
      "sÄħ": 4712,
      "ws": 4713,
      "zel": 4714,
      "Ġzbi": 4715,
      "czaÅĤ": 4716,
      "Ġdop": 4717,
      "ĠdoÅĤÄħ": 4718,
      "Ġunika": 4719,
      "Ġprzepisy": 4720,
      "tania": 4721,
      "Ġbym": 4722,
      "Ġsame": 4723,
      "ĠTeraz": 4724,
      "Ġziemnia": 4725,
      "ĠumoÅ¼liwia": 4726,
      "ya": 4727,
      "ĠposzczegÃ³l": 4728,
      "ĠuwaÅ¼": 4729,
      "Å¼eÅĦ": 4730,
      "Ġgar": 4731,
      "daj": 4732,
      "ĠMan": 4733,
      "ĠPoÅĤudni": 4734,
      "jÄħcymi": 4735,
      "ĠNiech": 4736,
      "990": 4737,
      "Ġgodzinie": 4738,
      "Ġtelef": 4739,
      "ĠwystÄĻpu": 4740,
      "ĠsprzedaÅ¼y": 4741,
      "Ġrzymsko": 4742,
      "dnym": 4743,
      "fie": 4744,
      "mer": 4745,
      "Ð¾": 4746,
      "rabe": 4747,
      "kiet": 4748,
      "Ġodez": 4749,
      "dzili": 4750,
      "zajem": 4751,
      "Ġpacje": 4752,
      "ĠliÅĽcie": 4753,
      "ĠMaria": 4754,
      "ĠPodczas": 4755,
      "Ġatrak": 4756,
      "ĠJedno": 4757,
      "Ġliczba": 4758,
      "Dzi": 4759,
      "RR": 4760,
      "brzy": 4761,
      "kowym": 4762,
      "ĠzaÅĤÄħcz": 4763,
      "Ġpoinform": 4764,
      "Ġwywo": 4765,
      "daniem": 4766,
      "Ġkomu": 4767,
      "bina": 4768,
      "Ġraczej": 4769,
      "Ġstopnia": 4770,
      "Ġrozpozna": 4771,
      "Ġkompu": 4772,
      "ĠpeÅĤni": 4773,
      "Przed": 4774,
      "Ġgenera": 4775,
      "Ġrzymskokatoli": 4776,
      "(âĢ¦": 4777,
      "ket": 4778,
      "pla": 4779,
      "tnÄħ": 4780,
      "Ġwam": 4781,
      "ĠstÃ³": 4782,
      "Ġswe": 4783,
      "Ġdum": 4784,
      "Ġpogo": 4785,
      "czyn": 4786,
      "Ġhe": 4787,
      "Ġwile": 4788,
      "Ġwiru": 4789,
      "ÅĦstwie": 4790,
      "ĠbÄĻdziemy": 4791,
      "Ġsamodzie": 4792,
      "Ġform": 4793,
      "ĠCzÄĻ": 4794,
      "ĠoÅĽrod": 4795,
      "Ġpunkty": 4796,
      "ĠRozwoju": 4797,
      "Ġpowierzchni": 4798,
      "Ġaplikacji": 4799,
      "ĠprzesyÅĤowej": 4800,
      "Tu": 4801,
      "Å¹rÃ³d": 4802,
      "Ġwczoraj": 4803,
      "wam": 4804,
      "czyk": 4805,
      "Ġkos": 4806,
      "torze": 4807,
      "syÅĤa": 4808,
      "ĠHen": 4809,
      "prasz": 4810,
      "dzania": 4811,
      "Ġsyna": 4812,
      "Ġdrog": 4813,
      "ĠLecz": 4814,
      "ĠKomisja": 4815,
      "Bo": 4816,
      "Sy": 4817,
      "taÅĤa": 4818,
      "owla": 4819,
      "nieÅĽÄĩ": 4820,
      "Å¼eniem": 4821,
      "ĠWs": 4822,
      "wolu": 4823,
      "asu": 4824,
      "ĠTwo": 4825,
      "Ġfol": 4826,
      "Ġinsta": 4827,
      "ĠpotÄĻ": 4828,
      "ĠmogÅĤy": 4829,
      "Ġruch": 4830,
      "Ġkomple": 4831,
      "ĠzostanÄħ": 4832,
      "stÄħpiÄĩ": 4833,
      "aÅĤeÅĽ": 4834,
      "................": 4835,
      "Ġdrzew": 4836,
      "ĠlÄħ": 4837,
      "emi": 4838,
      "mowaÅĤ": 4839,
      "wÃ³w": 4840,
      "ĠposÅĤa": 4841,
      "Ġzagrani": 4842,
      "Ġwybi": 4843,
      "ĠwyciÄħg": 4844,
      "Å¼ek": 4845,
      "czyÅĤy": 4846,
      "ĠZgroma": 4847,
      "ĠPoli": 4848,
      "ĠgoÅĽci": 4849,
      "Ġhar": 4850,
      "Ġwiat": 4851,
      "Ġtaka": 4852,
      "ĠHu": 4853,
      "Ġprezen": 4854,
      "ĠzaleÅ¼noÅĽci": 4855,
      "ĠwspÃ³ÅĤpracy": 4856,
      "DZ": 4857,
      "maÅĤa": 4858,
      "son": 4859,
      "tnego": 4860,
      "ÄĻb": 4861,
      "szar": 4862,
      "Ġblo": 4863,
      "Ġniebezpie": 4864,
      "las": 4865,
      "miec": 4866,
      "ĠGÃ³r": 4867,
      "ĠpaÅĦstwo": 4868,
      "spÃ³l": 4869,
      "Ġkapita": 4870,
      "ĠVe": 4871,
      "ĠReykja": 4872,
      "Ġzapewne": 4873,
      "ĠwybÃ³r": 4874,
      "Ġpunkt": 4875,
      "Ġkultu": 4876,
      "Ġkredy": 4877,
      "Ġodniesieniu": 4878,
      "Ġprowincji": 4879,
      "zdu": 4880,
      "ownika": 4881,
      "ĠoszczÄĻ": 4882,
      "ĠbÅĤo": 4883,
      "Ġuwie": 4884,
      "ĠTam": 4885,
      "Ġchro": 4886,
      "ÂłÂłÂł": 4887,
      "Ġmogli": 4888,
      "ĠrÄĻkÄħ": 4889,
      "ĠsiÅĤ": 4890,
      "ĠgÅĤoÅĽ": 4891,
      "ĠgÅĤosem": 4892,
      "ĠMusi": 4893,
      "ĠpunktÃ³w": 4894,
      "Ġpowinna": 4895,
      "ĠUkrainy": 4896,
      "Ġzadowo": 4897,
      "Ġrozwija": 4898,
      "ĠzobowiÄħza": 4899,
      ".:": 4900,
      "250": 4901,
      "gier": 4902,
      "tnym": 4903,
      "Ġsma": 4904,
      "stej": 4905,
      "linie": 4906,
      "arkow": 4907,
      "ĠMam": 4908,
      "Ġchi": 4909,
      "und": 4910,
      "ĠFesti": 4911,
      "ĠpowtÃ³": 4912,
      "Ġpremie": 4913,
      "Ġproduce": 4914,
      "ĠzwiÄħz": 4915,
      "Ġwielki": 4916,
      "ĠjÄĻzyka": 4917,
      "Ġoperacji": 4918,
      "ĠParla": 4919,
      "Ġekonomi": 4920,
      "jeÅ¼dÅ¼a": 4921,
      "Ġow": 4922,
      "ÄĦ": 4923,
      "rost": 4924,
      "Ġzali": 4925,
      "ĠzaangaÅ¼": 4926,
      "atel": 4927,
      "Ġprzesz": 4928,
      "dziesiÄħ": 4929,
      "Ġmone": 4930,
      "ance": 4931,
      "szymi": 4932,
      "Å¼ynie": 4933,
      "pina": 4934,
      "Ġprote": 4935,
      "mujÄħc": 4936,
      "ĠdrogÄĻ": 4937,
      "ralnej": 4938,
      "seÅĤ": 4939,
      "Ġwspiera": 4940,
      "Ġwalki": 4941,
      "ĠjakieÅĽ": 4942,
      "Ġnajlepszych": 4943,
      "Ġnowoczes": 4944,
      "Ġturniej": 4945,
      "Ġrozegra": 4946,
      "Pierw": 4947,
      "dor": 4948,
      "gli": 4949,
      "ÃĹ": 4950,
      "ies": 4951,
      "Ġpia": 4952,
      "Ġplat": 4953,
      "ownik": 4954,
      "Ġmm": 4955,
      "ĠmÄħ": 4956,
      "czyli": 4957,
      "ĠSh": 4958,
      "ĠCy": 4959,
      "Ġministra": 4960,
      "Ġprosto": 4961,
      "wiaÄĩ": 4962,
      "ĠmuszÄħ": 4963,
      "Ġpierwszych": 4964,
      "Ġseria": 4965,
      "Ġpowinny": 4966,
      "ĠtreÅĽci": 4967,
      "Ġgatunki": 4968,
      "Ġpytania": 4969,
      "ĠklientÃ³w": 4970,
      "Ġstrategicznej": 4971,
      "ĠbezpoÅĽrednio": 4972,
      "tnej": 4973,
      "czÃ³w": 4974,
      "Ã³ze": 4975,
      "Ġpolega": 4976,
      "lip": 4977,
      "kapÅĤa": 4978,
      "Ġwyje": 4979,
      "Ġwysta": 4980,
      "wami": 4981,
      "Ġodbi": 4982,
      "tÃ³Å¼": 4983,
      "ĠMal": 4984,
      "Ġtobie": 4985,
      "dnikÃ³w": 4986,
      "ĠJako": 4987,
      "Ġserwi": 4988,
      "Ġbudowy": 4989,
      "Ġlokalizacji": 4990,
      "39": 4991,
      "zwa": 4992,
      "ĠwkrÃ³tce": 4993,
      "owskiego": 4994,
      "rzony": 4995,
      "Ġbru": 4996,
      "ĠzasÅĤu": 4997,
      "tacji": 4998,
      "ĠAng": 4999,
      "ĠtysiÄħ": 5000,
      "mieni": 5001,
      "ĠTar": 5002,
      "syma": 5003,
      "ĠEd": 5004,
      "jsc": 5005,
      "Poli": 5006,
      "fort": 5007,
      "niÄĻte": 5008,
      "996": 5009,
      "ĠPaÅĦstwa": 5010,
      "atoli": 5011,
      "Ġodpowiedzial": 5012,
      "ĠiloÅĽci": 5013,
      "Ġobszarze": 5014,
      "ĠMagdale": 5015,
      "dnego": 5016,
      "czer": 5017,
      "lepiej": 5018,
      "ĠdokÅĤadnie": 5019,
      "Ġzasta": 5020,
      "Ġzawie": 5021,
      "mil": 5022,
      "Ġagen": 5023,
      "tarz": 5024,
      "ĠBÃ³g": 5025,
      "ĠRi": 5026,
      "Ġinfor": 5027,
      "ĠGi": 5028,
      "ĠIz": 5029,
      "ĠHiszpa": 5030,
      "Ġkonkre": 5031,
      "ralny": 5032,
      "ĠMoÅ¼na": 5033,
      "Ã³dÅº": 5034,
      "ĠKazi": 5035,
      "Ġkompozy": 5036,
      "ĠAleksand": 5037,
      "ĠprowadzÄħ": 5038,
      "Ġfirm": 5039,
      "ĠkosztÃ³w": 5040,
      "Ġczterech": 5041,
      "48": 5042,
      "49": 5043,
      "dnÄħ": 5044,
      "ĠpÅĤ": 5045,
      "nina": 5046,
      "chowy": 5047,
      "kony": 5048,
      "komunika": 5049,
      "dziaÅĤy": 5050,
      "ĠKto": 5051,
      "ĠCÃ³Å¼": 5052,
      "ĠUrzÄĻ": 5053,
      "Ġcelem": 5054,
      "ĠChi": 5055,
      "Ġpolskiej": 5056,
      "Ġtempera": 5057,
      "Ġkontra": 5058,
      "Ġtrwa": 5059,
      "Ġnajlepsze": 5060,
      "Ġpiersi": 5061,
      "ĠrzÄħ": 5062,
      "SK": 5063,
      "giÄĻ": 5064,
      "Ġol": 5065,
      "cis": 5066,
      "tycznych": 5067,
      "ĠÅĽwia": 5068,
      "Ġceny": 5069,
      "codaw": 5070,
      "Ġciep": 5071,
      "ĠgraÄĩ": 5072,
      "Ġwydaje": 5073,
      "ĠRegi": 5074,
      "ĠByÅĤa": 5075,
      "Ġcyfr": 5076,
      "Ġstudi": 5077,
      "ĠoÅĽwiad": 5078,
      "ĠjesteÅĽmy": 5079,
      "ĠusÅĤugi": 5080,
      "Ġblisko": 5081,
      "ĠwyglÄħda": 5082,
      "ĠZiemi": 5083,
      "ĠniezaleÅ¼": 5084,
      "Ġrosyjskie": 5085,
      "dry": 5086,
      "tt": 5087,
      "zem": 5088,
      "nitor": 5089,
      "Ġds": 5090,
      "Ġzas": 5091,
      "Ġur": 5092,
      "rzyÅĤa": 5093,
      "ert": 5094,
      "ĠSpraw": 5095,
      "ĠÅĽmi": 5096,
      "Ġprag": 5097,
      "ĠIs": 5098,
      "Ġstacji": 5099,
      "Ġrady": 5100,
      "Ġcen": 5101,
      "ĠToma": 5102,
      "lnicy": 5103,
      "Ġzwraca": 5104,
      "Dodany": 5105,
      "Ġtechnicznej": 5106,
      "ĠuzyskaÅĤ": 5107,
      "ĠumiejÄĻ": 5108,
      "Ġrejestra": 5109,
      "Ty": 5110,
      "kowane": 5111,
      "rabia": 5112,
      "ĠmaÅĤe": 5113,
      "rop": 5114,
      "Ġkart": 5115,
      "ĠMary": 5116,
      "rÃ³l": 5117,
      "Ġfesti": 5118,
      "ĠDar": 5119,
      "mula": 5120,
      "ĠInd": 5121,
      "Ġstan": 5122,
      "niÄĻcie": 5123,
      "Ġosoba": 5124,
      "ĠimiÄĻ": 5125,
      "Ġpublicznych": 5126,
      "Ġkasynie": 5127,
      "ĠpowstaÅĤ": 5128,
      "ĠwÄħt": 5129,
      "wajcar": 5130,
      "ĠiloÅĽÄĩ": 5131,
      "ĠAkademii": 5132,
      "legÅĤ": 5133,
      "lak": 5134,
      "ĠgwaÅĤ": 5135,
      "ĠSzy": 5136,
      "Å¼yser": 5137,
      "ĠAmery": 5138,
      "ĠOl": 5139,
      "Ġrozpat": 5140,
      "ĠGene": 5141,
      "bin": 5142,
      "Ġreda": 5143,
      "Ġprace": 5144,
      "Ġpracu": 5145,
      "unki": 5146,
      "Ġboh": 5147,
      "995": 5148,
      "Ġorga": 5149,
      "939": 5150,
      "Ġatmos": 5151,
      "arakterysty": 5152,
      "Ġnumer": 5153,
      "Ġkonkurencji": 5154,
      "Ġpotrafi": 5155,
      "Ġdepozytu": 5156,
      "66": 5157,
      "Ġwchodzi": 5158,
      "char": 5159,
      "Ġdem": 5160,
      "jemy": 5161,
      "leni": 5162,
      "Ġwyro": 5163,
      "Ġgwaran": 5164,
      "rygina": 5165,
      "Ġjakiej": 5166,
      "obi": 5167,
      "ĠDi": 5168,
      "Ġinfrastru": 5169,
      "ĠwiedzieÄĩ": 5170,
      "Ġwoli": 5171,
      "ĠÅ¼yw": 5172,
      "994": 5173,
      "Ġmiast": 5174,
      "Ġpolska": 5175,
      "Ġszep": 5176,
      "ĠmusiaÅĤ": 5177,
      "Ġzakresu": 5178,
      "ĠWarszawa": 5179,
      "ĠchciaÅĤa": 5180,
      "ĠprawosÅĤaw": 5181,
      "ĠwybraÄĩ": 5182,
      "kazaÄĩ": 5183,
      "ĠwiÄĻkszoÅĽci": 5184,
      "ER": 5185,
      "Pre": 5186,
      "fen": 5187,
      "np": 5188,
      "onych": 5189,
      "twy": 5190,
      "ĠpÃ³j": 5191,
      "owca": 5192,
      "Ġwyco": 5193,
      "ĠPamiÄĻ": 5194,
      "kura": 5195,
      "toÅĽÄĩ": 5196,
      "ĠKasy": 5197,
      "ĠNar": 5198,
      "mami": 5199,
      "tes": 5200,
      "ĠpodrÃ³Å¼y": 5201,
      "ĠJej": 5202,
      "Ġmiesz": 5203,
      "ĠspoÅ¼y": 5204,
      "ional": 5205,
      "ĠStra": 5206,
      "Ġrywali": 5207,
      "Ġpowiatu": 5208,
      "ĠzwierzÄħt": 5209,
      "Ġbank": 5210,
      "ĠwiadomoÅĽci": 5211,
      "ĠKrÃ³lew": 5212,
      "ĠposÅĤ": 5213,
      "Ġgatunek": 5214,
      "ĠWol": 5215,
      "Ġodrzu": 5216,
      "ĠkoÅĤo": 5217,
      "dziemy": 5218,
      "ĠTi": 5219,
      "Ġpropozy": 5220,
      "ĠUPS": 5221,
      "ĠbezpÅĤat": 5222,
      "ĠbyÅĤem": 5223,
      "cyjnÄħ": 5224,
      "Ġpowia": 5225,
      "ĠJestem": 5226,
      "Ġznajd": 5227,
      "ĠzamÃ³wie": 5228,
      "Ġpozytyw": 5229,
      "Ġpierwo": 5230,
      "Ġpoziomie": 5231,
      "Ġjednostki": 5232,
      "Ġodpowiednio": 5233,
      "ĠkorzyÅĽci": 5234,
      "Ġdyrektywy": 5235,
      "47": 5236,
      "The": 5237,
      "kowaÅĤ": 5238,
      "zÄĻ": 5239,
      "Å¡": 5240,
      "Ðµ": 5241,
      "Ġskie": 5242,
      "chnÄħÅĤ": 5243,
      "Ã³c": 5244,
      "ÅĽle": 5245,
      "Ġkatego": 5246,
      "nemu": 5247,
      "Ġpochodzi": 5248,
      "aÅĤÄĻ": 5249,
      "ĠzakÅĤad": 5250,
      "wien": 5251,
      "ĠBÄĻ": 5252,
      "ĠCon": 5253,
      "ĠZna": 5254,
      "Ġlubi": 5255,
      "ĠwiÄħ": 5256,
      "Ġdobro": 5257,
      "ĠsÅĤusz": 5258,
      "ĠÅļlÄħ": 5259,
      "Ġwojnie": 5260,
      "Ġzaledwie": 5261,
      "ĠEuropejskiego": 5262,
      "Ġszac": 5263,
      "ĠWielkiej": 5264,
      "ĠUSA": 5265,
      "ĠnadziejÄĻ": 5266,
      "EL": 5267,
      "GON": 5268,
      "brze": 5269,
      "cle": 5270,
      "kowania": 5271,
      "sch": 5272,
      "ĠdaÅĤ": 5273,
      "Ġtzw": 5274,
      "Ġzako": 5275,
      "Ġzatrzyma": 5276,
      "Ġuni": 5277,
      "noty": 5278,
      "Ġakcji": 5279,
      "Ġwydat": 5280,
      "cyi": 5281,
      "tycznej": 5282,
      "dajÄħc": 5283,
      "woÅĽci": 5284,
      "czeni": 5285,
      "Ġrozpa": 5286,
      "ĠpaniÄħ": 5287,
      "czania": 5288,
      "stoÅĽÄĩ": 5289,
      "bliote": 5290,
      "Ġdysku": 5291,
      "988": 5292,
      "Ġmatki": 5293,
      "Ġzasady": 5294,
      "Ġsposobem": 5295,
      "ĠznalazÅĤ": 5296,
      "ĠpowaÅ¼": 5297,
      "ĠurzÄħdzeÅĦ": 5298,
      "ĠInstytutu": 5299,
      "ĠmoÅ¼liwe": 5300,
      "ĠmateriaÅĤÃ³w": 5301,
      "IP": 5302,
      "dnoÅĽÄĩ": 5303,
      "ll": 5304,
      "niewaÅ¼": 5305,
      "waÅ¼a": 5306,
      "ĠprzestÄĻp": 5307,
      "tan": 5308,
      "ĠBud": 5309,
      "Ġniko": 5310,
      "bine": 5311,
      "Ġswobo": 5312,
      "ĠMinistra": 5313,
      "ĠuÅ¼ywany": 5314,
      "Ġwscho": 5315,
      "ĠmyÅĽlÄħ": 5316,
      "RozdziaÅĤ": 5317,
      "ĠprÄĻd": 5318,
      "Ġpomimo": 5319,
      "Ġinaczej": 5320,
      "ĠMinistrÃ³w": 5321,
      "Å¹rÃ³dÅĤo": 5322,
      "Ga": 5323,
      "kowÄħ": 5324,
      "lli": 5325,
      "ÅĤaÅĤa": 5326,
      "Ġigrzy": 5327,
      "Ġpostawi": 5328,
      "Ġzagra": 5329,
      "rzyma": 5330,
      "Ġcm": 5331,
      "ĠRP": 5332,
      "ĠwoÅĤa": 5333,
      "dzona": 5334,
      "Ġpiosen": 5335,
      "Ġwarsza": 5336,
      "ĠSztu": 5337,
      "larÃ³w": 5338,
      "Ġzawod": 5339,
      "Ġzwro": 5340,
      "Ġtrudno": 5341,
      "Ġadres": 5342,
      "Przez": 5343,
      "ĠÅ¼adnego": 5344,
      "Ġkultury": 5345,
      "Ġkrwi": 5346,
      "ĠarcykapÅĤa": 5347,
      "ST": 5348,
      "kcja": 5349,
      "pet": 5350,
      "rzone": 5351,
      "Ġkata": 5352,
      "leÄĩ": 5353,
      "Ġzanie": 5354,
      "ath": 5355,
      "miu": 5356,
      "Ġnienawi": 5357,
      "ĠMon": 5358,
      "Ġznaczy": 5359,
      "prawi": 5360,
      "wÃ³d": 5361,
      "rÄĻb": 5362,
      "ĠZale": 5363,
      "imna": 5364,
      "ĠwystÄĻpuje": 5365,
      "ĠÅĤÃ³Å¼": 5366,
      "ĠÅĤÃ³dz": 5367,
      "Ġterminie": 5368,
      "Ġporozu": 5369,
      "Ġwyobra": 5370,
      "ĠSkar": 5371,
      "Ġspy": 5372,
      "czÄħÄĩ": 5373,
      "sum": 5374,
      "Ġdaje": 5375,
      "Ġpewno": 5376,
      "ĠpeÅĤniÅĤ": 5377,
      "Ġkontroli": 5378,
      "Ġkolor": 5379,
      "Ġbryty": 5380,
      "Ġfoto": 5381,
      "ĠNajjaÅĽniejszy": 5382,
      "gowy": 5383,
      "ine": 5384,
      "pier": 5385,
      "Ġzgroma": 5386,
      "rag": 5387,
      "Ġnar": 5388,
      "liw": 5389,
      "atÃ³w": 5390,
      "Ġunik": 5391,
      "lam": 5392,
      "cymi": 5393,
      "Ġjakich": 5394,
      "ase": 5395,
      "ĠGospodar": 5396,
      "Ġpowszech": 5397,
      "ĠplacÃ³w": 5398,
      "ĠparÄĻ": 5399,
      "ĠWoje": 5400,
      "Archi": 5401,
      "ĠmiejscowoÅĽÄĩ": 5402,
      "Ġmocno": 5403,
      "ĠpÅĤatnoÅĽci": 5404,
      "ĠudostÄĻp": 5405,
      "ĠÅĽwiÄħtyni": 5406,
      "ĠRzeczypospolitej": 5407,
      "!âĢ¦": 5408,
      "//": 5409,
      "PC": 5410,
      "Wo": 5411,
      "ĠswÄħ": 5412,
      "Ġdek": 5413,
      "Ġnaro": 5414,
      "rzeniem": 5415,
      "Ġdopu": 5416,
      "ĠurzÄħd": 5417,
      "norod": 5418,
      "enu": 5419,
      "stanie": 5420,
      "ĠcaÅĤa": 5421,
      "Ġcza": 5422,
      "ĠJÃ³ze": 5423,
      "ĠNauk": 5424,
      "ĠmuszÄĻ": 5425,
      "ĠdaÄĩ": 5426,
      "edi": 5427,
      "ĠmogÅĤo": 5428,
      "niosÅĤa": 5429,
      "ĠzaleÅ¼y": 5430,
      "Ġsalo": 5431,
      "Ġfunkcjona": 5432,
      "ÂłÂłÂłÂłÂłÂłÂłÂłÂłÂłÂłÂł": 5433,
      "ĠJoh": 5434,
      "ĠZostaÅĤ": 5435,
      "LI": 5436,
      "trzu": 5437,
      "ttp": 5438,
      "ĠwszedÅĤ": 5439,
      "Ġmedia": 5440,
      "ĠkrÄħ": 5441,
      "Ġnami": 5442,
      "nemi": 5443,
      "Ġpoe": 5444,
      "Ġzaga": 5445,
      "Ġzade": 5446,
      "Ġzazwyczaj": 5447,
      "ĠupÅĤy": 5448,
      "cier": 5449,
      "ĠOt": 5450,
      "ĠÅĽnie": 5451,
      "ĠliÅĽci": 5452,
      "czonego": 5453,
      "Ġdzieje": 5454,
      "944": 5455,
      "Ġwykonaw": 5456,
      "Ġhazard": 5457,
      "ĠJuÅ¼": 5458,
      "ĠÅ¼adnych": 5459,
      "Ġpoziom": 5460,
      "parta": 5461,
      "Ġdoskonale": 5462,
      "Ġwspani": 5463,
      "dÅĤo": 5464,
      "Ġono": 5465,
      "Ġuszko": 5466,
      "Ġniewi": 5467,
      "Ġprzet": 5468,
      "Ġrekla": 5469,
      "Ġpracodaw": 5470,
      "Ġhu": 5471,
      "Ġrano": 5472,
      "prawie": 5473,
      "ĠÅ¼ydow": 5474,
      "ĠrzeÅº": 5475,
      "Ġsiels": 5476,
      "czÄĻÅĽciej": 5477,
      "987": 5478,
      "ĠEuropie": 5479,
      "Ġproduktu": 5480,
      "ĠbudynkÃ³w": 5481,
      "ĠukoÅĦczyÅĤ": 5482,
      "Ġautobus": 5483,
      "ĠWando": 5484,
      "(âĢ¦)": 5485,
      "Ġsielsowie": 5486,
      "ĠrzÄħdu": 5487,
      "Ju": 5488,
      "OD": 5489,
      "gla": 5490,
      "wskiej": 5491,
      "ĠsÄĻ": 5492,
      "Ġdi": 5493,
      "Ġpoczu": 5494,
      "ĠpoÅĤowie": 5495,
      "godni": 5496,
      "Ġdoktora": 5497,
      "ĠBen": 5498,
      "Ġcmenta": 5499,
      "ĠpodwÃ³j": 5500,
      "ĠwidaÄĩ": 5501,
      "kÅĤady": 5502,
      "kÅĤadzie": 5503,
      "zujÄħ": 5504,
      "Ġpoten": 5505,
      "Ġduszy": 5506,
      "ĠpielÄĻ": 5507,
      "ĠTere": 5508,
      "ĠwielkÄħ": 5509,
      "Ġdrugiego": 5510,
      "Ġoficer": 5511,
      "Ġhrabia": 5512,
      "Ġadministracji": 5513,
      "Ġodebra": 5514,
      "ĠwziÄħÅĤ": 5515,
      "set": 5516,
      "ÅĤki": 5517,
      "rzch": 5518,
      "stwem": 5519,
      "Ã³ki": 5520,
      "cin": 5521,
      "eksy": 5522,
      "syÄĩ": 5523,
      "Ġwio": 5524,
      "Ġznak": 5525,
      "Ġnowej": 5526,
      "niÄĻty": 5527,
      "ĠStrze": 5528,
      "ĠTele": 5529,
      "ĠÅĽwiatÅĤa": 5530,
      "ĠsÅĤowo": 5531,
      "Ġkasyno": 5532,
      "Ġeksplo": 5533,
      "ĠwojewÃ³dztwa": 5534,
      "ĠnastÄĻpujÄħce": 5535,
      "ĠKazimie": 5536,
      "ĠlÄĻ": 5537,
      "AM": 5538,
      "eÅĽ": 5539,
      "mm": 5540,
      "zje": 5541,
      "nis": 5542,
      "Ġozd": 5543,
      "Ġtow": 5544,
      "Ġkwi": 5545,
      "king": 5546,
      "Ġniebie": 5547,
      "Ġprzewo": 5548,
      "ĠgÅĤa": 5549,
      "iad": 5550,
      "Ġteren": 5551,
      "all": 5552,
      "czoÅĽci": 5553,
      "ĠoglÄħ": 5554,
      "Ġdyspo": 5555,
      "ralnych": 5556,
      "ecnie": 5557,
      "983": 5558,
      "ĠuÅ¼ytk": 5559,
      "ĠnazwÄĻ": 5560,
      "Ġstosunku": 5561,
      "Ġokolicy": 5562,
      "ĠBardzo": 5563,
      "ĠmaÅĤÅ¼e": 5564,
      "ORGON": 5565,
      "Ġsukce": 5566,
      "Ġkonsulta": 5567,
      "Ġprofesjona": 5568,
      "53": 5569,
      "://": 5570,
      "SZ": 5571,
      "dnej": 5572,
      "dliwoÅĽci": 5573,
      "Ġpil": 5574,
      "Å¼aÅĤa": 5575,
      "Ġodzy": 5576,
      "Ġopisa": 5577,
      "szki": 5578,
      "rzeniu": 5579,
      "Ġunij": 5580,
      "koÅĤo": 5581,
      "Ġasy": 5582,
      "lacja": 5583,
      "mail": 5584,
      "ĠJez": 5585,
      "ĠwiedziaÅĤ": 5586,
      "choty": 5587,
      "Ġtymczasem": 5588,
      "ĠrÃ³wno": 5589,
      "ĠzÅĤotych": 5590,
      "Ġkasyn": 5591,
      "Ġkampa": 5592,
      "Ġobszar": 5593,
      "Ba": 5594,
      "Ce": 5595,
      "naÅĽcie": 5596,
      "rob": 5597,
      "Ġpory": 5598,
      "ĠTry": 5599,
      "ĠrozwÃ³j": 5600,
      "chodziÅĤ": 5601,
      "ĠFina": 5602,
      "Ġkapi": 5603,
      "Ġgranicy": 5604,
      "Ġdroga": 5605,
      "Ġformy": 5606,
      "975": 5607,
      "Ġpewne": 5608,
      "Ġwojska": 5609,
      "ÅĽciami": 5610,
      "Ġwarunkach": 5611,
      "Ġpowinno": 5612,
      "JeÅ¼eli": 5613,
      "Ġliczby": 5614,
      "ĠNew": 5615,
      "Ġniezwykle": 5616,
      "jmy": 5617,
      "ngu": 5618,
      "zÄħ": 5619,
      "Ġzba": 5620,
      "czno": 5621,
      "strza": 5622,
      "ley": 5623,
      "Ġuspo": 5624,
      "Ġaut": 5625,
      "ĠwypeÅĤ": 5626,
      "Ġodwa": 5627,
      "ĠkoÅĽcie": 5628,
      "Ġfe": 5629,
      "Ġliczne": 5630,
      "ĠgotÃ³w": 5631,
      "ĠwokÃ³ÅĤ": 5632,
      "Ġkape": 5633,
      "czonym": 5634,
      "ĠHi": 5635,
      "Ġpozba": 5636,
      "ĠKaczy": 5637,
      "Ġklubu": 5638,
      "Ġrealiz": 5639,
      "Ġkandy": 5640,
      "Fi": 5641,
      "hy": 5642,
      "Â»": 5643,
      "liny": 5644,
      "Ġzachodni": 5645,
      "Ġniep": 5646,
      "Ġakade": 5647,
      "tanie": 5648,
      "dziÅĤo": 5649,
      "dziem": 5650,
      "ĠKe": 5651,
      "ĠAfry": 5652,
      "Ġprofe": 5653,
      "Ġniby": 5654,
      "ĠrÄħ": 5655,
      "Ġramiona": 5656,
      "czonej": 5657,
      "skÄĻ": 5658,
      "ÅĽliÄĩ": 5659,
      "ĠNiemiec": 5660,
      "Ġustanowi": 5661,
      "985": 5662,
      "tyczny": 5663,
      "ĠwspÃ³ÅĤczes": 5664,
      "ĠspoÅĤecznoÅĽci": 5665,
      "Ġpozwoli": 5666,
      "ĠZwyciÄĻzca": 5667,
      "asino": 5668,
      "Ġdziewczy": 5669,
      "ĠmÄĻÅ¼czyzn": 5670,
      "89": 5671,
      "XX": 5672,
      "ĠskÄħd": 5673,
      "nezyj": 5674,
      "Ġdoprowa": 5675,
      "niane": 5676,
      "Ġprzera": 5677,
      "ĠSam": 5678,
      "ans": 5679,
      "ĠAra": 5680,
      "ĠZam": 5681,
      "ĠZnaj": 5682,
      "ĠPoz": 5683,
      "Ġmal": 5684,
      "ĠwÅĤadze": 5685,
      "ĠwÅĤadzy": 5686,
      "ĠogÃ³": 5687,
      "972": 5688,
      "973": 5689,
      "dit": 5690,
      "ĠgÅĤÃ³wnym": 5691,
      "Ġmusisz": 5692,
      "Ġoczyma": 5693,
      "Ġprocedu": 5694,
      "Ġprocesu": 5695,
      "Ġrozmowy": 5696,
      "Ġcharakterysty": 5697,
      "Ġchoroby": 5698,
      "Kariera": 5699,
      "Lo": 5700,
      "OW": 5701,
      "Sa": 5702,
      "ckÄħ": 5703,
      "jcie": 5704,
      "kaÅĤa": 5705,
      "spie": 5706,
      "ÄĻzy": 5707,
      "ĠzÅĤa": 5708,
      "ĠtwÃ³j": 5709,
      "Ġpomaga": 5710,
      "ĠuÅĽci": 5711,
      "Ġnieba": 5712,
      "ĠMÅĤo": 5713,
      "Ġmonitor": 5714,
      "cal": 5715,
      "unt": 5716,
      "Ġhono": 5717,
      "ĠPana": 5718,
      "Ġokna": 5719,
      "Ġwielkim": 5720,
      "Ġnazwa": 5721,
      "atomiast": 5722,
      "Ġnauki": 5723,
      "ĠÅ¼adnej": 5724,
      "ĠPiotr": 5725,
      "ĠzamieszkiwaÅĤo": 5726,
      "dowo": 5727,
      "Äį": 5728,
      "Ġpasa": 5729,
      "Å¼ar": 5730,
      "Ġoka": 5731,
      "Ġorygina": 5732,
      "Ġnacze": 5733,
      "ĠzajÄħÅĤ": 5734,
      "owani": 5735,
      "dzisz": 5736,
      "Ġca": 5737,
      "ĠTV": 5738,
      "zacjÄĻ": 5739,
      "ĠFundu": 5740,
      "ĠsÄħsie": 5741,
      "ĠbadaÅĦ": 5742,
      "Ġrazu": 5743,
      "strzem": 5744,
      "logiczne": 5745,
      "931": 5746,
      "ĠksiÄĻcia": 5747,
      "Ġmuzyki": 5748,
      "ĠwÄĻz": 5749,
      "Ġelektroni": 5750,
      "ĠuÅĽmiechem": 5751,
      "Ġprezydenta": 5752,
      "ĠUSD": 5753,
      "Polityka": 5754,
      "Ġprofeso": 5755,
      "Al": 5756,
      "plo": 5757,
      "rin": 5758,
      "Ġwraca": 5759,
      "Ġznik": 5760,
      "ĠdolarÃ³w": 5761,
      "orÄħ": 5762,
      "ĠWÄĻ": 5763,
      "toÅĽci": 5764,
      "los": 5765,
      "ĠOj": 5766,
      "Ġdzwo": 5767,
      "Ġewa": 5768,
      "Ġemisji": 5769,
      "styczne": 5770,
      "Ġnajlepiej": 5771,
      "czaÄĩ": 5772,
      "ĠstopieÅĦ": 5773,
      "Ġpowietrza": 5774,
      "ĠtuÅ¼": 5775,
      "waÅĤem": 5776,
      "Ġweso": 5777,
      "Ġprezent": 5778,
      "981": 5779,
      "ĠszeÅĽÄĩ": 5780,
      "ĠByÅĤo": 5781,
      "ĠgodzinÄĻ": 5782,
      "ĠkrÃ³lowej": 5783,
      "Ġkobieta": 5784,
      "Ġpoprzedni": 5785,
      "Ġofiar": 5786,
      "Ġroboczej": 5787,
      "Ġobejmuje": 5788,
      "seksu": 5789,
      "ĠzresztÄħ": 5790,
      "ĠnaprzÃ³d": 5791,
      "KrÃ³l": 5792,
      "ela": 5793,
      "stki": 5794,
      "ÅĽla": 5795,
      "ĠkÅĤa": 5796,
      "ĠpociÄħg": 5797,
      "cina": 5798,
      "wizji": 5799,
      "Ġgrzy": 5800,
      "ĠWspÃ³l": 5801,
      "ĠSza": 5802,
      "ĠKur": 5803,
      "ĠAthos": 5804,
      "mieniem": 5805,
      "Ġtera": 5806,
      "niejszym": 5807,
      "ĠFo": 5808,
      "Ġopowie": 5809,
      "szono": 5810,
      "Ġzdra": 5811,
      "torÃ³w": 5812,
      "ÅĤÄĻbo": 5813,
      "ĠPubli": 5814,
      "Ġwypowie": 5815,
      "Ġwidok": 5816,
      "ĠNarodowej": 5817,
      "ĠAust": 5818,
      "ĠduÅ¼ych": 5819,
      "Ġthat": 5820,
      "ĠwielkoÅĽci": 5821,
      "Ġwynagro": 5822,
      "ĠKultury": 5823,
      "ĠMiÄĻdzynarod": 5824,
      "Euro": 5825,
      "ae": 5826,
      "bet": 5827,
      "samo": 5828,
      "wska": 5829,
      "Ġzbior": 5830,
      "rzaÅĤa": 5831,
      "Ġdwor": 5832,
      "Ġkru": 5833,
      "Ġzawi": 5834,
      "Ġzacho": 5835,
      "dzieÅĦ": 5836,
      "pach": 5837,
      "Ġrekor": 5838,
      "Ġeli": 5839,
      "alnym": 5840,
      "czÄħcego": 5841,
      "rodÄĻ": 5842,
      "Ġszef": 5843,
      "Ġserde": 5844,
      "ĠsÅĤucha": 5845,
      "Ġzachwy": 5846,
      "954": 5847,
      "Ġosobi": 5848,
      "ĠtÅĤum": 5849,
      "wencji": 5850,
      "Ġdarm": 5851,
      "Ġcharakter": 5852,
      "Ġreprezentacji": 5853,
      "ĠPrezy": 5854,
      "Ġstruktu": 5855,
      "ĠBank": 5856,
      "Ġobywate": 5857,
      "Ġguberni": 5858,
      "ĠrzÄĻ": 5859,
      "64": 5860,
      "NI": 5861,
      "gaÅĤ": 5862,
      "hol": 5863,
      "Ð¸": 5864,
      "Ġzle": 5865,
      "wanego": 5866,
      "ĠprzeszedÅĤ": 5867,
      "ĠprzemysÅĤ": 5868,
      "org": 5869,
      "Ġczwar": 5870,
      "Ġinni": 5871,
      "Ġhotel": 5872,
      "osob": 5873,
      "use": 5874,
      "Ġotwiera": 5875,
      "Ġkolejne": 5876,
      "budowy": 5877,
      "ĠkrajÃ³w": 5878,
      "Ġuczest": 5879,
      "ĠokreÅĽlonych": 5880,
      "ĠÅºle": 5881,
      "Ġkoszty": 5882,
      "ĠZwyciÄĻzcy": 5883,
      "Ġstopniu": 5884,
      "Ġpojedyn": 5885,
      "ĠGilbert": 5886,
      "Ġwieczorem": 5887,
      "Ġowa": 5888,
      "lor": 5889,
      "Ġkat": 5890,
      "Ġkrew": 5891,
      "Ġpola": 5892,
      "Ġzaa": 5893,
      "Ġzak": 5894,
      "Ġnieprze": 5895,
      "ĠwyszedÅĤ": 5896,
      "ĠprzeksztaÅĤ": 5897,
      "ÅĤonek": 5898,
      "tyma": 5899,
      "Ġmodel": 5900,
      "Ġtyp": 5901,
      "Ġpodleg": 5902,
      "ping": 5903,
      "Ġrozkaz": 5904,
      "zaleÅ¼": 5905,
      "ĠwidzÄĻ": 5906,
      "Ġstaje": 5907,
      "ĠdzieciÄĻ": 5908,
      "mentem": 5909,
      "ĠWydziale": 5910,
      "982": 5911,
      "ĠpiÄĻciu": 5912,
      "970": 5913,
      "ĠzapÅĤa": 5914,
      "legan": 5915,
      "Ġstanowiska": 5916,
      "Ġkarie": 5917,
      "ktÃ³re": 5918,
      "Ġbudynek": 5919,
      "ĠksiÄħÅ¼ki": 5920,
      "Ġpowierzch": 5921,
      "Å»e": 5922,
      "ĠNorwe": 5923,
      "Ġnadzwyczaj": 5924,
      "Ġtransportu": 5925,
      "Ġdziennika": 5926,
      "ĠponiÅ¼ej": 5927,
      "dowi": 5928,
      "kowany": 5929,
      "mowaÄĩ": 5930,
      "sen": 5931,
      "up": 5932,
      "wnie": 5933,
      "lec": 5934,
      "ĠudaÅĤo": 5935,
      "ĠuzupeÅĤ": 5936,
      "dziÅĤy": 5937,
      "Ġrozryw": 5938,
      "Ġhas": 5939,
      "Ġwios": 5940,
      "ĠCha": 5941,
      "Ġkolejnych": 5942,
      "Ã³Åºniej": 5943,
      "ĠpomÃ³c": 5944,
      "Ġpostanowie": 5945,
      "ĠjÄĻzyku": 5946,
      "ĠrodzajÃ³w": 5947,
      "Ġsekreta": 5948,
      "ĠpamiÄĻtaÄĩ": 5949,
      "ĠBryta": 5950,
      "ĠodezwaÅĤ": 5951,
      "ĠHenry": 5952,
      "dziesiÄħt": 5953,
      "arakterystyka": 5954,
      "()": 5955,
      "mb": 5956,
      "Ġmary": 5957,
      "Ġit": 5958,
      "ciaÅĤ": 5959,
      "Ġniepod": 5960,
      "Ġprzepisa": 5961,
      "tymi": 5962,
      "wiej": 5963,
      "Ġmonet": 5964,
      "anna": 5965,
      "ĠGdzie": 5966,
      "pienie": 5967,
      "Ġznajdziesz": 5968,
      "Ġokresu": 5969,
      "Ġprodukty": 5970,
      "ĠwysokoÅĽÄĩ": 5971,
      "erium": 5972,
      "Ġzajmuje": 5973,
      "ĠpamiÄĻci": 5974,
      "ĠwÄħtp": 5975,
      "spekty": 5976,
      "Ġzarazem": 5977,
      "Ġprezydent": 5978,
      "Bi": 5979,
      "Ten": 5980,
      "gha": 5981,
      "mart": 5982,
      "towe": 5983,
      "Â«": 5984,
      "nawia": 5985,
      "ower": 5986,
      "Ġoczu": 5987,
      "Ġti": 5988,
      "Ġnawie": 5989,
      "iÄĻcia": 5990,
      "ĠdokÅĤad": 5991,
      "Ġniedzie": 5992,
      "Ġjesie": 5993,
      "ĠPal": 5994,
      "ĠobrÄĻ": 5995,
      "ĠDon": 5996,
      "ĠOs": 5997,
      "ingu": 5998,
      "Ġzech": 5999,
      "czoÅĽÄĩ": 6000,
      "dzaÄĩ": 6001,
      "siÄĻg": 6002,
      "niono": 6003,
      "ĠczÄĻÅĽciÄħ": 6004,
      "Ġbada": 6005,
      "Ġtrakt": 6006,
      "ĠSzwe": 6007,
      "984": 6008,
      "986": 6009,
      "979": 6010,
      "Ġzostali": 6011,
      "ĠszczÄĻÅĽcie": 6012,
      "ĠrozwiÄħzania": 6013,
      "ĠzaczÄĻÅĤa": 6014,
      "ĠobsÅĤugi": 6015,
      "ĠParyÅ¼a": 6016,
      "Ġhomo": 6017,
      "ĠdecyzjÄĻ": 6018,
      "ĠAmory": 6019,
      "ĠÄĩwi": 6020,
      "ĠHiszpanii": 6021,
      "Ġkategorii": 6022,
      "\"),": 6023,
      "*\"": 6024,
      "gni": 6025,
      "vÃŃ": 6026,
      "Ġzdzi": 6027,
      "Ġnapa": 6028,
      "ĠnaszÄħ": 6029,
      "ĠdoszÅĤo": 6030,
      "ĠPO": 6031,
      "tyki": 6032,
      "ĠSko": 6033,
      "ĠAby": 6034,
      "ĠRzy": 6035,
      "Ġsprowa": 6036,
      "Ġludu": 6037,
      "Ġznany": 6038,
      "ĠkawaÅĤ": 6039,
      "ĠsamÄħ": 6040,
      "nÄĻli": 6041,
      "weÅĤ": 6042,
      "rium": 6043,
      "ĠodparÅĤ": 6044,
      "Ġodpowiednie": 6045,
      "ĠrÃ³Å¼norod": 6046,
      "ĠBoga": 6047,
      "ĠrÄĻku": 6048,
      "ĠWarszawy": 6049,
      "ĠDobrze": 6050,
      "Ġnorma": 6051,
      "Ġwyspy": 6052,
      "ĠwnÄĻtrza": 6053,
      "ĠBillot": 6054,
      "Opis": 6055,
      "dowaÄĩ": 6056,
      "sor": 6057,
      "tno": 6058,
      "towych": 6059,
      "tnoÅĽÄĩ": 6060,
      "Ð½": 6061,
      "Ġznie": 6062,
      "ownie": 6063,
      "szto": 6064,
      "Ġnasi": 6065,
      "ĠpojÄĻ": 6066,
      "ĠposeÅĤ": 6067,
      "lik": 6068,
      "ĠuÅĤat": 6069,
      "walne": 6070,
      "ĠPy": 6071,
      "rus": 6072,
      "ĠtobÄħ": 6073,
      "ĠOczy": 6074,
      "ĠÅĽcie": 6075,
      "ntem": 6076,
      "czonÄħ": 6077,
      "grafia": 6078,
      "dzanie": 6079,
      "ĠStowarzy": 6080,
      "Ġokrzy": 6081,
      "ĠmÃ³wiÄħc": 6082,
      "Ġwydarzenia": 6083,
      "niosek": 6084,
      "arak": 6085,
      "ĠzapewniÄĩ": 6086,
      "Ġpodobnie": 6087,
      "Podczas": 6088,
      "ĠCiebie": 6089,
      "IAÅģ": 6090,
      "Ġproblemy": 6091,
      "\").": 6092,
      ".âĢĿ": 6093,
      "57": 6094,
      "wne": 6095,
      "ĠwstÄĻp": 6096,
      "Ġzare": 6097,
      "Å¼noÅĽÄĩ": 6098,
      "Ġorze": 6099,
      "Ġidzie": 6100,
      "Ġimieniu": 6101,
      "gorz": 6102,
      "ĠdodaÅĤ": 6103,
      "ĠdotÄħd": 6104,
      "walu": 6105,
      "ĠWent": 6106,
      "byÅĽmy": 6107,
      "Ġprzypom": 6108,
      "lotem": 6109,
      "ĠÅĽla": 6110,
      "ĠGÅĤÄĻbo": 6111,
      "Ġcom": 6112,
      "czÄħce": 6113,
      "Ġrach": 6114,
      "ĠnajbliÅ¼": 6115,
      "Ġstoi": 6116,
      "ĠgÅĤowie": 6117,
      "Ġplacu": 6118,
      "berta": 6119,
      "ĠPiS": 6120,
      "Ġfirma": 6121,
      "ĠudziaÅĤu": 6122,
      "ĠokolicznoÅĽci": 6123,
      "Ġvon": 6124,
      "ĠroÅĽliny": 6125,
      "Ġkwestii": 6126,
      "Ġzjawi": 6127,
      "finans": 6128,
      "ĠQu": 6129,
      "Ġmaksyma": 6130,
      "ĠumiejÄĻtnoÅĽci": 6131,
      "Ġakademi": 6132,
      "Ġemo": 6133,
      "43": 6134,
      "Dla": 6135,
      "jne": 6136,
      "ðŁ": 6137,
      "Ġpt": 6138,
      "ĠzÄĻ": 6139,
      "nocy": 6140,
      "ÅĤami": 6141,
      "Ġwyd": 6142,
      "ĠEUR": 6143,
      "ĠHotel": 6144,
      "ransp": 6145,
      "Ġmiejscach": 6146,
      "Ġsprawoz": 6147,
      "ĠWybor": 6148,
      "ĠdostÄĻpnych": 6149,
      "Ġdecyzja": 6150,
      "Ġkierowni": 6151,
      "Ġjednostek": 6152,
      "ĠÅĽrodowisk": 6153,
      "Ġtygodni": 6154,
      "Ġodcinek": 6155,
      "Kiedy": 6156,
      "dÅĤem": 6157,
      "gent": 6158,
      "iÅĤ": 6159,
      "kowaÄĩ": 6160,
      "nce": 6161,
      "val": 6162,
      "Ġzdaw": 6163,
      "rzono": 6164,
      "ras": 6165,
      "rotnie": 6166,
      "lich": 6167,
      "Ġzanim": 6168,
      "ĠukÅĤad": 6169,
      "niajÄħ": 6170,
      "ĠSA": 6171,
      "tero": 6172,
      "techni": 6173,
      "ĠDru": 6174,
      "Ġcharak": 6175,
      "ĠreÅ¼yser": 6176,
      "ĠIV": 6177,
      "Ġratu": 6178,
      "ĠÅ¼yje": 6179,
      "ĠpowrÃ³ciÅĤ": 6180,
      "Ġtury": 6181,
      "Ġbisku": 6182,
      "Ġduch": 6183,
      "Ġzwyczaj": 6184,
      "Ġtechniki": 6185,
      "Ġskan": 6186,
      "ĠDlaczego": 6187,
      "ĠstÃ³p": 6188,
      "arkowszczy": 6189,
      "Aby": 6190,
      "CZ": 6191,
      "ban": 6192,
      "dowanie": 6193,
      "gur": 6194,
      "zdÃ³w": 6195,
      "Ġnapo": 6196,
      "ĠposiÅĤ": 6197,
      "nomia": 6198,
      "Ġniem": 6199,
      "Ġjezio": 6200,
      "kiedy": 6201,
      "dziel": 6202,
      "Ġprzyw": 6203,
      "ĠKor": 6204,
      "szeÄĩ": 6205,
      "Ġmiesza": 6206,
      "Ġwolno": 6207,
      "gue": 6208,
      "Ġjutro": 6209,
      "ĠdrugÄħ": 6210,
      "ĠoprÃ³cz": 6211,
      "Ġmieszkania": 6212,
      "Ġotrzymuje": 6213,
      "produ": 6214,
      "ĠmÄĻÅ¼a": 6215,
      "Ġoceny": 6216,
      "Ġzobaczy": 6217,
      "Ġnauczyciel": 6218,
      "ĠCharny": 6219,
      "ĠcelÃ³w": 6220,
      "Ġrozmai": 6221,
      "So": 6222,
      "nkiem": 6223,
      "Ġwzajem": 6224,
      "stÄĻ": 6225,
      "Ġkwali": 6226,
      "szÅĤy": 6227,
      "poli": 6228,
      "ĠBla": 6229,
      "ĠAska": 6230,
      "mana": 6231,
      "Ġprawi": 6232,
      "unkÃ³w": 6233,
      "dera": 6234,
      "Ġrzeki": 6235,
      "Ġbile": 6236,
      "ĠodpowiedÅº": 6237,
      "ĠsamorzÄħd": 6238,
      "gÅĤÄĻ": 6239,
      "974": 6240,
      "Ġzwyk": 6241,
      "ĠwartoÅĽÄĩ": 6242,
      "Ġoferty": 6243,
      "Ġgaz": 6244,
      "myÅĽla": 6245,
      "ĠtytuÅĤu": 6246,
      "ĠKoÅĽcioÅĤa": 6247,
      "Ġmandat": 6248,
      "Ġzadebiut": 6249,
      "fli": 6250,
      "kowanie": 6251,
      "kse": 6252,
      "wka": 6253,
      "ĠnastÄħpi": 6254,
      "ĠpociÄħ": 6255,
      "Ġpochy": 6256,
      "Ġpokona": 6257,
      "Ġbonu": 6258,
      "Ġprzeczy": 6259,
      "Ġprzeszko": 6260,
      "Ġgre": 6261,
      "Ġmodli": 6262,
      "ĠKos": 6263,
      "ĠZo": 6264,
      "ĠObro": 6265,
      "Ġrezer": 6266,
      "Åºli": 6267,
      "ĠmajÄħc": 6268,
      "Ġlicen": 6269,
      "czajÄħc": 6270,
      "fini": 6271,
      "nikami": 6272,
      "Å¼ono": 6273,
      "cono": 6274,
      "Ġpewien": 6275,
      "ralne": 6276,
      "ĠrÄĻka": 6277,
      "logicznych": 6278,
      "ĠelementÃ³w": 6279,
      "ĠpostaÄĩ": 6280,
      "ĠProszÄĻ": 6281,
      "Ġwyboru": 6282,
      "chodzÄħc": 6283,
      "Ġhrabie": 6284,
      "Ġspotkania": 6285,
      "Ġscena": 6286,
      "ĠzarzÄħdzania": 6287,
      "ĠWÅĤady": 6288,
      "ĠjuniorÃ³w": 6289,
      "ĠBrytanii": 6290,
      "65": 6291,
      "dki": 6292,
      "jny": 6293,
      "nkach": 6294,
      "pan": 6295,
      "snÄħ": 6296,
      "Ġwszak": 6297,
      "Ġsali": 6298,
      "Ġswym": 6299,
      "Ġzbiera": 6300,
      "Ġpomy": 6301,
      "Ġposzuki": 6302,
      "Ġzarzu": 6303,
      "Ġuczni": 6304,
      "ĠwysiÅĤ": 6305,
      "Ġprzekaza": 6306,
      "Ġkot": 6307,
      "Ġmorza": 6308,
      "Ġmomencie": 6309,
      "ĠCiÄĻ": 6310,
      "Ġpodlega": 6311,
      "ĠZak": 6312,
      "Ġmagi": 6313,
      "ĠIS": 6314,
      "ĠImp": 6315,
      "bierz": 6316,
      "Ġwir": 6317,
      "ĠwidzieÄĩ": 6318,
      "Ġznane": 6319,
      "pean": 6320,
      "Ġdelika": 6321,
      "ĠczasÃ³w": 6322,
      "Ġlos": 6323,
      "wiÄĻcej": 6324,
      "Ġsklep": 6325,
      "980": 6326,
      "Ġskom": 6327,
      "ĠNic": 6328,
      "ĠzajÄĻÅĤa": 6329,
      "ĠdruÅ¼yny": 6330,
      "Ġkilo": 6331,
      "Ġwszelkie": 6332,
      "Ġzaprojekt": 6333,
      "ĠWszystko": 6334,
      "Ġskierowa": 6335,
      "FA": 6336,
      "Mu": 6337,
      "No": 6338,
      "Wszyst": 6339,
      "Zobacz": 6340,
      "zob": 6341,
      "Ġzbroj": 6342,
      "czko": 6343,
      "Ġolimpi": 6344,
      "lian": 6345,
      "ĠdosyÄĩ": 6346,
      "Ġzabyt": 6347,
      "ĠzadaÅĦ": 6348,
      "jaw": 6349,
      "ĠPet": 6350,
      "ĠTek": 6351,
      "ĠTur": 6352,
      "Ġrozsze": 6353,
      "ĠstaÅĤy": 6354,
      "ĠstÄħd": 6355,
      "zai": 6356,
      "Ġrez": 6357,
      "ild": 6358,
      "alnÄħ": 6359,
      "dzajÄħ": 6360,
      "ĠosÅĤa": 6361,
      "Ġopowia": 6362,
      "ĠKaÅ¼dy": 6363,
      "ĠStanÃ³w": 6364,
      "Ġzamku": 6365,
      "Ġmojego": 6366,
      "ĠMoÅ¼esz": 6367,
      "Ġwypadku": 6368,
      "Ġfakt": 6369,
      "ĠmÅĤodzieÅ¼": 6370,
      "stitu": 6371,
      "ĠPoznaniu": 6372,
      "ĠbrÄħzowy": 6373,
      "tykuÅĤ": 6374,
      "Ġfilozo": 6375,
      "ĠParlamentu": 6376,
      "Ġozdob": 6377,
      "Me": 6378,
      "pem": 6379,
      "Ġdotk": 6380,
      "Ġzato": 6381,
      "Ġupra": 6382,
      "waniem": 6383,
      "ĠPowi": 6384,
      "cjon": 6385,
      "ĠmiÅĤo": 6386,
      "Ġelegan": 6387,
      "Ġwzru": 6388,
      "Ġsprawia": 6389,
      "Ġodpowia": 6390,
      "ĠRok": 6391,
      "Ġpewnym": 6392,
      "ĠpÃ³ÅĤnocy": 6393,
      "Ġmatka": 6394,
      "Ġzmar": 6395,
      "rÃ³ciÅĤa": 6396,
      "ĠkrzyÅ¼": 6397,
      "Ġgatunku": 6398,
      "Ġzdrowo": 6399,
      "ĠliczbÄĻ": 6400,
      "ĠmÃ³wiÄĻ": 6401,
      "ĠproblemÃ³w": 6402,
      "Ġterytorium": 6403,
      ".ÂłÂłÂł": 6404,
      "EM": 6405,
      "TA": 6406,
      "ana": 6407,
      "jska": 6408,
      "piÄĻ": 6409,
      "sÄĻ": 6410,
      "ÑĢ": 6411,
      "Ġzez": 6412,
      "niny": 6413,
      "niÃ©j": 6414,
      "ĠoÅĤ": 6415,
      "Ġtor": 6416,
      "ĠtÃ©m": 6417,
      "Ġubezpie": 6418,
      "kiewicz": 6419,
      "Ġkomisji": 6420,
      "lus": 6421,
      "anki": 6422,
      "lonej": 6423,
      "ĠAt": 6424,
      "Ġfar": 6425,
      "ĠZÅĤo": 6426,
      "Ġobserw": 6427,
      "ĠJor": 6428,
      "zach": 6429,
      "ĠIch": 6430,
      "piec": 6431,
      "ĠFil": 6432,
      "ĠsÄħd": 6433,
      "Ġwzniesi": 6434,
      "Ġpowiem": 6435,
      "ĠChry": 6436,
      "Ġgracze": 6437,
      "ĠRosyj": 6438,
      "ĠDodat": 6439,
      "978": 6440,
      "ĠzwrÃ³ciÄĩ": 6441,
      "ĠzachÄĻ": 6442,
      "ĠdostÄĻpnoÅĽci": 6443,
      "Ġelementy": 6444,
      "ĠtrudnoÅĽci": 6445,
      "Ġostatnie": 6446,
      "gdyÅĽ": 6447,
      "Ġpodobne": 6448,
      "ĠDziÄĻkujÄĻ": 6449,
      "Ġgranicach": 6450,
      "Ġwersji": 6451,
      "ĠsprzÄĻtu": 6452,
      "ĠPorthos": 6453,
      "ĠWszystkie": 6454,
      "Ġmonety": 6455,
      ");": 6456,
      "919": 6457,
      "dery": 6458,
      "pki": 6459,
      "wsze": 6460,
      "Å¼ny": 6461,
      "Ġodzna": 6462,
      "Ġoskar": 6463,
      "ĠtÃ©j": 6464,
      "Ġkwiat": 6465,
      "miary": 6466,
      "Ġwynik": 6467,
      "tak": 6468,
      "tarza": 6469,
      "Ġprzycho": 6470,
      "szeni": 6471,
      "bami": 6472,
      "Ġwaha": 6473,
      "Ġsercu": 6474,
      "Ġtworzy": 6475,
      "wers": 6476,
      "Ġdawna": 6477,
      "ĠLudnoÅĽci": 6478,
      "Ġzatwier": 6479,
      "ĠznalazÅĤa": 6480,
      "Ġkontakt": 6481,
      "Ġzatrudni": 6482,
      "ĠskÃ³ry": 6483,
      "ĠdziesiÄĻÄĩ": 6484,
      "Ġnieprzyja": 6485,
      "41": 6486,
      "bas": 6487,
      "ÅĤek": 6488,
      "Ġodzie": 6489,
      "Ġpopu": 6490,
      "Ġzamy": 6491,
      "Ġnies": 6492,
      "ĠprzeÅĤo": 6493,
      "ted": 6494,
      "zal": 6495,
      "Ġmala": 6496,
      "bach": 6497,
      "ĠNad": 6498,
      "ĠNaleÅ¼y": 6499,
      "jsko": 6500,
      "Ġwszystkiego": 6501,
      "Ġustaleniu": 6502,
      "terna": 6503,
      "ĠduÅ¼Äħ": 6504,
      "siadÅĤ": 6505,
      "denty": 6506,
      "971": 6507,
      "Ġpewnego": 6508,
      "ĠtworzÄħ": 6509,
      "960": 6510,
      "Ġbudowla": 6511,
      "Ġwysokiej": 6512,
      "Ġszeroko": 6513,
      "Ġinteres": 6514,
      "ĠwejÅĽcia": 6515,
      "ĠParyÅ¼u": 6516,
      "ĠwziÄħÄĩ": 6517,
      "ĠPartii": 6518,
      "Ġintensyw": 6519,
      "ĠposzczegÃ³lnych": 6520,
      "ĠCzÄĻsto": 6521,
      "ĠgwaÅĤtow": 6522,
      "150": 6523,
      "FF": 6524,
      "Mie": 6525,
      "bla": 6526,
      "bri": 6527,
      "dob": 6528,
      "nnÄħ": 6529,
      "zar": 6530,
      "Äħza": 6531,
      "stat": 6532,
      "Ġtwar": 6533,
      "ĠtrÃ³j": 6534,
      "Ġinicjaty": 6535,
      "Ġpocie": 6536,
      "Ġdostrze": 6537,
      "Ġupo": 6538,
      "konu": 6539,
      "win": 6540,
      "ĠoddziaÅĤ": 6541,
      "ĠodwoÅĤa": 6542,
      "loka": 6543,
      "ĠAir": 6544,
      "âĢīâĢŀ": 6545,
      "Ġtedy": 6546,
      "jum": 6547,
      "ĠwidzÄħc": 6548,
      "ĠÅ¼yÄĩ": 6549,
      "ĠKolej": 6550,
      "Ġkup": 6551,
      "Ġpanowie": 6552,
      "ĠRaj": 6553,
      "ĠpowiÄħza": 6554,
      "967": 6555,
      "mentar": 6556,
      "ĠwrzeÅĽ": 6557,
      "ĠskÅĤadzie": 6558,
      "wentu": 6559,
      "ĠwyraÅºnie": 6560,
      "ĠzakoÅĦczeniu": 6561,
      "ĠpozostaÅĤ": 6562,
      "ĠYou": 6563,
      "ĠkoniecznoÅĽci": 6564,
      "Ġdwudzie": 6565,
      "Ġdyrektor": 6566,
      "ĠMyÅĽ": 6567,
      "Ġareszt": 6568,
      "05": 6569,
      "ril": 6570,
      "Ġpunk": 6571,
      "Ġkory": 6572,
      "Ġnaru": 6573,
      "Ġnagra": 6574,
      "Ġnapis": 6575,
      "lizacja": 6576,
      "mira": 6577,
      "wicza": 6578,
      "ĠAch": 6579,
      "ĠszkÃ³ÅĤ": 6580,
      "Ġster": 6581,
      "ĠLin": 6582,
      "Ġznaczenie": 6583,
      "Ġprzedsta": 6584,
      "ĠJeste": 6585,
      "kowska": 6586,
      "Ġtematy": 6587,
      "ĠmÃ³wiÅĤa": 6588,
      "Ġzmniej": 6589,
      "Ġsystemie": 6590,
      "Ġpolityk": 6591,
      "Ġmetra": 6592,
      "Ġhrabi": 6593,
      "Ġpoziomu": 6594,
      "ĠokreÅĽlone": 6595,
      "Ġperso": 6596,
      "ĠdruÅ¼yn": 6597,
      "Ġopinii": 6598,
      "ĠbroÅĦ": 6599,
      "Ġporusza": 6600,
      "ĠKatowi": 6601,
      "ĠMistrzostw": 6602,
      "NE": 6603,
      "hen": 6604,
      "tory": 6605,
      "niaÅĤa": 6606,
      "nieÄĩ": 6607,
      "ĠiÅĽÄĩ": 6608,
      "Ġnieod": 6609,
      "wiony": 6610,
      "ĠBal": 6611,
      "rÃ³g": 6612,
      "mieÄĩ": 6613,
      "ĠZas": 6614,
      "ĠLar": 6615,
      "Ġgor": 6616,
      "ĠtaÅĦ": 6617,
      "ĠMikoÅĤa": 6618,
      "giel": 6619,
      "Ġwprost": 6620,
      "ĠmÃ³wiÄħ": 6621,
      "Ġbraku": 6622,
      "ĠgÅĤosu": 6623,
      "ĠFranci": 6624,
      "qui": 6625,
      "Ġsezonu": 6626,
      "trzeb": 6627,
      "ĠdostaÄĩ": 6628,
      "Ġneg": 6629,
      "Ġprywatne": 6630,
      "ĠkrÃ³tko": 6631,
      "Ġanali": 6632,
      "ĠuzyskaÄĩ": 6633,
      "Ġedycji": 6634,
      "Ġolbrzy": 6635,
      "ĠÃ": 6636,
      "basa": 6637,
      "towej": 6638,
      "Ġzga": 6639,
      "nieÅĦ": 6640,
      "Ġdas": 6641,
      "Ġdoda": 6642,
      "Ġwymia": 6643,
      "wiu": 6644,
      "tytuÅĤ": 6645,
      "Ġprzywo": 6646,
      "ĠNatomiast": 6647,
      "ĠOÅĽ": 6648,
      "Ġmistrz": 6649,
      "Ġinnej": 6650,
      "szeniu": 6651,
      "alle": 6652,
      "ĠstaÄĩ": 6653,
      "ĠFor": 6654,
      "Ġspotk": 6655,
      "Ġzesta": 6656,
      "czÄħcych": 6657,
      "Ġkadencji": 6658,
      "Ġcele": 6659,
      "owaÅĤem": 6660,
      "Ġkuchni": 6661,
      "Ġgrupie": 6662,
      "ĠPau": 6663,
      "ĠbiaÅĤ": 6664,
      "ujemy": 6665,
      "ĠgÅĤosÃ³w": 6666,
      "ĠWiki": 6667,
      "ĠkoÅĦc": 6668,
      "Ġtelekomunika": 6669,
      "ĠÅ¼ar": 6670,
      "ĠObecnie": 6671,
      "Ġenerge": 6672,
      "Ġjasno": 6673,
      "ORY": 6674,
      "ĠcaÅĤkowicie": 6675,
      "Ġprzyrody": 6676,
      "Ġnagrody": 6677,
      "AS": 6678,
      "ID": 6679,
      "ker": 6680,
      "mowa": 6681,
      "ych": 6682,
      "Ġpli": 6683,
      "owem": 6684,
      "ĠdÄħ": 6685,
      "Ġopiera": 6686,
      "ĠmnÃ³": 6687,
      "szard": 6688,
      "ĠwysÅĤa": 6689,
      "lasy": 6690,
      "Ġkoro": 6691,
      "ĠOlimpi": 6692,
      "pii": 6693,
      "ĠktÃ³remu": 6694,
      "uri": 6695,
      "pel": 6696,
      "grafii": 6697,
      "Ġcech": 6698,
      "formy": 6699,
      "ĠjakoÅĽÄĩ": 6700,
      "ĠSzwajcar": 6701,
      "Ġpewnie": 6702,
      "505": 6703,
      "glÄħd": 6704,
      "956": 6705,
      "Ġwschodni": 6706,
      "ĠoferujÄħ": 6707,
      "ĠPrawo": 6708,
      "Ġsierp": 6709,
      "ĠÅ¼ona": 6710,
      "Ġdrzwia": 6711,
      "Ġgospodarki": 6712,
      "ĠgÃ³rÄĻ": 6713,
      "ĠprzedsiÄĻwz": 6714,
      "ĠNarodowego": 6715,
      "ĠWojcie": 6716,
      "Ġregiona": 6717,
      "ĠspÃ³ÅĤki": 6718,
      "Lecz": 6719,
      "Ġinstytucji": 6720,
      "ĠRosjanie": 6721,
      "ĠTrybu": 6722,
      "Ġcharakterze": 6723,
      "ĠwrzeÅĽniu": 6724,
      "We": 6725,
      "euro": 6726,
      "inicjaty": 6727,
      "owcy": 6728,
      "ĠkrÄĻ": 6729,
      "Ġnawi": 6730,
      "dzaÅĤ": 6731,
      "Ġzaprze": 6732,
      "kimi": 6733,
      "Ġaku": 6734,
      "Ġprzeniesi": 6735,
      "ori": 6736,
      "wiar": 6737,
      "ĠCel": 6738,
      "ĠÅĽnia": 6739,
      "Ġpanem": 6740,
      "Ġreak": 6741,
      "Ġreferen": 6742,
      "Ġrewolu": 6743,
      "Ġmacie": 6744,
      "alnej": 6745,
      "Ġstali": 6746,
      "skaÅĤa": 6747,
      "menda": 6748,
      "Ġkonsek": 6749,
      "ÅĦstwem": 6750,
      "Ġokrop": 6751,
      "szoÅĽÄĩ": 6752,
      "Ġmarki": 6753,
      "ĠbudowÄĻ": 6754,
      "ĠÅĤago": 6755,
      "ĠCzar": 6756,
      "Ġnatury": 6757,
      "Ġpunktu": 6758,
      "Ġinternetowych": 6759,
      "ĠrobiÄĩ": 6760,
      "Ġsklepie": 6761,
      "Ġokupa": 6762,
      "Ġsielsowiecie": 6763,
      "52": 6764,
      "lcÃ³w": 6765,
      "ËĿ": 6766,
      "Ġwnio": 6767,
      "szona": 6768,
      "ĠnawiÄħ": 6769,
      "Ġbr": 6770,
      "ĠPer": 6771,
      "Ġprzechowy": 6772,
      "ĠodrzekÅĤ": 6773,
      "ĠodrÄĻb": 6774,
      "szyÅĤa": 6775,
      "ĠpodkreÅĽ": 6776,
      "ĠfaÅĤ": 6777,
      "Ġfanta": 6778,
      "piÅĤ": 6779,
      "ĠmiaÅĤem": 6780,
      "ĠPoczÄħ": 6781,
      "Ġwideo": 6782,
      "wiado": 6783,
      "Ġcio": 6784,
      "ĠciaÅĤo": 6785,
      "rÄĻcz": 6786,
      "cona": 6787,
      "right": 6788,
      "hezal": 6789,
      "ĠgraÅĤ": 6790,
      "Ġkrajach": 6791,
      "ĠKaro": 6792,
      "ĠbieÅ¼Äħ": 6793,
      "Ġskon": 6794,
      "ĠksiÄĻÅ¼yc": 6795,
      "Ġzasad": 6796,
      "Ġstyl": 6797,
      "ĠTylko": 6798,
      "ĠdoÅĽwiadczenia": 6799,
      "ĠstwierdziÅĤ": 6800,
      "ĠwraÅ¼enie": 6801,
      "Ġdrewnia": 6802,
      "Ġbrzegu": 6803,
      "Ġrzadko": 6804,
      "Ġminima": 6805,
      "Ġhotelu": 6806,
      "ĠWojewÃ³": 6807,
      "ĠkapitaÅĤ": 6808,
      "ÄĻzyk": 6809,
      "67": 6810,
      "Dru": 6811,
      "PR": 6812,
      "SF": 6813,
      "WA": 6814,
      "cro": 6815,
      "hr": 6816,
      "zny": 6817,
      "rzchni": 6818,
      "Ġokiem": 6819,
      "Ġoczach": 6820,
      "ĠpokÃ³j": 6821,
      "ciar": 6822,
      "regu": 6823,
      "not": 6824,
      "ĠwyksztaÅĤ": 6825,
      "wione": 6826,
      "Ġprzyje": 6827,
      "ĠDemokra": 6828,
      "Ġwierz": 6829,
      "niejszÄħ": 6830,
      "Ġwizer": 6831,
      "Ġspotyka": 6832,
      "ĠleÅ¼Äħ": 6833,
      "rand": 6834,
      "ĠwÅĤadz": 6835,
      "ĠrÃ³wnie": 6836,
      "Ġodpor": 6837,
      "Ġpierwsza": 6838,
      "tics": 6839,
      "Ġprzypadkach": 6840,
      "ĠprowadziÄĩ": 6841,
      "ĠwÅĤasne": 6842,
      "ĠrzeczywiÅĽcie": 6843,
      "ĠArmii": 6844,
      "ĠzdobyÅĤa": 6845,
      "Ġpowinni": 6846,
      "ĠrozwiÄħzanie": 6847,
      "ĠGdyby": 6848,
      "Ġsposobu": 6849,
      "ferencji": 6850,
      "ĠCommission": 6851,
      "ĠpowyÅ¼ej": 6852,
      "Ġtajemni": 6853,
      "ĠReykjavÃŃ": 6854,
      "ĠgÅĤoÅĽno": 6855,
      "ĠogÃ³le": 6856,
      "DORY": 6857,
      "fu": 6858,
      "kowana": 6859,
      "pry": 6860,
      "pak": 6861,
      "ÅĤowi": 6862,
      "owskiej": 6863,
      "Å¼ki": 6864,
      "ĠmaÅĤy": 6865,
      "Ġnaczy": 6866,
      "Ġpolu": 6867,
      "rzeÅĽci": 6868,
      "Ġzazna": 6869,
      "Ġmoty": 6870,
      "Ġcud": 6871,
      "Ġpodda": 6872,
      "ĠPostaÄĩ": 6873,
      "ĠIstnie": 6874,
      "ierÄĻ": 6875,
      "biegÅĤ": 6876,
      "ĠFry": 6877,
      "Ġpowietrze": 6878,
      "dÄħc": 6879,
      "ime": 6880,
      "Ġsiat": 6881,
      "pliwie": 6882,
      "dztwa": 6883,
      "ĠrzuciÅĤ": 6884,
      "Ġklienta": 6885,
      "Ġedycja": 6886,
      "ĠporzÄħdku": 6887,
      "ĠLondy": 6888,
      "ĠTowarzystwa": 6889,
      "ĠuniknÄħÄĩ": 6890,
      "Ġrezerw": 6891,
      "DORYNA": 6892,
      "MA": 6893,
      "Pan": 6894,
      "cam": 6895,
      "mÄħ": 6896,
      "usa": 6897,
      "charu": 6898,
      "Ġmur": 6899,
      "Ġmart": 6900,
      "Ġzadania": 6901,
      "Ġuko": 6902,
      "ĠniegdyÅĽ": 6903,
      "ĠwykÅĤad": 6904,
      "ĠwywoÅĤa": 6905,
      "eria": 6906,
      "rym": 6907,
      "ĠBezpie": 6908,
      "Ġcon": 6909,
      "Ġpropo": 6910,
      "bignie": 6911,
      "dora": 6912,
      "dzeni": 6913,
      "Ġrad": 6914,
      "ĠnajczÄĻÅĽciej": 6915,
      "Ġnu": 6916,
      "cyjnie": 6917,
      "eryna": 6918,
      "ĠsprawÄĻ": 6919,
      "ĠWyÅ¼": 6920,
      "Ġnogi": 6921,
      "ĠpierwszÄħ": 6922,
      "Ġbiur": 6923,
      "Ġprodukt": 6924,
      "Ġtrzecie": 6925,
      "ownikÃ³w": 6926,
      "ĠpeÅĤne": 6927,
      "Ġkarty": 6928,
      "Ġprowadzenia": 6929,
      "ĠprojektÃ³w": 6930,
      "Ġskutek": 6931,
      "Ġdokumenta": 6932,
      "Ġinwest": 6933,
      "Ġreprezent": 6934,
      "ĠobowiÄħzu": 6935,
      "ĠSaint": 6936,
      "Ġwybrany": 6937,
      "ĠwyraÅº": 6938,
      "ĠWojsk": 6939,
      "ĠsiedzibÄħ": 6940,
      "Ġostatecznie": 6941,
      "Ġnazwisko": 6942,
      "Ġzmianie": 6943,
      "ĠÃ³wczes": 6944,
      "Ġprezes": 6945,
      "ĠGÃ³ra": 6946,
      "ĠTrzeba": 6947,
      "Ġnikogo": 6948,
      "rzeÅĽcija": 6949,
      "CE": 6950,
      "PL": 6951,
      "dka": 6952,
      "dowy": 6953,
      "dowe": 6954,
      "nastu": 6955,
      "Ġota": 6956,
      "Ġocho": 6957,
      "Ġopis": 6958,
      "Ġmasy": 6959,
      "leniem": 6960,
      "resztÄħ": 6961,
      "Ġuwo": 6962,
      "Ġulu": 6963,
      "Ġap": 6964,
      "ĠwyÅĽwiet": 6965,
      "ĠWin": 6966,
      "Ġodej": 6967,
      "Ġfron": 6968,
      "Ġszla": 6969,
      "inÄĻ": 6970,
      "put": 6971,
      "ĠpowieÅĽci": 6972,
      "Ġsiedem": 6973,
      "ĠKana": 6974,
      "Ġrozpoczyna": 6975,
      "ĠgdzieÅĽ": 6976,
      "tyczna": 6977,
      "ĠÅļwiat": 6978,
      "Ġstanowisku": 6979,
      "ĠÅĽwiatÅĤo": 6980,
      "Ġfunkcji": 6981,
      "Ġodbywa": 6982,
      "ĠpoÅĤoÅ¼ony": 6983,
      "Ġtermin": 6984,
      "ĠpowstaÅĤa": 6985,
      "ĠzarzÄħdu": 6986,
      "Ġokazji": 6987,
      "Ġzaufa": 6988,
      "ĠszernÃ³w": 6989,
      "ĠXVI": 6990,
      "ĠukraiÅĦskie": 6991,
      "ĠradoÅĽci": 6992,
      "Ġmetody": 6993,
      "Ġszereg": 6994,
      "ĠwyÅĽcigu": 6995,
      "ĠrÄħk": 6996,
      "920": 6997,
      "IN": 6998,
      "Se": 6999,
      "Samo": 7000,
      "hel": 7001,
      "ĠprÄħ": 7002,
      "owska": 7003,
      "ĠklÄĻ": 7004,
      "Ġkatoli": 7005,
      "ati": 7006,
      "Ġubo": 7007,
      "Ġjeno": 7008,
      "Ġwydoby": 7009,
      "tali": 7010,
      "Ġprzynale": 7011,
      "ĠZS": 7012,
      "ĠinÅ¼ynie": 7013,
      "chodem": 7014,
      "ĠNau": 7015,
      "Ġkonstytu": 7016,
      "sol": 7017,
      "Ġnot": 7018,
      "ctwie": 7019,
      "przeciw": 7020,
      "ralnym": 7021,
      "Ġpolskie": 7022,
      "szÄĻdzie": 7023,
      "ĠÅĤaÅĦcu": 7024,
      "ĠpatrzÄħc": 7025,
      "Ġgaze": 7026,
      "Ġinteli": 7027,
      "ĠwyglÄħd": 7028,
      "ĠpozostaÅĤych": 7029,
      "ĠMinisterstwo": 7030,
      "ĠOpen": 7031,
      "Ġturystyczne": 7032,
      "Ġtechnologii": 7033,
      "Ġtelewizyj": 7034,
      "Ġsymboli": 7035,
      "ĠMiasta": 7036,
      "ĠskorzystaÄĩ": 7037,
      "Ġhrabiego": 7038,
      "OM": 7039,
      "can": 7040,
      "mowy": 7041,
      "tkÃ³w": 7042,
      "Ġsch": 7043,
      "Ġzbo": 7044,
      "str": 7045,
      "Ġitp": 7046,
      "ĠzatytuÅĤ": 7047,
      "ĠuÅĤo": 7048,
      "niaÄĩ": 7049,
      "koju": 7050,
      "ĠPR": 7051,
      "ĠprzesÅĤa": 7052,
      "kujÄħ": 7053,
      "ĠprzysÅĤu": 7054,
      "capita": 7055,
      "Ġrozum": 7056,
      "ĠproÅĽ": 7057,
      "ĠludnoÅĽci": 7058,
      "Ġmagne": 7059,
      "Ġwith": 7060,
      "aÅĤoÅĽci": 7061,
      "ĠEu": 7062,
      "Ġsied": 7063,
      "ĠRolni": 7064,
      "Ġbab": 7065,
      "scypli": 7066,
      "Ġspecy": 7067,
      "Ġzaleca": 7068,
      "Ġostatniej": 7069,
      "dztwo": 7070,
      "Ġzasadni": 7071,
      "Å»ycie": 7072,
      "Ġdodatkowe": 7073,
      "ROZ": 7074,
      "Ġstopni": 7075,
      "Ġwyborach": 7076,
      "ĠpoÅĤowy": 7077,
      "Ġosiem": 7078,
      "ĠpoÅĽrednictwem": 7079,
      "ĠodlegÅĤoÅĽci": 7080,
      "Ġimprezy": 7081,
      "Ġzarejest": 7082,
      "ĠImperium": 7083,
      "800": 7084,
      "Fa": 7085,
      "die": 7086,
      "zda": 7087,
      "Ġzer": 7088,
      "Ġnaby": 7089,
      "dzkiego": 7090,
      "âĢ²": 7091,
      "jek": 7092,
      "Ġdomy": 7093,
      "niania": 7094,
      "ĠprzejÄĻ": 7095,
      "takt": 7096,
      "Ġkonia": 7097,
      "ĠMeksy": 7098,
      "ĠTro": 7099,
      "ĠGar": 7100,
      "ĠEle": 7101,
      "ĠUr": 7102,
      "atyka": 7103,
      "Å¼onej": 7104,
      "Ġpowietrzu": 7105,
      "padÃ³w": 7106,
      "Ġustala": 7107,
      "Ġserii": 7108,
      "Ġzapowie": 7109,
      "Ġpowoli": 7110,
      "ĠStanach": 7111,
      "Ġszkolenia": 7112,
      "ĠgÅĤÃ³wne": 7113,
      "ĠwiÄĻkszÄħ": 7114,
      "ĠczÅĤowiekiem": 7115,
      "ĠwÅĤasnÄħ": 7116,
      "ĠpoÅĤoÅ¼one": 7117,
      "niesienia": 7118,
      "ĠprzyszÅĤoÅĽci": 7119,
      "Ġwspomina": 7120,
      "ĠjakÄħÅĽ": 7121,
      "ĠprÄĻdko": 7122,
      "Ġpoprawki": 7123,
      "Ġcodziennie": 7124,
      "Ġataki": 7125,
      "ĠpowyÅ¼": 7126,
      "ĠSejmu": 7127,
      "Ġstandar": 7128,
      "Ġeduka": 7129,
      "Ġutrzymy": 7130,
      "Ġinfrastruktury": 7131,
      "Archiwalne": 7132,
      "ĠobrÄĻbie": 7133,
      "Cho": 7134,
      "fon": 7135,
      "imi": 7136,
      "ps": 7137,
      "ÅĤego": 7138,
      "Ġzwa": 7139,
      "niÅĤo": 7140,
      "Ġnasza": 7141,
      "ling": 7142,
      "ree": 7143,
      "ÅĤaca": 7144,
      "Ġwymo": 7145,
      "ĠwystÄħ": 7146,
      "ĠPL": 7147,
      "wiÅĤa": 7148,
      "Ġjazdy": 7149,
      "Ġprzygo": 7150,
      "ÅĤuma": 7151,
      "ĠpodÅĤo": 7152,
      "mych": 7153,
      "ĠDra": 7154,
      "Ġwiedzy": 7155,
      "Ġreligi": 7156,
      "Ġwina": 7157,
      "czanie": 7158,
      "czami": 7159,
      "ĠleÅ¼aÅĤ": 7160,
      "ĠnÄĻ": 7161,
      "ĠHar": 7162,
      "Ġnomina": 7163,
      "szÄħc": 7164,
      "976": 7165,
      "Ġwielkiego": 7166,
      "ĠdostÄĻpu": 7167,
      "ĠwiÄĻksze": 7168,
      "ĠgroÅº": 7169,
      "ĠAlba": 7170,
      "Ġgabine": 7171,
      "ĠkorzystaÄĩ": 7172,
      "Ġdziedzinie": 7173,
      "Ġzastosowanie": 7174,
      "Ġuzasa": 7175,
      "Ġznisz": 7176,
      "ĠzabraÄĩ": 7177,
      "ĠbranÅ¼y": 7178,
      "ĠwybrzeÅ¼a": 7179,
      "ĠwÄħtpliwoÅĽci": 7180,
      "capitalis": 7181,
      "(...": 7182,
      "Fran": 7183,
      "Lu": 7184,
      "TU": 7185,
      "cm": 7186,
      "cku": 7187,
      "ffe": 7188,
      "gny": 7189,
      "tle": 7190,
      "twie": 7191,
      "wny": 7192,
      "ĠwrÃ³ciÅĤ": 7193,
      "cznik": 7194,
      "Ġtle": 7195,
      "Ġks": 7196,
      "Ġnara": 7197,
      "gosÅĤa": 7198,
      "Ġdost": 7199,
      "Ġzada": 7200,
      "komi": 7201,
      "ĠwyÅ¼ej": 7202,
      "Ġwyniki": 7203,
      "Ġgrz": 7204,
      "Ġgale": 7205,
      "ĠoddziaÅĤy": 7206,
      "stal": 7207,
      "ĠMas": 7208,
      "anu": 7209,
      "ĠNowym": 7210,
      "ĠÅ¼elaz": 7211,
      "Ġcer": 7212,
      "akÃ³w": 7213,
      "Ġniczego": 7214,
      "alnego": 7215,
      "ĠFer": 7216,
      "ĠsÄħsia": 7217,
      "ĠdzieÅĤa": 7218,
      "Ġwest": 7219,
      "ĠMala": 7220,
      "rzuca": 7221,
      "ĠkomÃ³r": 7222,
      "Ġchwil": 7223,
      "ĠÅģÃ³dÅº": 7224,
      "Ġkolejny": 7225,
      "ĠoczywiÅĽcie": 7226,
      "ĠpoczÄħtkowo": 7227,
      "ĠpoÅĽrÃ³d": 7228,
      "Ġobszaru": 7229,
      "ĠPark": 7230,
      "Ġniezawo": 7231,
      "ĠpoÅĤudniowo": 7232,
      "ĠksztaÅĤt": 7233,
      "Ġspokojnie": 7234,
      "Ġbiznes": 7235,
      "Ġturnieju": 7236,
      "Ġbohater": 7237,
      "ĠPamiÄĻtaj": 7238,
      "PCB": 7239,
      "Ġtiret": 7240,
      "51": 7241,
      "JÄĻzyk": 7242,
      "SI": 7243,
      "gres": 7244,
      "nnik": 7245,
      "tz": 7246,
      "wory": 7247,
      "zmu": 7248,
      "Ã°": 7249,
      "Ġzwi": 7250,
      "nictwa": 7251,
      "ĠukÅĤadu": 7252,
      "dziÅĤem": 7253,
      "dzieÅĽcia": 7254,
      "torzy": 7255,
      "lob": 7256,
      "lonÄħ": 7257,
      "ĠÅĽli": 7258,
      "Ġchwy": 7259,
      "Ġchemi": 7260,
      "ĠwieÅ¼y": 7261,
      "biu": 7262,
      "Ġstabi": 7263,
      "ĠwolnoÅĽci": 7264,
      "Ġzegar": 7265,
      "Ġkapli": 7266,
      "Ġnowym": 7267,
      "ĠnowÄħ": 7268,
      "ĠcieszyÄĩ": 7269,
      "Ġopowiada": 7270,
      "941": 7271,
      "bela": 7272,
      "ĠzmieniÄĩ": 7273,
      "ĠodbyÅĤa": 7274,
      "pital": 7275,
      "Ġtechnicznych": 7276,
      "Ġkryty": 7277,
      "Ġspotkanie": 7278,
      "Ġistotne": 7279,
      "ĠczegoÅĽ": 7280,
      "ĠchoÄĩby": 7281,
      "ĠskrzydÅĤa": 7282,
      "ĠmÅĤodzieÅ¼y": 7283,
      "ĠczynnoÅĽci": 7284,
      "ĠcÃ³rki": 7285,
      "ĠÅºrÃ³dÅĤa": 7286,
      "Ġemery": 7287,
      "Ġpochodzenia": 7288,
      "IPPCB": 7289,
      "ĠBenven": 7290,
      "capitalisation": 7291,
      "110": 7292,
      "And": 7293,
      "PN": 7294,
      "Pow": 7295,
      "Uro": 7296,
      "pres": 7297,
      "owny": 7298,
      "rzona": 7299,
      "ĠkÅĤo": 7300,
      "ĠpomysÅĤ": 7301,
      "kaj": 7302,
      "lacje": 7303,
      "ĠPÃ³Åºniej": 7304,
      "dago": 7305,
      "ĠprzyszedÅĤ": 7306,
      "ĠAb": 7307,
      "Ġczer": 7308,
      "ĠczÅĤonek": 7309,
      "Ġminist": 7310,
      "Ġrezu": 7311,
      "Ġcof": 7312,
      "Ġewentu": 7313,
      "czÄħca": 7314,
      "Ġczasami": 7315,
      "rÄħg": 7316,
      "ĠopÅĤat": 7317,
      "ĠpolskÄħ": 7318,
      "Ġruchem": 7319,
      "ziem": 7320,
      "Ġbrat": 7321,
      "ĠdÅĤuÅ¼ej": 7322,
      "ĠrozporzÄħdzenie": 7323,
      "ĠzmarÅĤ": 7324,
      "ĠwÅĤaÅĽciwie": 7325,
      "ArtykuÅĤ": 7326,
      "ĠCzas": 7327,
      "ĠksiÄħÅ¼ek": 7328,
      "Ġtelefo": 7329,
      "ĠpiÄĻkne": 7330,
      "Ġzapozna": 7331,
      "Ġokolice": 7332,
      "Ġsoli": 7333,
      "Ġwprowadza": 7334,
      "ĠsÅĤysz": 7335,
      "ĠAndrzej": 7336,
      "ĠwynosiÅĤa": 7337,
      "ĠzawodnikÃ³w": 7338,
      "ĠpodmiotÃ³w": 7339,
      "Ġregionu": 7340,
      "ĠpisaÄĩ": 7341,
      "ĠKrzyszto": 7342,
      "Warsza": 7343,
      "ĠuÅ¼ytkownikÃ³w": 7344,
      "ĠOkrÄĻgowy": 7345,
      "Ġfunduszu": 7346,
      "ĠzaÅĤÄħczniku": 7347,
      "Ġhomoseksu": 7348,
      "eli": 7349,
      "Äĺ": 7350,
      "natu": 7351,
      "Å¼nych": 7352,
      "roi": 7353,
      "rei": 7354,
      "Ġupad": 7355,
      "cel": 7356,
      "ĠprzemysÅĤu": 7357,
      "Ġgnia": 7358,
      "kien": 7359,
      "Ġodpo": 7360,
      "ĠAgen": 7361,
      "ĠTru": 7362,
      "ĠDes": 7363,
      "ĠIm": 7364,
      "Ġet": 7365,
      "pecja": 7366,
      "ĠzewnÄħtrz": 7367,
      "zujÄħc": 7368,
      "Å¼onego": 7369,
      "Ġpety": 7370,
      "ĠweszÅĤa": 7371,
      "nionego": 7372,
      "nionym": 7373,
      "cti": 7374,
      "Ġdystry": 7375,
      "ĠkaÅ¼da": 7376,
      "Ġrodzinie": 7377,
      "961": 7378,
      "Ġwysoko": 7379,
      "bÄĻdzie": 7380,
      "Ġwykonania": 7381,
      "Ġparafia": 7382,
      "Ġotwarte": 7383,
      "ĠmateriaÅĤy": 7384,
      "Ġrozmowa": 7385,
      "Informacje": 7386,
      "ĠamerykaÅĦski": 7387,
      "ĠWilnie": 7388,
      "Ġdobrym": 7389,
      "Ġfolwar": 7390,
      "Ġnegatyw": 7391,
      "ĠÅĤy": 7392,
      "OS": 7393,
      "Ry": 7394,
      "US": 7395,
      "wca": 7396,
      "ÃŁ": 7397,
      "sznie": 7398,
      "letics": 7399,
      "kali": 7400,
      "Ġnieraz": 7401,
      "Ġwym": 7402,
      "Ġroli": 7403,
      "Ġprzysta": 7404,
      "Ġtymi": 7405,
      "ĠpodjÄħÅĤ": 7406,
      "Ġrozbi": 7407,
      "ĠJas": 7408,
      "ĠPotem": 7409,
      "Ġpali": 7410,
      "moÅĽÄĩ": 7411,
      "Ġtabli": 7412,
      "ĠleÅ¼y": 7413,
      "ĠprzedÅĤu": 7414,
      "ĠÅ¼yci": 7415,
      "Ġcicho": 7416,
      "Å¼onym": 7417,
      "nder": 7418,
      "ĠWyso": 7419,
      "Ġstrona": 7420,
      "Ġwydania": 7421,
      "tycznego": 7422,
      "ĠÅģÄħ": 7423,
      "958": 7424,
      "vid": 7425,
      "ĠodbyÅĤ": 7426,
      "ĠMiejsc": 7427,
      "Ġwzrokiem": 7428,
      "ĠprzestrzeÅĦ": 7429,
      "ĠspojrzaÅĤ": 7430,
      "Â§Âł": 7431,
      "Ġarchite": 7432,
      "ĠorganÃ³w": 7433,
      "Ġataku": 7434,
      "ĠPolakÃ³w": 7435,
      "ĠKatarzyna": 7436,
      "ĠprÄĻdkoÅĽci": 7437,
      "ĠturystÃ³w": 7438,
      "ĠzadebiutowaÅĤ": 7439,
      "ĠObrony": 7440,
      "83": 7441,
      "CH": 7442,
      "dowania": 7443,
      "wat": 7444,
      "went": 7445,
      "nator": 7446,
      "rok": 7447,
      "ĠkÄĻ": 7448,
      "Ġbal": 7449,
      "Ġniekiedy": 7450,
      "Ġwymiany": 7451,
      "tacja": 7452,
      "cieÅĦczy": 7453,
      "iach": 7454,
      "ĠtoÅ¼": 7455,
      "Ġfla": 7456,
      "onta": 7457,
      "Ġpapier": 7458,
      "bii": 7459,
      "stycznych": 7460,
      "ĠEk": 7461,
      "ĠdziewiÄĻ": 7462,
      "ĠbyÅĤby": 7463,
      "szczeÅĦ": 7464,
      "Ġgrafi": 7465,
      "ĠVer": 7466,
      "ĠStary": 7467,
      "Ġwydawni": 7468,
      "ĠLegi": 7469,
      "ĠzmÄĻ": 7470,
      "Ġlam": 7471,
      "Ġzakres": 7472,
      "ĠÅ¼aden": 7473,
      "Ġdawniej": 7474,
      "ĠponiedziaÅĤ": 7475,
      "Ġfilmy": 7476,
      "Ġtrwo": 7477,
      "ĠmiÄĻk": 7478,
      "niesienie": 7479,
      "ĠkrokÃ³w": 7480,
      "Ġkrokiem": 7481,
      "Ġdarmowe": 7482,
      "âĢľ.": 7483,
      "354": 7484,
      "ĠpoÅĤudniowej": 7485,
      "ĠSpoÅĤe": 7486,
      "ĠPowszech": 7487,
      "Ġniezwyk": 7488,
      "Marek": 7489,
      "Ġpowietrznej": 7490,
      "Ġpsycho": 7491,
      "ĠÅĽredniej": 7492,
      "ĠDodatkowo": 7493,
      "Ġsierpniu": 7494,
      "Jego": 7495,
      "sel": 7496,
      "wnych": 7497,
      "ĠwdziÄĻ": 7498,
      "czar": 7499,
      "Ġden": 7500,
      "szczu": 7501,
      "Ġnareszcie": 7502,
      "Ġdomach": 7503,
      "koma": 7504,
      "Ġniema": 7505,
      "cjo": 7506,
      "turze": 7507,
      "ant": 7508,
      "Ġprzychodzi": 7509,
      "Ġpodpisa": 7510,
      "Ġmikro": 7511,
      "gaÄĩ": 7512,
      "Ġprokura": 7513,
      "mur": 7514,
      "Ġrezy": 7515,
      "Ġpragnie": 7516,
      "bienia": 7517,
      "Ġznam": 7518,
      "Ġradio": 7519,
      "Ġdzielnicy": 7520,
      "bus": 7521,
      "ĠKole": 7522,
      "ĠMimo": 7523,
      "Ġmian": 7524,
      "kowskiego": 7525,
      "Ġpolskim": 7526,
      "Ġryce": 7527,
      "Ġmarket": 7528,
      "wÄħt": 7529,
      "Ġfunkcje": 7530,
      "Ġprojek": 7531,
      "ĠmyÅĽlÄĻ": 7532,
      "ĠjÄĻzykiem": 7533,
      "Ġfilmu": 7534,
      "ĠwpÅĤywu": 7535,
      "ĠwÅĤosy": 7536,
      "ĠpÃ³ÅĤnocno": 7537,
      "Ġzajmu": 7538,
      "Ġochronie": 7539,
      "Ã¼r": 7540,
      "Ġeksper": 7541,
      "ĠobszarÃ³w": 7542,
      "Ġdrzewa": 7543,
      "ĠSystem": 7544,
      "Ġdobrego": 7545,
      "Ġtygodniu": 7546,
      "Ġprofesor": 7547,
      "Ġstolicy": 7548,
      "ĠPÃ³ÅĤnocnej": 7549,
      "imnaz": 7550,
      "07": 7551,
      "OT": 7552,
      "bru": 7553,
      "jka": 7554,
      "zwy": 7555,
      "ÅĤka": 7556,
      "niona": 7557,
      "Ġposa": 7558,
      "âĢ¢": 7559,
      "Ġdoro": 7560,
      "ming": 7561,
      "Ġuleg": 7562,
      "Ġalko": 7563,
      "Ġwyma": 7564,
      "kupy": 7565,
      "Ġget": 7566,
      "kier": 7567,
      "ĠWest": 7568,
      "ĠMona": 7569,
      "ĠMÃ³wi": 7570,
      "ĠBlu": 7571,
      "ĠBlan": 7572,
      "ĠAnie": 7573,
      "ĠLau": 7574,
      "alna": 7575,
      "ĠFC": 7576,
      "Ġczyta": 7577,
      "ĠHol": 7578,
      "dzaj": 7579,
      "Ġgdybym": 7580,
      "Ġsprawach": 7581,
      "ĠwewnÄħtrz": 7582,
      "ctor": 7583,
      "ĠdobrÄħ": 7584,
      "misja": 7585,
      "ĠzawoÅĤaÅĤa": 7586,
      "Ġrodzina": 7587,
      "ĠzwrÃ³": 7588,
      "ĠdwadzieÅĽcia": 7589,
      "Ġstosowania": 7590,
      "Ġstuden": 7591,
      "Ġfinansowe": 7592,
      "ĠoÅĽwiet": 7593,
      "ĠtrwaÅĤ": 7594,
      "ĠChocieÅĦczy": 7595,
      "dowaÅĤy": 7596,
      "Ġpozostaje": 7597,
      "ĠsÅĤoÅĦca": 7598,
      "ĠWasza": 7599,
      "ĠszczÄĻÅĽcia": 7600,
      "Ġnaturalnego": 7601,
      "Ġcharaktery": 7602,
      "ĠpoznaÄĩ": 7603,
      "lizacjÄĻ": 7604,
      "ĠKsiÄĻÅ¼y": 7605,
      "Ġnajpierw": 7606,
      "Ġmaszyn": 7607,
      "Ġkomputer": 7608,
      "DZIAÅģ": 7609,
      "Ġkapelu": 7610,
      "Ġelimina": 7611,
      "62": 7612,
      "68": 7613,
      "Ameryka": 7614,
      "Bar": 7615,
      "ED": 7616,
      "dii": 7617,
      "jnych": 7618,
      "lji": 7619,
      "mor": 7620,
      "rio": 7621,
      "twÃ³r": 7622,
      "uch": 7623,
      "ville": 7624,
      "Ġsing": 7625,
      "Ġzgu": 7626,
      "ĠnapÄĻ": 7627,
      "Ġdotar": 7628,
      "Ġdokony": 7629,
      "Ġniedaw": 7630,
      "owaÅ¼": 7631,
      "Ġas": 7632,
      "Ġwybud": 7633,
      "ĠWon": 7634,
      "Ġkomi": 7635,
      "ĠMur": 7636,
      "ĠKre": 7637,
      "Ġex": 7638,
      "Ġhttp": 7639,
      "ĠwidziaÅĤem": 7640,
      "czajÄħ": 7641,
      "ĠHand": 7642,
      "Ġsamych": 7643,
      "Ġkoncep": 7644,
      "ĠZarzÄħdu": 7645,
      "Ġpusty": 7646,
      "ĠSzarkowszczy": 7647,
      "ĠBogu": 7648,
      "ĠrÄĻki": 7649,
      "Ġzaplan": 7650,
      "Ġpolicja": 7651,
      "ĠgÅĤÃ³wnych": 7652,
      "Ġartyle": 7653,
      "ĠwskazÃ³w": 7654,
      "Ġpolitycznej": 7655,
      "Ġhrabio": 7656,
      "ĠprzyszÅĤo": 7657,
      "Ġdarmo": 7658,
      "ĠRyszard": 7659,
      "Ġperspekty": 7660,
      "Ġzrealiz": 7661,
      "ĠWrocÅĤawiu": 7662,
      "Ġlekkoat": 7663,
      "ĠcaÅĤoÅĽci": 7664,
      "ĠStanisÅĤaw": 7665,
      "Ġinteresu": 7666,
      "ĠdÅºwiÄĻ": 7667,
      "System": 7668,
      "Ġinstalacji": 7669,
      "Ġpotencja": 7670,
      "%,": 7671,
      "Her": 7672,
      "Op": 7673,
      "era": 7674,
      "gs": 7675,
      "gat": 7676,
      "hmen": 7677,
      "lnymi": 7678,
      "rowo": 7679,
      "ury": 7680,
      "ÅĤowa": 7681,
      "ĠprÃ³Å¼": 7682,
      "Ġzbro": 7683,
      "Ġzwal": 7684,
      "ĠmaÅĤych": 7685,
      "dzej": 7686,
      "Ġpoto": 7687,
      "ĠbÅĤa": 7688,
      "mistrz": 7689,
      "Å¼yli": 7690,
      "Ġfal": 7691,
      "ĠRÃ³w": 7692,
      "Ġmin": 7693,
      "Ġrozbud": 7694,
      "Ġchor": 7695,
      "Ġprofi": 7696,
      "Åºnia": 7697,
      "Ġmaj": 7698,
      "Ġwidzenia": 7699,
      "Ġwodo": 7700,
      "ĠpowiedziaÅĤa": 7701,
      "Ġdruga": 7702,
      "ĠrÃ³Å¼ni": 7703,
      "Ġkomfort": 7704,
      "liwoÅĽciÄħ": 7705,
      "ĠAleÅ¼": 7706,
      "963": 7707,
      "ĠmÅĤodo": 7708,
      "Ġszkole": 7709,
      "Ġzdaniem": 7710,
      "Ġwykonane": 7711,
      "Ġrodzaje": 7712,
      "stronomia": 7713,
      "dziano": 7714,
      "ĠwaÅ¼nym": 7715,
      "Ġkrajobraz": 7716,
      "ĠprÃ³by": 7717,
      "ĠmaÅĤej": 7718,
      "ĠOstat": 7719,
      "ĠwieczÃ³r": 7720,
      "Ġsztafe": 7721,
      "ĠStanisÅĤawa": 7722,
      "Ġzasilania": 7723,
      "grup": 7724,
      "ĠJednoczeÅĽnie": 7725,
      "ĠSkarbu": 7726,
      "ĠpasaÅ¼er": 7727,
      "Ġrekord": 7728,
      "imnazjum": 7729,
      "Ġĉ": 7730,
      "Ġcia": 7731,
      "(âĢŀ": 7732,
      "shi": 7733,
      "Ġposzu": 7734,
      "kacje": 7735,
      "Ġprzegra": 7736,
      "Ġoddzie": 7737,
      "tujÄħ": 7738,
      "ĠpodaÅĤ": 7739,
      "siÅĤa": 7740,
      "ĠOchro": 7741,
      "Ġrozko": 7742,
      "ĠPoniewaÅ¼": 7743,
      "baj": 7744,
      "bast": 7745,
      "wiajÄħc": 7746,
      "ĠChri": 7747,
      "Ġsprawa": 7748,
      "ĠJeszcze": 7749,
      "ĠgrupÄĻ": 7750,
      "ĠnaleÅ¼eli": 7751,
      "ĠszeÅĽciu": 7752,
      "ĠÅĽrodek": 7753,
      "Ġzapas": 7754,
      "ĠzdolnoÅĽci": 7755,
      "ĠÅģÃ³dz": 7756,
      "nosiÄĩ": 7757,
      "Ġpublicznej": 7758,
      "ĠPodob": 7759,
      "Ġcyklu": 7760,
      "Ġlotnisku": 7761,
      "ĠÅ¼ony": 7762,
      "Ġhabi": 7763,
      "Ġsztucznej": 7764,
      "Ġroboty": 7765,
      "ĠnajwiÄĻkszych": 7766,
      "ĠokrÄĻgu": 7767,
      "ĠpiÅĤkarz": 7768,
      "ĠziemiÄĻ": 7769,
      "ĠuÅĽmiech": 7770,
      "mawiaÄĩ": 7771,
      "ĠszczegÃ³": 7772,
      "ĠMinisterstwa": 7773,
      "ĠdowÃ³dcy": 7774,
      "ĠAdministra": 7775,
      "ĠstworzyÄĩ": 7776,
      "praszam": 7777,
      "ĠproducentÃ³w": 7778,
      "ĠTomasz": 7779,
      "ĠNorwegii": 7780,
      "Ġzarejestrowa": 7781,
      "918": 7782,
      "Bud": 7783,
      "Pe": 7784,
      "Pu": 7785,
      "WÅĤa": 7786,
      "fery": 7787,
      "lla": 7788,
      "wary": 7789,
      "ĠwchodzÄħ": 7790,
      "Ġzdu": 7791,
      "Ġtka": 7792,
      "Ġdodaje": 7793,
      "ĠwystÄħpi": 7794,
      "ĠwydaÅĤ": 7795,
      "ĠWtedy": 7796,
      "ĠNowo": 7797,
      "pami": 7798,
      "Ġpras": 7799,
      "ĠmieÅĽciÅĤ": 7800,
      "Ġepi": 7801,
      "ĠEko": 7802,
      "ĠczyÅ¼": 7803,
      "prawa": 7804,
      "chach": 7805,
      "Ġustaw": 7806,
      "ĠmogÅĤem": 7807,
      "Ġbaro": 7808,
      "ralna": 7809,
      "Ġformula": 7810,
      "ĠByÅĤy": 7811,
      "ĠBir": 7812,
      "Ġpublikacji": 7813,
      "atora": 7814,
      "ĠwÅĤasnej": 7815,
      "Ġczele": 7816,
      "Ġpodobny": 7817,
      "ĠpoÅĤoÅ¼ona": 7818,
      "Ġokolicach": 7819,
      "ĠÅĤÄħcznie": 7820,
      "ĠpÃ³ÅĤnocnej": 7821,
      "ĠsÅĤone": 7822,
      "ĠsÅĤoÅĦce": 7823,
      "ĠSiÅĤ": 7824,
      "Ġniemiecki": 7825,
      "Ġostatnim": 7826,
      "Ġpowstania": 7827,
      "ĠhistoriÄĻ": 7828,
      "ĠpoÅĤÄħczenia": 7829,
      "versi": 7830,
      "Ġtechnik": 7831,
      "Ġreprezentant": 7832,
      "Ġpocztowy": 7833,
      "Ġsklepu": 7834,
      "ĠnagrÃ³d": 7835,
      "ĠobojÄĻ": 7836,
      "Warto": 7837,
      "ĠuwzglÄĻdni": 7838,
      "Ġdwoma": 7839,
      "www": 7840,
      "ĠzdjÄĻcia": 7841,
      "ĠNajjaÅĽniejsza": 7842,
      "ĠnieszczÄĻÅĽli": 7843,
      "ĠPowietrz": 7844,
      "ĠpaÅĤacu": 7845,
      "ĠpuÅĤku": 7846,
      "Ġx": 7847,
      "Av": 7848,
      "ZY": 7849,
      "blo": 7850,
      "fal": 7851,
      "laÅĤa": 7852,
      "lski": 7853,
      "ĠwszÄĻdzie": 7854,
      "owujÄħc": 7855,
      "czce": 7856,
      "czaÅĤa": 7857,
      "ranie": 7858,
      "Å¼ka": 7859,
      "Ġist": 7860,
      "Ġpodzi": 7861,
      "ĠpoÅĤow": 7862,
      "leb": 7863,
      "kacja": 7864,
      "ĠdomÃ³w": 7865,
      "Ġniebo": 7866,
      "Ġawar": 7867,
      "Ġwydzie": 7868,
      "Ġwystawi": 7869,
      "ĠwystÄħpiÅĤ": 7870,
      "ĠPri": 7871,
      "Ġprzesta": 7872,
      "Ġprzekro": 7873,
      "orÄħc": 7874,
      "dziny": 7875,
      "ames": 7876,
      "ĠKro": 7877,
      "Ġszale": 7878,
      "ĠobciÄħ": 7879,
      "zami": 7880,
      "eklar": 7881,
      "Ġproste": 7882,
      "dniki": 7883,
      "ĠktÃ³rymi": 7884,
      "aÅĤoby": 7885,
      "ĠnajwiÄĻcej": 7886,
      "ĠNawet": 7887,
      "Ġdeko": 7888,
      "Ġlubel": 7889,
      "charze": 7890,
      "ĠsiedzÄħ": 7891,
      "ĠpowiÄĻk": 7892,
      "Ġkuli": 7893,
      "ĠnastÄĻpuje": 7894,
      "koÅĦczyÅĤ": 7895,
      "957": 7896,
      "191": 7897,
      "ĠpaÅºdzierniku": 7898,
      "ĠBay": 7899,
      "ĠsprawdziÄĩ": 7900,
      "ĠwskaÅº": 7901,
      "ĠwnioskÃ³w": 7902,
      "ĠPucharu": 7903,
      "ĠÅĤÄħczy": 7904,
      "ĠczuÅĤ": 7905,
      "Podsum": 7906,
      "Ġwzrok": 7907,
      "Ġnarodowej": 7908,
      "ĠsÅĤabo": 7909,
      "Ġprawdziwe": 7910,
      "ĠBrukse": 7911,
      "ĠTymczasem": 7912,
      "Ġspowod": 7913,
      "ĠPoÅĤudniowej": 7914,
      "ĠZgromadzenia": 7915,
      "Ġharmo": 7916,
      "ĠZakÅĤa": 7917,
      ".\"": 7918,
      "08": 7919,
      "120": 7920,
      "61": 7921,
      "Gatunek": 7922,
      "KI": 7923,
      "MS": 7924,
      "]ÂłÂłÂłÂłÂłÂłÂłÂłÂłÂłÂłÂł": 7925,
      "aa": 7926,
      "dgo": 7927,
      "zjÄĻ": 7928,
      "Ġwczes": 7929,
      "Ġzo": 7930,
      "nich": 7931,
      "czkÄħ": 7932,
      "Ġkim": 7933,
      "Ġnade": 7934,
      "ĠposzedÅĤ": 7935,
      "red": 7936,
      "Ġzachodniej": 7937,
      "miaÅĤa": 7938,
      "Ġniecier": 7939,
      "ĠPort": 7940,
      "Ġprzecie": 7941,
      "ĠWz": 7942,
      "Ġodbior": 7943,
      "Ġodmiany": 7944,
      "ĠSprawie": 7945,
      "ĠMÃ³j": 7946,
      "ame": 7947,
      "anka": 7948,
      "ĠBur": 7949,
      "ĠZbignie": 7950,
      "ĠOg": 7951,
      "ĠOli": 7952,
      "Ġrecapitalisation": 7953,
      "dnik": 7954,
      "ĠEU": 7955,
      "ĠspoÅĽrÃ³d": 7956,
      "Ġram": 7957,
      "skry": 7958,
      "rans": 7959,
      "nujÄħ": 7960,
      "szczeniu": 7961,
      "ĠJapo": 7962,
      "ĠrozporzÄħ": 7963,
      "skutek": 7964,
      "ĠzÅĤota": 7965,
      "ĠrodzicÃ³w": 7966,
      "ĠÅģa": 7967,
      "ownictwa": 7968,
      "ĠpeÅĤnym": 7969,
      "logicznej": 7970,
      "Ġgodzinach": 7971,
      "ĠsystemÃ³w": 7972,
      "ĠmusiaÅĤa": 7973,
      "Ġparku": 7974,
      "Ġosobist": 7975,
      "Ġdokument": 7976,
      "Ġpatrzy": 7977,
      "KoÅĽci": 7978,
      "Ġszeroki": 7979,
      "Ġuczelni": 7980,
      "Ġistocie": 7981,
      "Ġobrazu": 7982,
      "ĠuczyniÄĩ": 7983,
      "Ġwilgot": 7984,
      "ĠOprÃ³cz": 7985,
      "ĠdowiedzieÄĩ": 7986,
      "ngeli": 7987,
      "ĠnarzÄĻdzia": 7988,
      "Ġrozgrywek": 7989,
      "Ġryzyko": 7990,
      "ĠRegiona": 7991,
      "ĠLarrabe": 7992,
      "ROZDZIAÅģ": 7993,
      "Mat": 7994,
      "bÃ³r": 7995,
      "dge": 7996,
      "ise": 7997,
      "nÃ©m": 7998,
      "Ġschro": 7999,
      "Ġzem": 8000,
      "rab": 8001,
      "noÅĽ": 8002,
      "lara": 8003,
      "Ġkore": 8004,
      "ĠMaÅĤ": 8005,
      "turÄĻ": 8006,
      "wieniem": 8007,
      "ĠCasino": 8008,
      "razu": 8009,
      "ĠRam": 8010,
      "ĠRich": 8011,
      "ĠDro": 8012,
      "ĠinnÄħ": 8013,
      "Ġchcieli": 8014,
      "Ġlikwi": 8015,
      "Ġgodz": 8016,
      "Ġhiszpa": 8017,
      "aÅĤoÅĽÄĩ": 8018,
      "ĠEx": 8019,
      "Ġtymczas": 8020,
      "formaty": 8021,
      "Ġwarszt": 8022,
      "ralnie": 8023,
      "ĠjednakÅ¼e": 8024,
      "Ġnazwy": 8025,
      "933": 8026,
      "ĠCzerwo": 8027,
      "ĠÅ¼yciem": 8028,
      "Ġdawno": 8029,
      "Ġdokumenty": 8030,
      "Ġstarego": 8031,
      "ĠbezpieczeÅĦstwo": 8032,
      "ĠzajÄĻcia": 8033,
      "ĠwspÃ³lnie": 8034,
      "ĠpiÅĤkar": 8035,
      "Ġkrwa": 8036,
      "ĠKrÃ³le": 8037,
      "ĠmÄĻÅ¼czy": 8038,
      "Ġzmienianej": 8039,
      "Ġstraszli": 8040,
      "letnich": 8041,
      "Ġwsparcie": 8042,
      "ĠrzeczywistoÅĽci": 8043,
      "ĠMazari": 8044,
      "sprawie": 8045,
      "Ġdyrektora": 8046,
      "Ġzechce": 8047,
      "ĠWentzel": 8048,
      "ĠprawidÅĤ": 8049,
      "ĠZSRR": 8050,
      "Warszawa": 8051,
      "ĠLarrabee": 8052,
      "ĠrÃ³": 8053,
      "Mist": 8054,
      "Odzna": 8055,
      "Tym": 8056,
      "Wier": 8057,
      "pow": 8058,
      "van": 8059,
      "Ã¨": 8060,
      "ĠwnÄĻtrz": 8061,
      "nieniem": 8062,
      "Ġopa": 8063,
      "Ġmen": 8064,
      "nezji": 8065,
      "ĠbÃ³": 8066,
      "cili": 8067,
      "cisk": 8068,
      "kam": 8069,
      "ĠdodaÄĩ": 8070,
      "ĠdokoÅĤa": 8071,
      "lacjÄĻ": 8072,
      "Ġprzechodzi": 8073,
      "Ġkoszy": 8074,
      "ĠMil": 8075,
      "mieÅĦ": 8076,
      "ĠOgÃ³l": 8077,
      "ĠOtÃ³Å¼": 8078,
      "ĠmiarÄĻ": 8079,
      "Ġstowarzy": 8080,
      "Ġwierzy": 8081,
      "ĠGri": 8082,
      "ostÄĻp": 8083,
      "Ġewi": 8084,
      "styki": 8085,
      "ĠEIPPCB": 8086,
      "Ġstal": 8087,
      "ĠdziesiÄħ": 8088,
      "Ġogar": 8089,
      "ĠStre": 8090,
      "niÄħc": 8091,
      "dÅºmi": 8092,
      "ĠsiÃ³d": 8093,
      "Ġchwila": 8094,
      "Ġrodzin": 8095,
      "Ġwielka": 8096,
      "ĠkarierÄĻ": 8097,
      "965": 8098,
      "952": 8099,
      "959": 8100,
      "Ġwspina": 8101,
      "Ġlokalnych": 8102,
      "ĠjÄĻzykÃ³w": 8103,
      "Ġlipcu": 8104,
      "ĠLubli": 8105,
      "ĠMuzy": 8106,
      "Ġsezon": 8107,
      "iÄĻkszoÅĽÄĩ": 8108,
      "ĠSzkole": 8109,
      "Ġkorzyst": 8110,
      "Ġklimaty": 8111,
      "Ġnazywa": 8112,
      "Ġtransport": 8113,
      "Ġnazwiska": 8114,
      "ĠczoÅĤo": 8115,
      "ĠnajwaÅ¼niejszych": 8116,
      "ĠÅĽciany": 8117,
      "Ġdwuk": 8118,
      "Ġszlachet": 8119,
      "Ġregularnie": 8120,
      "ĠRepubliki": 8121,
      "Ġrejestracji": 8122,
      "Ġasyst": 8123,
      "Ġkandydat": 8124,
      "Ġprofesora": 8125,
      "ĠpodlegaÅĤa": 8126,
      "ĠRosyjskiego": 8127,
      "ĠTrybuna": 8128,
      "ĠPoczÄħtkowo": 8129,
      "Ġvi": 8130,
      "600": 8131,
      "Jo": 8132,
      "ben": 8133,
      "gl": 8134,
      "hil": 8135,
      "ore": 8136,
      "wek": 8137,
      "ÅĤej": 8138,
      "ĠzgÅĤa": 8139,
      "Ġdam": 8140,
      "ĠpoÅ¼e": 8141,
      "Ġpopro": 8142,
      "gon": 8143,
      "ĠukazaÅĤ": 8144,
      "Ġnieja": 8145,
      "ĠprzepÅĤy": 8146,
      "dae": 8147,
      "ĠWor": 8148,
      "Ġkoni": 8149,
      "Ġprzydat": 8150,
      "ĠBun": 8151,
      "Å¼yÅĤy": 8152,
      "ĠAnt": 8153,
      "Ġfrag": 8154,
      "Ġobni": 8155,
      "ĠOpera": 8156,
      "Ġcherso": 8157,
      "ĠGer": 8158,
      "ĠGale": 8159,
      "ĠludÅºmi": 8160,
      "ĠmiesiÄĻ": 8161,
      "dol": 8162,
      "Ġlista": 8163,
      "Ġczyni": 8164,
      "Ġranki": 8165,
      "Ġnajpo": 8166,
      "Ġlewo": 8167,
      "dzonej": 8168,
      "Ġkoncent": 8169,
      "nikach": 8170,
      "edÅĤ": 8171,
      "Ġskrom": 8172,
      "Ġmecz": 8173,
      "Ġgrudniu": 8174,
      "przestrze": 8175,
      "siada": 8176,
      "ĠVI": 8177,
      "ĠrÃ³Å¼nymi": 8178,
      "Ġpiechoty": 8179,
      "Ġbrata": 8180,
      "Ġtworzenia": 8181,
      "ĠÅģuka": 8182,
      "ĠprowadziÅĤ": 8183,
      "ĠPrac": 8184,
      "ĠJeden": 8185,
      "ĠTade": 8186,
      "ĠzrobiÅĤ": 8187,
      "Ġprzyjdzie": 8188,
      "metry": 8189,
      "ĠgÅĤÄĻbi": 8190,
      "Ġkoniecznie": 8191
    },
    "merges": [
      [
        "i",
        "e"
      ],
      [
        "Å",
        "Ĥ"
      ],
      [
        "Ġ",
        "p"
      ],
      [
        "Ġ",
        "w"
      ],
      [
        "Ġ",
        "s"
      ],
      [
        "Ä",
        "Ļ"
      ],
      [
        "Ġ",
        "z"
      ],
      [
        "n",
        "a"
      ],
      [
        "o",
        "w"
      ],
      [
        "Ä",
        "ħ"
      ],
      [
        "n",
        "i"
      ],
      [
        "r",
        "z"
      ],
      [
        "c",
        "h"
      ],
      [
        "c",
        "z"
      ],
      [
        "s",
        "t"
      ],
      [
        "n",
        "ie"
      ],
      [
        "Ã",
        "³"
      ],
      [
        "Ġ",
        "d"
      ],
      [
        "r",
        "a"
      ],
      [
        "Å",
        "¼"
      ],
      [
        "Ġ",
        "o"
      ],
      [
        "Ġ",
        "t"
      ],
      [
        "Ġ",
        "m"
      ],
      [
        "Å",
        "Ľ"
      ],
      [
        "r",
        "o"
      ],
      [
        "Ġ",
        "k"
      ],
      [
        "Ġ",
        "i"
      ],
      [
        "s",
        "z"
      ],
      [
        "Ġ",
        "na"
      ],
      [
        "d",
        "z"
      ],
      [
        "n",
        "e"
      ],
      [
        "Ġp",
        "o"
      ],
      [
        "a",
        "ÅĤ"
      ],
      [
        "n",
        "y"
      ],
      [
        "g",
        "o"
      ],
      [
        "â",
        "Ģ"
      ],
      [
        "l",
        "i"
      ],
      [
        "j",
        "e"
      ],
      [
        "i",
        "ÄĻ"
      ],
      [
        "rz",
        "e"
      ],
      [
        "l",
        "e"
      ],
      [
        "a",
        "r"
      ],
      [
        "Ġ",
        "b"
      ],
      [
        "c",
        "i"
      ],
      [
        "Ä",
        "ĩ"
      ],
      [
        "k",
        "a"
      ],
      [
        "Ġd",
        "o"
      ],
      [
        "r",
        "e"
      ],
      [
        "Ġz",
        "a"
      ],
      [
        "Ã³",
        "w"
      ],
      [
        "a",
        "t"
      ],
      [
        "k",
        "i"
      ],
      [
        "m",
        "i"
      ],
      [
        "Ġ",
        "u"
      ],
      [
        "ni",
        "a"
      ],
      [
        "k",
        "o"
      ],
      [
        "rz",
        "y"
      ],
      [
        "Ġs",
        "iÄĻ"
      ],
      [
        "n",
        "o"
      ],
      [
        "j",
        "a"
      ],
      [
        "Ġ",
        "nie"
      ],
      [
        "Ġ",
        "je"
      ],
      [
        "ow",
        "a"
      ],
      [
        "ÅĤ",
        "a"
      ],
      [
        "Ġ",
        "a"
      ],
      [
        "Ġw",
        "y"
      ],
      [
        "w",
        "a"
      ],
      [
        "e",
        "r"
      ],
      [
        "Å¼",
        "e"
      ],
      [
        "c",
        "e"
      ],
      [
        "j",
        "Äħ"
      ],
      [
        "l",
        "a"
      ],
      [
        "Ġ",
        "P"
      ],
      [
        "Ġp",
        "rze"
      ],
      [
        "o",
        "r"
      ],
      [
        "w",
        "i"
      ],
      [
        "t",
        "a"
      ],
      [
        "k",
        "u"
      ],
      [
        "e",
        "m"
      ],
      [
        "Ġ",
        "g"
      ],
      [
        "k",
        "ie"
      ],
      [
        "ÅĤ",
        "o"
      ],
      [
        "c",
        "y"
      ],
      [
        "t",
        "y"
      ],
      [
        "Ġ",
        "ro"
      ],
      [
        "d",
        "a"
      ],
      [
        "Ġ",
        "W"
      ],
      [
        "ÅĽ",
        "ci"
      ],
      [
        "r",
        "y"
      ],
      [
        "cz",
        "y"
      ],
      [
        "w",
        "o"
      ],
      [
        "Å",
        "Ħ"
      ],
      [
        "e",
        "n"
      ],
      [
        "c",
        "ie"
      ],
      [
        "d",
        "y"
      ],
      [
        "p",
        "o"
      ],
      [
        "Ġo",
        "d"
      ],
      [
        "dz",
        "i"
      ],
      [
        "âĢ",
        "Ķ"
      ],
      [
        "Ġ",
        "S"
      ],
      [
        "cz",
        "e"
      ],
      [
        "Ġk",
        "o"
      ],
      [
        "ny",
        "ch"
      ],
      [
        "st",
        "a"
      ],
      [
        "i",
        "a"
      ],
      [
        "e",
        "go"
      ],
      [
        "dz",
        "ie"
      ],
      [
        "t",
        "Ã³"
      ],
      [
        "Ġ",
        "M"
      ],
      [
        "t",
        "o"
      ],
      [
        "e",
        "j"
      ],
      [
        "b",
        "y"
      ],
      [
        "Ġ",
        "ja"
      ],
      [
        "r",
        "u"
      ],
      [
        "l",
        "u"
      ],
      [
        "c",
        "j"
      ],
      [
        "t",
        "u"
      ],
      [
        "w",
        "ie"
      ],
      [
        "a",
        "m"
      ],
      [
        "Ġk",
        "tÃ³"
      ],
      [
        "Ġm",
        "o"
      ],
      [
        "ow",
        "y"
      ],
      [
        "a",
        "n"
      ],
      [
        "Ġp",
        "rzy"
      ],
      [
        "sz",
        "y"
      ],
      [
        "l",
        "o"
      ],
      [
        "Ġ",
        "K"
      ],
      [
        "Ġ",
        "B"
      ],
      [
        "Ġb",
        "y"
      ],
      [
        "Ġt",
        "o"
      ],
      [
        "Å¼",
        "y"
      ],
      [
        "Ġ",
        "A"
      ],
      [
        "a",
        "s"
      ],
      [
        "r",
        "Ã³"
      ],
      [
        "Ġ",
        "N"
      ],
      [
        "Ġ",
        "Å¼e"
      ],
      [
        "Ġ",
        "c"
      ],
      [
        "m",
        "a"
      ],
      [
        "Ġt",
        "y"
      ],
      [
        "Ġ",
        "C"
      ],
      [
        "z",
        "y"
      ],
      [
        "t",
        "e"
      ],
      [
        "âĢ",
        "ī"
      ],
      [
        "aÅĤ",
        "a"
      ],
      [
        "m",
        "ie"
      ],
      [
        "Ġ",
        "cz"
      ],
      [
        "Ġje",
        "st"
      ],
      [
        "c",
        "a"
      ],
      [
        "n",
        "Äħ"
      ],
      [
        "Ġ",
        "T"
      ],
      [
        "ra",
        "z"
      ],
      [
        "s",
        "ki"
      ],
      [
        "ow",
        "ie"
      ],
      [
        "cj",
        "i"
      ],
      [
        "ÅĤ",
        "u"
      ],
      [
        "a",
        "k"
      ],
      [
        "Ġpo",
        "d"
      ],
      [
        "Ġ",
        "f"
      ],
      [
        "ÅĤ",
        "y"
      ],
      [
        "o",
        "b"
      ],
      [
        "Ġ",
        "Z"
      ],
      [
        "Ġs",
        "z"
      ],
      [
        "ÅĽ",
        "Äĩ"
      ],
      [
        "Ġ",
        "R"
      ],
      [
        "s",
        "i"
      ],
      [
        "Ġo",
        "b"
      ],
      [
        "ne",
        "j"
      ],
      [
        "m",
        "y"
      ],
      [
        "Ġ",
        "D"
      ],
      [
        "Ġ",
        "O"
      ],
      [
        "p",
        "i"
      ],
      [
        "s",
        "kie"
      ],
      [
        "Ġm",
        "i"
      ],
      [
        "Ġ",
        "ÅĽ"
      ],
      [
        "w",
        "y"
      ],
      [
        "d",
        "u"
      ],
      [
        "Ġi",
        "n"
      ],
      [
        "Ġd",
        "z"
      ],
      [
        "Ġro",
        "z"
      ],
      [
        "Ġ",
        "J"
      ],
      [
        "g",
        "a"
      ],
      [
        "ow",
        "i"
      ],
      [
        "âĢ",
        "ĵ"
      ],
      [
        "ne",
        "go"
      ],
      [
        "Ġs",
        "t"
      ],
      [
        "Ġ",
        "ch"
      ],
      [
        "o",
        "n"
      ],
      [
        "ny",
        "m"
      ],
      [
        "z",
        "a"
      ],
      [
        "p",
        "a"
      ],
      [
        "Ġw",
        "ie"
      ],
      [
        "ĠP",
        "o"
      ],
      [
        "g",
        "i"
      ],
      [
        "e",
        "k"
      ],
      [
        "sz",
        "e"
      ],
      [
        "Ġp",
        "ro"
      ],
      [
        ".",
        "."
      ],
      [
        "Ġ",
        "G"
      ],
      [
        "Ġ",
        "ni"
      ],
      [
        "Â",
        "ł"
      ],
      [
        "Ġt",
        "e"
      ],
      [
        "0",
        "0"
      ],
      [
        "m",
        "u"
      ],
      [
        "Ġp",
        "a"
      ],
      [
        "b",
        "i"
      ],
      [
        "Ġs",
        "p"
      ],
      [
        "Ġ",
        "re"
      ],
      [
        "Ġp",
        "ra"
      ],
      [
        "Ġ",
        "lu"
      ],
      [
        "Ġm",
        "ie"
      ],
      [
        "Å",
        "º"
      ],
      [
        "Ġja",
        "k"
      ],
      [
        "Ġm",
        "a"
      ],
      [
        "d",
        "o"
      ],
      [
        "Ġ",
        "I"
      ],
      [
        "ni",
        "u"
      ],
      [
        "Ġ",
        "L"
      ],
      [
        "Ġ",
        "li"
      ],
      [
        "o",
        "st"
      ],
      [
        "u",
        "n"
      ],
      [
        "Ġprze",
        "z"
      ],
      [
        "Ġ",
        "r"
      ],
      [
        "ow",
        "o"
      ],
      [
        "nie",
        "j"
      ],
      [
        "e",
        "z"
      ],
      [
        "ie",
        "r"
      ],
      [
        "i",
        "l"
      ],
      [
        "Ġc",
        "o"
      ],
      [
        "j",
        "u"
      ],
      [
        "Ġ",
        "e"
      ],
      [
        "Ġ",
        "go"
      ],
      [
        "Ġje",
        "d"
      ],
      [
        "a",
        "l"
      ],
      [
        "k",
        "t"
      ],
      [
        "s",
        "y"
      ],
      [
        "s",
        "ka"
      ],
      [
        "b",
        "ie"
      ],
      [
        "ch",
        "o"
      ],
      [
        "k",
        "Ã³w"
      ],
      [
        "aÅĤ",
        "y"
      ],
      [
        "m",
        "o"
      ],
      [
        "p",
        "ie"
      ],
      [
        "âĢī",
        "âĢĶ"
      ],
      [
        "d",
        "e"
      ],
      [
        "i",
        "n"
      ],
      [
        "Ġt",
        "ak"
      ],
      [
        "no",
        "ÅĽci"
      ],
      [
        "ĠktÃ³",
        "re"
      ],
      [
        "ow",
        "e"
      ],
      [
        "dz",
        "e"
      ],
      [
        "st",
        "y"
      ],
      [
        "d",
        "ni"
      ],
      [
        "s",
        "a"
      ],
      [
        "c",
        "ja"
      ],
      [
        "Ġ",
        "h"
      ],
      [
        "j",
        "ÄĻ"
      ],
      [
        "ĠktÃ³",
        "ry"
      ],
      [
        "Ġd",
        "la"
      ],
      [
        "Ġw",
        "i"
      ],
      [
        "aÅĤ",
        "o"
      ],
      [
        "Ġ",
        "E"
      ],
      [
        "ÄĻ",
        "p"
      ],
      [
        "owy",
        "ch"
      ],
      [
        "Ġz",
        "na"
      ],
      [
        "e",
        "t"
      ],
      [
        "Ã³",
        "ÅĤ"
      ],
      [
        "âĢ",
        "ŀ"
      ],
      [
        "Ġ",
        "Ġ"
      ],
      [
        "u",
        "r"
      ],
      [
        "Ġ",
        "U"
      ],
      [
        "Ġs",
        "ta"
      ],
      [
        "jÄħ",
        "c"
      ],
      [
        "Ġro",
        "ku"
      ],
      [
        "Ġ",
        "F"
      ],
      [
        "ow",
        "ej"
      ],
      [
        "p",
        "e"
      ],
      [
        "o",
        "s"
      ],
      [
        "Ġ",
        "Å"
      ],
      [
        "Ġs",
        "po"
      ],
      [
        "st",
        "ÄĻp"
      ],
      [
        "Ġw",
        "o"
      ],
      [
        "l",
        "at"
      ],
      [
        "rz",
        "Äħ"
      ],
      [
        "Ġ",
        "czy"
      ],
      [
        "Ġo",
        "raz"
      ],
      [
        "âĢ",
        "Ŀ"
      ],
      [
        "0",
        "1"
      ],
      [
        "sz",
        "a"
      ],
      [
        "b",
        "a"
      ],
      [
        "Ġz",
        "e"
      ],
      [
        "cz",
        "Äħ"
      ],
      [
        "s",
        "p"
      ],
      [
        "Ġt",
        "a"
      ],
      [
        "Ġs",
        "Äħ"
      ],
      [
        "Ġ",
        "ra"
      ],
      [
        "Ġna",
        "j"
      ],
      [
        "s",
        "u"
      ],
      [
        "Ġk",
        "a"
      ],
      [
        "n",
        "t"
      ],
      [
        "cz",
        "a"
      ],
      [
        "cz",
        "o"
      ],
      [
        "b",
        "o"
      ],
      [
        "f",
        "i"
      ],
      [
        "ĠN",
        "a"
      ],
      [
        "wi",
        "a"
      ],
      [
        "Ġdz",
        "ie"
      ],
      [
        "g",
        "u"
      ],
      [
        "Ġ",
        "le"
      ],
      [
        "s",
        "k"
      ],
      [
        "g",
        "ra"
      ],
      [
        "Ġm",
        "u"
      ],
      [
        "Ġprze",
        "d"
      ],
      [
        "s",
        "ie"
      ],
      [
        "Ġ",
        "n"
      ],
      [
        "Ġ",
        "H"
      ],
      [
        "Ġd",
        "a"
      ],
      [
        "st",
        "o"
      ],
      [
        "ar",
        "t"
      ],
      [
        "Ġty",
        "m"
      ],
      [
        "Ġd",
        "e"
      ],
      [
        "jÄħ",
        "cy"
      ],
      [
        "Ġs",
        "am"
      ],
      [
        "k",
        "ÅĤa"
      ],
      [
        "m",
        "en"
      ],
      [
        "ro",
        "d"
      ],
      [
        "Ġdz",
        "i"
      ],
      [
        "z",
        "na"
      ],
      [
        "n",
        "ÄĻ"
      ],
      [
        "p",
        "ra"
      ],
      [
        "szy",
        "st"
      ],
      [
        "b",
        "u"
      ],
      [
        "Ġz",
        "ost"
      ],
      [
        "p",
        "u"
      ],
      [
        "Ġlu",
        "b"
      ],
      [
        "ci",
        "a"
      ],
      [
        "r",
        "owa"
      ],
      [
        "dz",
        "o"
      ],
      [
        "Ġa",
        "le"
      ],
      [
        "nie",
        "m"
      ],
      [
        "Ġb",
        "ÄĻ"
      ],
      [
        "kie",
        "m"
      ],
      [
        "l",
        "ko"
      ],
      [
        "skie",
        "j"
      ],
      [
        "j",
        "s"
      ],
      [
        "ÅĽ",
        "li"
      ],
      [
        "Ġko",
        "n"
      ],
      [
        "Ã",
        "©"
      ],
      [
        "k",
        "re"
      ],
      [
        "skie",
        "go"
      ],
      [
        "r",
        "ia"
      ],
      [
        "Ġw",
        "iÄĻ"
      ],
      [
        "u",
        "m"
      ],
      [
        "Ġw",
        "z"
      ],
      [
        "ra",
        "n"
      ],
      [
        "w",
        "Ã³"
      ],
      [
        "Å¼",
        "a"
      ],
      [
        "ĠN",
        "ie"
      ],
      [
        "Ġb",
        "ez"
      ],
      [
        "Ġ",
        "ju"
      ],
      [
        "i",
        "o"
      ],
      [
        "Ġ",
        "lat"
      ],
      [
        "Ġw",
        "szyst"
      ],
      [
        "Ġ",
        "ce"
      ],
      [
        "w",
        "e"
      ],
      [
        "Âł",
        "Âł"
      ],
      [
        "s",
        "o"
      ],
      [
        "Ġby",
        "ÅĤ"
      ],
      [
        "Ġ",
        "Å¼y"
      ],
      [
        "cy",
        "j"
      ],
      [
        "ni",
        "ka"
      ],
      [
        "at",
        "y"
      ],
      [
        "Ġ",
        "rze"
      ],
      [
        "e",
        "d"
      ],
      [
        "Ġs",
        "wo"
      ],
      [
        "Ġje",
        "go"
      ],
      [
        "ow",
        "ego"
      ],
      [
        "wi",
        "Äħ"
      ],
      [
        "z",
        "u"
      ],
      [
        "at",
        "ego"
      ],
      [
        "dzi",
        "aÅĤ"
      ],
      [
        "b",
        "li"
      ],
      [
        "n",
        "u"
      ],
      [
        "Ġmo",
        "Å¼e"
      ],
      [
        "ch",
        "a"
      ],
      [
        "Ġpo",
        "z"
      ],
      [
        "sz",
        "cze"
      ],
      [
        "Ġ",
        "ci"
      ],
      [
        "ĠK",
        "o"
      ],
      [
        "ow",
        "aÅĤ"
      ],
      [
        "r",
        "ÄĻ"
      ],
      [
        "jÄħ",
        "ce"
      ],
      [
        "Å¼",
        "o"
      ],
      [
        "ÅĦ",
        "st"
      ],
      [
        "Ġcz",
        "as"
      ],
      [
        "0",
        "2"
      ],
      [
        "c",
        "o"
      ],
      [
        "n",
        "d"
      ],
      [
        "c",
        "u"
      ],
      [
        "Ġt",
        "ego"
      ],
      [
        "rÃ³",
        "d"
      ],
      [
        "Ġs",
        "to"
      ],
      [
        "j",
        "i"
      ],
      [
        "Ġmie",
        "js"
      ],
      [
        "s",
        "po"
      ],
      [
        "atego",
        "ria"
      ],
      [
        "ÅĽ",
        "cie"
      ],
      [
        "e",
        "l"
      ],
      [
        "dz",
        "a"
      ],
      [
        "k",
        "Äħ"
      ],
      [
        "P",
        "o"
      ],
      [
        "f",
        "or"
      ],
      [
        "a",
        "ch"
      ],
      [
        "no",
        "ÅĽÄĩ"
      ],
      [
        "K",
        "ategoria"
      ],
      [
        "|",
        "|"
      ],
      [
        "Ġw",
        "ÅĤa"
      ],
      [
        "er",
        "y"
      ],
      [
        "Ġp",
        "owie"
      ],
      [
        "Ġp",
        "e"
      ],
      [
        "l",
        "ÄĻ"
      ],
      [
        "k",
        "ÄĻ"
      ],
      [
        "r",
        "i"
      ],
      [
        "ÅĤ",
        "Äħ"
      ],
      [
        "ski",
        "m"
      ],
      [
        "cz",
        "ne"
      ],
      [
        "owa",
        "nia"
      ],
      [
        "ĠC",
        "h"
      ],
      [
        "Ġty",
        "lko"
      ],
      [
        "Ġju",
        "Å¼"
      ],
      [
        ")",
        "."
      ],
      [
        "Ġb",
        "ar"
      ],
      [
        "rz",
        "a"
      ],
      [
        "dz",
        "y"
      ],
      [
        "Ġs",
        "ie"
      ],
      [
        "mi",
        "a"
      ],
      [
        "pa",
        "d"
      ],
      [
        "owa",
        "Äĩ"
      ],
      [
        "..",
        "."
      ],
      [
        "ier",
        "w"
      ],
      [
        "s",
        "iÄĻ"
      ],
      [
        "Ġb",
        "o"
      ],
      [
        "Ġpo",
        "t"
      ],
      [
        "Ġp",
        "i"
      ],
      [
        "Ġu",
        "sta"
      ],
      [
        "rÃ³",
        "Å¼"
      ],
      [
        "cz",
        "ÄĻ"
      ],
      [
        "Ġg",
        "dy"
      ],
      [
        "u",
        "t"
      ],
      [
        "c",
        "je"
      ],
      [
        "Ġf",
        "i"
      ],
      [
        "cz",
        "as"
      ],
      [
        "ki",
        "ch"
      ],
      [
        "Ġs",
        "y"
      ],
      [
        "Ġja",
        "ko"
      ],
      [
        "d",
        "nie"
      ],
      [
        "ĠZ",
        "a"
      ],
      [
        "or",
        "y"
      ],
      [
        "Ġ",
        "lo"
      ],
      [
        "ÅĤ",
        "em"
      ],
      [
        "Ġsp",
        "ra"
      ],
      [
        "ĠM",
        "i"
      ],
      [
        "Ġr",
        "Ã³w"
      ],
      [
        "s",
        "ko"
      ],
      [
        "p",
        "y"
      ],
      [
        "Ġmo",
        "Å¼"
      ],
      [
        "l",
        "Äħ"
      ],
      [
        "u",
        "d"
      ],
      [
        "Ġa",
        "by"
      ],
      [
        "w",
        "iÄĻ"
      ],
      [
        "ni",
        "ÄĻ"
      ],
      [
        "ĠPo",
        "l"
      ],
      [
        "Ġod",
        "p"
      ],
      [
        "Ġp",
        "ow"
      ],
      [
        "ar",
        "y"
      ],
      [
        "t",
        "Ã³w"
      ],
      [
        "ski",
        "ch"
      ],
      [
        "cz",
        "nych"
      ],
      [
        "Ġs",
        "ob"
      ],
      [
        "at",
        "a"
      ],
      [
        ")",
        ","
      ],
      [
        "Ġo",
        "s"
      ],
      [
        "cj",
        "ÄĻ"
      ],
      [
        "h",
        "e"
      ],
      [
        "Ġg",
        "ÅĤ"
      ],
      [
        "Ġt",
        "u"
      ],
      [
        "z",
        "e"
      ],
      [
        "w",
        "aÅĤ"
      ],
      [
        "Ġw",
        "e"
      ],
      [
        "Ġje",
        "j"
      ],
      [
        "Ġmo",
        "g"
      ],
      [
        "o",
        "na"
      ],
      [
        "si",
        "Äħ"
      ],
      [
        "ni",
        "k"
      ],
      [
        "Ġs",
        "k"
      ],
      [
        "cz",
        "nie"
      ],
      [
        "Ġo",
        "g"
      ],
      [
        "Ġm",
        "e"
      ],
      [
        "r",
        "Äħ"
      ],
      [
        "Ġk",
        "u"
      ],
      [
        "9",
        "9"
      ],
      [
        "Ġby",
        "ÅĤo"
      ],
      [
        "owy",
        "m"
      ],
      [
        "Ã³",
        "l"
      ],
      [
        "ĠW",
        "y"
      ],
      [
        "Ġtak",
        "Å¼e"
      ],
      [
        "Ġi",
        "ch"
      ],
      [
        "ĠbÄĻ",
        "dzie"
      ],
      [
        "ki",
        "m"
      ],
      [
        "Ġp",
        "an"
      ],
      [
        "owa",
        "nie"
      ],
      [
        "u",
        "ro"
      ],
      [
        "ĠJ",
        "e"
      ],
      [
        "Ġ",
        "no"
      ],
      [
        "Ġg",
        "ru"
      ],
      [
        "âĢ",
        "¦"
      ],
      [
        "ĠP",
        "a"
      ],
      [
        "le",
        "j"
      ],
      [
        "ni",
        "o"
      ],
      [
        "na",
        "k"
      ],
      [
        "t",
        "er"
      ],
      [
        "Ġcz",
        "ÄĻ"
      ],
      [
        "Ġ",
        "cie"
      ],
      [
        "Ġm",
        "nie"
      ],
      [
        "b",
        "ra"
      ],
      [
        "n",
        "g"
      ],
      [
        "Ã³",
        "b"
      ],
      [
        "ow",
        "Äħ"
      ],
      [
        "Ġw",
        "ar"
      ],
      [
        "Ġg",
        "ra"
      ],
      [
        "Ġp",
        "ierw"
      ],
      [
        "c",
        "Ã³w"
      ],
      [
        "Ġby",
        "Äĩ"
      ],
      [
        "w",
        "ar"
      ],
      [
        "Ġna",
        "d"
      ],
      [
        "Ġb",
        "i"
      ],
      [
        "cz",
        "nej"
      ],
      [
        "Ġd",
        "ru"
      ],
      [
        "dze",
        "nia"
      ],
      [
        "i",
        "i"
      ],
      [
        "Ġk",
        "ie"
      ],
      [
        "ni",
        "st"
      ],
      [
        "t",
        "rzy"
      ],
      [
        "en",
        "t"
      ],
      [
        "Ġst",
        "ro"
      ],
      [
        "sz",
        "Äħ"
      ],
      [
        "ĠR",
        "o"
      ],
      [
        "c",
        "t"
      ],
      [
        "Ġt",
        "en"
      ],
      [
        "d",
        "Äħ"
      ],
      [
        "o",
        "sta"
      ],
      [
        "nie",
        "Å¼"
      ],
      [
        "Ã³",
        "r"
      ],
      [
[...]
